{
  "version": "1.0",
  "truncation": null,
  "padding": null,
  "added_tokens": [
    {
      "id": 0,
      "content": "[PAD]",
      "single_word": false,
      "lstrip": false,
      "rstrip": false,
      "normalized": false,
      "special": true
    },
    {
      "id": 1,
      "content": "[UNK]",
      "single_word": false,
      "lstrip": false,
      "rstrip": false,
      "normalized": false,
      "special": true
    },
    {
      "id": 2,
      "content": "[CLS]",
      "single_word": false,
      "lstrip": false,
      "rstrip": false,
      "normalized": false,
      "special": true
    },
    {
      "id": 3,
      "content": "[SEP]",
      "single_word": false,
      "lstrip": false,
      "rstrip": false,
      "normalized": false,
      "special": true
    },
    {
      "id": 4,
      "content": "[MASK]",
      "single_word": false,
      "lstrip": false,
      "rstrip": false,
      "normalized": false,
      "special": true
    },
    {
      "id": 5,
      "content": "<|padding|>",
      "single_word": false,
      "lstrip": false,
      "rstrip": false,
      "normalized": false,
      "special": true
    },
    {
      "id": 6,
      "content": "<|endoftext|>",
      "single_word": false,
      "lstrip": false,
      "rstrip": false,
      "normalized": false,
      "special": true
    },
    {
      "id": 7,
      "content": "|||IP_ADDRESS|||",
      "single_word": false,
      "lstrip": false,
      "rstrip": false,
      "normalized": false,
      "special": true
    },
    {
      "id": 8,
      "content": "|||EMAIL_ADDRESS|||",
      "single_word": false,
      "lstrip": false,
      "rstrip": false,
      "normalized": false,
      "special": true
    },
    {
      "id": 9,
      "content": "|||PHONE_NUMBER|||",
      "single_word": false,
      "lstrip": false,
      "rstrip": false,
      "normalized": false,
      "special": true
    }
  ],
  "normalizer": {
    "type": "BertNormalizer",
    "clean_text": true,
    "handle_chinese_chars": true,
    "strip_accents": null,
    "lowercase": false
  },
  "pre_tokenizer": {
    "type": "BertPreTokenizer"
  },
  "post_processor": null,
  "decoder": {
    "type": "WordPiece",
    "prefix": "##",
    "cleanup": true
  },
  "model": {
    "type": "WordPiece",
    "unk_token": "[UNK]",
    "continuing_subword_prefix": "##",
    "max_input_chars_per_word": 100,
    "vocab": {
      "[PAD]": 0,
      "[UNK]": 1,
      "[CLS]": 2,
      "[SEP]": 3,
      "[MASK]": 4,
      "<|padding|>": 5,
      "<|endoftext|>": 6,
      "|||IP_ADDRESS|||": 7,
      "|||EMAIL_ADDRESS|||": 8,
      "|||PHONE_NUMBER|||": 9,
      "!": 10,
      "\"": 11,
      "#": 12,
      "$": 13,
      "%": 14,
      "&": 15,
      "'": 16,
      "(": 17,
      ")": 18,
      "*": 19,
      "+": 20,
      ",": 21,
      "-": 22,
      ".": 23,
      "/": 24,
      "0": 25,
      "1": 26,
      "2": 27,
      "3": 28,
      "4": 29,
      "5": 30,
      "6": 31,
      "7": 32,
      "8": 33,
      "9": 34,
      ":": 35,
      ";": 36,
      "<": 37,
      "=": 38,
      ">": 39,
      "?": 40,
      "@": 41,
      "A": 42,
      "B": 43,
      "C": 44,
      "D": 45,
      "E": 46,
      "F": 47,
      "G": 48,
      "H": 49,
      "I": 50,
      "J": 51,
      "K": 52,
      "L": 53,
      "M": 54,
      "N": 55,
      "O": 56,
      "P": 57,
      "Q": 58,
      "R": 59,
      "S": 60,
      "T": 61,
      "U": 62,
      "V": 63,
      "W": 64,
      "X": 65,
      "Y": 66,
      "Z": 67,
      "[": 68,
      "\\": 69,
      "]": 70,
      "^": 71,
      "_": 72,
      "`": 73,
      "a": 74,
      "b": 75,
      "c": 76,
      "d": 77,
      "e": 78,
      "f": 79,
      "g": 80,
      "h": 81,
      "i": 82,
      "j": 83,
      "k": 84,
      "l": 85,
      "m": 86,
      "n": 87,
      "o": 88,
      "p": 89,
      "q": 90,
      "r": 91,
      "s": 92,
      "t": 93,
      "u": 94,
      "v": 95,
      "w": 96,
      "x": 97,
      "y": 98,
      "z": 99,
      "{": 100,
      "|": 101,
      "}": 102,
      "~": 103,
      "¡": 104,
      "¢": 105,
      "£": 106,
      "¤": 107,
      "¥": 108,
      "¦": 109,
      "§": 110,
      "¨": 111,
      "©": 112,
      "ª": 113,
      "«": 114,
      "¬": 115,
      "®": 116,
      "¯": 117,
      "°": 118,
      "±": 119,
      "²": 120,
      "³": 121,
      "´": 122,
      "µ": 123,
      "¶": 124,
      "·": 125,
      "¸": 126,
      "¹": 127,
      "º": 128,
      "»": 129,
      "¼": 130,
      "½": 131,
      "¾": 132,
      "¿": 133,
      "À": 134,
      "Á": 135,
      "Â": 136,
      "Ã": 137,
      "Ä": 138,
      "Å": 139,
      "Æ": 140,
      "Ç": 141,
      "È": 142,
      "É": 143,
      "Ê": 144,
      "Ë": 145,
      "Ì": 146,
      "Í": 147,
      "Î": 148,
      "Ï": 149,
      "Ð": 150,
      "Ñ": 151,
      "Ò": 152,
      "Ó": 153,
      "Ô": 154,
      "Õ": 155,
      "Ö": 156,
      "×": 157,
      "Ø": 158,
      "Ù": 159,
      "Ú": 160,
      "Û": 161,
      "Ü": 162,
      "Þ": 163,
      "ß": 164,
      "à": 165,
      "á": 166,
      "â": 167,
      "ã": 168,
      "ä": 169,
      "å": 170,
      "æ": 171,
      "ç": 172,
      "è": 173,
      "é": 174,
      "ê": 175,
      "ë": 176,
      "ì": 177,
      "í": 178,
      "î": 179,
      "ï": 180,
      "ð": 181,
      "ñ": 182,
      "ò": 183,
      "ó": 184,
      "ô": 185,
      "õ": 186,
      "ö": 187,
      "÷": 188,
      "ø": 189,
      "ù": 190,
      "ú": 191,
      "û": 192,
      "ü": 193,
      "ý": 194,
      "þ": 195,
      "ÿ": 196,
      "Ā": 197,
      "ā": 198,
      "ă": 199,
      "ą": 200,
      "ć": 201,
      "ĉ": 202,
      "Č": 203,
      "č": 204,
      "Đ": 205,
      "đ": 206,
      "Ē": 207,
      "ē": 208,
      "ė": 209,
      "ę": 210,
      "ě": 211,
      "ĝ": 212,
      "ğ": 213,
      "Ġ": 214,
      "ġ": 215,
      "ģ": 216,
      "ĥ": 217,
      "Ħ": 218,
      "ħ": 219,
      "Ī": 220,
      "ī": 221,
      "İ": 222,
      "ı": 223,
      "Ĳ": 224,
      "ĳ": 225,
      "ĵ": 226,
      "ķ": 227,
      "Ĺ": 228,
      "ļ": 229,
      "ľ": 230,
      "Ł": 231,
      "ł": 232,
      "Ń": 233,
      "ń": 234,
      "ņ": 235,
      "ň": 236,
      "ŋ": 237,
      "Ō": 238,
      "ō": 239,
      "Ő": 240,
      "ő": 241,
      "Œ": 242,
      "œ": 243,
      "Ř": 244,
      "ř": 245,
      "Ś": 246,
      "ś": 247,
      "Ş": 248,
      "ş": 249,
      "Š": 250,
      "š": 251,
      "ţ": 252,
      "ť": 253,
      "ū": 254,
      "ŭ": 255,
      "ů": 256,
      "ű": 257,
      "Ų": 258,
      "ų": 259,
      "Ÿ": 260,
      "ź": 261,
      "Ż": 262,
      "ż": 263,
      "Ž": 264,
      "ž": 265,
      "Ə": 266,
      "Ɛ": 267,
      "ƒ": 268,
      "Ɣ": 269,
      "ƙ": 270,
      "ƴ": 271,
      "ǁ": 272,
      "ǂ": 273,
      "ǎ": 274,
      "ǔ": 275,
      "ǫ": 276,
      "ȁ": 277,
      "ȗ": 278,
      "ș": 279,
      "ț": 280,
      "ɑ": 281,
      "ɔ": 282,
      "ɕ": 283,
      "ə": 284,
      "ɛ": 285,
      "ɜ": 286,
      "ɡ": 287,
      "ɣ": 288,
      "ɤ": 289,
      "ɥ": 290,
      "ɨ": 291,
      "ɪ": 292,
      "ɯ": 293,
      "ʃ": 294,
      "ʌ": 295,
      "ʻ": 296,
      "ʾ": 297,
      "ʿ": 298,
      "˂": 299,
      "˃": 300,
      "ˆ": 301,
      "ˉ": 302,
      "ː": 303,
      "˙": 304,
      "˚": 305,
      "˜": 306,
      "˿": 307,
      "̀": 308,
      "́": 309,
      "̄": 310,
      "̆": 311,
      "̇": 312,
      "̈": 313,
      "̊": 314,
      "̋": 315,
      "̌": 316,
      "̧": 317,
      "̶": 318,
      "͡": 319,
      "ͳ": 320,
      ";": 321,
      "Ά": 322,
      "·": 323,
      "Α": 324,
      "Β": 325,
      "Γ": 326,
      "Δ": 327,
      "Ε": 328,
      "Η": 329,
      "Θ": 330,
      "Ι": 331,
      "Κ": 332,
      "Λ": 333,
      "Μ": 334,
      "Ν": 335,
      "Ξ": 336,
      "Ο": 337,
      "Π": 338,
      "Ρ": 339,
      "Σ": 340,
      "Τ": 341,
      "Υ": 342,
      "Φ": 343,
      "Χ": 344,
      "Ψ": 345,
      "Ω": 346,
      "ά": 347,
      "έ": 348,
      "ή": 349,
      "ί": 350,
      "α": 351,
      "β": 352,
      "γ": 353,
      "δ": 354,
      "ε": 355,
      "ζ": 356,
      "η": 357,
      "θ": 358,
      "ι": 359,
      "κ": 360,
      "λ": 361,
      "μ": 362,
      "ν": 363,
      "ξ": 364,
      "ο": 365,
      "π": 366,
      "ρ": 367,
      "ς": 368,
      "σ": 369,
      "τ": 370,
      "υ": 371,
      "φ": 372,
      "χ": 373,
      "ψ": 374,
      "ω": 375,
      "ϊ": 376,
      "ό": 377,
      "ύ": 378,
      "ώ": 379,
      "ϕ": 380,
      "Є": 381,
      "А": 382,
      "Б": 383,
      "В": 384,
      "Г": 385,
      "Д": 386,
      "Е": 387,
      "Ж": 388,
      "З": 389,
      "И": 390,
      "Й": 391,
      "К": 392,
      "Л": 393,
      "М": 394,
      "Н": 395,
      "О": 396,
      "П": 397,
      "Р": 398,
      "С": 399,
      "Т": 400,
      "У": 401,
      "Ф": 402,
      "Х": 403,
      "Ц": 404,
      "Ш": 405,
      "Ъ": 406,
      "Ю": 407,
      "Я": 408,
      "а": 409,
      "б": 410,
      "в": 411,
      "г": 412,
      "д": 413,
      "е": 414,
      "ж": 415,
      "з": 416,
      "и": 417,
      "й": 418,
      "к": 419,
      "л": 420,
      "м": 421,
      "н": 422,
      "о": 423,
      "п": 424,
      "р": 425,
      "с": 426,
      "т": 427,
      "у": 428,
      "ф": 429,
      "х": 430,
      "ц": 431,
      "ч": 432,
      "ш": 433,
      "щ": 434,
      "ъ": 435,
      "ы": 436,
      "ь": 437,
      "ю": 438,
      "я": 439,
      "ё": 440,
      "і": 441,
      "ї": 442,
      "қ": 443,
      "֙": 444,
      "֯": 445,
      "ְ": 446,
      "ִ": 447,
      "ָ": 448,
      "ֹ": 449,
      "ּ": 450,
      "־": 451,
      "א": 452,
      "ב": 453,
      "ד": 454,
      "ה": 455,
      "ו": 456,
      "ז": 457,
      "ח": 458,
      "י": 459,
      "ל": 460,
      "ם": 461,
      "מ": 462,
      "ן": 463,
      "נ": 464,
      "ס": 465,
      "ע": 466,
      "פ": 467,
      "צ": 468,
      "ק": 469,
      "ר": 470,
      "ש": 471,
      "ת": 472,
      "׳": 473,
      "״": 474,
      "،": 475,
      "أ": 476,
      "ا": 477,
      "ب": 478,
      "ة": 479,
      "ت": 480,
      "ث": 481,
      "ج": 482,
      "ح": 483,
      "خ": 484,
      "د": 485,
      "ذ": 486,
      "ر": 487,
      "ز": 488,
      "س": 489,
      "ش": 490,
      "ص": 491,
      "ض": 492,
      "ط": 493,
      "ظ": 494,
      "ع": 495,
      "ـ": 496,
      "ق": 497,
      "ك": 498,
      "ل": 499,
      "م": 500,
      "ن": 501,
      "ه": 502,
      "و": 503,
      "ي": 504,
      "َ": 505,
      "٠": 506,
      "١": 507,
      "٤": 508,
      "٦": 509,
      "پ": 510,
      "چ": 511,
      "ژ": 512,
      "ی": 513,
      "ۛ": 514,
      "ࣈ": 515,
      "ं": 516,
      "आ": 517,
      "ई": 518,
      "क": 519,
      "ग": 520,
      "छ": 521,
      "ज": 522,
      "झ": 523,
      "ड": 524,
      "ण": 525,
      "त": 526,
      "थ": 527,
      "द": 528,
      "न": 529,
      "प": 530,
      "फ": 531,
      "ब": 532,
      "म": 533,
      "र": 534,
      "ल": 535,
      "व": 536,
      "श": 537,
      "ष": 538,
      "स": 539,
      "़": 540,
      "ा": 541,
      "ि": 542,
      "ी": 543,
      "ु": 544,
      "ू": 545,
      "ृ": 546,
      "ो": 547,
      "्": 548,
      "॥": 549,
      "௠": 550,
      "ಟ": 551,
      "ಲ": 552,
      "ಶ": 553,
      "ಿ": 554,
      "ೆ": 555,
      "್": 556,
      "ก": 557,
      "ค": 558,
      "ง": 559,
      "ช": 560,
      "ต": 561,
      "น": 562,
      "บ": 563,
      "ฟ": 564,
      "ม": 565,
      "ร": 566,
      "ล": 567,
      "ศ": 568,
      "ษ": 569,
      "ห": 570,
      "อ": 571,
      "ะ": 572,
      "า": 573,
      "เ": 574,
      "แ": 575,
      "โ": 576,
      "ใ": 577,
      "่": 578,
      "้": 579,
      "์": 580,
      "་": 581,
      "ག": 582,
      "ད": 583,
      "ན": 584,
      "བ": 585,
      "འ": 586,
      "ར": 587,
      "ུ": 588,
      "ྩ": 589,
      "ྭ": 590,
      "ྱ": 591,
      "ᅟ": 592,
      "Ḍ": 593,
      "ḍ": 594,
      "ḗ": 595,
      "Ḥ": 596,
      "ḥ": 597,
      "Ḫ": 598,
      "ṅ": 599,
      "ṇ": 600,
      "ṓ": 601,
      "ṛ": 602,
      "Ṣ": 603,
      "ṣ": 604,
      "ṭ": 605,
      "ả": 606,
      "ế": 607,
      "ệ": 608,
      "ổ": 609,
      "ừ": 610,
      "ữ": 611,
      "ỹ": 612,
      "ἀ": 613,
      "ἄ": 614,
      "ἅ": 615,
      "ἆ": 616,
      "ἐ": 617,
      "ἔ": 618,
      "ἕ": 619,
      "ἠ": 620,
      "ἡ": 621,
      "ἰ": 622,
      "ἱ": 623,
      "ἴ": 624,
      "ἷ": 625,
      "Ἱ": 626,
      "ὀ": 627,
      "ὁ": 628,
      "ὄ": 629,
      "Ὁ": 630,
      "ὐ": 631,
      "ὑ": 632,
      "ὔ": 633,
      "ὕ": 634,
      "ὖ": 635,
      "ὠ": 636,
      "ὤ": 637,
      "ὲ": 638,
      "ὶ": 639,
      "ὸ": 640,
      "ό": 641,
      "ᾠ": 642,
      "ᾰ": 643,
      "ᾳ": 644,
      "᾽": 645,
      "ῆ": 646,
      "ῖ": 647,
      "ῥ": 648,
      "ῦ": 649,
      "ῶ": 650,
      "ῷ": 651,
      "‐": 652,
      "‑": 653,
      "‒": 654,
      "–": 655,
      "—": 656,
      "―": 657,
      "‖": 658,
      "‗": 659,
      "‘": 660,
      "’": 661,
      "‚": 662,
      "“": 663,
      "”": 664,
      "„": 665,
      "‟": 666,
      "†": 667,
      "‡": 668,
      "•": 669,
      "…": 670,
      "‰": 671,
      "′": 672,
      "″": 673,
      "‹": 674,
      "›": 675,
      "⁄": 676,
      "⁰": 677,
      "⁴": 678,
      "⁵": 679,
      "⁶": 680,
      "⁸": 681,
      "⁻": 682,
      "₀": 683,
      "₁": 684,
      "₂": 685,
      "₅": 686,
      "₆": 687,
      "€": 688,
      "℃": 689,
      "№": 690,
      "℞": 691,
      "™": 692,
      "Ω": 693,
      "ⅎ": 694,
      "⅓": 695,
      "⅔": 696,
      "⅛": 697,
      "←": 698,
      "↑": 699,
      "→": 700,
      "↓": 701,
      "↔": 702,
      "↕": 703,
      "↙": 704,
      "↦": 705,
      "↲": 706,
      "↷": 707,
      "⇄": 708,
      "⇆": 709,
      "⇇": 710,
      "⇋": 711,
      "⇌": 712,
      "⇐": 713,
      "⇑": 714,
      "⇒": 715,
      "⇓": 716,
      "⇔": 717,
      "⇝": 718,
      "⇨": 719,
      "∆": 720,
      "∏": 721,
      "∑": 722,
      "−": 723,
      "∗": 724,
      "∙": 725,
      "√": 726,
      "∝": 727,
      "∞": 728,
      "∠": 729,
      "∥": 730,
      "∼": 731,
      "≈": 732,
      "≠": 733,
      "≤": 734,
      "≥": 735,
      "≪": 736,
      "≫": 737,
      "≲": 738,
      "⊕": 739,
      "⊖": 740,
      "⊝": 741,
      "⊥": 742,
      "⋅": 743,
      "⋠": 744,
      "⎡": 745,
      "⎢": 746,
      "⎣": 747,
      "⎤": 748,
      "⎥": 749,
      "⎦": 750,
      "⏐": 751,
      "①": 752,
      "②": 753,
      "③": 754,
      "─": 755,
      "│": 756,
      "┤": 757,
      "┬": 758,
      "┴": 759,
      "═": 760,
      "║": 761,
      "╪": 762,
      "░": 763,
      "▒": 764,
      "▓": 765,
      "■": 766,
      "□": 767,
      "▪": 768,
      "▲": 769,
      "△": 770,
      "▴": 771,
      "▵": 772,
      "▶": 773,
      "▷": 774,
      "▸": 775,
      "►": 776,
      "▼": 777,
      "▽": 778,
      "▾": 779,
      "◆": 780,
      "◊": 781,
      "○": 782,
      "◎": 783,
      "●": 784,
      "◦": 785,
      "◯": 786,
      "◻": 787,
      "◽": 788,
      "★": 789,
      "☆": 790,
      "☐": 791,
      "☑": 792,
      "☓": 793,
      "♀": 794,
      "♂": 795,
      "♦": 796,
      "♪": 797,
      "♭": 798,
      "♯": 799,
      "⚪": 800,
      "⚫": 801,
      "✓": 802,
      "✔": 803,
      "✕": 804,
      "✠": 805,
      "✧": 806,
      "✴": 807,
      "✶": 808,
      "➔": 809,
      "➙": 810,
      "➝": 811,
      "➞": 812,
      "➡": 813,
      "➢": 814,
      "➤": 815,
      "⟂": 816,
      "⟦": 817,
      "⟧": 818,
      "⟨": 819,
      "⟩": 820,
      "⟶": 821,
      "⟷": 822,
      "⠀": 823,
      "⠬": 824,
      "⠺": 825,
      "⥠": 826,
      "⦁": 827,
      "⨁": 828,
      "⩽": 829,
      "⬜": 830,
      "⬠": 831,
      "⬰": 832,
      "⮚": 833,
      "ⱡ": 834,
      "⿬": 835,
      "⿿": 836,
      "、": 837,
      "。": 838,
      "〈": 839,
      "〉": 840,
      "》": 841,
      "「": 842,
      "」": 843,
      "【": 844,
      "】": 845,
      "〔": 846,
      "〕": 847,
      "〖": 848,
      "〗": 849,
      "〜": 850,
      "〞": 851,
      "い": 852,
      "か": 853,
      "き": 854,
      "な": 855,
      "に": 856,
      "も": 857,
      "り": 858,
      "ん": 859,
      "ア": 860,
      "カ": 861,
      "ガ": 862,
      "キ": 863,
      "ギ": 864,
      "コ": 865,
      "シ": 866,
      "タ": 867,
      "デ": 868,
      "ナ": 869,
      "ミ": 870,
      "メ": 871,
      "リ": 872,
      "ル": 873,
      "レ": 874,
      "・": 875,
      "ー": 876,
      "ㅏ": 877,
      "ㅓ": 878,
      "㠀": 879,
      "中": 880,
      "京": 881,
      "人": 882,
      "仙": 883,
      "会": 884,
      "佐": 885,
      "体": 886,
      "佳": 887,
      "依": 888,
      "促": 889,
      "俣": 890,
      "健": 891,
      "元": 892,
      "冈": 893,
      "冬": 894,
      "切": 895,
      "利": 896,
      "刮": 897,
      "呦": 898,
      "員": 899,
      "唇": 900,
      "土": 901,
      "夏": 902,
      "大": 903,
      "天": 904,
      "奇": 905,
      "契": 906,
      "女": 907,
      "姫": 908,
      "子": 909,
      "字": 910,
      "学": 911,
      "孫": 912,
      "富": 913,
      "対": 914,
      "導": 915,
      "山": 916,
      "岡": 917,
      "川": 918,
      "巫": 919,
      "帝": 920,
      "平": 921,
      "引": 922,
      "德": 923,
      "怖": 924,
      "救": 925,
      "文": 926,
      "斑": 927,
      "新": 928,
      "日": 929,
      "明": 930,
      "春": 931,
      "本": 932,
      "李": 933,
      "村": 934,
      "杜": 935,
      "柘": 936,
      "株": 937,
      "桂": 938,
      "植": 939,
      "水": 940,
      "济": 941,
      "海": 942,
      "滑": 943,
      "漢": 944,
      "犀": 945,
      "男": 946,
      "界": 947,
      "病": 948,
      "症": 949,
      "痧": 950,
      "白": 951,
      "盲": 952,
      "社": 953,
      "神": 954,
      "窒": 955,
      "第": 956,
      "策": 957,
      "素": 958,
      "约": 959,
      "缕": 960,
      "肥": 961,
      "能": 962,
      "腹": 963,
      "草": 964,
      "蕲": 965,
      "虫": 966,
      "蛇": 967,
      "蟲": 968,
      "衆": 969,
      "行": 970,
      "解": 971,
      "语": 972,
      "象": 973,
      "踊": 974,
      "进": 975,
      "逸": 976,
      "郎": 977,
      "都": 978,
      "钱": 979,
      "阿": 980,
      "青": 981,
      "高": 982,
      "黃": 983,
      "꙱": 984,
      "ꝉ": 985,
      "ꭕ": 986,
      "궱": 987,
      "븅": 988,
      "삼": 989,
      "인": 990,
      "ﬀ": 991,
      "ﬁ": 992,
      "ﬂ": 993,
      "️": 994,
      "︵": 995,
      "（": 996,
      "）": 997,
      "，": 998,
      "－": 999,
      "：": 1000,
      "～": 1001,
      "･": 1002,
      "ｵ": 1003,
      "ﾓ": 1004,
      "ﾴ": 1005,
      "￼": 1006,
      "📞": 1007,
      "🔴": 1008,
      "🩸": 1009,
      "##i": 1010,
      "##D": 1011,
      "##O": 1012,
      "##T": 1013,
      "##y": 1014,
      "##p": 1015,
      "##e": 1016,
      "##r": 1017,
      "##t": 1018,
      "##n": 1019,
      "##s": 1020,
      "##d": 1021,
      "##l": 1022,
      "##j": 1023,
      "##g": 1024,
      "##a": 1025,
      "##o": 1026,
      "##c": 1027,
      "##h": 1028,
      "##v": 1029,
      "##m": 1030,
      "##k": 1031,
      "##x": 1032,
      "##u": 1033,
      "##q": 1034,
      "##P": 1035,
      "##S": 1036,
      "##A": 1037,
      "##b": 1038,
      "##E": 1039,
      "##w": 1040,
      "##z": 1041,
      "##7": 1042,
      "##5": 1043,
      "##2": 1044,
      "##1": 1045,
      "##4": 1046,
      "##3": 1047,
      "##f": 1048,
      "##Z": 1049,
      "##N": 1050,
      "##F": 1051,
      "##6": 1052,
      "##W": 1053,
      "##C": 1054,
      "##M": 1055,
      "##K": 1056,
      "##R": 1057,
      "##H": 1058,
      "##V": 1059,
      "##X": 1060,
      "##8": 1061,
      "##G": 1062,
      "##I": 1063,
      "##B": 1064,
      "##μ": 1065,
      "##U": 1066,
      "##L": 1067,
      "##0": 1068,
      "##9": 1069,
      "##Y": 1070,
      "##ë": 1071,
      "##J": 1072,
      "##™": 1073,
      "##ï": 1074,
      "##η": 1075,
      "##ü": 1076,
      "##Δ": 1077,
      "##Q": 1078,
      "##ö": 1079,
      "##í": 1080,
      "##è": 1081,
      "##×": 1082,
      "##±": 1083,
      "##ä": 1084,
      "##α": 1085,
      "##⨁": 1086,
      "##◯": 1087,
      "##¯": 1088,
      "##≤": 1089,
      "##ê": 1090,
      "##é": 1091,
      "##Å": 1092,
      "##ã": 1093,
      "##ú": 1094,
      "##→": 1095,
      "##º": 1096,
      "##₂": 1097,
      "##â": 1098,
      "##¹": 1099,
      "##²": 1100,
      "##°": 1101,
      "##ﬁ": 1102,
      "##≥": 1103,
      "##ε": 1104,
      "##ο": 1105,
      "##τ": 1106,
      "##ό": 1107,
      "##κ": 1108,
      "##á": 1109,
      "##®": 1110,
      "##↓": 1111,
      "##ω": 1112,
      "##β": 1113,
      "##⁄": 1114,
      "##∙": 1115,
      "##Φ": 1116,
      "##Ã": 1117,
      "##ó": 1118,
      "##ı": 1119,
      "##à": 1120,
      "##¥": 1121,
      "##Ö": 1122,
      "##═": 1123,
      "##δ": 1124,
      "##♂": 1125,
      "##─": 1126,
      "##Ž": 1127,
      "##Г": 1128,
      "##▶": 1129,
      "##□": 1130,
      "##γ": 1131,
      "##χ": 1132,
      "##≈": 1133,
      "##③": 1134,
      "##ñ": 1135,
      "##ć": 1136,
      "##ō": 1137,
      "##È": 1138,
      "##υ": 1139,
      "##´": 1140,
      "##Â": 1141,
      "##À": 1142,
      "##½": 1143,
      "##µ": 1144,
      "##Ë": 1145,
      "##−": 1146,
      "##ø": 1147,
      "##³": 1148,
      "##©": 1149,
      "##⁻": 1150,
      "##É": 1151,
      "##ा": 1152,
      "##र": 1153,
      "##्": 1154,
      "##ग": 1155,
      "##ु": 1156,
      "##न": 1157,
      "##ब": 1158,
      "##ू": 1159,
      "##е": 1160,
      "##σ": 1161,
      "##θ": 1162,
      "##ι": 1163,
      "##ν": 1164,
      "##ś": 1165,
      "##●": 1166,
      "##λ": 1167,
      "##ύ": 1168,
      "##ς": 1169,
      "##ù": 1170,
      "##С": 1171,
      "##①": 1172,
      "##←": 1173,
      "##š": 1174,
      "##æ": 1175,
      "##∞": 1176,
      "##ß": 1177,
      "##ā": 1178,
      "##Ω": 1179,
      "##û": 1180,
      "##ž": 1181,
      "##¬": 1182,
      "##ł": 1183,
      "##ğ": 1184,
      "##℃": 1185,
      "##В": 1186,
      "##∼": 1187,
      "##↲": 1188,
      "##π": 1189,
      "##ę": 1190,
      "##£": 1191,
      "##Σ": 1192,
      "##ṭ": 1193,
      "##ş": 1194,
      "##č": 1195,
      "##ç": 1196,
      "##Î": 1197,
      "##Ü": 1198,
      "##ř": 1199,
      "##ě": 1200,
      "##ː": 1201,
      "##˚": 1202,
      "##ò": 1203,
      "##ô": 1204,
      "##♀": 1205,
      "##¨": 1206,
      "##ì": 1207,
      "##Ï": 1208,
      "##ρ": 1209,
      "##ί": 1210,
      "##÷": 1211,
      "##к": 1212,
      "##Ä": 1213,
      "##↔": 1214,
      "##Γ": 1215,
      "##å": 1216,
      "##ą": 1217,
      "##ə": 1218,
      "##ē": 1219,
      "##↷": 1220,
      "##Ι": 1221,
      "##ξ": 1222,
      "##ż": 1223,
      "##ū": 1224,
      "##ń": 1225,
      "##О": 1226,
      "##ő": 1227,
      "##Ù": 1228,
      "##ð": 1229,
      "##ή": 1230,
      "##▵": 1231,
      "##˜": 1232,
      "##ă": 1233,
      "##ý": 1234,
      "##¼": 1235,
      "##↑": 1236,
      "##ṣ": 1237,
      "##Í": 1238,
      "##Đ": 1239,
      "##ň": 1240,
      "##Π": 1241,
      "##φ": 1242,
      "##έ": 1243,
      "##Ф": 1244,
      "##о": 1245,
      "##р": 1246,
      "##а": 1247,
      "##ζ": 1248,
      "##с": 1249,
      "##ὸ": 1250,
      "##ɑ": 1251,
      "##̀": 1252,
      "##͡": 1253,
      "##№": 1254,
      "##≠": 1255,
      "##Ñ": 1256,
      "##Ø": 1257,
      "##Ç": 1258,
      "##Τ": 1259,
      "##К": 1260,
      "##М": 1261,
      "##ו": 1262,
      "##י": 1263,
      "##△": 1264,
      "##ĳ": 1265,
      "##✴": 1266,
      "##İ": 1267,
      "##ī": 1268,
      "##Ν": 1269,
      "##Α": 1270,
      "##Т": 1271,
      "##Р": 1272,
      "##ș": 1273,
      "##ŋ": 1274,
      "##│": 1275,
      "##ź": 1276,
      "##ˆ": 1277,
      "##➔": 1278,
      "##Β": 1279,
      "##Š": 1280,
      "##ƒ": 1281,
      "##î": 1282,
      "##đ": 1283,
      "##€": 1284,
      "##√": 1285,
      "##ņ": 1286,
      "##И": 1287,
      "##ů": 1288,
      "##ї": 1289,
      "##Η": 1290,
      "##м": 1291,
      "##л": 1292,
      "##і": 1293,
      "##́": 1294,
      "##я": 1295,
      "##┬": 1296,
      "##त": 1297,
      "##ृ": 1298,
      "##व": 1299,
      "##⬜": 1300,
      "##и": 1301,
      "##ж": 1302,
      "##в": 1303,
      "##й": 1304,
      "##Μ": 1305,
      "##ч": 1306,
      "##Ô": 1307,
      "##௠": 1308,
      "##د": 1309,
      "##م": 1310,
      "##ة": 1311,
      "##म": 1312,
      "##ण": 1313,
      "##А": 1314,
      "##ḗ": 1315,
      "##̈": 1316,
      "##ṛ": 1317,
      "##Á": 1318,
      "##≲": 1319,
      "##Θ": 1320,
      "##Λ": 1321,
      "##Ά": 1322,
      "##Н": 1323,
      "##ė": 1324,
      "##ț": 1325,
      "##Ó": 1326,
      "##ل": 1327,
      "##ع": 1328,
      "##ب": 1329,
      "##ا": 1330,
      "##ي": 1331,
      "##✕": 1332,
      "##้": 1333,
      "##อ": 1334,
      "##ง": 1335,
      "##ά": 1336,
      "##х": 1337,
      "##ـ": 1338,
      "##②": 1339,
      "##Ρ": 1340,
      "##þ": 1341,
      "##ن": 1342,
      "##ɨ": 1343,
      "##ώ": 1344,
      "##ῦ": 1345,
      "##¤": 1346,
      "##ṇ": 1347,
      "##б": 1348,
      "##⇋": 1349,
      "##з": 1350,
      "##у": 1351,
      "##ű": 1352,
      "##⟶": 1353,
      "##ὶ": 1354,
      "##̌": 1355,
      "##Ł": 1356,
      "##õ": 1357,
      "##п": 1358,
      "##Ο": 1359,
      "##ᅟ": 1360,
      "##ệ": 1361,
      "##Е": 1362,
      "##ד": 1363,
      "##ס": 1364,
      "##ה": 1365,
      "##ё": 1366,
      "##◦": 1367,
      "##̧": 1368,
      "##ф": 1369,
      "##⇔": 1370,
      "##ﬀ": 1371,
      "##⿿": 1372,
      "##▸": 1373,
      "##ế": 1374,
      "##▴": 1375,
      "##○": 1376,
      "##▒": 1377,
      "##■": 1378,
      "##Κ": 1379,
      "##⇒": 1380,
      "##ϊ": 1381,
      "##н": 1382,
      "##ª": 1383,
      "##ǫ": 1384,
      "##т": 1385,
      "##⇌": 1386,
      "##븅": 1387,
      "##ľ": 1388,
      "##¾": 1389,
      "##ό": 1390,
      "##ت": 1391,
      "##д": 1392,
      "##≫": 1393,
      "##⚫": 1394,
      "##Ε": 1395,
      "##Æ": 1396,
      "##⋅": 1397,
      "##삼": 1398,
      "##Д": 1399,
      "##Ê": 1400,
      "##ĉ": 1401,
      "##ť": 1402,
      "##ʌ": 1403,
      "##▓": 1404,
      "##ὐ": 1405,
      "##ţ": 1406,
      "##क": 1407,
      "##ष": 1408,
      "##ी": 1409,
      "##⋠": 1410,
      "##⇆": 1411,
      "##מ": 1412,
      "##ב": 1413,
      "##┴": 1414,
      "##ۛ": 1415,
      "##な": 1416,
      "##ん": 1417,
      "##か": 1418,
      "##ر": 1419,
      "##و": 1420,
      "##ɔ": 1421,
      "##ʃ": 1422,
      "##ả": 1423,
      "##░": 1424,
      "##ق": 1425,
      "##▪": 1426,
      "##¢": 1427,
      "##œ": 1428,
      "##★": 1429,
      "##Ъ": 1430,
      "##г": 1431,
      "##ų": 1432,
      "##⇑": 1433,
      "##щ": 1434,
      "##Ò": 1435,
      "##Ì": 1436,
      "##Ð": 1437,
      "##╪": 1438,
      "##Б": 1439,
      "##̄": 1440,
      "##˙": 1441,
      "##⩽": 1442,
      "##¦": 1443,
      "##ъ": 1444,
      "##ħ": 1445,
      "##ɣ": 1446,
      "##Ú": 1447,
      "##ὲ": 1448,
      "##ģ": 1449,
      "##♭": 1450,
      "##⊥": 1451,
      "##Ż": 1452,
      "##◊": 1453,
      "##ḥ": 1454,
      "##ش": 1455,
      "##に": 1456,
      "##₁": 1457,
      "##़": 1458,
      "##ŭ": 1459,
      "##✓": 1460,
      "##ῆ": 1461,
      "##ㅓ": 1462,
      "##ь": 1463,
      "##⇇": 1464,
      "##✶": 1465,
      "##ﬂ": 1466,
      "##٤": 1467,
      "##ك": 1468,
      "##►": 1469,
      "##ю": 1470,
      "##⟂": 1471,
      "##♦": 1472,
      "##ɜ": 1473,
      "##Č": 1474,
      "##ḍ": 1475,
      "##Χ": 1476,
      "##║": 1477,
      "##Õ": 1478,
      "##➝": 1479,
      "##￼": 1480,
      "##ح": 1481,
      "##फ": 1482,
      "##П": 1483,
      "##Ų": 1484,
      "##⊕": 1485,
      "##Œ": 1486,
      "##ψ": 1487,
      "##ṅ": 1488,
      "##ÿ": 1489,
      "##ừ": 1490,
      "##ổ": 1491,
      "##ш": 1492,
      "##Υ": 1493,
      "##▾": 1494,
      "##↕": 1495,
      "##☆": 1496,
      "##ಿ": 1497,
      "##ಲ": 1498,
      "##್": 1499,
      "##Ĳ": 1500,
      "##Л": 1501,
      "##⇄": 1502,
      "##¸": 1503,
      "##⬰": 1504,
      "##⇓": 1505,
      "##↦": 1506,
      "##Ş": 1507,
      "##️": 1508,
      "##メ": 1509,
      "##リ": 1510,
      "##カ": 1511,
      "##ῖ": 1512,
      "##ц": 1513,
      "##ɯ": 1514,
      "##ก": 1515,
      "##ษ": 1516,
      "##ร": 1517,
      "##เ": 1518,
      "##บ": 1519,
      "##ล": 1520,
      "##์": 1521,
      "##➞": 1522,
      "##ɛ": 1523,
      "##⁵": 1524,
      "##٦": 1525,
      "##ج": 1526,
      "##ه": 1527,
      "##Ш": 1528,
      "##ɤ": 1529,
      "##Ÿ": 1530,
      "##ǁ": 1531,
      "##Ī": 1532,
      "##า": 1533,
      "##ר": 1534,
      "##Û": 1535,
      "##⁸": 1536,
      "##ز": 1537,
      "##ی": 1538,
      "##➙": 1539,
      "##ῶ": 1540,
      "##ἰ": 1541,
      "##Х": 1542,
      "##ใ": 1543,
      "##ต": 1544,
      "##ो": 1545,
      "##श": 1546,
      "##Ĺ": 1547,
      "##ﾓ": 1548,
      "##ῷ": 1549,
      "##Ω": 1550,
      "##่": 1551,
      "##⬠": 1552,
      "##ʾ": 1553,
      "##Ц": 1554,
      "##س": 1555,
      "##⊝": 1556,
      "##➤": 1557,
      "##ļ": 1558,
      "##ि": 1559,
      "##◎": 1560,
      "##ǎ": 1561,
      "##ज": 1562,
      "##ﾴ": 1563,
      "##Ṣ": 1564,
      "##Ā": 1565,
      "##☓": 1566,
      "##ח": 1567,
      "##ן": 1568,
      "##ὔ": 1569,
      "##ἐ": 1570,
      "##١": 1571,
      "##נ": 1572,
      "##₆": 1573,
      "##Þ": 1574,
      "##⟷": 1575,
      "##א": 1576,
      "##ם": 1577,
      "##ỹ": 1578,
      "##∝": 1579,
      "##ש": 1580,
      "##⥠": 1581,
      "##⇝": 1582,
      "##レ": 1583,
      "##ル": 1584,
      "##ギ": 1585,
      "##ー": 1586,
      "##～": 1587,
      "##֯": 1588,
      "##ל": 1589,
      "##स": 1590,
      "##ฟ": 1591,
      "##น": 1592,
      "##ɡ": 1593,
      "##ミ": 1594,
      "##ೆ": 1595,
      "##ಟ": 1596,
      "##ἠ": 1597,
      "##◻": 1598,
      "##コ": 1599,
      "##ϕ": 1600,
      "##ガ": 1601,
      "##̇": 1602,
      "##キ": 1603,
      "##ἷ": 1604,
      "##ᾰ": 1605,
      "##ז": 1606,
      "##ק": 1607,
      "##ｵ": 1608,
      "##ы": 1609,
      "##ǔ": 1610,
      "##ม": 1611,
      "##โ": 1612,
      "##ค": 1613,
      "##┤": 1614,
      "##∏": 1615,
      "##Ś": 1616,
      "##⁴": 1617,
      "##פ": 1618,
      "##Ō": 1619,
      "##ữ": 1620,
      "##き": 1621,
      "##も": 1622,
      "##り": 1623,
      "##प": 1624,
      "##ड": 1625,
      "##ὖ": 1626,
      "##ص": 1627,
      "##∆": 1628,
      "##⠀": 1629,
      "##ɕ": 1630,
      "##ķ": 1631,
      "##ĝ": 1632,
      "##ྩ": 1633,
      "##ྭ": 1634,
      "##⊖": 1635,
      "##བ": 1636,
      "##ུ": 1637,
      "##Ξ": 1638,
      "##ὀ": 1639,
      "##ֹ": 1640,
      "##แ": 1641,
      "##ʿ": 1642,
      "##ག": 1643,
      "##ན": 1644,
      "##ナ": 1645,
      "##ア": 1646,
      "##ע": 1647,
      "##✠": 1648,
      "##چ": 1649,
      "##⁶": 1650,
      "##⿬": 1651,
      "##➢": 1652,
      "##₅": 1653,
      "##₀": 1654,
      "##ִ": 1655,
      "##ָ": 1656,
      "##ะ": 1657,
      "##ְ": 1658,
      "##ּ": 1659,
      "##ת": 1660,
      "##∗": 1661,
      "##ȗ": 1662,
      "##ͳ": 1663,
      "##ṓ": 1664,
      "##ं": 1665,
      "##ἴ": 1666,
      "##↙": 1667,
      "##ȁ": 1668,
      "##द": 1669,
      "##ई": 1670,
      "##Я": 1671,
      "##˿": 1672,
      "##ྱ": 1673,
      "##ར": 1674,
      "##en": 1675,
      "##er": 1676,
      "##an": 1677,
      "##ie": 1678,
      "##in": 1679,
      "##el": 1680,
      "##or": 1681,
      "##at": 1682,
      "##et": 1683,
      "de": 1684,
      "##ch": 1685,
      "##ij": 1686,
      "van": 1687,
      "##st": 1688,
      "##al": 1689,
      "##on": 1690,
      "##ar": 1691,
      "##ing": 1692,
      "en": 1693,
      "##de": 1694,
      "##it": 1695,
      "##is": 1696,
      "ge": 1697,
      "in": 1698,
      "##ro": 1699,
      "##oor": 1700,
      "##den": 1701,
      "##ol": 1702,
      "##ge": 1703,
      "##ct": 1704,
      "##re": 1705,
      "ver": 1706,
      "##der": 1707,
      "een": 1708,
      "met": 1709,
      "##le": 1710,
      "be": 1711,
      "##om": 1712,
      "het": 1713,
      "##te": 1714,
      "##as": 1715,
      "##atie": 1716,
      "##id": 1717,
      "##aar": 1718,
      "##ra": 1719,
      "##ijk": 1720,
      "##oe": 1721,
      "##isch": 1722,
      "op": 1723,
      "##di": 1724,
      "##ul": 1725,
      "##gen": 1726,
      "##ten": 1727,
      "##es": 1728,
      "##eer": 1729,
      "voor": 1730,
      "on": 1731,
      "##am": 1732,
      "##ic": 1733,
      "##ale": 1734,
      "##og": 1735,
      "##ot": 1736,
      "##cht": 1737,
      "##ent": 1738,
      "##ische": 1739,
      "te": 1740,
      "##il": 1741,
      "##ur": 1742,
      "##us": 1743,
      "aan": 1744,
      "##ijn": 1745,
      "##ver": 1746,
      "##sch": 1747,
      "##ig": 1748,
      "##ken": 1749,
      "##em": 1750,
      "st": 1751,
      "is": 1752,
      "wer": 1753,
      "##os": 1754,
      "##elijk": 1755,
      "De": 1756,
      "##un": 1757,
      "##la": 1758,
      "##um": 1759,
      "##op": 1760,
      "al": 1761,
      "re": 1762,
      "##ctie": 1763,
      "##ven": 1764,
      "##ine": 1765,
      "##he": 1766,
      "##ee": 1767,
      "##del": 1768,
      "##len": 1769,
      "bij": 1770,
      "om": 1771,
      "##ik": 1772,
      "die": 1773,
      "##ve": 1774,
      "##eren": 1775,
      "wor": 1776,
      "##ati": 1777,
      "##ru": 1778,
      "an": 1779,
      "##ag": 1780,
      "dat": 1781,
      "##ingen": 1782,
      "##ze": 1783,
      "of": 1784,
      "zijn": 1785,
      "##ele": 1786,
      "##if": 1787,
      "door": 1788,
      "##orm": 1789,
      "##oc": 1790,
      "##ste": 1791,
      "##aal": 1792,
      "##ën": 1793,
      "onder": 1794,
      "##im": 1795,
      "##sp": 1796,
      "##sen": 1797,
      "nie": 1798,
      "##ap": 1799,
      "pro": 1800,
      "uit": 1801,
      "con": 1802,
      "##ab": 1803,
      "##ter": 1804,
      "##ak": 1805,
      "werd": 1806,
      "##heid": 1807,
      "##ep": 1808,
      "##ite": 1809,
      "##ai": 1810,
      "##ut": 1811,
      "als": 1812,
      "##per": 1813,
      "##ss": 1814,
      "##iteit": 1815,
      "geen": 1816,
      "niet": 1817,
      "##eg": 1818,
      "##dt": 1819,
      "waar": 1820,
      "##du": 1821,
      "geb": 1822,
      "##eerd": 1823,
      "##iek": 1824,
      "##se": 1825,
      "af": 1826,
      "##ang": 1827,
      "##ho": 1828,
      "tot": 1829,
      "##ant": 1830,
      "##uw": 1831,
      "##ect": 1832,
      "##ist": 1833,
      "##atiën": 1834,
      "##and": 1835,
      "##ige": 1836,
      "##olog": 1837,
      "over": 1838,
      "##ff": 1839,
      "##han": 1840,
      "##eld": 1841,
      "sp": 1842,
      "##erd": 1843,
      "##aat": 1844,
      "##oed": 1845,
      "##ok": 1846,
      "##ri": 1847,
      "##act": 1848,
      "##ec": 1849,
      "worden": 1850,
      "##ult": 1851,
      "na": 1852,
      "##omen": 1853,
      "##ft": 1854,
      "##aire": 1855,
      "patiën": 1856,
      "##ion": 1857,
      "werden": 1858,
      "per": 1859,
      "ont": 1860,
      "In": 1861,
      "wordt": 1862,
      "##ad": 1863,
      "##ac": 1864,
      "##een": 1865,
      "##ier": 1866,
      "was": 1867,
      "##ud": 1868,
      "res": 1869,
      "##ker": 1870,
      "##iv": 1871,
      "##ide": 1872,
      "##ies": 1873,
      "gro": 1874,
      "##icht": 1875,
      "##eerde": 1876,
      "##nen": 1877,
      "er": 1878,
      "##elijke": 1879,
      "##ast": 1880,
      "##ich": 1881,
      "##wij": 1882,
      "##val": 1883,
      "##of": 1884,
      "##ran": 1885,
      "10": 1886,
      "ex": 1887,
      "##ardi": 1888,
      "deze": 1889,
      "##ed": 1890,
      "su": 1891,
      "bl": 1892,
      "onderz": 1893,
      "##oon": 1894,
      "##art": 1895,
      "##men": 1896,
      "##uur": 1897,
      "##aan": 1898,
      "gen": 1899,
      "##kt": 1900,
      "zo": 1901,
      "di": 1902,
      "##ellen": 1903,
      "##aten": 1904,
      "20": 1905,
      "##ific": 1906,
      "##ress": 1907,
      "##ort": 1908,
      "##yp": 1909,
      "le": 1910,
      "##ell": 1911,
      "##ere": 1912,
      "##AT": 1913,
      "kan": 1914,
      "##ym": 1915,
      "##vol": 1916,
      "##handel": 1917,
      "##ON": 1918,
      "##ron": 1919,
      "##tra": 1920,
      "##ER": 1921,
      "we": 1922,
      "##ings": 1923,
      "##ase": 1924,
      "##ind": 1925,
      "##ose": 1926,
      "##ir": 1927,
      "##dere": 1928,
      "##cl": 1929,
      "##vo": 1930,
      "##ruik": 1931,
      "##omp": 1932,
      "##aties": 1933,
      "toe": 1934,
      "##chter": 1935,
      "##ectie": 1936,
      "##ien": 1937,
      "eff": 1938,
      "Het": 1939,
      "ch": 1940,
      "Er": 1941,
      "##dig": 1942,
      "##rij": 1943,
      "versch": 1944,
      "##be": 1945,
      "gem": 1946,
      "##ers": 1947,
      "##tro": 1948,
      "##ys": 1949,
      "##we": 1950,
      "##ass": 1951,
      "##od": 1952,
      "##onder": 1953,
      "##ologie": 1954,
      "##ost": 1955,
      "Con": 1956,
      "##inder": 1957,
      "##iddel": 1958,
      "##aren": 1959,
      "ho": 1960,
      "##wee": 1961,
      "##ne": 1962,
      "##entie": 1963,
      "mg": 1964,
      "behandel": 1965,
      "vol": 1966,
      "##ijd": 1967,
      "##ame": 1968,
      "##yl": 1969,
      "onderzoe": 1970,
      "he": 1971,
      "##ip": 1972,
      "gebruik": 1973,
      "ne": 1974,
      "##eeft": 1975,
      "patiënten": 1976,
      "##lu": 1977,
      "##erde": 1978,
      "##bb": 1979,
      "##aak": 1980,
      "##ende": 1981,
      "##ign": 1982,
      "##lijk": 1983,
      "ant": 1984,
      "##ater": 1985,
      "##illen": 1986,
      "im": 1987,
      "##ib": 1988,
      "##yn": 1989,
      "inter": 1990,
      "##sie": 1991,
      "##her": 1992,
      "me": 1993,
      "##lo": 1994,
      "stud": 1995,
      "naar": 1996,
      "##SO": 1997,
      "inf": 1998,
      "##me": 1999,
      "##ia": 2000,
      "##oren": 2001,
      "verb": 2002,
      "##ussen": 2003,
      "##pen": 2004,
      "sch": 2005,
      "##af": 2006,
      "PER": 2007,
      "##ond": 2008,
      "maar": 2009,
      "##ox": 2010,
      "norm": 2011,
      "##lin": 2012,
      "geï": 2013,
      "##ept": 2014,
      "##SOON": 2015,
      "PERSOON": 2016,
      "bet": 2017,
      "verg": 2018,
      "##sel": 2019,
      "ei": 2020,
      "##usie": 2021,
      "##qu": 2022,
      "##iden": 2023,
      "##mer": 2024,
      "##ulaire": 2025,
      "##entr": 2026,
      "##geven": 2027,
      "dan": 2028,
      "##king": 2029,
      "her": 2030,
      "ter": 2031,
      "lin": 2032,
      "sign": 2033,
      "##onen": 2034,
      "##ander": 2035,
      "verm": 2036,
      "##UM": 2037,
      "verschillen": 2038,
      "##ressie": 2039,
      "##ering": 2040,
      "bel": 2041,
      "##als": 2042,
      "ook": 2043,
      "##amen": 2044,
      "mo": 2045,
      "##uid": 2046,
      "##ke": 2047,
      "##ijden": 2048,
      "##baar": 2049,
      "##kel": 2050,
      "##ië": 2051,
      "##zen": 2052,
      "##ce": 2053,
      "act": 2054,
      "eer": 2055,
      "##iviteit": 2056,
      "##reven": 2057,
      "waren": 2058,
      "##bben": 2059,
      "##gel": 2060,
      "pre": 2061,
      "##rie": 2062,
      "min": 2063,
      "##actie": 2064,
      "kun": 2065,
      "tussen": 2066,
      "##oen": 2067,
      "##pt": 2068,
      "##AR": 2069,
      "ged": 2070,
      "##con": 2071,
      "##rom": 2072,
      "##dic": 2073,
      "hebben": 2074,
      "gez": 2075,
      "ontw": 2076,
      "besch": 2077,
      "##NA": 2078,
      "##pl": 2079,
      "Cardi": 2080,
      "##ath": 2081,
      "uitge": 2082,
      "##age": 2083,
      "effect": 2084,
      "12": 2085,
      "Geen": 2086,
      "##oven": 2087,
      "hy": 2088,
      "ar": 2089,
      "##unctie": 2090,
      "##atieve": 2091,
      "##laat": 2092,
      "##wel": 2093,
      "DAT": 2094,
      "comp": 2095,
      "beh": 2096,
      "An": 2097,
      "##yt": 2098,
      "onderzoek": 2099,
      "DATUM": 2100,
      "##kken": 2101,
      "##uis": 2102,
      "##eel": 2103,
      "##ens": 2104,
      "##pro": 2105,
      "##rans": 2106,
      "##ive": 2107,
      "Deze": 2108,
      "##wit": 2109,
      "Een": 2110,
      "##ann": 2111,
      "verho": 2112,
      "##ogen": 2113,
      "meer": 2114,
      "##are": 2115,
      "twee": 2116,
      "kunnen": 2117,
      "bev": 2118,
      "##ieden": 2119,
      "##ger": 2120,
      "We": 2121,
      "heeft": 2122,
      "##ium": 2123,
      "##ren": 2124,
      "patiënt": 2125,
      "CT": 2126,
      "no": 2127,
      "##lag": 2128,
      "ac": 2129,
      "##itie": 2130,
      "result": 2131,
      "##ation": 2132,
      "dit": 2133,
      "##oel": 2134,
      "rec": 2135,
      "belang": 2136,
      "##rijk": 2137,
      "##trole": 2138,
      "##duc": 2139,
      "alle": 2140,
      "dag": 2141,
      "##zig": 2142,
      "ger": 2143,
      "##ese": 2144,
      "verschillende": 2145,
      "##alen": 2146,
      "cellen": 2147,
      "verander": 2148,
      "##dien": 2149,
      "##io": 2150,
      "ma": 2151,
      "Al": 2152,
      "or": 2153,
      "##IN": 2154,
      "##genomen": 2155,
      "behandeling": 2156,
      "##00": 2157,
      "##gevens": 2158,
      "##ces": 2159,
      "bloed": 2160,
      "studie": 2161,
      "##ulp": 2162,
      "ontwik": 2163,
      "##ate": 2164,
      "##ma": 2165,
      "##agn": 2166,
      "##aam": 2167,
      "vergelijk": 2168,
      "##ving": 2169,
      "pol": 2170,
      "eiwit": 2171,
      "##yst": 2172,
      "##dige": 2173,
      "##onden": 2174,
      "best": 2175,
      "##ment": 2176,
      "##ute": 2177,
      "##alis": 2178,
      "sub": 2179,
      "signific": 2180,
      "##est": 2181,
      "Cardiologie": 2182,
      "##yse": 2183,
      "kle": 2184,
      "##th": 2185,
      "hart": 2186,
      "linker": 2187,
      "##yc": 2188,
      "##schap": 2189,
      "##wer": 2190,
      "Ver": 2191,
      "11": 2192,
      "##icro": 2193,
      "##chten": 2194,
      "##ieke": 2195,
      "##pressie": 2196,
      "wat": 2197,
      "##herap": 2198,
      "##ante": 2199,
      "verhoog": 2200,
      "##dro": 2201,
      "##ijdens": 2202,
      "at": 2203,
      "reg": 2204,
      "##iële": 2205,
      "##oom": 2206,
      "ze": 2207,
      "mm": 2208,
      "21": 2209,
      "cor": 2210,
      "had": 2211,
      "##ui": 2212,
      "pl": 2213,
      "##ong": 2214,
      "##ogra": 2215,
      "##ub": 2216,
      "##arm": 2217,
      "vro": 2218,
      "resultaten": 2219,
      "##ivea": 2220,
      "##ologische": 2221,
      "##ert": 2222,
      "##ill": 2223,
      "bas": 2224,
      "geïn": 2225,
      "##ente": 2226,
      "##ader": 2227,
      "verminder": 2228,
      "##ek": 2229,
      "andere": 2230,
      "On": 2231,
      "##eten": 2232,
      "rechter": 2233,
      "am": 2234,
      "##middel": 2235,
      "15": 2236,
      "belangrijk": 2237,
      "verk": 2238,
      "anal": 2239,
      "##org": 2240,
      "##sult": 2241,
      "gebruikt": 2242,
      "vert": 2243,
      "##orst": 2244,
      "zonder": 2245,
      "19": 2246,
      "##EN": 2247,
      "nieuw": 2248,
      "mog": 2249,
      "Om": 2250,
      "ab": 2251,
      "ontwikkel": 2252,
      "##gest": 2253,
      "##geb": 2254,
      "##sc": 2255,
      "##clusie": 2256,
      "##erg": 2257,
      "##vl": 2258,
      "##uc": 2259,
      "##woor": 2260,
      "##iekte": 2261,
      "##ug": 2262,
      "##elf": 2263,
      "##fie": 2264,
      "##adi": 2265,
      "##ruct": 2266,
      "hoe": 2267,
      "##eter": 2268,
      "hun": 2269,
      "tijdens": 2270,
      "##acht": 2271,
      "##atten": 2272,
      "##ef": 2273,
      "trans": 2274,
      "##schreven": 2275,
      "##erende": 2276,
      "##dra": 2277,
      "th": 2278,
      "man": 2279,
      "##van": 2280,
      "jaar": 2281,
      "##dent": 2282,
      "bin": 2283,
      "##uro": 2284,
      "201": 2285,
      "##wezig": 2286,
      "zoals": 2287,
      "kw": 2288,
      "##ype": 2289,
      "##name": 2290,
      "pijn": 2291,
      "##dru": 2292,
      "##tie": 2293,
      "##let": 2294,
      "activiteit": 2295,
      "zich": 2296,
      "spec": 2297,
      "##agen": 2298,
      "##heden": 2299,
      "klin": 2300,
      "##nel": 2301,
      "##ulatie": 2302,
      "##IE": 2303,
      "behulp": 2304,
      "##iale": 2305,
      "verbet": 2306,
      "##bare": 2307,
      "##air": 2308,
      "co": 2309,
      "mee": 2310,
      "##ard": 2311,
      "##kelijk": 2312,
      "##elling": 2313,
      "uur": 2314,
      "toon": 2315,
      "##vorm": 2316,
      "resp": 2317,
      "##volg": 2318,
      "sc": 2319,
      "##valu": 2320,
      "##anis": 2321,
      "goed": 2322,
      "13": 2323,
      "St": 2324,
      "##dat": 2325,
      "micro": 2326,
      "##ob": 2327,
      "##uren": 2328,
      "##lex": 2329,
      "imm": 2330,
      "col": 2331,
      "14": 2332,
      "##uden": 2333,
      "##dem": 2334,
      "el": 2335,
      "##iedenis": 2336,
      "controle": 2337,
      "##ure": 2338,
      "##ram": 2339,
      "##aakt": 2340,
      "##vallen": 2341,
      "##eleid": 2342,
      "normale": 2343,
      "##gro": 2344,
      "##itis": 2345,
      "##etische": 2346,
      "functie": 2347,
      "##oorz": 2348,
      "##IS": 2349,
      "##elt": 2350,
      "rem": 2351,
      "bi": 2352,
      "par": 2353,
      "##iën": 2354,
      "##ction": 2355,
      "ele": 2356,
      "##eratie": 2357,
      "##ateg": 2358,
      "##chts": 2359,
      "beg": 2360,
      "##olec": 2361,
      "##eert": 2362,
      "la": 2363,
      "lever": 2364,
      "##dure": 2365,
      "onge": 2366,
      "##slag": 2367,
      "##cedure": 2368,
      "##kend": 2369,
      "bep": 2370,
      "##fer": 2371,
      "test": 2372,
      "long": 2373,
      "Dit": 2374,
      "##AD": 2375,
      "borst": 2376,
      "##hal": 2377,
      "30": 2378,
      "vorm": 2379,
      "wee": 2380,
      "##TE": 2381,
      "groep": 2382,
      "ml": 2383,
      "##ting": 2384,
      "cardi": 2385,
      "huid": 2386,
      "##zien": 2387,
      "ap": 2388,
      "##kom": 2389,
      "mon": 2390,
      "Pro": 2391,
      "beoor": 2392,
      "##kte": 2393,
      "##isic": 2394,
      "sug": 2395,
      "##ari": 2396,
      "##oten": 2397,
      "##centr": 2398,
      "omschreven": 2399,
      "CAR": 2400,
      "##gende": 2401,
      "##dentific": 2402,
      "##deren": 2403,
      "##ule": 2404,
      "##ocht": 2405,
      "##schiedenis": 2406,
      "25": 2407,
      "syn": 2408,
      "ster": 2409,
      "##met": 2410,
      "bere": 2411,
      "nivea": 2412,
      "cel": 2413,
      "##ositie": 2414,
      "##yste": 2415,
      "nieuwe": 2416,
      "intra": 2417,
      "##laats": 2418,
      "aanwezig": 2419,
      "##herapie": 2420,
      "hyper": 2421,
      "waargenomen": 2422,
      "##uit": 2423,
      "##voerd": 2424,
      "post": 2425,
      "mogelijk": 2426,
      "##indingen": 2427,
      "Bij": 2428,
      "##iet": 2429,
      "##IC": 2430,
      "tijd": 2431,
      "tegen": 2432,
      "##ator": 2433,
      "##ieerd": 2434,
      "sugger": 2435,
      "##igheid": 2436,
      "normaal": 2437,
      "ziekte": 2438,
      "##ster": 2439,
      "##elen": 2440,
      "##atische": 2441,
      "Th": 2442,
      "##ablet": 2443,
      "zw": 2444,
      "toen": 2445,
      "hyp": 2446,
      "echter": 2447,
      "vrouw": 2448,
      "##orie": 2449,
      "ep": 2450,
      "ben": 2451,
      "50": 2452,
      "Conclusie": 2453,
      "uitgevoerd": 2454,
      "##fsel": 2455,
      "##ductie": 2456,
      "hem": 2457,
      "com": 2458,
      "##bin": 2459,
      "ste": 2460,
      "aant": 2461,
      "##cellen": 2462,
      "##bij": 2463,
      "gew": 2464,
      "##emie": 2465,
      "##gens": 2466,
      "basis": 2467,
      "##regen": 2468,
      "lich": 2469,
      "##hy": 2470,
      "gegevens": 2471,
      "##last": 2472,
      "##ude": 2473,
      "##rim": 2474,
      "gene": 2475,
      "vertoon": 2476,
      "##atief": 2477,
      "tra": 2478,
      "##woord": 2479,
      "16": 2480,
      "##one": 2481,
      "##jes": 2482,
      "##nis": 2483,
      "##ach": 2484,
      "eerste": 2485,
      "##assen": 2486,
      "##ax": 2487,
      "##mon": 2488,
      "##get": 2489,
      "##cin": 2490,
      "##stelling": 2491,
      "##wijs": 2492,
      "##ks": 2493,
      "##ING": 2494,
      "##stig": 2495,
      "##ire": 2496,
      "CO": 2497,
      "veroorz": 2498,
      "##voel": 2499,
      "tum": 2500,
      "risic": 2501,
      "##co": 2502,
      "gev": 2503,
      "binnen": 2504,
      "geass": 2505,
      "##atuur": 2506,
      "zowel": 2507,
      "reactie": 2508,
      "##asc": 2509,
      "ad": 2510,
      "gep": 2511,
      "##els": 2512,
      "100": 2513,
      "ble": 2514,
      "Consult": 2515,
      "##osf": 2516,
      "##ema": 2517,
      "##deling": 2518,
      "hoog": 2519,
      "##emb": 2520,
      "Met": 2521,
      "art": 2522,
      "rol": 2523,
      "##ieken": 2524,
      "verwij": 2525,
      "##emen": 2526,
      "veranderingen": 2527,
      "##chn": 2528,
      "dos": 2529,
      "betro": 2530,
      "##rit": 2531,
      "klinische": 2532,
      "dis": 2533,
      "##AM": 2534,
      "40": 2535,
      "##oede": 2536,
      "18": 2537,
      "Ant": 2538,
      "expressie": 2539,
      "end": 2540,
      "##inale": 2541,
      "II": 2542,
      "##oï": 2543,
      "##rag": 2544,
      "hoge": 2545,
      "lang": 2546,
      "geassoc": 2547,
      "##wijl": 2548,
      "specif": 2549,
      "##och": 2550,
      "##stige": 2551,
      "##spro": 2552,
      "metho": 2553,
      "##voor": 2554,
      "nu": 2555,
      "veel": 2556,
      "##rek": 2557,
      "ro": 2558,
      "##uk": 2559,
      "##app": 2560,
      "##wijk": 2561,
      "positie": 2562,
      "##rium": 2563,
      "24": 2564,
      "##amil": 2565,
      "LV": 2566,
      "ser": 2567,
      "##unction": 2568,
      "drie": 2569,
      "PC": 2570,
      "verhoogde": 2571,
      "ges": 2572,
      "doel": 2573,
      "syst": 2574,
      "cm": 2575,
      "and": 2576,
      "significant": 2577,
      "struct": 2578,
      "snel": 2579,
      "##ymf": 2580,
      "Over": 2581,
      "##form": 2582,
      "rel": 2583,
      "middel": 2584,
      "gevolg": 2585,
      "##komen": 2586,
      "vergelijking": 2587,
      "##lijke": 2588,
      "effecten": 2589,
      "Ch": 2590,
      "diagn": 2591,
      "stab": 2592,
      "##vat": 2593,
      "##mat": 2594,
      "Ex": 2595,
      "wij": 2596,
      "##iver": 2597,
      "##bre": 2598,
      "gest": 2599,
      "Na": 2600,
      "elekt": 2601,
      "##schijn": 2602,
      "##urende": 2603,
      "##AL": 2604,
      "sym": 2605,
      "##sus": 2606,
      "groot": 2607,
      "werk": 2608,
      "##ofd": 2609,
      "##lachten": 2610,
      "##inding": 2611,
      "samen": 2612,
      "##emische": 2613,
      "##ransp": 2614,
      "##yten": 2615,
      "##racht": 2616,
      "##ont": 2617,
      "##dicatie": 2618,
      "##waar": 2619,
      "cont": 2620,
      "type": 2621,
      "studies": 2622,
      "##CH": 2623,
      "ern": 2624,
      "##lic": 2625,
      "##vul": 2626,
      "via": 2627,
      "##uze": 2628,
      "terwijl": 2629,
      "boven": 2630,
      "dagen": 2631,
      "meest": 2632,
      "Ne": 2633,
      "##ijnen": 2634,
      "##ysteem": 2635,
      "##ome": 2636,
      "##all": 2637,
      "gl": 2638,
      "##gaan": 2639,
      "##gem": 2640,
      "##rel": 2641,
      "sle": 2642,
      "##raal": 2643,
      "Ge": 2644,
      "evalu": 2645,
      "200": 2646,
      "##ied": 2647,
      "##ust": 2648,
      "##atus": 2649,
      "Be": 2650,
      "##quentie": 2651,
      "##oort": 2652,
      "model": 2653,
      "ten": 2654,
      "bewijs": 2655,
      "##elden": 2656,
      "mech": 2657,
      "##weg": 2658,
      "##elde": 2659,
      "pat": 2660,
      "Me": 2661,
      "aort": 2662,
      "nog": 2663,
      "plaats": 2664,
      "##alc": 2665,
      "##rijving": 2666,
      "bre": 2667,
      "##MP": 2668,
      "##ith": 2669,
      "##middelen": 2670,
      "infectie": 2671,
      "int": 2672,
      "analyse": 2673,
      "aantal": 2674,
      "Boven": 2675,
      "Aan": 2676,
      "##kende": 2677,
      "##ategorie": 2678,
      "Op": 2679,
      "aanget": 2680,
      "##groep": 2681,
      "##open": 2682,
      "##eeftijd": 2683,
      "neuro": 2684,
      "gek": 2685,
      "gra": 2686,
      "##uizen": 2687,
      "##anc": 2688,
      "##und": 2689,
      "##ore": 2690,
      "##duct": 2691,
      "neg": 2692,
      "17": 2693,
      "mens": 2694,
      "##zuur": 2695,
      "dif": 2696,
      "##schijnlijk": 2697,
      "##kan": 2698,
      "IN": 2699,
      "##ucle": 2700,
      "molec": 2701,
      "onderste": 2702,
      "ob": 2703,
      "immun": 2704,
      "deel": 2705,
      "##aterale": 2706,
      "##erv": 2707,
      "significante": 2708,
      "##ica": 2709,
      "##aliteit": 2710,
      "kl": 2711,
      "##druk": 2712,
      "##ES": 2713,
      "mil": 2714,
      "##ble": 2715,
      "ass": 2716,
      "##oog": 2717,
      "EC": 2718,
      "##ID": 2719,
      "##oek": 2720,
      "gevoel": 2721,
      "radi": 2722,
      "IC": 2723,
      "geassocieerd": 2724,
      "##EG": 2725,
      "ken": 2726,
      "##isatie": 2727,
      "bil": 2728,
      "##ane": 2729,
      "##gang": 2730,
      "##xim": 2731,
      "##acter": 2732,
      "##do": 2733,
      "##ycl": 2734,
      "onderzoeken": 2735,
      "##geschiedenis": 2736,
      "##los": 2737,
      "lymf": 2738,
      "##IL": 2739,
      "weefsel": 2740,
      "hog": 2741,
      "##ming": 2742,
      "haar": 2743,
      "toege": 2744,
      "##vla": 2745,
      "##oot": 2746,
      "##ATIE": 2747,
      "anti": 2748,
      "gel": 2749,
      "recept": 2750,
      "##ets": 2751,
      "##ple": 2752,
      "##low": 2753,
      "##gesteld": 2754,
      "Re": 2755,
      "beper": 2756,
      "##atige": 2757,
      "##ikel": 2758,
      "duid": 2759,
      "##ou": 2760,
      "hij": 2761,
      "alleen": 2762,
      "nodig": 2763,
      "##ders": 2764,
      "kleine": 2765,
      "##rine": 2766,
      "waarbij": 2767,
      "##na": 2768,
      "##iel": 2769,
      "##kelijke": 2770,
      "to": 2771,
      "##actoren": 2772,
      "get": 2773,
      "00": 2774,
      "opt": 2775,
      "##ons": 2776,
      "##iciën": 2777,
      "##ografie": 2778,
      "extra": 2779,
      "genees": 2780,
      "DNA": 2781,
      "Sp": 2782,
      "##cent": 2783,
      "minder": 2784,
      "##min": 2785,
      "##ïn": 2786,
      "##urg": 2787,
      "##schrijving": 2788,
      "Bovendien": 2789,
      "beschreven": 2790,
      "##EF": 2791,
      "##ess": 2792,
      "##anneer": 2793,
      "##ED": 2794,
      "gedurende": 2795,
      "onderzocht": 2796,
      "##CT": 2797,
      "betrokken": 2798,
      "gede": 2799,
      "sec": 2800,
      "##actor": 2801,
      "daar": 2802,
      "grote": 2803,
      "##amine": 2804,
      "##ood": 2805,
      "ontwikkeling": 2806,
      "hel": 2807,
      "vrij": 2808,
      "##iss": 2809,
      "##stof": 2810,
      "##opt": 2811,
      "##comp": 2812,
      "##rop": 2813,
      "cyt": 2814,
      "Antwoord": 2815,
      "##eratieve": 2816,
      "ech": 2817,
      "leeftijd": 2818,
      "##perim": 2819,
      "IV": 2820,
      "##stand": 2821,
      "Categorie": 2822,
      "##vel": 2823,
      "Omschrijving": 2824,
      "##uele": 2825,
      "Thema": 2826,
      "Po": 2827,
      "geïnduc": 2828,
      "##pervla": 2829,
      "##room": 2830,
      "##AS": 2831,
      "##ctieve": 2832,
      "##keur": 2833,
      "proces": 2834,
      "groe": 2835,
      "##oond": 2836,
      "##sten": 2837,
      "##rische": 2838,
      "acute": 2839,
      "##rin": 2840,
      "##RI": 2841,
      "gezien": 2842,
      "poten": 2843,
      "##gegevens": 2844,
      "prog": 2845,
      "verz": 2846,
      "hersen": 2847,
      "org": 2848,
      "kg": 2849,
      "verkregen": 2850,
      "##orte": 2851,
      "##versie": 2852,
      "moe": 2853,
      "##raag": 2854,
      "men": 2855,
      "concentr": 2856,
      "##sent": 2857,
      "##ov": 2858,
      "afwijk": 2859,
      "dru": 2860,
      "Dat": 2861,
      "##zicht": 2862,
      "##zet": 2863,
      "##tensie": 2864,
      "##amin": 2865,
      "nier": 2866,
      "vit": 2867,
      "aand": 2868,
      "em": 2869,
      "##ondheid": 2870,
      "se": 2871,
      "specifieke": 2872,
      "for": 2873,
      "##aanden": 2874,
      "risico": 2875,
      "##iding": 2876,
      "##vent": 2877,
      "##opro": 2878,
      "my": 2879,
      "##kl": 2880,
      "##luc": 2881,
      "##functie": 2882,
      "belangrijke": 2883,
      "gemiddel": 2884,
      "##ret": 2885,
      "##houden": 2886,
      "tumor": 2887,
      "##stru": 2888,
      "Voor": 2889,
      "##ronische": 2890,
      "##ieren": 2891,
      "maanden": 2892,
      "##assa": 2893,
      "weken": 2894,
      "##AB": 2895,
      "blij": 2896,
      "##delen": 2897,
      "##anal": 2898,
      "##mg": 2899,
      "vari": 2900,
      "leven": 2901,
      "zorg": 2902,
      "zeer": 2903,
      "volle": 2904,
      "eigen": 2905,
      "procedure": 2906,
      "##LO": 2907,
      "geh": 2908,
      "Dis": 2909,
      "##up": 2910,
      "zelf": 2911,
      "waarschijnlijk": 2912,
      "##spre": 2913,
      "##iaal": 2914,
      "##ocyten": 2915,
      "60": 2916,
      "##baarheid": 2917,
      "##én": 2918,
      "contra": 2919,
      "##abol": 2920,
      "##par": 2921,
      "vast": 2922,
      "##ool": 2923,
      "##fin": 2924,
      "PO": 2925,
      "##vloed": 2926,
      "##aard": 2927,
      "##opath": 2928,
      "car": 2929,
      "##AP": 2930,
      "##iliteit": 2931,
      "uw": 2932,
      "##anten": 2933,
      "##veer": 2934,
      "bepaal": 2935,
      "##ph": 2936,
      "bevindingen": 2937,
      "cons": 2938,
      "##BC": 2939,
      "complex": 2940,
      "##orf": 2941,
      "aangetoond": 2942,
      "##raak": 2943,
      "sympt": 2944,
      "function": 2945,
      "lijk": 2946,
      "CD": 2947,
      "sl": 2948,
      "##ffen": 2949,
      "muizen": 2950,
      "oor": 2951,
      "##ucht": 2952,
      "kinder": 2953,
      "ang": 2954,
      "huidige": 2955,
      "ret": 2956,
      "lage": 2957,
      "##press": 2958,
      "up": 2959,
      "cell": 2960,
      "neur": 2961,
      "Tablet": 2962,
      "##ïne": 2963,
      "##elat": 2964,
      "##kun": 2965,
      "techn": 2966,
      "gecon": 2967,
      "##ijf": 2968,
      "mid": 2969,
      "##oorten": 2970,
      "beide": 2971,
      "##hankelijk": 2972,
      "##MM": 2973,
      "##ene": 2974,
      "enz": 2975,
      "##nie": 2976,
      "eerder": 2977,
      "ple": 2978,
      "det": 2979,
      "##oornis": 2980,
      "et": 2981,
      "##omy": 2982,
      "aanzien": 2983,
      "##cur": 2984,
      "PR": 2985,
      "the": 2986,
      "##vorming": 2987,
      "##RNA": 2988,
      "verminderde": 2989,
      "##antie": 2990,
      "dosis": 2991,
      "sten": 2992,
      "aange": 2993,
      "##ging": 2994,
      "tonen": 2995,
      "##ition": 2996,
      "stim": 2997,
      "##anden": 2998,
      "prim": 2999,
      "mut": 3000,
      "##iot": 3001,
      "hadden": 3002,
      "##ptie": 3003,
      "##rof": 3004,
      "hoofd": 3005,
      "voorkomen": 3006,
      "mult": 3007,
      "22": 3008,
      "vir": 3009,
      "klachten": 3010,
      "##opp": 3011,
      "experim": 3012,
      "##iekenh": 3013,
      "voed": 3014,
      "ratten": 3015,
      "hydro": 3016,
      "gevallen": 3017,
      "ongeveer": 3018,
      "wel": 3019,
      "##end": 3020,
      "as": 3021,
      "##amelijk": 3022,
      "mechanis": 3023,
      "##schappen": 3024,
      "med": 3025,
      "Nee": 3026,
      "##ieën": 3027,
      "Hij": 3028,
      "even": 3029,
      "80": 3030,
      "##amilie": 3031,
      "##vang": 3032,
      "beeld": 3033,
      "##cept": 3034,
      "No": 3035,
      "##sche": 3036,
      "respectie": 3037,
      "Datum": 3038,
      "aut": 3039,
      "##str": 3040,
      "##mo": 3041,
      "un": 3042,
      "##oth": 3043,
      "pers": 3044,
      "gebied": 3045,
      "##rect": 3046,
      "toename": 3047,
      "Ab": 3048,
      "medi": 3049,
      "één": 3050,
      "weer": 3051,
      "##ych": 3052,
      "water": 3053,
      "##pass": 3054,
      "##aling": 3055,
      "som": 3056,
      "wanneer": 3057,
      "verw": 3058,
      "Di": 3059,
      "##sters": 3060,
      "##iatie": 3061,
      "##aken": 3062,
      "##esie": 3063,
      "identific": 3064,
      "aanwezigheid": 3065,
      "RR": 3066,
      "##OC": 3067,
      "05": 3068,
      "##kele": 3069,
      "##kers": 3070,
      "STE": 3071,
      "verhoogd": 3072,
      "##ity": 3073,
      "niveaus": 3074,
      "lt": 3075,
      "beïn": 3076,
      "kenmer": 3077,
      "interactie": 3078,
      "fol": 3079,
      "menselijke": 3080,
      "voorgeschiedenis": 3081,
      "##unt": 3082,
      "##ical": 3083,
      "##irurg": 3084,
      "DA": 3085,
      "##ieerde": 3086,
      "terug": 3087,
      "suggereren": 3088,
      "##PM": 3089,
      "##kingen": 3090,
      "##iekten": 3091,
      "afg": 3092,
      "fosf": 3093,
      "##aag": 3094,
      "lucht": 3095,
      "##ouw": 3096,
      "gezondheid": 3097,
      "##las": 3098,
      "respectiev": 3099,
      "##geen": 3100,
      "richt": 3101,
      "dist": 3102,
      "##neum": 3103,
      "##leg": 3104,
      "##aatste": 3105,
      "##omie": 3106,
      "darm": 3107,
      "respectievelijk": 3108,
      "dra": 3109,
      "lig": 3110,
      "huis": 3111,
      "##jectie": 3112,
      "moet": 3113,
      "##omet": 3114,
      "ziekenh": 3115,
      "licht": 3116,
      "ventr": 3117,
      "##fect": 3118,
      "##ail": 3119,
      "bloot": 3120,
      "##wege": 3121,
      "##ode": 3122,
      "conversie": 3123,
      "niveau": 3124,
      "enkele": 3125,
      "Ze": 3126,
      "##rekking": 3127,
      "elk": 3128,
      "hier": 3129,
      "##ratie": 3130,
      "opname": 3131,
      "waaronder": 3132,
      "eiwitten": 3133,
      "lichaam": 3134,
      "fys": 3135,
      "##sych": 3136,
      "##enten": 3137,
      "toonde": 3138,
      "combin": 3139,
      "goede": 3140,
      "##cri": 3141,
      "oppervla": 3142,
      "##vloe": 3143,
      "gemiddelde": 3144,
      "PM": 3145,
      "lag": 3146,
      "geïnduceerde": 3147,
      "##hankelijke": 3148,
      "methode": 3149,
      "voorsp": 3150,
      "wil": 3151,
      "##zelf": 3152,
      "90": 3153,
      "##asculaire": 3154,
      "##sproken": 3155,
      "inform": 3156,
      "gedi": 3157,
      "Ad": 3158,
      "##ynam": 3159,
      "verl": 3160,
      "##rem": 3161,
      "##merkt": 3162,
      "##eut": 3163,
      "diagnose": 3164,
      "ernstige": 3165,
      "iets": 3166,
      "##anning": 3167,
      "##sul": 3168,
      "flu": 3169,
      "##deeld": 3170,
      "##no": 3171,
      "Daar": 3172,
      "rechts": 3173,
      "laag": 3174,
      "##YY": 3175,
      "omge": 3176,
      "zou": 3177,
      "coron": 3178,
      "##OR": 3179,
      "##wassen": 3180,
      "##zoek": 3181,
      "##door": 3182,
      "##hyl": 3183,
      "plas": 3184,
      "lab": 3185,
      "gevonden": 3186,
      "isch": 3187,
      "##CA": 3188,
      "tem": 3189,
      "##br": 3190,
      "impl": 3191,
      "##opie": 3192,
      "with": 3193,
      "Hier": 3194,
      "##reat": 3195,
      "proble": 3196,
      "##cell": 3197,
      "##OS": 3198,
      "opge": 3199,
      "##teerd": 3200,
      "##fa": 3201,
      "##lacht": 3202,
      "##lep": 3203,
      "vis": 3204,
      "ECG": 3205,
      "ox": 3206,
      "chronische": 3207,
      "gec": 3208,
      "##ogene": 3209,
      "stam": 3210,
      "geïdentific": 3211,
      "lip": 3212,
      "staat": 3213,
      "str": 3214,
      "##iele": 3215,
      "kanker": 3216,
      "vl": 3217,
      "##lant": 3218,
      "##kanker": 3219,
      "geë": 3220,
      "bereik": 3221,
      "##vullen": 3222,
      "bleek": 3223,
      "mit": 3224,
      "##ject": 3225,
      "##AC": 3226,
      "##orax": 3227,
      "symptomen": 3228,
      "beve": 3229,
      "operatie": 3230,
      "23": 3231,
      "behandeld": 3232,
      "vier": 3233,
      "zal": 3234,
      "##ins": 3235,
      "##romb": 3236,
      "kinderen": 3237,
      "##alcium": 3238,
      "ziekenhuis": 3239,
      "gebas": 3240,
      "aorta": 3241,
      "##requentie": 3242,
      "##lan": 3243,
      "##Hg": 3244,
      "##TI": 3245,
      "conversiegegevens": 3246,
      "##ade": 3247,
      "##amn": 3248,
      "pla": 3249,
      "Hoe": 3250,
      "vaak": 3251,
      "##eerden": 3252,
      "CV": 3253,
      "##volgens": 3254,
      "overeen": 3255,
      "##ix": 3256,
      "veroorzaakt": 3257,
      "asp": 3258,
      "##activiteit": 3259,
      "##elect": 3260,
      "##erol": 3261,
      "bekend": 3262,
      "nucle": 3263,
      "##beeld": 3264,
      "##zel": 3265,
      "inc": 3266,
      "##wijz": 3267,
      "##mm": 3268,
      "oplos": 3269,
      "##veel": 3270,
      "soorten": 3271,
      "At": 3272,
      "PT": 3273,
      "##az": 3274,
      "##stel": 3275,
      "groter": 3276,
      "##eft": 3277,
      "##sing": 3278,
      "geneesmiddelen": 3279,
      "chrom": 3280,
      "onze": 3281,
      "regul": 3282,
      "zien": 3283,
      "bot": 3284,
      "pneum": 3285,
      "##GF": 3286,
      "nauw": 3287,
      "##ichte": 3288,
      "do": 3289,
      "##embra": 3290,
      "##uik": 3291,
      "##ay": 3292,
      "BLO": 3293,
      "onth": 3294,
      "##iken": 3295,
      "##MMING": 3296,
      "##reg": 3297,
      "##houd": 3298,
      "##oïde": 3299,
      "totale": 3300,
      "##stan": 3301,
      "##ilich": 3302,
      "AT": 3303,
      "rapp": 3304,
      "##amnese": 3305,
      "##olische": 3306,
      "##lat": 3307,
      "Norm": 3308,
      "geven": 3309,
      "##utie": 3310,
      "##lig": 3311,
      "##ijst": 3312,
      "##heel": 3313,
      "##ines": 3314,
      "hep": 3315,
      "##ILY": 3316,
      "##lijn": 3317,
      "bestaan": 3318,
      "ST": 3319,
      "abd": 3320,
      "35": 3321,
      "##tern": 3322,
      "meerdere": 3323,
      "transp": 3324,
      "var": 3325,
      "insp": 3326,
      "fen": 3327,
      "betrekking": 3328,
      "##onde": 3329,
      "pul": 3330,
      "gemeten": 3331,
      "indi": 3332,
      "receptor": 3333,
      "volwassen": 3334,
      "##gemeen": 3335,
      "##eleken": 3336,
      "geïdentificeerd": 3337,
      "##av": 3338,
      "aandoen": 3339,
      "##eur": 3340,
      "##vou": 3341,
      "28": 3342,
      "##AG": 3343,
      "##eds": 3344,
      "ou": 3345,
      "alfa": 3346,
      "##opathie": 3347,
      "45": 3348,
      "bacter": 3349,
      "32": 3350,
      "##sor": 3351,
      "01": 3352,
      "DAILY": 3353,
      "##oloog": 3354,
      "##ding": 3355,
      "##achte": 3356,
      "ru": 3357,
      "##abet": 3358,
      "##aden": 3359,
      "##ventie": 3360,
      "##eks": 3361,
      "##ferent": 3362,
      "##inus": 3363,
      "verder": 3364,
      "verband": 3365,
      "##digheden": 3366,
      "##ede": 3367,
      "##ibr": 3368,
      "duidelijk": 3369,
      "lo": 3370,
      "omdat": 3371,
      "therapie": 3372,
      "##kenen": 3373,
      "pt": 3374,
      "contrast": 3375,
      "26": 3376,
      "70": 3377,
      "belangrijkste": 3378,
      "AP": 3379,
      "##sol": 3380,
      "oraal": 3381,
      "vrouwen": 3382,
      "Am": 3383,
      "##cler": 3384,
      "STEMMING": 3385,
      "##ocardi": 3386,
      "genen": 3387,
      "vo": 3388,
      "geval": 3389,
      "##arige": 3390,
      "##ial": 3391,
      "aanzienlijk": 3392,
      "all": 3393,
      "Ac": 3394,
      "##ex": 3395,
      "elke": 3396,
      "##zelfde": 3397,
      "ve": 3398,
      "antilich": 3399,
      "tr": 3400,
      "gedrag": 3401,
      "lijkt": 3402,
      "activer": 3403,
      "metabol": 3404,
      "##vid": 3405,
      "##hol": 3406,
      "HC": 3407,
      "##OD": 3408,
      "##dragen": 3409,
      "evaluatie": 3410,
      "##10": 3411,
      "##onale": 3412,
      "##iciteit": 3413,
      "waardoor": 3414,
      "##arct": 3415,
      "##igen": 3416,
      "informatie": 3417,
      "##ief": 3418,
      "##luit": 3419,
      "##tig": 3420,
      "vooraf": 3421,
      "gesch": 3422,
      "transcri": 3423,
      "##iode": 3424,
      "kenmerken": 3425,
      "effectie": 3426,
      "##amet": 3427,
      "##osp": 3428,
      "Ca": 3429,
      "##iz": 3430,
      "HT": 3431,
      "##structie": 3432,
      "beschik": 3433,
      "vanwege": 3434,
      "line": 3435,
      "hoeveel": 3436,
      "En": 3437,
      "##these": 3438,
      "onthul": 3439,
      "status": 3440,
      "##ulair": 3441,
      "RV": 3442,
      "##fusie": 3443,
      "MRI": 3444,
      "verwijder": 3445,
      "##herapeut": 3446,
      "##wicht": 3447,
      "##ronen": 3448,
      "##verander": 3449,
      "##iseerd": 3450,
      "##ores": 3451,
      "groepen": 3452,
      "##nem": 3453,
      "##inds": 3454,
      "du": 3455,
      "##je": 3456,
      "Hoewel": 3457,
      "vertoonden": 3458,
      "##itu": 3459,
      "Res": 3460,
      "Van": 3461,
      "95": 3462,
      "afwijkingen": 3463,
      "##atine": 3464,
      "jarige": 3465,
      "CH": 3466,
      "enzym": 3467,
      "medic": 3468,
      "##UR": 3469,
      "Patiën": 3470,
      "##komst": 3471,
      "prote": 3472,
      "adem": 3473,
      "suc": 3474,
      "##droom": 3475,
      "##O2": 3476,
      "##embraan": 3477,
      "AL": 3478,
      "systeem": 3479,
      "##iter": 3480,
      "AD": 3481,
      "##icale": 3482,
      "maken": 3483,
      "fase": 3484,
      "gast": 3485,
      "##offen": 3486,
      "##AN": 3487,
      "ondersteun": 3488,
      "lok": 3489,
      "##oornissen": 3490,
      "gluc": 3491,
      "nee": 3492,
      "hist": 3493,
      "##amer": 3494,
      "##zaam": 3495,
      "positieve": 3496,
      "##inu": 3497,
      "##isme": 3498,
      "gele": 3499,
      "##otische": 3500,
      "overle": 3501,
      "##uun": 3502,
      "##ograf": 3503,
      "medische": 3504,
      "moleculaire": 3505,
      "##vas": 3506,
      "eigenschappen": 3507,
      "stabiel": 3508,
      "##lagader": 3509,
      "massa": 3510,
      "verst": 3511,
      "suggereert": 3512,
      "val": 3513,
      "##ologisch": 3514,
      "##ated": 3515,
      "##abetes": 3516,
      "vloe": 3517,
      "zij": 3518,
      "##zorg": 3519,
      "##otor": 3520,
      "29": 3521,
      "IL": 3522,
      "##behandel": 3523,
      "doc": 3524,
      "##EL": 3525,
      "##urale": 3526,
      "AS": 3527,
      "bepalen": 3528,
      "stress": 3529,
      "##test": 3530,
      "combinatie": 3531,
      "links": 3532,
      "gal": 3533,
      "##ling": 3534,
      "gelijk": 3535,
      "voort": 3536,
      "correl": 3537,
      "##lob": 3538,
      "##ular": 3539,
      "##inf": 3540,
      "vere": 3541,
      "##oire": 3542,
      "toonden": 3543,
      "##lagen": 3544,
      "direct": 3545,
      "##odi": 3546,
      "tablet": 3547,
      "bla": 3548,
      "verd": 3549,
      "##igh": 3550,
      "##rose": 3551,
      "loc": 3552,
      "bron": 3553,
      "leid": 3554,
      "75": 3555,
      "##zonder": 3556,
      "##iegel": 3557,
      "gerelat": 3558,
      "AF": 3559,
      "cl": 3560,
      "##arts": 3561,
      "##osc": 3562,
      "naam": 3563,
      "ag": 3564,
      "##erden": 3565,
      "CR": 3566,
      "immuun": 3567,
      "##maal": 3568,
      "mar": 3569,
      "##raat": 3570,
      "cent": 3571,
      "pop": 3572,
      "psych": 3573,
      "##atheter": 3574,
      "27": 3575,
      "moeten": 3576,
      "##iklin": 3577,
      "net": 3578,
      "foc": 3579,
      "##kw": 3580,
      "achter": 3581,
      "minu": 3582,
      "verbeteren": 3583,
      "##gt": 3584,
      "primaire": 3585,
      "##teg": 3586,
      "##inig": 3587,
      "present": 3588,
      "bevestig": 3589,
      "chirurg": 3590,
      "##tr": 3591,
      "mmHg": 3592,
      "##quent": 3593,
      "Onder": 3594,
      "toepass": 3595,
      "##kin": 3596,
      "##tens": 3597,
      "hypertensie": 3598,
      "chem": 3599,
      "polym": 3600,
      "##pers": 3601,
      "maxim": 3602,
      "##cursus": 3603,
      "##reen": 3604,
      "grootte": 3605,
      "blijft": 3606,
      "##MI": 3607,
      "verandering": 3608,
      "nan": 3609,
      "##struct": 3610,
      "Hy": 3611,
      "amin": 3612,
      "analys": 3613,
      "hogere": 3614,
      "Procedure": 3615,
      "LOC": 3616,
      "respons": 3617,
      "Pt": 3618,
      "##ary": 3619,
      "##UIS": 3620,
      "##itme": 3621,
      "vertoonde": 3622,
      "laatste": 3623,
      "##gemen": 3624,
      "Le": 3625,
      "##standigheden": 3626,
      "dus": 3627,
      "##bel": 3628,
      "##atient": 3629,
      "hal": 3630,
      "##over": 3631,
      "##ragen": 3632,
      "ID": 3633,
      "vitro": 3634,
      "##erend": 3635,
      "##laag": 3636,
      "RD": 3637,
      "##ulte": 3638,
      "##nieuw": 3639,
      "uitgebre": 3640,
      "##KEN": 3641,
      "##rip": 3642,
      "cir": 3643,
      "centr": 3644,
      "individ": 3645,
      "druk": 3646,
      "##gemene": 3647,
      "familie": 3648,
      "serum": 3649,
      "31": 3650,
      "tekenen": 3651,
      "##cinoom": 3652,
      "Samen": 3653,
      "aanwijz": 3654,
      "##deel": 3655,
      "vergeleken": 3656,
      "Af": 3657,
      "##arak": 3658,
      "##aad": 3659,
      "##istent": 3660,
      "##asen": 3661,
      "##idatie": 3662,
      "Ges": 3663,
      "##gte": 3664,
      "##voe": 3665,
      "##arakter": 3666,
      "##etten": 3667,
      "datum": 3668,
      "matige": 3669,
      "ZIE": 3670,
      "mmol": 3671,
      "LOCATIE": 3672,
      "##imale": 3673,
      "##ior": 3674,
      "waarvoor": 3675,
      "##pression": 3676,
      "Niet": 3677,
      "LE": 3678,
      "36": 3679,
      "vergelijkbaar": 3680,
      "verschil": 3681,
      "MCH": 3682,
      "##HUIS": 3683,
      "ZIEKEN": 3684,
      "ZIEKENHUIS": 3685,
      "Ph": 3686,
      "gedet": 3687,
      "##tieel": 3688,
      "##aps": 3689,
      "##iciëntie": 3690,
      "hoger": 3691,
      "recente": 3692,
      "##genen": 3693,
      "Uit": 3694,
      "BP": 3695,
      "path": 3696,
      "##wn": 3697,
      "##mige": 3698,
      "bepaald": 3699,
      "HR": 3700,
      "##LE": 3701,
      "##rond": 3702,
      "##centage": 3703,
      "kon": 3704,
      "eerdere": 3705,
      "##vatting": 3706,
      "besproken": 3707,
      "vormen": 3708,
      "##iculaire": 3709,
      "##uderen": 3710,
      "##pijn": 3711,
      "mat": 3712,
      "structuur": 3713,
      "afhankelijk": 3714,
      "non": 3715,
      "hand": 3716,
      "Tot": 3717,
      "different": 3718,
      "ker": 3719,
      "##dag": 3720,
      "Onze": 3721,
      "##IT": 3722,
      "mogelijke": 3723,
      "atrium": 3724,
      "##gene": 3725,
      "##digen": 3726,
      "##model": 3727,
      "LAD": 3728,
      "buik": 3729,
      "geschiedenis": 3730,
      "gemeen": 3731,
      "volledig": 3732,
      "oede": 3733,
      "##rijven": 3734,
      "##richt": 3735,
      "##ital": 3736,
      "ons": 3737,
      "cycl": 3738,
      "##inden": 3739,
      "productie": 3740,
      "##schapp": 3741,
      "##ild": 3742,
      "beoordeeld": 3743,
      "sterk": 3744,
      "begin": 3745,
      "##regel": 3746,
      "vervolgens": 3747,
      "##chte": 3748,
      "benader": 3749,
      "ruim": 3750,
      "##gaande": 3751,
      "##itieve": 3752,
      "open": 3753,
      "tweede": 3754,
      "opgenomen": 3755,
      "verte": 3756,
      "klein": 3757,
      "bilaterale": 3758,
      "artikel": 3759,
      "##rief": 3760,
      "Name": 3761,
      "Sig": 3762,
      "Pre": 3763,
      "stand": 3764,
      "##ice": 3765,
      "##ombin": 3766,
      "zwang": 3767,
      "##rol": 3768,
      "resulte": 3769,
      "negatieve": 3770,
      "##pleeg": 3771,
      "sele": 3772,
      "factoren": 3773,
      "##ergie": 3774,
      "algemeen": 3775,
      "##12": 3776,
      "##oma": 3777,
      "##oplas": 3778,
      "evenals": 3779,
      "negatief": 3780,
      "##ime": 3781,
      "##ueel": 3782,
      "33": 3783,
      "##ocyt": 3784,
      "RNA": 3785,
      "MC": 3786,
      "##loten": 3787,
      "vet": 3788,
      "##esies": 3789,
      "fib": 3790,
      "##alisatie": 3791,
      "succes": 3792,
      "##menten": 3793,
      "steeds": 3794,
      "##ziekte": 3795,
      "chol": 3796,
      "##ionele": 3797,
      "week": 3798,
      "follow": 3799,
      "##lyc": 3800,
      "Disp": 3801,
      "##aker": 3802,
      "##udeerd": 3803,
      "##otte": 3804,
      "##order": 3805,
      "##ory": 3806,
      "##ly": 3807,
      "##UL": 3808,
      "##weging": 3809,
      "##otherapie": 3810,
      "bes": 3811,
      "kre": 3812,
      "maag": 3813,
      "##eptide": 3814,
      "signaal": 3815,
      "potent": 3816,
      "geleid": 3817,
      "tromb": 3818,
      "gt": 3819,
      "##omein": 3820,
      "lichte": 3821,
      "slechts": 3822,
      "panc": 3823,
      "ervan": 3824,
      "PCI": 3825,
      "dagelijk": 3826,
      "##vers": 3827,
      "##rakt": 3828,
      "##ain": 3829,
      "aanwijzingen": 3830,
      "##IV": 3831,
      "term": 3832,
      "zuur": 3833,
      "concentratie": 3834,
      "kort": 3835,
      "##atrium": 3836,
      "functionele": 3837,
      "02": 3838,
      "Per": 3839,
      "organis": 3840,
      "##iseerde": 3841,
      "kin": 3842,
      "##ange": 3843,
      "##orator": 3844,
      "regel": 3845,
      "##ICATIE": 3846,
      "##ans": 3847,
      "stimul": 3848,
      "##illig": 3849,
      "contact": 3850,
      "AC": 3851,
      "He": 3852,
      "binding": 3853,
      "laten": 3854,
      "invloed": 3855,
      "37": 3856,
      "echo": 3857,
      "##ps": 3858,
      "vermogen": 3859,
      "therapeut": 3860,
      "zen": 3861,
      "##ichten": 3862,
      "ICD": 3863,
      "##genwoor": 3864,
      "zicht": 3865,
      "MS": 3866,
      "##wijzig": 3867,
      "iv": 3868,
      "gewicht": 3869,
      "hom": 3870,
      "Als": 3871,
      "bijn": 3872,
      "##aand": 3873,
      "prot": 3874,
      "mel": 3875,
      "kreeg": 3876,
      "##ege": 3877,
      "##ibrill": 3878,
      "##ura": 3879,
      "sh": 3880,
      "mater": 3881,
      "antib": 3882,
      "##wegen": 3883,
      "IND": 3884,
      "##peratuur": 3885,
      "##uff": 3886,
      "super": 3887,
      "actieve": 3888,
      "urine": 3889,
      "complic": 3890,
      "MD": 3891,
      "##iologische": 3892,
      "##roon": 3893,
      "kwant": 3894,
      "##èt": 3895,
      "##mie": 3896,
      "opnieuw": 3897,
      "##atal": 3898,
      "hoewel": 3899,
      "RA": 3900,
      "##lif": 3901,
      "verbetering": 3902,
      "##icatie": 3903,
      "Beleid": 3904,
      "##ysp": 3905,
      "##ero": 3906,
      "##land": 3907,
      "##iew": 3908,
      "##pre": 3909,
      "##activ": 3910,
      "spier": 3911,
      "##eltjes": 3912,
      "kom": 3913,
      "##analys": 3914,
      "oog": 3915,
      "viv": 3916,
      "##keld": 3917,
      "snelheid": 3918,
      "ul": 3919,
      "##gd": 3920,
      "hulp": 3921,
      "aanbe": 3922,
      "##omische": 3923,
      "midden": 3924,
      "##ET": 3925,
      "regio": 3926,
      "55": 3927,
      "organ": 3928,
      "gevoeligheid": 3929,
      "activering": 3930,
      "glyc": 3931,
      "meeste": 3932,
      "##ocard": 3933,
      "rest": 3934,
      "##falen": 3935,
      "##norm": 3936,
      "nood": 3937,
      "rapport": 3938,
      "##ume": 3939,
      "mal": 3940,
      "hemat": 3941,
      "##pp": 3942,
      "zenuw": 3943,
      "rele": 3944,
      "nut": 3945,
      "##orac": 3946,
      "progressie": 3947,
      "gemed": 3948,
      "##oment": 3949,
      "mechanismen": 3950,
      "gegeven": 3951,
      "gebru": 3952,
      "199": 3953,
      "INDICATIE": 3954,
      "bieden": 3955,
      "##omin": 3956,
      "oedeem": 3957,
      "##loed": 3958,
      "##laire": 3959,
      "##past": 3960,
      "blootstelling": 3961,
      "##reden": 3962,
      "intact": 3963,
      "voorn": 3964,
      "experiment": 3965,
      "hum": 3966,
      "fot": 3967,
      "##ameters": 3968,
      "geëvalu": 3969,
      "##aste": 3970,
      "minuten": 3971,
      "beïnvloe": 3972,
      "kracht": 3973,
      "vivo": 3974,
      "##lam": 3975,
      "Ech": 3976,
      "Anamnese": 3977,
      "Pol": 3978,
      "name": 3979,
      "##cellulaire": 3980,
      "##trol": 3981,
      "genetische": 3982,
      "beoordelen": 3983,
      "##gram": 3984,
      "gemaakt": 3985,
      "##ider": 3986,
      "Cor": 3987,
      "ischemie": 3988,
      "##PO": 3989,
      "bèt": 3990,
      "inst": 3991,
      "liter": 3992,
      "dim": 3993,
      "vastgesteld": 3994,
      "48": 3995,
      "beperkt": 3996,
      "##spraak": 3997,
      "groei": 3998,
      "##cc": 3999,
      "potentieel": 4000,
      "ja": 4001,
      "beoordeling": 4002,
      "levens": 4003,
      "stroom": 4004,
      "##aalde": 4005,
      "##ating": 4006,
      "bekken": 4007,
      "arter": 4008,
      "##esterol": 4009,
      "##ytische": 4010,
      "fra": 4011,
      "dieren": 4012,
      "##afhankelijke": 4013,
      "##oorts": 4014,
      "##centie": 4015,
      "impression": 4016,
      "##ongen": 4017,
      "##iteiten": 4018,
      "##voudige": 4019,
      "geëvalueerd": 4020,
      "##pak": 4021,
      "waarde": 4022,
      "produc": 4023,
      "##gra": 4024,
      "poly": 4025,
      "route": 4026,
      "##car": 4027,
      "aden": 4028,
      "##ociale": 4029,
      "effusie": 4030,
      "##diening": 4031,
      "insul": 4032,
      "##idine": 4033,
      "##rale": 4034,
      "##istof": 4035,
      "34": 4036,
      "##vullend": 4037,
      "acht": 4038,
      "##dan": 4039,
      "##aring": 4040,
      "diagnost": 4041,
      "moment": 4042,
      "##lor": 4043,
      "chromos": 4044,
      "continu": 4045,
      "oste": 4046,
      "morf": 4047,
      "mis": 4048,
      "periode": 4049,
      "ademhal": 4050,
      "##eling": 4051,
      "nauwkeur": 4052,
      "dicht": 4053,
      "Lab": 4054,
      "##oef": 4055,
      "calcium": 4056,
      "gereg": 4057,
      "vroege": 4058,
      "##vatten": 4059,
      "##armac": 4060,
      "gevolgd": 4061,
      "##olom": 4062,
      "afge": 4063,
      "factor": 4064,
      "dezelfde": 4065,
      "Cl": 4066,
      "bio": 4067,
      "##eu": 4068,
      "##zij": 4069,
      "ontwikkeld": 4070,
      "##enen": 4071,
      "##orb": 4072,
      "patho": 4073,
      "ax": 4074,
      "relatie": 4075,
      "volgende": 4076,
      "kal": 4077,
      "mRNA": 4078,
      "sla": 4079,
      "syndroom": 4080,
      "waarvan": 4081,
      "AM": 4082,
      "ontde": 4083,
      "spect": 4084,
      "mate": 4085,
      "zwanger": 4086,
      "frequentie": 4087,
      "Hyper": 4088,
      "implant": 4089,
      "leiden": 4090,
      "##vis": 4091,
      "proef": 4092,
      "##dracht": 4093,
      "virus": 4094,
      "##iologie": 4095,
      "sinds": 4096,
      "##ateraal": 4097,
      "verzam": 4098,
      "perif": 4099,
      "sommige": 4100,
      "actie": 4101,
      "##ae": 4102,
      "duur": 4103,
      "##ock": 4104,
      "vorming": 4105,
      "gericht": 4106,
      "##plaat": 4107,
      "##JD": 4108,
      "bloeddruk": 4109,
      "isol": 4110,
      "vrije": 4111,
      "Hart": 4112,
      "##TR": 4113,
      "##cel": 4114,
      "gezondheids": 4115,
      "##halte": 4116,
      "beter": 4117,
      "##itte": 4118,
      "hersenen": 4119,
      "geïsol": 4120,
      "hoeveelheid": 4121,
      "versus": 4122,
      "verdere": 4123,
      "98": 4124,
      "mac": 4125,
      "amino": 4126,
      "##ziekten": 4127,
      "##atisch": 4128,
      "##ace": 4129,
      "concentraties": 4130,
      "##ificatie": 4131,
      "totaal": 4132,
      "toont": 4133,
      "##ellingen": 4134,
      "wand": 4135,
      "##klier": 4136,
      "cardiale": 4137,
      "##urele": 4138,
      "##zing": 4139,
      "##aakte": 4140,
      "##tex": 4141,
      "identificeren": 4142,
      "##drukt": 4143,
      "form": 4144,
      "##amp": 4145,
      "mod": 4146,
      "product": 4147,
      "##aliseerde": 4148,
      "SP": 4149,
      "##ogram": 4150,
      "AB": 4151,
      "vertegenwoor": 4152,
      "UR": 4153,
      "verminderen": 4154,
      "Tijd": 4155,
      "##accin": 4156,
      "##doende": 4157,
      "reacties": 4158,
      "mensen": 4159,
      "tox": 4160,
      "volgens": 4161,
      "##nivea": 4162,
      "RDW": 4163,
      "##ros": 4164,
      "##ulaties": 4165,
      "centrale": 4166,
      "gedetect": 4167,
      "##serv": 4168,
      "bed": 4169,
      "meestal": 4170,
      "vijf": 4171,
      "##onist": 4172,
      "mann": 4173,
      "##oem": 4174,
      "##orgen": 4175,
      "##tale": 4176,
      "##ance": 4177,
      "seg": 4178,
      "recht": 4179,
      "oorz": 4180,
      "gedeelt": 4181,
      "verkl": 4182,
      "membraan": 4183,
      "verminderd": 4184,
      "stellen": 4185,
      "antibiot": 4186,
      "bew": 4187,
      "kwaliteit": 4188,
      "weinig": 4189,
      "bra": 4190,
      "pac": 4191,
      "LEEF": 4192,
      "##20": 4193,
      "##operatieve": 4194,
      "##itor": 4195,
      "##ieve": 4196,
      "bespre": 4197,
      "99": 4198,
      "proxim": 4199,
      "##tijd": 4200,
      "##oler": 4201,
      "verbeterde": 4202,
      "##heer": 4203,
      "lagere": 4204,
      "##volle": 4205,
      "##oord": 4206,
      "middelen": 4207,
      "##asp": 4208,
      "Overzicht": 4209,
      "##TIJD": 4210,
      "disc": 4211,
      "##ument": 4212,
      "##ina": 4213,
      "voornamelijk": 4214,
      "gebruiken": 4215,
      "Alle": 4216,
      "LEEFTIJD": 4217,
      "mG": 4218,
      "ontste": 4219,
      "problemen": 4220,
      "##analyse": 4221,
      "secund": 4222,
      "##spec": 4223,
      "All": 4224,
      "##uleerd": 4225,
      "bevatten": 4226,
      "##duid": 4227,
      "##stoornissen": 4228,
      "Patiënt": 4229,
      "##illigram": 4230,
      "##hydro": 4231,
      "##ocol": 4232,
      "##imeter": 4233,
      "bescher": 4234,
      "##istentie": 4235,
      "##iging": 4236,
      "##pe": 4237,
      "##ergelijke": 4238,
      "ext": 4239,
      "milligram": 4240,
      "stop": 4241,
      "prest": 4242,
      "biologische": 4243,
      "mond": 4244,
      "##BP": 4245,
      "hepat": 4246,
      "##opische": 4247,
      "##log": 4248,
      "pH": 4249,
      "klinisch": 4250,
      "65": 4251,
      "volledige": 4252,
      "laesies": 4253,
      "Hist": 4254,
      "medicatie": 4255,
      "houden": 4256,
      "gepre": 4257,
      "waarden": 4258,
      "##onie": 4259,
      "assoc": 4260,
      "snelle": 4261,
      "methoden": 4262,
      "##emt": 4263,
      "##cohol": 4264,
      "##akkelijk": 4265,
      "Co": 4266,
      "##concentr": 4267,
      "##orale": 4268,
      "Sc": 4269,
      "Medic": 4270,
      "induc": 4271,
      "colleg": 4272,
      "##ril": 4273,
      "Normale": 4274,
      "##verl": 4275,
      "##itale": 4276,
      "cellulaire": 4277,
      "COMP": 4278,
      "##wezen": 4279,
      "MI": 4280,
      "##scheiden": 4281,
      "##miss": 4282,
      "gedetecteerd": 4283,
      "Ig": 4284,
      "##ree": 4285,
      "NS": 4286,
      "Un": 4287,
      "inge": 4288,
      "000": 4289,
      "##uiten": 4290,
      "##apt": 4291,
      "##engte": 4292,
      "geken": 4293,
      "##behandeling": 4294,
      "beelden": 4295,
      "500": 4296,
      "38": 4297,
      "omstandigheden": 4298,
      "Klin": 4299,
      "gekenmerkt": 4300,
      "Zo": 4301,
      "vereist": 4302,
      "##usies": 4303,
      "enkel": 4304,
      "dL": 4305,
      "NE": 4306,
      "##ameter": 4307,
      "fo": 4308,
      "##stem": 4309,
      "pulmon": 4310,
      "SR": 4311,
      "##achting": 4312,
      "##kings": 4313,
      "sinus": 4314,
      "zetten": 4315,
      "##fibrill": 4316,
      "##ors": 4317,
      "##II": 4318,
      "##ight": 4319,
      "cult": 4320,
      "PA": 4321,
      "##tij": 4322,
      "##gelopen": 4323,
      "AV": 4324,
      "gaat": 4325,
      "koorts": 4326,
      "##ifte": 4327,
      "ED": 4328,
      "##gestelde": 4329,
      "##otox": 4330,
      "##dende": 4331,
      "41": 4332,
      "##ARIS": 4333,
      "imp": 4334,
      "diabetes": 4335,
      "gecontrole": 4336,
      "fil": 4337,
      "toediening": 4338,
      "bloe": 4339,
      "bekende": 4340,
      "injectie": 4341,
      "LD": 4342,
      "mechanisme": 4343,
      "sens": 4344,
      "manier": 4345,
      "Vers": 4346,
      "acet": 4347,
      "Reden": 4348,
      "potentiële": 4349,
      "CK": 4350,
      "##adem": 4351,
      "mGy": 4352,
      "##ochten": 4353,
      "evalueren": 4354,
      "vers": 4355,
      "Samenvatting": 4356,
      "komen": 4357,
      "##ycard": 4358,
      "##cul": 4359,
      "##personen": 4360,
      "waarin": 4361,
      "remming": 4362,
      "verster": 4363,
      "Gen": 4364,
      "##ycine": 4365,
      "karakter": 4366,
      "standaard": 4367,
      "##quenties": 4368,
      "COMPARIS": 4369,
      "relev": 4370,
      "cort": 4371,
      "algemene": 4372,
      "##iëren": 4373,
      "##rijgen": 4374,
      "##view": 4375,
      "##stre": 4376,
      "##otype": 4377,
      "CP": 4378,
      "bèta": 4379,
      "##wand": 4380,
      "Brief": 4381,
      "stenose": 4382,
      "NEG": 4383,
      "##schappelijke": 4384,
      "prakt": 4385,
      "gepresen": 4386,
      "der": 4387,
      "##matig": 4388,
      "bevat": 4389,
      "##irus": 4390,
      "##adig": 4391,
      "##cum": 4392,
      "remmen": 4393,
      "MR": 4394,
      "##dex": 4395,
      "blok": 4396,
      "##resp": 4397,
      "Rec": 4398,
      "zwangerschap": 4399,
      "link": 4400,
      "##rist": 4401,
      "duidelijke": 4402,
      "##ieure": 4403,
      "##les": 4404,
      "wervel": 4405,
      "##scopie": 4406,
      "positief": 4407,
      "##ulf": 4408,
      "gebaseerde": 4409,
      "pancre": 4410,
      "##teel": 4411,
      "##fra": 4412,
      "rug": 4413,
      "##lantatie": 4414,
      "##spron": 4415,
      "COMPARISON": 4416,
      "literatuur": 4417,
      "mes": 4418,
      "##aart": 4419,
      "monsters": 4420,
      "III": 4421,
      "leidt": 4422,
      "##pol": 4423,
      "gedilat": 4424,
      "rust": 4425,
      "methyl": 4426,
      "##oratorium": 4427,
      "WBC": 4428,
      "##lol": 4429,
      "##riale": 4430,
      "spra": 4431,
      "##staan": 4432,
      "##danks": 4433,
      "gebieden": 4434,
      "blijven": 4435,
      "PRN": 4436,
      "let": 4437,
      "vergro": 4438,
      "##to": 4439,
      "bestaande": 4440,
      "gemeld": 4441,
      "##nn": 4442,
      "subst": 4443,
      "cere": 4444,
      "##put": 4445,
      "##ilijk": 4446,
      "dysp": 4447,
      "##oplast": 4448,
      "Diagn": 4449,
      "chemische": 4450,
      "vocht": 4451,
      "distale": 4452,
      "97": 4453,
      "##ning": 4454,
      "##osine": 4455,
      "##euze": 4456,
      "##uut": 4457,
      "ziekten": 4458,
      "##werking": 4459,
      "##PS": 4460,
      "variab": 4461,
      "oude": 4462,
      "PD": 4463,
      "BLOED": 4464,
      "##inine": 4465,
      "##oprote": 4466,
      "plasm": 4467,
      "vasculaire": 4468,
      "korte": 4469,
      "##etisch": 4470,
      "fem": 4471,
      "03": 4472,
      "control": 4473,
      "##lijden": 4474,
      "apopt": 4475,
      "##mission": 4476,
      "150": 4477,
      "##int": 4478,
      "##oden": 4479,
      "arts": 4480,
      "##aven": 4481,
      "transcriptie": 4482,
      "##umb": 4483,
      "mannen": 4484,
      "opz": 4485,
      "O2": 4486,
      "##pel": 4487,
      "abnorm": 4488,
      "##ile": 4489,
      "therapeutische": 4490,
      "gepro": 4491,
      "tri": 4492,
      "##oper": 4493,
      "BID": 4494,
      "keer": 4495,
      "domein": 4496,
      "invas": 4497,
      "Ar": 4498,
      "##11": 4499,
      "appar": 4500,
      "specifiek": 4501,
      "##gebruik": 4502,
      "complicaties": 4503,
      "##bere": 4504,
      "##laatst": 4505,
      "##leden": 4506,
      "erv": 4507,
      "vragen": 4508,
      "rond": 4509,
      "screen": 4510,
      "##weefsel": 4511,
      "maakt": 4512,
      "##wijzigd": 4513,
      "veroorzaken": 4514,
      "verh": 4515,
      "##issie": 4516,
      "##zame": 4517,
      "##oxide": 4518,
      "##ieten": 4519,
      "controles": 4520,
      "##atale": 4521,
      "detectie": 4522,
      "SC": 4523,
      "gehad": 4524,
      "sche": 4525,
      "##ullen": 4526,
      "##uleerde": 4527,
      "energie": 4528,
      "Im": 4529,
      "##roc": 4530,
      "inflam": 4531,
      "afwezig": 4532,
      "inspanning": 4533,
      "##otyp": 4534,
      "dynam": 4535,
      "##YYYY": 4536,
      "##ospital": 4537,
      "vervolg": 4538,
      "##ografische": 4539,
      "##lut": 4540,
      "gener": 4541,
      "##ric": 4542,
      "##inter": 4543,
      "##bla": 4544,
      "poliklin": 4545,
      "laesie": 4546,
      "Aanvullend": 4547,
      "dil": 4548,
      "centimeter": 4549,
      "onbe": 4550,
      "##verlies": 4551,
      "##reactie": 4552,
      "##antwoord": 4553,
      "afgelopen": 4554,
      "##spectie": 4555,
      "##nemers": 4556,
      "geanalys": 4557,
      "##matige": 4558,
      "##ulen": 4559,
      "42": 4560,
      "##datum": 4561,
      "##vangen": 4562,
      "afname": 4563,
      "code": 4564,
      "##gs": 4565,
      "bestudeerd": 4566,
      "TI": 4567,
      "##ouwd": 4568,
      "##ionale": 4569,
      "vooral": 4570,
      "##asis": 4571,
      "Hg": 4572,
      "##LP": 4573,
      "##been": 4574,
      "##uter": 4575,
      "inciden": 4576,
      "##arge": 4577,
      "##kundige": 4578,
      "beïnvloed": 4579,
      "weefsels": 4580,
      "lange": 4581,
      "##uen": 4582,
      "##mers": 4583,
      "red": 4584,
      "##aald": 4585,
      "neuronen": 4586,
      "##bi": 4587,
      "geschik": 4588,
      "##osis": 4589,
      "const": 4590,
      "##ts": 4591,
      "dergelijke": 4592,
      "##MA": 4593,
      "graden": 4594,
      "peric": 4595,
      "##able": 4596,
      "##ochond": 4597,
      "ontwikkelen": 4598,
      "sim": 4599,
      "thuis": 4600,
      "soort": 4601,
      "##EH": 4602,
      "##stud": 4603,
      "##SI": 4604,
      "kool": 4605,
      "gerelateerd": 4606,
      "consistent": 4607,
      "zuurstof": 4608,
      "##DI": 4609,
      "##indt": 4610,
      "omvatten": 4611,
      "##stroom": 4612,
      "oppervlakte": 4613,
      "##onent": 4614,
      "ivm": 4615,
      "pleura": 4616,
      "herh": 4617,
      "##mol": 4618,
      "diff": 4619,
      "activiteiten": 4620,
      "##iedt": 4621,
      "##tel": 4622,
      "dd": 4623,
      "##mun": 4624,
      "depressie": 4625,
      "kleur": 4626,
      "verspre": 4627,
      "oorspron": 4628,
      "Comp": 4629,
      "sup": 4630,
      "##ry": 4631,
      "OR": 4632,
      "Door": 4633,
      "ER": 4634,
      "##osition": 4635,
      "##eringe": 4636,
      "##diend": 4637,
      "weten": 4638,
      "functies": 4639,
      "##daag": 4640,
      "been": 4641,
      "integ": 4642,
      "##yr": 4643,
      "geplaatst": 4644,
      "leuk": 4645,
      "vertonen": 4646,
      "##au": 4647,
      "Medicatie": 4648,
      "##duceerd": 4649,
      "detect": 4650,
      "43": 4651,
      "EF": 4652,
      "Keu": 4653,
      "##UE": 4654,
      "##ogn": 4655,
      "onop": 4656,
      "##staat": 4657,
      "##zelijst": 4658,
      "Keuzelijst": 4659,
      "##aliseerd": 4660,
      "out": 4661,
      "verwijderd": 4662,
      "##oprolol": 4663,
      "grond": 4664,
      "Decursus": 4665,
      "biedt": 4666,
      "##atist": 4667,
      "BS": 4668,
      "##ral": 4669,
      "##lect": 4670,
      "ess": 4671,
      "gepresenteerd": 4672,
      "##uig": 4673,
      "##aanse": 4674,
      "##rengen": 4675,
      "##lok": 4676,
      "##onderzoek": 4677,
      "veil": 4678,
      "aandoeningen": 4679,
      "buiten": 4680,
      "onderzochten": 4681,
      "##unten": 4682,
      "##liferatie": 4683,
      "gebaseerd": 4684,
      "S1": 4685,
      "antilichamen": 4686,
      "patient": 4687,
      "##afhankelijk": 4688,
      "angi": 4689,
      "##NP": 4690,
      "##chol": 4691,
      "Neuro": 4692,
      "nemen": 4693,
      "jaren": 4694,
      "beeldvorming": 4695,
      "PS": 4696,
      "##line": 4697,
      "##uiver": 4698,
      "##oph": 4699,
      "##ift": 4700,
      "systemen": 4701,
      "##othorax": 4702,
      "##50": 4703,
      "structuren": 4704,
      "verbindingen": 4705,
      "##metho": 4706,
      "verlies": 4707,
      "tumoren": 4708,
      "##ili": 4709,
      "ritme": 4710,
      "DD": 4711,
      "##generatieve": 4712,
      "natuur": 4713,
      "dec": 4714,
      "strateg": 4715,
      "##atio": 4716,
      "colla": 4717,
      "huisarts": 4718,
      "##ENT": 4719,
      "experimentele": 4720,
      "beheer": 4721,
      "##groepen": 4722,
      "##ycardie": 4723,
      "situ": 4724,
      "toepassing": 4725,
      "##alp": 4726,
      "##sloten": 4727,
      "##kant": 4728,
      "Abd": 4729,
      "##raz": 4730,
      "##res": 4731,
      "##bol": 4732,
      "##kening": 4733,
      "zes": 4734,
      "dubb": 4735,
      "gaan": 4736,
      "##dition": 4737,
      "overleving": 4738,
      "Ten": 4739,
      "tach": 4740,
      "##cip": 4741,
      "zeld": 4742,
      "opzichte": 4743,
      "##oster": 4744,
      "proefpersonen": 4745,
      "geanalyseerd": 4746,
      "##oeder": 4747,
      "##NI": 4748,
      "dieet": 4749,
      "Ass": 4750,
      "pancreas": 4751,
      "##CC": 4752,
      "omvat": 4753,
      "last": 4754,
      "dys": 4755,
      "Hospital": 4756,
      "beta": 4757,
      "beïnvloeden": 4758,
      "HIV": 4759,
      "zichtbaar": 4760,
      "laterale": 4761,
      "verpleeg": 4762,
      "##kking": 4763,
      "Qu": 4764,
      "##tenis": 4765,
      "thorac": 4766,
      "beschikbaar": 4767,
      "##INE": 4768,
      "lijn": 4769,
      "##lang": 4770,
      "so": 4771,
      "##OM": 4772,
      "stadi": 4773,
      "##osit": 4774,
      "##eed": 4775,
      "39": 4776,
      "##slagen": 4777,
      "##eria": 4778,
      "fe": 4779,
      "##vallend": 4780,
      "Com": 4781,
      "##bo": 4782,
      "##klep": 4783,
      "aandoening": 4784,
      "Inter": 4785,
      "##lav": 4786,
      "toestand": 4787,
      "##olf": 4788,
      "04": 4789,
      "##ritme": 4790,
      "ATP": 4791,
      "##orpen": 4792,
      "insuline": 4793,
      "##ody": 4794,
      "voorkomende": 4795,
      "effectief": 4796,
      "oppervlak": 4797,
      "stof": 4798,
      "herst": 4799,
      "noodz": 4800,
      "onthulde": 4801,
      "uitgebreide": 4802,
      "##erp": 4803,
      "##amma": 4804,
      "##rib": 4805,
      "##fibrilleren": 4806,
      "spelen": 4807,
      "focale": 4808,
      "##13": 4809,
      "moeilijk": 4810,
      "hele": 4811,
      "##werk": 4812,
      "verbeterd": 4813,
      "##formatie": 4814,
      "kru": 4815,
      "##OP": 4816,
      "magn": 4817,
      "Te": 4818,
      "##orrel": 4819,
      "toel": 4820,
      "mechan": 4821,
      "##US": 4822,
      "##gelijk": 4823,
      "##latie": 4824,
      "lokale": 4825,
      "##gener": 4826,
      "systolische": 4827,
      "##indings": 4828,
      "dro": 4829,
      "##apsule": 4830,
      "##urs": 4831,
      "##issel": 4832,
      "##emaker": 4833,
      "neut": 4834,
      "##dd": 4835,
      "gezicht": 4836,
      "##gewicht": 4837,
      "HS": 4838,
      "##ikkel": 4839,
      "drain": 4840,
      "katheter": 4841,
      "mi": 4842,
      "##lij": 4843,
      "plasma": 4844,
      "techniek": 4845,
      "bijwer": 4846,
      "katal": 4847,
      "##oi": 4848,
      "##ms": 4849,
      "##che": 4850,
      "beleid": 4851,
      "afgifte": 4852,
      "##trans": 4853,
      "Twee": 4854,
      "defin": 4855,
      "kno": 4856,
      "PV": 4857,
      "retro": 4858,
      "##herm": 4859,
      "grotere": 4860,
      "44": 4861,
      "asc": 4862,
      "One": 4863,
      "##ichting": 4864,
      "plaat": 4865,
      "receptoren": 4866,
      "Plan": 4867,
      "##omenteel": 4868,
      "CC": 4869,
      "wereld": 4870,
      "##essment": 4871,
      "##itatie": 4872,
      "##opsie": 4873,
      "##sorptie": 4874,
      "##xy": 4875,
      "bepaalde": 4876,
      "Date": 4877,
      "##uiden": 4878,
      "##nelheid": 4879,
      "bereikt": 4880,
      "CS": 4881,
      "aspect": 4882,
      "##kolom": 4883,
      "vaat": 4884,
      "BLOOD": 4885,
      "96": 4886,
      "##onenten": 4887,
      "RCA": 4888,
      "##asse": 4889,
      "##EM": 4890,
      "Resp": 4891,
      "temperatuur": 4892,
      "##ous": 4893,
      "##consult": 4894,
      "Daarom": 4895,
      "AR": 4896,
      "interne": 4897,
      "sprake": 4898,
      "metast": 4899,
      "alcohol": 4900,
      "lichaams": 4901,
      "##isie": 4902,
      "recid": 4903,
      "scan": 4904,
      "SV": 4905,
      "##liggende": 4906,
      "Allerg": 4907,
      "pneumothorax": 4908,
      "##waarden": 4909,
      "acuut": 4910,
      "##uiste": 4911,
      "sn": 4912,
      "correlatie": 4913,
      "##14": 4914,
      "score": 4915,
      "TN": 4916,
      "##EP": 4917,
      "##ofactoren": 4918,
      "##verb": 4919,
      "toegepast": 4920,
      "begon": 4921,
      "plan": 4922,
      "ein": 4923,
      "##dur": 4924,
      "richtlijn": 4925,
      "##nauw": 4926,
      "vene": 4927,
      "speel": 4928,
      "##SH": 4929,
      "Mon": 4930,
      "farmac": 4931,
      "komt": 4932,
      "toegediend": 4933,
      "cru": 4934,
      "##fic": 4935,
      "##product": 4936,
      "afhankelijke": 4937,
      "DM": 4938,
      "##spiegel": 4939,
      "abdomen": 4940,
      "lager": 4941,
      "##renzen": 4942,
      "120": 4943,
      "herstel": 4944,
      "elektro": 4945,
      "##arine": 4946,
      "Radi": 4947,
      "##reerd": 4948,
      "delen": 4949,
      "blaas": 4950,
      "vaccin": 4951,
      "##ylering": 4952,
      "vertra": 4953,
      "##ventr": 4954,
      "longen": 4955,
      "bijna": 4956,
      "46": 4957,
      "bevestigd": 4958,
      "structurele": 4959,
      "##medi": 4960,
      "##LA": 4961,
      "heter": 4962,
      "LVEF": 4963,
      "planten": 4964,
      "intraven": 4965,
      "reeks": 4966,
      "Dr": 4967,
      "infarct": 4968,
      "##ogeen": 4969,
      "pleurale": 4970,
      "gebeur": 4971,
      "##fosf": 4972,
      "##ynth": 4973,
      "don": 4974,
      "##sslagader": 4975,
      "NO": 4976,
      "CAB": 4977,
      "kern": 4978,
      "ca": 4979,
      "passen": 4980,
      "activ": 4981,
      "mitochond": 4982,
      "beschrijven": 4983,
      "##oeken": 4984,
      "##aklep": 4985,
      "linkse": 4986,
      "gemedieerde": 4987,
      "parameters": 4988,
      "voedings": 4989,
      "volume": 4990,
      "vergelijkbare": 4991,
      "opgemerkt": 4992,
      "##komstige": 4993,
      "antilichaam": 4994,
      "max": 4995,
      "##inen": 4996,
      "##cycl": 4997,
      "##ferentie": 4998,
      "prof": 4999,
      "geeft": 5000,
      "maximale": 5001,
      "##RS": 5002,
      "##oging": 5003,
      "##icul": 5004,
      "##plaats": 5005,
      "vanaf": 5006,
      "##alyse": 5007,
      "init": 5008,
      "##PD": 5009,
      "sept": 5010,
      "09": 5011,
      "zwak": 5012,
      "CABG": 5013,
      "##ement": 5014,
      "##fiel": 5015,
      "signal": 5016,
      "kregen": 5017,
      "##gele": 5018,
      "##pat": 5019,
      "##ogenese": 5020,
      "temp": 5021,
      "glucose": 5022,
      "##ymen": 5023,
      "cap": 5024,
      "##sluit": 5025,
      "##iseren": 5026,
      "##ometrie": 5027,
      "Vol": 5028,
      "##bul": 5029,
      "maat": 5030,
      "Eer": 5031,
      "slechte": 5032,
      "stap": 5033,
      "daarom": 5034,
      "Pl": 5035,
      "##atoren": 5036,
      "sequentie": 5037,
      "bleef": 5038,
      "uitgedrukt": 5039,
      "##asting": 5040,
      "##man": 5041,
      "dik": 5042,
      "experimenten": 5043,
      "##bes": 5044,
      "##gebracht": 5045,
      "Ja": 5046,
      "zie": 5047,
      "vloeistof": 5048,
      "##mentatie": 5049,
      "52": 5050,
      "bovenste": 5051,
      "##oglob": 5052,
      "betrouw": 5053,
      "Car": 5054,
      "TR": 5055,
      "geactiv": 5056,
      "blijk": 5057,
      "##operatie": 5058,
      "typ": 5059,
      "Reg": 5060,
      "##arc": 5061,
      "Ho": 5062,
      "interventie": 5063,
      "enige": 5064,
      "progn": 5065,
      "stabiele": 5066,
      "##oïden": 5067,
      "Lich": 5068,
      "##mit": 5069,
      "##stemming": 5070,
      "later": 5071,
      "dagelijks": 5072,
      "secret": 5073,
      "bo": 5074,
      "relatief": 5075,
      "##aardige": 5076,
      "##micro": 5077,
      "Act": 5078,
      "interacties": 5079,
      "NI": 5080,
      "##ben": 5081,
      "gezonde": 5082,
      "statist": 5083,
      "aandacht": 5084,
      "Cont": 5085,
      "moeder": 5086,
      "prestaties": 5087,
      "onverander": 5088,
      "##gaand": 5089,
      "verhogen": 5090,
      "##afwijk": 5091,
      "fluores": 5092,
      "modellen": 5093,
      "poster": 5094,
      "ij": 5095,
      "evol": 5096,
      "uite": 5097,
      "breed": 5098,
      "slagader": 5099,
      "Status": 5100,
      "##onine": 5101,
      "minim": 5102,
      "##que": 5103,
      "##merg": 5104,
      "##voorbeeld": 5105,
      "Ref": 5106,
      "##zaamheid": 5107,
      "Overige": 5108,
      "wervelkolom": 5109,
      "vroeg": 5110,
      "##fen": 5111,
      "VS": 5112,
      "##cluderen": 5113,
      "##wak": 5114,
      "##kunde": 5115,
      "##reng": 5116,
      "56": 5117,
      "epit": 5118,
      "antibiotica": 5119,
      "47": 5120,
      "Disch": 5121,
      "##li": 5122,
      "##pm": 5123,
      "##loc": 5124,
      "perifere": 5125,
      "implantatie": 5126,
      "hartfalen": 5127,
      "Tijdens": 5128,
      "verantwoord": 5129,
      "getest": 5130,
      "06": 5131,
      "ec": 5132,
      "##aardig": 5133,
      "regulatie": 5134,
      "##lit": 5135,
      "breuk": 5136,
      "##itatieve": 5137,
      "##ór": 5138,
      "##infarct": 5139,
      "CAG": 5140,
      "zelfs": 5141,
      "##rijpen": 5142,
      "##zijn": 5143,
      "juiste": 5144,
      "exp": 5145,
      "qu": 5146,
      "##óór": 5147,
      "mass": 5148,
      "##geboren": 5149,
      "##oscler": 5150,
      "##orten": 5151,
      "voedsel": 5152,
      "##uken": 5153,
      "##Eq": 5154,
      "cruc": 5155,
      "Par": 5156,
      "##rum": 5157,
      "##zer": 5158,
      "##dering": 5159,
      "lengte": 5160,
      "synth": 5161,
      "processen": 5162,
      "altern": 5163,
      "part": 5164,
      "##cus": 5165,
      "08": 5166,
      "aanpak": 5167,
      "49": 5168,
      "differentiatie": 5169,
      "##schillen": 5170,
      "vermindering": 5171,
      "HD": 5172,
      "##sis": 5173,
      "epis": 5174,
      "HTX": 5175,
      "##emat": 5176,
      "selectie": 5177,
      "RBC": 5178,
      "infer": 5179,
      "##ënt": 5180,
      "73": 5181,
      "bestaat": 5182,
      "72": 5183,
      "##inatie": 5184,
      "07": 5185,
      "personen": 5186,
      "##odynam": 5187,
      "speelt": 5188,
      "beschouwd": 5189,
      "HP": 5190,
      "wijzen": 5191,
      "C5": 5192,
      "##vast": 5193,
      "mannelijke": 5194,
      "85": 5195,
      "##bry": 5196,
      "##weest": 5197,
      "##langs": 5198,
      "##zuren": 5199,
      "chirurgische": 5200,
      "helpen": 5201,
      "##productie": 5202,
      "ast": 5203,
      "##osten": 5204,
      "hol": 5205,
      "mEq": 5206,
      "toelating": 5207,
      "geweest": 5208,
      "letsel": 5209,
      "Andere": 5210,
      "##lip": 5211,
      "probleem": 5212,
      "thorax": 5213,
      "##ffect": 5214,
      "voorspellen": 5215,
      "##ritis": 5216,
      "milt": 5217,
      "stimulatie": 5218,
      "maand": 5219,
      "cogn": 5220,
      "PE": 5221,
      "medicijnen": 5222,
      "praktijk": 5223,
      "natrium": 5224,
      "percentage": 5225,
      "##ars": 5226,
      "##kelet": 5227,
      "subc": 5228,
      "##gezet": 5229,
      "Hct": 5230,
      "##tende": 5231,
      "##adru": 5232,
      "vandaag": 5233,
      "vor": 5234,
      "Zij": 5235,
      "54": 5236,
      "inflammat": 5237,
      "##riteria": 5238,
      "individuele": 5239,
      "coronair": 5240,
      "peptide": 5241,
      "sociale": 5242,
      "scler": 5243,
      "##aliseren": 5244,
      "##volgende": 5245,
      "##gor": 5246,
      "synthese": 5247,
      "##LC": 5248,
      "PCR": 5249,
      "vertoont": 5250,
      "zachte": 5251,
      "veroorzaakte": 5252,
      "directe": 5253,
      "log": 5254,
      "grenzen": 5255,
      "stoffen": 5256,
      "biom": 5257,
      "##path": 5258,
      "cyst": 5259,
      "##ialen": 5260,
      "##duidelijk": 5261,
      "##houdende": 5262,
      "##dis": 5263,
      "dun": 5264,
      "##ostic": 5265,
      "top": 5266,
      "verlaag": 5267,
      "CI": 5268,
      "##agonist": 5269,
      "##kens": 5270,
      "bez": 5271,
      "gelijktij": 5272,
      "##icus": 5273,
      "vraag": 5274,
      "tub": 5275,
      "##iat": 5276,
      "gedefin": 5277,
      "voorafgaande": 5278,
      "complexe": 5279,
      "##istente": 5280,
      "##itus": 5281,
      "gedeeltelijk": 5282,
      "ventrikel": 5283,
      "##lijnen": 5284,
      "eerst": 5285,
      "jon": 5286,
      "milde": 5287,
      "oxid": 5288,
      "58": 5289,
      "##hesie": 5290,
      "Diagnose": 5291,
      "##amide": 5292,
      "geïsoleerd": 5293,
      "##systeem": 5294,
      "History": 5295,
      "bilateraal": 5296,
      "##gde": 5297,
      "##oop": 5298,
      "##ei": 5299,
      "##ology": 5300,
      "##elingen": 5301,
      "##illaire": 5302,
      "bijvoorbeeld": 5303,
      "meet": 5304,
      "stammen": 5305,
      "##oh": 5306,
      "paar": 5307,
      "##nemen": 5308,
      "vóór": 5309,
      "Lin": 5310,
      "ather": 5311,
      "##chym": 5312,
      "##volen": 5313,
      "benadering": 5314,
      "sm": 5315,
      "aortaklep": 5316,
      "##gebied": 5317,
      "##utane": 5318,
      "dem": 5319,
      "slecht": 5320,
      "myocard": 5321,
      "resulteerde": 5322,
      "##klachten": 5323,
      "ernstig": 5324,
      "Ter": 5325,
      "anter": 5326,
      "las": 5327,
      "afwezigheid": 5328,
      "voldoende": 5329,
      "53": 5330,
      "incidentie": 5331,
      "Bloed": 5332,
      "bronch": 5333,
      "##nia": 5334,
      "Cardiale": 5335,
      "##use": 5336,
      "Discharge": 5337,
      "endot": 5338,
      "Fol": 5339,
      "lact": 5340,
      "CX": 5341,
      "Gro": 5342,
      "anders": 5343,
      "protocol": 5344,
      "klasse": 5345,
      "##oxy": 5346,
      "##rot": 5347,
      "verantwoordelijk": 5348,
      "nit": 5349,
      "##braak": 5350,
      "inclusie": 5351,
      "##emd": 5352,
      "##rug": 5353,
      "81": 5354,
      "spont": 5355,
      "##lop": 5356,
      "tek": 5357,
      "zullen": 5358,
      "populatie": 5359,
      "cholesterol": 5360,
      "64": 5361,
      "##LL": 5362,
      "##uding": 5363,
      "##chanis": 5364,
      "apoptose": 5365,
      "##azol": 5366,
      "##OT": 5367,
      "geïnfect": 5368,
      "##igeen": 5369,
      "langdur": 5370,
      "Examin": 5371,
      "dilat": 5372,
      "##stam": 5373,
      "001": 5374,
      "fre": 5375,
      "Echo": 5376,
      "laboratorium": 5377,
      "omgeving": 5378,
      "##aily": 5379,
      "klep": 5380,
      "##gehalte": 5381,
      "eind": 5382,
      "##cult": 5383,
      "begrip": 5384,
      "##ness": 5385,
      "embry": 5386,
      "geïnduceerd": 5387,
      "begrijpen": 5388,
      "##ifieke": 5389,
      "frag": 5390,
      "tests": 5391,
      "inflammatoire": 5392,
      "##water": 5393,
      "##kal": 5394,
      "oorzaak": 5395,
      "ondersteunen": 5396,
      "glut": 5397,
      "##21": 5398,
      "ko": 5399,
      "Sub": 5400,
      "aneur": 5401,
      "INR": 5402,
      "schade": 5403,
      "##tem": 5404,
      "NM": 5405,
      "collegiale": 5406,
      "##reft": 5407,
      "presenteren": 5408,
      "##komt": 5409,
      "warm": 5410,
      "##ugen": 5411,
      "oplossing": 5412,
      "57": 5413,
      "efficiën": 5414,
      "schaal": 5415,
      "vernauw": 5416,
      "aanbevolen": 5417,
      "##niveau": 5418,
      "##boven": 5419,
      "gestart": 5420,
      "uitdag": 5421,
      "indien": 5422,
      "##IP": 5423,
      "bijzonder": 5424,
      "##transp": 5425,
      "omvang": 5426,
      "ik": 5427,
      "##our": 5428,
      "Ext": 5429,
      "verkal": 5430,
      "bespreken": 5431,
      "##iep": 5432,
      "onveranderd": 5433,
      "Geslacht": 5434,
      "prom": 5435,
      "NP": 5436,
      "##proces": 5437,
      "##EGEG": 5438,
      "lijken": 5439,
      "##vrij": 5440,
      "wijten": 5441,
      "##ysma": 5442,
      "##CR": 5443,
      "##score": 5444,
      "diast": 5445,
      "genomen": 5446,
      "doses": 5447,
      "preventie": 5448,
      "gebeurtenis": 5449,
      "Controle": 5450,
      "volwassenen": 5451,
      "verdi": 5452,
      "behandelde": 5453,
      "langs": 5454,
      "Admission": 5455,
      "diver": 5456,
      "kennis": 5457,
      "##structuur": 5458,
      "##vraag": 5459,
      "Pul": 5460,
      "motor": 5461,
      "##yla": 5462,
      "##kten": 5463,
      "Ble": 5464,
      "##dr": 5465,
      "MCV": 5466,
      "domin": 5467,
      "interval": 5468,
      "pols": 5469,
      "voeding": 5470,
      "aard": 5471,
      "##kwab": 5472,
      "##ung": 5473,
      "##ites": 5474,
      "cur": 5475,
      "Ook": 5476,
      "segment": 5477,
      "neurale": 5478,
      "gamma": 5479,
      "##drukken": 5480,
      "overdracht": 5481,
      "beperkte": 5482,
      "matig": 5483,
      "mutaties": 5484,
      "benadru": 5485,
      "GI": 5486,
      "Lichamelijk": 5487,
      "dichtheid": 5488,
      "##lucose": 5489,
      "meten": 5490,
      "##verm": 5491,
      "##gevoel": 5492,
      "##bum": 5493,
      "exc": 5494,
      "horm": 5495,
      "198": 5496,
      "Hypertensie": 5497,
      "pr": 5498,
      "metingen": 5499,
      "##OL": 5500,
      "##apporte": 5501,
      "asym": 5502,
      "##enter": 5503,
      "gecontroleerd": 5504,
      "##kanaal": 5505,
      "geslacht": 5506,
      "##vings": 5507,
      "##iner": 5508,
      "eth": 5509,
      "intrac": 5510,
      "indic": 5511,
      "nuttig": 5512,
      "67": 5513,
      "voorgesteld": 5514,
      "##zo": 5515,
      "transcript": 5516,
      "Sch": 5517,
      "kwab": 5518,
      "##vastatine": 5519,
      "##wegingen": 5520,
      "PP": 5521,
      "cytok": 5522,
      "##ize": 5523,
      "los": 5524,
      "##voer": 5525,
      "associatie": 5526,
      "tet": 5527,
      "ing": 5528,
      "##SD": 5529,
      "gesp": 5530,
      "nam": 5531,
      "##teerde": 5532,
      "mig": 5533,
      "Mg": 5534,
      "resultaat": 5535,
      "##ament": 5536,
      "screening": 5537,
      "eenheden": 5538,
      "behandelings": 5539,
      "fysieke": 5540,
      "bereiken": 5541,
      "effectieve": 5542,
      "foet": 5543,
      "optreden": 5544,
      "Amer": 5545,
      "prop": 5546,
      "59": 5547,
      "Calcium": 5548,
      "voorste": 5549,
      "##cer": 5550,
      "implic": 5551,
      "bijwerkingen": 5552,
      "##eek": 5553,
      "inductie": 5554,
      "##itone": 5555,
      "carb": 5556,
      "TE": 5557,
      "##uiv": 5558,
      "##xpressie": 5559,
      "##erte": 5560,
      "##slagader": 5561,
      "LA": 5562,
      "##omer": 5563,
      "##UN": 5564,
      "##dip": 5565,
      "hals": 5566,
      "##uitgang": 5567,
      "gevoelig": 5568,
      "##innen": 5569,
      "SD": 5570,
      "patroon": 5571,
      "##blast": 5572,
      "##ystemen": 5573,
      "aspir": 5574,
      "Behandel": 5575,
      "##ube": 5576,
      "RE": 5577,
      "51": 5578,
      "derde": 5579,
      "##valentie": 5580,
      "##rix": 5581,
      "bijdragen": 5582,
      "##nt": 5583,
      "neurolog": 5584,
      "##iod": 5585,
      "##erings": 5586,
      "fosfor": 5587,
      "##OB": 5588,
      "kans": 5589,
      "Meer": 5590,
      "##komstig": 5591,
      "##vullende": 5592,
      "88": 5593,
      "##iditeit": 5594,
      "##yle": 5595,
      "##oppervla": 5596,
      "clu": 5597,
      "##ildklier": 5598,
      "traum": 5599,
      "ventriculaire": 5600,
      "zout": 5601,
      "##QUE": 5602,
      "consult": 5603,
      "persoon": 5604,
      "loop": 5605,
      "mer": 5606,
      "geselect": 5607,
      "werking": 5608,
      "krit": 5609,
      "##hou": 5610,
      "##aciteit": 5611,
      "toevoe": 5612,
      "angst": 5613,
      "ruimte": 5614,
      "stij": 5615,
      "therm": 5616,
      "orale": 5617,
      "##olon": 5618,
      "##mechanis": 5619,
      "veneuze": 5620,
      "ondergaan": 5621,
      "afspraak": 5622,
      "Creat": 5623,
      "##otide": 5624,
      "Allergieën": 5625,
      "##syn": 5626,
      "##ummer": 5627,
      "##gerelat": 5628,
      "##kamer": 5629,
      "BM": 5630,
      "veld": 5631,
      "gehele": 5632,
      "##waarde": 5633,
      "##oid": 5634,
      "minimale": 5635,
      "maal": 5636,
      "##sper": 5637,
      "##ovasculaire": 5638,
      "##heugen": 5639,
      "##ici": 5640,
      "thoracale": 5641,
      "termijn": 5642,
      "anat": 5643,
      "tit": 5644,
      "##ublic": 5645,
      "##frequentie": 5646,
      "##ector": 5647,
      "arteriële": 5648,
      "##razol": 5649,
      "defect": 5650,
      "hoogachting": 5651,
      "slaap": 5652,
      "Function": 5653,
      "##ationele": 5654,
      "review": 5655,
      "Laatste": 5656,
      "grootste": 5657,
      "##achtige": 5658,
      "bloeding": 5659,
      "Wij": 5660,
      "metabole": 5661,
      "relatieve": 5662,
      "geco": 5663,
      "Suc": 5664,
      "ol": 5665,
      "momenteel": 5666,
      "ledem": 5667,
      "lineaire": 5668,
      "PG": 5669,
      "##anen": 5670,
      "gist": 5671,
      "voel": 5672,
      "##vlies": 5673,
      "voorafgaand": 5674,
      "afgeleid": 5675,
      "##ubatie": 5676,
      "##bep": 5677,
      "ph": 5678,
      "Klinische": 5679,
      "##eptiden": 5680,
      "dier": 5681,
      "afwijking": 5682,
      "intens": 5683,
      "sterke": 5684,
      "Or": 5685,
      "geassocieerde": 5686,
      "bacteriën": 5687,
      "gemeenschappelijke": 5688,
      "Ont": 5689,
      "fysiologische": 5690,
      "##vice": 5691,
      "port": 5692,
      "##oïd": 5693,
      "episode": 5694,
      "colon": 5695,
      "Verslag": 5696,
      "##embran": 5697,
      "ev": 5698,
      "140": 5699,
      "Mult": 5700,
      "##imm": 5701,
      "erg": 5702,
      "pathologische": 5703,
      "remmer": 5704,
      "##ralis": 5705,
      "gekopp": 5706,
      "hypoth": 5707,
      "##oxid": 5708,
      "impact": 5709,
      "##actieve": 5710,
      "Her": 5711,
      "dop": 5712,
      "MCHC": 5713,
      "voorge": 5714,
      "natuurlijke": 5715,
      "proximale": 5716,
      "##enc": 5717,
      "vorige": 5718,
      "index": 5719,
      "##CI": 5720,
      "palp": 5721,
      "##FR": 5722,
      "Ao": 5723,
      "pacemaker": 5724,
      "##agnostic": 5725,
      "##dieren": 5726,
      "ICU": 5727,
      "gerelateerde": 5728,
      "eenvoudige": 5729,
      "enzymen": 5730,
      "##umor": 5731,
      "DLP": 5732,
      "myel": 5733,
      "##cg": 5734,
      "diagnostische": 5735,
      "pap": 5736,
      "68": 5737,
      "observ": 5738,
      "##osom": 5739,
      "gebracht": 5740,
      "circ": 5741,
      "##NIQUE": 5742,
      "##risch": 5743,
      "componenten": 5744,
      "graad": 5745,
      "##acet": 5746,
      "visuele": 5747,
      "##monsters": 5748,
      "overw": 5749,
      "vrouwelijke": 5750,
      "##plan": 5751,
      "twe": 5752,
      "##volgen": 5753,
      "Daily": 5754,
      "analyses": 5755,
      "##factor": 5756,
      "dien": 5757,
      "cerv": 5758,
      "gedaan": 5759,
      "vat": 5760,
      "knie": 5761,
      "##abel": 5762,
      "deeltjes": 5763,
      "vent": 5764,
      "2015": 5765,
      "##ue": 5766,
      "2016": 5767,
      "proliferatie": 5768,
      "gegener": 5769,
      "62": 5770,
      "abnormale": 5771,
      "verzameld": 5772,
      "mutatie": 5773,
      "MED": 5774,
      "onafhankelijk": 5775,
      "perfusie": 5776,
      "oc": 5777,
      "coronaire": 5778,
      "bestuderen": 5779,
      "ES": 5780,
      "system": 5781,
      "ontwikkelde": 5782,
      "##amm": 5783,
      "Total": 5784,
      "sil": 5785,
      "werkzaamheid": 5786,
      "presentatie": 5787,
      "##abiliteit": 5788,
      "##bet": 5789,
      "400": 5790,
      "##ations": 5791,
      "krist": 5792,
      "class": 5793,
      "##atiënten": 5794,
      "onopvallend": 5795,
      "94": 5796,
      "##ominale": 5797,
      "den": 5798,
      "ontslag": 5799,
      "kamer": 5800,
      "##ventionele": 5801,
      "gediagnostic": 5802,
      "##eerbare": 5803,
      "controleren": 5804,
      "##noe": 5805,
      "land": 5806,
      "atheroscler": 5807,
      "##lage": 5808,
      "##controle": 5809,
      "start": 5810,
      "63": 5811,
      "piek": 5812,
      "##emende": 5813,
      "kant": 5814,
      "##orderen": 5815,
      "##rd": 5816,
      "##GFR": 5817,
      "inclusief": 5818,
      "auto": 5819,
      "##telijke": 5820,
      "atriumfibrilleren": 5821,
      "##keerd": 5822,
      "Assessment": 5823,
      "Post": 5824,
      "##TP": 5825,
      "helder": 5826,
      "kn": 5827,
      "prostaat": 5828,
      "##ardiale": 5829,
      "##digt": 5830,
      "rib": 5831,
      "##fal": 5832,
      "##fot": 5833,
      "afgele": 5834,
      "ablatie": 5835,
      "##omyopathie": 5836,
      "wond": 5837,
      "gedilateerd": 5838,
      "cc": 5839,
      "overzicht": 5840,
      "nef": 5841,
      "vinden": 5842,
      "Verder": 5843,
      "##orter": 5844,
      "El": 5845,
      "eenmaal": 5846,
      "presen": 5847,
      "infil": 5848,
      "gekwee": 5849,
      "##fielen": 5850,
      "IMP": 5851,
      "testen": 5852,
      "prevalentie": 5853,
      "bacteriële": 5854,
      "ademhalings": 5855,
      "gerapporte": 5856,
      "geproduceerd": 5857,
      "uiteind": 5858,
      "behoef": 5859,
      "elektronen": 5860,
      "##seud": 5861,
      "inb": 5862,
      "kind": 5863,
      "##uleren": 5864,
      "des": 5865,
      "66": 5866,
      "##ancer": 5867,
      "risicofactoren": 5868,
      "AN": 5869,
      "gecombin": 5870,
      "##blemen": 5871,
      "Plt": 5872,
      "##carcinoom": 5873,
      "gastheer": 5874,
      "92": 5875,
      "elkaar": 5876,
      "dunne": 5877,
      "doen": 5878,
      "postoperatieve": 5879,
      "bevorderen": 5880,
      "verlen": 5881,
      "continue": 5882,
      "NAD": 5883,
      "sterf": 5884,
      "##olaire": 5885,
      "CM": 5886,
      "actief": 5887,
      "han": 5888,
      "Phys": 5889,
      "##loor": 5890,
      "##uwen": 5891,
      "naast": 5892,
      "stent": 5893,
      "behouden": 5894,
      "veronder": 5895,
      "##complic": 5896,
      "selectieve": 5897,
      "##VT": 5898,
      "rapporteren": 5899,
      "Bel": 5900,
      "CTA": 5901,
      "##emaal": 5902,
      "##bri": 5903,
      "toler": 5904,
      "##mee": 5905,
      "##dule": 5906,
      "93": 5907,
      "moleculen": 5908,
      "##orr": 5909,
      "##ffer": 5910,
      "##istische": 5911,
      "##gan": 5912,
      "##ack": 5913,
      "basale": 5914,
      "##53": 5915,
      "nucleaire": 5916,
      "##zetting": 5917,
      "degeneratieve": 5918,
      "welke": 5919,
      "terugk": 5920,
      "Veren": 5921,
      "technieken": 5922,
      "Mil": 5923,
      "onderliggende": 5924,
      "##electase": 5925,
      "##ote": 5926,
      "pulmonale": 5927,
      "materiaal": 5928,
      "##aarm": 5929,
      "##uul": 5930,
      "##aryn": 5931,
      "##hoog": 5932,
      "##entegen": 5933,
      "##CHNIQUE": 5934,
      "NF": 5935,
      "pneumonie": 5936,
      "minste": 5937,
      "betrokkenheid": 5938,
      "##uus": 5939,
      "bindende": 5940,
      "##astin": 5941,
      "secundaire": 5942,
      "Prote": 5943,
      "uitkomst": 5944,
      "##wissel": 5945,
      "recombin": 5946,
      "##ills": 5947,
      "78": 5948,
      "Fe": 5949,
      "TF": 5950,
      "geleden": 5951,
      "OP": 5952,
      "76": 5953,
      "74": 5954,
      "program": 5955,
      "##vari": 5956,
      "##flu": 5957,
      "systemische": 5958,
      "zeldzame": 5959,
      "weg": 5960,
      "antigeen": 5961,
      "apparaat": 5962,
      "seks": 5963,
      "resid": 5964,
      "TH": 5965,
      "intern": 5966,
      "deelnemers": 5967,
      "Ik": 5968,
      "respon": 5969,
      "infecties": 5970,
      "ins": 5971,
      "pe": 5972,
      "relevante": 5973,
      "##ll": 5974,
      "##respons": 5975,
      "87": 5976,
      "84": 5977,
      "##heem": 5978,
      "##its": 5979,
      "##oscopie": 5980,
      "VT": 5981,
      "##alve": 5982,
      "Wanneer": 5983,
      "##grootte": 5984,
      "cognitieve": 5985,
      "blijkt": 5986,
      "##punt": 5987,
      "##tub": 5988,
      "geschat": 5989,
      "vaste": 5990,
      "##ull": 5991,
      "##ografisch": 5992,
      "##ctuur": 5993,
      "toenemende": 5994,
      "volgen": 5995,
      "##stit": 5996,
      "nieren": 5997,
      "mot": 5998,
      "##akken": 5999,
      "aneurysma": 6000,
      "not": 6001,
      "onmiddel": 6002,
      "Gene": 6003,
      "famil": 6004,
      "Findings": 6005,
      "dl": 6006,
      "cyste": 6007,
      "300": 6008,
      "##var": 6009,
      "langdurige": 6010,
      "site": 6011,
      "golf": 6012,
      "77": 6013,
      "Familie": 6014,
      "##RES": 6015,
      "250": 6016,
      "Sinus": 6017,
      "Naam": 6018,
      "milie": 6019,
      "chemotherapie": 6020,
      "##plaatjes": 6021,
      "oct": 6022,
      "##stellingen": 6023,
      "hartslag": 6024,
      "bijdra": 6025,
      "##SION": 6026,
      "##aby": 6027,
      "86": 6028,
      "achtige": 6029,
      "geschikt": 6030,
      "flow": 6031,
      "sluit": 6032,
      "sat": 6033,
      "beweging": 6034,
      "##darm": 6035,
      "tand": 6036,
      "##ining": 6037,
      "##omycine": 6038,
      "rechtse": 6039,
      "##loop": 6040,
      "ondersteuning": 6041,
      "ET": 6042,
      "NT": 6043,
      "##gerelateerde": 6044,
      "##uwe": 6045,
      "mic": 6046,
      "##entale": 6047,
      "ijzer": 6048,
      "krijgen": 6049,
      "##ella": 6050,
      "kopp": 6051,
      "##16": 6052,
      "verwijdering": 6053,
      "##cties": 6054,
      "ouder": 6055,
      "ontworpen": 6056,
      "##leiding": 6057,
      "Hep": 6058,
      "DR": 6059,
      "Coron": 6060,
      "##structies": 6061,
      "69": 6062,
      "accum": 6063,
      "gere": 6064,
      "down": 6065,
      "aanzienlijke": 6066,
      "##plic": 6067,
      "punt": 6068,
      "resulteert": 6069,
      "HE": 6070,
      "kwaad": 6071,
      "Med": 6072,
      "gecorrel": 6073,
      "optim": 6074,
      "def": 6075,
      "toepassingen": 6076,
      "##vanging": 6077,
      "##pret": 6078,
      "borstkanker": 6079,
      "130": 6080,
      "Poliklin": 6081,
      "##ju": 6082,
      "essentie": 6083,
      "2014": 6084,
      "##oorte": 6085,
      "ber": 6086,
      "coli": 6087,
      "macrof": 6088,
      "##ord": 6089,
      "OS": 6090,
      "##iol": 6091,
      "##yan": 6092,
      "##eiden": 6093,
      "prob": 6094,
      "Onderzoek": 6095,
      "##zels": 6096,
      "uitgebreid": 6097,
      "Ro": 6098,
      "##urie": 6099,
      "##IR": 6100,
      "mag": 6101,
      "##producten": 6102,
      "##voudig": 6103,
      "Trans": 6104,
      "##rontale": 6105,
      "##obacter": 6106,
      "##TU": 6107,
      "mogelijkheid": 6108,
      "aanhoudende": 6109,
      "epitheel": 6110,
      "##ave": 6111,
      "IF": 6112,
      "##isen": 6113,
      "schildklier": 6114,
      "mechanische": 6115,
      "reden": 6116,
      "del": 6117,
      "##andom": 6118,
      "##oge": 6119,
      "wereldwij": 6120,
      "witte": 6121,
      "2017": 6122,
      "CON": 6123,
      "gastro": 6124,
      "##rac": 6125,
      "virale": 6126,
      "##22": 6127,
      "tele": 6128,
      "##gingen": 6129,
      "##geluiden": 6130,
      "##complex": 6131,
      "volgt": 6132,
      "##akelijk": 6133,
      "vle": 6134,
      "identificatie": 6135,
      "##ilisatie": 6136,
      "##heids": 6137,
      "monster": 6138,
      "substraat": 6139,
      "##roffen": 6140,
      "kunt": 6141,
      "gef": 6142,
      "##onucle": 6143,
      "ademhaling": 6144,
      "mild": 6145,
      "laat": 6146,
      "intest": 6147,
      "##oordeling": 6148,
      "##ageren": 6149,
      "T2": 6150,
      "##studies": 6151,
      "##deerd": 6152,
      "bol": 6153,
      "##nam": 6154,
      "commun": 6155,
      "melan": 6156,
      "##uline": 6157,
      "##genese": 6158,
      "##plant": 6159,
      "hoogte": 6160,
      "##ERK": 6161,
      "##beh": 6162,
      "##oring": 6163,
      "lymfocyten": 6164,
      "gran": 6165,
      "mob": 6166,
      "recent": 6167,
      "signalering": 6168,
      "Toe": 6169,
      "##kle": 6170,
      "##andid": 6171,
      "PL": 6172,
      "##pha": 6173,
      "gun": 6174,
      "##NE": 6175,
      "toegang": 6176,
      "##mens": 6177,
      "tegenstelling": 6178,
      "geringe": 6179,
      "1000": 6180,
      "##infectie": 6181,
      "remmers": 6182,
      "consol": 6183,
      "bevol": 6184,
      "produceren": 6185,
      "##oses": 6186,
      "##olip": 6187,
      "##uli": 6188,
      "##werp": 6189,
      "stabiliteit": 6190,
      "##17": 6191,
      "110": 6192,
      "stadium": 6193,
      "Body": 6194,
      "vs": 6195,
      "hoest": 6196,
      "transm": 6197,
      "##text": 6198,
      "multip": 6199,
      "Is": 6200,
      "cre": 6201,
      "83": 6202,
      "conform": 6203,
      "chromosoom": 6204,
      "gla": 6205,
      "##gelaten": 6206,
      "##oplasma": 6207,
      "Verschillen": 6208,
      "Daarna": 6209,
      "Disposition": 6210,
      "ade": 6211,
      "##rooi": 6212,
      "specific": 6213,
      "ident": 6214,
      "intracellulaire": 6215,
      "##opname": 6216,
      "##ditie": 6217,
      "aminozuur": 6218,
      "##gez": 6219,
      "ren": 6220,
      "genoom": 6221,
      "locatie": 6222,
      "##regelen": 6223,
      "behandelingen": 6224,
      "Gesch": 6225,
      "hypox": 6226,
      "##ross": 6227,
      "##lekeur": 6228,
      "NH": 6229,
      "rect": 6230,
      "NC": 6231,
      "##concentratie": 6232,
      "Refills": 6233,
      "abdominale": 6234,
      "affin": 6235,
      "##etrie": 6236,
      "##hanol": 6237,
      "termin": 6238,
      "##PA": 6239,
      "##borst": 6240,
      "##zw": 6241,
      "Present": 6242,
      "diameter": 6243,
      "vervolgconsult": 6244,
      "bleken": 6245,
      "##aging": 6246,
      "##glyc": 6247,
      "My": 6248,
      "##chemische": 6249,
      "##bruik": 6250,
      "dilatatie": 6251,
      "Kle": 6252,
      "oudere": 6253,
      "gr": 6254,
      "##cont": 6255,
      "vernauwing": 6256,
      "liggen": 6257,
      "##cten": 6258,
      "##trofie": 6259,
      "geneesmiddel": 6260,
      "82": 6261,
      "EN": 6262,
      "##DNA": 6263,
      "dagelijkse": 6264,
      "DC": 6265,
      "##brale": 6266,
      "opgel": 6267,
      "##techn": 6268,
      "ontstekings": 6269,
      "T1": 6270,
      "afgeleide": 6271,
      "variatie": 6272,
      "veranderd": 6273,
      "endotheel": 6274,
      "##oods": 6275,
      "kanaal": 6276,
      "muis": 6277,
      "##stenose": 6278,
      "##egal": 6279,
      "ondanks": 6280,
      "transport": 6281,
      "gemakkelijk": 6282,
      "vertegenwoordigen": 6283,
      "##recept": 6284,
      "conventionele": 6285,
      "##okin": 6286,
      "bloedplaatjes": 6287,
      "##arb": 6288,
      "##ctomie": 6289,
      "##otensie": 6290,
      "##iegels": 6291,
      "##werken": 6292,
      "##iezen": 6293,
      "##ectomie": 6294,
      "voorkeur": 6295,
      "overgang": 6296,
      "termen": 6297,
      "kortadem": 6298,
      "Col": 6299,
      "##okken": 6300,
      "##sm": 6301,
      "overeenstemming": 6302,
      "Haar": 6303,
      "##ank": 6304,
      "##oedeem": 6305,
      "exter": 6306,
      "leveren": 6307,
      "plat": 6308,
      "gecorreleerd": 6309,
      "##lijst": 6310,
      "CN": 6311,
      "ann": 6312,
      "lipide": 6313,
      "oest": 6314,
      "brengen": 6315,
      "TC": 6316,
      "opmer": 6317,
      "##quenc": 6318,
      "diep": 6319,
      "Echter": 6320,
      "CA": 6321,
      "beschermen": 6322,
      "drainage": 6323,
      "##etting": 6324,
      "gebonden": 6325,
      "po": 6326,
      "aanvan": 6327,
      "neus": 6328,
      "89": 6329,
      "oper": 6330,
      "ernst": 6331,
      "enig": 6332,
      "aanbevel": 6333,
      "##örd": 6334,
      "##orische": 6335,
      "Hel": 6336,
      "##ution": 6337,
      "sequenties": 6338,
      "ra": 6339,
      "2013": 6340,
      "Asp": 6341,
      "##ities": 6342,
      "##dheid": 6343,
      "ion": 6344,
      "##omatische": 6345,
      "Result": 6346,
      "##yth": 6347,
      "Hgb": 6348,
      "##eerbaar": 6349,
      "oorsprong": 6350,
      "##verd": 6351,
      "gediagnosticeerd": 6352,
      "olig": 6353,
      "Amerik": 6354,
      "Zijn": 6355,
      "gaf": 6356,
      "invasieve": 6357,
      "Atten": 6358,
      "bro": 6359,
      "event": 6360,
      "##oplos": 6361,
      "Drie": 6362,
      "MB": 6363,
      "##ïde": 6364,
      "##ouder": 6365,
      "hip": 6366,
      "benaderingen": 6367,
      "##scheid": 6368,
      "##lear": 6369,
      "atelectase": 6370,
      "##methode": 6371,
      "##omat": 6372,
      "##oit": 6373,
      "stoornissen": 6374,
      "sol": 6375,
      "##vocht": 6376,
      "##ellitus": 6377,
      "gevorm": 6378,
      "##ntgen": 6379,
      "##cefal": 6380,
      "125": 6381,
      "resol": 6382,
      "##S2": 6383,
      "pan": 6384,
      "nab": 6385,
      "##kent": 6386,
      "voordelen": 6387,
      "verhouding": 6388,
      "Examinering": 6389,
      "Cr": 6390,
      "##rekken": 6391,
      "symmet": 6392,
      "##ner": 6393,
      "##concentraties": 6394,
      "Patient": 6395,
      "arm": 6396,
      "blokk": 6397,
      "##vormige": 6398,
      "##ics": 6399,
      "EM": 6400,
      "##ual": 6401,
      "paras": 6402,
      "##repen": 6403,
      "Neder": 6404,
      "CD4": 6405,
      "##insuff": 6406,
      "py": 6407,
      "procent": 6408,
      "Glucose": 6409,
      "gang": 6410,
      "nacht": 6411,
      "afbraak": 6412,
      "##duur": 6413,
      "##ases": 6414,
      "2018": 6415,
      "component": 6416,
      "anamnese": 6417,
      "lumb": 6418,
      "##ikstof": 6419,
      "tar": 6420,
      "je": 6421,
      "##gemakkelijk": 6422,
      "Abs": 6423,
      "willekeur": 6424,
      "vergemakkelijk": 6425,
      "onlangs": 6426,
      "vitamine": 6427,
      "##stoornis": 6428,
      "##gew": 6429,
      "##isselijk": 6430,
      "jonge": 6431,
      "##ted": 6432,
      "Normaal": 6433,
      "kinase": 6434,
      "##intig": 6435,
      "polymer": 6436,
      "##oglobine": 6437,
      "kwantitatieve": 6438,
      "##veren": 6439,
      "Spec": 6440,
      "gemiddeld": 6441,
      "sin": 6442,
      "criteria": 6443,
      "vonden": 6444,
      "geïnfecteerde": 6445,
      "Gezien": 6446,
      "humane": 6447,
      "ms": 6448,
      "##gebonden": 6449,
      "##zep": 6450,
      "##binding": 6451,
      "##stest": 6452,
      "ty": 6453,
      "zacht": 6454,
      "##mmun": 6455,
      "Rele": 6456,
      "oud": 6457,
      "recidief": 6458,
      "MV": 6459,
      "elektrische": 6460,
      "##cess": 6461,
      "onderscheiden": 6462,
      "##ha": 6463,
      "##ytro": 6464,
      "##SS": 6465,
      "ng": 6466,
      "Diabetes": 6467,
      "bevindt": 6468,
      "plaatsen": 6469,
      "##char": 6470,
      "Comment": 6471,
      "##ping": 6472,
      "##atory": 6473,
      "onbekend": 6474,
      "3D": 6475,
      "cardioloog": 6476,
      "##dens": 6477,
      "Urine": 6478,
      "gebrek": 6479,
      "##spect": 6480,
      "ongewijzigd": 6481,
      "79": 6482,
      "uitgesloten": 6483,
      "##tering": 6484,
      "##vies": 6485,
      "##opril": 6486,
      "genexpressie": 6487,
      "Nederland": 6488,
      "Ca2": 6489,
      "lys": 6490,
      "##pler": 6491,
      "blootgesteld": 6492,
      "Tele": 6493,
      "konden": 6494,
      "Indicatie": 6495,
      "CB": 6496,
      "voorgeschreven": 6497,
      "secundair": 6498,
      "Hem": 6499,
      "fluor": 6500,
      "##ofen": 6501,
      "halsslagader": 6502,
      "echocardi": 6503,
      "essentieel": 6504,
      "##oemde": 6505,
      "namen": 6506,
      "slotte": 6507,
      "prec": 6508,
      "geheugen": 6509,
      "DP": 6510,
      "zouden": 6511,
      "leeftijds": 6512,
      "reson": 6513,
      "wv": 6514,
      "##19": 6515,
      "sper": 6516,
      "verdragen": 6517,
      "##rand": 6518,
      "reguleren": 6519,
      "##arch": 6520,
      "Milde": 6521,
      "gezondheidszorg": 6522,
      "verwijst": 6523,
      "##idem": 6524,
      "##ST": 6525,
      "##iform": 6526,
      "toxiciteit": 6527,
      "uiter": 6528,
      "optimale": 6529,
      "PH": 6530,
      "prognose": 6531,
      "externe": 6532,
      "inname": 6533,
      "##vens": 6534,
      "gebruikten": 6535,
      "##STE": 6536,
      "##estion": 6537,
      "kosten": 6538,
      "##öntgen": 6539,
      "##biële": 6540,
      "##massa": 6541,
      "gezichts": 6542,
      "tachycardie": 6543,
      "intraveneuze": 6544,
      "ontdekten": 6545,
      "onc": 6546,
      "##gramma": 6547,
      "Ag": 6548,
      "muc": 6549,
      "##modellen": 6550,
      "##O3": 6551,
      "##afwijkingen": 6552,
      "##bs": 6553,
      "aute": 6554,
      "vergelijken": 6555,
      "kader": 6556,
      "conf": 6557,
      "##etie": 6558,
      "##ey": 6559,
      "##itude": 6560,
      "buis": 6561,
      "##stoffen": 6562,
      "COPD": 6563,
      "dw": 6564,
      "##ink": 6565,
      "lymfaden": 6566,
      "##LAR": 6567,
      "herken": 6568,
      "neemt": 6569,
      "schat": 6570,
      "axiale": 6571,
      "operatieve": 6572,
      "eenheid": 6573,
      "rekening": 6574,
      "afstand": 6575,
      "place": 6576,
      "##dnis": 6577,
      "ledematen": 6578,
      "##UC": 6579,
      "##isering": 6580,
      "##kracht": 6581,
      "CAD": 6582,
      "HF": 6583,
      "##specifieke": 6584,
      "calc": 6585,
      "Bi": 6586,
      "##ethyl": 6587,
      "veronderst": 6588,
      "ontsteking": 6589,
      "aanvullende": 6590,
      "indicatie": 6591,
      "##osyn": 6592,
      "intervent": 6593,
      "##lutter": 6594,
      "onderzoeks": 6595,
      "kD": 6596,
      "cytotox": 6597,
      "hoeveelheden": 6598,
      "bevorder": 6599,
      "affiniteit": 6600,
      "##stelsel": 6601,
      "werken": 6602,
      "vermoe": 6603,
      "geregist": 6604,
      "##attern": 6605,
      "##romat": 6606,
      "##beelden": 6607,
      "time": 6608,
      "groeif": 6609,
      "##vingen": 6610,
      "Se": 6611,
      "verdw": 6612,
      "Vraag": 6613,
      "Serv": 6614,
      "hypot": 6615,
      "concept": 6616,
      "##keningen": 6617,
      "##olling": 6618,
      "cervicale": 6619,
      "monitor": 6620,
      "ven": 6621,
      "##rijft": 6622,
      "sem": 6623,
      "##ound": 6624,
      "prin": 6625,
      "soft": 6626,
      "cortex": 6627,
      "uitvo": 6628,
      "coh": 6629,
      "2012": 6630,
      "gepaard": 6631,
      "##bouw": 6632,
      "mitralis": 6633,
      "##dicht": 6634,
      "2019": 6635,
      "71": 6636,
      "gevolgen": 6637,
      "RX": 6638,
      "91": 6639,
      "mitochondriale": 6640,
      "##aarmoeder": 6641,
      "Capsule": 6642,
      "##agement": 6643,
      "zeven": 6644,
      "hen": 6645,
      "##male": 6646,
      "behandelen": 6647,
      "##arisatie": 6648,
      "##bron": 6649,
      "##YP": 6650,
      "wild": 6651,
      "acetyl": 6652,
      "##ala": 6653,
      "vererg": 6654,
      "uitbre": 6655,
      "enter": 6656,
      "##fil": 6657,
      "pas": 6658,
      "##usc": 6659,
      "##ative": 6660,
      "ruggen": 6661,
      "oss": 6662,
      "kruis": 6663,
      "##AST": 6664,
      "diar": 6665,
      "intracran": 6666,
      "Ap": 6667,
      "##ikels": 6668,
      "##ber": 6669,
      "##eggen": 6670,
      "sep": 6671,
      "Verschillende": 6672,
      "##ring": 6673,
      "hoogste": 6674,
      "##uurd": 6675,
      "##idemie": 6676,
      "##drag": 6677,
      "##vermogen": 6678,
      "mort": 6679,
      "flex": 6680,
      "hypothese": 6681,
      "##greg": 6682,
      "gedefinieerd": 6683,
      "##molec": 6684,
      "Physical": 6685,
      "Sinds": 6686,
      "IgG": 6687,
      "##pop": 6688,
      "##acchar": 6689,
      "##ipatie": 6690,
      "malign": 6691,
      "resistentie": 6692,
      "beste": 6693,
      "av": 6694,
      "onafhankelijke": 6695,
      "gea": 6696,
      "##nnnn": 6697,
      "Toel": 6698,
      "programma": 6699,
      "context": 6700,
      "##ïnen": 6701,
      "Tem": 6702,
      "instr": 6703,
      "maximaal": 6704,
      "veranderde": 6705,
      "##ometrische": 6706,
      "LC": 6707,
      "##foto": 6708,
      "##oest": 6709,
      "CXR": 6710,
      "##plicatie": 6711,
      "decursus": 6712,
      "subt": 6713,
      "TNF": 6714,
      "##generatie": 6715,
      "##irale": 6716,
      "subeen": 6717,
      "##neu": 6718,
      "baarmoeder": 6719,
      "##eline": 6720,
      "extracellulaire": 6721,
      "organismen": 6722,
      "##spectief": 6723,
      "populaties": 6724,
      "##oca": 6725,
      "61": 6726,
      "##drukking": 6727,
      "Ondanks": 6728,
      "steek": 6729,
      "ogen": 6730,
      "##odel": 6731,
      "richting": 6732,
      "bero": 6733,
      "oxidatieve": 6734,
      "verdeling": 6735,
      "##iaire": 6736,
      "##annings": 6737,
      "ging": 6738,
      "terminale": 6739,
      "##emide": 6740,
      "veiligheid": 6741,
      "vas": 6742,
      "voet": 6743,
      "##ctor": 6744,
      "rh": 6745,
      "biopsie": 6746,
      "##inal": 6747,
      "##uiving": 6748,
      "Dop": 6749,
      "Omdat": 6750,
      "fibro": 6751,
      "complexen": 6752,
      "Tra": 6753,
      "##uratie": 6754,
      "toevoeging": 6755,
      "Goede": 6756,
      "##tras": 6757,
      "##ouff": 6758,
      "veranderen": 6759,
      "Invas": 6760,
      "##oz": 6761,
      "differentiële": 6762,
      "##uurt": 6763,
      "##YYYYYYYY": 6764,
      "netwerk": 6765,
      "##ACT": 6766,
      "gebeurtenissen": 6767,
      "computer": 6768,
      "##leerde": 6769,
      "onduidelijk": 6770,
      "Care": 6771,
      "verscheiden": 6772,
      "HB": 6773,
      "baby": 6774,
      "##dimens": 6775,
      "gevoelige": 6776,
      "##ions": 6777,
      "##even": 6778,
      "##haling": 6779,
      "rat": 6780,
      "matrix": 6781,
      "##yg": 6782,
      "daarop": 6783,
      "Che": 6784,
      "sig": 6785,
      "producten": 6786,
      "fosfat": 6787,
      "##alol": 6788,
      "NG": 6789,
      "toegelaten": 6790,
      "PI": 6791,
      "##gedragen": 6792,
      "##sels": 6793,
      "obstructie": 6794,
      "magnetische": 6795,
      "nr": 6796,
      "allel": 6797,
      "chron": 6798,
      "medicijn": 6799,
      "m2": 6800,
      "GR": 6801,
      "behalve": 6802,
      "##uizel": 6803,
      "Vervolgens": 6804,
      "betere": 6805,
      "proteïne": 6806,
      "variëren": 6807,
      "optische": 6808,
      "cross": 6809,
      "##status": 6810,
      "team": 6811,
      "ontwerp": 6812,
      "remmende": 6813,
      "metoprolol": 6814,
      "##delingen": 6815,
      "##locatie": 6816,
      "URINE": 6817,
      "Daarentegen": 6818,
      "ischemische": 6819,
      "TA": 6820,
      "##tingen": 6821,
      "##arten": 6822,
      "##bumine": 6823,
      "verzwak": 6824,
      "##route": 6825,
      "binden": 6826,
      "onver": 6827,
      "##wikkel": 6828,
      "signalen": 6829,
      "zoog": 6830,
      "IMPRES": 6831,
      "##arenchym": 6832,
      "Hoofd": 6833,
      "orth": 6834,
      "Question": 6835,
      "schimm": 6836,
      "##compens": 6837,
      "ander": 6838,
      "bar": 6839,
      "bpm": 6840,
      "##24": 6841,
      "Ma": 6842,
      "##tes": 6843,
      "##embranen": 6844,
      "souff": 6845,
      "##elding": 6846,
      "##ypt": 6847,
      "misselijk": 6848,
      "gestim": 6849,
      "##gezien": 6850,
      "##grond": 6851,
      "gaven": 6852,
      "##imer": 6853,
      "##ococ": 6854,
      "##cm": 6855,
      "hetzelfde": 6856,
      "toegenomen": 6857,
      "##EC": 6858,
      "##chlor": 6859,
      "##beloven": 6860,
      "##operatief": 6861,
      "##ays": 6862,
      "meth": 6863,
      "##oodsoorz": 6864,
      "vermoed": 6865,
      "##2O": 6866,
      "promotor": 6867,
      "##richting": 6868,
      "rij": 6869,
      "pass": 6870,
      "reage": 6871,
      "ontwikkelings": 6872,
      "mediastin": 6873,
      "Patiënten": 6874,
      "detecteren": 6875,
      "##bolie": 6876,
      "##oscopische": 6877,
      "##rouw": 6878,
      "##artsen": 6879,
      "##ERKLAR": 6880,
      "##ray": 6881,
      "##omegal": 6882,
      "##aris": 6883,
      "##eus": 6884,
      "##cyclus": 6885,
      "bodem": 6886,
      "ionen": 6887,
      "veelbeloven": 6888,
      "RF": 6889,
      "##atoire": 6890,
      "##rik": 6891,
      "verkrijgen": 6892,
      "geactiveerde": 6893,
      "resolutie": 6894,
      "voorgestelde": 6895,
      "TTE": 6896,
      "##activer": 6897,
      "herhaalde": 6898,
      "lead": 6899,
      "stikstof": 6900,
      "neuronale": 6901,
      "Heeft": 6902,
      "lymfadenopathie": 6903,
      "slij": 6904,
      "femorale": 6905,
      "214": 6906,
      "ontstaan": 6907,
      "EP": 6908,
      "toekomstige": 6909,
      "SS": 6910,
      "##prote": 6911,
      "lopen": 6912,
      "bete": 6913,
      "##hep": 6914,
      "fluorescentie": 6915,
      "gemeenschap": 6916,
      "##ational": 6917,
      "repar": 6918,
      "##ferase": 6919,
      "molecuul": 6920,
      "beperkingen": 6921,
      "Hb": 6922,
      "##ustzijn": 6923,
      "##zijde": 6924,
      "aanvallen": 6925,
      "##kno": 6926,
      "##bloed": 6927,
      "HA": 6928,
      "##oproteïne": 6929,
      "##expressie": 6930,
      "corticale": 6931,
      "##ility": 6932,
      "microg": 6933,
      "Stud": 6934,
      "wijst": 6935,
      "MEDIC": 6936,
      "orde": 6937,
      "regressie": 6938,
      "band": 6939,
      "modi": 6940,
      "##matische": 6941,
      "soms": 6942,
      "##beweging": 6943,
      "weerspiegel": 6944,
      "pen": 6945,
      "ruimtelijke": 6946,
      "recon": 6947,
      "intestinale": 6948,
      "koolstof": 6949,
      "pathologie": 6950,
      "##ocar": 6951,
      "##veranderingen": 6952,
      "##osa": 6953,
      "EX": 6954,
      "S2": 6955,
      "emot": 6956,
      "gevormd": 6957,
      "voorbere": 6958,
      "isolaten": 6959,
      "Attending": 6960,
      "late": 6961,
      "##rucht": 6962,
      "##kk": 6963,
      "beroerte": 6964,
      "noodzakelijk": 6965,
      "tal": 6966,
      "Pac": 6967,
      "##acine": 6968,
      "steekpro": 6969,
      "Ill": 6970,
      "##verslag": 6971,
      "knobb": 6972,
      "##15": 6973,
      "IMPRESSION": 6974,
      "ontslagen": 6975,
      "Geschiedenis": 6976,
      "##factoren": 6977,
      "Unit": 6978,
      "##passing": 6979,
      "vooruitgang": 6980,
      "dubbele": 6981,
      "afzonder": 6982,
      "##18": 6983,
      "zit": 6984,
      "vertraag": 6985,
      "gereguleerd": 6986,
      "QRS": 6987,
      "dyspnoe": 6988,
      "breuken": 6989,
      "##angi": 6990,
      "##INGEN": 6991,
      "Sh": 6992,
      "carcinoom": 6993,
      "Bes": 6994,
      "##30": 6995,
      "aangeeft": 6996,
      "##organis": 6997,
      "verbinding": 6998,
      "##gebieden": 6999,
      "QT": 7000,
      "gehouden": 7001,
      "zorgen": 7002,
      "volto": 7003,
      "##iwit": 7004,
      "##agit": 7005,
      "gas": 7006,
      "mortaliteit": 7007,
      "##aptische": 7008,
      "stoel": 7009,
      "Service": 7010,
      "##kinase": 7011,
      "##umer": 7012,
      "##fractie": 7013,
      "##VID": 7014,
      "markers": 7015,
      "miR": 7016,
      "antist": 7017,
      "schijn": 7018,
      "##oppervlak": 7019,
      "nec": 7020,
      "216": 7021,
      "strategieën": 7022,
      "adequ": 7023,
      "polikliniek": 7024,
      "vanuit": 7025,
      "CVA": 7026,
      "##oles": 7027,
      "##mar": 7028,
      "split": 7029,
      "rep": 7030,
      "verwijderen": 7031,
      "roken": 7032,
      "ur": 7033,
      "x10": 7034,
      "##ringen": 7035,
      "aspecten": 7036,
      "Ser": 7037,
      "neurologische": 7038,
      "gerichte": 7039,
      "Zie": 7040,
      "stre": 7041,
      "Sex": 7042,
      "Do": 7043,
      "daalde": 7044,
      "##OSE": 7045,
      "berekend": 7046,
      "radioloog": 7047,
      "gehalte": 7048,
      "fer": 7049,
      "##ynthet": 7050,
      "ligand": 7051,
      "efficiëntie": 7052,
      "##itas": 7053,
      "##ister": 7054,
      "gebruikte": 7055,
      "##VI": 7056,
      "leidde": 7057,
      "##TUUR": 7058,
      "##teert": 7059,
      "##ded": 7060,
      "##zijd": 7061,
      "##lak": 7062,
      "##achten": 7063,
      "Algemene": 7064,
      "meting": 7065,
      "##gegeven": 7066,
      "##oodsoorzaak": 7067,
      "slok": 7068,
      "nauwkeurigheid": 7069,
      "motorische": 7070,
      "gemen": 7071,
      "dubbel": 7072,
      "CL": 7073,
      "microM": 7074,
      "##rend": 7075,
      "promin": 7076,
      "Abdomen": 7077,
      "skelet": 7078,
      "glob": 7079,
      "Type": 7080,
      "##besch": 7081,
      "##etica": 7082,
      "##alth": 7083,
      "sulf": 7084,
      "##kere": 7085,
      "HCT": 7086,
      "gelab": 7087,
      "PF": 7088,
      "milieu": 7089,
      "bloeden": 7090,
      "einde": 7091,
      "run": 7092,
      "accumulatie": 7093,
      "##HS": 7094,
      "organische": 7095,
      "##strateg": 7096,
      "##ow": 7097,
      "gezuiver": 7098,
      "cultuur": 7099,
      "gu": 7100,
      "##flex": 7101,
      "2011": 7102,
      "genereren": 7103,
      "Intel": 7104,
      "concluderen": 7105,
      "##vle": 7106,
      "hoofdpijn": 7107,
      "intro": 7108,
      "##pport": 7109,
      "cruciaal": 7110,
      "vasc": 7111,
      "geregistreerd": 7112,
      "peptiden": 7113,
      "Blo": 7114,
      "##opy": 7115,
      "Intellect": 7116,
      "ALT": 7117,
      "PTT": 7118,
      "rout": 7119,
      "##ivers": 7120,
      "160": 7121,
      "##ificeerd": 7122,
      "vloeib": 7123,
      "##result": 7124,
      "cr": 7125,
      "##jor": 7126,
      "beschikbare": 7127,
      "##abolisme": 7128,
      "select": 7129,
      "##IA": 7130,
      "Hol": 7131,
      "gemedieerd": 7132,
      "transplant": 7133,
      "reductie": 7134,
      "menselijk": 7135,
      "##tal": 7136,
      "besmet": 7137,
      "lymfek": 7138,
      "##ieel": 7139,
      "##BS": 7140,
      "spre": 7141,
      "geremd": 7142,
      "sterfte": 7143,
      "MT": 7144,
      "lat": 7145,
      "detail": 7146,
      "##iber": 7147,
      "Ep": 7148,
      "aangeboren": 7149,
      "Vit": 7150,
      "Ox": 7151,
      "##ijken": 7152,
      "COVID": 7153,
      "posterior": 7154,
      "lumbale": 7155,
      "dynamische": 7156,
      "extrem": 7157,
      "progressieve": 7158,
      "##kundigen": 7159,
      "##rig": 7160,
      "Euro": 7161,
      "mM": 7162,
      "##aseerde": 7163,
      "##riè": 7164,
      "##rokken": 7165,
      "samenstelling": 7166,
      "cal": 7167,
      "home": 7168,
      "ofwel": 7169,
      "onderging": 7170,
      "routes": 7171,
      "Borst": 7172,
      "##HH": 7173,
      "##ease": 7174,
      "soc": 7175,
      "##oblast": 7176,
      "cardiovasculaire": 7177,
      "##azep": 7178,
      "LDL": 7179,
      "##niveaus": 7180,
      "hydrox": 7181,
      "##olen": 7182,
      "##asale": 7183,
      "##patiënten": 7184,
      "MA": 7185,
      "antagonist": 7186,
      "##komsten": 7187,
      "IFN": 7188,
      "RT": 7189,
      "tweemaal": 7190,
      "fosforylering": 7191,
      "geleiding": 7192,
      "toegevoe": 7193,
      "analyseren": 7194,
      "End": 7195,
      "oef": 7196,
      "mcg": 7197,
      "unieke": 7198,
      "##hel": 7199,
      "specificiteit": 7200,
      "vaatziekten": 7201,
      "gelijktijdige": 7202,
      "##udenten": 7203,
      "lid": 7204,
      "nauwkeurig": 7205,
      "plaatsing": 7206,
      "##aars": 7207,
      "herzien": 7208,
      "rob": 7209,
      "##ventrikel": 7210,
      "##ULTUUR": 7211,
      "tube": 7212,
      "##waard": 7213,
      "##hepatische": 7214,
      "##isten": 7215,
      "OH": 7216,
      "minimaal": 7217,
      "##sver": 7218,
      "aanvankelijk": 7219,
      "##RA": 7220,
      "##orende": 7221,
      "verlaagd": 7222,
      "trop": 7223,
      "##ope": 7224,
      "##roep": 7225,
      "nierfunctie": 7226,
      "gekoppeld": 7227,
      "##icine": 7228,
      "geboorte": 7229,
      "patronen": 7230,
      "DE": 7231,
      "verscheidenheid": 7232,
      "uitsluit": 7233,
      "verschijn": 7234,
      "##uros": 7235,
      "geïsoleerde": 7236,
      "assay": 7237,
      "mediastinum": 7238,
      "transplantatie": 7239,
      "2010": 7240,
      "humaan": 7241,
      "hypotensie": 7242,
      "succesvolle": 7243,
      "leukemie": 7244,
      "Toelichting": 7245,
      "##ulus": 7246,
      "duizel": 7247,
      "hydroxy": 7248,
      "##egrip": 7249,
      "eier": 7250,
      "metabolisme": 7251,
      "##keerde": 7252,
      "BI": 7253,
      "##iste": 7254,
      "dood": 7255,
      "ide": 7256,
      "gradi": 7257,
      "##oemd": 7258,
      "##fficiën": 7259,
      "polymorf": 7260,
      "voordat": 7261,
      "overwegen": 7262,
      "##rijke": 7263,
      "##otrop": 7264,
      "algor": 7265,
      "tel": 7266,
      "##ifest": 7267,
      "AG": 7268,
      "spontane": 7269,
      "##microscopie": 7270,
      "buurt": 7271,
      "##poc": 7272,
      "vag": 7273,
      "##illine": 7274,
      "chirurgie": 7275,
      "werkgroep": 7276,
      "go": 7277,
      "##MER": 7278,
      "##SP": 7279,
      "uiteindelijk": 7280,
      "slokdarm": 7281,
      "procedures": 7282,
      "kwantific": 7283,
      "Wat": 7284,
      "Release": 7285,
      "CF": 7286,
      "neutro": 7287,
      "hecht": 7288,
      "verhoogt": 7289,
      "Immun": 7290,
      "pseud": 7291,
      "metaal": 7292,
      "ventil": 7293,
      "secretie": 7294,
      "hyd": 7295,
      "regionale": 7296,
      "staan": 7297,
      "1dd": 7298,
      "microgram": 7299,
      "Soc": 7300,
      "AA": 7301,
      "CRP": 7302,
      "##naire": 7303,
      "patiënte": 7304,
      "##istratie": 7305,
      "fusie": 7306,
      "##urosemide": 7307,
      "##umenten": 7308,
      "ampl": 7309,
      "##structuren": 7310,
      "feed": 7311,
      "##sproces": 7312,
      "PK": 7313,
      "##lement": 7314,
      "##RD": 7315,
      "opeen": 7316,
      "afbeeld": 7317,
      "consolidatie": 7318,
      "gedrags": 7319,
      "Illness": 7320,
      "röntgen": 7321,
      "##alt": 7322,
      "##osomen": 7323,
      "##otalol": 7324,
      "##verlen": 7325,
      "plast": 7326,
      "##kenis": 7327,
      "bereid": 7328,
      "##oide": 7329,
      "##voed": 7330,
      "overwogen": 7331,
      "onvol": 7332,
      "behoefte": 7333,
      "wonden": 7334,
      "ket": 7335,
      "iso": 7336,
      "##vrije": 7337,
      "##gedrag": 7338,
      "##NAL": 7339,
      "##positie": 7340,
      "Som": 7341,
      "##40": 7342,
      "##MS": 7343,
      "Cell": 7344,
      "statistisch": 7345,
      "##ekt": 7346,
      "radio": 7347,
      "gegenereerd": 7348,
      "leren": 7349,
      "WH": 7350,
      "##iene": 7351,
      "##cter": 7352,
      "##spanning": 7353,
      "controlegroep": 7354,
      "divers": 7355,
      "honden": 7356,
      "vou": 7357,
      "##breng": 7358,
      "##orbiditeit": 7359,
      "ratio": 7360,
      "poli": 7361,
      "afkomstig": 7362,
      "##maat": 7363,
      "elementen": 7364,
      "intermedi": 7365,
      "##ocardiocardi": 7366,
      "telef": 7367,
      "vaker": 7368,
      "RC": 7369,
      "##olol": 7370,
      "strom": 7371,
      "stimuli": 7372,
      "##lap": 7373,
      "artsen": 7374,
      "gedilateerde": 7375,
      "##HA": 7376,
      "auteurs": 7377,
      "##Cl": 7378,
      "##trast": 7379,
      "##virus": 7380,
      "vervangen": 7381,
      "noch": 7382,
      "##tia": 7383,
      "##inn": 7384,
      "##out": 7385,
      "ligt": 7386,
      "dig": 7387,
      "##oll": 7388,
      "ir": 7389,
      "orgaan": 7390,
      "altijd": 7391,
      "##aa": 7392,
      "##tendeels": 7393,
      "regulering": 7394,
      "verv": 7395,
      "##enz": 7396,
      "granul": 7397,
      "##YS": 7398,
      "morfologie": 7399,
      "afdeling": 7400,
      "mening": 7401,
      "relaties": 7402,
      "hormoon": 7403,
      "##pocamp": 7404,
      "kran": 7405,
      "Dif": 7406,
      "schedel": 7407,
      "##stra": 7408,
      "##rempel": 7409,
      "melden": 7410,
      "##uleert": 7411,
      "##cement": 7412,
      "##doeld": 7413,
      "bedoeld": 7414,
      "##ally": 7415,
      "vermindert": 7416,
      "voorkomt": 7417,
      "betreft": 7418,
      "lum": 7419,
      "##reep": 7420,
      "PIC": 7421,
      "frontale": 7422,
      "##MG": 7423,
      "betekenis": 7424,
      "##seling": 7425,
      "gepublic": 7426,
      "braken": 7427,
      "daarna": 7428,
      "##zende": 7429,
      "##groei": 7430,
      "voeren": 7431,
      "krachtige": 7432,
      "interventies": 7433,
      "##elte": 7434,
      "##ohist": 7435,
      "technologie": 7436,
      "opac": 7437,
      "anest": 7438,
      "ziek": 7439,
      "bru": 7440,
      "##IG": 7441,
      "##transplantatie": 7442,
      "rot": 7443,
      "gelok": 7444,
      "bepaling": 7445,
      "##oxine": 7446,
      "Daarnaast": 7447,
      "UV": 7448,
      "verwacht": 7449,
      "##roscopie": 7450,
      "IR": 7451,
      "hemodynam": 7452,
      "beschrijft": 7453,
      "##reedt": 7454,
      "intensiteit": 7455,
      "##BL": 7456,
      "daling": 7457,
      "##itm": 7458,
      "richtlijnen": 7459,
      "##schik": 7460,
      "Phos": 7461,
      "bevolking": 7462,
      "focus": 7463,
      "##25": 7464,
      "##ditionele": 7465,
      "resonantie": 7466,
      "218": 7467,
      "adren": 7468,
      "Follow": 7469,
      "dient": 7470,
      "Doppler": 7471,
      "strategie": 7472,
      "daaropvolgende": 7473,
      "##BT": 7474,
      "Kal": 7475,
      "##rift": 7476,
      "##elta": 7477,
      "komst": 7478,
      "evolutie": 7479,
      "SH": 7480,
      "Molec": 7481,
      "##apar": 7482,
      "uitgang": 7483,
      "##oplossing": 7484,
      "Nie": 7485,
      "interpret": 7486,
      "beenmerg": 7487,
      "cav": 7488,
      "uitste": 7489,
      "##werkt": 7490,
      "kortademigheid": 7491,
      "doelen": 7492,
      "##FT": 7493,
      "##ylase": 7494,
      "##ian": 7495,
      "locaties": 7496,
      "DVT": 7497,
      "##ogingen": 7498,
      "stoppen": 7499,
      "medium": 7500,
      "interfer": 7501,
      "##onische": 7502,
      "L5": 7503,
      "##itoneale": 7504,
      "Micro": 7505,
      "##isu": 7506,
      "plant": 7507,
      "##sth": 7508,
      "erop": 7509,
      "##nier": 7510,
      "etiologie": 7511,
      "##max": 7512,
      "##gezondheid": 7513,
      "grotendeels": 7514,
      "kristal": 7515,
      "##basis": 7516,
      "zwelling": 7517,
      "ultra": 7518,
      "##ingle": 7519,
      "effectiviteit": 7520,
      "Behandeling": 7521,
      "vergroot": 7522,
      "disfunctie": 7523,
      "Inf": 7524,
      "##cholesterol": 7525,
      "Pert": 7526,
      "##ontre": 7527,
      "##MC": 7528,
      "##houding": 7529,
      "kwaadaardige": 7530,
      "Aangezien": 7531,
      "ontvangen": 7532,
      "##UMMER": 7533,
      "##fort": 7534,
      "slijm": 7535,
      "gewri": 7536,
      "imple": 7537,
      "Product": 7538,
      "##iende": 7539,
      "macrofagen": 7540,
      "mellitus": 7541,
      "##cludeerd": 7542,
      "210": 7543,
      "Mild": 7544,
      "##etiek": 7545,
      "verspreiding": 7546,
      "pathogenese": 7547,
      "##riet": 7548,
      "wie": 7549,
      "##cep": 7550,
      "begonnen": 7551,
      "##poten": 7552,
      "##leerd": 7553,
      "##wegings": 7554,
      "##mater": 7555,
      "##mut": 7556,
      "onderdeel": 7557,
      "referentie": 7558,
      "uitdaging": 7559,
      "dors": 7560,
      "inbegrip": 7561,
      "##RT": 7562,
      "erytro": 7563,
      "effusies": 7564,
      "fund": 7565,
      "##omstandigheden": 7566,
      "radic": 7567,
      "spieren": 7568,
      "##EA": 7569,
      "ball": 7570,
      "##SA": 7571,
      "plot": 7572,
      "MAP": 7573,
      "fenotype": 7574,
      "evenwicht": 7575,
      "##wonden": 7576,
      "##UT": 7577,
      "##ributie": 7578,
      "##ilis": 7579,
      "half": 7580,
      "##hyper": 7581,
      "mol": 7582,
      "##sz": 7583,
      "##adiging": 7584,
      "##icusp": 7585,
      "vele": 7586,
      "Q6": 7587,
      "cortic": 7588,
      "##NUMMER": 7589,
      "##anningen": 7590,
      "##stim": 7591,
      "rode": 7592,
      "101": 7593,
      "##mal": 7594,
      "Bleood": 7595,
      "##mod": 7596,
      "hernia": 7597,
      "amp": 7598,
      "##rosine": 7599,
      "Pertin": 7600,
      "ving": 7601,
      "##beper": 7602,
      "##CL": 7603,
      "Bas": 7604,
      "##scheiding": 7605,
      "##naam": 7606,
      "gedeeltelijke": 7607,
      "180": 7608,
      "Alert": 7609,
      "genoemd": 7610,
      "foto": 7611,
      "occlusie": 7612,
      "##uring": 7613,
      "##genoemde": 7614,
      "getrans": 7615,
      "materialen": 7616,
      "##Pattern": 7617,
      "##cyt": 7618,
      "gesynthet": 7619,
      "richten": 7620,
      "##ii": 7621,
      "##olyse": 7622,
      "training": 7623,
      "##selen": 7624,
      "diarree": 7625,
      "obes": 7626,
      "##idyl": 7627,
      "collageen": 7628,
      "##singen": 7629,
      "Kleine": 7630,
      "TP": 7631,
      "gemet": 7632,
      "##genase": 7633,
      "##ids": 7634,
      "##vindingen": 7635,
      "high": 7636,
      "onthulden": 7637,
      "GU": 7638,
      "verdo": 7639,
      "##orden": 7640,
      "aanbevelingen": 7641,
      "polymerase": 7642,
      "zuig": 7643,
      "##tratie": 7644,
      "##ART": 7645,
      "alternatieve": 7646,
      "wijzig": 7647,
      "verhoging": 7648,
      "steekproef": 7649,
      "##trop": 7650,
      "##abetische": 7651,
      "residuen": 7652,
      "Geringe": 7653,
      "Onge": 7654,
      "presenteert": 7655,
      "document": 7656,
      "hippocamp": 7657,
      "##plaatsing": 7658,
      "##lox": 7659,
      "##imin": 7660,
      "GL": 7661,
      "AST": 7662,
      "##xtra": 7663,
      "##odific": 7664,
      "kwam": 7665,
      "##aspect": 7666,
      "##ylax": 7667,
      "PAC": 7668,
      "betrouwbaarheid": 7669,
      "shock": 7670,
      "Extrem": 7671,
      "eierst": 7672,
      "##dimensionale": 7673,
      "gecontroleerde": 7674,
      "ouders": 7675,
      "##inst": 7676,
      "verklaren": 7677,
      "##BI": 7678,
      "bent": 7679,
      "varkens": 7680,
      "HCO3": 7681,
      "zenuwstelsel": 7682,
      "spi": 7683,
      "hulpmiddel": 7684,
      "2020": 7685,
      "lipiden": 7686,
      "##lucht": 7687,
      "adoles": 7688,
      "remde": 7689,
      "MP": 7690,
      "##eth": 7691,
      "##ohistoch": 7692,
      "eviden": 7693,
      "RDWSD": 7694,
      "##ationale": 7695,
      "##reatinine": 7696,
      "##punten": 7697,
      "Rh": 7698,
      "gestopt": 7699,
      "##jun": 7700,
      "##ofil": 7701,
      "##werving": 7702,
      "astma": 7703,
      "##oriën": 7704,
      "##ypische": 7705,
      "noodzaak": 7706,
      "##iva": 7707,
      "##pland": 7708,
      "bestude": 7709,
      "ontbre": 7710,
      "##odium": 7711,
      "tetra": 7712,
      "##ieven": 7713,
      "##ugger": 7714,
      "ervaring": 7715,
      "##mis": 7716,
      "##staande": 7717,
      "##metingen": 7718,
      "##eller": 7719,
      "Doodsoorzaak": 7720,
      "##lekt": 7721,
      "Metoprolol": 7722,
      "inzicht": 7723,
      "##validatie": 7724,
      "##23": 7725,
      "straling": 7726,
      "studenten": 7727,
      "feit": 7728,
      "gerandom": 7729,
      "##leuk": 7730,
      "gevisu": 7731,
      "##irg": 7732,
      "##ula": 7733,
      "ect": 7734,
      "##ocytose": 7735,
      "vader": 7736,
      "TEL": 7737,
      "##geving": 7738,
      "##lipidemie": 7739,
      "MIC": 7740,
      "obesitas": 7741,
      "##olytische": 7742,
      "Hyp": 7743,
      "taak": 7744,
      "beginnen": 7745,
      "this": 7746,
      "##resultaten": 7747,
      "hepatitis": 7748,
      "##stellen": 7749,
      "besl": 7750,
      "fenotyp": 7751,
      "rapporte": 7752,
      "diastolische": 7753,
      "drin": 7754,
      "polyp": 7755,
      "agonist": 7756,
      "Echocardi": 7757,
      "##ECT": 7758,
      "##osteron": 7759,
      "##iaties": 7760,
      "gewijzigd": 7761,
      "Beide": 7762,
      "langer": 7763,
      "##adr": 7764,
      "bevest": 7765,
      "##spectieve": 7766,
      "organen": 7767,
      "##utum": 7768,
      "Coronair": 7769,
      "Cu": 7770,
      "##ochte": 7771,
      "##omografie": 7772,
      "##mmHg": 7773,
      "##bed": 7774,
      "care": 7775,
      "Ang": 7776,
      "Flu": 7777,
      "pericardiale": 7778,
      "##olerantie": 7779,
      "##OON": 7780,
      "##dichtheid": 7781,
      "collega": 7782,
      "##sieve": 7783,
      "fac": 7784,
      "verleden": 7785,
      "right": 7786,
      "tumorcellen": 7787,
      "Aort": 7788,
      "Zowel": 7789,
      "kandid": 7790,
      "##lering": 7791,
      "##blaas": 7792,
      "##bra": 7793,
      "##sectie": 7794,
      "waterstof": 7795,
      "chlor": 7796,
      "##wikkeling": 7797,
      "CULTUUR": 7798,
      "##week": 7799,
      "overleg": 7800,
      "219": 7801,
      "ader": 7802,
      "##rins": 7803,
      "SN": 7804,
      "zwaar": 7805,
      "codeert": 7806,
      "regelmatig": 7807,
      "##ivaten": 7808,
      "##zem": 7809,
      "##oside": 7810,
      "isolatie": 7811,
      "Uitslag": 7812,
      "oestro": 7813,
      "Finding": 7814,
      "psychiat": 7815,
      "gram": 7816,
      "##emblage": 7817,
      "##zijds": 7818,
      "##reum": 7819,
      "meng": 7820,
      "##econ": 7821,
      "Oper": 7822,
      "heparine": 7823,
      "vertegenwoordigt": 7824,
      "##oepen": 7825,
      "##aline": 7826,
      "##onaat": 7827,
      "##ise": 7828,
      "Last": 7829,
      "##uigen": 7830,
      "cardiologie": 7831,
      "ovar": 7832,
      "##hoofd": 7833,
      "##ëfficiën": 7834,
      "##spercentage": 7835,
      "aang": 7836,
      "trend": 7837,
      "##omatisch": 7838,
      "##abiele": 7839,
      "##belasting": 7840,
      "antic": 7841,
      "##toe": 7842,
      "behoud": 7843,
      "##anyl": 7844,
      "theorie": 7845,
      "Major": 7846,
      "dienen": 7847,
      "##po": 7848,
      "Nederlandse": 7849,
      "gesugger": 7850,
      "##quente": 7851,
      "##bar": 7852,
      "##IF": 7853,
      "##igde": 7854,
      "geselecteerde": 7855,
      "##mechanisme": 7856,
      "##oppingen": 7857,
      "##nea": 7858,
      "##venen": 7859,
      "serie": 7860,
      "endoc": 7861,
      "vlak": 7862,
      "verbetert": 7863,
      "allemaal": 7864,
      "##osyl": 7865,
      "##rest": 7866,
      "varie": 7867,
      "Opt": 7868,
      "##27": 7869,
      "##ofag": 7870,
      "Invasive": 7871,
      "geschikte": 7872,
      "trauma": 7873,
      "manifest": 7874,
      "overexpressie": 7875,
      "gesuggereerd": 7876,
      "angio": 7877,
      "reactieve": 7878,
      "carcin": 7879,
      "##fys": 7880,
      "##gevoeligheid": 7881,
      "migratie": 7882,
      "droog": 7883,
      "medisch": 7884,
      "bis": 7885,
      "collaps": 7886,
      "fosfaat": 7887,
      "##dust": 7888,
      "Rep": 7889,
      "ong": 7890,
      "##allel": 7891,
      "213": 7892,
      "##buis": 7893,
      "##ikelen": 7894,
      "groeifactor": 7895,
      "arg": 7896,
      "IVF": 7897,
      "##ïd": 7898,
      "thym": 7899,
      "##outen": 7900,
      "CTDI": 7901,
      "##bal": 7902,
      "ondergingen": 7903,
      "weerstand": 7904,
      "1x": 7905,
      "##brid": 7906,
      "##orph": 7907,
      "hard": 7908,
      "dikke": 7909,
      "##ware": 7910,
      "zon": 7911,
      "ABG": 7912,
      "jong": 7913,
      "##agt": 7914,
      "##fase": 7915,
      "overgebracht": 7916,
      "##anine": 7917,
      "Vanwege": 7918,
      "reparatie": 7919,
      "Atrium": 7920,
      "##ilar": 7921,
      "Chirg": 7922,
      "nooit": 7923,
      "octrooi": 7924,
      "gekregen": 7925,
      "TELEF": 7926,
      "TELEFOON": 7927,
      "Acet": 7928,
      "TELEFOONNUMMER": 7929,
      "##present": 7930,
      "verbonden": 7931,
      "melk": 7932,
      "luchtweg": 7933,
      "sonde": 7934,
      "##ALV": 7935,
      "afgenomen": 7936,
      "keten": 7937,
      "bijdrage": 7938,
      "Health": 7939,
      "##hen": 7940,
      "##ser": 7941,
      "##scher": 7942,
      "sporen": 7943,
      "landen": 7944,
      "##geh": 7945,
      "Resultaten": 7946,
      "trombose": 7947,
      "off": 7948,
      "incisie": 7949,
      "diffuus": 7950,
      "##volume": 7951,
      "NEUR": 7952,
      "nucleotide": 7953,
      "express": 7954,
      "plus": 7955,
      "Matige": 7956,
      "2009": 7957,
      "##standen": 7958,
      "che": 7959,
      "verdeeld": 7960,
      "##ithel": 7961,
      "##for": 7962,
      "##OX": 7963,
      "##STELL": 7964,
      "197": 7965,
      "##ml": 7966,
      "##yro": 7967,
      "marker": 7968,
      "##lijf": 7969,
      "overt": 7970,
      "##osin": 7971,
      "diepe": 7972,
      "by": 7973,
      "Nu": 7974,
      "hoogst": 7975,
      "##icum": 7976,
      "##lengte": 7977,
      "##ureel": 7978,
      "SpO2": 7979,
      "absorptie": 7980,
      "HENT": 7981,
      "cardiomyopathie": 7982,
      "##merken": 7983,
      "placebo": 7984,
      "##scopische": 7985,
      "##ocaïne": 7986,
      "variabelen": 7987,
      "RS": 7988,
      "drug": 7989,
      "GC": 7990,
      "##STELLING": 7991,
      "Bet": 7992,
      "gemodific": 7993,
      "##schappelijk": 7994,
      "##kn": 7995,
      "##cap": 7996,
      "##lever": 7997,
      "atriale": 7998,
      "karakteriseren": 7999,
      "ori": 8000,
      "agressie": 8001,
      "episodes": 8002,
      "##HD": 8003,
      "##derheid": 8004,
      "Exam": 8005,
      "belasting": 8006,
      "benen": 8007,
      "BMI": 8008,
      "CTDIvol": 8009,
      "levensvat": 8010,
      "from": 8011,
      "##ercul": 8012,
      "inferieure": 8013,
      "##methoden": 8014,
      "##reerde": 8015,
      "resterende": 8016,
      "##cluderend": 8017,
      "mesenter": 8018,
      "verwerking": 8019,
      "trac": 8020,
      "bevestigen": 8021,
      "Verhoog": 8022,
      "Concluderend": 8023,
      "Actie": 8024,
      "##perat": 8025,
      "onmiddellijk": 8026,
      "vervanging": 8027,
      "##entiële": 8028,
      "##chi": 8029,
      "aminozuren": 8030,
      "##ococcus": 8031,
      "##therapie": 8032,
      "##plas": 8033,
      "Syst": 8034,
      "tw": 8035,
      "##rectie": 8036,
      "biomar": 8037,
      "perc": 8038,
      "tekort": 8039,
      "VAD": 8040,
      "method": 8041,
      "toegevoegd": 8042,
      "implicaties": 8043,
      "Verg": 8044,
      "##waarschijnlijk": 8045,
      "efficiënte": 8046,
      "Polikliniek": 8047,
      "tib": 8048,
      "waarnem": 8049,
      "##iodar": 8050,
      "nadat": 8051,
      "##riene": 8052,
      "opgelost": 8053,
      "nm": 8054,
      "Amerikaanse": 8055,
      "clin": 8056,
      "epidem": 8057,
      "reageren": 8058,
      "synthetische": 8059,
      "gecombineerde": 8060,
      "heup": 8061,
      "##eden": 8062,
      "classificatie": 8063,
      "culturen": 8064,
      "##strij": 8065,
      "zodat": 8066,
      "peri": 8067,
      "dragen": 8068,
      "SBP": 8069,
      "##kloppingen": 8070,
      "replicatie": 8071,
      "##cy": 8072,
      "##DA": 8073,
      "##arte": 8074,
      "anatomische": 8075,
      "##iae": 8076,
      "Geachte": 8077,
      "##sed": 8078,
      "Ern": 8079,
      "antim": 8080,
      "longoedeem": 8081,
      "##iveaus": 8082,
      "Labs": 8083,
      "##irine": 8084,
      "##isk": 8085,
      "kaart": 8086,
      "kunst": 8087,
      "spin": 8088,
      "gekweekt": 8089,
      "geactiveerd": 8090,
      "Indien": 8091,
      "##cturen": 8092,
      "hypo": 8093,
      "leden": 8094,
      "geble": 8095,
      "##EGEGEGEG": 8096,
      "##vormen": 8097,
      "pain": 8098,
      "mitralisklep": 8099,
      "theor": 8100,
      "sinusritme": 8101,
      "fiet": 8102,
      "##ember": 8103,
      "2D": 8104,
      "##bro": 8105,
      "vormt": 8106,
      "##derd": 8107,
      "OF": 8108,
      "foetale": 8109,
      "plaatsv": 8110,
      "tempor": 8111,
      "celt": 8112,
      "sur": 8113,
      "##TX": 8114,
      "##erge": 8115,
      "cellijnen": 8116,
      "##heen": 8117,
      "overgedragen": 8118,
      "sagit": 8119,
      "asympt": 8120,
      "##CP": 8121,
      "functioneren": 8122,
      "##ick": 8123,
      "beïnvloedt": 8124,
      "Succes": 8125,
      "onderzochte": 8126,
      "Mo": 8127,
      "elektrof": 8128,
      "##GE": 8129,
      "biochemische": 8130,
      "vloeibare": 8131,
      "IS": 8132,
      "but": 8133,
      "##dipine": 8134,
      "##jecten": 8135,
      "klass": 8136,
      "##activering": 8137,
      "600": 8138,
      "##steking": 8139,
      "wortel": 8140,
      "ascites": 8141,
      "draag": 8142,
      "oorzaken": 8143,
      "ML": 8144,
      "Long": 8145,
      "Kno": 8146,
      "kDa": 8147,
      "Not": 8148,
      "vezels": 8149,
      "##llu": 8150,
      "Meerdere": 8151,
      "voorlop": 8152,
      "##opol": 8153,
      "##trof": 8154,
      "endogene": 8155,
      "##sproblemen": 8156,
      "ECV": 8157,
      "##compliceerd": 8158,
      "MM": 8159,
      "diffuse": 8160,
      "GP": 8161,
      "##ylaxe": 8162,
      "##west": 8163,
      "mediale": 8164,
      "##hand": 8165,
      "mentale": 8166,
      "SM": 8167,
      "rood": 8168,
      "geïm": 8169,
      "##voeding": 8170,
      "##ivity": 8171,
      "Leeftijd": 8172,
      "verrijk": 8173,
      "waarmee": 8174,
      "vermoeid": 8175,
      "asymmet": 8176,
      "hydrol": 8177,
      "intracraniële": 8178,
      "benadrukt": 8179,
      "posit": 8180,
      "##erem": 8181,
      "inhoud": 8182,
      "endomet": 8183,
      "zuiver": 8184,
      "cardio": 8185,
      "##arin": 8186,
      "scala": 8187,
      "##igne": 8188,
      "capaciteit": 8189,
      "##ffecten": 8190,
      "##names": 8191,
      "215": 8192,
      "##oss": 8193,
      "gewichts": 8194,
      "myocardinfarct": 8195,
      "Veel": 8196,
      "OK": 8197,
      "Aanm": 8198,
      "helft": 8199,
      "##auw": 8200,
      "ervaren": 8201,
      "##inde": 8202,
      "integr": 8203,
      "individuen": 8204,
      "grondslag": 8205,
      "diabetische": 8206,
      "Pat": 8207,
      "##ificaties": 8208,
      "IP": 8209,
      "morfologische": 8210,
      "##otomie": 8211,
      "vond": 8212,
      "MO": 8213,
      "##onisch": 8214,
      "##reacties": 8215,
      "vitale": 8216,
      "spinale": 8217,
      "##amente": 8218,
      "##oft": 8219,
      "mitochondri": 8220,
      "##pletie": 8221,
      "beneden": 8222,
      "217": 8223,
      "brede": 8224,
      "##rat": 8225,
      "SEH": 8226,
      "##polarisatie": 8227,
      "kie": 8228,
      "remt": 8229,
      "Clip": 8230,
      "cytos": 8231,
      "intacte": 8232,
      "verdachte": 8233,
      "##ichaam": 8234,
      "ontvang": 8235,
      "Disc": 8236,
      "cruciale": 8237,
      "##AMP": 8238,
      "afw": 8239,
      "beschikbaarheid": 8240,
      "##diat": 8241,
      "yes": 8242,
      "nauwkeurige": 8243,
      "Vergeleken": 8244,
      "luchtwegen": 8245,
      "color": 8246,
      "doelwit": 8247,
      "Gewicht": 8248,
      "RRR": 8249,
      "Evalu": 8250,
      "##ecept": 8251,
      "echografie": 8252,
      "resectie": 8253,
      "proximaal": 8254,
      "cerebrale": 8255,
      "##digd": 8256,
      "generatie": 8257,
      "regulerende": 8258,
      "p53": 8259,
      "##idase": 8260,
      "induceren": 8261,
      "vezel": 8262,
      "Vergelijk": 8263,
      "equ": 8264,
      "toekomst": 8265,
      "hou": 8266,
      "puls": 8267,
      "begrepen": 8268,
      "aangetroffen": 8269,
      "stadia": 8270,
      "Drug": 8271,
      "monitoring": 8272,
      "mutant": 8273,
      "##ized": 8274,
      "##ental": 8275,
      "therapieën": 8276,
      "##HC": 8277,
      "econ": 8278,
      "aangepast": 8279,
      "CSF": 8280,
      "bijbeh": 8281,
      "trache": 8282,
      "##atter": 8283,
      "Zn": 8284,
      "varianten": 8285,
      "infusie": 8286,
      "ethanol": 8287,
      "##oorden": 8288,
      "Toen": 8289,
      "rechterkant": 8290,
      "##eeee": 8291,
      "##ongem": 8292,
      "##raling": 8293,
      "Gra": 8294,
      "2x": 8295,
      "ruggenmerg": 8296,
      "bloedingen": 8297,
      "##26": 8298,
      "tab": 8299,
      "geïnject": 8300,
      "drugs": 8301,
      "domeinen": 8302,
      "PET": 8303,
      "kaliber": 8304,
      "daag": 8305,
      "ent": 8306,
      "LVF": 8307,
      "tak": 8308,
      "geneeskunde": 8309,
      "essentiële": 8310,
      "##umat": 8311,
      "aantoon": 8312,
      "Vraagstelling": 8313,
      "Blood": 8314,
      "wilde": 8315,
      "advies": 8316,
      "Q6H": 8317,
      "##ruim": 8318,
      "opeenvolgende": 8319,
      "##ason": 8320,
      "bindt": 8321,
      "artikelen": 8322,
      "wak": 8323,
      "mur": 8324,
      "##isol": 8325,
      "##IND": 8326,
      "hetero": 8327,
      "Contrast": 8328,
      "wegens": 8329,
      "uiterlijk": 8330,
      "verricht": 8331,
      "degenen": 8332,
      "CVD": 8333,
      "gerapporteerd": 8334,
      "voorbij": 8335,
      "##studie": 8336,
      "##oeg": 8337,
      "##oep": 8338,
      "##umente": 8339,
      "verschuiving": 8340,
      "Kalium": 8341,
      "vergemakkelijken": 8342,
      "vul": 8343,
      "mediane": 8344,
      "##OH": 8345,
      "bijbehorende": 8346,
      "Chirgical": 8347,
      "datab": 8348,
      "##ippen": 8349,
      "Sinusritme": 8350,
      "NEURO": 8351,
      "cis": 8352,
      "dimens": 8353,
      "##iasis": 8354,
      "##kwaliteit": 8355,
      "##straten": 8356,
      "##ymph": 8357,
      "##itaties": 8358,
      "##ices": 8359,
      "hartkloppingen": 8360,
      "onvoldoende": 8361,
      "##defect": 8362,
      "gedeelte": 8363,
      "encefal": 8364,
      "maatregelen": 8365,
      "onregel": 8366,
      "jan": 8367,
      "##aringen": 8368,
      "##omegalie": 8369,
      "werkt": 8370,
      "##wisseling": 8371,
      "##A1": 8372,
      "##hals": 8373,
      "##gehele": 8374,
      "##icot": 8375,
      "##oplastische": 8376,
      "##holte": 8377,
      "geleidelijk": 8378,
      "##hr": 8379,
      "##sulf": 8380,
      "##rometrie": 8381,
      "##ypass": 8382,
      "hoor": 8383,
      "angiografie": 8384,
      "##istoffen": 8385,
      "stem": 8386,
      "instelling": 8387,
      "##sorb": 8388,
      "Sec": 8389,
      "##des": 8390,
      "zware": 8391,
      "##ticul": 8392,
      "assays": 8393,
      "Respir": 8394,
      "##okl": 8395,
      "##cyten": 8396,
      "##NT": 8397,
      "##elfunctie": 8398,
      "##acties": 8399,
      "ontkent": 8400,
      "versterkt": 8401,
      "arch": 8402,
      "Holter": 8403,
      "Operatie": 8404,
      "##emisch": 8405,
      "schatten": 8406,
      "##quencing": 8407,
      "cordis": 8408,
      "##ontwikkeling": 8409,
      "##ördin": 8410,
      "cohort": 8411,
      "morgen": 8412,
      "Recente": 8413,
      "##ontsteking": 8414,
      "3H": 8415,
      "##fact": 8416,
      "stro": 8417,
      "heden": 8418,
      "##houet": 8419,
      "bal": 8420,
      "lokalisatie": 8421,
      "Waar": 8422,
      "C3": 8423,
      "gekarakter": 8424,
      "aggreg": 8425,
      "BC": 8426,
      "##diagn": 8427,
      "VAS": 8428,
      "reeds": 8429,
      "##anth": 8430,
      "##vasc": 8431,
      "urin": 8432,
      "Mat": 8433,
      "segmenten": 8434,
      "morbiditeit": 8435,
      "##klieren": 8436,
      "diversiteit": 8437,
      "capsule": 8438,
      "Sten": 8439,
      "IGF": 8440,
      "105": 8441,
      "gewricht": 8442,
      "case": 8443,
      "Afspraak": 8444,
      "Europ": 8445,
      "aug": 8446,
      "##ogeniteit": 8447,
      "##arde": 8448,
      "##openie": 8449,
      "kliniek": 8450,
      "Test": 8451,
      "##odone": 8452,
      "##EV": 8453,
      "lymfoom": 8454,
      "inheem": 8455,
      "DS": 8456,
      "##GS": 8457,
      "##weeg": 8458,
      "##ila": 8459,
      "##ostase": 8460,
      "voortgezet": 8461,
      "Acid": 8462,
      "resistente": 8463,
      "pericard": 8464,
      "bijv": 8465,
      "Clin": 8466,
      "herhaling": 8467,
      "Cd": 8468,
      "##loxacine": 8469,
      "gete": 8470,
      "gelijktijdig": 8471,
      "waarop": 8472,
      "mutanten": 8473,
      "##ostische": 8474,
      "##structieve": 8475,
      "##letsel": 8476,
      "##renzende": 8477,
      "##procedure": 8478,
      "sed": 8479,
      "##chirurg": 8480,
      "versle": 8481,
      "vermeld": 8482,
      "prednis": 8483,
      "eenvoudig": 8484,
      "wijze": 8485,
      "TAB": 8486,
      "fibroblast": 8487,
      "gemengde": 8488,
      "uter": 8489,
      "##ensie": 8490,
      "##culturen": 8491,
      "Intra": 8492,
      "##spat": 8493,
      "nat": 8494,
      "Heart": 8495,
      "uitbreiding": 8496,
      "##receptor": 8497,
      "kanalen": 8498,
      "Protein": 8499,
      "Right": 8500,
      "##undel": 8501,
      "##uil": 8502,
      "##ogenetische": 8503,
      "subs": 8504,
      "toegeschreven": 8505,
      "dominante": 8506,
      "##genees": 8507,
      "##hoek": 8508,
      "functioneel": 8509,
      "##amaat": 8510,
      "##doen": 8511,
      "PVC": 8512,
      "communicatie": 8513,
      "Ob": 8514,
      "##bride": 8515,
      "Sociale": 8516,
      "##kenmerken": 8517,
      "antioxid": 8518,
      "gedetail": 8519,
      "##verwij": 8520,
      "lad": 8521,
      "ongew": 8522,
      "traditionele": 8523,
      "parox": 8524,
      "ontwikkelden": 8525,
      "##stijd": 8526,
      "##diging": 8527,
      "##ADS": 8528,
      "aanv": 8529,
      "##atiente": 8530,
      "##emet": 8531,
      "##tests": 8532,
      "##va": 8533,
      "##osomale": 8534,
      "uitdagingen": 8535,
      "bul": 8536,
      "IM": 8537,
      "LI": 8538,
      "bescherming": 8539,
      "Tromb": 8540,
      "Q4": 8541,
      "hypof": 8542,
      "gtt": 8543,
      "Questionnaire": 8544,
      "TGF": 8545,
      "distributie": 8546,
      "##chloride": 8547,
      "aanpassing": 8548,
      "haal": 8549,
      "flutter": 8550,
      "##enteel": 8551,
      "labs": 8552,
      "##denking": 8553,
      "Algemeen": 8554,
      "aspiratie": 8555,
      "pri": 8556,
      "2008": 8557,
      "verschillend": 8558,
      "##HT": 8559,
      "litte": 8560,
      "##amb": 8561,
      "Loc": 8562,
      "##angen": 8563,
      "formul": 8564,
      "Alk": 8565,
      "Medical": 8566,
      "##vulling": 8567,
      "##vasculaire": 8568,
      "##ton": 8569,
      "TM": 8570,
      "gesynthetiseerd": 8571,
      "##ters": 8572,
      "##cholesterolemie": 8573,
      "brand": 8574,
      "##ologen": 8575,
      "omgevings": 8576,
      "##ugh": 8577,
      "##ops": 8578,
      "adenosine": 8579,
      "##RE": 8580,
      "ultras": 8581,
      "##olisch": 8582,
      "massaspect": 8583,
      "Tel": 8584,
      "intraveneus": 8585,
      "##genitale": 8586,
      "##sterkte": 8587,
      "SA": 8588,
      "##ges": 8589,
      "##klin": 8590,
      "metalen": 8591,
      "single": 8592,
      "##apen": 8593,
      "##atin": 8594,
      "inz": 8595,
      "##ertijd": 8596,
      "##ilaterale": 8597,
      "voordeel": 8598,
      "AK": 8599,
      "trig": 8600,
      "initiële": 8601,
      "scores": 8602,
      "Lact": 8603,
      "LPS": 8604,
      "##medicatie": 8605,
      "insuff": 8606,
      "neon": 8607,
      "##ended": 8608,
      "##igende": 8609,
      "Known": 8610,
      "##szins": 8611,
      "chan": 8612,
      "tyrosine": 8613,
      "kalium": 8614,
      "NamePattern": 8615,
      "tricusp": 8616,
      "fl": 8617,
      "negen": 8618,
      "Min": 8619,
      "verbeter": 8620,
      "##pathie": 8621,
      "complement": 8622,
      "Lengte": 8623,
      "besliss": 8624,
      "EG": 8625,
      "##arynx": 8626,
      "D1": 8627,
      "brad": 8628,
      "##vanc": 8629,
      "dosering": 8630,
      "lagen": 8631,
      "##verdeling": 8632,
      "embryo": 8633,
      "103": 8634,
      "##onaal": 8635,
      "occ": 8636,
      "##wort": 8637,
      "##80": 8638,
      "##ympt": 8639,
      "##iguur": 8640,
      "Del": 8641,
      "##soorten": 8642,
      "spiegels": 8643,
      "atm": 8644,
      "glad": 8645,
      "##materiaal": 8646,
      "##patroon": 8647,
      "meerderheid": 8648,
      "bezorg": 8649,
      "alert": 8650,
      "##respon": 8651,
      "perifeer": 8652,
      "vertraagde": 8653,
      "##ocon": 8654,
      "atherosclerose": 8655,
      "Kort": 8656,
      "##schaal": 8657,
      "Device": 8658,
      "redelijke": 8659,
      "Comments": 8660,
      "##IST": 8661,
      "afzonderlijke": 8662,
      "mast": 8663,
      "interf": 8664,
      "stimuleren": 8665,
      "##ceptie": 8666,
      "##produc": 8667,
      "##rial": 8668,
      "prov": 8669,
      "lozing": 8670,
      "##isico": 8671,
      "Hospital1": 8672,
      "##LR": 8673,
      "##dier": 8674,
      "neiging": 8675,
      "##iculair": 8676,
      "ring": 8677,
      "##oorde": 8678,
      "HLA": 8679,
      "PEL": 8680,
      "laser": 8681,
      "##ologe": 8682,
      "##quis": 8683,
      "##bereik": 8684,
      "##oos": 8685,
      "real": 8686,
      "kat": 8687,
      "##fferentie": 8688,
      "##ieur": 8689,
      "Doc": 8690,
      "eens": 8691,
      "alkal": 8692,
      "##fib": 8693,
      "echt": 8694,
      "droge": 8695,
      "verspreid": 8696,
      "maligniteit": 8697,
      "##uste": 8698,
      "aangrenzende": 8699,
      "PCP": 8700,
      "##ficatie": 8701,
      "##xine": 8702,
      "gezamen": 8703,
      "lichaamsgewicht": 8704,
      "terugkerende": 8705,
      "dynamiek": 8706,
      "benadrukken": 8707,
      "hydron": 8708,
      "systematische": 8709,
      "immunos": 8710,
      "schu": 8711,
      "##iratoire": 8712,
      "##osynthese": 8713,
      "abces": 8714,
      "##paste": 8715,
      "Vis": 8716,
      "##ivari": 8717,
      "ballon": 8718,
      "toch": 8719,
      "katalys": 8720,
      "##ijne": 8721,
      "##dilat": 8722,
      "cran": 8723,
      "extractie": 8724,
      "AI": 8725,
      "##ci": 8726,
      "##hyle": 8727,
      "##want": 8728,
      "mei": 8729,
      "inheemse": 8730,
      "aanvang": 8731,
      "Chirurg": 8732,
      "bp": 8733,
      "##romatografie": 8734,
      "miRNA": 8735,
      "antigenen": 8736,
      "amyl": 8737,
      "parallel": 8738,
      "Cancer": 8739,
      "##aakten": 8740,
      "uitzonder": 8741,
      "relevant": 8742,
      "##otiden": 8743,
      "donor": 8744,
      "voe": 8745,
      "##hydr": 8746,
      "Sign": 8747,
      "gepland": 8748,
      "optreedt": 8749,
      "mamm": 8750,
      "rate": 8751,
      "gestuurd": 8752,
      "##katheter": 8753,
      "cancer": 8754,
      "Natrium": 8755,
      "flexib": 8756,
      "calciumscore": 8757,
      "##ronic": 8758,
      "NA": 8759,
      "VCI": 8760,
      "##ocarcinoom": 8761,
      "retin": 8762,
      "wit": 8763,
      "gespec": 8764,
      "ziekenhuisopname": 8765,
      "bib": 8766,
      "wereldwijde": 8767,
      "##omeren": 8768,
      "##itaire": 8769,
      "minuut": 8770,
      "tien": 8771,
      "##gelegd": 8772,
      "##iO2": 8773,
      "accept": 8774,
      "Home": 8775,
      "##periode": 8776,
      "##blok": 8777,
      "myc": 8778,
      "##eterm": 8779,
      "glucos": 8780,
      "cyan": 8781,
      "##kru": 8782,
      "veelbelovende": 8783,
      "Man": 8784,
      "Left": 8785,
      "nov": 8786,
      "HDL": 8787,
      "##elekt": 8788,
      "overeenkomstige": 8789,
      "veren": 8790,
      "set": 8791,
      "geworden": 8792,
      "2003": 8793,
      "##Gap": 8794,
      "##etermin": 8795,
      "##H2O": 8796,
      "5mg": 8797,
      "media": 8798,
      "comfort": 8799,
      "opger": 8800,
      "wetenschappelijke": 8801,
      "##hab": 8802,
      "schimmel": 8803,
      "##mitt": 8804,
      "thermische": 8805,
      "inh": 8806,
      "az": 8807,
      "##othe": 8808,
      "agen": 8809,
      "pulmonaal": 8810,
      "H2": 8811,
      "bypass": 8812,
      "bijnier": 8813,
      "metastase": 8814,
      "fragment": 8815,
      "immunohistoch": 8816,
      "##sequentie": 8817,
      "AnGap": 8818,
      "oxidatie": 8819,
      "Aspirine": 8820,
      "##regulatie": 8821,
      "management": 8822,
      "robu": 8823,
      "##carb": 8824,
      "speciale": 8825,
      "##ateerd": 8826,
      "##alpha": 8827,
      "##band": 8828,
      "##insufficiëntie": 8829,
      "##rif": 8830,
      "sclerose": 8831,
      "##iket": 8832,
      "biologisch": 8833,
      "variant": 8834,
      "indirect": 8835,
      "##VIS": 8836,
      "Tw": 8837,
      "##amus": 8838,
      "##ofren": 8839,
      "routin": 8840,
      "houdt": 8841,
      "cholec": 8842,
      "element": 8843,
      "NK": 8844,
      "##eleiding": 8845,
      "Sup": 8846,
      "celd": 8847,
      "##ichia": 8848,
      "##ats": 8849,
      "kransslagader": 8850,
      "karakterisering": 8851,
      "Pain": 8852,
      "##ria": 8853,
      "##opo": 8854,
      "succesvol": 8855,
      "jun": 8856,
      "eet": 8857,
      "Chronische": 8858,
      "##rijgt": 8859,
      "rijk": 8860,
      "clear": 8861,
      "104": 8862,
      "##omale": 8863,
      "constipatie": 8864,
      "gesla": 8865,
      "adolesc": 8866,
      "##itatief": 8867,
      "langzaam": 8868,
      "Linker": 8869,
      "bif": 8870,
      "##aandoen": 8871,
      "##ION": 8872,
      "##rière": 8873,
      "transmissie": 8874,
      "hypoxie": 8875,
      "None": 8876,
      "kop": 8877,
      "##dehy": 8878,
      "##aking": 8879,
      "Beoordeling": 8880,
      "Int": 8881,
      "artritis": 8882,
      "energ": 8883,
      "CYP": 8884,
      "epider": 8885,
      "verslag": 8886,
      "##horm": 8887,
      "##asten": 8888,
      "hematoma": 8889,
      "Sle": 8890,
      "oorspronkelijke": 8891,
      "instrument": 8892,
      "linkerventrikel": 8893,
      "Temp": 8894,
      "nor": 8895,
      "werv": 8896,
      "geselecteerd": 8897,
      "stappen": 8898,
      "lapar": 8899,
      "cDNA": 8900,
      "##idog": 8901,
      "##inezuur": 8902,
      "##nummer": 8903,
      "stier": 8904,
      "##gevallen": 8905,
      "selectief": 8906,
      "atherosclerotische": 8907,
      "##omal": 8908,
      "verontre": 8909,
      "##werpen": 8910,
      "ras": 8911,
      "Experim": 8912,
      "##isin": 8913,
      "##afwijking": 8914,
      "uL": 8915,
      "##entanyl": 8916,
      "seksuele": 8917,
      "metabolieten": 8918,
      "benz": 8919,
      "Terwijl": 8920,
      "dialyse": 8921,
      "amplitude": 8922,
      "EB": 8923,
      "##icilline": 8924,
      "##steun": 8925,
      "##dikte": 8926,
      "##curr": 8927,
      "organisatie": 8928,
      "experimenteel": 8929,
      "rechterboven": 8930,
      "hybrid": 8931,
      "FA": 8932,
      "Neurolog": 8933,
      "2000": 8934,
      "##ional": 8935,
      "onderwijs": 8936,
      "princip": 8937,
      "102": 8938,
      "##omon": 8939,
      "verwond": 8940,
      "##mechanismen": 8941,
      "##DE": 8942,
      "Analyse": 8943,
      "antit": 8944,
      "aderen": 8945,
      "##DS": 8946,
      "##percentage": 8947,
      "stamcellen": 8948,
      "##EST": 8949,
      "melanoom": 8950,
      "Head": 8951,
      "enigszins": 8952,
      "spontaan": 8953,
      "titel": 8954,
      "##spier": 8955,
      "transformatie": 8956,
      "##omeer": 8957,
      "infiltr": 8958,
      "##ulose": 8959,
      "septum": 8960,
      "Famil": 8961,
      "voorsch": 8962,
      "##overdracht": 8963,
      "##nale": 8964,
      "antistolling": 8965,
      "celcyclus": 8966,
      "##izoen": 8967,
      "##sil": 8968,
      "##chan": 8969,
      "##artim": 8970,
      "veilig": 8971,
      "longem": 8972,
      "##ofie": 8973,
      "##ique": 8974,
      "Continu": 8975,
      "algehele": 8976,
      "tev": 8977,
      "##umes": 8978,
      "bestand": 8979,
      "##jectieve": 8980,
      "redelijk": 8981,
      "##oprazol": 8982,
      "decompens": 8983,
      "passend": 8984,
      "Vereniging": 8985,
      "##vaten": 8986,
      "LAB": 8987,
      "##SE": 8988,
      "variabele": 8989,
      "bronnen": 8990,
      "verwijd": 8991,
      "onbekende": 8992,
      "##gave": 8993,
      "uitvoeren": 8994,
      "##ialis": 8995,
      "LM": 8996,
      "anemie": 8997,
      "##tho": 8998,
      "##eron": 8999,
      "samenvatting": 9000,
      "##GT": 9001,
      "##ouwen": 9002,
      "##LD": 9003,
      "elektron": 9004,
      "nek": 9005,
      "Code": 9006,
      "geest": 9007,
      "atypische": 9008,
      "dimensie": 9009,
      "koude": 9010,
      "bezoek": 9011,
      "sac": 9012,
      "PICC": 9013,
      "Activity": 9014,
      "Lip": 9015,
      "gewoon": 9016,
      "##matie": 9017,
      "monokl": 9018,
      "vertro": 9019,
      "L4": 9020,
      "Verander": 9021,
      "omgekeerde": 9022,
      "sluiten": 9023,
      "##durende": 9024,
      "##gin": 9025,
      "zeggen": 9026,
      "##ioom": 9027,
      "dopamine": 9028,
      "Trop": 9029,
      "##reoïd": 9030,
      "Indi": 9031,
      "CONTR": 9032,
      "daarvan": 9033,
      "##gestie": 9034,
      "##ulmon": 9035,
      "##appa": 9036,
      "kra": 9037,
      "heb": 9038,
      "induceert": 9039,
      "nod": 9040,
      "##vante": 9041,
      "fractie": 9042,
      "##proliferatie": 9043,
      "##lete": 9044,
      "##metabolisme": 9045,
      "##ield": 9046,
      "##gentie": 9047,
      "##osoom": 9048,
      "bemon": 9049,
      "diffusie": 9050,
      "multi": 9051,
      "##leukine": 9052,
      "klassieke": 9053,
      "Cur": 9054,
      "vereisen": 9055,
      "ulcer": 9056,
      "##kenning": 9057,
      "lymfekl": 9058,
      "gerapporteerde": 9059,
      "Intellectueel": 9060,
      "##brengst": 9061,
      "##uron": 9062,
      "gescheiden": 9063,
      "##illus": 9064,
      "Acute": 9065,
      "Bloeddruk": 9066,
      "##komende": 9067,
      "fin": 9068,
      "##rinsieke": 9069,
      "elast": 9070,
      "conserv": 9071,
      "bevestigde": 9072,
      "situatie": 9073,
      "sagittale": 9074,
      "##ife": 9075,
      "##inc": 9076,
      "hartas": 9077,
      "ambul": 9078,
      "visu": 9079,
      "bevinding": 9080,
      "Rechts": 9081,
      "gon": 9082,
      "allerg": 9083,
      "##eende": 9084,
      "##reatment": 9085,
      "DI": 9086,
      "tubercul": 9087,
      "onthullen": 9088,
      "typische": 9089,
      "neer": 9090,
      "##artan": 9091,
      "##70": 9092,
      "##kopp": 9093,
      "##bine": 9094,
      "##ONE": 9095,
      "GH": 9096,
      "VERKLAR": 9097,
      "duizeligheid": 9098,
      "draad": 9099,
      "##inium": 9100,
      "hippocampus": 9101,
      "##vestig": 9102,
      "GAB": 9103,
      "oriënt": 9104,
      "##ket": 9105,
      "toegewezen": 9106,
      "##omedi": 9107,
      "##alys": 9108,
      "datas": 9109,
      "decen": 9110,
      "efficiënt": 9111,
      "##schat": 9112,
      "persist": 9113,
      "##mus": 9114,
      "farmacologische": 9115,
      "Wer": 9116,
      "##oneel": 9117,
      "lasix": 9118,
      "genetisch": 9119,
      "war": 9120,
      "##CK": 9121,
      "##yndroom": 9122,
      "percentie": 9123,
      "genomische": 9124,
      "##azine": 9125,
      "vallen": 9126,
      "virussen": 9127,
      "taal": 9128,
      "##otis": 9129,
      "plaque": 9130,
      "gemetast": 9131,
      "blot": 9132,
      "##ubl": 9133,
      "##FA": 9134,
      "Ernstige": 9135,
      "apparaten": 9136,
      "rollen": 9137,
      "##transferase": 9138,
      "aangegeven": 9139,
      "##ROM": 9140,
      "##stij": 9141,
      "##kige": 9142,
      "vrijw": 9143,
      "blan": 9144,
      "gead": 9145,
      "spectrum": 9146,
      "orthop": 9147,
      "beoorde": 9148,
      "oefen": 9149,
      "##spiegels": 9150,
      "verwezen": 9151,
      "2007": 9152,
      "uitgesproken": 9153,
      "##ged": 9154,
      "verpleegkundige": 9155,
      "##obob": 9156,
      "cyclus": 9157,
      "##iderzijds": 9158,
      "stimulus": 9159,
      "##ogelijk": 9160,
      "sterkte": 9161,
      "##isinopril": 9162,
      "##breuk": 9163,
      "fist": 9164,
      "regurg": 9165,
      "##iere": 9166,
      "##TA": 9167,
      "represent": 9168,
      "##reem": 9169,
      "##verandering": 9170,
      "##38": 9171,
      "PELVIS": 9172,
      "namelijk": 9173,
      "sepsis": 9174,
      "##digheid": 9175,
      "##rekt": 9176,
      "##arcoom": 9177,
      "##snelheid": 9178,
      "##istr": 9179,
      "zeldzaam": 9180,
      "leg": 9181,
      "Psych": 9182,
      "diverse": 9183,
      "voorspelde": 9184,
      "##xt": 9185,
      "sen": 9186,
      "image": 9187,
      "circul": 9188,
      "dend": 9189,
      "##blad": 9190,
      "##analyses": 9191,
      "intermediaire": 9192,
      "AMP": 9193,
      "##chron": 9194,
      "CO2": 9195,
      "compet": 9196,
      "achtergrond": 9197,
      "dermat": 9198,
      "##appar": 9199,
      "SK": 9200,
      "DO": 9201,
      "state": 9202,
      "##kering": 9203,
      "Gez": 9204,
      "##cultuur": 9205,
      "ili": 9206,
      "PREH": 9207,
      "##worpen": 9208,
      "##oplastic": 9209,
      "PREHTX": 9210,
      "##vloeistof": 9211,
      "beheersen": 9212,
      "eGFR": 9213,
      "Escher": 9214,
      "invasie": 9215,
      "clip": 9216,
      "##niet": 9217,
      "Az": 9218,
      "schiz": 9219,
      "obv": 9220,
      "##ocale": 9221,
      "##ocort": 9222,
      "emp": 9223,
      "space": 9224,
      "substraten": 9225,
      "onderscheid": 9226,
      "##icaal": 9227,
      "zeker": 9228,
      "##programma": 9229,
      "##acu": 9230,
      "verpleegkundigen": 9231,
      "##60": 9232,
      "cytoch": 9233,
      "##ilaire": 9234,
      "levende": 9235,
      "percentiel": 9236,
      "cef": 9237,
      "membranen": 9238,
      "dochter": 9239,
      "##eest": 9240,
      "cmH2O": 9241,
      "aanval": 9242,
      "Medisch": 9243,
      "sinussen": 9244,
      "rand": 9245,
      "details": 9246,
      "bestond": 9247,
      "Escherichia": 9248,
      "leer": 9249,
      "opnemen": 9250,
      "verwijzing": 9251,
      "Tr": 9252,
      "Jap": 9253,
      "willekeurig": 9254,
      "Insul": 9255,
      "geconserv": 9256,
      "##moe": 9257,
      "diagnostiek": 9258,
      "##orvastatine": 9259,
      "onderzoekers": 9260,
      "##clusies": 9261,
      "indust": 9262,
      "##choline": 9263,
      "COM": 9264,
      "celdood": 9265,
      "nn": 9266,
      "##iodaron": 9267,
      "langere": 9268,
      "can": 9269,
      "Sommige": 9270,
      "##vlees": 9271,
      "##oplasmat": 9272,
      "statistische": 9273,
      "##uls": 9274,
      "uitgangs": 9275,
      "Laboratorium": 9276,
      "##azepam": 9277,
      "##uld": 9278,
      "pal": 9279,
      "observatie": 9280,
      "##wek": 9281,
      "onderhoud": 9282,
      "NMR": 9283,
      "##ofosf": 9284,
      "Lung": 9285,
      "##aas": 9286,
      "uitstekende": 9287,
      "Aut": 9288,
      "retroper": 9289,
      "geteste": 9290,
      "totdat": 9291,
      "##VD": 9292,
      "##artic": 9293,
      "##illa": 9294,
      "##responsen": 9295,
      "zoogdieren": 9296,
[...]
