#version: 0.2
e n
e r
a n
i n
Ġ v
d e
i e
o r
g e
a t
e t
s t
Ġ de
o n
c h
Ġ m
a l
i j
e l
Ġv an
Ġ b
i s
Ġ h
Ġ d
a r
Ġ o
Ġ t
Ġ w
r e
in g
Ġ e
Ġ en
i t
Ġ ge
r o
Ġ p
Ġ in
o or
Ġ a
d en
l e
Ġ s
Ġ (
Ġ n
c t
Ġv er
d er
Ġe en
o l
Ġ c
Ġ z
Ġm et
o m
Ġh et
t e
Ġb e
Ġ k
g en
l a
at ie
r a
d i
Ġ D
is ch
a ar
ij k
o e
a s
Ġo p
i d
er d
Ġv oor
t en
Ġ on
i c
a m
u l
Ġ C
al e
isch e
o t
ch t
en t
Ġ l
Ġ re
u r
Ġ 1
u s
Ġ st
Ġ g
Ġt e
i l
Ġa an
o g
ij n
v er
s ch
k en
i g
s e
Ġ is
h e
u n
Ġ f
Ġ A
l en
e e
o p
in e
Ġ P
u m
e er
ĠD e
Ġ al
Ã «
ct ie
Ġ H
v en
s p
r u
de l
i m
Ġ u
Ġ S
v e
Ġ E
i k
Ġo m
Ġb ij
Ġd ie
er en
Ġw or
at i
Ġ I
e m
Ġ 2
Ġ .
o s
Ġ M
Ġd at
Ġ T
ing en
z e
an t
Ġz ijn
a g
a al
Ġ B
Ġ -
i f
e s
Ġo f
o c
Ġd oor
or m
Ã« n
ie t
Ġon der
el e
s en
l ijk
Ġ N
st e
t er
Ġ R
Ġu it
a k
a p
Ġw erd
he id
Ġ G
Ġw er
Ġp ro
it e
a b
e p
Ġ r
Ġ L
u t
Ġc on
i re
Ġ O
Ġ V
Ġal s
an d
an g
p er
s ie
el ijk
ite it
Ġge en
Ġn iet
d u
d t
h o
Ġw aar
f f
Ġge b
Ġt ot
u w
i st
Ġ [
e g
ati Ã«n
Ã ¯
ol og
ie k
re s
a ct
h an
el d
Ġ 3
i on
ul t
i r
ar t
Ġa f
Ġo ver
r i
l o
Ġwor den
oe d
om en
f t
e ct
Ġ le
Ġwer den
0 0
i ge
e en
Ġn a
e erd
a c
Ġp er
i v
Ġon t
Ġp atiÃ«n
Ġwor dt
i er
i de
Ġm o
k er
a d
o f
Ġw as
a at
Ġs p
Ġ an
u d
l u
Ġ er
i cht
n en
ge lijk
w ij
i ch
Ġ la
v al
u ur
r an
o k
a an
ar di
b e
ie s
Ġg ro
a st
Ġde ze
Ġ W
or t
m en
er e
ĠI n
k t
Ġonder z
eer de
A T
o se
Ġ 4
at en
o on
el len
m in
if ic
Ġ F
Ġz o
y p
Ġ 5
Ġs u
Ġk an
ing s
e c
y m
Ġ 0
v ol
i en
) .
O N
n e
v o
E R
t ra
) ,
Ġe x
Ġ gen
r on
han del
Ġw e
der e
ru ik
atie s
e d
cht er
om p
on der
Ġt oe
di g
as e
in d
t ro
r ij
c on
er de
s ult
Ġver sch
m a
Ġ ch
w ee
er s
i den
olog ie
w e
i p
ar en
a f
Ġh o
ent ie
am e
Ġe ff
u i
e ctie
Ġ j
ĠE r
o st
Ġv ol
oe k
Ġm g
el l
Ġgeb ruik
Ġb l
Ġd i
Ġh e
ij d
la ire
c u
b b
m e
c l
o d
ig n
h er
at er
as s
en de
i a
il len
ĠH et
i b
y n
S O
Ġbe handel
elijk e
Ġ 6
q u
o x
k e
l in
Ġn aar
ĠpatiÃ«n ten
or en
Ġn e
Ġ ant
Ġst ud
y st
on d
us sen
P ER
p ro
p en
Ġver b
al y
# #
al s
Ġm aar
Ġge m
Ġm e
SO ON
PER SOON
y l
s el
m er
Ġin ter
Ġn orm
Ġ U
us ie
Ġ im
ent r
g er
ge ven
Ġs ch
Ġd an
res sie
k ing
Ġb et
s c
an der
ep t
U M
di ge
Ġversch illen
Ġ( (
Ġ č
p t
Ġl in
Ġb el
a ak
Ġo ok
Ġh er
ij den
b aar
Ġ K
k el
z en
c e
Ã¯ n
am en
on en
i Ã«
or g
del ijk
Ġ( )
s m
N A
iv iteit
Ġin f
re ven
Ġt er
a ctie
Ġw aren
Ġs ign
bb en
Ġe er
A R
a ire
Ġ 9
Ġk un
o en
Ġt ussen
di c
i ve
Ġhe bben
Ġ ro
ee ft
Ġuit ge
la at
Ġbe sch
Ġ 7
Ġont w
Ġge z
at h
w el
un ctie
r ie
D AT
k ken
o ven
s la
atie ve
p l
Ġ Z
I N
Ġ1 0
Ġt wee
ar e
Ġ 8
DAT UM
e el
er ing
w it
aly se
an n
ro m
Ġonderz oek
u is
der en
Ġm in
0 1
Ġe i
Ġm eer
Ġkun nen
Ġ '
ie den
Ġeff ect
id del
Ġver ho
i o
ie uw
r en
Ġh eeft
de len
i um
r ijk
it ie
ati on
Ġbe v
ĠpatiÃ«n t
Ġn o
o el
ĠG een
y t
Ġd it
Ġre sult
Ġbel ang
ĠDe ze
y c
tro le
du c
Ġc omp
y s
z ig
o le
ĠC on
al en
di en
h ul
Ġal le
Ġverschillen de
a am
o gen
Ġ x
Ċ č
ge l
Ġh y
Ġver ander
t oon
geven s
Ġa ct
g ro
ardi ologie
gen omen
Ġge d
c es
at e
ag n
en s
Ġontw ik
Ġstud ie
Ġg er
Ġver gelijk
v an
Ġbl oed
on den
v ing
Ġm a
ar m
al is
Ġt ran
w er
c ellen
Ġp re
Ġbe st
Ġbehandel ing
Ġsign ific
p ressie
er t
sch ap
Ġlin ker
ic ro
ge b
ĠW e
ch ten
m m
Ġh art
m et
her ap
Ġw at
ijden s
iÃ« le
Ġverho og
Ġk le
ĠA n
Ġz e
o om
Ġh ad
Ġ ra
a cht
ĠE en
1 0
og ra
d ro
Ġp ol
u b
ive a
Ġ at
on g
olog ische
il l
Ġresult aten
et en
h y
Ġver min
Ġc or
Ġan dere
ĠA l
s s
ge st
en te
a der
Ġsu b
Ġre c
Ġv ro
m ent
Ġre chter
E N
Ġbelang rijk
e k
Ġver k
a ge
or st
Ġgebruik t
v l
ĠC T
Ġb as
st er
u c
Ġz onder
Ġn ieuw
Ġmo gelijk
cl usie
e f
Ġaan ge
w oor
Ġre g
2 1
iek te
Ġontwik kel
l et
ĠV er
ru ct
el f
. .
Ġh un
f ie
sla g
an te
at ten
sch reven
Ġt ijdens
Ġverb et
eren de
h al
d ru
ar d
u ro
Ġ el
hul p
n ame
d at
yp e
we zig
Ġm m
I E
he den
res s
t ie
Ġz ich
Ġ or
ul atie
Ġd ag
v orm
Ġbe hulp
n el
i ale
b are
Ġh oe
Ġp ijn
Ġk w
Ã ©
Ġd a
Ġzo als
D e
iek e
T E
Ġ1 2
Ġj aar
Ġk lin
k elijk
č Ċč
ell ing
Ġm ee
ĠO n
ur en
Ġt oon
vol g
ee m
Ġa b
an is
val u
p p
Ġm an
i Ã«n
Ġei wit
Ġ +
Ġ <
Ġg oed
I S
ct ion
u den
e x
A D
in nen
e i
b ij
le x
sch ieden
schieden is
Ġc el
) )
e ft
I C
Ġvermin der
val len
de m
Ġ =
oor z
Ġs yst
it is
C T
Ġnorm ale
Ġ Q
er atie
et er
Ġm icro
Ġ. ..
u it
at eg
ge le
w aar
ra cht
c o
Ġc ol
Ġcon trole
ce du
f er
ken d
ra m
â Ģ
5 0
Ġbe p
g ger
Ġc ellen
o b
Ġle ver
cht s
C on
t ing
de el
Ġon ge
z ien
ec if
et ische
Ġge Ã¯n
Ġl ong
k te
u re
Ġb orst
c entr
Ġb i
Ġw ee
t ific
is ic
e st
om st
ar i
Ġf unctie
o ten
Ġom schreven
cu laire
gen de
Ġbe oor
1 2
Ġc o
Ġp ar
o cht
Ġ /
id delen
os itie
Ġin tra
) :
Ġ ##
laat s
Ġv orm
Ġnieuw e
Ġaan wezig
Ġ ru
v oor
Ġre sp
Ġwaar genomen
eer t
Ġu ur
d ra
Ġp la
vo erd
ind ingen
Ġbe g
Ġst er
l an
at or
Ġim m
herap ie
ie erd
L O
ge m
Ġsu gger
Ġ(( )
Ġte gen
ig heid
' s
Ġm on
u g
C AR
u le
em en
C ardiologie
at ische
Ġb ere
ab let
ĠS t
I D
or ie
] :
Ġt oen
Ġhy per
Ġp ost
Ġe chter
te st
ĠD it
A L
gen s
f sel
du ctie
Ġuitge voerd
Ġnorm aal
gro ep
Ġ2 0
Ġact iviteit
a ch
c in
cedu re
re gen
a x
Ġh yp
vo el
m on
r im
Ġver toon
h or
Ġz iekte
atie f
n st
on e
Ġk la
j es
t al
Ġre s
er g
Ġvro uw
Ġbas is
IN G
oe de
st elling
Ġl ich
c el
Ġh em
Ġc om
n is
Ġeer ste
C H
t re
k s
oe ken
A M
Ġver oorz
Ġb en
Ġs c
wij s
Ġ #
Ġ art
u p
Ġde el
ik el
at uur
Ġb innen
Ġge Ã¯
Ġge v
Ġge gevens
sp ro
Ġzo wel
f orm
ass oc
Ġc ardi
d o
r it
Ġt ra
os f
Ġb le
ĠCon sult
ie ken
ele kt
Ġ >
e u
Ġr isic
Ġgro ep
ĠB ij
ch n
Ġro l
Ġbet ro
Ġn ivea
Ġge p
Ġ and
Ġklin ische
st en
Ġho og
Ġver wij
Ġt um
Ġe p
Ġverander ingen
Ġs yn
wij l
1 1
c ept
b in
c omp
u te
Con clusie
Ġho ge
Ġt ijd
w ijk
Ġv eel
b re
v at
Ġa cu
ra g
Ġz w
o ch
del ing
lijk e
h uis
am il
un ction
( )
Ġn u
ĠP ro
v el
Ġa m
Ġverhoog de
Ġsignific ant
k omst
s us
Ġk in
id ing
ym f
a ir
k king
al l
Ġd rie
Ġre actie
ri um
k omen
k an
Ġge volg
sch ijn
Ġ ar
Ġs nel
Ġw ij
Ġge w
Ġd is
Ġvergelijk ing
ur ende
ĠAn t
Ġl ang
2 0
of d
Ġd oel
ind ing
o Ã¯
u de
1 9
dic atie
Ġwer k
as sen
Ġst ab
t h
Ġan alyse
l ic
Ġgro ot
Ġs amen
ecif ieke
Ġst ruct
* *
Ġdi agn
L E
Ġter wijl
y ten
os is
Ġr el
v ul
Ġ1 00
ijn en
t ran
Ġstud ies
Ġeffect en
om e
Ġd ui
Ġb oven
Ġs ym
Ġa d
Ġv ia
m ie
n a
3 0
delijk e
M P
I I
aak t
Ġmee st
Ġver m
at us
oor t
Ġs le
Ġda gen
qu entie
b le
Ġcon t
w eg
on t
ie d
u k
Ġer nst
O m
sch rij
c ul
op en
I L
] ,
v as
Ġs er
Ġge st
Ġe valu
act iviteit
m o
l t
b ra
Ġ1 4
lo w
Ġme ch
woor d
Ġn og
Ġm l
in ale
ateg orie
Ġaan tal
Ġbe wijs
ĠC O
or e
Ġmet ho
Ġge assoc
i ver
z uur
Ġ1 1
it h
E G
un d
Ġa c
in f
du ct
Ġb re
an alyse
ĠL V
E S
ken de
schijn lijk
ic a
r el
uc le
A S
Ġen d
o og
an c
Ġ[ (
Ġp laats
ui zen
ater ale
ĠN a
al iteit
al c
m p
Ġne uro
Ġsignific ante
ĠT he
Ġm ens
Ġp at
sp re
Ġa p
Ġg ra
v la
Ġt en
is atie
x im
Ġonder ste
ĠR e
ge schiedenis
Ġ elekt
act er
af han
Ġ1 9
A B
Ġk en
ort a
AT IE
aan de
Ġm il
Ġge le
Ġh og
Ġtoe ge
gest eld
ge gevens
ati ge
l os
f unctie
ĠM et
ĠB oven
der s
Ġwee fsel
Ġge k
Ġh aar
Ġ1 5
g ang
Ġgeassoc ieerd
Ġb lo
Ġno dig
Ġb il
Ġh ij
er v
an e
n am
m g
schrij ving
k elijke
act oren
ĠG e
Ġd if
c ent
op t
Ġwaar bij
ic iÃ«n
Ġkle ine
eft ijd
ogra fie
on s
Ġalle en
Ġbe per
ur g
ie l
Ġmo del
Ġge voel
Ġp ositie
Ġgen ee
u id
A P
R I
em ische
Ġbesch reven
Ġonderz oeken
ass a
ĠBoven dien
ann eer
Ġonderz ocht
Ġ J
act or
Ġ- )
er atieve
st and
Ġged urende
st of
Ġbetro kken
el en
ra ag
Ġd aar
Ġgro te
per im
ĠAnt woord
el den
Ġmin der
E D
u ele
ĠThe ma
ĠC ategorie
Ġin t
am ine
Om schrijving
ver sie
per vla
la st
t a
ke ur
Ġ1 3
Ġo b
ro om
op ro
r ische
Ġex tra
ĠP o
2 01
Ġontwikkel ing
Ġ org
I n
z icht
el de
ctie ve
m at
Ġge de
o od
duc eerde
Ġ et
z et
Ġimm un
ĠB e
Ġ iden
Ġgez ien
Ġverk regen
or te
Ġp oten
Ġacu te
Ġ ]
s se
v ent
Ġant i
Ġle eftijd
lu c
ten sie
is s
Ġc yt
Ġpro ces
Ġg l
Ġv rij
f a
Ġim p
st r
Ġop ge
Â ł
Ġm en
E F
ond heid
Ġver z
/ -
Ġm oe
Ġmo le
aan den
Ġaan d
Ġaf wijk
ho uden
Ġl ymf
Ġ4 0
Ġ2 01
Ġn ier
toon d
Ġex pressie
o ol
Ġbelangrijk e
Ġh el
Ġtran s
ĠO p
st ru
Ġ1 6
dru k
ron ische
1 4
Ġn eg
Ġ5 0
Ġra di
Ġf or
i eren
Ġ3 0
o u
Ġbl ij
Ġher sen
ro p
R NA
r et
B C
at um
ĠP C
Ġh ui
am in
Ġ2 4
M M
Ã© n
u laire
Ġ &
Ġpro g
Ġd ru
m b
i aal
oc yten
baar heid
Ġ1 8
Ġe ch
Ġvol le
Ġinf ectie
Ġz eer
l at
Ġc m
Ġle ven
g ing
Ġrisic o
Ġz org
vl oed
ge en
Ġv ast
st ig
k l
g t
Ġwaar schijnlijk
Ġwe ken
op ath
v eer
or f
z el
il iteit
Ġt ype
re g
ĠD NA
Ġu w
Ġz elf
1 5
1 3
ĠC h
O R
Ġbep aal
Ġm y
en d
Ġaange toond
p ar
C G
Ġcon s
ĠD is
Ġt o
n o
2 5
a di
Ã¯ ne
Ġl ijk
Ġtum or
Ġm aanden
ee d
Ġhui dige
k un
res ent
he se
ĠO m
Ġv it
lu laire
ĠT ablet
el at
Ġbev indingen
ij f
vorm ing
oor ten
ogen e
ĠI V
Ġge con
Ġei gen
Ġre m
P M
ff en
ĠC ardiologie
Ġo or
C A
Ġge h
oor nis
Ġla ge
Ġbet re
Ġgenee sm
Ġv ari
Ġeer der
Ġaan zien
Ġsym pt
Ġbe ide
Ġf unction
Ġp le
u cht
ĠO ver
ĠE x
l ant
i ot
gen e
ant ie
Ġte st
ker s
Ġt he
Ġs la
Ġs ec
it ion
sch e
Ġt onen
Ġverminder de
r in
pt ie
Ġhad den
Ġm id
op p
z oek
Ġm iddel
Ġ "
Ġvoor komen
Ġcon tra
ele id
schap pen
st ers
ur ale
ĠN o
amil ie
Ġw el
Ġd osis
v ang
Ġm ult
Ġv oed
iet s
Ġmech anis
Ġgem iddel
p ass
Ġkla chten
y cl
Ã© Ã©n
Ġ2 5
Ġp rim
Ġ ang
ĠI C
y ch
Ġr et
% )
ie Ã«n
e ut
te ct
om y
Ġtoen ame
aar d
O S
le g
an den
i atie
Ġge vallen
Ġw eer
Ġw anneer
H et
D atum
it y
p h
A C
be handel
k ele
Ġaanwezig heid
s ul
an ge
Ġe ven
Ġm ed
Ġiden tific
Ġ ur
Ġbe Ã¯n
Ġ Ã©Ã©n
Ġverhoog d
vo u
Ġper s
k ingen
Ġs om
ir us
Ġonge veer
Ġvoor geschiedenis
ir urg
Ġc ar
un t
ie erde
ic al
Ġken mer
Ġcon centr
Ġsugger eren
vl oe
spro ken
Ġa ut
iek ten
Ġst im
sc ri
T I
den tific
Ġte chn
ectie v
ex pressie
Ġcomp lex
Ġm uizen
Ġho ofd
ne um
Ġver w
o uw
ĠV oor
om ie
ectiev elijk
Ġmens elijke
Ġbe eld
Ġ## #
Ġgez ondheid
j ectie
Ġdiagn ose
om et
ĠH ij
l ijn
d oor
Ġmo et
Ġter ug
Ġl ucht
Ġz ieken
z elf
a ken
Ġgeb ied
we ge
em ie
ele ct
Ġen kele
lo k
r atie
Ġh uis
Ġw ater
s yst
ĠS p
al ing
Ġ2 00
v erd
Ġel k
s ych
Ġd arm
Ġme di
en ten
Ġex perim
Ġtoon de
Ġv entr
Ġge s
t ische
Ġh ier
ĠD A
k g
Ġwaar onder
Ġl icht
st el
la ir
Y Y
kan ker
Ġr atten
ĠN e
be eld
Ġg oede
Ġlich aam
yn am
ak t
mer kt
Ġr icht
ĠZ e
Ġvoor sp
eu ze
f ect
Ġen z
de eld
le p
d ag
Ġ iets
w assen
ĠP O
Ġa s
ann ing
d a
h yl
p le
Ġgev onden
Ġinter actie
Ġd ist
Ġ1 7
Ġw il
Ġblo ot
in s
Ġge c
op ie
f in
in den
Ġzo u
Ġge di
te erd
con versie
ĠS TE
Ġla es
ei wit
Ġw ith
Ġd er
ĠD aar
H g
ie le
Ġd ra
1 6
Ġpro cedure
Ġla at
er den
Ġl ig
Ġernst ige
Ġpro ble
ge w
vul len
Ġcor on
Ġble ek
l ig
Ġst aat
j ect
ĠgeÃ¯ dentific
Ġch ronische
Ġcom bin
Ġge Ã«
ĠI N
ol ische
ve el
Ġop pervla
alc ium
l ies
Ġf ol
a z
vol gens
Ġop name
Ġ |
Ġz al
re quentie
hor ax
a de
ĠM e
Ġresp ectievelijk
ur sus
conversie gegevens
Ġbehandel d
Ġinf orm
Ġla ag
afhan kelijke
Ġre chts
Ġkin deren
P R
ho ud
Ã ¨
i x
ĠH ier
Ġzieken huis
wij z
N ee
Ġh uid
Ġv ier
Ġbe ve
atiÃ«n ten
Ġv aak
Ġveroorz aakt
Ġv is
r y
Ġover een
g ra
Ġm it
ĠC D
re at
Ġs e
Ġkan ker
Ġ+ /-
Ġsympt omen
e ff
lu or
Ġbe kend
C V
rom b
Ġ X
Ġb ot
Ġv o
u ik
Ġz ien
G F
Ġon ze
ich te
gen en
C O
em bra
d ing
ne se
l ij
ter n
he el
ĠA b
i ken
orm ale
Ġgeneesm iddelen
Ġgro ter
MM ING
mo del
Ġv e
Ġna uw
Ġgemiddel de
Ġim pl
il ich
Ġom ge
Ġl ip
u st
Ġv as
Ġge ven
ut ie
IL Y
he er
l ine
o de
ĠB LO
] .
Ġla b
Ġtot ale
Ġnivea u
ĠP M
Ġsp ecifieke
Ġnivea us
gem een
Ġ un
A G
m iddel
Ġst r
on de
Ġmeer dere
Ġa ss
ĠI I
ib r
Ġbetre kking
m aal
Ġ ische
Ġp neum
Ġra pp
s or
ver ander
gele ken
A N
h ol
Ġop eratie
ĠgeÃ¯dentific eerd
af g
n ivea
sp lant
opath ie
âĢ ī
v id
embra an
Ġaand oen
Ġv l
Ġgem eten
s ing
Ġvol wassen
Ġm ut
ab et
ach te
Ġv ar
ol oog
4 0
Ġmetho de
Ġbere ik
v entie
Ġa sp
ĠDA ILY
Ġh ep
Ġin di
in t
dig heden
in us
l y
Ġin sp
Ġrec ept
Ġdui delijk
Ġverb and
hy dro
Ġver der
ken en
re sp
Ġom dat
Ġf osf
Ġo u
U R
Ġbelangrijk ste
cl er
oc ardi
% ,
lo b
t hese
in ter
ar ige
ĠA d
ek s
Ġaanzien lijk
deel t
1 8
lu it
Ġge val
Ġvrouw en
zelf de
j e
fer ent
Ġs oorten
r ale
m l
Ġt h
Ġb acter
e ur
on ale
ro se
ra ak
Ġlijk t
ic iteit
oe wel
Ġop los
ar ct
re cept
0 5
1 7
Ġwaar door
io de
at ine
Ġart ikel
dra gen
Ġa orta
Ġch rom
b el
Ġd o
Ġmet ab
I V
Ġor aal
stru ctie
i al
Ġeff ectie
a v
Ġont hul
k w
Ġl o
am et
ĠR R
Ġst am
luc ose
Ġbesch ik
Ġn ucle
n em
Ġhoe veel
Ġkenmer ken
herap eut
Ġged rag
O D
Ġvan wege
ron en
Ġp t
l ing
is eerd
E en
iver ing
ie f
P C
oÃ¯ de
ro f
Ġge sch
k in
it er
Ġvertoon den
f usie
ire ct
ind s
it u
is me
z aam
am er
s ma
Ġop n
Ġhy dro
Ġp ul
Ġver st
dro om
st ruct
o di
ic ale
om t
Ġinform atie
o ver
Ġ- ()
T R
o ffen
Ġma ken
Ġeiwit ten
oornis sen
art s
Ġverwij der
Ġreg ul
con centr
duc eerd
ot ische
m ing
in u
z onder
ogra f
u un
Ġafwijk ingen
Ġevalu atie
Ġa dem
2 4
eer den
Ġp lan
an ten
P O
Ġsugger eert
eed s
r ine
olog isch
e de
Ġd u
l yc
M I
Ġstab iel
Ġ i
t o
Ġmed ische
ot or
2 00
Ġg ast
at ed
Ġbep alen
ys i
Ġcontra st
s yn
Ġ6 0
Ġab d
N I
z org
os c
Ġover le
Ġel ke
Ġtoon den
Ã ³
ĠSTE MMING
% .
Ġcombin atie
Ġonderste un
at o
ig h
z iekte
Ġvoor t
c ar
Ġle id
Ġl ok
Ġver t
Ġm assa
Ġh ist
Ġsu c
Ġd irect
Ġgroep en
Ġst atus
Ġin c
Ġgeb as
Ġcor rel
H U
Ġge lijk
Ġf en
ge Ã¯n
Ġne ur
a den
per s
Ġb la
es s
Ġt ablet
ath eter
ten s
ik lin
Ġmo eten
p ol
ĠD i
Ġz ij
qu ent
Ġsp ec
Ġver d
2 2
Ġverbet eren
in ig
p ijn
ar y
Ġlin ks
l ot
ma akt
abet es
ri cht
Ġb ron
gel s
ĠP T
c lu
j arige
Ġv al
re en
Ġprim aire
Ġt herapie
ge men
Ġbeve stig
Ġblij ft
Ġeigen schappen
xim ale
ress ion
Ġvertoon de
ra gen
an digheden
behandel ing
Ġhog ere
Ġvl oe
Ġtran scri
Ġp sych
u ra
ati ent
ardi ale
slag ader
Ġst ress
eren d
Ġc ent
LO C
C C
Ġverander ing
ĠH oewel
Ġa chter
K EN
Ġst en
Ġč Ċč
Ġp resent
Ġ Î
ap p
Ġbesch rij
it me
Ġd us
gemen e
f en
ĠC V
te erde
Ġf oc
Ġgroot te
cin oom
Ġt r
Ġtoe pass
et ten
Ġte kenen
Ġgro e
ar ak
v oe
ist ent
id atie
Ġuitge bre
il d
im m
Ġmole culaire
arak ter
6 0
op la
Ġver geleken
8 0
Ġch irurg
Ġhyper tensie
Ġaan wijz
Z IE
i gen
g aan
LOC ATIE
i or
im ale
Ġaf han
Ġm ar
Ġo x
g te
Ġindi vid
ap s
HU IS
ĠM RI
KEN HUIS
tie el
sp ie
ron d
ZIE KENHUIS
iciÃ«n tie
Ġvergelijk baar
Ġn an
Ġwaar voor
Ġn et
Ġgen en
Ġhog er
Ġg al
Ġp op
m ige
Ġlaat ste
Ġme dic
Ġc entr
l oed
in ge
Ġch em
Ġrec ente
Ġbepaal d
T P
b i
cent age
ri p
as en
vat ting
Ġ8 0
Ġversch il
Ġeer dere
ic ulaire
met ho
ul p
Ġbe sproken
Ġser um
ĠC a
c m
ĠA t
Ġk on
H T
ch te
Ġl oc
Ġm atige
ĠS T
di gen
Ġpro te
Ġmogelijk e
Ã ¶
ĠV an
Ġvorm en
k la
it al
schap p
Ġdru k
syst eem
u ze
Ġb uik
Ġc ir
te gen
Ġvolle dig
Ġver volgens
ine s
Ġbeoor deeld
itie ve
Ġvoor afg
Ġge schiedenis
om a
tran s
ĠP t
+ )
Ġmm Hg
Ġster k
m per
S T
ic e
en e
ĠOn ze
ĠE n
rie f
Ġenz ym
Ġf ase
Ġop genomen
Ġat rium
Ġgem een
Ġbil aterale
Ġsyst eem
ĠM CH
Ġres ul
- ##
or y
Ġon s
Ġdif ferent
gelijk e
Ġtwee de
Ġvit ro
i z
ple eg
l if
ang er
or der
ĠS ig
erg ie
ĠA an
im e
ra at
Ġal gemeen
Ġeven als
u eel
lo ten
oc yt
k k
Ġh and
alis atie
v is
Ġst eeds
ĠR D
v atten
l og
at rium
sp ecifieke
vou dige
Ġn on
9 0
ak er
Ġmin u
l ip
Ġop t
Ġver e
Ġf actoren
t ijd
ept ide
S A
Ġop en
Ġp ath
ot herapie
f osf
Ġstruct uur
Ġfol low
ome in
Ġsuc ces
t ig
Ġ Ġ
e ge
Ġk re
te g
Ġm at
ĠDis p
Ġv et
weg ing
Ġsle chts
Ġer van
ra kt
w n
Ġbest ude
I T
U L
Ġal l
ĠE CG
( -
A an
Ġlich te
Ġpoten t
IC ATIE
or ator
er o
wij zig
a and
Ġneg atief
ĠR V
mm ing
2 3
ich ten
Ġaanwijz ingen
ill ig
ĠOn der
y per
Ġma ag
t r
Ġk er
Ġa g
Ġst and
Ġur ine
Ġbe h
Ġin vloed
Ġl aten
Ġkle in
Ġp anc
b la
Ġda gelijk
ij st
an s
Ġru im
l and
at isch
Ġverm ogen
we gen
Ġafhan kelijk
ibr ill
Ġkre eg
Ġfunction ele
o sp
ĠI L
ĠT ot
Ġt herapeut
ib iot
ĠP h
ro on
Ġcont act
E r
u ff
) ;
ĠA F
el s
ion ele
Ġt romb
tegen woor
atiÃ«n t
ĠA P
an ce
ie w
Ġben ader
re actie
y sp
S C
ic atie
v ar
Ġz uur
Ġf amilie
Ġopn ieuw
Ġcomp lic
la ag
ĠP R
ra al
cel lulaire
is eerde
Ġz en
k eld
Ġresp ons
s er
om ische
Ġdat um
f alen
ĠB P
ĠA D
sie ke
Ġant ilich
Ġb ijn
Ġmee ste
p atiÃ«nten
Ġmm ol
oc ard
Ġimm uun
Ġz icht
in dt
E T
em b
Ġverbet ering
Ġh ulp
Ġs ele
a y
z ij
Ġpol ym
Ġmid den
Ġno od
ran s
p ast
Ġaan be
um e
om ent
te ctie
D ICATIE
Ġhoe wel
op eratieve
Ġm ater
min o
Ġ9 0
an ische
iv o
Ġb ieden
Ġwee k
Ġn ut
Ġgro ei
Ġm el
Ġsnel heid
Ġgeb ru
E L
3 5
amet ers
Ġa ctieve
2 6
g ere
Ġmechanis men
ĠgeÃ« valu
am p
l op
ĠbeÃ¯n vloe
- ,
Ġo og
Ġkw ant
Ġde c
c c
p e
Ġge geven
Ġgew icht
waar den
Ġsp ier
tro l
S D
Ġk racht
ĠU it
Ġre st
Ġbeoor delen
Ġ iv
m an
Ġstim ul
Ġge maakt
a in
7 0
ent ele
B P
elat eerde
b ere
aal de
Ġrapp ort
Ġzen uw
Ġvast gesteld
Ġint act
Ġb io
Ġo ede
1 00
l or
sp raak
g ram
Ġbeper kt
ol om
Ġsu per
2 9
ĠA m
on gen
Ġgevoel igheid
y la
iteit en
Ġhem at
geÃ¯n duceerde
oort s
en z
ĠgeÃ«valu eerd
acht ige
ĠC R
Ġimp ression
m iddelen
oc iale
Ġn ame
Ġpoten tieel
at ing
d an
id ine
ist of
vullen d
s ole
o ut
ac ro
Ġische mie
4 5
Ġst e
Ġgen etische
in de
am elijk
Ġbe kken
ver s
g d
) -
n t
Ġminu ten
Ġf ib
o v
ar ge
Ġm oment
in a
** ]
m ische
Ġ Â
2 8
arm ac
A nam
Ġm al
Ġl iter
ĠR NA
M e
Ġh om
Ġnauw keur
Ġgevolg d
ato ire
i der
B eleid
t ype
Ġbeoor deling
Ġwer vel
Ġprog ressie
Ġde zelfde
Ġdi eren
p s
or b
Ġge sla
p laat
Ġontwik keld
Ġbloot stelling
Ġm embraan
Anam nese
onder zoek
Ġech o
Ġreg io
inf ectie
Ġper iode
Ġn ee
le s
Ġvro ege
st room
Ġadem hal
Ġv ivo
Ġvol gende
a il
mat ig
ol er
dien ing
ecif iek
b et
te x
Ġh um
Ġont de
Ġm ate
Ġa ort
Ġle iden
ater aal
Ġm orf
Ġwaar van
oc k
R e
Ġo ste
J D
el t
z iekten
Ġpro ef
gro ot
Ġsom mige
Ġrel atie
hal te
Ġr ele
es c
ole ster
Ġverz am
Ġdiagn ost
ra ctie
Ġpro t
Ġd icht
Ġleven s
Ġger icht
Ġzw anger
dat um
Ġbet er
Ġcont inu
Ġver dere
Ġtoon t
kl ier
om in
ell ingen
p ositie
Ġhoeveel heid
Ġper if
Ġm is
Ġin ge
Ġbloed druk
ĠgeÃ¯ sole
ur ele
Ġk n
Ġf ot
Ġpro ductie
Ġar ter
yc ine
Ġidentific eren
Ġf luor
Ġs inds
dru kt
hor ac
ag on
alis eerde
geb ruik
Ġvermin deren
ĠC H
ac e
or gen
vol le
z ing
Ġsign aal
do ende
Ġk al
A l
sul ine
t ale
2 7
Ġver tegenwoor
Ġgezondheid s
st ud
Ġna am
ogra m
Ġv ir
or ale
N P
Ġmen sen
Ġc alcium
Ġv en
ĠAl s
Ġgede tect
Ġal fa
Ġl ange
Ġs h
Ġst ellen
ĠP er
ra ct
nam elijk
P D
-## >
Ġverminder d
verd racht
a ste
Ġoor z
ĠL AD
it or
duct en
Ġtot aal
Ġhersen en
Ġcentr ale
Ġa ctie
Ġw and
Ġvol gens
Ġf requentie
Ġpat ho
ĠH R
ul aties
st oornissen
l ang
Ġwe inig
ol ie
ĠRD W
Ġge deelt
TI JD
Ġf actor
ĠOver zicht
Ġaf ge
EF TIJD
Ġv ijf
ific atie
a ad
G y
Ġgebru iken
t ij
Ġla gere
s loten
Ġver sus
st em
Ġte mper
Ġd uur
L P
Ġbe spre
im eter
LE EFTIJD
as p
illig ram
Ġhyp ot
ist entie
Ġbe d
er ie
D I
sche iden
Ġm illigram
agn ose
Ġkw aliteit
op ische
oc ol
Ġk l
Ġk at
Ġre cht
on ie
Ġorg anis
Ġconcentr atie
r il
Ġvorm ing
p ak
Ġproble men
ak kelijk
ig ing
it ale
Ġm ond
Ġsec und
Ġreactie s
m atige
E C
co hol
E x
Ġpositie ve
s luit
00 0
k ings
G e
l ut
Ġmeest al
waar de
oe m
Ġverbet erde
Ġgep re
Ġpol y
we zen
M S
ule erd
duc eren
Ġvoor namelijk
Ġa pp
men ten
um ent
Ġont ste
il i
ĠG en
Ġcol leg
Ġ2 1
Ġvrij e
ro s
Ġgedetect eerd
9 5
Ġho uden
Ġom st
Ġa x
Ġvolle dige
Ġm RNA
Ġbi ologische
ken merkt
uit en
Ġsnel le
Ġa den
f ibrill
us ies
Ġge kenmerkt
Ġbe w
am eter
ch o
i delijk
Ġst room
d L
Ġst op
m iss
is sie
w and
or s
acht ing
Ġz etten
Ġdis c
Ġvere ist
MP AR
amen vatting
ĠU n
gel open
. )
Ġpre st
W e
igh t
ox iciteit
ĠH e
it te
Ġchrom os
if te
Ġoede em
gest elde
Ġm iddelen
um b
Ġbesch er
pers onen
Ã¨ ta
f te
MPAR IS
o chten
Ġme dicatie
Ġm ann
Ġ7 0
Ġman ier
la mm
M A
groep en
u ter
Ġevalu eren
en gte
v iew
Ġpotent iÃ«le
Ġimpl ant
Ġbe kende
Ġg aat
yc ard
Ġf y
Ġlaes ies
3 3
Ġk omen
Ġcel lulaire
a e
Ġwaar in
P ro
Ġomst andigheden
quent ies
afhan kelijk
Ġen kel
eem t
Ġass oc
P A
rij gen
iÃ« ren
el ing
Ġb ra
Ġ ,
Ġmechanis me
Ġrecept or
d oc
ac cin
Ġj a
Ġact ivering
Ġon be
MPARIS ON
as is
m oe
pro ductie
oor d
os ine
b ine
Ġant ibiot
schapp elijke
Ġbl oe
T ijd
Ġgepre sen
Ġal gemene
R A
s ub
p at
Ġbev at
in ine
rakt ijk
S I
sc opie
r ist
Ġk arakter
re as
te el
Ġdui delijke
st am
sp ron
Ġsten ose
wee fsel
l ol
Ġ[( (
Ġk oorts
Ġelekt ro
recept or
splant atie
elat eerd
C R
n n
D L
Ġleid t
Ġger eg
a dig
Ġs inus
ĠN iet
Ġ âĢ
orator ium
m icro
Ġliter atuur
Ġh als
te ert
Ġzwanger schap
Ġhep at
Ġpul mon
ri ale
Ġin st
Ġmetho den
ox y
Ġc ort
ox ide
p ut
Ġblij ven
da ag
Ġsp ra
ĠPC I
me di
le den
Ġgem eld
Ġgecon trole
an en
ĠIC D
il ijk
S H
Ġb inding
i le
Ġ2 3
dan ks
Ġf orm
ĠZ o
Ġgedi lat
O ver
Ġneg atieve
k se
gene se
Ġm Gy
ĠH ist
st re
l ijden
miss ion
ver lies
ĠA c
Ġwaar de
Ġp H
wer king
Ġaf gele
Ġgeb ieden
Ġru g
vas culaire
Ġbest aande
Ġd ien
Ġz iekten
men de
Ġstand aard
y ste
ĠBLO ED
a ven
Ġ Y
P S
ĠAl le
Ġklin isch
Ġdist ale
ac et
Ġru st
ge len
Ġop z
b een
Ġk orte
Ġo ude
nivea u
laat st
s erv
Ġ9 5
Ġpla sm
n ing
Ġc ere
Ġcardi ale
ĠMe dic
Ġre gel
ger elateerde
Ġk eer
Ġ y
ie ve
Ġvas culaire
L A
Ġd ysp
ĠCO MPARISON
Ġtoe diening
Ġge pro
aly s
wijzig d
Ġveroorz aken
o et
Ġm aakt
Ġvari ab
7 5
z ame
ĠU R
Ġver l
c um
Ġcomplic aties
Ġmo d
r ic
ĠR A
ĠM I
Ġgeh ad
at ale
ĠA M
s ign
ĠW BC
la ss
ĠB ID
Ġventr ikel
Ġtherapeut ische
YY YY
ur s
Ġf em
3 4
m ut
l oc
i di
Ġver ster
Ġv ocht
sp ectie
Ġop tre
ograf ische
Ġman nen
Ġr ond
9 9
act iv
nem ers
aak te
ot ype
Ġ2 2
Ġs ens
Ġcent imeter
t el
Ġdif f
van gen
Ġaf gelopen
Ġge analyse
ul len
ri b
Ġsp ect
Ġ )
V er
Ġbestude erd
Ġaf wezig
ouw d
ect en
Ġl et
C D
ion ale
ule erde
p re
Ġab n
o den
Ġret ro
kun dige
c ip
Ġver volg
ĠbeÃ¯n vloed
3 2
p laats
op eratie
n aam
C I
st aat
opro te
sla gen
op last
N EG
m it
Ġder gelijke
Ġv ragen
Ġm es
Ġaf name
la g
Ġgesch ik
m ole
form atie
Ġsch e
Ġontwikkel en
d d
m ijn
la cht
ĠPro cedure
Ġ2 8
ge voel
Ġg ren
Ġe mb
u en
Ġinsp anning
Ġple ura
ĠA f
Ġpol iklin
Ġis ol
Ġlaes ie
Ġc ell
h el
er ior
ult aten
Ġom vatten
gew icht
b inding
Ġcons istent
och ond
Ġre mming
R S
Ġd ynam
d is
Ġs eg
ie dt
agn ost
ĠS c
e ven
Ġweefsel s
reen ing
Ġper ic
_ _
Ġvoor al
Ġro ute
ik kel
Ġgra den
ĠAl l
os ition
Aan vullend
dien d
g s
Ġgl yc
U E
ab le
ĠA L
og n
Ġvert onen
Ġdi abetes
Ġver spre
le ct
ant woor
Ġcon st
Ġgep laatst
yp ische
S TE
eu zel
euzel ijst
K euzelijst
Ġcontrole s
le ment
Ġher h
lif eratie
alis eerd
Ġbev atten
gen er
E P
ge halte
Ġa mino
on ent
aan se
Ġc ult
Ġpanc reas
opro lol
ati st
Ġ2 6
Ġb iedt
un ten
b o
Ġzuur stof
et isch
ĠP ol
aar t
S P
Ġmon sters
cul en
Ġ3 5
wer k
ren gen
Ġverwijder d
Ġinc iden
Ġoor spron
Ġgepresen teerd
Ġon op
if t
Ġart s
Ġpositie f
Ġonderz ochten
ra z
Ġt huis
ac em
Ġd im
Ġiv m
k lep
ter min
Ġcol la
sc ore
Ġg rond
D NA
u iv
Ġn emen
ĠH T
N F
Ġap opt
E M
ysi ologische
Ġaandoen ingen
EN T
3 6
k ant
ot horax
ose s
Ġs oort
Ġde pressie
Ġcoron air
Ġend ot
rit me
m ol
ati o
ĠI g
Ġve il
Ġj aren
gen eratieve
Ġsyn droom
B e
ycard ie
Ġg ere
Ġ(( (
ĠgeÃ¯n duceerde
Ġde tectie
Ġe ss
ĠbeÃ¯nvloe den
ĠA V
Ġconcentr aties
x y
Ġw eten
Ġsub st
Ġgen er
Ġbe elden
ĠH g
am ma
ic ul
Ġl ine
Ġch emische
ken ing
ĠE D
Ġopz ichte
g ader
Ġproef personen
Ġ7 5
Ġle uk
Ġb uiten
Ġgeanalyse erd
Ġexperim entele
osp ital
ost en
Ġger elateerd
ĠP atiÃ«nt
Ġz eld
Ġom vat
Ġk ool
t ub
comp lex
os it
ed ieerde
ten is
em ent
Ġp atient
Ġcon trol
der ing
k olom
er ia
con sult
y se
Ġbeschik baar
Ġhuis arts
Ġzicht baar
y r
O M
od y
N ame
Ġbe en
v entr
Ġtoe komst
nel heid
Ġfunctie s
vallen d
] )
ol f
Ġin jectie
ee k
con trole
5 3
Ġn atuur
Ġr itme
IN E
ĠC om
Ġz es
or pen
l atie
op sie
fibrill eren
ind ings
Ġoverle ving
Ġtran sp
Ġaandoen ing
Ġtoepass ing
Ġverb indingen
al p
Ġonthul de
geb ied
Ġc ycl
Ġtranscri ptie
Ġeffectie f
Ġsp elen
Ġvoorkomen de
Ġnood z
Ġ :
Ġstr ateg
Ġver lies
ĠT en
ist en
Ġp l
ĠN ormale
Ġgebas eerd
Ġbeg in
Ġsp ecifiek
Ġpla sma
Ġstruct uren
c ult
Ġvoed ings
sse s
Ġdu bb
m ot
aps ule
is sel
van te
Ġverbet erd
Ġuitgebre ide
ol isme
acem aker
sm ent
Ġmoe ilijk
o i
Ġst of
c ycl
la v
Ġtum oren
aal d
Ġs itu
Ġhet er
3 8
Ġver pleeg
Ġoppervla kte
Ġl aterale
Ġfoc ale
Ġh al
de erd
icht ing
Ġt horac
Ġapp ar
Ġg aan
omen teel
Ġt ach
re m
k le
Ġgroter e
it atie
Ġtoe stand
Ġen ergie
Ġh ele
Ġbepaal de
Ġgez icht
Ġbereik t
Ġlok ale
onen ten
Ġde tect
Ġbij wer
sses sment
te chn
op er
Ġin suline
Ġwer eld
G een
ar s
w ater
lin ische
mer g
na uw
a u
d ition
Ġspra ke
ĠD ate
Ġex p
Ġk ru
lig gende
S S
Ġv aat
erg ieÃ«n
ĠO ne
ui ste
on ge
den de
is ie
Ġm agn
Ġk g
Ġp laat
Ġpneum othorax
Ġge l
Ġsyst olische
Ġsyst emen
of actoren
M D
ĠDaar om
af wijk
Ġver h
ĠBLO OD
ĠV ers
Ġkle ur
Ġtoege past
d ur
Ġb eleid
Ġbla as
Ġde fin
ĠL e
Ġbeg on
Ġde len
et s
5 5
V T
Ġsp eel
fie l
ul f
ar ing
Ġg lucose
Ġher stel
Ġbest aan
ch e
f ic
v rij
Ġtoege diend
Ġc ap
Ġver s
Ġbe heer
Ġst adi
c ell
Ġinter ne
ĠA C
ĠP lan
3 7
Ġf e
v ings
c or
xim aal
Ġ2 7
Ġla ger
Ġk omt
re gel
Ġc ru
og lob
Ġdie et
er p
us e
AB G
ar ine
metho de
Ġacu ut
M et
Ġtemper atuur
inf arct
Ġd d
Ġv irus
Ġd ro
Ġs im
orm aal
ĠM D
L C
Ġal cohol
o ft
ĠD oor
Ġl ongen
yl ering
w icht
Ġbeschrij ven
Ġcorrel atie
O T
ta il
vou dig
ĠC K
sor ptie
z w
y men
Ġintra ven
Ġopge merkt
Ġple urale
b en
Ġvergelijk bare
ak lep
in en
Ġcardi o
c ur
m s
Ġne ut
Ġbevestig d
Ġge eft
Ġb o
og ing
Ġp assen
Ġbijn a
. ,
Ġre eks
op h
Ġver tra
ost er
Ġeff usie
concentr atie
Ġa sc
nivea us
Ġneur onen
Ġk regen
Ġk no
fer entie
on ine
Ġd ys
lu id
S amenvatting
is eren
omet rie
Ġge sp
Ġactiviteit en
Ġmit ochond
Ġher st
Ġverm oe
stem ming
met hyl
Ġbeeld vorming
Ġmet ast
Ġstruct urele
3 1
at oren
Ġdaar om
Ġble ef
re erd
ĠNe uro
geb racht
ast ing
Ġuit komst
Ġd il
resp ons
ar c
Ġ %
Ġgeb eur
r um
o ur
Ġb lijk
ĠR ec
Ġzw ak
Ġabd omen
pro ces
qu e
Ġla st
se ctie
Ġ5 00
Ġen ige
aar dige
Ġ ion
o us
Ġ3 6
Ġuitge drukt
Ġf armac
ĠH IV
Ġte mp
Ġboven ste
oÃ¯ den
Ġt ri
sch illen
Ġlin kse
Ġdra in
9 8
k amer
olester ol
Ġprog n
Ġsle chte
ro uw
Ġlichaam s
Ġverho gen
concentr aties
g lyc
l it
v ast
Ġbetro uw
Ġvan af
ĠD r
kan aal
Ġco de
kla chten
I R
voor beeld
Ġpar ameters
. :
Ġl ater
t s
Ġgez onde
zaam heid
kun de
Ġdagelijk s
op pervla
D i
Ġma ximale
la b
clu deren
v irus
c us
Ġon verander
Ġaand acht
C P
Ġstab iele
Ġk ort
ĠS R
Ġrel atief
Ġt oel
Ġwervel kolom
ĠQ u
z ijn
he sie
Ġsla gader
aar dig
geb oren
sp ect
it atieve
z er
E q
Ġricht lijn
l ijnen
isch arge
Ã³ r
Ġge test
Ġinf arct
F O
Ġvol ume
rij pen
Ã³ Ã³r
os cler
Ġperif ere
Ġd ik
Ġbre ed
Ġj uiste
u ken
F R
p m
struct uur
re e
ĠM on
as eerde
me ch
Ġst atist
Ġcru c
Ġm acro
Ġzelf s
ren g
Ġmin im
Ġvro eg
Ġhart falen
v ari
Ġprest aties
Ġbest aat
Ġa ff
lang s
lu iden
Ġspeel t
od ynam
Ġverminder ing
Ġm aat
ra di
wee st
Ġwij zen
Ġbesch ouwd
Ġmoe der
Ġu p
Ġk atheter
ĠRe sp
s is
um or
Ġplan ten
Ġ ing
z uren
Ġhel pen
Ġal tern
ho u
Ġst ap
Ġproces sen
p ath
Ġm Eq
Ġmann elijke
Ġge weest
kel et
r itis
Ġgec or
ĠIn ter
gem edieerde
m un
ĠA B
Ġuit e
Ġvoed sel
Ġpers onen
Ġbre uk
ge zet
k al
Ġ4 5
houden de
4 1
č Ċ
Ġvoorsp ellen
I P
se c
vol gende
Ġtechn iek
ent er
4 8
ĠL ab
ru g
Ġaf g
ad ru
Ġmil t
Ġs ept
rit eria
ox ine
Ġf il
Ġe vol
Ġver antwoor
Ġpro f
i at
S t
d r
ox id
b ep
Ġd on
Ġproble em
alis eren
esc entie
Ġin it
g or
Ġvertoon t
Ġker n
i alen
du idelijk
Ġl engte
Ġk o
Ġ1 50
ĠI II
)) )
al fa
Ġgren zen
erie ure
O B
Ġsele ctie
ro ute
Ġin teg
Ġst offen
b oven
ul ar
ic us
mon sters
Ġdifferent iatie
ch ym
Ġc a
ist ente
t jes
g de
ĠC ardi
Ġm i
Ġgelijk tij
Ġvoorafg aande
it us
Ġ9 8
Ġz achte
Ġaan pak
Ġs n
om bin
ĠR es
Ġp raktijk
Ġantibiot ica
Ġdirect e
9 7
Ġindivid uele
Ġd un
Ġp art
Ġs cler
Ġgedeelt elijk
Ġbil ateraal
Ġc ogn
olog y
B rief
U S
il laire
ĠM R
Ġ(( ()
in atie
ĠAb d
ĠgeÃ¯sole erd
Ġme et
Ġchirurg ische
a gen
Ġver laag
Ġeer st
Ġact iv
Ġv or
vol en
yp en
Ġcomplex e
k ten
d ie
Ġmil de
Ġv raag
L L
ut ane
Ġresul teerde
Ġa st
lamm atoire
Ġ qu
Ġ ij
Ġs ociale
00 1
B S
ĠHist ory
n ia
it heel
a a
ĠR BC
Ġv Ã³Ã³r
ym pt
ige en
er ings
Ġper centage
Ġveroorz aakte
ĠH ct
ĠAn dere
Ġ( [
oede em
H R
o op
ken s
ĠD D
% ).
ox ische
ĠIN DICATIE
te s
Ġlet sel
ĠP A
Ã¯ de
Ġd oc
Ġc yst
agnost ic
sp er
p la
Ġ ult
Ġsle cht
Ġvol doende
Ġaort aklep
o h
N E
Ġverantwoor delijk
O P
bra ak
em d
Ġafwezig heid
Ġvloe istof
Ġep is
Ġsub c
se m
Ġz ullen
Ġinteractie s
Ġbi om
Ġgede fin
op los
ho og
ĠT I
os yn
Ġat her
Ġernst ig
cu lair
ĠT wee
Ġ3 7
ra s
er ge
4 4
op name
ro fie
o ge
) ]
Ġmy ocard
k omt
S p
0 6
V C
spie gels
re ct
Ġbeg rip
PR N
Ġlang dur
Ġan ders
Ġbeg rijpen
Ġapopt ose
S R
Ġinter ventie
de d
Ġondersteun en
Ġma x
i la
Ġp aar
Ġl og
f ot
Ġsp ont
Ġcolleg iale
Ġvan daag
Ġpresent eren
v raag
ĠD ischarge
Me dicatie
n ess
Ġinciden tie
Ġlab oratorium
Ġoorz aak
Ġd omein
f actor
u gen
Ġac et
Ġt her
ĠA r
ĠC he
Ġaanbe volen
Ġom vang
b r
or ten
Ġbij zonder
es lacht
Ġn atrium
EG EG
Ġwaar den
r ele
E CG
a ag
ĠZ ij
Ġlijk en
Ġmodel len
Ġgest art
ys ma
Ġ4 8
Ġwij ten
f requentie
sie s
ro c
Ġver nauw
Ġimplant atie
ĠV ol
ĠC AG
Ġverk al
A V
Ġbe z
P T
Ġeff iciÃ«n
di p
ĠR CA
pl ant
Ġm ass
et ting
ĠP D
kw ab
Ġonverander d
dru kken
ar b
clusie f
ĠE R
Ġlang s
Ġgen omen
E H
Ġbespre ken
Re den
Ġex tre
un g
b um
c g
vast atine
ich amelijk
Ġre f
Ġin vas
org anis
Ġw arm
Ġ ik
ĠSt atus
i od
Ġgebas eerde
actie ve
Ġafg ifte
om atische
Ġh ol
am nese
Ġdi ver
Ġvolwassen en
Ġpol s
re k
hal ve
6 5
it es
Ġben adru
de x
em a
cul ar
it s
Ġa ard
mech anis
Ġver di
c er
Ġf re
yper tensie
men s
uit gang
ĠA TP
Ġken nis
ĠR ef
Ġp as
z o
app orte
er ol
o geen
i ze
Ġmet en
S V
Ġg la
ĠC or
0 4
Ġte k
Ġnut tig
Ġvoor gesteld
HT X
C l
pl an
ver b
yt ische
ĠAd mission
weg ingen
ĠS P
: [
Ġbenader ing
Ġne urale
9 6
Ġp r
ĠB le
Ġgecontrole erd
Ġkw ab
0 3
Ġverk l
vo er
o ot
az ol
0 2
Ġst ent
ĠC X
Ġgebeur tenis
Ġ3 1
Î ²
Ġ ort
U N
Ġtoel ating
Ġn am
u be
Ġsla ap
Ġin dien
ist ische
Ġbere iken
oe p
be elden
opla sm
ro l
ĠgeÃ¯n duceerd
ĠCon t
Ġt ub
ĠT ijdens
Ġge he
Ġimpl ic
om er
Ġd oses
Ġp eptide
L V
it one
Ġantilich amen
Ġeffectie ve
Ġresult aat
Ġpop ulatie
ol on
val entie
Ġstim ulatie
Ġre p
Ġfy sieke
Ġh orm
mm ers
Ġgesla cht
ra y
ui ver
Ġbron ch
Ġassoc iatie
Ġsc ore
di eren
Ġvoor ste
m ee
D ec
o und
ri x
Ġbehandel ings
Ġintra c
t oe
8 5
Ġpre ventie
Ġbij dragen
O n
ĠO ok
Ġbijwer kingen
Ġsu p
Ġo verdracht
Ġl ijn
Ġmat ig
r al
la ge
vullen de
Ġuit dag
Ġemb ry
at a
al ering
ĠDi agnose
Ġd erde
Ġm otor
con t
ot ide
Ġl os
Ġsyst em
ild klier
Q UE
Ġf oet
u deren
ĠC omp
g aande
ch emische
Ġdicht heid
om bine
Ġbeper kte
ac iteit
reat inine
geb onden
Ġcere b
O L
id iteit
en c
4 7
ul eren
Ġkan s
Ġ2 9
b loed
Ġonder gaan
n iet
um mer
Ġv accin
Ġneuro log
ĠL in
ab iliteit
ĠLV EF
aat ste
ic i
Ġgeh ele
Ġhoog achting
( (
Ġ0 5
ub lic
Ġang st
ation ele
0 7
Ġkle p
f ase
Ġan eur
Ġoptre den
M R
ĠG ro
ff er
Ġbet a
car cinoom
ĠN E
Ġgroot ste
ak ken
Ġm ig
Ġm aal
Ġbeh oe
ĠC P
Ġademhal ings
Ġkla sse
Ġ _
Ġsec ret
ept iden
Ġprot ocol
Ġgevoel ig
Ġk rit
Ġdil at
Ġmin imale
p unt
Ġdi ast
Ġle dem
Ġmedic ijnen
raz ol
ar k
emb ran
Ġventr iculaire
Ġbe han
Ġb Ã¨ta
st aan
Ġvoorafg aand
Ġwer king
C K
ĠT e
Ġster ke
Ġgemeen schappelijke
vl ies
f il
Ġv oel
i i
Ġthorac ale
th et
u lair
Ġve zel
Ġm omenteel
se quentie
Ġor ale
Ġter mijn
Ġrel atieve
sten ose
Ġafwijk ing
ail y
ĠM CV
Ġmetab ole
Ġst ij
P I
Ġang i
Ġcol on
Ġges elect
Ġsch aal
ĠR E
R R
vol gen
v ice
r alis
Ġpers oon
Ġasp ir
4 3
Ġgeb racht
4 6
NI QUE
ac k
r isch
Ġsc reening
le erde
Ġk osten
Ġeen voudige
ab el
C S
Ġo ut
Ġ ;
Ġafgele id
Ġlo op
Ġde fect
Ġover w
Dec ursus
Ġd omin
Ġaf spraak
d arm
as c
ĠM g
os om
C M
L ichamelijk
Ġreg ulatie
Ġpat roon
ĠG I
r d
ĠC o
Ġexperim enten
Ġe c
ĠD M
Ġged aan
Ġtoe voe
Ġd ier
Ġbacter iÃ«n
Ġbest uderen
Ġverzam eld
ĠD LP
Ġon ver
ĠAll ergieÃ«n
ĠS ub
ĠP E
ble men
t atie
cu b
Ġvrouw elijke
ation s
Ġontwikkel de
ĠH art
st it
s ver
k n
Ġpro ximale
Ġvor ige
om inale
Ġnatuur lijke
Ġonop vallend
vent ionele
Ġf ysiologische
Ġimp act
Ġob serv
Ġwerk zaamheid
Ġcontrol eren
Ġ- -
Ġtra um
n oe
Ġepis ode
b orst
Ġvis uele
em ende
ol aire
or deren
Ġcon sult
pro te
comp lic
Ġvoed ing
Ġdiagnost ische
O H
4 2
b uis
t elijke
Ġcyt ok
Ġtranscri pt
ĠA T
Ġv eld
cedu res
4 9
ge z
ER K
ie p
Ġont slag
Ġc erv
J a
ĠMCH C
C L
ĠT er
ĠTot al
Ġse quentie
a ve
omy opathie
ĠA ssessment
Ġmet ingen
Ġather oscler
' -
lo op
er te
id ief
Ġcoron aire
Ġge gener
ul l
Ġd os
Ġk ant
Ġv inden
Ġver gro
tens iteit
Ġseg ment
eff ect
Ġpro duct
Ġantilich aam
i ologie
Ġgedilat eerd
pro ducten
Ġover zicht
w issel
ĠA R
Ġ12 0
Ġ9 7
Ġabn ormale
Ġpresent atie
Ġox id
st atus
se ud
Ġpre sen
Ġre view
Ġp alp
Ġma and
ie ten
anc er
or ter
Ġarter iÃ«le
Ġgepro duceerd
dig t
ĠH em
Ġelk aar
Ġven euze
Ġuite in
Ġpro staat
Ġgedi agnostic
Ġbev orderen
Ġhel der
5 7
l oor
Ġdun ne
Ġ9 9
Ġp ap
et ra
Ġd oen
t herapie
ĠC alcium
H ospital
Ġe v
am ide
Ġan at
ul ine
Ġatrium fibrilleren
ĠM ED
Ġmy el
positie ve
Ġpost operatieve
Ġgl ut
N T
ĠAb s
Ġrapport eren
f al
Ġv ent
Ġver onder
D S
Ġw ond
Ġs lot
sie ve
he em
Ġpro liferatie
Ġgek wee
elect ase
zet ting
ol ine
5 6
Ġgec ombine
ul mon
stud ies
7 3
Ġte sten
ar yn
Ġbe houden
Ġonder liggende
Ġbacter iÃ«le
ente gen
ud ing
CH NIQUE
met ab
ast in
ĠP lt
Ġg ist
Ġmin ste
ill s
GF R
m al
Ġna ast
ĠM o
Ġper c
Ġt ij
Ġterug k
u us
Ġaut o
Ġwel ke
Ġper fusie
is en
Ġgele den
eer bare
ĠV eren
Ġc lu
groot te
g an
cu ul
Ġger apporte
Ġzo ut
Pro cedure
Ġde generatieve
Ġrisic ofactoren
Ġon afhankelijk
Ġgra ad
Ġzeld zame
Ġb inden
Ġbetrokken heid
osc opie
ĠA ct
Ġd en
ĠE F
Ġe ind
Ġoplos sing
Ġpath ologische
ĠIC U
A b
Ġbloed ing
id uen
d l
Ġm er
v ir
ĠC ABG
ograf isch
kin ase
Ġblijk t
g ren
ĠIN R
Ġpre valentie
3 9
Ġactie f
Ġpulmon ale
% ),
p op
gram ma
8 8
Ġver len
Ġne f
Ġtoen emende
Ġstam men
Ġsyst emische
Ġvoor ge
om ycine
Ġbas ale
Ġsecund aire
H A
b ri
Ġvol gen
Ġinter val
ab y
Ġgast heer
Ġon middel
oor deling
Ġlangdur ige
T U
SI ON
Ġeen heden
ia ire
Ġ3 2
plaat jes
emen ten
ĠM eer
Ġeen maal
Ġn ieren
ĠP re
or ylering
u ig
Ġgeschik t
be d
fect eerde
0 8
du ur
o id
Ġex c
Ġst art
Ġk rijgen
Ġmater iaal
Ġh an
( +)
Ġhart slag
Ġomge ving
Ġnucle aire
pl ic
Ġrec ombin
st im
âĢ Ļ
hy per
j u
th etische
Ġk ind
Ġontw orpen
0 9
vorm ige
Ġcomp onenten
Ġaanzien lijke
le iding
Ġresul teert
Ġt and
Ġcogn itieve
m otor
tra st
p ret
Ġtest s
Ġd op
structie s
sch er
te d
Ġrele vante
Ġcontinu e
Ġsyn these
Ġinf il
ĠF indings
wer p
in iteit
in ing
model len
ent ale
Ġdeel nemers
e iden
moe der
Ġin b
oler antie
Ġgesch at
k eerd
Ġer g
orta dem
Ġmil ie
Ġs eks
ĠM ult
Ġkw aad
Ġbehandel de
oor te
en en
ĠI MP
ur ie
Ġoppervla k
ĠR eg
il de
y an
Ġess entie
Ġpro b
ron tale
Ġtran sm
ge luiden
Ġborst kanker
ct omie
Ġw eg
Ġv aste
ee s
Ġonderz oe
Ġmogelijk heid
ĠF unction
Ġbij dra
vang ing
tex t
n eg
Ġbehan delen
Ġuitgebre id
Ġs luit
ag de
and om
ĠC ar
B I
Ġs il
vo cht
Ġaan houdende
u e
tro ffen
Ġchem otherapie
Ġwereld wij
recept oren
ins uff
Ġc lass
amin ering
act ivering
ch rom
tran splantatie
ak elijk
ogene se
il isatie
Ġrem men
on ucle
Ġkun t
ĠVers lag
- (
ĠO R
A CT
di d
Ġou der
ag eren
Ġsch ade
eiwit ten
lij m
Ġp iek
lu x
ra c
ĠPh ys
ĠT h
Ġsch ildklier
it ro
Ġaanbe vel
ĠVer der
Ġmech anische
l i
Î ±
C or
yc lo
Ġep itheel
Ġpro p
g ingen
ho ofd
Ġla ct
Ġtegen stelling
Ġre den
ĠN AD
Ġge co
Ġpro duceren
Ġge f
Ġbe weging
Ġgast ro
gel aten
Ġk rist
le erd
Ġondersteun ing
6 7
or ing
opla sma
Ġpneum onie
ph a
ant ilich
Ġdeel tjes
ro oi
ag ing
Ġg un
Ġcol i
Ġinter n
re gelen
et rie
u la
De ze
Ġer var
Ġtoepass ingen
Ġrecht se
ĠDisp osition
act ive
Ġin ductie
s l
le keur
ol en
ct en
Ġa de
le en
Ġ3 8
ie zen
ol ip
Ġopt im
Ġbe vol
H art
ĠW ij
Ġhoe st
l l
Ġontste kings
Ġintra cellulaire
Ġb er
Ġvervolg consult
ĠRef ills
ĠA o
Ġble ken
ym met
Ġo l
y lo
ou der
Ġan al
ĠN ame
Ġij zer
Ġidentific atie
Ġtechn ieken
Ġf rag
u al
b ron
Ġverwijder ing
ak te
ĠP resent
Ġger inge
aly tische
R ES
Ġin clusief
om at
d s
Ġou dere
Ġmil d
dra g
verander ingen
ĠT R
lij st
Ġrec ent
Ġmon ster
wer ken
n er
Ġvol gt
Ġlig gen
Ġcom mun
le ar
Ġmut aties
Ġvernauw ing
Ġvertegenwoor digen
Ġvir ale
Ġruim te
Ġt ele
A f
B ij
Ġgem akkelijk
IN DICATIE
Ġtoe gang
le ver
di cht
ĠM S
Ġverander d
ĠS ch
rele erd
oglob ine
ood s
Ġc yste
ĠV S
Ġv s
afwijk ingen
sche id
geb aseerde
t it
] -
Ġt op
Ġw itte
Ġg ran
Ġovereen stemming
G E
Ġmult ip
Ġaneur ysma
ĠW anneer
I F
h a
komst ig
han ol
Ġv le
H S
G T
Ġgecor releerd
ect or
ter ne
ar ch
Ġf amil
Ġb rengen
A F
qu enc
Ġm ic
Ġhoog te
Ġcons ol
resp on
r ing
cum ulatie
Ġn ot
Ġk opp
imm un
8 7
Ġre ct
ĠN O
b ul
Ġweer spie
Ġin dic
Ã¶ rd
Ġter men
Ġon danks
Ġcon ventionele
Ġstab iliteit
ro ss
m od
Ġk ortadem
Ġdagelijk se
ut ion
st oornis
sc an
mer ik
Ġen ig
bet a
ol utie
am m
operatie f
Ġaan van
ĠH er
D H
Ġvoor keur
Over ige
Ġgek opp
or ische
Ġg af
Ġb ol
Ġvari atie
Ġmel an
t t
in st
Ġf low
ell itus
or es
Ġop mer
ce fal
o it
Ġgediagnostic eerd
et h
de f
nt gen
Ġgele id
syn droom
m assa
Ġ5 5
Ġdie p
ĠE chter
## #
ĠDaar na
el la
gen eratie
rijk e
den s
k ent
Ġa cht
M B
ic s
b ruik
] ]
yst eem
duc eert
ĠT F
yp es
ĠC I
gem akkelijk
Ġk amer
Ġge vorm
r and
Ġbloed plaatjes
ul i
sul f
ĠV T
Ġvoor delen
Ġgeneesm iddel
ik stof
ip p
P V
Ġdi ameter
Ġver gemakkelijk
eer baar
Ġp unt
ide mie
activ eerde
Ġm ag
C o
Ġon langs
heid s
Ġ6 5
pp ort
Ġmo b
Ġab latie
Ġat electase
Ġenz ymen
Ġloc atie
Ġoorspron g
ste st
Ġj onge
Ġv onden
O p
Ġveronder st
Ġang io
Ġan alys
ĠCT A
Ġlip ide
Ġpro cent
ze p
C h
der land
a dem
ob acter
mm un
c yt
M G
Ġt re
ma x
Ġn ab
ge assoc
ch ar
Ġne us
AS T
ĠH aar
Ġan n
ator y
Ġbev indt
Ġonder scheiden
houd ing
Ġl umb
Ġc re
Ġch olesterol
Ġst oornissen
ces s
ok ken
g reg
k racht
v ies
II I
ĠAt ten
Ġplaat sen
k no
re mp
ĠCom ment
ific iteit
Ġappar aat
ĠZ ijn
l im
pl er
ĠE er
oplos sing
Ġuitge sloten
op ril
cycl us
D it
Ġsele ctieve
Ġkla s
handel ing
Ġo ct
Ġc c
Ġbehandel ingen
Ġendot heel
Ġsubst raat
Ex aminering
Ġb ro
Ġk onden
Ġstadi um
Ġ ul
Ġz acht
w ikkel
9 1
/ /
Ġbenader ingen
ion s
Ġe vent
Ġbloot gesteld
Ġp lat
m ogen
ĠPro te
Ġdim en
9 4
oem de
Ġcon form
Ġslot te
Ġ3 3
ne u
re pen
Ġg ang
Ġhals slagader
Ġelekt ronen
Ġover gang
fot o
9 2
Ġzo uden
Ġovereen komst
Ġver dragen
L AR
Ġna cht
Ġonbe kend
Ġonge wijzigd
Ġs in
Ġfib ro
Ġademhal ing
Ġr en
st offen
bin dende
j aar
U C
Ġo ud
Ġessentie el
Ġverwij st
iss elijk
Ġv at
Ġin s
agon ist
Ġhum ane
eek pro
Ġgebruik ten
Ġsecund air
b iÃ«le
ĠE l
Ġsym met
Ġregul eren
in k
d omein
ĠE T
o ofd
Ġontde kten
Ġprogn ose
Ġdrain age
Ġr ib
Ã¶ ntgen
ĠHg b
Ġgen expressie
ge ving
loc atie
Ġrec idief
Ġwil lekeur
ĠOnder zoek
om eg
Ġvergelijk en
N O
Ġcon f
ĠR adi
Ġintraven euze
Ġiden t
Ġinfectie s
B ody
o te
Ġb aar
s h
Ġw v
ol l
di mens
Ġkin der
v ingen
schillen de
ter ing
if orm
Ġcar b
N aam
Ġuit er
Ġaf braak
Ġpar as
Ġgezondheids zorg
d nis
h als
ati ve
ch lor
Ġlymf aden
ĠNe derland
mm Hg
b ouw
Ġledem aten
Ġa ute
8 6
Ġre kening
M T
lut ter
is ering
Ġ( -
ect omie
ĠM ilde
bere ik
Ġde m
ct or
Ġanalyse s
Ġuit vo
Ġs per
ĠK le
stel sel
ĠO r
Ġn eemt
y tro
Ġkwant itatieve
ann ings
9 3
ĠB loed
bum ine
ken ingen
at tern
vrij e
al a
Ġwer ken
Ġhoeveel heden
ĠT E
Ġopt imale
Ġaan vullende
oe st
b u
ant i
Ġgep aard
Ġex terne
ĠU rine
Ġo c
Ġbev order
age ment
ar isatie
Ġtach ycardie
Ġge volgen
ĠS erv
ĠC apsule
ar is
zij de
Ġamino zuur
a ut
ol ling
he p
Ġgroe if
Ġgereg ist
Ġh en
Ġline aire
Ġmacro fa
Ġcerv icale
Ġtransp ort
y g
Ġgehe ugen
m el
o z
Ġcor tex
Ġech ocardi
lo st
al ie
vent ies
ĠG er
art sen
ĠH el
Ġvit amine
uur d
Ġk ader
Ġgen e
> ,
Ġcyt ot
Ġ0 2
Ġ2 50
ac char
Ġm uc
ip atie
Ġm ot
Ġintrac ran
Ġpla ce
Ġop er
uw en
est ion
Ġp e
nn nn
Ġmitochond riale
Ġl and
oppervla k
Ġleeftijd s
Ã¯ nen
Ġmole culen
S E
oc a
omet rische
rij ven
pl icatie
N D
spectie f
Ġkn ie
Ġhoog ste
Ġverd w
Ã«n t
Ġdec ursus
er ase
F T
ĠI k
s nelheid
ur atie
Ġ9 6
Ġbaar moeder
A A
ĠPhys ical
Ġgen oom
Ġp o
Ġ# ,
Ġze ven
c ardi
Ġm ort
ĠO P
Ġblo kk
ĠR X
dru kking
f actoren
Ġmit ralis
test inale
f ractie
Ġm uis
Ġde s
Ġverander de
Ġres on
Ġrecept oren
Ġbe ste
sel s
YYYY YYYY
Ġhypot hese
Ġs ite
uur t
ou ff
uiv ing
Ġverander en
m is
ĠÂ ±
Ġb ero
Ġrug gen
Ġmal ign
Ġ *
ge dragen
5 8
plaats ing
Ġversch eiden
Ġkru is
Ġcon text
Ġgeb rek
Ġdaar op
pass ing
al ol
Ġg ing
Ġher ken
b asis
Ġdilat atie
sm et
d heid
syn these
ĠG eslacht
Ġtoe gelaten
Ġextra cellulaire
Ġveil igheid
Ġdifferent iÃ«le
7 6
Ġaff initeit
B D
m aat
Ġs at
ar ten
Ġgedefin ieerd
richt ing
O C
hal ing
Ġb aby
Ġo gen
se g
ĠCX R
Ġbet ere
Ġsch at
str ateg
stud ie
Ġwil d
del ingen
Ġan amnese
ver slag
g rond
car b
Ġricht ing
Ġontste king
ĠH E
ĠDaar entegen
H H
geb ieden
ĠC are
ar kers
res ultaten
Ġf lex
Ġon duidelijk
ĠIn vas
t ingen
Ġdi ar
sch ik
Ġvoor lop
een heid
aren chym
Ġverz w
Ġt oxiciteit
be weging
L aatste
embran en
h m
v le
Ġg aven
Ġontwikkel ings
Ġ100 0
Ġo est
as es
l ymf
bel oven
Ġcomp onent
Ġo lig
Ġs ouff
Ġbi opsie
syst emen
eld ing
n emen
A t
ventr ikel
all el
oods oorz
ĠC l
sem ide
Ġoxid atieve
ĠQu estion
F A
v oed
Ġhet zelfde
b lok
r ik
Ġmagn etische
Ġcon cept
im er
osc opische
Ġdetect eren
Ġs em
V oor
ĠCon clusie
ERK LAR
bep er
M C
Ġaf stand
ĠN T
oprote Ã¯ne
Ġveel beloven
c ap
Ġtoe genomen
ĠUR INE
Ġchromos oom
m i
Ġre age
wee k
P H
Ġzo og
ab il
astin um
Ġverk rijgen
Ġvoor gestelde
fer ase
Ġrele v
ĠVer volgens
Ġn g
ich aam
7 7
sp anning
Ġlymfaden opathie
lu cht
Ġgebeurtenis sen
B L
Ġlever en
la es
y ros
Ġvoorge schreven
ĠGe zien
Ġ arm
Ġtoekomst ige
Ġont staan
Ġherh aalde
Ġuit bre
ation al
Ġc al
Ġma ximaal
ust zijn
Ġbet e
oc oc
RES SION
ĠF e
Ġwij st
D A
Ġcomp uter
os a
ĠS C
ĠMED IC
Ġfem orale
Ġvar iÃ«ren
Ġs ol
Ġver deling
Ġl open
Ġtoevoe ging
is ol
ac ine
Ġp rin
oc ar
em m
Ġs ep
ĠR ele
Ġs oft
ru cht
hydro xy
Ġbeper kingen
Ġbe halve
r ingen
Ġgevorm d
Ġnoodz akelijk
D M
Ġont slagen
hy ro
ur ing
ĠAtten ding
ĠUn it
du le
reg ulatie
Ġvoor uitgang
Ġvo et
Ġan der
b s
ING EN
Ġmilie u
Ġbeen merg
Ġm isselijk
Ġaange eft
struct uren
ĠI ll
Ġaf zonder
p o
Ġsch imm
hep atische
Ġz eg
ed ieerd
Ġge houden
um er
ĠM a
** )
Ġverk la
V ID
ap tische
L ab
Ġontw erp
Ġpop ulaties
ĠPC R
Ġsc an
Ġz orgen
itor ing
Ġgemeen schap
den d
ĠServ ice
OS E
Ġop tische
ib er
ge geven
Ġcort icale
Ġst eekpro
Ġmort aliteit
ĠN F
Ġn r
oten sie
Ġg luc
it ten
Ġant igeen
E A
ĠOm dat
N e
Ġhyp ox
v indingen
Ġneur onale
Ġd aalde
B T
Ġaan vallen
Ġs ig
ĠC AD
as ale
ijd s
8 4
Ġst oel
Ġvan uit
es it
Ġvol to
Ġasp ecten
s ol
h r
Ġp h
Ġleid de
Ġprog ram
TU UR
Ġkno bb
Ġade qu
oodsoorz aak
s il
D a
ang i
Ġmat rix
Ġruim telijke
reg ul
Ġverwij deren
5 4
c ursus
ĠN ormaal
ĠD op
m ale
Ġst ikstof
metho den
neg atieve
ĠA sp
ĠA S
Ġ3 4
Ġ8 1
pl et
Ġob structie
Ġsom s
ment atie
ut ine
ĠD rie
Ġgebruik te
Ġbere kend
ĠS ex
ĠPol iklin
Ġl ate
Ġmicro M
Ġpro min
Ġneurolog ische
j un
h ort
Ġb ar
Ġdysp noe
test s
ag t
8 9
Ġr ij
i ol
j or
Ġax iale
Ġhyper tro
Ġcar cinoom
Ġvoor bere
Ġgener eren
Ġdubb ele
la m
Ġcon cluderen
n ier
Ġsch ijn
ĠI m
Ġreg ressie
ĠP L
Ġpre c
in al
ĠIMP RESSION
odi um
tel lect
deelt jes
Ġmedic ijn
Ġstrateg ieÃ«n
Ġgenee s
H D
Ġonderzoek s
Ġa v
Ġe inde
iver s
Ġr at
Ġgeregist reerd
Ġnauwkeur igheid
ific eerd
at ografie
Ġs kelet
op y
ĠG lucose
inter actie
Ġpoliklin iek
Ġc ross
ag it
AR T
Ġcruc iaal
Ġin dicatie
Ġ- (
5 2
k opp
7 8
N iet
5 1
Ġger emd
Ġge men
Ġs lok
Ġbeschik bare
Ġe mot
Ġkan aal
ĠP ost
ĠM ed
Ġlymf ek
ie el
kun digen
Ġp ort
Ġin tro
ri Ã¨
Ġverst re
esit as
ole sc
Ġde tail
e ase
z oeken
Ġonder ging
ĠF ol
os omen
ver len
Ġpath ologie
ge drag
Ġc ur
ol ol
Ġ %,
Ġ \
Ġmut atie
Ġnet werk
6 8
s oorten
ĠC r
ĠGe schiedenis
PC R
Ġz u
? :
Ġfosf at
Ġn ec
p oten
ĠOn t
Ġm s
Ġpro ducten
Ġanalys eren
al th
Ġbre uken
t ia
Ġl ys
Ġg as
k et
ĠÎ ¼
uden ten
re ep
M V
Ġof wel
Ġhoofd pijn
b and
Ġmicro g
a zep
Ġische mische
omst andigheden
micro scopie
Ġtwee maal
Ġnauwkeur ig
ro t
gele ide
Ġun ieke
) (
Ġch ron
Ġgelijktij dige
Ġcardio vasculaire
on air
M ER
Ġtoege voe
Ġvaat ziekten
ic ine
deel s
m uizen
Ġlumb ale
6 4
Ġrem mende
Ġmet oprolol
E V
Ġn amen
Ġfluor escentie
ker e
Ġmens elijk
Ġprogressie ve
Ġt al
UL TUUR
geassoc ieerde
Ġges yn
gevoel igheid
ĠP ar
Ġster fte
z ie
Ġverscheiden heid
f or
t ot
Ġinf lammatoire
wikkel ing
Ġher zien
Ġbo dem
Ġdynam ische
Ġgereg uleerd
Ġmet hyl
par atie
Ġ( **
7 2
Ġm cg
in er
Ġaanvan kelijk
oel ichting
eg rip
ĠC ond
gro ei
tran sp
ĠH ep
Ġvloe ib
d itie
Ġprote Ã¯ne
Ġin dex
Ġaan geboren
H C
ĠIg G
Ġon vol
ĠQ RS
Ġmedi astinum
Ġgezicht s
Ġ4 00
op e
Ġz ie
oem d
Ġkool stof
Ġspec ificiteit
Ġverb inding
gen ase
ill ine
Ġk rans
H ypertensie
Ġdubb el
Ġre con
ĠI F
Ġcardi oloog
Ġverlaag d
Ġvoor dat
Ġgeb oorte
ĠCon trole
Ġ ide
ĠÎ ²
D R
of en
Ġmotor ische
Ġb uurt
Ġ3 00
b Ã¨ta
Ġe ier
gez ondheid
Ġover wegen
ole y
Ġg olf
lo x
ro scopie
Ġp en
ĠgeÃ¯sole erde
do eld
spro ces
Ġnier functie
M E
Ġverhoog t
b reng
Ġuitein delijk
Ġe mp
inde x
Ġant ist
Ġorg an
dimens ionale
fosf aat
Ġminim aal
ien de
Ġelekt rische
ed s
Ġter min
ist ratie
uro semide
ĠCO PD
f amilie
ĠA ange
n aire
um enten
et ica
NA L
on ische
Ġr un
ot rop
Ġhe cht
Ġsamen stelling
ien e
8 3
ot alol
5 9
Ġsucces volle
Ġsp re
Ġgekopp eld
Ġact iver
ĠIll ness
Ġro utine
Ġp an
Ġin str
ken is
ĠpatiÃ«n te
Ġnan o
Ġwerk groep
or rel
Ġoverw ogen
Ġspont ane
ipp oc
Ġp eptiden
Ġop een
t horax
Ġs oc
ĠVer schillende
ĠP atient
ĠPT T
Ġo ef
Ġer v
D aily
it ude
Ġmar kers
on tre
Ġbere id
orb iditeit
sche iding
ct er
Ġorg anische
Ġm M
le uk
ĠS amen
gen d
ul us
R D
Ġj e
f ib
Ġgegener eerd
c ement
Ġasp ect
ocardi ocardi
active erd
sch at
ĠAL T
Ġuit sluit
Ġslok darm
la k
re um
hal am
dicht heid
ar de
Ġaf komstig
Ġv aker
Ġstatist isch
met ingen
Ġro ken
weg ings
Ġreg ionale
in der
Ġl eren
Ġver la
Ġr Ã¶ntgen
Ġmicro gram
ac c
Ġgem edieerd
Ġd ood
ĠB orst
ten deels
Ġsign alen
Ġno ch
Ġd ors
Ġkwant ific
Ġaute urs
in n
ĠRele ase
Ġw onden
isic o
vers iteit
all y
ĠP G
k atheter
Ġlig t
Ġe in
remp el
A c
ippoc amp
Ġdui zel
vol ume
Ġverho uding
r iet
N UM
lan k
ĠK linische
Ġver vangen
la p
Ġm elden
Ġpost erior
Ġchirurg ie
Ġbehoe fte
ĠP atiÃ«nten
Ġbe doeld
Ġvoor komt
Ġverminder t
Ġf er
ĠV raag
z ende
ĠC C
E cho
lu lair
Ġp y
Ġc riteria
im uleerde
Ġh ome
eff usie
Ġvo eren
Ġversch ijn
Ġbetre ft
Ġl at
oh ist
Ġconsol idatie
Ġal tijd
ro geen
ch ocardi
Ġres istentie
Ġmo di
gem iddel
ĠC ardiale
m id
Ġkracht ige
r ift
h and
Ġbete kenis
7 4
8 1
ru im
Ġle ad
Ġac cumulatie
Ġbeschrij ft
l ingen
Ġte am
Ġprogram ma
wer kt
Ġstimul i
AD S
Ġl id
r ig
be st
Ġroute s
Ġk omst
Y P
Ġvent il
i an
v aardig
Ġv ag
Ġbero erte
Ġhum aan
Ġdaarop volgende
Ġverw acht
ĠOn danks
dition ele
Ġ14 0
u pp
di lat
ac ing
odynam ische
Ġgedilat eerde
e us
T oelichting
el ine
Ġgep ublic
Ġmet ing
o ide
Ġdi ent
ak ing
Ġh onden
Ġrel aties
ist er
6 6
Ġf rontale
s z
Ġst re
if est
pro cedure
og ingen
Ġ/ /
Ġsche del
Ġc alc
Ġgeb onden
Ġa sse
itone ale
ĠP ert
her sen
Ġer op
ĠP V
Ġdaar na
Ġpat ronen
v rouw
Ġhorm oon
r at
h op
Ġuit ste
Ġpro cedures
ole c
a orta
Ġ7 2
is u
Ġ ir
Ġabd ominale
iv a
ule ert
Ġgro tendeels
Ġres olutie
f ort
ap par
Ġcontrole groep
Ġgemiddel d
sel en
ater iaal
NUM MER
Ġz iek
clu deerd
Ġmi R
U T
se d
me dic
splant aat
Ġp seud
Ġm ellitus
Ġbevol king
Ġkortadem igheid
analyse s
Ġleuk emie
Ġop ac
er ingen
Ġt el
Ġge lok
le kt
ol yse
Ġstop pen
et iek
Ġver groot
g amma
Ġradi o
e kt
R T
Ġt rop
Ġkwaad aardige
n ee
ĠH CT
Ġt ren
ĠN C
Ġmole cuul
ysi ologie
Ġin name
Ġpla st
Ġp acemaker
. |
Ġtele f
Ġf ractie
Ġinb egrip
it ies
I A
Ġw ie
Ġbegon nen
IC U
ĠT H
ĠB S
Ġ0 1
C a
el ingen
Ġont vangen
Ġonder deel
rib utie
I G
Ġverspre iding
d ron
icus p
metab olisme
w onden
Ġinter pret
de s
p unten
Ġmet aal
sch ade
R V
ĠDaarna ast
Ġb ru
ann ingen
8 2
Ġbe gele
Ġv ele
ĠDop pler
Ġr h
6 2
ĠBle ood
Ġkin ase
or iÃ«n
Ġorg aan
Ġmorf ologie
Ġ1 30
Ġon c
pol ym
ĠPert in
adig ing
P attern
gen oemde
Ġd aling
Ġf ract
t on
Ġ### ;
Ġeffect iviteit
bel asting
č č
waar schijnlijk
Ġaf deling
Ġet iologie
Ġe m
st ige
Ġr ichten
ok in
V AL
Ġinter medi
Ġbep aling
s ingen
Ġbij voorbeeld
mechanis me
Ġde comp
Ġfen ot
Ġgesyn thet
Ġult ra
Ġart sen
uc ces
7 9
Ġreson antie
len gte
Ġlig and
rem mer
sch aal
u gger
Ġonthul den
S inus
Ġf und
Ġt horax
yros ine
Ġge deel
Ġfoc us
Ġse quenties
t ratie
ou ten
Ġd ig
Ġgen oemd
Ġs l
Ġher nia
st anden
val idatie
Ġdis functie
ab etische
Ġsp lit
ff iciÃ«n
bla as
Ġextre m
Ġzw elling
b last
om atisch
odi fic
Ġpresen teert
ĠH S
Ġ4 2
Ġs lijm
Ġgedeelt elijke
Ġp lant
ing le
os ide
x e
ocyt ose
Ġion en
ĠQ T
p an
re den
ĠP S
Ġresp on
ĠM ild
c a
Ġc av
ĠG oede
ch irurg
Ġuit gang
o verdracht
Ġgran ul
Ġre ductie
Ġf ys
Ġcomplex en
re mmers
Â °
Ġkw am
Ġinter venties
Ġstrateg ie
Ġcort ic
ĠI s
ab iele
Ġverkl aren
ol isch
ĠPro duct
ge h
Ġmet h
ation ale
E CT
yla se
ĠH CO
ĠIn f
ĠAl ert
reactie s
ohist och
ol in
lip idemie
b ar
6 3
Ġpolym orf
Ġeier st
b al
sper centage
Ġb ent
ĠCO VID
Ġer ytro
Ġaltern atieve
Ġhulp middel
Ġmetab olisme
ĠT NF
x tra
Ġs elect
ĠS e
Ġgele iding
pl and
6 9
Ġpol i
ĠI D
z em
Ġt oler
Ġzenuw stelsel
Ġsteekpro ef
Ġh ippocamp
Ġrem de
Ġnoodz aak
ie ven
Ġgra di
G S
Ġdoc ument
ell er
perim enten
ie m
Ġen ter
ĠD oodsoorzaak
Â ±
ver wij
st ellen
ĠP IC
Ġhyp otensie
se quenties
Ġcult uur
Ġou ders
Ġcolla geen
Ġtran splantatie
ir g
ĠC AR
Ġhal f
ĠRDW SD
Ġg amma
Ġont bre
Ġver do
ont wikkeling
Ġevol utie
Ġla s
AB S
a chten
Ġdiar ree
Ġfe it
ver houding
Y S
Ġl um
oster on
ĠA g
hydro x
Ġgev isu
am ent
os oom
st aande
spectie ve
Ġaanbevel ingen
Ġad olesc
Ġth is
Ġmater ialen
gevoel ige
ap t
i aties
ĠC ol
al ine
Ġro de
Ġin zicht
Ġp lot
ster kte
c y
i O
N a
Ġge wijzigd
- -
yp t
och te
Ġpatho genese
mer ken
B V
ĠE uro
lo od
Ġgest opt
Ġwij zig
om ografie
l ering
Ġrapp orte
Ġ Ã
ĠAange zien
le ven
Ġbetrouw baarheid
Ġbeve st
Ġev iden
Ġre al
L R
it amine
Ġo sse
Ġlip iden
ĠD P
Ġbeg innen
ri chten
ver en
int ig
la ct
ĠL A
ne ur
Ġmedi um
mb lage
ut um
Ġall el
' d
Ġver leden
ĠC A
Ġlang er
Ġperic ardiale
ĠB i
Ġeen heid
Ġast ma
iv aten
ĠRe den
Ġer yt
h en
Ġcode ert
AM P
olie ten
ĠM V
Ġorg anen
ĠS inds
Ġbe sl
z ijds
7 1
c om
tre k
ĠD VT
Ġlymf ocyten
fie len
Ġricht lijnen
an yl
ĠD if
Ġst udenten
Ġan est
Ġvertegenwoor digt
Ġkrist al
ĠD R
ĠB el
respon sen
Ġcolleg a
asp ect
r is
on aat
Ġf usie
an ine
ĠKle ine
Ã« fficiÃ«n
ch i
ĠHT X
ir ale
ĠS om
ad r
Ġg lob
Ġ4 1
ĠD el
ĠT TE
Ġsp ieren
st ellingen
Ġisol aten
Ġv oe
ĠN ee
ne a
ĠG R
ĠBe ide
Ġdoel en
qu ente
e den
Ġdien en
Ġges ugger
Ġregel matig
ig de
C ardi
Ġbloe den
N S
Ġc l
Ġon afhankelijke
ve zel
opp ingen
h eren
vorm en
Ġmacrofa gen
Ġst ro
Ġsch a
w are
Ġgem et
Ġb pm
Ġb al
Ġverbet ert
Ġervar ing
Ġloc aties
Ġvar ie
tran scri
ĠInvas ive
br id
k eerde
Ġgesugger eerd
ĠE X
ste un
TE LE
ĠM y
em p
pro gramma
Ġhepat itis
Ġfot o
of ag
Ġd rin
Ġ1 10
b as
Ġimp lement
ĠFol low
Ġz waar
ĠAbd omen
ĠMa jor
ol ytische
pl itude
ge vallen
vloe istof
cult uren
du st
Ġgeschik te
ven en
G R
Ġh igh
Ġop eratieve
or den
ar te
Ġalle maal
t ast
Ġs m
ĠM ole
ont ste
Ġn it
Ġonder gingen
FO ON
ĠÎ ±
in vas
ĠCT DI
ĠH F
Ġmen ing
ak e
Ġbe houd
Ġman ifest
oca Ã¯ne
Ġwater stof
t ocol
Ġger andom
Ġover gebracht
Ġg o
Ġg u
Ã¯ d
Ġtromb ose
Ġinter fer
ĠCh irg
il ar
Ġpsych iat
ir ine
Ġuitdag ing
FOON NUMMER
TELE FOONNUMMER
ĠK lin
ro ep
ĠNederland se
Ġc ardiologie
ac il
Ġgek regen
Ġgroeif actor
Ġvar kens
ĠA ST
Ġkan did
Ġob esitas
Ġhep arine
p ort
et hyl
ab d
ri ene
Ġe ct
hy leen
Ġover leg
G A
ĠC ULTUUR
os yl
or ph
Ġv ader
Ġv ing
ith el
Ġaf genomen
STE LL
Ġlucht weg
Ġsuper ie
ion en
l ijf
ic um
g ressie
Ġver deeld
ent iÃ«le
Ġo var
n ummer
Ġtraum a
ri ge
der heid
ig ne
ure el
Ġsh ock
een heden
Ġweer stand
sc opische
ol oge
bij voorbeeld
Ġc an
pat roon
nst ige
Ġant ic
hor ende
STELL ING
V ERKLAR
Ġdo wn
M RI
schapp elijk
ĠH ENT
Ġa der
Ġhoog st
Ġmen g
ĠC L
p ress
ĠS oc
Ġkarakter iseren
n et
o ire
kw aliteit
ĠUit slag
ĠPh os
of il
Ġcar cin
Ġger ichte
let sel
Ġdik ke
ĠH D
Ġ @
ĠC reat
Ġdiff uus
hol te
voed ing
Ġ8 5
ĠCTDI vol
Ġr ight
er cul
cluderen d
p ul
ĠN S
Ġdiast olische
m ate
me dicatie
Ġbevest igen
ĠZo wel
Ġl anden
Ġbra ken
Ġz on
Ġcolla ps
Ġno oit
ben ader
Ġrest erende
Ġf rom
ific aties
ĠIV F
ver w
yp isch
Ġimplic aties
ĠSt ud
ĠP I
Ġj ong
Ġh ard
Ġhyp o
ĠP AC
all on
merik aanse
iod ar
Ġ[ **
Ġonmiddel lijk
Ġdie pe
b er
Ġsp oren
ĠA ctie
Ġverb onden
Ġoct rooi
ĠW at
behandel de
we st
Ġtoegevoe gd
Ġre ageren
al ium
kl oppingen
ĠL DL
ĠAB G
cult uur
Ġna dat
ad ren
Ġ3 9
Ġre ferentie
Ġdro og
ly se
6 1
ia e
ivea us
Ġzo dat
om yc
Ġlong oedeem
Ġgeselect eerde
ĠEx am
Ġben en
Ġgedrag s
pol arisatie
Ġvariab elen
al pha
re st
ĠC S
acht ig
EGEG EGEG
Ġc are
lo ot
b l
Ġfosf orylering
Ġgekwee kt
Ġtumor cellen
Ġs ulf
ro ken
de fect
Ġcardi omyopathie
ĠF amilie
spro blemen
he en
Ġvorm t
Ġel ementen
Ġt ube
sp ec
Ġplace bo
d oel
ist offen
Ġpol yp
Ġisol atie
Ġplaats v
R adi
ĠB M
mole culen
Ġf ra
ĠbeÃ¯nvloe dt
Ġthe orie
il is
ĠT ele
PC I
Ġtra ining
ĠR F
ĠPoliklin iek
Ġmig ratie
o ken
ĠefficiÃ«n te
ĠLab s
Ġfunction eren
ject en
Ġopge lost
Ġgecombine erde
b ut
ar g
ĠT rans
ĠCon cluderend
Ġoc clusie
ĠNE UR
Ġinc isie
Ġ â
pro duct
tro kken
ec k
D E
ri al
ococ cus
Ġlevens vat
ĠRes ultaten
Ġonderz ochte
p ing
ĠH ol
id s
complic eerd
Ġoorz aken
Ġbijdra ge
Ġch lor
ox ic
Ġwaar nem
Ġfen otype
yla xe
Ġd w
H O
h oek
Ġv lak
Ġgecontrole erde
Ġover gedragen
Ġdra gen
se ff
Ġinf erieure
Ġthe or
re erde
IC D
ur ine
cub atie
la den
Ġwaar mee
Ġbio chemische
Ġkun st
Ġplaats ing
Ġbenadru kt
ĠI mmun
ĠZ ie
Ġst aan
Ġant im
Ġpl us
Ġsc ala
dip ine
sp ier
di agnose
IN STELLING
ĠS er
Ġge activeerd
iv ity
Ġend ogene
ĠT ra
on gem
ĠN ieuw
Ġra dic
di at
ĠS V
Ġag ressie
ot omie
Ġgrond slag
ontste king
Ġs agit
Ġle g
Ġin tensiteit
Ġmel k
in c
Ġsyn thetische
Ġintracran iÃ«le
ĠT oe
id ase
Ġg ram
Ġv ond
Ġč Ċ
hy re
is e
plet ie
Ġhel ft
m elding
Ġepisode s
Ġdiff use
ĠIF N
at s
Ġrem t
Ġper i
Ġet h
Ġben eden
ĠR ep
sign alering
olester ole
entie l
ĠâĢ ĺ
Ġst rom
Ġaf beeld
str aling
Ġcruc iale
Ġor de
ĠN P
g lut
nam es
w ort
on isch
a uw
Ġas ympt
or ele
Ġasc ites
Ġp ain
ken merken
Ġ ~
Ġregul ering
Ġmorf ologische
Ġbij be
Ġfoet ale
Ġ il
Ġerv aren
per atie
Ġlucht wegen
dig d
Ġnauwkeur ige
Ġc lin
Ġindivid uen
v accin
Ġruggen merg
ĠG L
Ġin duceren
Ġaange troffen
Ġverd achte
Ġbeg repen
sor b
o ff
Ġd raag
op ol
Ġvit ale
se s
ar in
ĠU V
Ġt w
ound s
ĠOn ge
afg ifte
Ġb y
201 5
Ġmar ker
Ġt aak
r atten
OR T
Ġm entale
Ġ[ ]
ĠN H
Ġmyocard infarct
Ġeven wicht
ize d
Ġdoel wit
os in
ger ing
ĠM T
f lutter
ee ee
Ġho u
Ġaf w
Ġbeoor deel
as on
Ġrechter kant
Ġgevoel ige
Ġ4 4
Ġend omet
f ace
Ġvloeib are
Ġre d
ĠB as
a i
Ġtechn ologie
Ġge te
Ġdru g
ic ot
ent al
Ġas ymmet
__ __
te am
Ġaan toon
pro duc
Ġverh oging
gor itme
Ġb indt
Ġ4 3
Ġcereb rale
L D
Ġgenees kunde
2 10
Ġsp inale
Ġen t
Ġbeschik baarheid
k ru
Ġ6 4
trans ferase
Ġkal iber
ĠE cho
Ġwor tel
insuff iciÃ«ntie
radi oloog
Ġmitralis klep
Ġcap aciteit
Ġz uiver
Ġvermoe id
f act
A n
Ġopeen volgende
Ġuiter lijk
ĠIn dicatie
Ġde genen
C ardiale
Ġeff iciÃ«ntie
um ente
re ctie
di st
Ġvergemakkelijk en
den t
Ġver vanging
at ter
Ġmedi ale
ĠR T
ch ron
ĠChirg ical
IS T
Ġbijbe horende
Ġver richt
Ġhe up
inter val
t her
f rag
Ġr atio
Ġartikel en
l ong
Ġpro ximaal
Ġat riale
Ġwil de
assa y
Ġintact e
c al
geh ele
Ġrem mer
ĠH eeft
str aten
Ġcyt os
Ġaange past
Ġther m
it aties
Ġ5 2
ic es
Ġk aart
in name
ten der
s n
Ġwe gens
ĠH A
omeg alie
ĠRR R
os s
Ġgerapporte erd
Ġro od
Ġab sorptie
Ġcol or
enz ym
ch olesterole
L AD
Ġ4 6
ĠDis c
Ġbel asting
eeft ijd
m us
Ġamino zuren
activiteit en
oplast ische
ri a
Ġvoor bij
ym ph
O X
h yp
rom etrie
c yten
oor den
ĠE p
Ġstadi a
ver deling
van c
di er
Ġle den
Ġs ur
per iode
Ġgele idelijk
ĠLV F
sp at
ol i
ip pen
kl ieren
ĠN ot
ĠVan wege
Ġont kent
N M
Ġtra che
Ġsecret ie
Ġdi alyse
quenc ing
elf unctie
Ġsch atten
ĠE CV
Ġt ib
Ġwer kt
Ġaan gren
wissel ing
Ġc yclo
hou et
ĠMeer dere
Ġhart kloppingen
ver mogen
Ġre sectie
ĠL C
Ġhet ero
osom ale
Ġversch uiving
m embraan
Ġmed isch
onder zoeken
Ġonvol doende
ten t
ine se
Ġcor dis
ac u
ĠS BP
Ġtek ort
ine erd
Ġorganis men
v a
open ie
chlor ide
od one
wee g
comp onent
he s
ogen iteit
Ġess entiÃ«le
lox acine
an k
Ġt it
ok l
Ġtra c
r eren
Ġverster kt
ĠgeÃ¯n fecteerde
Ġh oor
stru ctieve
Ġon regel
ost ase
Ġv ul
g luc
Ġvoort gezet
Ġ201 6
agon isten
Ġgewicht s
ĠO F
Ġwaar op
Ġgen oe
Ġb and
Ġelekt rof
Ġgelijktij dig
ri Ã«n
Ġsinus ritme
ijk en
ab ase
h om
d oen
sec ret
ol ogen
Ġt ab
s ne
Ġwij ze
ectie ve
Ġzw are
ier e
Ġt ar
Ġeen voudig
Ġinvas ieve
Ġtherapie Ã«n
n ale
Ġverm eld
ĠS EH
B B
bri de
oe pen
gen itale
Ġtoege schreven
201 6
Ġmes enter
ĠResp ir
Ġgedeel te
Ġontwikkel den
Ġth ym
ĠBe handeling
ĠNEUR O
ati ente
Ġgede tail
ĠgeÃ¯n ject
heem se
e dt
vul ling
Ġ5 6
h oe
ongem b
ĠVer geleken
h orm
imm uun
ĠHe alth
ente el
ite ct
ĠQuestion naire
lo os
am aat
Ġperic ard
ĠT AB
Ġvers le
cholesterole mie
no wn
Ge achte
Ġonge w
af rag
yp ass
t ime
Ġh aal
per centage
Ġgesynthet iseerd
A r
pro liferatie
Ġ(( ))
Ġverschillen d
Ġres iduen
Ġanat omische
ĠO S
Ġin stelling
ert ijd
Ġgemen gde
Di abetes
ĠAc id
P h
Ġge lab
Ġmaat regelen
ĠPR N
em mer
c i
osyn these
un del
techn iek
i gende
ex tra
sz ins
Ġclass ificatie
Ġgek arakter
dig ing
ĠVer gelijk
Ġrelev ant
Ġsp in
di ffer
Ġb rand
oÃ¯ d
aryn x
Ġintraven eus
oe der
ig uur
ap en
cept ie
Ġl itte
ug h
a ys
qu is
ot he
kk ige
Ġafgele ide
Ġre eds
antilich amen
Ġhe den
Name Pattern
Ġomge vings
ĠE valu
Ġvoor deel
Ġmeer derheid
t umor
ĠS yst
Ġver werking
oc on
Ġs oep
ob last
G ap
gra de
i raal
Ġcult uren
E n
z ichten
f s
x ine
Ġf eed
ĠComment s
Ġmetho d
Ġklin iek
ĠM atige
Ġcommun icatie
Ġm orbiditeit
Ġad vies
f icatie
Ġtra ditionele
complex en
Ġstimul eren
mit t
Ġanti oxid
Ġafzonder lijke
V IS
Ġatheroscler ose
Ġpro motor
IN D
ic ulair
Ġep ide
Ġver rijk
di kte
ir atoire
ende d
p el
ĠT oen
ĠB rief
Ġinit iÃ«le
p aste
Ġmet alen
ul ose
aand oen
Ġreactie ve
Ġn at
C ON
um oren
t icul
met ast
Ġet hanol
Ġstr aling
Ġverspre id
pop ulatie
Ġover t
Ġc apsule
Ġlo zing
Ġuitdag ingen
Ġkat alyse
Ġbe zorg
Ġfunction eel
de la
Ġsc reen
Ġ12 5
R OM
ĠR C
Ġmedi ane
Ġaangren zende
Ġbenadru kken
Ġech ografie
um at
ei z
ve stig
Ġvezel s
iv ari
ĠDe cursus
Ġcomp lement
Ġbesl iss
Ġg tt
Ġsch u
u ste
ot h
bla d
Ġdi versiteit
de hy
E er
Ġhy dron
Ġk et
Ġver erg
den king
f luor
Ġlinker ventrikel
Ġmalign iteit
Ġk euze
Ġeen s
Ġbloed ingen
Ġne gen
ĠAn alyse
Ġmon itoring
Ġbre de
ot iden
201 4
o ok
Ġvertra agde
Ġaan vang
g ave
Ġgla d
bre uk
Ġoptre edt
Ġmech an
Ġtr icusp
ĠH b
Ġgez amen
Ġterugk erende
Ġel im
orm al
d urende
Ġaspir atie
R E
mechanis men
ocar cinoom
om geving
Ġuit zonder
Ġvoor af
om eren
it aire
v ragen
ĠÂ µ
id yl
r aling
I ON
ĠP K
A d
c an
ic k
Ġ201 5
at ig
o del
con st
ĠM AP
Ġziekenhuis opname
ĠAl k
Ġwereldwij de
Ġgem odific
Ġne on
Ġm orgen
st ij
Ġveelbeloven de
Ġcir c
Ġbescher ming
sign aal
ant h
g olf
Ġaan passing
ĠG U
ĠM icro
Ġ4 7
Ġe con
Ġovereenkomst ige
Ġgew orden
ĠL ong
Ġge pland
Ġregul erende
Ġ ele
verander ing
opt im
Ġsystem atische
ĠD er
ĠH ospital
mb er
Ġgest uurd
Ġon g
stam men
ĠC ON
Ġm ast
Ġpre dnis
Ġne iging
ĠVer hoog
Ġ5 4
ran sp
u L
Ġco hort
Ġal ert
ĠHe art
Ġt och
afwijk ing
Ġs ingle
as se
ĠAn g
gelijk ertijd
Ġn m
ĠB I
Ġimmun os
Ġperif eer
Ġe cht
st adi
u res
ĠE N
Ġlab s
A nt
f ol
ron ic
Ġtransm issie
ik et
Ġlichaams gewicht
Ġdist ributie
Ġab ces
at eerd
Ġop ger
m y
oc ale
wer pen
Ġont vang
of ren
ur m
Ġdos ering
Ġ5 8
ĠD C
Ġro bu
s sen
riÃ¨ re
ich ia
co de
ĠM C
f ten
Ġdru gs
Ġspec iale
Ġt ien
bij v
rij gt
ĠAn Gap
D P
as er
pat ronen
Ġnucle otide
Ġweerspie gel
cu te
ĠC u
Ġla ser
Ġver en
Ġre delijke
Ġhou dt
Ġuitbre iding
it atief
b enz
sie k
mut atie
inf lammatoire
Ġangi ografie
Ġscler ose
Ġcom fort
ĠG ene
i asis
ver z
ĠEx tre
Ġb ul
bi opsie
Ġcontra ctie
bla sten
Ġpar allel
Ġconst ipatie
Ġint ub
âĢ ¯
Ġs ed
ĠO K
se ction
ill us
Ġgen ot
p art
Ġkrans slagader
Ġblo k
sp ieren
Ġar ch
Ġsucces vol
j a
Ġflex ib
ĠT est
Ġ6 2
Ġoorspron kelijke
Ġ## %
elt jes
ĠR h
is in
Ġst ier
ĠH yp
Ġdomin ante
K G
c riteria
Ġdynam iek
Ġdro ge
ken ning
hy dr
r isico
' ,
ent anyl
g lucose
Ġre paratie
termin ale
ve s
ĠProte in
ĠH yper
Ġ9 4
Ġass ay
ĠCR P
Ġgeselect eerd
C omp
Ġzu ige
Ġimmun ohistoch
gen etische
ĠW aar
r if
Ġgesp ec
ĠA mb
of yse
Ġaden osine
ĠP VC
Ġkarakter isering
s om
ĠC ancer
Ġrechter boven
Ġlang zaam
ĠEn d
v aten
Ġindi rect
Af spraak
Ġhand h
Ġy es
m ine
Ġa deren
ĠS ociale
Ġc ase
i alis
Ġmult i
w ant
om eer
ĠI mp
infectie s
art im
M O
Ġher haling
Ġther mische
Ġenig szins
of ie
Ġo verd
op o
oxid ase
k ort
at in
Ġkal ium
201 7
Ġexperim ent
Ġ18 0
komen de
Ġschimm el
jectie ve
ĠO b
Ġe et
V I
ĠH oofd
Ġt ime
ch em
Ġhypox ie
ed ische
Ġatheroscler otische
co Ã«fficiÃ«n
Ġhemat oma
be oordeling
l us
P E
i que
amen te
ĠD rug
Ġr ate
Ġdi abetische
Ġgen eratie
ĠD E
Ġm us
Ġveil ig
s k
Ġla par
Ġbi ologisch
Ġuitvo eren
Ġf lu
ion al
eld ood
Ġult ras
Ġverwij d
Ġlok alisatie
Ġal gehele
op razol
c ol
ch oline
is k
id og
i wit
op a
or d
ĠVeren iging
amin ation
oe fen
Ġin heemse
Ġspont aan
ĠA p
Ġpro v
Ġseks uele
et ers
1 50
Ġexperim enteel
mole culaire
Ġmetast ase
gest ie
seg ment
Ġform ul
er on
Ġdaar van
Ġst em
ĠM A
) /
Ġla gen
um es
let e
leuk ine
Ġin duceert
Ġzeg gen
Ġal kal
ĠGer inge
breng st
Ġte v
ili ac
ouw en
Ġantist olling
Â ²
Ġ() )
if e
Ġ16 0
app a
Ġgew oon
ĠAct ivity
Ġs onde
ĠN u
Ġvere isen
ĠP ain
Ġt etra
tellect ueel
con s
Ġc DNA
Ġ6 8
Ġbra d
Ġsu g
io om
in testinale
EL VIS
rin sieke
ĠCh irurg
f lex
Ġsluit en
Ġhe b
st ijd
Ġman agement
ak ker
Ġp osit
Ġtr ig
Ġembry o
Ġcalcium score
L e
Ġmedi a
Ġsamen vatting
gen tie
at uren
aak ten
Ġpassen d
ON E
Con trole
Ġp rakt
Ġm amm
ĠP P
Ġs et
Ġhart as
Ġsept um
art an
een de
Ġonthul len
Ġlymfek l
ĠPC P
Ġverw ond
Ġge est
ĠSp O
Ġj an
Ġstap pen
t op
Ġart ritis
do wn
dig heid
Ġneut rofie
Ġ8 8
Ġdop amine
Ġre delijk
Ġb allon
lu enz
Ġm ac
B M
Ġge trans
ĠL act
v aat
on eel
Ġne k
Ġc yan
Ġbest and
it ter
Ġdecomp ens
ĠH ome
lo on
Ġover expressie
Ġ201 7
Ġstam cellen
ress or
ome di
Ġcm H
B R
ot is
Ġb ib
Ġ_ -
Ġhippocamp us
u il
a ff
ĠMet oprolol
Ġvariab ele
Al gemene
Ġsitu atie
Ġbe mon
Ġselectie f
Ġcel cyclus
ra ad
Ġonbe kende
ĠCV A
ub l
Ġdon or
ob ob
isin opril
Ġsagit tale
Ġ6 6
v eld
ĠBe oordeling
Ġ5 3
ort ic
Ġdec en
Ġweten schappelijke
Ġ6 7
arc oom
sp ace
Ġc ran
Ġis o
Ġuitge sproken
Ġep ider
st ap
Ġtoege wezen
+ /-
Ġomge keerde
Ġdimen sie
Ġcir cul
ĠP H
Ġbevestig de
Ġrol len
Ġseg menten
fen yl
acet yl
Ġval len
ĠefficiÃ«n t
Ġaange geven
Ġt yrosine
Ġbev inding
Ġac cept
Ġzeld zaam
oc riene
Ġcell ijnen
Ġat ypische
dilat atie
Ġver wezen
op s
Ġch olec
Ġb ypass
Ġ ip
ĠTer wijl
Ġa ug
Ġvrij w
oplast ic
E HTX
Ġn eer
c ir
Ġb if
Ġver tro
Ġ5 7
a as
Ġbron nen
ch loor
scher ichia
Ġbeheer sen
P L
ra che
Ġc is
h uid
Ġver slag
Ġpers ist
Ġgemet ast
ĠSc ale
ĠPIC C
ker ing
Ġ6 3
Ġvoorsp elde
Ġag greg
Ġco Ã¶rd
le d
Ġdiver se
i laire
Ġonder scheid
om on
ui gen
Ġcon cur
Ġge scheiden
Ġgen etisch
Ġt ypische
Ġc lear
strateg ieÃ«n
Ġ201 4
Ġ Ġč
.. .
oÃ¯ die
Ġbest ond
functie s
Ġcons erv
Ġbijn ier
Ġsin ussen
Ġopn emen
gra ad
Ġtub ercul
Ġl ongemb
Ġge t
Ġonder wijs
amin ofen
rij ding
ĠT w
j ug
ĠA u
Ġor iÃ«n
w orpen
cl usies
Ġduizel igheid
z on
ant igeen
Ġmelan oom
ver sch
00 2
te mper
an al
Ġsup ra
ch olesterol
Ġbescher men
ĠS ign
iodar on
Ġge ad
Ġlang ere
Ġko ude
F P
Ġdetail s
Ġpulmon aal
lu st
Ġpla que
Ġrep resent
Ġmon okl
ontre inig
Ġperc entiel
och room
vle es
Ġvis u
we k
Ġuitste kende
Ġgerapporte erde
Ġn amelijk
Ġ5 1
ep hal
Ġtot dat
H e
ess ant
aar digheden
azep am
gro e
and aard
CO M
Ġorganis atie
Ġintermedi aire
Ġn n
Ġacet yl
af geleide
201 3
Ġze ker
Ġin houd
Ġpul s
ore se
o w
Ġvar ieerde
et re
Ġgete ste
zij dige
O x
laes ies
ul erende
Ġins uff
f ac
Ġpas geboren
Ġsch iz
mer c
Ġstatist ische
Ġretro per
tub eerd
D D
Ġgen omische
um ab
in tensiteit
Ġc at
Ġul cer
Ġwillekeur ig
Ġc eldood
Ġkw al
ha af
Ġzoog dieren
Ġk rijgt
ol len
Ġ q
Ġvari anten
per fusie
Ġk ra
Ġinfil tr
Ġster kte
Ġleven de
Ġaltern atief
Ġg on
pro p
Ġhy brid
Ġprin cip
Ġdomein en
yst emen
ĠH ypertensie
Ġin se
la se
Ġprogn ost
P ol
c ardiale
Ġlas ix
H z
os en
ĠAsp irine
Ġactiver en
Ġverwij zing
Ġbe zoek
ĠL eeftijd
k lin
he erd
in dic
ath ion
in aal
Ġk op
fect eerd
Ġverpleeg kundigen
ĠgeÃ¯nject eerd
kan alen
ĠC ode
aar s
ra pport
ES T
im uleerd
Ġar g
peratie verslag
% ;
Ġ4 9
us s
in jectie
Ġc r
in aire
Ġsign alering
Ġsep sis
Ġort hop
Ġst atine
Ġbe wegings
Ġidentific eerden
Ġ( #
iden t
Ġonderzoe kers
Ġwereldwij d
onder steun
Ġob v
TR AST
Ġd ip
ĠAan melding
ul m
Ġgev order
Ġ it
Ġobserv atie
Ġh iel
ar ia
Ġmetab olieten
Ġre mmers
aal f
AS C
Ġbe sluit
Ġret in
Ġw ar
N one
Ġh oek
Ġbl ot
Ġmult if
Ġp ector
Ġw illen
f re
Ġvo erden
ivea u
201 8
Ġr and
waar t
Ġhist ologische
iÃ« r
inu e
Ġf ist
ĠJ ap
ĠC lin
Ġan deren
Ġoef en
12 0
idi ver
Ġkracht ig
Ġa gen
Ġd end
id u
he x
Ġverpleeg kundige
Ġing reep
la s
ĠDe vice
ĠB lood
Ġ201 3
t age
Ġoste op
Ġt aal
n it
Ġw ijd
ger ichte
Ġhe el
N L
Ġder mat
mut aties
BT B
AT P
wer ving
Ġinter mitt
ĠOver ige
ici entie
Ġhypertro fie
14 0
Ġonder drukt
Ġsle ut
ĠS le
os ens
o ien
AT E
T S
ijn e
ĠN G
amil y
Ġbespre ekt
Ġaan komst
di a
Ġstruct ureel
AB A
Ġme i
ant agonist
Ġkandid aat
cin tig
ĠE scherichia
s niveau
he imer
ĠS ec
ine zuur
ĠC N
Ġble ven
Ġch ange
Ġkon ijnen
ĠC an
lyc er
Ġklas sieke
ĠM in
gemiddel de
al ings
pro gressie
Ġh or
Ġant it
Ġgesla chts
az ine
ĠC d
weefsel s
Ġvergro ten
tensie ve
Ġp oging
nel heden
ur on
Ġ( ###
Ġag on
Ġop lever
Ġp akken
ĠN EC
Ġhulp middelen
Ġ0 9
H Y
waart se
Ġbe smet
ĠZ n
Ġfarmac ologische
ĠH LA
Ġdo chter
Ġ7 6
Ġ201 8
ĠT el
Ġ6 9
Ġachter grond
Ġvoel t
f rine
K T
ant oprazol
Ġlong kanker
ver se
ĠD OSE
techn ologie
ĠO x
Ġtherapeut isch
V an
Ġgecombine erd
Ġang ina
ĠT P
Ġ6 00
Ġ( <
ge t
wer vel
or vastatine
Ġvoorsp eld
Ġe qu
a vanc
aspect rometrie
t ri
o zen
adr ant
Ġindivid u
Ġsens orische
Ġnan op
Ġst ee
ĠL ast
st ijden
b p
ar ker
201 2
Ġav ond
ic aal
Ġaan val
Ġomge zet
Ġgest eld
V D
Ġkw amen
Ġonder worpen
Ġneuro path
Ġk eten
Ġm ol
yc odone
Ġdiagnost iek
zet ten
Ġan emie
Ġaf val
raak been
Ġn or
g as
he m
Ġstimul us
T ype
Ġgekwee kte
iform e
Ġbloed stroom
stit iÃ«le
Ġver duidelijk
acchar ide
Ġbe val
sp or
z heimer
oe stand
f o
oc omp
it ud
Ġpro st
ĠL ung
Ġgew richt
Ġonder houd
sulf aat
Ġeierst ok
Ġst elt
Ġs ul
ĠgeÃ¯n teg
Ġv rucht
Ġ10 1
ge d
Ġou deren
Ġvloe istoffen
Ġvariab iliteit
or i
y len
Ġgun stige
Ġhem oglobine
ĠK ort
st herapie
ut aan
Ġpromin ente
Ġ5 9
sp laat
pro blemen
m ateriaal
ĠVraag stelling
Ġcomplic atie
Ġdif fusie
Ġverst oring
even s
L engte
iciÃ«n te
Ġgoed aardige
ĠT GF
ocardi ale
Ġmod uleren
er pen
Ġzorg verlen
l ichaam
Ġ9 3
eu k
Ġherst ellen
ĠV eel
Ġdat as
stim ulatie
h art
Ġ9 2
Ġplot sel
pt ies
erg ische
Ġa dip
oc umente
ep razol
en dens
Ġadequ ate
Ġ7 8
Ġbas aal
t he
Ġresult erende
Ġf alen
Ġcyst en
Ġer f
ĠM an
Ġr ing
Ġren ale
a ec
A I
mm ol
ĠC YP
Ġm embranen
ri Ã«
ap amil
i cter
v et
Ġlymf oom
ĠSom mige
n ucle
Ġelekt ron
Ġz elden
Ġ8 6
Ġverdi kking
ĠMedic ations
Ġhier van
Ġhyp oden
Ġ7 7
Ġgevisu aliseerde
N OS
Ġmisselijk heid
ar ter
comp onenten
ĠI GF
art ic
h uizen
Ġpe diat
Ġv es
Ġbescher mende
Ġp ri
sen s
ĠvariÃ«ren d
Ġuitgang s
uc c
Ġin cubatie
ĠIn tra
Ġpanc reat
ĠV is
k eten
Ġd al
čĊč Ċč
verb indingen
im plant
12 5
Ġgenoe g
Ġ201 9
Ġm eld
ste chn
Ġverkla ard
ĠC lip
G D
ĠÂ °
Ġcoronair lijden
h et
Ġendomet rium
appar aat
ch ol
ar it
Ġaspir ine
p acemaker
n ieuw
urg itatie
Ġsuperie ure
Ġgekarakter iseerd
Ġnab ij
Ġde vice
Ġinvas ie
Ġembry onale
um ptie
om een
Ġu ro
of iele
on aal
Ġcom merc
Ġb is
ine erde
uiv erd
actie f
Ġcre Ã«
Ġgeco deerd
ĠNa ast
ve al
Ġf in
Ġcytok ine
Ġsyn aptische
ho sp
Ġbest raling
amin o
ĠNeuro log
Ġk west
Ġdefin itieve
O OR
dehy de
Ġaan v
ĠLin ker
d osis
oxy sm
ĠW er
Ã ª
Ġschijn bare
wort el
Ġbol us
um ar
Ġmicro biÃ«le
idog rel
Ġdisc us
Ġimplement atie
d on
Ġdoor ge
opro fiel
b ack
AV I
Ġleuk ocyten
V P
ĠT rop
le ctie
adig de
er al
Ġpoliklin isch
Ġpleura vocht
cap aciteit
Ġam plitude
pop ulaties
wijz ing
Ġgeh oor
Ġverz org
Ġz ee
B loed
Ġgelok aliseerd
s on
Ġbe middelen
Ġsu ik
olog ic
chrom atografie
Ġil lu
ĠM O
ox idatie
Ġin dust
ĠVer ander
Ġoplos bare
Ġonze ker
ou dering
Ġgedefin ieerde
Ġ> )
Ġmel dt
Ġged ocumente
k at
ast om
Ġverlaag de
ĠIn dien
Ġc ath
Ġkn ock
Ġdis ease
amet h
eek sel
Ġsouff le
Ġappar aten
Ġpoliklin ische
ten ded
Ġver denking
ĠR ight
b uter
Ġverla gen
l ia
be sch
interactie s
cip lin
R CA
Ġv aten
Ġgun stig
ĠAl zheimer
Ġverm eende
Ġhuis artsen
Ġgl omer
i us
ĠAl gemeen
antilich aam
ĠKlin iek
Ġ6 1
ĠC F
vezel s
Ġonder werp
Ġdra ad
st aties
Ġonderzoe kt
Ġal lo
dien st
Ġw akker
( ))
Ġanest hesie
op isch
Ġbew ustzijn
ĠSt aten
201 9
ri en
P re
Ġs otalol
Ġcyt oplasm
reg io
Ġverkal king
Ġoest rogeen
Ġf ix
Ġc ef
duct ase
al g
B ili
ivari ate
Ġgele gen
Ġge compliceerd
Ġm ijn
be ur
Ġover ig
def iciÃ«ntie
Ġel ement
ĠHol ter
F amilie
ĠS amenvatting
ee st
Ġco deren
ĠCP AP
ĠCon trast
bron nen
ĠS D
Ġkat alytische
ag s
n amen
hydro genase
Ġsub straten
Ġa ssessment
ĠGe z
ĠJap an
Ġbescher m
Ġsp utum
buter ol
D oc
Ġtromb us
C ell
ath ie
benader ing
ĠPertin ent
Ġkrit ische
Ġof f
w w
Ġonder drukking
ĠgeÃ¯n tro
Ġdiver ticul
Ġontde kking
N R
ĠEr nstige
Ġhandh aven
Ġheter ogene
ĠS K
en ste
Ġ(( **
ins on
kno op
Ġslagader s
Ġad ap
et te
Ġgezamen lijke
ijf ers
Ġp al
Ġbinden de
ge v
ĠP ELVIS
Ġ( &
ĠMedic al
Ġgist eren
Ġ( ##
Ġkenmer k
ĠA merikaanse
ĠS O
f unction
Ġgecon cludeerd
ei ste
Ġdem entie
Ġgerandom iseerde
Ġge aut
nnnn nnnn
V E
Ġonge acht
Ġverdw enen
vul d
id is
Ġbl an
Ġopmer kelijk
ĠQ HS
Ġge heel
an gen
Ġpolym eer
Ġgebruik elijke
Ġantim icro
Ġveronderst eld
itie f
ov irus
Ġinter leukine
ĠN ut
Ġ7 4
jectie fractie
ĠHT N
c ed
Ġonder drukken
ĠD I
es ium
Ġo chten
Ġf luid
ĠVeren igde
I MA
Ġl u
ĠL E
Ġversch ijnen
ge activeerde
ure us
ĠEx t
Ġspect rum
Ġz itten
st ering
os ale
her ent
ĠL PS
ffer entie
Ġcomp ressie
b acter
Ġc ategorie
um ad
Ġweerspie gelen
Ġgedi fferentie
T A
t ige
of age
met ing
Ġe ic
ine d
ider zijds
Ġ7 1
mo id
Ġbeper ken
lan co
be vatten
act e
stru eerd
form aties
eff ecten
Ġfosf olip
Ġhoor n
Ġle er
ab an
Ġwe zen
Ġ0 4
ĠP la
EG F
ell ings
Ġuit slag
Ġpar an
Ġcycl us
Ġ7 3
ks gezondheid
Ġde x
Ġbe iderzijds
ĠD O
Ġm yc
et ine
ĠP ET
ĠC B
oor de
Ġgem ute
W S
Ġomge keerd
Ġelekt ronische
Ġonmiddel lijke
vaardig d
K linische
Ġab sol
Ġ8 4
Ġvoort plant
ster n
Ġverkal kingen
ly k
Ġle ft
Ġgez uiverd
c alc
halam us
Ġmogelijk heden
kun dig
lymf ocyten
Ġbe wegingen
et a
ĠgeÃ¯n tubeerd
Ġgedetail leerde
Ġp unten
Ġschiz ofren
B el
Ġ] ]
Ġvari ant
Ġser ot
Ġf ac
R ec
Ġgeh and
Ġ201 2
route s
Ġradi otherapie
ĠEuro pe
Ġzwak te
sch ak
at ch
ĠLV AD
Ġchron isch
di ff
ĠL D
N C
Ġw issel
Ġgehand haaf
Ġassoc iaties
lif eratieve
Ġd ij
or ven
ati b
per atuur
Ġsleut el
an im
ine sie
Ġgest aakt
par ameters
Ġklein er
Ġs en
hy dra
Ġfluor esc
Ġgehandhaaf d
herapeut ische
Ġextra ctie
differ ent
tie ve
Ġk orrel
d z
Ġt ip
Ġpat ent
Ġlich amelijk
Ġprognost ische
be w
n ec
ir on
Ġnet werken
ĠH y
Ġlucht cellen
u ari
geb re
ĠD en
Ġvas cul
Ġam bul
Ġad hesie
ia z
Ġp arenchym
Ġverkl aring
or de
Ġlos sen
Ġch ol
Ġomvat te
Ġpolym erase
Ġeff usies
ĠRec ente
Ġna druk
Ġlever t
ĠAc et
Ġversle chter
al t
lo dipine
Ġemot ionele
ĠgeÃ¯n ter
neur onen
Ġdi Ã«
sch ema
P LC
ant al
Ġverander t
av irus
o yl
Ġmi RNA
Ġtrans formatie
Ġdors ale
Ġbeval ling
plaat sen
4 50
Ġdefin iÃ«ren
wijzig de
Ġz in
Ġge avanc
P P
Ġop slag
tens ine
-##> ,
ar men
il aterale
Ġ### )
de tectie
ĠS h
Ã¨ t
Ġvers n
Ġk week
- /
gan kelijk
Ġmut ant
Ġt ak
Ġge activeerde
C ABG
rit ische
ĠT C
5 00
Ġlact aat
Ġide e
temper atuur
of actor
Ġhol te
et ro
ĠP sych
Ġoplos singen
Ġen do
osf aat
le b
du id
ic o
Ġst oornis
Ġgeval ide
d ynam
sp ra
Ġz oek
Ġontbre ken
kken de
us p
Ġj un
ast ische
Ġzich zelf
Ġinteg ratie
ab ele
ikel s
G eslacht
Ġfib rose
medic ijnen
Ġsch ool
Ġuitzonder ing
o ctor
Ġa er
YYYYYYYY YYYYYYYY
is erende
sen de
od on
Ġevol ution
Ġge sc
ĠS kin
il and
cont act
Ġpatho f
Ġw an
P ost
Ġklein ere
Ġdien st
Ġvoorbij gaande
Ġge halte
Ġschat ting
Ġdimen sies
Ġbetrouw bare
Ġgeschat te
1 30
activ atie
Ġbel oop
ĠAmb ul
matig heden
mm on
kl aring
p y
Ġfosfat ase
Ġl ijnen
qu it
ving er
Ġwater ige
Ġinter stitiÃ«le
ro e
Ġ iliac
Ġlinker borst
Ġger elateerde
f ract
At rium
ort ing
ĠE os
Ġwaar na
Ġbe waar
herap y
Ġfy lo
Ġer voor
Ġsh ift
um a
Ġwillekeur ige
Ġkanker cellen
A g
th ase
Ġste un
Ġre plicatie
del ings
ab lok
sp laats
y e
Ġtheor etische
ĠChe st
t elijk
Ġvertra ging
Ġa z
Ġt anden
ĠK lacht
Ġb uis
ĠVer richting
iner es
an ker
io den
ol iet
ik ken
Ġk olon
Ġbloed cellen
Ġadolesc enten
Doc ument
Ġa ud
Ġsoc iaal
ĠMe dicatie
ver spre
Ġep i
Ġker nen
Ġde termin
1 10
Ġst uk
Ġmut anten
Ġom k
cel carcinoom
con trast
t ings
p hy
Ġâ ī
Ġz one
ĠCR T
qu Ãª
Ġges loten
af deling
lop idogrel
ĠF inding
ĠN MR
eiz oen
u ut
Ġo cc
Ġst aart
Ġst arten
Ġstoel gang
N G
Ġprof ess
i erd
Ġverschil den
o o
res istente
ĠR S
Ġout put
Ġmic rom
Ġstee g
ĠMEDIC E
oglob uline
ion eel
ĠS yn
ĠCond ition
EH EH
il le
Ġs etting
Ġdien sten
Ġfrag ment
STE MMING
Ġ0 3
Ġw et
i ent
Ġman ip
Ġpla cent
Ġbezorg dheid
ger uis
Ġzwak ke
ringen de
Ġlongemb olie
str eren
o der
Ġcent raal
Ġgez ichten
Ġneon atale
Ġe val
- >
l icht
te keningen
Ġver eiste
re p
t ypes
Ġn as
Ġbevat te
Ġk Da
Ġzuige lingen
Ġpsychiat rische
ĠI R
ang ere
Ġlong itud
ren ch
Ġtand heel
Ġvari aties
ont ale
Ġfre quente
IS CH
ĠM L
Ġwarm te
Ġpector is
lo ze
Ġinf usie
Ġt ax
v ale
201 1
Ġinterpret atie
ept or
Ġ8 2
Ġving er
al ity
Ġspec ial
ru bine
Ġim aging
ees kunde
i aanse
Ġp iep
Ġam ylo
Ġpro ject
ĠVerslag datum
Ġl ar
Cor onair
c ope
ĠFamilie geschiedenis
om ale
Ġsubc lav
Ġrect um
Ġcor rectie
ĠE KG
in teg
Ġsens or
Ġtij delijk
Ġrapp orten
ĠV ier
], [
Ġst ere
ympt omen
g g
Ġinstr ument
+ :
beeld vorming
ra b
Ġb rief
Ġkno opp
gele gd
Ġhyp ofyse
of ol
ĠL ip
atter ij
Aan vraag
s im
AR S
Ġp ass
Ġort ho
s at
Ġen cefal
amen stelling
Ġsed atie
og lyc
Ġgele verd
Ġnier falen
Ġst ri
Ġvir ussen
Ġhydron ef
pro tocol
Ġmesenter ische
ho le
ĠE C
Ġl ood
Ġgeassoc ieerde
rim inatie
ol act
hyre oÃ¯die
Ġd rempel
Ġuitkomst en
tit el
Ġvermoeid heid
se arch
Ġ3 25
Ġsche iding
ĠVer dere
en is
Ġ8 3
ĠG em
Ġlok aal
ĠS S
Ġte gelijkertijd
an nen
T ER
Ġin sul
ĠT NM
Ġl im
ĠLV H
f ische
Ġdys functie
b es
ĠgeÃ« xtra
ĠE EG
ir st
umad in
Ġbe k
Ġbeper king
Ġintra hepatische
Ġtijd st
I g
U D
Ġde lt
oe ien
ĠD aily
m es
ĠK alium
Ġtemp orale
be zoek
Ġc asp
Ġcir rose
ĠF iO
roc yten
Ġmil j
Ġverw achte
B oven
Ġw it
Ġziekte ver
l open
kn ie
ĠA MP
Ġcytot oxische
Ġfen omeen
+ ,
Ġ[(( (
Ġver g
Ġl ies
Ġna chts
Ġf l
Ġf asen
it utie
Ġbewaar d
spect rum
vel den
id ose
Ġass ays
s u
- [
Ġimmun iteit
Ġox idatie
Ġplasm ac
Ġoppervla kkige
Ġge laden
uren d
Ġmet a
sch a
Ġge sproken
Ġbevorder t
r h
different iatie
Ġinteractie f
de erde
N K
Ġver er
Ġant ip
Ġtemp orele
resp ectievelijk
Ġmiddel ste
ĠD S
Ġemp ir
Ġhem odynam
Ġech te
STE MI
vo et
O nt
mer king
ver vanging
ĠF amily
U it
ĠF low
Ġkopp eling
ĠH un
Ġbeschrij ving
Ġpediat rische
vol umes
Ġ0 8
Ġtran splantaat
Ġvoor zien
id ale
Ġv ullen
ĠG lyc
ĠPM H
st ress
ucces volle
m atische
Ġvoor heen
omon as
spre k
Ge wicht
ur t
Ġverb lijf
Ġonderste unt
Ġperc utane
waar ts
Ġv re
invas ieve
ul d
we ken
ile pt
vorm ings
ĠgeÃ¯ntro duceerd
rim in
tij dige
Ġorganis me
d it
ob il
Ġsplit sing
Ġbev inden
, #
ĠC el
ocard itis
pass ingen
splaat sen
Ġveren ig
Ã ¼
be vindingen
Ġcomp et
Ġplasm am
ken nen
Ġnut tige
ri ctie
ep h
ne st
Ġin tens
Ġbiom arkers
sch rift
Ġz ink
vis ie
h ang
Ġpost erieure
in formatie
Ġge troffen
Ġpijn klachten
Ġ201 1
oe zem
Ġvet zuren
Ġint rinsieke
p arenchym
Ġarch itect
Ġbij ge
ĠN PO
Ġtij delijke
or k
Ġ-- >
Ġaan t
Ġb dz
Ġinfectie uze
Ġkw ets
Ġma xim
f rench
S ize
ĠN eem
secret ie
Ġp all
Ġpro duceerde
g aat
Ġ8 7
Ġse di
Ġ201 0
Ġinf ect
orm aliteit
r ar
ĠW el
al k
Ġster oÃ¯den
Ġant erior
ĠVers ion
t isch
Ġmetast asen
lop ende
Ġfil m
am ycine
Ġv oren
par aten
Ġzout oplossing
Ġu ter
ast en
D EN
Ġgeest elijke
L S
b rale
Ġg rij
Ġtoen emen
is el
VERKLAR ING
w ay
her stel
om isch
ist ieke
uiver de
Ġde mon
Ġh eer
Ġsp anning
el in
Ġv indt
chirurg ie
horm oon
ter mijn
Ġc reatinine
Ġf la
up pressie
ijn s
Ġspect rale
Ġ0 7
Ġe st
Ġrechter borst
Ġgewichts verlies
cont in
ĠGe gevens
p assen
im es
Ġin zichten
kle uring
Ġop vallend
ĠHem at
lyk emie
de ma
T H
ver e
op ulmon
radi ol
Ġpers oneel
Ġtren d
Ġradi ografie
lep sie
Ġradi ale
Ġser ie
ĠF oley
Ġlevensvat baarheid
p us
plan de
Ġkl im
Ġaan vullend
Ġaan genomen
ect ale
D C
t ypen
sten en
Ġmeer voudige
daag se
Ġgek ozen
Ġvermoe delijk
Ġver v
Ġret icul
aad pleeg
Ġna del
ĠO SH
sc ores
Ġdoor gaan
g al
Ġ7 9
techn ieken
ĠD ien
Ġein digt
m eer
dru kte
Ġte ken
ur al
spie gel
le ving
Ġbla d
n d
stadi um
on regel
wij zen
ĠH CV
Ġmorf ine
et rische
Ġonderste und
Ġ-( ()
ac er
Ġle v
Ġontw erpen
A ct
Ġcycl ische
Ġc la
Ġtrans gene
s oc
Ġle ek
Ġanti genen
Ġver oudering
Ġmo dule
loot stelling
Ġbuik pijn
Ġj on
Ġre productie
b iot
Ġuit stre
u z
ĠR ES
te kening
os iteit
Ġfin anc
Ġcyst ische
B A
ĠZ uid
ĠH oog
Ġt an
ex perimenten
N ormale
Ġ ?
ĠE chocardi
besch adiging
ĠM MM
Ġfosf aat
der d
beur tenis
Ġhep atische
ĠL Y
Ġheter ogeniteit
Ġherst eld
Ġprednis on
ĠC ursus
wij ze
ĠZo als
der ende
Ġb ut
ot isch
io us
ig uratie
Ġz ure
P er
ĠN K
Ġlong slagader
Ġjan uari
spect roscopie
Ġuitsluit end
Ġhy bride
sch ien
s et
s al
Ġbij geluiden
i kend
icter ic
Ġinsp anningen
b ic
Ġn icot
d atie
p eptide
Ġcardi aal
ag ul
Î ¼
f ibr
Ġantimicro biÃ«le
Ġme de
Ġsymmet risch
Ġoverle ven
Ġafge sloten
lo og
ĠM atig
ge kopp
Ġgest imuleerd
Ġa k
Ġdru pp
ĠL ine
Ġw ell
Ġconcur r
Ġvoorspellen de
Ġbekken s
model lering
p a
Ġontde kt
Ġgal blaas
Ġvan c
P atiÃ«nt
c yst
201 0
o os
w intig
ret e
Ġcon formatie
ic illine
ĠMed isch
re veal
ĠCon cept
ĠBe w
Ġpsych ologische
ĠH O
Ġechocardi ogram
Ġp i
Ġhydronef rose
Ġglut athion
Ġgra ag
b ru
Ġsouff les
Sinus ritme
Ġcyt ochroom
st itu
M L
Ġge vestig
is h
or al
Ġlog in
Ġper man
mo di
Ġopger oepen
Ġmod ulatie
f us
Ġbeh oren
Ġplan nen
Ġhybrid isatie
ven s
ad a
rem mende
Ġd ram
gew ogen
ei gen
rit ion
bloed ing
etre ft
ĠMon itor
ed isch
i ders
Ġgev aar
ĠP Q
Ġont last
Ġpiep ende
d w
la sie
Ġsc ores
idiver ende
ĠV it
Ġsn eller
Ġgemetast aseerde
iden de
Ġtemper aturen
ĠB innen
cl ip
on nen
gen aam
emm ers
Ġjaar lijk
Ġma ch
ar iteit
Ġsamen ge
consult atie
am ol
Ġon d
Ġge luid
der ivaten
st ent
Ġbetrouwbaarheid s
Ġop sp
am b
Ġkan alen
y sm
oc riet
ĠSp ec
Ġgemodific eerde
ĠA cute
Ġverw ante
poten t
Ġk raakbeen
ĠRe chts
Ġgeavanc eerde
Ġac cess
Ġmole culair
" ,
Ġ8 9
al erings
Ġh ilar
ver st
p sych
valu atie
Ġ(### )
Ġzo ver
Ġben z
Ġdepressie ve
res istentie
Ġclu ster
Ġlong ontsteking
ĠÃ Ĺ
arm oede
Ġj arige
ĠBel ang
Ġn aald
Y HA
Ġmitochond riÃ«n
ĠBe vindingen
isic ofactoren
Ġcorrel aties
ĠAn ders
es se
be wegingen
ĠIn c
ĠPO D
Ġglad de
O MI
ter s
Ġfosf or
ig o
em s
sen sus
scheid ingen
Ġlum en
Ġol ie
Ġin hal
ĠNieuw e
emb er
Ġvol ksgezondheid
spro gramma
f lu
ĠTe chn
Ġhydro x
ĠInter essant
ĠF L
Ġcon tro
ke ken
IS S
on chi
Ġwaar uit
ot her
Ġwaarnem ingen
Ġprostaat kanker
Ġglut amaat
Ġcytot oxiciteit
Ġvaccin atie
Ġneutrofie len
complic eerde
Ġnanop artic
ig er
loc aties
Ġ#, ##
en chym
ĠDi abetes
AL Y
pl ijden
Ġnef ro
Ġkwantific eren
Ġdecompens atio
Ġz oeken
Ġoverle den
Ġw acht
Ġknobb el
Ġ9 1
ieken huis
ĠS OB
Ġsugger eerden
Ġleg gen
Ġreden en
Ġtw aalf
b ol
Ġlever de
Ġsp eeksel
geÃ¯n fecteerde
l iot
T C
Ġbacter ie
as ix
ysi ologisch
ĠA SA
Ġgepublic eerde
p g
Ġz it
Ġzorg vul
ri pt
Ġaf ter
Ġvol doen
Ġverstre kt
ĠT SH
Ġrecombin ant
ĠCh inese
reat ment
ĠNEC K
Ġinf erior
di um
Ġdu ct
Ġres istent
best rijding
00 01
Ġdi ur
L F
y le
Ġaan leiding
Ġne o
Ġventrikel s
Ġdis sectie
Ġt ypisch
Ġsch ema
1 01
Ġger aadpleeg
Ġaut ofag
en se
Ġresult eren
id ings
Ġon volle
ĠS ol
N H
Ġontwikkel ingen
ĠCardi o
Ġsoep el
OR M
v iseerd
Ġenzym atische
Ġverster king
Ġap icale
Ġz ieke
st ate
rel atie
G u
Ġvrijw illig
cell ijnen
ĠS inus
uit slag
P F
t omografie
te it
ĠIn t
On der
Ġkl onen
G C
ne x
ĠTE CHNIQUE
Ġmeng sel
onregel matigheden
Ġaange zien
ker n
Ġpr ikkel
Ġendotheel cellen
b ot
ri chts
Ġad ju
m ic
iÃ« tale
opath ische
Ġ eten
Ġpla cement
bo und
Ġpro fiel
ĠOn langs
it eren
ĠP F
b eerd
ĠPro f
Ġar it
et hyleen
Ġver loop
ruct ure
Ġper ip
Ġa min
Ġrem issie
Ġpar a
iron olact
am entele
ent ine
ĠS H
ĠTele consultatie
Ġvol g
gew richt
liot he
Ġbestude erden
oprote Ã¯nen
in ol
Ġge plande
Ġvarie erden
Ġherh aal
Ġbla uw
w an
def iciÃ«nte
ort icale
ten se
angi ografie
Ġovereen komt
Ġbe wezen
Ġbil iaire
ĠAo I
Ġmoe st
ĠG ABA
ĠF FR
ialis me
Ġintro ductie
Ġhoogst waarschijnlijk
ze ker
Ġomge vingen
Ġm L
ĠT evens
Ġsamen gesteld
ĠM omenteel
bas ed
ĠUn ivers
ĠP ark
Ġlo w
Ġp il
app ing
no v
Ġnec rose
Ġbe wegen
ĠB ili
Ġover ige
ĠV P
sp ecifiek
Ġal goritme
Ġweten schap
ĠG C
Ġh ap
Ġcomp artim
Ġne oplasma
be hoe
I s
Ġbas eline
Ġuit st
Ġinf luenz
p ost
Ġla min
Ġsympt omatische
ag greg
Ġlat ere
Ġochten d
ĠI M
B AT
CV A
Ġgroe iende
agn etische
Ġt aken
Ġeigen schap
ress ure
Ġmoe ders
Ġra s
ocardiocardi ocardiocardi
organis atie
(( ()
ect ine
ee ded
pro motor
organis men
oorz icht
Ġstij ging
Ġan astom
fosf orylering
Ġtechn ische
Ġcardio versie
and s
Ġn M
ak king
Ġinf lamm
Ġsu pport
ĠV F
Ġen e
Ġlong basis
Ġbloed armoede
ater ialen
Ġvergro te
Ġpat ch
Ġpancreat itis
Ġgepublic eerd
Ġrisic oprofiel
Ġc as
Ġsch ouder
Ġmin st
Ġepide mi
Ġs eizoen
Ġbijwer ken
Ġf ec
strateg ie
ĠChe m
res iduen
Ġgene zen
ĠL UN
ĠH C
Ġjun i
Ġn umer
ol ven
Ġverd acht
bet ering
rop athie
Ġge luiden
Ġzwangerschap s
Ġwerk ings
otrop e
h ist
agen tia
Ġabn ormaal
Ġsch er
oe kt
Ġgeraadpleeg d
ĠA den
ien iveaus
Ġlig anden
per t
Ġann u
lijn ing
Ġconst ante
S ucc
Y ROM
20 20
ver gelijk
ĠS al
m iteiten
Ġaut or
Ġecon omische
ot rans
perim ent
O pties
iv al
of luor
Ġp atiente
Ġvier de
B etreft
n T
oÃ¯ ne
ĠE ven
Succ eeded
Ġosse euze
Ġmob iliteit
Ġk b
Ġschizofren ie
Ġdik te
st ra
Ġre polarisatie
H yper
ĠF A
Ġi le
Ġk orter
ĠS im
Boven genoemde
tran sm
Ġmar g
Ġaf gest
Ġnano deeltjes
Ġkin etiek
aandoen ingen
Ġper me
ĠA ss
Ġa ureus
serv eerde
Ġm ij
Ġonregel matige
Ġvrij wel
Ġfund amentele
Ġe GFR
ach ycardie
ve olaire
i delijke
Ġen orm
ĠE lekt
Ġrecombin ante
proces sen
Ġoppervla kken
k linische
ĠCont inue
ĠL S
iÃ« mie
E E
ĠB al
Ġb ic
h ab
ne uro
Ġkan kers
it raat
Ġtermin ale
ylen ol
Ġcircul erende
ele ctieve
or rag
ĠG el
uw d
Ġparan asale
Ġasse mblage
Ġ are
Ġactiv eert
Ġun ivers
Ġreg uleert
form eerde
ct omy
ĠCh ief
f iciÃ«ntie
Ġafhankelijk heid
n ect
Ġbetrouw baar
yn aec
Ġs ites
yn droom
Ġver sie
B MI
er ine
Ġinter view
Ġprakt ische
v ig
ĠS VC
h ib
Ġm aakte
Ġpalp itaties
Ġc AMP
Ġpro gest
ader s
Ġkleur ing
ĠH CC
ine frine
vel op
e cho
Ġagressie ve
âĢ Ĭ
Ġs o
uk ary
Ġhist opath
G B
ver h
Ġmon o
Ġbot ten
ĠV oort
ĠA I
Ġpost operatief
Ġp acing
D ER
Ġop w
Ġverzam eling
ĠLin ks
se pt
av ond
ast ro
Ġcom m
Ġn od
Ġster oÃ¯de
Ġper itoneale
ĠM B
Ġcere bel
der de
ĠT O
Ġlevens duur
Ġcon ditie
los ure
ĠGen ome
Ġf outen
le et
CS F
ĠP UL
M y
Ġno vo
Comp lic
ĠT umor
Ġbijzonder heden
w eer
Ġz aad
ĠJ a
ĠNut rition
Ġgeb lok
Ġverwond ingen
200 3
Ġin structies
ĠA orta
Ġextrem iteit
ok okken
Ġle uc
ĠV ijf
Ġm urm
m ak
ran k
Ġ20 20
Ġimmuun respons
Ġsymmet rische
on at
Ġaan gebracht
Ph os
Ġat m
pro fielen
d urend
ĠE t
ithel iale
Ġvoorbere id
ĠoriÃ«n tatie
gor it
Ġpersoon lijke
ĠcreÃ« ren
Ġdat a
Ġb ip
nec rose
ĠP eptide
Ġanalyse erden
Ġverster ken
Ġgeleiding stijden
Ġinteg r
Ġverdi kt
Ġf oley
ĠA CT
ĠM entale
ĠH DL
oc o
ĠQT c
Ġlo opt
Ġrecon structie
k rist
ĠS N
Ġgez uiverde
met h
Ġrij ping
c yste
Ġman ieren
Ġsper ma
Ġblaas jes
n at
laes ie
Ġpro spectieve
Ġad sorptie
ĠT ype
ĠG H
Ġact ine
as h
s ion
ĠVerhoog de
Ġuitein delijke
ĠT ri
ĠV anc
ĠP ath
Ġpre operatieve
beper king
Ġchrom atine
V AD
i ste
Ġgro f
ĠVer leden
ĠS ur
R eg
ĠBew ustzijn
Ġovar ium
Ġre validatie
Ġt olerantie
Ġde let
bevatten de
Ġad vis
ĠVol gens
Ġin put
Ġvo ert
ĠI H
Ġad ren
s lijden
Ġover heer
ĠT emp
H oewel
Ġherzien ing
ge beurtenis
gest ief
V A
ĠP ers
Ġlongitud inale
Ġgecor rige
if tig
Ġover vloe
Ġgev raag
T rop
ad s
Ġv ene
vallen de
ĠgeÃ¯n fecteerd
Ġap ex
Ġur eter
id ae
Ġbehoe ften
l eten
ĠV AG
Ġcomplex iteit
ĠS ter
ot rof
Ġal bumine
ac illus
upp le
Ġl ijden
Ġf iet
oll ings
ventr iculaire
W I
Ġhor iz
ĠCalcium score
Ġhydro lyse
ep en
Ġbe de
duc eerden
ĠCh ina
ĠClin ical
Ġfarmac okin
Ġde generatie
Ġintub atie
ĠPO B
Ġe osin
ĠVerander ingen
Ġepi lepsie
Ġmaar t
Ġ( +)
Ġch ond
bal ans
ĠA A
Ġbil i
Ġzieken huizen
Ġ elect
ĠIn tern
Ġhecht ing
Ġcel proliferatie
ĠL M
ĠP a
Ġkrit ieke
Ġlange termijn
Ġk olom
Ġo kt
zen uw
ati er
Ġge optim
Ġafbeeld ing
Ġadequ aat
lo of
ry o
ve isel
Ġsu pp
Ġre produc
Ġcon clusie
Ġelektro l
Ġprim air
Ġgeb oren
O b
le eftijd
Ġbereik te
z i
Ġantioxid ant
ĠH um
Ġinsp annings
Ġal k
Ġn ummer
Ġmin er
Ġhydro fo
splant aten
Ġcon versie
ĠF I
wervel de
Ġdist aal
f un
Ġverer gering
Ġaud itieve
ĠH CK
ee sm
ist r
t umoren
ĠA ut
ĠU w
Ġk oper
ver schillen
ĠD at
Ġv ide
Ġmo der
aryn ge
Ġsem i
Ġbijn ieren
Ġepitheel cellen
Ġcon c
if en
Ġte vens
Ġcombin eren
Ġh anden
ver werking
VAL VAL
ruim te
Ġs al
is men
Ġdefect en
medi um
Ġfibro blasten
F e
ĠD ES
aal den
Ġk eel
Al s
ak om
Ġmilj oen
Ġst ra
ure se
4 00
Ġcentr um
p as
oc ortic
N atrium
et je
Ġvragen lijst
Ġsystem atisch
bre uken
on centr
Ġevalu eerden
Ġintermitt erende
Ġbe sloten
Ġge trokken
Ġal d
Ġbijdra agt
Ġdiscus sie
ĠM IC
Ġam iodaron
st ro
cel lulair
Ġerf elijke
n eemt
Ġaan b
D O
Ġper iod
me el
CON TRAST
Ġret inale
t eren
Ġkat alys
f et
ĠS m
Ġmiddel s
ar io
Ġs es
act iver
in et
it r
Ġkle plijden
ĠN M
Ġpatho gene
Ġf ung
Ġbev elen
ĠSt abiele
vas culair
Ġprob eren
Ġ#, #
N eut
Ġkrist all
Ġcytok ines
Ġh am
Ġaut on
bi ologie
In dicatie
Ġverw orven
di b
ĠHep arin
Ġcasp ase
Ġp ut
Ġmis schien
ap ine
Ġt hyro
Ġovereen komen
Ġlitte ken
ph one
Ġhemat opo
Ġsch rijven
Ġverzam elen
be heer
Ġp omp
spre king
poten tieel
Ġstr alings
ĠSt ress
ĠM MP
Ġw oon
Ġtelef onisch
Ġond oorzicht
Ġstop gezet
ier s
oph ila
Ġgead viseerd
ĠL ymf
Ġv aardigheden
Ġscha delijke
ab latie
Ġbew ust
Ġt oxische
Ġpersoon lijk
Ġident iek
Ġprot on
Ġ10 5
IT AL
tra at
Ġvir ul
ik e
Ġarter i
Ġin testinale
ĠM P
ĠS A
Ġin duceerde
Ġg b
is o
Ġplacent a
Ġbek ijken
Ġeviden ce
H oofd
ast rische
Ġhyp og
Ġsuper ior
Ġcol itis
dela ar
ge keur
Ġgevraag d
Ġimmuun systeem
Ġt ol
Ġkru k
at ose
akom elingen
Ġactie s
âĢ Ŀ
Ġme is
Ġneuro de
Ġ200 0
Ġc um
Ġy o
H b
Ġover vloed
Ġgedocumente erd
Ġsuik er
ĠLe v
ir atie
ep er
hou dt
ĠSign ific
Ġo st
Ġmedic amente
Ġpat int
Ġb ood
Ġna vel
re di
ĠD ata
ap opt
Ġre umat
ĠL ABS
ĠOn s
ox yl
Ġs ectie
aat st
Ġf lav
Ġse quencing
Ġhyp ok
yp s
ĠVer wer
ĠAmbul atory
Ġre bound
us pen
form ul
LV EF
Ġsim ulaties
ameth ason
men teerd
Ġevent ueel
ĠM M
ĠL un
Ġbere kenen
ĠI U
Ġstier f
Ġont staat
ĠW arm
ransp ort
stest s
Ġing u
. (
z ym
Ġn l
be v
Ġop komende
Ġp ublic
O F
Ġmonokl onale
Ġtra d
o du
ĠCond itie
Ġpijn st
Ġdw ars
Ġasc endens
Ġmid line
Ġop io
Ġdosis afhankelijke
ĠSub st
Ġsp oor
ĠK en
gan gen
in ase
xim al
Ġchem ot
Ġgewoon lijk
Ġu bi
ĠR en
Ġb ack
Ġde mp
Ġs lang
assa ys
wij f
de c
Ġp osition
Ġgroe ien
acil ity
Ġp ren
ĠCon trol
Ġt we
ĠRespir atory
ĠAll erg
Ġtoe stemming
on zuur
oe ps
la y
Ġgecon serveerde
l eren
osit ol
la sten
oppervla kte
Ġsch apen
Ġcyt oplasma
Ġap ril
ie pen
ĠL aatste
Ġresp iratoire
Ġb ur
ĠOnderzoek datum
Ġgemute erde
ĠE Ã©n
Ġmicro tub
Ġpro duceert
Ġmon ocyten
Ġv est
waar dige
Ġg r
aliteit en
n og
Ġverslechter ing
Ġfoet us
Ġfem ur
huis medicatie
ant ia
Ġven a
coÃ«fficiÃ«n t
ho ut
ĠV CI
Ġr isk
yt hm
B as
ĠMole cular
re mming
hersen en
i ro
Ġbil ater
Ġverl oren
Ġ200 9
ĠT ran
op re
mole cuul
Ġen quÃª
vas cular
lo ste
Ġafwijk ende
Ġoptim aal
gor de
kk oord
Ġf out
Ġda ags
Ġmass aspectrometrie
l er
ĠD a
Ġge oriÃ«n
Ġgra ft
Ġnier ziekte
Ġgradi Ã«nt
m pl
Ġar te
v it
Ġcor rect
Ġam b
Ġhier boven
Ġcoronair en
Ġinst ellingen
Ġm as
Ġfract uren
Ġob ject
Ġcoron ale
Ġc ursus
Ġlang zame
Ġsyn dro
" .
om orf
ĠT r
Ġtoen eemt
Ġhe x
ĠRe search
S G
ant woord
ĠBewustzijn sniveau
ĠP rim
Ġan a
Ġw oorden
D G
ĠGro te
abd ominale
ĠB IL
jun ct
anti genen
Ġdis soc
Ġap othe
Ġvol gorde
Ġst aken
Ġabsol ute
Ġun iek
ot omy
Ġo sc
Ġt im
Ġb oezem
Ġgespec i
Ġsil houet
tro p
Ġkinder tijd
z yg
Ġro ok
ĠCV D
Ġex tub
elekt ro
Ġvis ueel
R oken
Ġadap tieve
Ġcon sensus
ys accharide
Ġtrans f
Con genitale
Ġknobb eltjes
pre staties
gen eeskunde
ferentie el
Ġpreventie ve
ĠL eft
vorm ende
Ġver ontreinig
m cg
ĠD ist
Ġvle es
R ADS
Ġwe ke
Ġdraag t
Ġhypertensie ve
Ġlinker boven
ĠNo te
ĠB o
Ġaf st
Ġline air
t ijden
Ġnadel ige
Ġhem odynamische
ĠA s
ĠH uis
Ġont h
Ġco herent
ate uze
Ġlaag ste
ol ic
lij ft
Ġcytoplasm atische
Ġkin etische
Ġp aren
D octor
ĠEurope se
m ann
schijn lijke
spercentage s
ĠM en
f e
Ġrapporte erden
be kend
Ġsp raak
st reng
Ġan alytische
Ġdomin ant
Ġgeb le
200 9
ve d
pro fiel
ic eren
Ġf urosemide
Ġmater nale
Ġdeel s
Ġaf geb
Ġfamilie geschiedenis
insuff icientie
st oestand
Ġwijd verspre
Ġgevalide erd
ĠS uccesvolle
ĠPark inson
Ġf asc
anim atie
ofage ale
Ġj uli
Ġover matige
i atief
Ġt rim
el z
ĠH oe
Ġa mmon
etting reactie
ver di
Ġreg ime
p yr
ad y
Ġtoe standen
ĠM ut
ĠE GFR
Ġs lank
ĠN eemt
ĠC MV
Ġpar oxysm
ul s
Ġdru kken
Ġfamil ies
vol ge
Ġro t
H E
Ã¯ s
sen d
order line
Ġanat omie
Ġsp or
č Ġ
au ge
val ente
Ġl iet
Ġvoor beeld
Ġontlast ing
Ġlever ing
ĠCT AB
b eleid
Ġb p
Ġz ak
gorit men
n ormale
Co V
H em
ĠE S
G G
centr um
Ġ[( **
l ichting
Ġf yt
Ġtelef oon
Ġhart ziekte
Ġdelt a
vent s
aam d
Ġverdo ving
Ġherken ning
er um
otor ische
bri le
ĠC reatinine
Ġcomp lete
ant ies
p i
ĠS I
ro ei
Ġgoed gekeur
ma ak
han s
Ġtandheel kundige
in str
och rom
Ġfix atie
entr iculaire
Ġident iteit
Ġstam cel
ĠB acter
Ġloc i
Ġp ig
Ġt ro
path ische
och emische
Ġre gelen
vorm ingen
Ġaanv aard
ic an
ĠV AD
Ġg ron
un it
kla sse
em de
os ering
Ġv ector
Ġcommerc iÃ«le
ĠN ational
g u
Ġverwij ding
Ġe ukary
bum in
Ġter m
un ct
ab sorptie
ib ele
al dehyde
ail ure
Ġn ul
HH HH
Ġmethod ologie
3 00
sluit ing
adig ma
stre eks
Ġant ib
Ġth i
af name
st on
Ġnaar mate
mo gelijk
Ġsamen werking
el low
ĠCor on
Ã« in
Ġtrans locatie
Ġcardi opulmon
Ġmoe ite
Ġg a
ĠgeÃ«xtra heerd
ĠT romb
Ġher p
pers oon
Ġletsel s
rij f
dien sten
Ġaantal len
Î ³
idis ciplin
ect atief
iv aat
ĠRe act
Ġca ud
R itme
Ġasymmet rische
Ġverz oek
str al
ik elfunctie
Ġzicht bare
iket tering
st il
Ġsp oel
Ġbi osynthese
g l
eut ische
Ġkunst matige
gekopp elde
ge erde
Ġant erieure
Ġb Ã¨t
ĠAC S
Ġpassen de
Ġsil ic
ĠL ymph
Ġfrag menten
fosf ory
eer baarheid
at ic
da gen
Ġdi afrag
Ġverh ogingen
Ġh x
Ġevolution aire
ĠR icht
aar de
Ġverduidelijk en
Ġla ding
lass ificeerd
m isch
il eren
Ġreg urgitatie
Ġoverle vings
) ).
Ġlinker kant
ĠVerwer vings
Ġpla veisel
Ġcomp ut
ĠZ eer
ff ect
ig ratie
he mat
Ġpro jectie
Ġadem geruis
iv irale
Ġem issie
Ġziektever wek
Ġdo et
form ine
Ġritme stoornissen
k om
ho d
ĠV AP
ĠK nown
ra ine
ep s
Ġsh unt
Ġsubc utane
Ġwand onregelmatigheden
Ġkwaad aardig
Ġs ac
op te
Ġep it
Ġover b
Ġachter ste
Ġsugger eerde
ĠHel der
ĠG aat
Ġzorgverlen ers
Ġerytro cyten
ĠC lear
Ġrecht streeks
ij fer
T ele
on afhankelijke
Ġf ibr
Ġtijd s
ĠM r
transcri ptie
ĠSoc ial
Ġ- ((()
Ġover lijden
ost on
uur de
M on
Ġhe ad
Ġver niet
ĠCH F
Ġtra ch
Ġsp len
he ers
Ġgeble ken
ĠL H
al ige
p atiÃ«nt
Ġneut rale
ĠgeÃ¯ mp
et e
Ab d
ĠGen eral
Ġfract uur
i atieve
] ):
Ġbel ast
uur s
Ġvoor behandeling
du bb
acet aat
Ġ- >
ij ft
Cardi omyopathie
Ġvrijwillig ers
P acemaker
ĠS E
Ġt ong
Ġsim ulatie
bin dend
Ġh i
ĠO rale
Ġgen aamd
Ġnet vlies
Ġzw angere
Ġvag inale
ar ingen
Ġ10 2
Ġclu sters
Ġf o
Ġosc ill
Ġlymfekl ieren
Be handel
Ġintra m
Ġdysp neu
Ġtab ak
Ġpart ner
Ġn akomelingen
Ġinterfer on
Ġcon gestie
te min
ĠChirurg ische
Ġapopt otische
ogra ph
ĠL ang
de pen
ob er
Ġtubercul ose
os us
ĠB uik
Ġt un
Ġaden ocarcinoom
er c
iz ation
Ġdrie dimensionale
ĠAC E
Ġindirect e
Ġseks ueel
wer kers
prote Ã¯ne
ĠS L
he et
m oord
Ġv acu
ĠN on
Ġtrans form
ĠB re
Ġnatuur lijk
Ġd urende
elekt ronen
d ings
Ġtev reden
Ġtek orten
oen ame
ac yl
Ġaccess oire
ĠH PV
ocyt aire
Ġster n
Ġsom atische
Ġsp annings
ir al
Ġho uding
af e
Ġ() ))
Ġcar otis
min er
Ġboven staande
ress ing
Ġhart frequentie
Ġbestude erde
Ġmyel oÃ¯de
Ġge komen
Ġ0 6
Ġoptim aliseren
Ġverstre kken
Ġ ie
Ġvergelijk ingen
Ġinst antie
Ġbest eed
t et
Ġb ellen
oc yst
Ġgeb leven
hel ft
Ġbe zig
ation aire
ol onie
ĠMEDIC AL
Ġrisic ofactor
Ġver wer
Ġgene zing
ĠZ es
spra ken
Ġaange tast
Ġcor pus
ic on
Ġwaar om
Ġster f
oc el
dem ie
age ert
Ġp res
Ġnorm al
im age
Ġp ad
tre kking
ĠF acility
ot te
AP T
n ers
Ġer kend
Ont slag
be scher
Ġintra per
en g
Ġdrin ken
Ġverbet eringen
Ġmy ocardiale
ĠR os
m aanden
Ġhom ogene
- <
Ġpar ac
ve erd
ĠS u
p raktijk
Ġgek lo
Ġref lex
ĠP NA
ĠS ounds
du it
ĠL asix
Ġdec ember
um in
ĠAl gemene
AS ON
Ġeryt heem
ĠI S
Ġervar ingen
ru it
Ġgesla chten
ĠA ction
n ings
ĠHe ad
Ġc ocaÃ¯ne
Ġop brengst
Ġgew richts
Ġschat tingen
Ġb ind
EGEGEGEG EGEGEGEG
ingen omen
ast er
sie f
Ġpre mat
onucle aire
ĠE OMI
ag land
Ġveroorz aakten
Sp ec
Ġverschil t
i ak
dra agt
asse mblage
Ġper spectief
ob structie
Ġsch oon
Ġgelijk enis
ĠTot Bili
Ġj u
Ġver plaat
Ġan icteric
# )
and ing
Ġv rijk
ger eg
osom aal
Ġlinker nier
Ġn itro
um atische
Ġubi quit
Ġbel emm
T wee
Ġepider male
m arkers
v ic
Ġvanc omycine
R H
at ure
ru st
Ġgeblok keerd
Ġkrit isch
Ġbinnen ste
Ġex t
oc y
ee p
Ġp g
Ġtrop onine
sm etting
ĠÎ¼ g
amin en
m orf
Ġafwijk end
ĠL DH
be se
Ġp m
Ġv lucht
Ġde l
re d
Ġgec lassificeerd
kle ur
Ġprof ylaxe
re c
Ġfre quenties
Ġp aden
ĠP e
spat ronen
mon oxide
Ġsch erp
ĠEer dere
ig d
Ġcerebel laire
z ige
Ã¯ den
umb er
Ġfra ction
Ġp ac
IND INGEN
fer ische
el ke
cu le
Ġminu ut
Ġn ationale
Ġdiep te
ĠV al
ĠâĢ ĵ
ĠAllerg ies
Ġveelbeloven d
Ġa kkoord
m embranen
Ġmodi ficatie
w eten
Ġr ijk
Ġon behandelde
Ġax illaire
Î º
ĠEl ke
Ġdif ferentieel
K A
uc cin
ec on
w al
Ġre activiteit
ĠH B
Ġl ateraal
Ġhem odi
sper iode
Ġr it
Ġf ibrill
verwij dering
hy d
ep ten
af spraak
l ys
ĠIm aging
Ġm V
Ġb undel
ĠN et
Ġgro ene
Ġaan tekeningen
Ġend ocarditis
Ġsamen gestelde
Ġsper mat
Ġhuid uitslag
t ak
er isatie
bra ken
of arynx
Ġo es
Ġge tra
Ġlymf klieren
line aire
E chocardi
: \
s onde
Ġcap illaire
Ġwerk nemers
H ij
Ġf ila
in ductie
ĠG ram
depen dent
k appa
Ġgest andaard
or aal
eeee eeee
he ugen
oc ation
orb ide
is ende
Ġl ot
Ġondoorzicht igheid
l ion
og roep
Ġloc us
ĠAlk Phos
ĠDif ferent
implant atie
eigen schappen
Ġk iem
ge s
Ġafw achting
ĠCh ronische
Ġtek st
Ġexp ress
vari anten
n al
Ġvoor beelden
B i
ac ry
da ad
Ġverschijn selen
Ġer ger
Ġaant onen
Ġimmun ore
Ġfol l
Ġactiv ity
V L
Ġvet zuur
ĠT AVI
Ġechocardi ografie
Ġhydrofo be
Ġgevorder de
TE IT
t etra
Ġvergemakkelijk t
Ġbesluit vorming
Ġ10 4
con tra
gest imuleerde
ut ies
ĠCC U
klep afwijking
aar ten
ost omy
ĠMole culaire
Ġwervel s
Ġo sm
: "
Ġfre quent
ĠgeÃ¯dentific eerde
heren te
ĠG ed
Ġcon clusies
ym p
ace ae
Ġvoor waarden
Ġuit put
Ġretro spectieve
Ġch loor
Ġfenot ypische
Ġoper aties
Ġarit mie
ĠSt art
Ġwe der
Ġbloed verlies
woor den
Ġb last
Ġfamilie leden
ĠV itamine
Ġber oeps
m ark
behandel ingen
Ġor b
i qu
oven de
Ġpijn lijke
G Y
en ario
Ġl uc
Ġp ool
la chten
Ġf un
Ġnanopartic les
t ube
Ġdecen nia
ĠRes ult
Ġbloe dt
la u
Ġgren s
Ġwel zijn
Ġr i
Ġged acht
Ġkl ier
Ġarte fact
om ere
n atale
ĠB MI
Ġher schik
Ġgelab eld
H B
Ġexc isie
Ã« ro
Ġopac ificatie
a chter
ĠGL UC
ĠWe stern
oe s
onder d
dt ronic
Ġsten en
16 0
Ġpseud o
actie s
Ġklas sen
gra di
ĠSt re
Ġzeg t
Ġfeed back
Ġextra cten
ero be
Ġp ed
Ġd ox
Ġw h
Ġs i
em aal
ĠN oord
Ġelektronen microscopie
eff usies
ĠS NP
di vid
Ġhol ter
p akt
ell ers
Ġv iew
ĠU l
Ġgek want
CR E
P G
Ġt akken
Ġverzw akt
Ġgew one
ĠS oft
Ġventr ale
Ġt et
p on
Ġo k
Ġis ot
Ġgen otype
te erden
Ġgrij ze
Ġonder drukte
Ġspect roscopie
iv alen
hydra at
mon ella
ibiot ica
ose pt
Ġper cept
f iguur
MD A
ron ch
Ġbe middel
yl zuur
st atische
ĠE SR
ĠZ org
Ġcolor ectale
Ġmanifest aties
gra at
hy se
ĠCH est
Ġmic ron
gra datie
Ġp a
Ġsec onden
erie ur
Ġa us
Ġr onde
Ġopac iteiten
ĠE FO
om al
Ġgemeen schappen
t ine
Ġ ic
g kin
re x
as al
Ġblokk eren
Ġgez in
Ġk ippen
er bare
Ġtricusp ide
b indingen
ĠIV C
ren gt
di ameter
CV D
Ġgra f
le ur
ĠDif f
Ġ17 0
j ab
Ġaan merking
gele iding
ep ro
neum onie
Ġbi ofil
ĠAd mit
Z S
Ġ( ).
Ġevent uele
ĠS M
oel ing
Ã¯ne zuur
T T
ĠBle ed
Ġsp ort
Ġfil ms
Ġonder werpen
enchym ale
i ation
ijf heid
Ġimmun oglobuline
ĠG ra
Ġzoog dier
Ġar be
S ch
dic ap
Ġtest osteron
Ġconserv atief
voor sp
Ġfist el
Ġimmun ode
Ġ **]
asc ade
U B
Ġval t
ser ie
id azol
Ġvertro uwen
Ġx en
ĠN STEMI
Ġuit drukken
enz ymen
ĠN YHA
ĠN aar
Ġslijm vlies
Ġpneum on
ĠG oed
ib iliteit
st uk
lo Ã¯de
ĠP ER
an amnese
H ep
ĠV and
ĠI dentific
Ġcomp ens
a vel
Ġep igen
rom us
Ġver waar
Hart klepafwijking
ĠF ull
Ġmuc osale
Ġant ine
as eerd
Ġsch ak
Ġcell ijn
Ġser a
200 8
z igen
ĠM n
AC E
ante erd
Ġover wegingen
Ġgeaut omat
in suline
Ġgla s
Ġf ab
Ġreage erden
lycer iden
ang schik
ag d
b pm
p osit
ge houden
een d
spect ra
ĠStud ies
Ġklim aat
Co A
zw ollen
Ġkarakter istieke
Ġ200 8
Ġlever ziekte
yla ct
Ġvarie ert
em ic
Ġweer gegeven
Ġp up
itu atie
Ġmultip le
ĠCor onair
Ġkwant um
Ġonth ult
Ġr iv
ĠG a
Ġpatient s
R O
ĠD us
ik t
Ġinfil tratie
Ġsympt oom
ĠPE EP
Ġachter uitgang
os ol
ĠM yc
ang io
Ġsnelheid s
Ġstre pt
Ġbeg int
Ġt ox
ĠDe el
fosf at
Ġbere keningen
Ġplasm ide
vat slijden
or ose
ific eerde
Ġbi ologie
ĠCAR DI
Ġcol l
ĠP en
ĠIg M
Ġkwal itatieve
na ag
omy el
Ġaan deel
ĠT M
ĠTablet PO
Ġhan del
percentage s
x t
ĠMedic ijnen
Ġe jectiefractie
of yl
Ġmis bruik
ab iel
Ġverh inder
umar ol
Ġbed re
Ġschimm els
Ġvle kken
ĠHier in
p r
Ġvergelijk ende
le y
ĠP seud
om eter
Ġf ag
ĠI P
ge luid
Ġc ancer
vlees klier
Ġhist on
ĠT A
Ġgal wegen
ĠF YROM
Ġeer stel
oz yg
Ġbuiten ste
ĠN R
Ġ10 3
Ġinst abiliteit
ĠA x
Ġmis lu
Ġbevestig den
Ġlinker zijde
wit ch
omyc es
Ġwijzig ing
ĠÂµ mol
ĠB LE
Ġgeb eld
Ġboven genoemde
Ġi di
Ġveil ige
Ġrelev antie
Ġherken nen
Ġmolecuul gewicht
Ġzelf moord
ane ur
zo als
Ġkwant itatief
S c
ĠRE ASON
Ġaf scheidingen
di ale
h n
men d
Ġsul ci
Ġpoten tie
a ined
we kt
ĠV ES
der daad
D F
ĠSK IN
ĠD o
polym erase
ap ro
ic ide
j pg
20 21
ĠPer r
ĠP PI
r atio
P ulm
Ġpresen teerde
Ġbegele iding
V ER
Ġdend ritische
Ġbrad ycardie
g lob
ĠR N
Ġimplant aten
us ion
as ische
Ġangio tensine
Ġmer k
men ted
Ġimmunos uppressie
ip rof
voe ging
Ġch or
Ġinstr umenten
adem ing
Ġzw arte
ere cept
Ġro tatie
Ġhetero zyg
Ġzenuw en
del inge
Ġextra ct
Ġtrans fer
re plicatie
dw z
Ġs cintig
Ġvo er
Ġge per
se quent
Ġs mal
be vel
Ġl an
Be kend
u im
CH O
Ġob structieve
rache ale
Ġalcohol gebruik
Ġfy siek
tellect ual
Ġ13 5
Ġonthul d
Ġvaccin s
it ting
cell ijn
10 3
Ġwor t
in eren
ĠB ilaterale
Ġradi ologie
ĠD ra
ĠIn it
Ġat rofie
ĠV itale
Ġpla qu
ĠT max
ĠN A
Ġobserv aties
Ġbeoordeel den
ys lipidemie
cell ige
Ġep ilept
Ġom zetting
G en
ox is
de hydrogenase
Ġvat baar
Ġvo gels
ĠLun gs
ati bel
Ġverw ar
Ġverm ijden
cub eerd
Ġ11 5
Ġasympt omatisch
Ġwerk zaam
Ġg ynaec
st an
ver t
Ġbe smetting
Ġaan trek
r s
Ġpatho genen
ĠCR E
for atie
prote Ã¯nen
ĠAD D
Ġprogest eron
on yl
Ġbe urt
ĠS B
Ġweten schappelijk
Ġwijzig ingen
ĠD et
Ġvroeg tijdige
geven de
stij l
ven de
p te
osyn thetische
Ġdarm geluiden
or iseerd
Ġgeleid ings
ger y
Ġpercentage s
Ġvoorlop ige
ĠEer ste
Ġventil atie
ont werp
Ġdiur etica
K K
Ġp ent
Ġselect iviteit
OR Y
ĠCardi oloog
Ġbetrouwbaarheids interval
Ġhier voor
Ġbasis lijn
b il
ĠF EN
volg ing
Ġver kennen
Coronair lijden
ma akte
vir ussen
ation eel
en oco
Ġon line
Ġpar iÃ«tale
ale s
c k
id ingen
f low
Behandel plan
Ġc ann
at atie
Ġr ijst
c r
Ġap icaal
kk age
Ġal pha
Ġser ine
Ġep id
bre ed
Ġc utane
Ġat t
ĠLUN GS
la pp
Ġreage ert
or ptie
Ġrec idiverende
n es
Ġrug pijn
Ġvoedings stoffen
Ġ(- )
V AS
Ġfylo genetische
ut ing
N N
ist isch
Ġk ation
Ġconf iguratie
Ġpost natale
ĠC t
on ing
Ġroutine matige
ĠcoÃ¶rd inatie
Ġdig itale
el ementen
ac ute
Ġzij de
ĠUit gebre
Ġneuropath ie
ironolact on
ĠEx tended
Ġgelab elde
ab ap
L T
inf il
ĠET T
ĠH Y
seff ecten
op sis
Ġben auw
ma ken
ar ray
oc us
Ġlig ament
Ġe iland
Ġverw ant
gew richten
Ġcontinu eren
gebeurtenis sen
Ġdra a
Ġtranscriptie factor
Ġantic on
ros ophila
T c
sne den
Ġhepat ocyten
ĠN og
Ġh ab
id t
Trop nT
ĠGLUC OSE
Ġimmun ologische
Ġverst or
Ġgebruik ers
Ġre plic
Ġprop ofol
LE T
Ġstab le
ĠG TP
e brile
aan ge
ĠS ulf
enoco umarol
ĠS W
Ġkl aring
ĠT LR
defect en
Ġt ap
ele ctie
lo er
C F
ĠMult ip
qu in
stre erd
Ġgedifferentie erde
Ġbe Ã«in
scri pt
el ings
ar ach
Ġantibiot ic
Ġw is
in yl
Ġdisc rete
Ġged ra
Ġautofag ie
ĠV as
pl at
Îº B
ĠDer gelijke
pat ho
Ġf ull
Ġbla deren
Ġ( >
Ġt om
Ġgem ak
Di ameter
ĠWaar schijnlijk
Ġgekwant ificeerd
Ġdi urese
ĠB r
Ġimplic eert
Ġant er
Ġcomputer tomografie
ĠS en
ĠSt ap
Ġintern ationale
ĠM el
uff er
b is
Ġclass ific
f arine
ĠâĢ Ķ
ĠN ormal
Ġuit lijning
Ġpijnst ill
Ġref lux
Ġcortic oster
Ġsyn cope
ind opril
C E
ĠOn verander
ocyt openie
oc atie
Ġsitu aties
AG E
ĠQ PM
Ġgev oed
Ġdeel name
ĠImp ression
dra in
z ine
he sen
vl iezen
Ġ8 00
is a
spat roon
metast asen
Ġpol sen
Ġtum org
Ġweerspiegel t
Ġalkal ische
inter ventie
Ġn s
Ġtra ject
Gu iding
Ġvoort durende
ri aal
ble em
ĠP AN
Ġhypot halamus
Ġl ijst
Ġecht gen
il t
ij en
Ġm ill
ud ingen
is c
Ġinjectie s
ule s
ff usie
on ers
ĠSpec ial
fibr ileren
Ġwand dikte
I UM
Ġhart ziekten
ĠCS F
ID E
la gen
ĠS odium
Ġwor k
tro mb
ĠAf rik
ĠStud y
d urale
ch emie
Ġgez ond
die et
Ġhart infarct
Ġhoriz ontale
Ġont st
Ġreage erde
Lab oratorium
Ġvari antie
Ġverlen ging
Ġherh alen
ĠEer der
Ġhel emaal
Ġlast name
Ġp yr
dra chten
igen schappen
T M
Ġk atten
Ġgepro beerd
/ [
Ġplasmam embraan
sul in
Ġsterf gevallen
he d
orator ia
Ġc lip
c ancer
+ ]
Ġl us
Ġge transp
Ġg ar
Ġopge loste
ur c
Ġterug ge
h ier
ĠSt able
Ġinse cten
ĠL at
Ġâī ¥
Ġoplos middel
obacter ium
ĠNe w
10 5
Ġasympt omatische
Ġpremat ure
ri v
mer ican
sem ble
Ġgradi ent
od gkin
abil ity
yst er
ĠTE E
Ġland bouw
we zige
Ġconst ant
Ġan aly
ĠBloed druk
R M
ĠH z
Ġder ivaten
Ġverschil de
d rempel
pl atine
ĠN eck
ver binding
Ġbe draagt
Ġaange vuld
ou ders
alis ering
Ġselect eren
Ġdi abet
ar co
S e
Ġtim ing
Ġsluit ing
Ġsom at
ĠM G
el lect
ge lab
et ic
Ġdemp ing
ĠB A
ĠS VT
Ġwij zigen
H F
Ġinter ageren
ĠAlle en
Ġgesc re
ĠW h
ĠM it
Ġgecon strueerd
t je
ster ase
b or
sub eenheid
Ġbew aking
d ate
oos heid
ro ugh
Ġru is
Ġret entie
Ġz us
A p
Ġp sor
Ġge vo
Ġvoorsp elling
ĠF urosemide
p omp
Ġr RNA
ĠEx amination
Ġfib rin
im en
Ġmax illaire
Ġk naag
Ġfluoresc erende
Ġal vleesklier
Ġverzw akte
re am
er a
Ġchromos omale
Ġam p
acc ep
ĠPro p
dic eerd
T huismedicatie
Ġepidemi ologische
ĠgeÃ¯n cubeerd
Ġangio genese
O r
en ce
ib ilisatie
h t
Ġtoe gankelijk
ĠU S
Ġuitge scheiden
Ġcel oppervlak
ĠS cler
ast olische
Atrium fibrileren
Ġoverw innen
Ġboven dien
fibrill atie
N B
sne de
klin isch
Ġfractie s
Ġin gebracht
e ar
out ine
ĠN eg
ĠBas o
ĠE M
ĠPertin ente
Ġt arge
Ġprest atie
Ġp ubl
ot hyro
(- )
ĠB io
TR ACT
Ġcomfort abel
Ġred ox
Ġmalign iteiten
Ġdaar bij
Ġcon dition
Ġact uele
ĠBal ance
Ġe e
eff iciÃ«ntie
ĠBelang rijk
Ġl ob
dro eg
i deren
Ġex ogene
oc ine
Ġex tern
Ġant is
Ġserot onine
Ġdis locatie
Ġste ady
s ymptomen
Ġnauw e
ĠC ell
ĠRES P
Ġnumer ieke
ol d
t ic
I m
T OR
ant agonisten
ge heugen
Ġd yst
Ġcons umptie
ar act
Ġoede men
L I
Ġpro these
Ġcel typen
Ġopge zwollen
Ġconst itutie
ĉ č
ĠN V
it aal
Ġminim aliseren
ĠL ongen
g i
Ġposit ies
ĠKort om
vir ale
gen t
Ġtechn ique
le c
Ġafbeeld ingen
Ġrobu uste
Ġant ivirale
Ġev t
uit wisseling
Ġplotsel inge
Ġsyn thet
ĠM E
Ã ī
ĠB C
Ġcas us
ĠK an
ĠD rosophila
In tellectueel
il iseren
ire d
w as
Ġtranscript ies
elekt rof
omyel itis
Ġreticul um
Ġru stig
ĠVanc omycine
ar ning
ĠTI A
Ġpar ameter
pla sie
ĠAF GE
n s
T NF
Ġend ocriene
ĠSyst em
os on
ĠPK C
agen t
Ġb oom
Ġsyn erge
Ġradic ale
Ġvert icale
ĠOnge veer
kw adrant
Ġperme abiliteit
Ġ200 7
Ġb ody
ĠB ra
Ġmetab oliet
l id
Ġchromos omen
Ġjaarlijk se
Ġneuro transm
st ren
Ġrun der
Ġz et
Ġv rien
Ġt wijf
Ġimplant aat
i ac
s lijm
oede isende
pl anten
Ġb oog
frag menten
met hy
Ġcav a
Ġregul ator
Ġplat form
ath y
Ġeic ellen
k ap
Ġafzonder lijk
Ġt reatment
Ġin druk
Ġdon oren
W A
Ġco un
u in
Ġin nov
Ġom ringende
Ġw ens
EP I
f eren
Ġper ioden
ĠC AT
Ġpro ximal
iaz ide
Ġp ressure
be oor
Ġhel pt
ĠLY MP
il atie
ul ator
z ak
Ġsla gen
Ġtach y
ĠM aar
Ġrechter nier
Ġaortaklep stenose
Ġvoorlop er
re ductie
Ġf ron
ĠDis ease
ra chte
log ie
acer b
verw ante
Ġrobu ust
te mber
p rim
Ġsp p
w en
ĠB AT
Ġgem at
on se
ĠA sc
Ġne u
transp ort
Ġpro duceerden
Ġp yl
ogen iciteit
PR EHTX
Ġsten osen
Ġmodel lering
ob ut
Ġbij lage
Ġkwantific ering
Ġcycl i
oe f
Ġbez ocht
t oxiciteit
G ene
Ġoefen ing
Ġnicot ine
Ġf eeds
ĠB AL
Ġgevestig de
ĠP AR
ĠIn dependent
pla sm
Ġle pt
termin al
T romb
il la
Ġl ytische
Ġru we
Ġopmer kelijke
Ġk e
v ige
ĠV EGF
Ġmob iele
F inding
O peratieverslag
Ġlong ziekte
Ġmon itor
tal ing
Ġge wervelde
Ġterugk eer
Ġs arc
U V
Ġr andom
ab ole
âĢ ħ
Ġster iele
el y
wij d
Ġmult idisciplin
ust us
11 1
ot oxiciteit
Ġant rum
Ġaanbevel ing
] ).
c alcium
Ġan ion
Ġextra hepatische
duc erende
- )
U CT
le dige
Ġun it
Ġcereb ell
Ġacetyl choline
Ġc oc
mit ies
pol y
Ġlid ocaÃ¯ne
Ġet n
ver tra
ĠP B
ro tische
ĠF er
ABS TRACT
Ġsyst olisch
l ationele
on c
Ġcombin aties
f ron
Ġvertegenwoor dig
Ġverw achting
Ġac adem
Ġontstekings remmende
ĠTw o
Ġin te
OOR DEN
Ġc TropnT
Ġn mol
ĠL a
Ġcereb ro
Ġvolto oid
Ġver plaatsing
Ġstud y
Ġge ografische
z one
L in
ĠL IMA
ast inale
: //
fol ders
ĠIn tellectueel
l on
Ġa qu
ab ases
Ġb os
Ġglob ale
iprof loxacine
Ġhet zij
ine sc
Ġclin ici
ofluor escentie
ent wintig
Ġvoe den
do et
Ġvol um
TE S
21 21
ĠAFGE K
ĠSignific ante
un ning
lin k
Ġ1 12
Ġde ed
Ġsignaal trans
B NP
Ġverkal kte
Ġzwaar lij
ste en
ĠO pt
Ġcir cu
contin entie
Ġoppervlakte actieve
lam ide
Ġvis sen
verb ruik
os an
Ġcon nect
Ġl op
ra ys
sch ouder
ĠW OORDEN
Ġendot hel
Ġhy dr
Ġ uren
Ġrood heid
Ġinge deeld
Ġreg istratie
ĠV ent
Ġall er
Ġf it
Be spreking
Ġbre iden
ĠPro cess
Ġvoel de
Ġontwikkel t
ĠT ID
P ar
Ġocc ip
ĠSubst ance
s up
form at
ĠS ARS
ĠU A
Ġex on
Ġsig moid
Ġon gebruik
.| |
K nown
Ġ10 9
pleeg kundige
Ġr s
min istr
ĠR am
ĠgeÃ¯n diceerd
ram ine
Ġbaarmoeder hals
ĠproteÃ¯ne kinase
Ġop tie
Ġhemodi alyse
Ġc atheter
Ġcort isol
Ġoptim alisatie
Ġopsp oring
Ġwaarschijnlijk heid
ĠV O
Ġna der
Ġeet lust
Ġbro er
N ier
ve mber
Ġscler otische
Ġal veolaire
Ġkwest ies
digen d
g o
ion ine
S oort
Ġbul k
Ġvoor schrift
Ġpsych ische
Ġledem aat
Ġden ken
min uut
Ġabd omin
last iek
Ġco umadin
Ġtren ds
L aatst
ve ment
sch alige
ĠCK D
Ġverspre ide
Ġenorm e
ĠRC X
Ġgebru ikend
Ġl ute
st olerantie
re igende
a Ã¯
Ġhemat oom
Ġlymf klier
gro te
10 2
of ib
Ġresult erend
Ġec ologische
v oorz
domein en
it oren
Ġsub jectieve
ĠA dem
ed antie
ĠTAB PO
Ġpl anning
ĠR outine
Ġwerk elijke
ĠN I
ul laire
D omin
ys is
Ġvoorbere iding
Ġgelok aliseerde
ogen en
W P
Ġf entanyl
H eeft
Ġmodi fic
Ġstim uleert
b undel
sign alen
Ġlong velden
Ġsp ij
ĠL BTB
Ġherst elde
controle erde
p ine
ĠW T
Ġsuper oxide
Ġbeeld vormings
Ġgespeci aliseerde
Ġox y
st oename
Ġg ering
ĠT CHNIQUE
Ġmon delinge
ĠR el
Ġbloe duit
dien ings
Ġ- ))
Ġparas ieten
ĠMD CT
Ġweer gave
Ġbeoor delingen
Ġreproductie ve
ab ine
op ing
ĠdiÃ« ten
Ġin d
ĠB eg
ĠAu stral
Ġamylo Ã¯de
Ġkwaliteit s
Ġhard ware
ver zorg
Ġreg ist
pro fen
gal act
del ta
ĠAV R
Ġvergro ting
obob obob
Ġintro duceren
ondersteun ing
Ġhel dere
houd ingen
Ġhypoden s
Ġpathof ysiologie
G er
Ġevol u
ucle aire
Ġbevol kings
b erg
e gen
Ġverl ichting
ĠP EG
ĠN ad
at es
ze en
Ġcontra ct
ant ische
Ġar men
CR P
cur sor
Ġgeco Ã¶rd
Bloed druk
**] ]
+ +:
Ġno v
R F
m aten
ont ane
ĠLe ver
ox etine
G I
id a
Ġwe bs
ĠOx ycodone
con structie
Ġintegr iteit
Ġontwikkel ende
am elijke
ĠSle chts
Ġint r
ĠAdmit ting
Ġend oscopische
Ġaange d
Ġsp oed
ycl ische
Ġaggreg atie
Ġvoor zicht
ĠSt ool
VAL UE
Ġfec ale
ĠAc quis
Ġgem edieerde
Ġplast iciteit
Ġmicro scopie
% -
200 7
ĠAan vullende
Ġprost agland
iot ische
roc ardi
es ultaten
ogra ft
arynge ale
ati en
Ġtri al
Ġparallel le
Ġt herap
Ġvo eten
Ġvijf de
ic iden
ra f
ĠN atrium
Ġonder huid
Ġat oom
Ġp or
amen s
sp lit
om ateuze
Ġopt ies
ex t
ĠgeÃ¯ mpl
Ġvirul entie
ĠC x
ĠLin kse
ver la
syn thase
Ġmig raine
over een
Ġn ale
he ad
L DL
Ġbas en
cht se
UR E
Ġdetect eerbaar
liothe ek
Ġc il
Ġjong ere
Ġgoedgekeur d
AT ION
Ġvoort vloe
Ġdat abase
M eest
Ġvoedings middelen
Ġlong volumes
Ġak oest
Ġpren atale
Ġsterfte c
Ġin nemen
Ġu reum
ĠBloed producten
ou ch
E X
Ġbronch iale
F ax
ical iÃ«n
ip s
Ġsub eenheden
alg ie
l oe
ĠA rab
Ġchromos ofie
ic ylzuur
ĠExtre mities
Ġcholec yst
Ġkomen de
Ġopen ing
Ġaanwijz ing
Ġsch ijf
Ġreactie f
os kelet
in it
ile vel
ĠL ines
z am
Ġd ichte
ax iale
Ġinc is
Ġborst foto
z ingen
Ġillu streren
ul se
lau did
SA ID
Â ·
Ġhorm onen
sp unt
sp ar
ct u
kel s
ĠRadi ology
Ġtegen over
Ġpri or
Ġmult ivariate
b rief
Ġtoe gest
Ġcytok inen
Ex tre
Ġtre kken
Ġad nex
riÃ¨ res
10 4
Ġtoen am
Ġar omatische
av ir
Ġonop ge
Ġbal ans
Ġcum ul
Ġme st
ĠCH EST
Ġvers nel
f ra
ad hesie
ar etten
Ġper ceptie
str atie
Ġbreed te
Ġindic atoren
G M
Ġaf ger
oc or
Ġth romb
P K
T ot
Ġhaal baarheid
F F
Ġ __
Ġder gelijk
L Y
ucces vol
Ġvoor waarde
elektrof orese
Ġverl ichten
p lex
Ġgo uden
Ġonder wand
Ġet c
ĠRV F
Ġten zij
Ġtraum atische
Ġagon ist
Ġver re
Ġgew richten
Ġplast ic
atib iliteit
o ct
Ġ(( )))
Ex tr
ĠF ib
bar riÃ¨re
oss a
Ġver te
Ġvl ie
Ġc x
Ġtra in
w ond
I nst
as ie
Ġkruis ing
ĠIg A
ĠPR EHTX
mat rix
Ġv elden
inf usie
Ġgescre end
ĠOm eprazol
ĠP ijn
U r
Ġl ith
Ġprincip e
Ġpl ate
ele inden
ill ingen
k osten
ĠE P
osc opy
Ġroutine matig
Ġ[ *
Ġzo dan
ĠHoofd kla
Ġoperatie f
Ġkortadem ig
Ġnit raat
ven euze
os ociale
Ġuitput ting
ĠgeÃ¯nteg reerde
Ġsub tie
Ġindust rie
Ġur inaire
Ġprote Ã¯n
ang t
ek ent
Ch ronische
ura al
Ġfarmac eutische
al bumine
Ġver werkt
Ġde kking
Ġper iv
Ġcardi omedi
Ġverminder den
Pol iklin
Ġged ateerd
Ġdoor d
Ġop gele
Ġver pak
A m
ĠV AL
Ġmult ic
Ġextre em
se en
Ġge toond
ĠM ellitus
ĠH oge
Ġ# <
IST ORY
net werk
port able
ĠMon os
ĠT horax
t ussen
Ġasse ss
ĠResp onse
e ster
Ġsche iden
Ġpasgeboren en
yper ing
h etische
Ġsubc utaan
Ġdysp nea
Ġc f
ĠgeÃ¯mp le
Ġrecombin atie
Ġkenmer kend
ĠenquÃª te
Ġruggen graat
. "
gest uurde
AS E
ĠP ulmon
Ġonder te
behandel d
bar st
Ġhem orrag
Ġinciden t
sel ing
Ġmoder ne
Ġge accep
ĠA N
ĠG lu
Ġantine oplastische
Ġge fosfory
gemiddel d
ot ing
Ġcomp atibel
men g
m igratie
Ġport aal
ĠZ acht
rom ide
ĠL euk
ĠgeoriÃ«n teerd
Ġsub eenheid
c ine
ex press
Ġkleur stof
Ġgluc ocortic
Ġmon ol
00 5
ĠC AP
Ġpolymorf isme
Ġge volge
in ib
ĠN i
it ol
gen eesm
iden d
ver betering
Ġc ate
Ġa u
ul itis
AD E
Ġbere kende
I M
Ġw en
othyro xine
ion aal
mut anten
Ġterug val
Ġher kend
Ġexp ectatief
quenc ed
ith i
ĠSc reening
ogram men
ĠP b
Ġm or
ĠL T
Ġont le
Ġdoel stellingen
Ġre vers
Ġhome ostase
Ġkal k
ant s
Ġon waarschijnlijk
Ġop names
opol ym
Ġge sprek
ĠC al
au z
op ten
Ġparenchym ale
Ġarter ie
iet y
ider ende
ĠAcet aminofen
Ġcav ia
Ġsub groep
horac ale
Ġf lutter
der ings
lo se
Ġhier bij
Ġimmuun responsen
Ġvet weefsel
Ġeerstel ijns
slagader s
Ġall ergische
Ġst reng
ĠV ragen
Ġher hal
Ġw t
Ġres istente
Ġsens atie
Ġbet ekent
Ġprec isie
s nelheden
Ġelim inatie
afhankelijk heid
Ġtal rijke
Ġinfil traat
Ġre formaties
Ġ10 6
Ġc afe
AP P
omer ase
ĠSal monella
Ġinter face
Ġje jun
Ġsep tember
ĠAD mission
Ġfor se
Ġd ressing
ĠF re
a em
Ġins ert
c yc
age d
Ġge vangen
ay ed
Ġkla ar
ĠPer if
ic lo
Ġhier na
ac cumulatie
Ġa a
Ġstimul erende
ĠS a
Ã«n ten
ĠB NP
Ġspij sver
Ġge acht
be wegings
ĠH PI
te kort
Ġregel matige
ĠZ elf
Ġcon ver
Ġcomput ationele
Ġnier transplantatie
o assay
at m
Ġtricusp id
Ġindivid ueel
Ġaan geb
Ġfung eren
Ġinhal atie
CK D
Ġsch ro
positie f
Ġan te
Ġac c
erv atie
-- >
Ġcorrel eerde
Ãī Ãī
Ġt rem
ĠF entanyl
Ġactiv atie
ĠAt orvastatine
b ro
te mp
Ġbespre king
dit ive
Ġricht ingen
Ġpas sieve
Ġcir cum
ot a
ĠK w
ĠP antoprazol
lij sten
ĠSer um
Ġdoorgaan s
Ġer os
Ġknoopp unten
Ġre hab
Ġfoc i
Ġ200 6
Ġjong eren
Ġpalp atie
Ġb ouw
an a
Ġindic ator
Ġidentific eerde
Ġaut ologe
Ġsym pathische
Ġverenig baar
ĠIn sulin
ĠP le
Ġfen yl
Ġz oon
stru eren
ĠStre pt
ĠP r
ĠrÃ¶ntgen foto
reg ime
Ġst een
Ġmagn esium
Ã«ro be
EF T
Ġgesp eend
ĠReact ions
+ -
ie ft
Ġvast gehouden
ĠP ort
ode s
tre den
Ġexc it
Ġokt ober
ĠM HC
Ġinge bed
ofie len
Ġinflamm atie
Ġvlak ke
Ġd uid
acter iÃ«le
ĠAt rium
pret eerd
Ġbesliss ingen
LE D
const ante
Ġspecial ist
Ġuter us
Ġimmunohistoch emie
Ġanastom ose
ĠA SD
Ġt ent
ablok ker
Ġs ament
form eerd
Ġro ze
ĠVoor geschiedenis
Ġtoevoe gen
Ġplaqu es
EL L
ĠC yt
Ġgeautomat iseerde
ato ir
Ġdex amethason
Ġap o
Ġbloeduit st
Ġbloed vaten
raag bare
ur gen
Ġabn ormaliteit
Ġsnel heden
Ġpolyp eptide
RI UM
bloed ingen
() ()
Ġdo ub
olog ical
Ġel ast
Ġgew enste
Ġinsuff iciÃ«ntie
Ġover lapp
Ġp ept
ge erd
Ġademhaling sproblemen
Ġgevoelig er
re eks
yps ine
ĠEx amen
orator y
Ġauton ome
aat regelen
Ġhyper cholesterolemie
Ġl isinopril
ĠL isinopril
Ġcirc ulatie
a id
acet amol
Ġverrijk t
Radi ologie
Ġpath ologisch
Ġ ingenomen
ient ific
Ġverho udingen
ĠEven zo
Ġcon sequent
Ġcorrel eren
Ġ( %
Ġtrans fusie
lif er
Ġpraktijk en
Ġpro even
Ġdiverticul itis
ĠS ten
Ġverlen gde
ran ium
ĠAl buterol
Ġor ig
Ġf iets
Ġpap er
Ġfamil iale
ĠL AT
Ġdaar entegen
Ġbevestig ing
ĠâĢ ŀ
Ġvoorsp ellers
ĠR IG
ten d
ĠN OS
gev onden
orph ine
Ġant ide
c lass
ĠIn dex
riÃ« le
Ġpijn bestrijding
m acro
scha ft
ĠDen ies
at omen
ĠgeÃ¯nter preteerd
Ġchrom atografie
ab in
ĠgeÃ¯mple menteerd
Ġmg a
Ġstr anding
ver schijn
ach y
Ġcardi omegalie
t am
ĠHy dro
ĠVer sie
Ġhist amine
n aar
f usies
on y
ob lasten
ĠControle er
Ġlangdur ig
ta ste
toe stand
Ġplasmac oncentr
Ġoplos sen
Ġs ap
Ġdelet ie
opt imale
il lair
Ġverd ovende
Ġf ijne
bep aling
r ies
Ġf x
Ġspect ra
en ergie
Ġverb re
vloe den
last ische
comp ressie
im in
Ġk eren
he up
Ġdo delijke
Ġm u
ineres istentie
m issie
stit utie
Ġzodan ig
pl os
ĠB lanco
Ġinf uus
tro fie
n ium
V F
Ġepid urale
Ġverzorg ing
Ġst u
ĠOp name
y laat
hoog te
lan ge
re validatie
Ġk ou
Ġc aps
aris on
Ġra ad
Ġz ijk
or ub
Ġel leb
Ã¶ per
atie k
per oxide
Ġhypot hyreoÃ¯die
S F
Ġh angt
ĠInf usies
ran e
Ġfem or
Ġpaar den
it onale
Ġneut ro
Ġpromin ent
gren s
ĠRS BI
uw ing
her kenning
art ritis
Ġa ir
ĠC ro
men teerde
stem peratuur
Ġ13 8
ĠER K
org an
Ġleeftijds gebonden
Ġd ose
Ġs on
Ġort h
Ġ+ /
pro cedures
ĠEnd ot
Ġb ad
eert ig
amin erge
Ġoperatie verslag
Ġvrucht baarheid
Ġhom ozyg
Ġme an
D yslipidemie
Ġgest imuleerde
elat onine
Ġzw em
Ġdissoc iatie
(( (
en cefal
Ġvoortplant ings
verh oging
in osa
Ġmicro sc
onge veer
bru ari
Ġzuurstof soorten
ĠO peratieverslag
Ġempir ische
Extre miteiten
z apine
hyl ococcus
Ġeen mal
Ġ10 8
Ġhom ologe
He ad
L M
Ġpen et
ĠAd ditive
cardi oloog
Ġtwijf el
Ġim pro
atie ven
Ġop leiding
Ġei eren
Ġge organis
Ġdatas ets
rar ood
Ġs maak
Ġtechnologie Ã«n
up us
mod us
ĠLab oratorium
Ġlapar oscopische
" )
ĠR CT
Ġtra p
Ġant h
Ġanti hyper
Ġ13 7
ĠC ent
ĠM ICU
ite d
g n
Ġperman ente
Ġtun nel
la c
Ġbesliss ing
om otorische
Ġste delijke
Ġwaar schijnlijke
Ġchromos of
osept aal
Ġinit iatie
P ulmon
+ /
cip itatie
Ġlymf oÃ¯de
em ming
h alen
ib le
ĠG M
ar r
es is
Ġgluc os
Ġemb olie
ĠRV SP
Ġver f
Ġbar riÃ¨re
h i
Ġbez oeken
a af
st raat
con f
vascular isatie
al len
s ite
al og
Ġchem isch
ĠEn ter
Ġam lodipine
ĠC E
200 6
ES S
ok ine
Ġcis platine
re a
Ġwaarde volle
Ġse quent
ĠQ ID
ĠC hole
Ġg yr
10 6
Ġla g
rom ycine
h ome
r id
oplast iek
Ġmon itoren
nem ende
id aties
Over weging
amp on
Ġafval water
Bas o
Ġvoorsp ellingen
Ġdefin itie
Ġre ces
b lootstelling
ter ings
Ġoverheer sende
ve il
Ġged aald
ra fie
erol ateraal
Ġvrij gegeven
Ġ200 5
l ussen
Ġvoor hoofd
sc reening
gew oon
op ress
al goritme
Ġre kru
Ġp ur
Ġopge slagen
Ġvisu alisatie
Ġbloed st
ĠP U
Ġdiagnost isch
E vents
Ġur eth
la d
Ġhist ory
Ġn eed
ĠF orm
Ġasc al
k op
ycl ine
Ġdatas et
Ġprote in
Ġex amination
Ġgemen gd
k Da
Ġgestandaard iseerde
rop ium
ĠM RA
Ġk oeien
ĠZ iekenhuis
Ġaange paste
ĠRe chter
d racht
Ġver vaardigd
Ġmacrofa ag
f em
Ġondersteun ende
ĠA G
waarde erd
Ġcholec yste
Ġbe etje
Ġre animatie
age s
Ġresp ectieve
ĠZ al
ĠR o
ation aal
ĠL et
) ),
cent reerd
ĠG astro
Ġc ry
Ġ14 5
ĠgeÃ¯nteg reerd
con trol
Ġonver w
IN R
Ġhab it
r ent
con to
Con t
Ġneurode generatieve
l um
Ġbas es
Ob ject
Ġ] .
Ġpolym eren
Ġkorter e
Ġplaatsv inden
um m
'- '-
v ag
Ac et
( #)
ĠS ER
Ġinit iÃ«ren
een s
ĠHer h
Ġmodule ert
ĠA merican
arb onaat
Ġl ieten
ept oren
Ġassess mented
rug gen
m orgen
elijk s
ĠV IE
iÃ«r arch
of ys
Ġdo den
oc al
G lu
of orm
ket ens
Ġd aalden
ĠDeel nemers
Ġalle s
Ġerg ometrie
frag ment
IN K
ĠAden osine
zo a
ĠH PLC
mut ant
Ġeierst okken
Ġhalsslagader s
ĠAss oc
vol utie
Ġborst voeding
aser emmer
ĠI CA
Ġle k
Ġt oxine
d aan
ĠDoor gaan
Ġ] )
ĠHel dere
Ġval iditeit
Ġlinker kamer
Ġepigen etische
Ġpersist erend
ĠL o
Ġimmunohistoch emische
co derende
Ġtwee dimensionale
k ettingreactie
Ġnorm en
sil houet
Ġgez ocht
st oel
st rij
Ġbel angen
ĠU reum
Ġp ak
ĠC entr
Ġsc anning
Ġident ieke
il ity
Ġruim telijk
Ġm nd
ĠVerwervings sequentie
Ġpol yc
Ġnucle air
ĠE L
Ġp ast
SC LC
Ġlever den
Ġonder v
p aren
Ġv als
Ġuit da
ot s
sproces sen
Ġherh aald
L eft
Ġber oep
Ġrest rictie
Ġcategorie Ã«n
is m
Ġb anden
iel d
In ter
ID S
richt lijn
Ġast rocyten
op auz
vraag d
Ġrechter hand
Ġlitte kens
Ġpolymorf ismen
ĠCV P
fib rose
Ġwebs ite
sp unten
Ġlab oratoria
olin ium
Ġex acte
Ġuit straling
Ġcont ral
ure au
Ġgevisu aliseerd
s heet
pro f
k o
Ġvermoe delijke
em isch
Ġle ken
Ġtemp o
Ġtoe pas
Ġplaatsv indt
Ġafhan kelijke
S uccesvol
gen oom
Ġgranul ocyten
Ġver val
Ġgemeenschap s
Ġob jecten
Ġd r
necrose factor
ĠT B
ig ers
ĠL EFT
Ġec os
ĠNa Cl
Ġeviden te
ĠCARDI AC
blast oom
Ġlymf atische
ĠB D
ass istent
p ool
ĠV AN
Ġcyan ose
ĠP art
Ġant agonist
Ġver pl
V CI
Ġep ig
me de
Ġk ie
oÃ¯d ale
ol yt
od ay
stil stand
ger elateerd
ĠC M
Ġong un
ran ten
ib ratie
Afspraak Object
Ġneur on
ĠRep ort
Ġradi ologische
S M
Ġsectie s
R P
Ġonge mak
opla sie
Ġf lap
ĠH V
AR Y
Ġdynam isch
s amenstelling
ĠEX AM
A merik
Ġuitge st
gene zing
Ġgem odu
Ġde v
zon dere
ien iveau
Ġp est
W E
Ġbevestig t
Ġe duc
m eld
Ġbe weeg
Ġmis vorming
af stand
cin omen
ĠD u
Ġcent ra
at eerde
ien ce
Ġv atten
Ġmus cul
ĠL i
Ġhemat ologische
Ġmut a
vla k
Ġsla pen
org anische
Ġsch ede
di ende
ĠAl bumin
ĠCom mun
ide d
Ġwort els
it en
ĠčĊ Ġč
ap h
ĠZ w
Ġfor s
Ġverpleeg afdeling
opt ies
et jes
ĠV rouw
ĠDel ayed
art aat
ĠGro up
Ġge comp
Ġb orderline
Ġingu inale
Ġle es
X X
nnnnnnnn nnnnnnnn
ĠO ste
am ers
Ġenkel voudige
Ġhist ologisch
Ġradi oloog
ĠH BV
Ġzorg t
Ġlin k
Ġpulmonaal venen
p ulmon
Ġsm all
os arcoom
Ġo v
Ġlich amelijke
Ġglyc oproteÃ¯ne
Ġnet to
Ġniet s
gra mm
ix aban
isol aten
Ġhap lot
ir urgen
ĠG u
EN S
Ġap pen
z ol
Ġnale ving
____ ____
Ur gentie
adren erge
lut ic
tect or
z out
aan s
Ġg i
Ġtwaalf vinger
Ġin comp
Ġsedi ment
ĠV o
Ġp unctie
Ġgecorrige erd
dist ended
Ġho sp
de kking
op names
Ġcont o
ĠJapan se
Ġstrom ale
ĠI E
Ġlar ven
Ġl y
S inds
c utane
Ġextre me
Ġtib iale
ĠA chter
rij p
ĠT em
Ġmis sen
Ġam y
Ġin ject
Ã Ĺ
Ġk iezen
ĠGe bruik
Ġstro men
Ġgoed aardig
Me et
al anine
ĠU ro
Ġinb rengen
Ġgek leur
ĠPAC S
Ġgro ve
ĠAcquis ition
Ġonver mogen
Ġex plic
ĠF T
Ġdrupp el
tia zem
Ġbede kt
spor ine
Ġont spanning
du les
Ġdoorge maakt
halam ische
F E
stechn ieken
Ġma Ã¯s
Ġrond om
ect oren
Ġblauw e
in igende
Over ig
ĠO H
Ġglob aal
W est
Ġdetermin anten
Ġ# *
ĠR et
z ers
ĠgeÃ¯n itie
Ġin duc
Ġcom ment
jectie f
Act uele
ĠH ISTORY
Ġparas iet
ulf ide
de pressie
Ġwer v
ĠB cl
e ind
Ne uro
R isicofactoren
Ġgon ad
an o
Ġver apamil
ol ar
ĠP at
Ġto v
Ġk aak
Ġvoert uig
Ġen erg
ĠG auge
ati onen
ĠN SR
? )
ĠAM L
Ġtra ge
Ġt rof
Ġbra ch
Ġser iÃ«le
pul sen
C re
Ġop ent
th etisch
ĠIdentific ation
Ġlevens bed
Ġexc itatie
is p
ĠV e
Ġre generatie
Ġmes enchymale
Ġadju vante
ISCH E
ĠS LE
Ġstikstof monoxide
Ġ1 11
rif ten
ĠbeÃ¯nvloed de
Ġch it
wee gt
ĠG l
Ġtransp orter
Ġmin dere
ĠDra ins
bb ing
ĠB UN
Ġtranscriptie factoren
Ġsecret oire
Ġsig aretten
Y C
ro scopische
n c
K I
is on
mon ster
our ce
Poliklin ische
ra dic
Ġdij been
um ol
Ġhemat urie
ĠSt op
Ġbiom arker
Ġge wijzigde
Ġwijdverspre ide
Ġeffectie ver
Ã¯d ose
Ġbestand deel
n r
ste d
at itis
k ra
Ġfinanc iÃ«le
b c
gest uurd
U K
Ġhemodynam isch
Ġzorgvul dig
stren gs
Al l
Ġfys iot
Ġinfiltr aten
pl ificatie
ver wezen
at oom
vo erde
Ġvast stellen
ogen etische
n ormal
d om
ĠAFGEK APT
Ġverst oren
Ġk wij
Ġregel t
Ġoplever en
F ig
Ġopge wekt
oc yan
vari ant
ĠSp iral
Ġafge schaft
Ġmal igne
re chts
Ġcytos kelet
Ġosteop orose
uiv ingen
van gende
xim ab
Ġprincip es
ho de
oel t
Ġdier modellen
ute s
ĠSinus ritme
Ġaan vulling
ort us
rom y
Ġgecon ju
Ġass ist
st ellings
ĠS OD
ĠBe kende
ĠU TI
ver houdingen
Ġs uspen
rie p
glyc ol
Ġgeklo ond
dra gende
ip ro
Ġgen orm
ras send
= [
ĠNH G
sm aatregelen
Ġjon ger
Ġt oday
ste in
ĠM id
la ps
houden d
ĠB R
St ud
oxy genase
Ġher inn
ĠO u
Ġp ogingen
ĠSen na
Ġhal ve
Ġres er
ylact ische
ich amen
ĠD oel
Ġopge treden
C B
Ġco Ã¶per
n g
Ġgew eld
/- )
Ġ4 50
Ġpart iÃ«le
ĠPseud omonas
orub icine
ĠM agn
ot hel
Ġcre p
Ġflexib ele
Ġherp es
lag yl
ĠMo gelijk
ĠMy ocard
Ġver taling
org anen
Ġz iet
unction ele
ĠA KT
eff ort
F U
ax el
gel d
ĠC ZS
Ġlichaams beweging
Ġhoe sten
ole culaire
T er
ent ies
er ium
re paratie
z u
ard ing
e valuatie
Ġdoord ren
Ġvoor wand
Ġgoed k
. -
Ġ ist
Ġna dien
Ġgewicht stoename
ĠN GT
ithi ase
Ġaug ustus
ĠIn struct
ĠVol ledige
glyc erol
Ġt or
Ġob jectieve
ar ly
ĠR est
Ġeiwit synthese
Ġhom ologie
Ġ24 0
ĠB oston
ad olinium
extra ctie
mat ch
hyper trofie
Ġc oel
arach n
Ġgerandom iseerd
at ston
Ġstent s
rect omie
Ġprofess ionele
Ġuit leg
Ġit ems
ĠAbs Baso
Ġreumat oÃ¯de
ontre inigende
Ġverwar ring
Ġprov inc
ell iet
Ġsch rift
du w
res olutie
ĠH ER
Ġdis per
d in
Ġverbet erden
Ġdecen nium
Ġbro ers
op brengst
Ġcirc adi
il us
Ġbegele iden
aser emmers
eg ment
Ġaf bre
r f
Ġs ounds
kappa B
Ġcomp ress
c ulatie
ĠGe wicht
ĠV I
Ġradic alen
alys is
rooi ing
Ġfunction eert
us h
Ġgekopp elde
Ġpre paraten
Ġonder k
Ġtijdst ip
p lo
Ġemb ol
Ġf ruit
Ġre perfusie
Ġle zen
Ġverl open
19 99
O G
tr ig
Ġkra chten
oplasm ata
Ġep ic
ĠNT G
Ġpro fielen
Ġverm oed
verzorg ing
Ġtev oren
Ġnon tender
Ġben ige
V ol
Ġkwab ben
der tig
Ġdram atisch
Voor naam
Ġmet all
slijm vlies
Ġdem ografische
Ġal om
Ġsub durale
Ġgem an
ĠF actor
ĠCh ild
Ġsamenge vat
Ġdys urie
Ġovereenkomst en
Ġho urs
Ġtrain ings
Ġfol lic
ĠA J
cyst en
fib ro
Ġall elen
Ġmass ale
vent ion
aties nelheid
Ġaangeb oden
Ġsub type
Ġvoort durend
čĊ Ġč
Ġon e
Ġtwaalfvinger ige
eg a
LO R
ĠD ru
Ġpan el
H L
Ġconto uren
ĠSt and
Ġno vember
ob ilisatie
Ġinter ferentie
part um
Ġpro liferatieve
Ġhart silhouet
ON ES
ĠF irst
Ġ10 7
Ġin gesteld
ivalen te
ĠB ay
Ġhorm onale
Ġre agentia
S K
ampon ade
Ġelektro de
act ion
Ġ13 9
m RNA
id opsis
Ġover weging
H DL
ĠVit als
ĠTrop onine
On bekend
Ġsept ale
Ġprec ie
Ġl ens
CH ADS
ĠE GD
Ġc ijfers
Ġverhoog den
13 6
Ġsub groepen
ĠE V
ĠT OT
Ġoste oc
w nst
Ġgepresen teerde
Ġc rit
Ġhetero geen
N umer
ĠUl tra
ĠH L
Ġontvang ers
10 7
glyc erine
ĠSP ECT
Ġmoe heid
ĠE ch
Ġop geb
Ġgere cht
Ġp pm
P AT
Ġle arning
Ġnucle otiden
2 50
Ġuiter st
Ġvereist en
Ġdiagnose s
ĠA ort
Inst ellingen
lat ine
Ġhoorn vlies
is sen
kno wn
Ġgang lion
ge gaan
Ġsla cht
200 4
ĠRh ythm
Ġherst art
doel en
Ġsuc rose
at ings
Ġcar ina
N amens
ĠAD P
ug inosa
Ġslijm vliezen
P atient
ap ril
Ġcerebell um
G AN
ĠX L
Ġp mol
ĠD uit
Ġ( +
Ġrect ale
Ġrapporte erde
ar um
Ġnab oot
Ġob st
i of
ot o
Ġle eft
T ijdens
Ġsub set
Ġuit wisseling
Ġmanip ulatie
Ġbez itten
p or
Ġ6 50
Ġgroot schalige
C r
ma and
ĠR OM
ĠD ie
Ġl iep
Ġdu oden
ĠW or
ath eters
it on
ĠRC x
Ġvide o
T h
ot oxine
ar me
Ġrespon se
Ġpall iatieve
ĠSTE MI
oor delen
Ġla c
ĠMR SA
ĠK in
co h
Ġgest uwd
ĠV en
ric usp
ĠMe dtronic
ge wijze
ĠP IP
Ġaf le
Ġsyn ov
Ġinf er
ĠV ro
Ġaantoon t
Ġpar od
produc erende
sp annen
Ġhart ritme
ĠStap hylococcus
200 0
of loxacine
y leerde
ĠL FT
Ġonvolle dig
Ġs arco
vo le
m ass
ĠS upple
Ġlever functie
D oor
Ġ## <
ĠST AT
Ġmicro scopische
Ġc rac
Ġsp iraal
: *
Ġl upus
Ġparoxysm aal
ĠV ASC
Ġp oeder
Ġben igne
Eer der
Ġk DA
ect omy
ĠOm ge
al ende
Ġanal ge
ĠMA E
Ġlymfekl ier
ĠV ER
Ġ14 6
Ġcons istente
Ġcomp os
ser veerd
Ġsc enario
ĠM ET
Ġhematopo Ã«
in test
Ġbip olaire
P acing
even wicht
cur ve
om ics
ere d
. \
Ġver le
Ġfund amen
w in
Ġp ieken
VAS c
e ch
rel aties
ĠB lijft
Ġval idatie
Ġin val
Ġcolon oscopie
Ġdist al
200 5
Ġschu ine
Ġover gewicht
Ġuit slagen
us c
IS C
ĠGlyc emic
Ġsub types
Ġf ossa
Ġop komst
Ġst raal
Ġkool hydraat
x pressie
Ã¼ m
z in
regul ering
Ġtablet ten
Ġcate chol
Complic aties
fract uur
Ġonderhuid se
Ġcur ve
IF N
fron teerd
coh olische
zw elling
ic il
Ġcafe Ã¯ne
iÃ«r ende
Ġkwest ie
Ġdo wnst
ĠM ar
ĠF luid
Ġverl iezen
gezondheid s
Ġve get
ATP ase
b uik
tij dig
Ġinter esse
Ġlymfek n
v itro
ĠD ysp
dib ulaire
we kkende
ĠF S
Ġl i
maat regelen
Ġ us
Ġknock down
asten ose
Ġzo genaam
yt h
ĠT rig
Ġcel lulair
ĠS te
Ġi om
ot ypen
Ġin tensieve
Ġmar iene
Ġmaxim um
ĠHE ENT
Ġmodel leren
regel ing
Ġspor ad
Ġgro et
ĠC ef
rag ers
ar ium
oren s
stitu eerde
Ġdeel nemen
ne us
P t
w ork
Ġgeoptim aliseerd
Ġbestand delen
fet amine
Ġpro spectief
pro these
itone um
ute ur
Ġpar adigma
r oren
Ġdra ger
at alyse
Ġliggen d
ĠIg E
Ġboven kwab
par aat
de oxy
Ġgang lia
Nier functie
Ġdiagnost iceren
Ġopge hel
om k
Ġinfluenz a
Ġoorspron kelijk
ic ol
Ġpersist erende
ax is
o teerd
Ġm aakten
Ġplotsel ing
Ġle ef
Ġtoe zicht
Ġlaat st
Ġo ss
ro gene
ogra phy
tt ps
sal icylzuur
Ġhypog lykemie
do od
S tent
Ġrele ase
Ġgyr us
Ġbereik ten
ve ill
IE S
TEIT EN
Ġg lu
Ġonder arm
Ġelektrol yten
ĠI J
A E
hm us
Ġhel deren
Ġhepat ocel
Ġop vallende
Ġgest abil
ucle otide
over leving
lan den
breed te
Ġavond s
cycl ine
N V
X II
Ġt RNA
Ġplaat se
Ġref ract
sch ors
Ġvrijk omen
Ġf ailure
h um
p rin
ĠP i
versch uiving
Ġcyste Ã¯ne
Ġvoel en
ĠH Cl
Ġbru to
Ġmon oc
icul ar
VERKLAR INGEN
f amil
oen en
Ġcom bine
IV D
Ġintracran iale
ĠU ranium
Ġverlen gd
aa aa
sp inale
UL AR
Ġconnect iviteit
r ati
os iden
ren s
Ġsleutel rol
adig d
Ġhom ogeen
Ġelleb oog
ypt of
bew aking
E MI
Ġhecht ingen
Ġformul ering
ĠB en
Ġmeng sels
ĠM er
ac ar
ĠDe generatieve
ster se
onucle otide
min dering
Ġ200 4
Ġhersen stam
ĠTot aal
Ġbe antwoor
oplasm atisch
Â µ
Z ie
Ġgemeen schappelijk
Ġkopp elen
in on
uccin aat
Ġstrom ing
Ġindust riÃ«le
c aten
Onder zoek
schat ting
vorm ig
Ġsubtie le
middel s
ver te
Ġfibro blast
ĠQ D
ĠCO X
A mino
ator s
hydr aten
Ġfe bruari
Ċč Ċč
g aand
L DH
Ġres idu
Ġv loer
Ġpyl ori
of osf
. ):
Ġh ip
ax on
aandoen ing
wer kende
Ġopgehel derd
Ġges imuleerde
' .
Ġblijk baar
d ym
ge tatie
Ġex amen
tran splantaat
EHEH EHEH
ĠA ND
ain ide
od ale
rij g
Ġcir kel
Ġge oxide
F I
Ġc reat
Ġret our
L ast
n RH
ĠM oeder
id ieven
Ġpijnstill ers
ĠPerr l
mm obil
u eerd
Op name
ator ische
Ġrem den
Ġk rom
F luor
Ġneuro psych
Ġantit umor
Ġca us
loos heid
Ġdownst ream
Ġor ofarynx
st abiliteit
ĠRIG HT
Ġrespon sen
ww w
Ġonderte kend
ari aat
ĠRec ent
st raal
Ġtr ic
YYYYYYYYYYYYYYYY YYYYYYYYYYYYYYYY
Ġver gez
oc ic
Ġc ad
Ġpla k
ĠE BV
Ġgeb rachte
ma ch
k ool
Ġscreen en
lijk heid
aa i
Ġopen en
A Y
gereg uleerde
at eren
ĠMAP K
ĠC ir
TR O
Ġ13 6
Ġchirurg isch
ra king
Ġbloot gestelde
di da
ĠDien st
ĠDiff use
imm el
Ġtest is
Ġonder ver
in tense
ook t
n ormaal
ĠWe st
Ġcycl ine
Ġge ver
Ġretro grade
Ġbel t
Ġhypertro fische
acchar iden
wissel ings
ĠPUL M
or n
oi ing
em issie
re ef
Ġcorticoster oÃ¯den
ĠB ONES
men opauz
v itamine
aneur ysma
Ġover name
la mp
ructure erde
Ġen anti
Ġlip oproteÃ¯ne
Ġac id
ur aties
Ġb ase
ĠA O
Ġbeh oort
Ġimmunode ficiÃ«ntie
id on
metast ase
ĠN SAID
Ġcontact en
Ġontde kken
ć [
ĠUitgebre ide
Ġger ust
I k
Ġboven zijde
G l
Ġneurotransm itter
ff ende
Ġblokk ade
Ġte en
Ġfil ter
Ġdon kere
M AP
o ud
st art
Ġuit scheiding
Ġw oord
M o
Ġgegener aliseerde
ĠS F
redi gende
Ġbeeld kwaliteit
AN B
Ġoplos baar
overeen komstig
Ġpsych osociale
it air
Ġv ak
A antal
an us
Ġwee s
ru vaat
Ġmal aria
Ġt ree
Ġon gelijk
Ġdon ker
Ġhyper lipidemie
Ġaanged reven
Ġsoft ware
ĠESR D
BAT BAT
ĠG AP
m atiek
Ġconsol idaties
carb ox
are se
var ium
ĠIn suline
Ġh arde
Ġp orie
Ġencefal opathie
k ade
re ction
Ġgecon fronteerd
ĠW il
Ġextrem iteiten
Ġcat aract
ĠD il
se quencing
10 8
coÃ«fficiÃ«n ten
Ġonder houden
h aar
** ],
R ef
Ġelektro chemische
Ġprecie ze
i ated
or etische
S h
Ġ200 3
bre de
ho gen
U P
Ġretro spectief
im ulatie
onden ten
č Ġč
ĠPol y
Ġverplaat st
ad ol
Ġantic o
ol gi
ost atine
dra ad
ĠJ VP
Ġaer uginosa
Ġtoenemen d
Ġaange duid
U ES
gradi Ã«nt
Ġcumul atieve
ium zuur
Ġ ia
Hyper cholesterolemie
chrom osoom
M ed
Ġprotocol len
Ġveronderst elden
Ġa pen
Ġel ders
My ocard
Ġmon onucleaire
Ġindic aties
Ġoverwegen d
ac a
Ġmen stru
Ġcol le
ĠN ur
kno bb
Ġsament re
Ġm apping
Ġmid dag
Ġboezem fibrilleren
ia ale
Ġvul ling
ific ation
Ġtoegest aan
Ġbilater ally
Ġlymfekn open
ite erd
H IV
lim iet
Me dic
Ġantib acteriÃ«le
Ġtax on
Ġz aak
ĠArab idopsis
et hy
im ens
Ġmit otische
di methyl
, ##
v ant
TI MI
ĠCro hn
mis bruik
schap s
ĠHoog te
Ġh arten
Ġosteop hy
Ġper in
Ġsign alerings
deel de
Ġplaveisel celcarcinoom
ofil ie
ab sorb
ent in
Ġvertra agd
our nal
ĠAr ter
ox isch
ĠGe b
ĠM SC
Ġsp ond
ag ulatie
Ġantide press
Ġoplos middelen
Ġimmun isatie
Ġmeis jes
Ġcorrel eert
Ġsequent iÃ«le
opro p
den se
ĠM al
ĠV t
ĠSpecial isten
vari atie
Ġhistopath ologische
ĠGR ADE
kopp eling
ell igen
on ium
Ġst ate
oel ating
Ġp s
- #
ul um
vl ie
Ġd ich
anal ogen
Ġsignaaltrans ductie
Ġnauw elijks
K alium
ente se
Ġdier lijke
et ron
Ġvol de
Ġinteg reren
Ġt ur
cyt ometrie
CA E
Ġvoorsp eller
Ġver men
Ġch ole
ĠV R
ie te
ĠP SA
A AL
val ent
oli ose
Ġvoortplant ing
der ivaat
ĠB raz
ĠW NL
ge ert
Ġn em
lec ainide
Ġra c
Ġgede eld
af el
dien en
du laire
ĠEl isa
ĠT ube
Ġg ood
bla den
ot rex
Ġintram urale
c is
Ġpolymerase kettingreactie
Ġaanvan kelijke
ĠReg ular
Ġf ysiologie
Ġminim um
Ġasymmet rie
Ġsonde s
Ġanal oog
breng sten
w ard
Ġhaal baar
Ġle ct
ologie Ã«n
Ġn eem
Ġovert ui
se x
Ġk olonie
Ġverl aten
ĠF or
vis iae
Ġee uw
Ġakoest ische
vas cul
waarde tijd
21 17
Ġsn ij
erg ometrie
nest isch
ĠT T
lav ix
ĠS otalol
Ġh iÃ«rarch
dat abase
her oscler
Ġwil den
Ġimmun ofluorescentie
Ġultras one
Ġverhinder de
Ġdat abases
L IN
ĠP attern
v ious
Ġax onen
Ġin j
itu ut
ĠEx p
heers ing
Ġstab ilisatie
o iden
Ġst ijfheid
ĠS ens
Ġtromb ocytopenie
otrans ferase
Ġge lijke
fil ter
Ġtoe val
Ġtar ieven
Ne oplastic
e ve
in houd
ĠM ental
Ġbemon stering
Ġ isch
Ġdos s
Ġb ran
Ġac yl
Ġw inst
ĠOr g
Ġcontral aterale
ĠO ri
ĠNeurolog ic
over belasting
ĠUR NE
Ġbloed som
R L
ijd se
Ġlong arts
br and
ine uze
ĠH al
ĠM ax
erol aterale
Ġsper m
Ġlead s
Ġgal blad
ĠG EN
Ġmultidisciplin aire
Ġaf stam
Ġpol ys
Ġwar farine
A merikaanse
i kende
Ġbe droeg
v t
Ġact in
6 00
Ġh ond
Ġc ard
sp in
Ġlong knoop
Ġanal ogen
AT H
con dition
Ġh ct
ĠV G
Ġwerkings mechanisme
Ġper ist
Ġge lu
ĠG P
Ġmach ine
Ġtran splant
Ġsegment ale
on ef
ru is
Ġbelang stelling
as ure
Ġlinker ventr
Ġt am
ĠER CP
Ġgeaccep teerd
Ġstroom af
Ġdaar door
cht ere
Ġra p
at ment
iz umab
Ġz il
Ġver de
ijk omen
ĠSp utum
Ġend oc
re activiteit
r t
qu ired
Ġatrium flutter
Ġgevorder d
E os
ĠU L
Ġintra operatieve
g aven
Ġmaag kanker
Ġbe keken
Ġms r
ĠP atch
ĠDet ail
ĠG A
Ġsp el
Ġt yp
p ra
over gang
Ġprote ase
Ġall ergie
up lex
Ġ# )
ĠT V
ab elen
v rucht
ĠPre dnis
medi ate
Ġ iem
Ġgever if
mer kelijk
Ġter t
ĠRicht lijnen
Ġt hal
ak elijke
T emp
Ġcere visiae
Ġ( "
ĠPol s
Ġstier ven
ch et
Ġre verse
ante erde
Ġfundamen teel
di oxide
ĠMon o
ver kal
Ġcircadi ane
olin erge
sch alen
Ġgerecht vaardigd
oppervla kken
Ġge ste
Ġion ische
ĠS up
ĠDisc rimin
Ġafgeb roken
Ġge oper
activ ator
Ġoog t
z uiver
ve st
/ (
om ge
Ġc ost
Ġnot a
Ġg ift
ĠAL AT
const anten
Ġtumor necrosefactor
Ġdysp lasie
Ġintens ive
gele gen
di versiteit
Ġuitstre kt
Ġker atin
alis klep
opol ysaccharide
Ġmyel oom
Ġ[ ()
ĠTAB LET
] [
ĠMI RADS
ek uur
Reg istratie
sp ray
pre ventie
G H
Ġp oort
ui del
umin ium
Ġeigen lijk
Ġrh onchi
ĠUn known
zij dig
Ġhydro xy
Ġb ac
Ġt je
Ġsp ie
ĠIn structies
Ġpsor iasis
Ġhiel d
Ġonzeker heid
Ġre modellering
Ġin stroom
Ġinform eren
Ġbloedsom loop
Ġfiet sen
Ġbind weefsel
con jug
Ġ ib
os um
ac iteiten
cin oma
struct urele
ĠKlin isch
ĠCh ronic
Ġge ur
Ġ11 8
Ġm aten
Ġtheor etisch
la x
Ġmiddel bare
ĠAnt i
use a
Ġc losure
ĠBij ge
Ġlong functie
Ġgroe is
Ġschu if
ist eren
ag glut
Ġc eft
Ġc lopidogrel
du idelijke
Ġzogenaam de
] ;
Ġc all
Ġouder lijke
ĠB eleid
Ġmarg inale
Ġgereg uleerde
act ische
13 8
Ġverkla art
L a
ĠDD D
ill er
Ġuitvo ering
Ġverwaar loos
ver gro
biot a
id o
Ġaan passen
Ġt omografie
Ġdrie maal
Ġist hmus
ĠDe pressie
regul ated
s uik
Ġkla cht
riÃ« mie
seg menten
ĠgeÃ¯ mmobil
Ġwe gen
Ġsub arachn
Ġre visie
ide s
A Z
ĠW ar
Ġ200 2
vertra ging
schrij ven
St atus
Ġbif urc
Ġst atische
and acht
Ġbiom assa
ĠR ho
azep ine
ĠS G
ĠD L
Ġc lo
Ġbemon st
ĠW eten
OS P
v iol
f rontale
Ġnavel streng
ĠVergelijk ing
ri de
ian a
ĠK l
Ġaantoon baar
pul s
Ġmedicamente uze
Ġmast oide
vo ir
Ġsuperie ur
Ġvergez eld
benader ingen
vo eren
Ġstra k
ĠgeÃ¯nitie erd
Ġlinker atrium
Ġtranscriptie ve
ĠGen etische
home ostase
ĠS UR
m ia
Ġwand beweging
Ġclu bbing
Ġent iteit
ol ig
sp anningen
Ġ14 1
aggreg atie
ĠKen nis
Ġongun stige
orb id
emb ryo
Ġaneur ysm
Ġeffect or
hydro lyse
Ġseizoen s
Ġsi RNA
Ġafgest emd
Ġglomer ulaire
M icro
van kelijk
Ġan is
fun deerd
lact ine
Ġgere con
ĠS i
iat rische
or azepam
ĠT och
T oe
Ġtel em
elekt rische
Ġsub t
plan nen
Ġmar kt
Ġont vingen
EL ING
Ġtijdst ippen
Ġz ussen
Ġacadem ische
Ġcel wand
ster fte
iss ue
an at
Ġfosfat idyl
Ġvermoe den
af beeld
yptof aan
inter vallen
Ġkool hydraten
ar a
Ġsulf aat
ust ained
m iologie
Ġ11 6
Ġt au
Ġatrium fibrillatie
Ġelektro den
C N
v ia
ede em
Ġhier onder
ente d
Ġint ron
ox aban
Ġversnel de
Ġmet formine
Ġge gaan
of de
Ġoperatie kamer
Ġster ker
+ ),
p ad
Ġdoordren kt
Ġb ouwen
Ġin clusie
Ġkorrel s
ĠCRE AT
ĉ Ċ
caten ine
inst ellingen
Ġf ysiologisch
Ġsoep ele
Ġbar riÃ¨res
eren te
termin us
ĠF OL
. ).
Ġbib as
Ġtoekomst ig
AC S
of oor
ĠAR F
Ġkw art
az ool
ist ar
Ġfys isch
as oom
Ġanti gen
Ġd s
Ġo t
Ġimpression ion
Ġm elatonine
ĠRam an
sla cht
Ġbloed glucose
Spec ialisme
Ġneurolog isch
Ġm alen
Ġflu ctu
os idase
aden oson
syn aptische
Ġport ale
Ġde p
Ġgev uld
18 0
ĠB SA
y elin
Ġarchitect uur
gelab elde
J ECT
Radi ology
ĠA cht
Ġbij gedragen
ĠProf ylaxe
Ġbere kening
L ocation
ot t
ĠCoronair angiografie
atiÃ«n te
s land
Ġtan dem
Ġaange pakt
Ġg adolinium
Ġn oe
ĠB T
AT O
ati v
Ġw inter
Ġob ser
Ġverwij zen
sch riften
Ġch eck
ĠC BD
ĠAC h
m uis
Ġinter ageert
Ġant woord
Ġmo de
ĠAo S
Ġ Ï
Ġar rest
ĠCT CAE
Ger inge
Ġze kere
Ġbe moe
op slag
ir ium
han gende
Ġpre klinische
Ġhersen gebieden
Tele phone
Ġle vel
ot ic
Ġoccip itale
Ġip sil
l ite
Ġperiod ieke
ke uren
ĠW H
Ġstroom op
vo ering
Ġoste o
ij p
Ġr ijden
Ġspier cellen
ĠVragen lijst
Ġvoor uit
ĠH SV
Ġverl icht
Ġverst oord
Ġuit barst
Ġwe kelijk
ĠB aby
Ġhypoden se
on ly
Ġsp oedeisende
Ġgel digheid
Ġoplos baarheid
Ġidi opathische
Ġeierstok kanker
Ġperic ardi
Ġblijk en
omet h
Ġverdo ofd
W ire
ĠVent il
se ct
ĠO f
Ġachter naam
lin king
Ġw anden
H y
Ġt ool
Ġrec idieven
W ij
Ġgenot ypen
ĠInvas ieve
ĠE GF
Ġverw achten
as me
Ġb rengt
ĠIn stit
ru chten
Ġurine weg
Ġverdw ijnen
ock et
Ġbemiddel t
il ine
k week
Ġch im
an x
ĠB er
z amer
ter e
Ġwerv ell
Ġuitkomst maten
ijft ig
ĠJ VD
( )))
Ġtran sc
Ġant ik
Ġkl ieren
ĠVer wij
ĠEx tra
Ġf les
Ġzon es
Ġst ol
Ġm ug
Ġhart team
AN D
Ġhom oloog
Ġinsul ineresistentie
nauw keur
as one
Ġsyn chron
Ġprostagland ine
ĠWer k
ĠN B
effect iviteit
T TE
ĠEl k
Ġosse ous
ĠSoc iety
Eer ste
o int
Ġallo gene
ĠStand ard
Ġcon d
ĠPC A
Ġinter fac
Ġcons istentie
Ġve getatie
CT A
ĠP GE
ĠU p
Ġleeftijds groep
Ġh yster
ee ch
h h
rache al
he pat
ĠA st
sp annings
stro men
ill ing
Ġme vrouw
Ġtra den
Ġving ers
Ġinfarct en
b oom
Ġb iv
re sectie
Ġcontrole personen
y lin
ĠHier bij
Ġretroper itonale
Ġur eters
P at
Ġconc epten
Ġvererg erd
ion als
Ġho ud
13 9
Ġantibiot icum
N og
ĠT c
i gens
c ort
Ġgroeif actoren
ĠMe di
Ġanal oge
Ġex pert
krist all
Ġvol doet
. ;
Ġaut omatisch
Ġgem on
ĠD ig
ĠP ulm
Ġbili rubine
om an
embran e
ĠOnverander de
duc ed
Ġ1 21
Ġrel ax
Ġbeantwoor den
Ġtromb ine
Ġge ometrie
behoe ften
Ġvoor naam
arm ing
Ġna delen
ic ag
lat ing
Ġlevensbed reigende
Ġne ven
morf ologie
Ġno w
ole culen
Ġnier insufficiÃ«ntie
Ġmicro s
Ġ19 99
Ġtransm embraan
Ġverla ging
Ġcel groei
Ġaorta wortel
p iek
in aat
velop ment
macro fa
in erecept
m aterialen
Ġvest ib
Ġwe ig
u ten
G O
agul antia
otrex aat
Ġc ut
elz ucht
Ġge se
Ġin hib
we et
l iter
Ġopio Ã¯de
g ometrie
Ġsug gestief
ĠIn dia
ĠMin im
res ss
Ġe isen
i ose
Ġverst oorde
veill ance
S et
ĠO A
roc yt
Ġalom tegenwoor
Ġp ub
ff ecten
ĠS PO
Ġneurolog ie
con omische
Ġelektro cardi
w ite
Ġre section
dru pp
Ġwit hout
orm en
ĠF our
+ .
Ġsat s
Ġubiquit ine
her n
Di agnose
Ġverniet iging
Ġst elde
ch ond
inesc entie
ur k
Ġgew ogen
Ġhem idi
ol aterale
Ġgecon st
ur ige
ib el
Ġverschijn t
und aire
Ġcalc ificaties
Ġam put
Ġradi alis
Ġbez it
oplos singen
Ġgemodu leerd
ron g
ĠS DS
Ġop gaande
ant iÃ«le
Ġsol ide
p H
Ġinterview s
AB LE
la zen
ĠBe eld
m ium
ĠPAN CRE
centr ische
ho st
om od
iwit ten
p neumonie
Ġbiofil m
Ġaf metingen
controle s
Ġkw adrant
il y
Ġ200 1
oprote Ã¯n
ĠgeÃ¯mpl anteerd
Ġand rogeen
ve di
Ġhyper t
Ġambul ance
Ġchem icaliÃ«n
Ġonver z
drain age
op ter
Ġverstor ingen
Ġ12 8
tro m
Met oprolol
Ġimmun otherapie
Ġvrouw tjes
alis eert
ĠG E
Ġel astische
Mon o
Ġge duid
Ġf acet
instr ument
ĠA z
Ġ ],
Ġoste omyelitis
lo kken
Ġda y
Ġvre emde
Ġmod us
Ġw rijven
Ġaange taste
Ġboven arm
sp lan
Ġze bra
ĠGez amen
iciÃ«n t
cons umptie
ver g
Ġgel dt
Ġqu a
Ġinst ellen
Ġvorm den
Ġtum orm
IS A
adren aline
Ġant rop
Ġimplement eren
Ġexp an
en yl
ĠE B
Sp ontane
Ġconcurr entie
Ġdra st
ster ol
Ġuitste kend
otrop ie
Â ®
Ġuit voer
In dien
i ologische
â ī
ĠPR BC
Ġbij zondere
arde ffusie
ĠGed urende
Ġper foratie
Ġsch et
Ġsch aar
t b
Ġvariab el
ĠG ec
gg gg
Ġt ypen
G U
re dig
W H
Ġol factor
dr ingen
B re
l d
Ġcult urele
Ġ11 3
Ġpneumon iae
darm kanaal
Ġongew enste
Ġalk yl
Ġdisc riminatie
b anden
Ġar ach
is functie
Ġon omk
TI R
G oede
Ġp lex
Ġeth ische
ĠCor onale
H er
Ġs elen
ĠK on
Ġgetransp l
Ġge elzucht
Ġaort astenose
Ġbevorder de
ĠVAL VE
Ġgal bul
ĠKw aliteit
ĠScler a
Ġk ran
ĠL age
Ġpro lifer
Ġnucle us
zonder heden
Ġtromb o
Ġwaarnem ing
ho den
Ġup date
ĠIn ch
Ġmut ante
Ġcytos olische
hyper tensie
Ġhoofd stam
we gende
Ġskelet spieren
Ġen han
ĠC AL
zi atische
men te
ul ation
al ingen
om alie
Ġblan ke
G lucose
c ositeit
d ont
bi ologische
Ġin derdaad
Ġver vorming
ol aat
c atheter
20 22
AL E
ĠT S
ym e
Ġvl gs
ult aat
Ġac idose
Ġovervloe dig
Ġradi ografisch
Ġinspanning stolerantie
Ġ11 4
mid dag
Ġgeb oden
TR IC
Ġ14 2
Ġelim ineren
Ġplate au
wijz er
ĠDiscrimin ation
al ase
Ġhui dig
elijk heid
Ġdal ingen
um p
ĠC BC
Ġnu chtere
ĠG al
ĠNiet temin
Ġv ectoren
Ġtumorg roei
Ġwaarde vol
Ġfys ische
Ġat ria
Ġsim vastatine
obut amine
Ġglut amine
dem on
Ġv ee
Ġcompartim enten
rit or
Ġsup pletie
Ġz agen
ill ige
ocic ept
Ġrechter ventrikel
AB P
ĠN MDA
Ġemp hyse
Ġag ar
ĠL os
acro lim
Ġsept ische
act ine
ĠMult iv
es ie
Ġun iform
LO W
Ġmeld de
ĠP FO
iftig ing
Ġbe ademing
s electieve
re ductase
Ġbelangrijk er
Ġgeverif ieerd
ET A
Ġ## ,#
Ġhemat ocriet
ran olol
R os
sp raktijk
verz am
jaar s
quis itie
abap entine
in delijk
leg gen
CP K
Ġin gew
ass ist
min ste
Ġbloed culturen
ĠBe v
ĠAbs Eos
ĠO ct
ro genen
Z OR
Ġdat e
Ġhan dicap
c it
ĠHuis arts
Ġverlen en
ĠA mino
NI T
lan ke
oc clusie
vari abelen
Ġk il
Ġt abel
Ġsch alen
rij s
Ġnacht elijke
Ġval ideren
de fin
Ġet ikettering
ĠAr t
Ġro kers
Ġn asale
Ġdop aminerge
Ġaltern atieven
Ġ13 1
ĠN EG
Ġafst oting
Ġover gezet
acerb atie
Ġz at
Ġant agon
ĠG SH
am plitude
Ġc er
Ġcompartim ent
Ġbe mid
ĠS y
Ġk loon
Ġ# "
aryn g
ne ut
Ġep itheliale
ing er
Ġne oplastische
acrolim us
Ġchlor ide
Ġgast heren
Ġslecht ere
ĠM am
Ġtrans vers
gra ft
ĠAl bumine
ĠTH E
Ġ### -##
Ġactiv ator
ĠS EM
spectie ven
Ġrepresent atieve
Ġfor amin
G P
ĠNAD PH
DAT E
d rom
Ġac cum
ĠR a
ĠC re
versch il
f ix
Ġge form
Ġf lux
ĠV loe
ag ina
iat rie
ĠT CR
ocon st
Ġhoog waardige
Ġzw avel
V HD
Ġpres yn
Ġsla pel
ĠI tal
fen otype
p resent
Ġrun deren
ĠLYMP H
benz o
Ġcontra sten
rit ine
ĠC EN
Ġborst en
Ġtub ulaire
Ġverspre iden
Ġsyndro me
UT S
Ġth at
Ġgere kru
ĠPP AR
Ġonge voel
Ġp p
Ġlith ium
seff ect
menopauz ale
ocardiocardiocardiocardi ocardiocardiocardiocardi
Ġf ace
indic aties
Ġinter vallen
als nog
am nestisch
Ġun iforme
gevoel ig
Ġbenauw d
ĠÎ ³
Ġsoort gelijke
elektronen microscopie
Q u
Ġhe art
op us
Ġcarcin omen
Ġb atterij
Ġvan avond
Ġgez innen
Ġpatho geen
bere iding
ĠOnt kent
Ġbinding splaatsen
ĠT ylenol
Ġvre emd
oten sieve
P ET
lor a
ĠEuro pa
Ġsub ling
ret ard
eu ten
1 21
Ġprogressie f
10 9
I O
g ov
Ġjon gens
Ġantik anker
Ġvis cer
or ac
ĠH uid
bescher ming
ĠB ro
Ġsubst antiÃ«le
c ad
ĠgeÃ« x
Ġbev redigende
ĠCH A
ĠI le
Ġch emie
Ġmaand ag
ĠAJ CC
Ġpers istentie
tre kken
Ġsyn ap
Ġchem o
Ġst uren
Re sp
Ġco herente
ĠU P
Ġ13 4
Ġzo dra
ĠLV OT
Ġdarm lussen
p itheel
ĠDisc la
Ġmetast atisch
ri end
ĠPA F
Ġele v
V raag
Ġongew one
lok alisatie
Ġimplic eren
c ale
Ġtrig lyceriden
asp ie
vent ilatie
Ã¯ teit
komst en
Numer ic
ĠG FR
EG FR
verschijn selen
he orie
ien cy
ĠCh lor
Ġvloeib aar
ĠMedic ation
an ium
Ġat orvastatine
C lip
Ġtree dt
H ist
Ġect opie
Ġvaat lijden
Ġonopge merkt
Ġcr ypt
Ġkandid aten
ĠIntern ational
ĠLip ase
Ġc ris
l la
Ġsl ikken
100 0
vergro ting
arg inine
orf ine
b indings
ĠF SH
Ġ12 6
Ġs odium
di abetes
ser um
AT ER
Ġj ongen
ĠS tro
ĠVand aag
b aan
nel le
H V
In tellectual
Ġh iv
Ġinse ct
Ġverster kte
Ġpolikliniek bezoek
opa que
n acht
lo ven
Ġspre ken
Ġgehoor verlies
Ġal t
13 5
s oort
z ymen
Z E
Ġdynam ica
ii i
ĠAD HD
Ġcardi omy
rel or
Ġon mark
agnost iek
Ġmer ken
Ġgl ycine
at ografische
Ġaan tast
ive erd
Ġ13 2
n itro
ge zien
Ġde scri
mel k
Ġexpress ieniveaus
Ġprote Ã¯nen
ĠATP ase
Ġagon isten
Ġbuik wand
i op
R C
d us
AS S
min istratie
Ġl ij
Ġgele ide
ĠA BC
Ġkool water
Ġmening itis
Ġin cons
ĠG lob
oc ulaire
Ġmac rom
Ġs ets
behoe fte
m arker
en st
ĠF ran
T e
lig gend
Nierfunctie stoornis
Ġarg inine
Ġref lectie
Ġgal act
Ġdal ende
Ġwe an
Ġtest ten
p jes
Ġmodific aties
Ġamy gd
ĠG y
v igheid
Ġnef ropathie
art iculaire
Ġarter ia
ander en
ĠHem oglobine
Ġpart ners
Ġom zet
Ġvoorlop ig
Ġst aten
Ġbel emmer
Ġcol lectie
Ġcell ulose
Ġf mol
Ġuit een
Ġresp ondenten
ĠAan bevel
bev order
ĠVer tra
d oses
ĠT herapy
Ġun der
Ġ13 3
Ġtoege paste
Ġz uig
F armac
Meet waarden
Ġveel gebruik
ĠI de
Ġmy osine
ĠIn hal
Ġlok aliseren
Ġonver kla
F iguur
ĠNad at
lij ven
ĠVis ual
ĠH EM
Ġv iel
ur an
Ġover lap
p ap
Ġpre cor
m il
Ġgemodific eerd
vergelijk ing
ĠPla sm
Ġep ithel
ĠOmge keerd
dig de
er r
min derde
Ġvascul itis
Ġcholecyst itis
H yp
nc RNA
ĠL O
C reatinine
Ġhyper plasie
Ġd acht
eren ce
Ġon duidelijke
Ġop roep
Ġverk rijg
tens ion
ver werving
Ġcon structie
ĠDiscla imer
ĠD ISCH
if ug
ĠAbs Mono
Ġlo zen
Ġslapel oosheid
b iv
Ġ19 0
ro me
Ġaf sch
Af rik
urs oren
g if
Ġaf scheiding
Ġneutro pen
or roe
mer ing
Ġhoofd stuk
ov ir
Ġontvang er
OSP ITAL
ĠCR C
os ac
Ġintern ist
Ġw k
im etrie
Ġknoopp unt
Ġgere geld
Ġp ic
aal t
Ġbepaal t
ĠEvalu eer
Ġschrift elijke
w or
Ġmethod ologische
Ġapothe ek
Ġagen t
ĠS Q
Ġb ijkomen
S egment
Ġspec ialisme
Ġregel geving
ĠSO FT
Ġab x
il s
ee f
et her
Ġbe wij
lig and
Ġconf li
Ġkristal len
Ġpig ment
if actor
kk ig
Ġ12 3
Ġre gels
Ġge waardeerd
ĠAn emie
ĠST OP
OB JECT
V S
ub es
Ġgestabil iseerd
ĠM w
ad ine
odi lat
Ġstim uleerde
Ġen dem
sign alerings
Ġpol it
Ġgez ins
ĠEr ytro
C u
Ġbepaal den
Ġdram atische
t aak
Ġversch enen
Ġie der
ap ar
remp els
weer stand
l lu
Ġb aan
Ġgerekru teerd
Ġlaten te
v iezen
ver ontreinig
Ġcon jug
Ġpre cursor
Ġket ens
Ġ20 21
Ġle kkage
Ġk appa
ĠN orm
omen ten
ra ger
Ġgeman ip
ro g
Ġzuiver ing
iv atie
sim ulaties
ish man
LE EN
pre paraten
Ġskelet spier
Ġcon clu
Ġre gen
obacter iÃ«n
katheter isatie
rom it
Ġtach ycard
m ar
id ol
contra ctie
Ġpol arisatie
len g
T ime
path ie
Ġgu an
tra ining
Ġflav on
Ġdaar mee
Ġverk eerd
Ġger ep
ĠG ep
Ar t
ĉĊ Âł
ellect ueel
ĠT G
AL S
ĠTromb ocyten
Ġj odium
ĠInstruct ions
Ġfen ol
wer kings
Ġhypot hesen
P B
ra den
Ġal goritmen
Ġk ijken
Ġmicro vasculaire
is ed
Ġduizel ig
Ġdig oxine
Ġminst ens
Ġver du
Ġo bese
Ġfac iliteit
ab olisme
ĠF c
t oelating
Ġmultif ocale
Ġgedifferentie erd
ĠAS AT
Ġax on
lact am
ati ere
W T
ĠT ISS
ar es
Ġongew oon
IN S
11 5
Ġwe et
ess ante
Ġfarmacokin etische
ĠH is
Ġtevreden heid
te k
Ġuite inde
Ġt amponade
Ġne oplasmata
at uratie
ĠUnivers ity
geassoc ieerd
Ġtrem or
> -
ĠH GB
Ġhand matig
opress ine
ĠMe ch
acchar omyces
ĠM s
ival ent
A sp
pt uur
Ġk ationen
Ġel uting
ĠE CM
ĠV III
tit ude
re onine
Ġverpleeg kundig
Ġgecon dition
lam y
Ġz n
Cre atie
ome ch
Ġr ig
ĠW istar
arch itect
Ġbesch eiden
hoog d
sil on
oc yste
Ġovervloe dige
ex p
iver y
Ġren ine
Ġfluor es
app el
v eertig
ro kken
Ġsoc iaale
vle kken
Ġopn amen
ch icine
anth ine
Ġg ingen
Ġverzw akking
potent iaal
ycl us
dru g
Ġperic ardeffusie
Ġin w
acry lamide
Ġhydro cefal
ĠB acillus
Ġactiver ings
aff initeit
al cohol
Ġconserv atieve
Ġbl ock
regen eratie
Ġmicro RNA
ĠA NI
i zen
im p
Ġannu um
Ġgeschikt heid
Ġt av
Ġch olinerge
ik keld
Ġn umber
Ġblan co
BS N
U reum
g ran
Ġp lu
y leen
() ]
Ġro mp
uit dag
Ġonge compliceerde
Ġfun geert
Ġvoor kant
Ġk oel
ĠIn dic
Ġinterpret eren
formul ier
Ġter ritor
ĠIn di
Ġn al
an je
Ġbi as
uil ing
OBJECT ID
Ġin komen
ox iderende
Ġex em
Neut s
Ġfre q
form ance
V O
wer kingen
ĠP ositie
Ġhyp oxische
Ġges ub
ocomp atibiliteit
B G
ĠL EG
Ġre par
Ġpanc re
Ġst aaf
Ġimmunore activiteit
il et
ochten d
A K
Ġele ctieve
Ġp in
Ġwerkgroep leden
mel ingen
dela ars
Ġgecon serveerd
sp el
fract uren
ĠAR DS
Ġobser veren
Ġn arc
ĠI r
Ġt ijden
Ġin activatie
Ġcontractie le
Ġzebra vis
y rine
ec eptor
sc ans
Ġcell ulitis
Ġtoege diende
act rim
E B
sp atiÃ«nten
ad mission
Ġaute ur
Ġcon junct
Ġbij werking
Ġcorrel eerden
Ġversn ellen
on in
ell ere
Ġcor rig
ĠZe ven
ĠS ymmet
C ar
ĠSim vastatine
tra umatische
ent ing
ĠEvalu atie
v ee
PAT I
gebruik ers
Ġper ine
ĠL CA
Ġwe sterse
Ġdefin itief
Ġdilat ation
Ġkamer temperatuur
Ġopen baar
t om
id ische
Ġm eg
stre ert
ra ction
V ers
Ġaange wezen
Ġbere iding
ap pen
per me
Ġorb itale
ĠWer eld
Ġhypok inesie
ĠLact aat
ram idale
Ġglyc os
fractie s
stand aard
ĠM ann
Ġflexib iliteit
extra ct
over expressie
nel punten
Ġop tra
Ġstri atum
Ġwil t
Ġverwij de
in tens
vang ers
Ġsup rac
ĠM K
Ġziekteverwek kers
Z n
Ġaf voer
H ol
i ra
Ġcommun ic
at ran
Ġg p
Ġm t
Ġd y
ten tie
Ġbest raal
ĠV als
lin de
ĠAo V
uter iene
Ġbev onden
Ġelektron isch
Ġvolto oiden
Ġkwets baarheid
ĠL P
Ġprof ylactische
Ġhouden d
Ġfenot ypen
Ġp itting
Ġ### ,
E l
o vasculaire
ater al
ĠRadi ologie
Ġl en
ital op
Ġaut osomaal
on idine
Ġparas itaire
Ġged om
Ġrecht op
Ġd ragers
ĠFe der
Ġzo et
Ġch irurgen
H I
Ġal hier
11 3
Ġresul teerden
Ġh eem
LO G
ZOR G
R Y
ĠMo del
ĠL icht
mb da
Ġste igers
t aal
Ġuitsluit en
ĠC och
Ġongebruik elijke
ath orac
at roon
Ġappar atuur
ge vat
A o
f oon
L ymp
ip oten
n eem
h s
Ġgolf lengte
ĠIn vent
ot ypische
ver v
op ic
Ġvoor gelegd
Al cohol
Ġkla agde
Ġbeginnen de
p eptiden
pol i
ron ectine
osf eer
ĠÂµ g
s ings
maal s
et an
CO PD
Ġvoor vallen
bouw en
Ġact ueel
Ġ12 2
ĠEx periment
Ġonvolle dige
Ġsignaal routes
ĠM Y
me den
Ġhel ix
Ġhippocamp ale
g ine
Ġcomm ands
im et
CA G
Ġfe ite
Ġradio actief
Ġsubc orticale
ĠB MP
Ġvol gde
ĠR U
Ġf al
Ġbru ine
ĠGem iddel
ĠgeÃ¯n cludeerd
Ġziekenhuis cursus
Ġbest uur
Ġinter essante
Ġprec ies
A uteur
Ġdos erings
Ġsl ib
Ġtre ft
laat ste
ĠB est
Ġpre frontale
adren oc
schat te
orte x
ĠP IV
a h
of osfaat
Ġmaag darmkanaal
Ġbas ilaire
Ġsilic ium
Ġbrad y
ĠD F
Ġtumor i
ri ct
az ijn
an ol
Ġz omer
ĠCon s
Ġart h
perim entele
k orrel
Ġst omp
v H
Ġtrac ering
log ische
ĠF DG
ĠPANCRE AS
Ġs ho
S ub
Ġscher pe
lymf oom
kl ist
Ġolfactor ische
Ġleven d
g olven
ĠgeÃ¯ llu
res idu
ob lot
Ġmet hanol
v ulaire
b ijn
ĠDI AG
icag relor
ĠK n
ZORG INSTELLING
at t
Ġre mo
Ġh a
Ġwand bewegings
con azol
Ġlig gende
Ġne w
Ġad duct
Ġro bot
N even
Ġretroper itoneale
Ġkwij ting
s upp
Ġhier in
fil m
Ġgesp leten
b ili
Echocardi ogram
conto uren
fosf amide
Ġaf nemen
Ġdo eleinden
ui kens
Ġhist orische
Ġkosten eff
ĠA ORT
Ġmamm ografie
ĠW AS
ant el
Ġcor resp
dynam iek
kin asen
Ġann ulus
bet erde
Ġcomplement aire
UR L
13 3
ĠL eu
Ġfol ders
fie le
as semble
ĠCan ada
oide s
Ġhem is
fil tratie
Ġ11 7
ĠgeÃ¯ mmun
ĠW ee
C ol
Ġelektrof orese
Ã¯ eve
ĠC NS
Hart frequentie
ORM AL
ubl ieft
Ġe d
at aal
Ġtussen liggende
oek omst
Ġlinker hand
Ġsp orten
T rans
Ġgeb oekt
Ġdi vers
z oe
f outen
ĠQu ality
Ġmann etjes
k its
u gel
ag er
g reep
immuun ziekten
Ġ12 9
st rom
st ublieft
a antal
cyc lase
ĠN aam
ĠUR EA
b a
groot tes
Ġenzym activiteit
Ġgefosfory leerd
Ġprob eerden
n ormaliteit
Ġammon iak
Ġintra cellulair
Ġsur gery
Ġup regulatie
spar ameters
t elling
ĠEn gel
Ġ7 50
Ġ **
Rec ente
AC h
Ġduid t
ac y
Ġvoe gen
art h
Ġnabij heid
Ġdoor gegeven
Ġsn ellere
lin ks
ĠTer min
Ġkal f
bb re
ĠO ral
Ġknaag dieren
Ġverander den
Ġborst wand
sup pletie
Ġendot racheale
Ġstop zetting
is per
apopt otische
Ġal uminium
ept idase
Ġontstekings reactie
- .
immun ore
Ġten minste
Ġaan passingen
ĠT AP
Ġhemorrag ische
d ingen
Ġoverlapp ende
k aart
stan dig
ep inefrine
m ed
ĠPT H
Ġvoor doen
ĠW eer
G aat
Ġmedi aan
Ġgeste gen
T B
stechn iek
ĠO hm
d ys
ens is
och emie
Ġkant oor
ĠReg ul
ĠHE AD
ĠG nRH
on ad
c oc
onucle ase
Hep arine
ĠT ien
Ġrechts drukken
Ġrechter knie
Ġd ringen
ĠACT H
y b
Ġop hogen
H P
Ġvocht afname
ĠP N
ver sterkte
ĠV II
ĠChem ical
Ġo ther
Ġgeleid baarheid
Ġgo ud
ĠF in
r c
stap pen
Ġh ers
iÃ«n t
TE D
m uc
sla ving
Ġlan delijke
Ġbio actieve
ĠLeuk ocyten
ac ed
ĠAbs Lymp
Ġkon ijn
Ġsub segment
ĠSt ationaire
Ver wijzer
it ische
Ġsug gestie
sm ateriaal
ĠâĢ ľ
A ut
ur onen
Ġcomment aar
Ġgro ss
f ag
integ ratie
p aar
n l
ĠOn c
Ġf acil
leg d
G MP
Ġbi osynthetische
ot ica
Ġkwal itatief
ĠB eper
Ġvir t
Ġdomin antie
Ġana erobe
ol us
Ġlich amen
fre quente
la ding
j j
bre iding
H ier
Ġgele idelijke
Ġdisc rep
Ġk eerde
Ġpathof ysiologische
ĠBLE ED
Ġmonokl onaal
ĠSamen gevat
ĠN SCLC
Ġsubclav i
cent ra
ĠG olgi
ĠF GF
Ġonder gaat
ĠAl cohol
Ġart rose
ĠAssoc iation
Ġaf standen
elect iviteit
ĠB B
ĠK ore
ĠG est
Ġde f
ĠR BTB
ĠCV RM
Ġduur de
Ġvertra gen
ĠOnge wijzigd
Ġvlucht ige
Ġf atale
Ġincis ies
Ġstij gen
ad ju
Ġover vulling
omp lex
v reden
dis c
Ġm ur
NA c
Ġgar anderen
re constructie
Ġvis ie
uc oom
ĠK i
Ġaf ebrile
ĠU NIT
Ġgese quenced
kk ings
r ate
TR A
Ġelekt risch
ondersteun de
ul atoren
sub straat
a emie
D rie
verz adiging
ĠAr g
Ġgeconst ateerd
g ru
id ylin
ĠgeÃ¯llu streerd
VALVAL VALVAL
Ġpenet ratie
Ġtr is
d ol
Ġgeboorte gewicht
Ġon vrucht
Ġmidden oor
wijd te
wijz ingen
Ġn oor
Ġglyc erol
ge maakt
Ġch est
13 7
yp an
ĠAB D
Ġ1 19
ro w
V R
n aal
p atient
glyc os
Ġt herapy
Ġs jab
Ġsociaale conomische
Ġ[ ].
Ġthym us
Ġbe kle
Con trast
inter face
et hanol
Ġvolto oiing
M IC
Ġad ditie
w anden
ar oxaban
or eg
ik te
ie ert
Ġdetect eerbare
K lin
Ġd alen
Ġinsuff icientie
Ġrechter long
ok ines
ular iteit
ĠHel aas
Ġbre dere
Ġp ract
Ġonder kwab
Ġgevo eld
Ġ if
Ġhydrox yl
Ġs arcoom
âĢ ¢
re flex
ĠRe chtse
Ġsub cellulaire
Ġpericard itis
ij de
Ġbood schap
Ġaf spraken
Ġver meden
Ġreg imes
Ġglucos et
im a
ive d
Ġho ut
Ġcol lo
ie uze
id in
Ġg ap
et entie
ĠN D
iet rouw
Ġadip ocyten
ĠCan dida
Domin ance
ĠAt heroscler
Ġhier mee
mut ase
arte fact
ĠF EV
Ġin tense
Ġz ag
M SC
Ġverwond ing
Ġlip opolysaccharide
ĠC ox
Ġonmark eerbaar
Ġver ontreinigende
net werken
micro sc
polym orf
Ġr illingen
Ġverdu ist
ĠO SA
Ġf as
Ġvoorsp elt
tot ale
Ġgem elde
Ġaantrek kelijk
Ġaf neemt
Ġmach ines
divid uele
ĠO B
or ine
Ġver een
Ġj icht
Ġgal stenen
am ot
Ġammon ium
B atterij
b ox
Ġbest onden
I AL
ĠIN F
ijn ing
ro de
Ġ14 4
Ġvascul atuur
Be handeling
Ġcardio vasculair
Ġ###; ##
Ġwaar sch
Ġm sec
Ġb ruik
Ġd armen
ĠPer fusie
oc iaal
ĠEn kele
keur ing
cht ing
b roken
ĠEX T
Ġkatalyse ert
Ġb u
Ġco dering
Ġexpan sie
Ġimmunosuppressie ve
Ġge han
Ġdis ulfide
Ġkw ik
Ġbo ot
ĠN eu
Ġh elling
sp ons
zym e
plic aties
Ġanti gene
ĠO edeem
Ġ2 20
ĠN eut
Ġend oscopie
Eer dere
min der
PR E
st al
Ġf lank
ĠL AB
Ġdiep gaande
Ġtoler ated
o is
n on
k eren
oes ofageale
mid den
ont an
kal ische
ĠU C
tra ct
Ġspra y
ist hese
ĠP OS
Ġmult ilevel
Ġaggreg aten
Ġax onale
Ġ19 90
h ttps
dilat eerde
ere brale
aspie gels
ĠR P
Ġmetast atische
ou dt
Ġf on
Ġster kere
Ġduur zame
Ġpul l
u ite
Ġgen etica
Ġseizoens gebonden
ĠP anc
17 0
ĠB lijf
ĠT D
Ġbesch ouwen
Ġmy ocardi
Ġeryt he
Ġdox orubicine
Ġh een
Ġtransf ectie
Ġpa uze
ĠA AA
HHHH HHHH
Ġmed ul
Ġdown regulatie
or h
Ġonder stre
ox ifen
u ige
Ġe sc
Ġopgele verd
Ġkwaadaardig heid
ĠHerh aalde
Ġspre uken
Ġbloed lichaam
or a
Ġverb ale
ge controleerde
oxy gen
in dicatie
Ġtest iculaire
ĠSom s
Ġkan sen
Ġmechan istische
ĠK want
b ib
Ġwar me
ĠFL U
Ġ14 3
b linde
f asen
m ings
Ġ15 00
gang s
clu ster
Ġge ometrische
Ġ use
ge sloten
ĠP y
ĠD irect
Ġlys ine
op pen
ost ruct
ĠI sch
o zoa
ĠT oekomst
Ġdisc ip
olip ide
ĠHE ART
) ].
Ġver los
im etrische
Ġlept ine
ĠC s
oorte datum
Ġst il
Ġradi of
j aren
N o
Ġrechter kamer
ĠN ort
Ġafge sproken
V eel
Ġp ra
Ġgeorganis eerd
Ġk oort
um on
t i
Ġbeh eren
laag de
00 3
Ġ12 4
Ġpap ill
et itieve
Ġgezondheid stoestand
ĠQ AM
m L
ĠW ith
Ġk ust
Ġeven eens
oest anden
ĠN ier
Ġsynthet iseren
g iÃ«n
Ġd ent
Ġvar ken
Ġlip osomen
Ġhepatocel lulair
ĠGro ep
ĠV ari
Ġextra syst
Ġbiom edische
zet tingen
ep ime
Ġz int
Ġgeoper eerd
om ic
f ore
Ġgeb roken
ĠLev othyroxine
ch le
Ġtegen strij
Ġgen der
14 1
Ġzet meel
ĠDIAG NOS
qu ine
Pulmon es
Ġsc oliose
Ġwond genezing
p al
ĠPh armac
Ġopen bare
Ġempir isch
Ġst res
Ġimmun o
Ġbloot stellings
Ġblot ting
a ise
Ġmaal tijd
Ġde hydrogenase
ĠS Y
c ost
ĠS ympt
Ġz aden
Ġipsil aterale
ĠMyc obacterium
ĠV A
ĠVerhoog d
italop ram
ĠTot ale
verb and
comp ens
Ġh itte
ox inen
ĠV SD
Ġhand matige
Ġontbre ekt
sub eenheden
al f
Ġorthop edische
ĠRec idief
Ġsinds dien
Ġher vatten
Ġflow cytometrie
opy ran
er ale
om b
s i
ĠEt OH
CM V
Ġg amm
Ġdraa ien
Ġpubl iek
fin anc
ig ingen
ministr ation
Ġbil at
Ġge compliceerde
Ġlevensvat bare
Ġtr if
Ġinf ra
Ġovar iÃ«le
Ġna usea
Ġvoor gaande
ver ster
ric es
ust achycardie
Ġc iprofloxacine
Ġperman ent
Ġdi ameters
Ġtra be
Ġant woorden
Ġuit drukking
Ġmot ief
gen otype
Ġged achten
Ġacet ab
r erende
it idine
ros is
ui dige
dust rie
Ġmultip ele
ĠH IF
Ġgenees kundige
oo oo
Ġziekteverwek ker
Ġp T
m as
Ġt a
ke uze
geneesm iddelen
O OD
Ġol d
Ġsil ica
Abd omen
Ġor der
Ġorganis aties
Ġl ief
ĠHemat ocriet
pla sma
re Ã«
groe ifactor
ĠT RA
yclo vir
Ġvolto oien
oxic illine
Ġzuiver e
Ġische misch
opt ische
Ġlog istische
Ġkn ieÃ«n
B lanco
Ġopw inding
ĠC arb
ho x
ft al
ath ing
ĠPR O
Ġdisc rimin
Ġdermat itis
: :
Ġaandacht s
ve y
Ġbloed suik
ire s
ĠO M
Ġverk eerde
po int
Ġcont our
Ġneu romus
IS H
Ġstab iliseren
ĠO D
alt iek
ill i
let tend
Ġretin opathie
ĠP atiente
ĠSt ruct
Ġher vat
ĠB MD
ĠP lavix
Ġsens oren
oel de
oefen en
B E
A andacht
Ġfarmacokin etiek
ĠM eest
Ġ## ,
Ġtoegevoe gde
m aar
rom agnetische
il um
Ġinteg rine
Ġte pel
ĠgeÃ« lim
ster ings
kle in
Ġtoe passen
f ax
Ġsim uleren
idylin ositol
ru k
ĠR AD
Ġc os
Ġaminozuur sequentie
Ġop le
Ġdrain ing
yl ine
Ġber icht
ĠU ite
Ġblokk eerde
Ġschijn baar
ant um
Ġrh in
T F
13 1
Ġver se
ĠG i
aa ier
di hydro
On danks
ox ie
Ġsynerge tische
Ġoverleven den
isol atie
Ġbib liotheek
Ġsyndro men
ĠSulf ate
1 12
Ġbe wijzen
Ġmis vormingen
Ġpol aire
bet rokken
V al
ĠVIE WS
Ġz a
ĠAd vies
g re
vang er
G EN
Ġbe wegende
ĠH SP
* ]
Ġch oline
Ġmyel ine
ĠFour ier
ĠDisc riminatie
Ġzo veel
chem isch
Ġbijge werkt
ĠReg adenoson
W F
M eer
c ran
Ġneuro loog
ĠD uur
Ġdu al
art rose
Ġbere iden
Ġgem odel
Ġradi opaque
Ġspec iaal
co Ã¶rd
Ġge ac
apopt ose
Ver apamil
Ġaut isme
han kelijk
Ġdiafrag ma
ĠV EN
) =
Ġsamentre kking
Ġbe heerd
eng th
SO D
ĠVol gende
Ġbloeduitst orting
W N
Im mediate
sche ur
ĠH P
la bel
X R
I mmun
Ġgeaut oriseerd
ĠEX TR
Ġbeoordeel de
g oed
O K
Ġzorgvul dige
Ġtarge ting
ĠBo wel
ger apporte
oz ym
Ġtegenover gestelde
Ġchromosof ische
ĠU NE
ĠE CHO
Ġpijn lijk
ĠW ell
Ġb aat
ĠV oelt
it t
ocyt ische
olip iden
su per
ek sen
In t
rat ropium
ad ox
ĠV rij
Ġbelemm erd
Ġal anine
opro st
Ġcogn itie
Ġevalu aties
Ġover gevoeligheid
Ġgede comp
AL L
Ġlong vaat
Ġcon gen
lo opt
p aal
iet ische
Ġrechterboven kwab
lost ri
Ġdwars door
Ġvolwassen heid
klin iek
elen a
Ġsp lic
r us
Ġop gesteld
Ġdop pler
wite xpressie
Ġplasmaconcentr aties
Ġtert iaire
Ġch irale
s ituatie
ĠCoch rane
ĠO c
Ġon aange
og astrische
Ġintr athorac
ut ionele
Ġ12 7
car cinomen
ver y
ve ctor
ĠÎ¼ m
gra al
P AP
Ġf aag
Ġzwanger schappen
ife dipine
ĠHV Z
Ġcontro versie
Ġcoron avirus
Ġo dd
Ġvast gestelde
ĠH M
Ġkanker patiÃ«nten
Ġtar we
Ġl ing
Ġbeweeg lijkheid
ĠAbs Neut
E p
Ġnan om
omeg aly
Ġklep pen
bi om
Ġt oxic
Ġbrand wonden
ig vul
ĠW Hz
ĠSP LEEN
spec ificiteit
NI BP
Ġkop ieÃ«n
i oc
Ab s
P a
ĠS l
oph ag
ĠTP N
kin deren
Ġge or
dist ributie
ox on
l aten
ant igen
Ġste iger
Ġver vorm
ĠT ab
e GFR
u if
aar digen
Ġden kt
nem er
res on
potent ialen
ĠBijge volg
n m
Ġex tr
Ġzon ne
Ġmoeilijk e
Ġtar ief
uig ingen
T achy
Ġgediagnostic eerde
ver de
Ġaanpak ken
Ġox ycodone
appar aten
assist eerde
Ġcontroversie el
ĠP LA
path ologie
fosfat ase
ĠF en
Ġonder kant
beper kte
Ġbe weegt
Ġmit ogeen
k kingen
Ġbra chten
n u
sch rom
Ġprote olytische
Ġlang zamer
Ġda ad
Ġ ))
Ġfamil y
onef ritis
Ġvragen lijsten
Ġse qu
w th
Ġomk eerbare
d y
azol am
Ġmedicamente us
Ġhers ent
ob arb
Ġnor adrenaline
Ġtherap ietrouw
Ġle eg
r alen
ri axon
Ġiem and
ĠU RI
Ġreproduc eerbaarheid
ĠGezamen lijk
ĠRen ale
Ġruim tes
z eem
ĠD N
Ġplant aardige
Ġover sch
ĠgeÃ« vol
mot ief
i ater
Amerik a
opre cipitatie
Ġfosfolip iden
kw ater
A s
Ġw achten
Ġacet on
Ġeiwit kinase
Voor geschiedenis
Ġoverle ef
Ġap pro
ĠAbs ent
her nia
Ġproces s
ĠhematopoÃ« tische
Ġwervell ichaam
el ement
ith iasis
ox o
Ġonverz adigde
ĠA Î²
Ġfe b
ul erend
Ġt ort
hydrox ylase
de v
Ġa ders
ans etron
ĠMult i
B LED
Ġv ouw
Ar g
yst rofie
moe digd
ĠG elijk
Ġ {
Ġuitsluit ing
Ġing repen
Ġgl ioom
Ġfenot ypes
ĠV ERKLAR
Ġregul ier
Ġafw eer
Vers lag
Ġstem ming
reactie ve
ense erd
ĠTechn ique
Ġint erd
Ã¨ me
Ġex amine
Ġsch een
waar dig
Ġje ug
ĠM CA
it ril
ĠBe kend
kw am
Ġperip anc
horm onen
h am
Ġhyp onat
ro us
Ġhoofd ader
fen ol
Ġm olaire
ĠOver weeg
c ombin
ĠRespir ator
Ġmuta genese
inter venties
Ġh as
tre atment
a deren
Ġantidepress iva
isen se
Ġventil ator
ĠStrept ococcus
ĠB RCA
Ġpersoonlijk heids
ĠHS M
ple k
le m
ra an
Ġrect aal
Ġgew ichten
Ġarbe id
on ic
ak ings
Ġgen oemde
agnost ische
11 6
k arakter
al goritmen
Ġzwem men
wer kte
veil igheid
Ġein dige
ĠFI NAL
L Q
Ġaan verwante
Ġenkel s
ĠDe x
Ġaanb rengen
ĠD H
ĠMC F
Ġspect roscopische
n atrium
Ġherhal ingen
Ġde positie
Ġantioxid anten
Ġho of
y es
Ġb indings
ben en
amin ase
Ġkatalys ator
famil ies
ĠL ys
eeeeeeee eeeeeeee
Ġn ig
ijk t
ĠT CO
Ġmicrotub uli
Ġb anen
es ion
Ġder halve
k les
ĠÎ¼ M
Ġreces sieve
re digend
Ġend oplasmatisch
ĠUn its
blok ker
ĠL N
emb olie
ĠgeÃ«lim ineerd
Ġverw ard
sm atige
ĠFlow sheet
Ġide ale
lu cin
Ġgebruik elijk
sc en
ge Ã¯
Ġg aten
T r
Ġar ray
Ġstij gende
diff ractie
hang ers
Ġversch een
> )
Ġfist els
idi um
ĠB a
Ġhe u
Ġdiabet e
Ġver if
Ġwacht lijst
Ġiso vormen
op tie
Ġcytos ol
Ġwel k
Ġgew assen
Ġw ave
richt lijnen
C AT
Ġonge wijzigde
Ġgeb ouwd
u profen
Ġaut opsie
Ġtra ct
methyl atie
Ġtrac king
ab out
ĠOri ented
metho xy
Ġover ge
Ġ19 98
ie len
sch ool
g ast
Ġcircum flex
Ġmagn et
ĠK lachten
ĠJ ournal
n an
Ġgroep s
Ġhalf waardetijd
Ġfosfolip ide
Ġendothel iale
ĠL LL
ur ium
M IN
ĠE OS
kin etiek
Ġblokk eert
Ġsch ouders
ĠV erd
Ġver werken
ĠW gt
h u
al va
G L
RI F
ĠCol le
D el
Ġdi hydro
Ġda ily
Ġperist altiek
as ing
Ġz oekt
Ġonge compliceerd
Ġspie gel
are are
ĠVoort gezet
Ġro oster
class ificatie
PATI ENT
d op
Ġpen icilline
Ġpul sen
Ġgevoel loosheid
Ġomgevings factoren
Ġdeel contact
Ġt rek
ĠV ader
O W
Ġ15 5
section ele
Ġgl ijden
i ct
amer a
gen oten
inst ituut
Ġkamer lucht
Ġbev roren
Ġ' -
lu k
orte erd
Ġmeth otrexaat
Ġventil ation
im us
oder m
Ġat om
Ġe ut
Ġann ule
ob iliteit
Ġlos se
af braak
G est
Ġregressie analyse
act am
c et
Ġp ron
F C
ĠB L
lig ging
iÃ« s
ĠM oe
Ġcompet itieve
ĠNaar mate
sen sor
N ORMAL
Ġonderver deeld
omge vingen
Ġoper ationele
c yclo
Ġlamin a
Ġrec or
vaccin s
Ġmanifest atie
Ġuitgangs vraag
Ġscha delijk
Ġbest rij
Ġlever transplantatie
ho ff
ĠAnt ibiotica
g lykemie
iv an
Ġonder d
Ġs witch
ot ran
re ert
Ġverk eer
ĠImmun ohistoch
Ġsuspen sie
Ġtransvers ale
int ellectueel
OD ES
ĠVro ege
ĠP op
ost omie
ĠCardi omedi
Ġmurm ur
Ġgec reÃ«
Ġveronderst ellen
cler ose
ĠSec undaire
Ġradi ograph
ĠDru gs
ĠT a
Ġn yst
Ġbre ast
ram adol
Ġop zet
Ġimp uls
g r
Ġm ix
Ġtra ag
Ġepide miologie
Ġbe oog
Ġstij gingen
Neven diagnose
Ġetn ische
Ġop dracht
ĠA Z
Ġom gaan
Ġ **)
at riale
Ġh ave
ogen es
praktijk en
Ġaan wezige
S er
Ġs x
ĠCar cinoma
infil tratie
b an
ĠHum an
voe gd
in structies
14 2
om melingen
Ġbed rijf
N ormaal
idi dym
or isch
ĠST ART
Ġvoorzicht ig
ram ide
azijn zuur
Ġver ze
Ġde lay
00 4
Ġg all
the orie
Ġvoor z
ast ine
ĠSV G
orf e
Ġherhaal delijk
ĠL y
ĠDel ta
Ġstre ef
Ġk cal
Ġir rit
ĠB ere
behandel ings
vedi lol
Ġmorf ologisch
ĠInstit ute
it aminen
Ġg riep
ost atische
Ġgener eert
Ġam t
Ġpericard vocht
Ġradi ografische
orbid iteiten
tri als
Ġverpl icht
Ġont sn
Ġc ascade
Ġkal veren
Ġverd un
Ġst aande
âĢ ¦
Ġs ize
Ġchange s
Ġge open
trans formatie
ĠMB q
Ġmer kt
Klin isch
Ġkransslagader s
ĠM N
Ġk uur
ĠM orphine
ANB EV
f out
medi a
Ġcap t
Ġch ec
th rough
EGEGEGEGEGEGEGEG EGEGEGEGEGEGEGEG
Ġ3 50
g ers
Ġhart transplantatie
ot ro
Ġde b
all ergie
Ġgen oteerd
Ġmechan isch
Ġdicht heden
Ġg ig
OB IL
Ġdoor verwezen
Ġf ood
Hol ter
ĠNE UTS
Ġfoll ikels
Ġpop lite
Ġkopp elings
Ġvolde den
Ġgl io
Ġomk eerbaar
Ġgal weg
Ġverm ijd
ĠMan agement
ĠUite indelijk
Ġvererg eren
Ġprim aten
Ġg len
Ġbevorder d
Ġambul ante
ogn itieve
ruct ose
Ġbloedst ol
Ġcombine ert
Ġinst abiele
ĠA ANBEV
Ġbetre ffende
con ditie
Ġimmun omod
Ġtra an
Ġab ortus
Ġbe fore
Ġbesch ouw
g v
ĠI T
200 2
Ġleeftijds groepen
Ġant agonisten
Ġmat ch
stadi a
Ġsterftec ijfer
Ġweerspiegel d
ĠComp lic
Ġonderk aak
Ġconcurr erende
Ġconcentr eren
Ġs ek
ĠH odgkin
tensie f
Ġre ag
Ġged ragen
Ġp ure
Ġsuper nat
A cute
Ġelement aire
Ġcarb oxyl
Ġwand verdi
ĠAan vankelijk
el lo
ĠD ose
if erase
ĠMo gelijke
Ġformul eringen
Ġpr n
I K
Ġgec lust
rim idine
Ġne st
atib ele
Ġe ster
Ġgeoptim aliseerde
Ġno ted
di meer
at rofie
ep itheel
Ġb ureau
Ġmeis je
11 7
mon itoring
ker nen
Ġvan morgen
tens iva
Ã¯ c
Ġaan vraag
spro fiel
Ġfrag mentatie
Ġal stublieft
Ġju ist
Ġhan delen
gemeen schap
ĠSTE CHNIQUE
Ġelektro statische
Ġnauw lettend
Ġgalblad der
ĠimmunodeficiÃ«ntie virus
i als
**] )
we kken
end ing
ĠChirurg ie
ap ap
ex c
Ġzw eren
Ġtach yp
Ġconclu de
Ġangi ogram
Ġdemon streren
Ġan organische
split sing
Ġinit iatief
Ġontw richting
calc ificaties
ierd oor
f eer
ĠE SV
Ġvoor ouder
Ġmuis model
ĠComp arison
I J
Ġtrache ale
Ver schillende
kla ssen
test re
Ġg olven
Ġged ro
Ġlevens stijl
lan gen
Ġannule erte
pro bleem
ĠF INDINGEN
čĊč Ċ
ĠChe f
ĠS AM
Ġgesynthet iseerde
ur n
o wn
ĠCh rom
Ġaf stem
Ġs w
Ġr if
lit axel
Ġkolon isatie
Ġtax a
ETA IL
Ġpublic atie
et ale
af zetting
ks uele
Ġru w
ĠH sp
Ġhist ologie
Ġgluc agon
Ġveiligheid s
Ġverb inden
ĠC ap
R ON
v aardigheden
Ġpor euze
ĠEx pressie
Ġm ent
chn iek
ĠO or
anis atie
is cus
Ġad d
sla an
ĠRD P
ĠM ex
BL INK
ĠL id
on sters
trans fer
WE BLINK
AB D
Ġinfectie ziekten
Ġsch epen
chirurg ische
voor t
cycl i
Ġlinker arm
Ġat ax
ĠKon ink
Ġdie per
ĠF em
lutic asone
ĠAtrium fibrilleren
Ġsec ond
N RT
ĠgeÃ¯n formeerde
Ġultra viol
Ġbesch adigde
d c
Ġelektrof ysiologische
Ġtransp ar
inf ect
Ġneuro tro
Ġhersen letsel
ĠTra ce
opro these
Ġverdi kte
E lekt
end ocriene
Ġin vloeden
] (
M CH
tit els
14 5
mogelijk heden
m u
Ġuitgest eld
ĠPM N
Ġresp ir
dition eel
er entie
du ction
Ac cess
Ġbescherm d
Ġh arm
ĠAm ylase
nst ig
ul sie
kw amen
ĠDi agnostic
ĠSt age
Ġi cter
ant ibiotica
as men
Ġper one
Ġneer slag
it ation
ant er
e qu
Ġint elligen
prop ion
ap er
Ġfoet ussen
Ġuit stroom
sm odel
Ġview s
h av
Ġnec rot
if er
Ġs no
Hem oglobine
Ġcon gestief
il iÃ«
Ġversch uivingen
el laire
Ġgal ops
Ġgepro gramm
ĠOR GAN
be houd
Ġform ule
ĠUNE AN
c at
Ġt i
Ġk nelpunten
b oek
ĠPa O
Ġest radiol
Ġgekleur d
Ġclip s
ne de
Ġan omalie
ĠSp ecifiek
ich e
ĠW t
Ġintra mus
Ġverk le
ab ig
Ġlip ase
Ġpen is
orb ent
Ġwee kend
Ġw ant
ĠHT x
Ġin middels
if f
Ġret ard
Ġaf nemende
osit as
ĠBay es
Tromb ocyten
12 3
ĠResult s
Ġer kenning
Ġcommerc ieel
ĠEchocardi ogram
in ner
Ġamput atie
Ġvle k
Ġveelgebruik te
cor rectie
os m
ĠO ut
Ġsympt omatisch
ofys ische
Ġaritmie Ã«n
w ley
Ġdarm kanker
Ġf us
b io
Ġrapporte ert
Ġdefin ities
ĠCON TRAST
glob uline
Ġver werving
pleeg kundigen
yn chron
Ġbew oners
Ġbloed monsters
(+) -
p ub
voorz ien
Ġgesp lit
sm ol
ram es
transcri pt
Ġasc orb
Ġb racht
Ġw onen
Ġtoepas baarheid
beper kende
ĠAdem haling
AL AT
Ġoplever t
ĠED V
Ġgep aarde
cir culatie
ĠHem odynamische
ĠE G
ab e
Ġver richten
gele ider
ĠD T
Ġper spectieven
Ġing ang
Ġk opie
cor rige
Ġgeform uleerd
rac il
ij ven
ĠP ur
hersen helft
Re chts
Ġc ement
Ġdraag bare
Ġgecon centreerd
Bij zonderheden
Ġvoorlop ers
Ġhan gende
Ġal buterol
ĠS accharomyces
Ġonder ling
Ġ19 97
Ġdu iden
ĠSc ore
Ġfor amen
Ġhy al
Ġpan demie
or adi
hor ten
Ġwer kte
Ġin actieve
Ġmult im
p ende
g p
c ephal
ĠD ag
ic ation
oc ef
Ġth iol
D ETAIL
m Tc
ret entie
Ġpost synaptische
Ġp unct
r yl
Ġop i
Ġbev rucht
Ġdetectie limiet
lus h
Ġsle chter
ak ers
Ġscler a
ĠNe gen
BB B
Ġwis kundige
Ġspin del
land se
Ġcardiopulmon aire
Ġkeratin ocyten
ĠRE NAL
Ġmas ker
Ġpro to
Ġt halamus
Ġoef enen
Ġimp edantie
ĠSt atist
C Y
Ġk atheters
Ġtoe dienings
Ġam ts
um en
ster oÃ¯de
Ġaden opathie
Ġoste oblast
Ġt ere
oc ephal
Ġsen escentie
o in
Ġon bep
ign aal
ĠL ichaam
ĠEchocardi ografie
ocy te
Ġcon strueren
k olon
ĠL R
Ġgemat chte
lam ine
il lo
opath ieÃ«n
Ġcontrole groepen
uit ge
Ġri bbre
uss ent
Ġge schreven
gewoon ten
Ġantip sych
elektro de
Ġevent s
Ġonverw achte
Ġm n
in clusief
Ġd ringende
Ġleid den
Ġger es
Ġspec ific
Ġonverkla ar
Ġsp anningen
etan ide
t wee
Ġmicro array
Ġl ign
ĠInvent ory
invas ie
Ġprim ary
G al
als venen
n ot
Ġspiraal vormige
spro tocol
Ġde den
Ġses sie
Ġtr yptofaan
Ġbl ik
Ġcad mium
Ġamygd ala
f ila
im aging
rag ue
200 1
ĠLC X
Ġk m
Ġcrit erium
ĠS MA
Ġz ui
Ġpest iciden
Ġdisper sie
ag mus
Ġfysiot herapie
Ġmet at
ING S
T em
Ġa ids
Ġfab ric
b eg
d omin
Ġw in
last ic
CL US
os itis
ĠAf ib
Ġcon ve
I GF
Ġdiscip line
ĠT or
it iviteit
ĠF O
Ġmetab ool
Ġstatist ieken
Ġprim a
+) -
Ġb ele
Ġeenmal ig
end oc
ul cer
Ġlet ter
Ġsmal le
Ġlat entie
medic ijn
ĠS n
Ġpl ur
Ġgek atalyse
Ġplaatsv ond
Ġprakt isch
ĠCo umadin
Ġvermen igvul
Vraag stelling
Ġtr ypsine
ger icht
SO S
Ġterug trekking
vas atie
bic ans
Ġeind punt
Ġcorrig eren
Ġmug gen
vat tingen
cell ymf
ĠB E
ger ust
Ġst af
Ġvas culair
Ġv order
Ġses sies
NA ME
Ġhiel den
Sp O
in stelling
kan s
an z
schak eld
ĠTe gelijkertijd
gluc os
ri or
Ġk iller
Ġsub optimale
Ġsymmet rie
Ġmidden rif
ĠPL T
Ġfluor oscopische
Ġre pe
un es
f yse
Pat int
Ġost ium
Ġre k
Ġcons umenten
p ent
ar rest
p ot
ier eg
Ġkenmer kende
Ġzint uig
instr umenten
iden ce
ĠH ad
Ġan or
Ġstop datum
ĠW nt
i om
rop lastiek
Ġeff lux
P EG
Ġsynap sen
sc intig
Ġer toe
ACT ER
ĠVan co
Ġb uffer
ven e
Ġleeft ijden
Ġst aps
orte d
Ġ17 5
Ġreal time
anal oog
Ġge absorb
Ġgeb ogen
kle m
ĠW HO
Ġspermat ozoa
abig atran
Ġ aten
Ġmin i
Ġger angschik
Ġt on
immun iteit
plant atie
LP S
Ġmit rale
Ġv eer
Ġdis mutase
Ġhi atale
Ġgroe ire
Ġvrij dag
oden dro
A u
os ferische
ĠDa gelijk
ĠE lect
Ġec i
ĠInt act
ĠL ife
ĠMD RD
Ġsat uratie
ien s
Ġect opische
ĠF H
Ġs y
ra d
Ġmenstru atie
Ġver dubb
ĠPrim aire
iso vormen
er der
Ġmicrog lia
ĠSp oor
Ġat titude
ometh acine
Ġst ad
Ġpost trans
Ġclu stering
ĠEen heid
Ġreser voir
ĠMD A
an itidine
Ġerv aart
ĠM AG
man agement
Ġisol eren
zw eer
ĠK a
Ġp ij
Ġprofess ionals
ĠR LL
Ġzeker heid
Ġfoll ikel
dis p
oot s
ĠErytro cyten
Ġ $
ab ces
ab l
ĠST T
dro ging
f as
hou der
Ġuitge voerde
ĠV ar
Ġongevoel ig
ĠE mb
ĠAg atston
Ġoverd ag
ier ing
Ġns VT
clu sters
Ġsubst itutie
Ġvis cositeit
Ġverwacht ingen
c reatinine
ag ne
Ġvertegenwoor digd
Ġretro cardiale
Ġmetab ol
f ectie
diff usie
ad on
Ġuit braak
Ġriv ier
oog st
Ġkort durende
ra pp
ĠF P
ĠP ast
ĠVertra agde
Ġm TOR
ho f
Ġneutrofie le
ine ert
uw e
Ġbetro f
Ġfosfolip ase
Ġw ijn
Ġcerebro spinale
' )
ĠIn teg
stim ulerende
ĠP an
Ġbloe dend
Ġal coholische
iss oc
Ġveronder stelling
gader ing
B F
Ġimmun ost
ĠCoron aire
fre quenties
Ġben ut
ĠSp rague
ĠM UC
ĠI BD
ol pen
ĠBe handel
Ġrefract aire
Ġinf rarood
per oxidase
Ġge her
S N
Ġd uplex
ĠA SS
de gradatie
ĠL LE
cad her
Ġpolym erisatie
Ġmoeilijk heden
anc ed
Ġrep ort
res ultaat
Ġvas oconst
14 3
Ġk ary
alis aties
Ġwervel slagader
Ġet hyleen
od yl
Ġgeh olpen
lan aire
Ġsept aal
Ġd rank
plat form
Ġkal ibratie
Ġepit open
h abil
h oor
is ion
ĠJ R
Ġaut omatische
er nstige
sp aren
Ġfol iumzuur
ĠN AS
yl atie
in ele
Ġbeoor delings
bere keningen
Ġgl y
Ġviscer ale
ol air
il anden
Ġaange moedigd
Ġlinkerventr ikelfunctie
Ġonc ologie
Ġimmuun cellen
Ġech ogeniciteit
Ġca ve
er wijs
Ġdrast isch
sens ibilisatie
link ed
Ġperiode s
ĠAANBEV ELING
ĠN asal
Ġgraad s
Ġclass ificaties
Ġc op
ĠDis order
Ant ist
Ġaus cul
Ġscintig r
Ġgenorm aliseerd
ĠP ub
ĠCH D
ro o
Ġalt hans
betrokken heid
Ġhepat op
opp ing
Ġonverander de
Ġbijkomen de
Ġl ist
re cht
ĠPost operatief
Ġfibrin ogeen
ĠDaar bij
cor d
Ġgez et
Ġcel membraan
ot oxische
ib ilis
ĠVoor naam
Ġtekort kom
v i
Ġser ologische
Ġm elding
ĠF luor
Ġ(% ):
Ġconstitutie ve
t oxine
ende ctomie
Ġradiografie Ã«n
ĠSter k
sch ijf
s electie
Ġdaad wer
iodar one
Ġdefect e
ĠgeÃ«vol ueerd
Ġcompress ibiliteit
RE NAL
Ġp ees
Ġverschijn ing
Ġin n
ĠU OP
at her
hyp ot
ferent iÃ«le
Ġvrijw illige
Ġ2 30
ge sprek
Ġlop ende
Ġthe ma
in duc
Ġg if
Ġontde kte
ĠB ar
f armac
Ġherschik king
Ġwe kken
la ser
Ġwen sen
Ġvol tage
art ikel
Ġlevens lang
M OD
Ġgev acc
Ġduct ale
Ġbescherm t
Ġeven redig
Ġstro ke
ill ings
Ġz aken
Ġdis order
Ġextra heren
Ġge loof
Ġgift ige
van s
du idend
co op
ĠGez ondheid
ĠN och
Ġtemp or
Ġpoly ethyleen
ĠD iver
Ġko ff
Ġj r
iden tific
Ġh inder
Ġvrien delijke
Ġevalu ation
ĠR M
icusp ide
Ġj ur
ĠD CM
bo dem
Ġanticon ceptie
ne vel
Ġgele gd
receptor antagonist
Ġgev aren
Ġm ang
w ann
15 7
Ġdrin kwater
Ġverst an
ĠT i
Ġo oit
Ġd ak
s itu
Ġglomer ul
Ig G
Ġont kende
kin ine
Ġt elling
Ġtij de
Ġaf nam
Ġch ild
Ġversle cht
ĠS cintig
Ġra den
Ġib uprofen
ĠOr gel
Ġsyn thase
ĠPerif ere
Ġsub acute
di hydroxy
bi as
Ġhuis hou
z inn
Ġkolon ies
Ġmeld ingen
Ġre vascularisatie
ĉ ĉ
pre dnis
] ].
raf isch
Ġde st
Ġnef rot
Ġion isatie
Ġpro lactine
in dustrie
Ġant isch
Ġprop ranolol
vari abiliteit
mat isch
ĠBev inding
ĠV oed
Ġsug gest
8 00
Ġorgan isch
u v
- %
Ġger uis
Ġop volging
Ġst ationaire
Ġf ok
Ġkw ad
meng sel
Ġstab ilis
ĠT ussen
Ġt hy
rel ated
Ġrespons iviteit
iz er
(- /-)
Ġs lij
Ġcolla b
## )
Ġtubercul osis
Ġaer osol
Ġd ens
ĠR emming
ĠChe w
Ġfer mentatie
Ġdubbel blinde
ens elijke
Ġv ull
Ġpolym ere
Ġaccept atie
Ġbre ak
Ġc v
Ġperin atale
ho ge
Ġri bben
Ġinsp iratie
k a
Ġde sc
ok t
Ġgemak kelijke
Ġlinker knie
ec eptoren
Ġdifferent iÃ«ren
Ġpotent ialen
ĠL umb
ĠAort aklep
on ieke
Ġepilept ische
Ġcontractie s
Ġbloed vat
bb bb
Ġuit oefenen
c ascade
Ġsamen leving
Ġstroomop waarts
ĠCT L
Ġacet aat
zep am
Ġeind stadium
rij fs
Ġfunction al
Ġdim eer
Ġcarcin ogenese
ĠA pp
Ġ## -##
Ġf ijn
Ġb or
if erol
naam Pattern
is eert
ĠSp iraal
Ġinf erolateraal
reactie f
iv ale
Ġverenig ingen
Ġvisu aliseren
Ġco valente
omorf e
ĠCont act
Ġvoedsel inname
qu ate
Ġpers istente
Ġradi al
Ġhart stilstand
Ġm aan
Ġwaterstof peroxide
m ij
activer ende
Ġdruk pijn
Ġodd s
oph ilus
A sc
E t
Ġsubarachn oÃ¯de
mi RNA
Ġplex us
ĠS ert
Ġdil tiazem
z ijdse
Ġcyclo fosfamide
Ġbifurc atie
if ier
Ġdi am
Ġdepressie f
luid t
comp artim
N u
ĠFeder atie
b uffer
Ġisol aat
ap eron
itone aal
osc opisch
Ġremmen d
regul erende
Ġzelf standig
ĠS la
Ġinval iditeit
drupp els
Ġpla s
Ġgerecon strueerd
Ġze i
Ġmicrotub ule
Ġdra ins
r isic
Ġgespec ificeerd
Ġde polarisatie
org aan
EP T
zw art
ĠgecreÃ« erd
ang itis
pl aren
Ġgoed keuring
Ġafbre ek
Ġspijsver terings
Ġpost partum
ĠAfrik a
APP ORT
ĠH oudt
om ed
X A
Ġeduc atieve
ĠPT SS
Ġp el
in continentie
EN TI
Ġdrie voudige
Ġver luidt
Ġop brengsten
D is
Ġdi agon
Ġanti oxiderende
Ġt ylenol
Ġimm obilisatie
Medic al
o omp
Ġkristal structuur
ĠO OB
rop ine
ot opische
hal ings
ze gd
Ġep ididym
Ġla e
hel ix
ĠM c
Ġk am
Q U
Ġcatechol amine
Ġdescri bed
W at
ĠG o
Ġep inefrine
pan demie
ĠF ys
Ġgevorm de
ĠComp lex
H odgkin
Ġstere ot
l iss
Ġ5 000
Ġovertui gend
Ġj ug
ce aan
asure ment
ĠHe La
az on
Ġpar enter
ĠK wij
immun oassay
Ġpuls aties
ap e
Ġurine productie
Ġrecon structies
Ġw ig
al april
Ġm umol
ĠMel k
vent ig
ĠRe view
Ġnamen s
Ġch el
Ġop richting
Ġb omen
UL L
Ġbewij smateriaal
Ġald osteron
Ġbehandel t
Ġsub unit
w ar
Ġondersteun de
Ġgev oede
Ġg t
ĠC p
Ġrol stoel
at u
Ġ( =
Ġbenz odi
voor waarden
bacter iÃ«n
Ġclin ical
Ġ ),
ĠP AT
ĠHem odynam
S tr
ĠgecoÃ¶rd ineerde
ĠF YS
rin siek
Ġverander ende
ĠMet ast
fra me
E O
c le
function ele
ĠB is
ĠR ating
Ġben zo
Ġplat tel
ĠBAL B
Ġinnov atieve
Ġbi osens
io Ã¯de
A KT
ĠMed ische
ĠD IS
Ġopge zet
vascul atuur
Ġno te
y raat
Ġpercept uele
Ġstroomaf waarts
Ġal bicans
elin elin
Acet yl
A IR
Lab oratory
ade s
ĠA H
lever ing
ar yl
Ġbloedt rans
Ġde ficiÃ«ntie
Ġgro en
Ġhy dra
al amine
metab olieten
ĠA CC
Ġsch aam
Ġac quisitie
arc oma
Ġ( ),
Ġillu streert
In tra
ĠR EC
sul osine
Ġsu Ã¯c
Ġperi operatieve
ĠCh ol
Ġmurm uren
Ġextub atie
opath ologie
mer kingen
C alcium
ver rijk
ich i
Ġom hul
em ia
O per
Ġmass aspect
dimens ionaal
ule erden
Ġk lok
modi ficatie
Ġhum orale
Ġgen itale
AT A
ĠI X
Ġdecomp ressie
Ġfib ronectine
Ġgoedk ope
G raad
ĠTAP SE
ĠV VI
Ġaff ectieve
w a
ĠD NR
ĠC amp
Ġmitochond riaal
Ġobserv eerden
Ġhart functie
inf lamm
Ġbi ot
blok kers
Ġbelemm eren
antwoord ing
Ġheterozyg ote
S L
Ġver dra
Ġfylo gen
ĠM ater
Ġex ten
ĠR CC
ĠIC C
ĠH LD
gra dige
ĠAd ministration
Ġontste kingen
Ġfemor alis
Ġmeld den
Ġint rat
ĠR LE
ĠNot ch
Ġuitge legd
ĠK et
ac illine
ĠC enter
R ight
Ġmid azolam
ĠAustral iÃ«
Ġm omenten
Ġhemidi afrag
Ġplaats gevonden
Ġsch aars
ĠMin imale
Ġlys osomale
Ġtheorie Ã«n
ĠDien overeenkomstig
ĠChew able
F GF
Ġbibas ilaire
Ġverkal kt
ĠHb A
Ġsubsegment ale
g ol
ĠX en
catheter isatie
Ġgraf een
Ġfla gel
M ult
Ġant ir
Ġst olling
Ġverb anden
Ġpol ariteit
Ġont mo
Ġgecorrige erde
sp oel
ret ie
tens ive
lostri dium
Ġwaar b
Ġc ister
Ġper indopril
G ym
as i
co dering
ablok kers
m yc
Ġko ud
Ġgead sorb
Ġproble matiek
oskelet ale
Ġ19 96
bel ast
w at
ĠHoofdkla ag
Ġpost menopauzale
Ġcompos iet
Ġmon otherapie
Ġdis pla
Ġtit el
Ġechtgen ote
ĠCD K
y leerd
Cardi ovasculaire
stud y
Ġgedeel de
Ġz weet
um etanide
uit drukking
vol wassen
Ġsch olen
it ive
gra den
Ġglyc ogeen
Ġ19 95
Ġsym b
Ġof fic
oep el
Ġar seen
Ġchit osan
act u
m ycine
Ġcircu its
Ġm os
sche de
Ġstij gt
ĠF E
Ġachter kant
Ġc ateg
ĠW WP
toe diening
urg ical
gerapporte erde
kl onen
H uis
Ġge ob
vo uw
Ġk ap
Ġsyn apt
methyl ering
s a
AY AY
Ġernstig er
Ġgedetail leerd
ati ble
he erde
OR AC
Ġnauwkeurig er
Ġarbe ids
ĠPla sma
Ġslaap ap
ac odyl
ang st
mel te
ĠAf ro
ĠM F
Ġdaar uit
12 2
z outen
cip it
drag ers
ch ange
Ġam ine
Ġsuprac lav
iteit s
ings vermogen
Ġaccept or
Ġex am
Ġenhan cement
Ġpar acetamol
Ġmod aliteiten
ĠOr der
): [
Ġintraper itoneale
az org
ĠAT RIUM
ĠO ost
oxis maal
Ġarach id
ann er
Ġu re
Ġhem opt
Ġtumori genese
cu les
yc ardi
le ad
Ġul cus
Ġvoort zetting
Ġappen dic
Ġc odon
Ġverwer kings
Ġt ussent
Ġfollic ulaire
ri o
Ġanalge sie
Ġartefact en
Ġtre den
R h
iden tie
Ġneut r
Ġtrim ester
Ġprof iteren
Ġâī ¤
Ġprim ers
RI AL
ĠP LE
Ġk ik
Ġverdo ofde
ĠEXTR EMI
CI UM
Ġsub s
ĠC CR
el ok
F ol
v ivo
Ġdarm micro
but yl
Ġgemodel leerd
Ġcoun seling
Ġidentific eert
oefen ingen
st af
ĠOnt slag
erg illus
u es
Ġobserv ationele
ar ig
ĠÎ Ķ
est hesie
im ide
Ġonderd omp
st ract
Ġscheen been
Ġmoe sten
be kken
oven ox
Ġb erg
Ġin versie
ĠS ustained
Farmac ologic
Ġcr yp
ĠAm t
Ġgo al
Ġan ionen
Ġst och
ĠR Ã¶ntgen
Ġap ical
ĠM DL
vul de
Ġple k
cul us
Ġgast ritis
mb ly
Ġprop ort
ĠG ST
Ġip v
ĠG r
ox yc
etro virale
ĠVASC ULAR
Ġtr un
Ġre ferent
Ġbloedsuik er
Ġopio Ã¯den
K Y
ver mindering
T G
ĠJ P
Ġconstitutie f
str alen
Ġkin asen
ĠVergelijk bare
ĠH a
vaccin atie
Ġl ib
ĠH ulp
moe id
e ars
Ġconcentr ische
Ġw ho
ĠCon form
Ġho op
Ġfeed ing
differ entie
Ġhart dood
Ġb inaire
Ġdwarsdoor snede
00 6
Ġmislu kte
Ġv ouwen
Ġgezicht sver
Ġrekru tering
Ġag itatie
f lux
ĠDi astolische
ĠAD RENAL
Ġurine blaas
Ġsteekpro even
12 9
dt ijd
** ].
Ġprog ra
Ġele g
ĠTe gen
ĠB ijn
b loot
Ġherken bare
Ġten en
Ġ14 8
Ġb s
Ġorgan ellen
Ġinge zet
ĠPV I
c ategorie
p ig
Ġbeschermen d
Ġmaxim aliseren
Ġaf ib
Ġd oodsoorzaak
d ycardie
Ġgevestig d
o eld
ĠHB s
Ġvoor alsnog
Ġbinding splaats
fil ms
Ġlar vale
onder s
Ġform ele
ĠH om
ĠL ok
m ort
Ġdiverticul ose
ien d
Ġj euk
Ġsla g
E K
Ġwan delen
Ġimmunos orbent
geb aseerd
ist ers
Ġgef ix
ĠB es
astin aal
ĠE MG
Ġvas odilat
Ġor gel
is ciplin
ĠA UC
Ġal gen
P lan
V ASC
Ġover igens
iÃ« ct
Ġsubling u
an emie
S i
Ġradio activiteit
Ġsp ironolacton
Ġl ussen
Ġtrache a
Ġlaboratorium onderzoek
if ied
Ġgroei hormoon
carb onaat
Ġregul iere
ĠH o
ran den
sc ur
Ġaantrek kelijke
Ġpsychiat rie
tran splantaten
Ġonverklaar bare
ac ia
AR D
Ġbl inde
st ase
Ġpap ier
obobobob obobobob
ro eg
Ġpulmon alis
tr if
rib uties
oph en
mod uline
Ġgroeis nelheid
v us
st abiele
it em
Ġwer kende
Ġplur ipoten
ĠgecoÃ¶rd ineerd
tex ten
Ġrep orter
Ġdiabete spatiÃ«nten
Ġsp leet
Ġple kken
Ġbronch itis
Ġcom orbiditeit
Ġplasm aspiegels
ĠSpiraal verwerving
L H
Ġ( +/-
ĠH EP
op hor
ĠB K
Ġclassific eren
Ġ16 5
rat is
ĠIN TER
Ġmot ieven
Ġverrijk ing
Ġvoor stel
uc ine
Ã«n te
Ġpass age
Ġkristall ijne
Laboratorium onderzoek
ot ypes
ĠBas eline
Ġpop ul
ac cept
sch erp
amino zuur
Ġt ons
id om
w ell
Ġafge zien
H ES
Ġgedi st
Ġprikkel baarheid
Ġstro ma
ĠUnivers iteit
Ġla mbda
open em
Ġemot ies
A X
ent ra
schat tingen
P ulse
Ġprob eert
Ġtrans lationele
Ġregist reren
di rection
Ġaf lopende
Ġhabit at
ĠPost operatieve
M MP
ĠB lootstelling
Ġpro x
ĠEn do
Ġgeanalyse erde
Ġdecompens atie
)) ]
Ġcontrol led
Ġsecret ariaat
bla der
Ġregul atoren
Ġuitstre kken
fiel d
B r
st o
ar rays
vergelijk ingen
Ġgehe cht
ij zer
ĠoriÃ«n t
Ġst ollings
ĠN ucle
ĠA de
k oorts
Ġaan kleuring
Ġventr ikelfunctie
Ġadem geluiden
t rim
Ġb ig
ĠAfrik aanse
mino geen
Ġte xt
schak eling
ĠOS AS
Ġhuis houden
Ġembol isatie
Ġarchitect urale
cl usion
ĠV OOR
G ly
F urosemide
Ġcon dens
Ġbodem s
ische mie
ĠC EA
comp li
ĠV AS
ransp orter
do dec
L ongen
Ġdetermin ant
Ġrel ig
ĠInter val
Ġgev ar
Ġhem olytische
ĠBA SOS
Ġnor epinefrine
Ġlect ine
er n
Ġonvol wassen
Ġimmun oblot
Ġb aden
t ablet
am a
Ġkwets bare
Ġcons um
pol aris
oc ks
Ġeosin ofielen
Ġtijd sver
eiz ers
Ġuitge daag
Ġnoe men
Ġexem plaren
Al gemeen
Ġcircu it
Ġverpak king
Ġmal aise
Ġvoor schrijven
u x
Ġvan middag
em o
Ġpre vious
V as
Ġverantwoordelijk heid
architect uur
Ġbloedlichaam pjes
ĠE ffect
Ġkru iden
Ġsarco Ã¯dose
Ġsubclavi ane
ĠDuit sland
K O
HY HY
Ġom ega
Ġevenwicht s
ĠS TR
Ġin geb
oph age
ri ose
rij ving
oplasm atische
NP N
Ġgetra ind
ĠN itro
ĠAV NRT
ĠN or
sp len
Bre ath
Ġneut ralis
Ġo s
Ġge transcri
ĠRen al
ĠANI ON
Ġaus cult
CH est
b rengen
Ġbilater al
Ġbeleid s
Ġinf erieur
ive s
amb ocor
Ġover gangen
ĠPT A
Ġqu ad
Ġham ster
ge slacht
Ġproduct iviteit
ĠC erv
Ġgron dig
Ġheu pen
Ġhydro gel
upple menten
script ion
Ġp oriÃ«n
Ġact u
form ed
2 20
umm ers
through put
ĠU O
AI OS
ot er
Ġpart ic
Ġple ister
K opie
kra chten
ĠSc ientific
sept um
iÃ«n ten
ĠO xy
po Ã«
Ġhal lucin
ĠMultiv itaminen
Ġaug mentatie
B lood
Ġproductie ve
Ġm elena
ĠP LC
Ġgew enst
Ġterugk eren
13 2
ectie f
Ġpe zen
ĠNederland s
Ġmultip el
nucle otide
athy ro
Ġlet h
te kracht
ĠK CL
dynam ica
Ġmet af
ĠDetail s
IV E
seff iciÃ«ntie
ĠExtre miteiten
Ġolig odendro
Ġont lu
Ġindic es
ĠBraz iliÃ«
ĠA er
Ġsyn thetisch
Ġvas opressine
ul ering
oll ige
Ġst emm
RD P
ĠPre ventie
Ġtegen hangers
Ġnyst agmus
Ġonc ogene
met er
Ġm uz
init iatie
Ã« le
Ġnat ure
Ġexp onent
ar ted
Ġen velop
s uccinaat
Ġgemetast aseerd
T EN
Ġkoff ie
Ġrij pe
ind amycine
ral ine
G EM
ab ol
Ġcyclo sporine
oÃ¯ne zuur
Ġbeper kende
dend um
Ġnu chter
ab ric
Ġdichtheid s
Ġman chet
Ġzoekt ocht
ĠVer werving
Ġvoorspellen d
ĠJ ude
Ġro of
Ġweder zijdse
Ġly tes
af en
rom eter
ĠCont inu
ui ken
Ref erentie
Ġbev redigend
Ġp ocket
Ġopge wonden
ode ode
Ġexplic iet
IC AL
hoek ige
ĠW and
regul ation
ĠA ir
art raat
Ġlo wer
p k
Ġgeh oord
ĠEx perimentele
e di
tro se
Ġvereen voudig
b em
Ġurine wegen
ĠN umber
ist iek
Ġhart klep
p unctie
cont inu
Ġom kering
bl oe
pol aire
Ġmethyl ering
Ġre pressie
Ġ ĠčĊč
Ġher nieuw
k ie
Ġ-( ))
Ġom liggende
cell ig
Ġop in
ĠEndot racheal
ere se
Ġcar otiden
Ġs qu
Ġonder voeding
sp ijn
) ],
os mine
ide tector
Ġped is
vreden heid
omet risch
Ġaan raking
loc us
P AR
Ġolig os
quenc y
di alyse
Ġplaats elijke
E dema
ant us
Ġf alc
Ġspre ekuur
Ġp od
Ġchron ic
Ġgem ark
Ġt gv
et ikettering
ol zuur
Ġbi opten
ĠC MP
b v
Ġla dings
atie t
Ġdiast olisch
Ġpost er
ron idazol
ular is
dr ing
Ġgemakkelijk er
Ġultras ound
st atist
Ġoes ofag
v in
Ġmo gen
in fer
Ġr angschik
Ġsp enen
Ġbemon sterings
bl ind
ĠCK MB
Ġgehe melte
Ġco valent
Ġgebeur t
Ġcompet entie
Ġk aarten
Ġdier model
or p
od ine
Ġmot ivatie
oef end
Ġhydr atatie
ĠC ellen
ĠI SS
Ġlongslagader s
Ġd rijven
Ġliteratuur onderzoek
Ġaden ovirus
lopen d
Ġop port
L ength
u Ã¯
af il
iÃ« teit
uit slagen
m V
čč čĠč
ĠT BI
be wijs
Ġinter essant
fac iliteit
blaas jes
Ġgew onde
Ġd om
Ġvast houden
All ergie
at ur
Ġco derings
Ġneutropen ie
Ġc ec
z eer
da y
ig uraties
ĠPA IN
)] ]
ĠM CP
ĠK oorts
N ucle
l ichamen
cu p
Ġvolume verlies
Ġgedocumente erde
ox yn
s verlies
Ġtoe wijzing
Ġduur t
Ġverz adiging
Ġpolymorf e
ĠKonink rijk
onucle otiden
ob ie
Ġelektrol yt
Ġex per
ĠH MG
obarb ital
Ġzwaarlij vigheid
M edisch
gem odific
Ġdiver gentie
Ġant isense
Ġantist offen
Ġwens elijk
Ġcal orie
Ġscan nen
v ijftig
et al
Ġgl i
ot id
Ġmyocard itis
cir rose
ĠD ert
Ġk eizers
Ġgenoe gen
ĠBe oor
ĠT o
Ġsim plex
Ġthromb us
ge ten
ver delingen
ag ers
SP ECT
Ġuitst rijk
13 4
ĠVer rassend
ativ iteit
h ale
Ġscher m
Ġmon omeer
Ġmultip lex
Ġmann elijk
verd un
sch il
Ġdoor voer
acyl glycerol
ĠVals alva
Ġd B
Ġgla ucoom
Ġw a
ĠSp ecifieke
N azorg
Le ads
Ġstr ikt
Ġt int
Ex tra
Ġco chle
Ġbed rijven
ylo se
Ġ ati
Ġrib osomale
Ġjaarlijk s
Ġmerk bare
Ġpri v
ran ken
Ġmagn etisch
Ġan ale
oc cip
Ġnab urige
ĠWeten schap
ĠIn jectie
Sh ock
Ġgetrans fecteerd
ijft ien
Ġeryt hemat
om ieÃ«n
Ġgest ructureerde
Ġwas sen
beper kingen
Ġsynov iale
Ġv riend
EL D
Ġonder bre
Ġox yt
Ġb ov
ĠE NT
ĠP ap
ur inol
ĠSol ution
Ġverz achting
uit breiding
Ġvraag t
be stand
be elde
O verdracht
NA RY
Ġgezondheids werkers
ĠAst ma
Ġgro wth
verte brale
Ġ7 00
Ge bruik
ge tal
Ġkleur stroom
Ġv iraal
Da wley
Ġtwe eling
ĠHoofdkla cht
Ġvraag stelling
Ġr ingen
gel ing
Ġac rom
ĠS U
ist ry
tot aal
Ġgroe ide
ĠproteÃ¯n urie
ĠKin deren
therapie Ã«n
Ġvertro uw
rocardi ogram
ĠEx perimenten
gine ering
ĠS ingle
ĠVo iding
Q L
Ġma in
ĠO s
in spanningen
Ġkation ische
Ġexpert ise
Ġoefen ingen
inf uus
Ġge el
Ġplasm iden
ĠF R
Ġcontract iliteit
11 9
st ok
P antoprazol
ĠA sse
Ġbal ance
S ec
Ġpublic aties
sie lla
Ġj unction
Ġde gradatie
om s
Ġbaarmoederhals kanker
u per
ĠF luticasone
integ r
medi aan
Ġp ond
Ġbevatten de
ĠC at
Ġvirt uele
alys ator
Ġmeer voudig
eter mijn
ĠA merik
Ġgezondheid sproblemen
Ġklein ste
Ġij s
s inus
on amide
ĠAm lodipine
Ġmon ocyt
w ake
ĠP SV
ĠB RA
Ġv el
di ment
ill ary
ok at
ĠLichaam s
Ġheter odi
ĠAl dus
Ġhomozyg ote
Ge sproken
Ġosm otische
Ġhydro fiele
ER S
Ac enocoumarol
Ġepider mis
Fluor oscopie
Ġolig onucleotide
Ġleuc ine
Ġepit oop
Ġin voer
Ġtraum atisch
oc r
g ie
min im
os orbide
Ġrechter arm
Ġmer kte
Ġra m
in um
Ġcel adhesie
az ard
Ġna Ã¯eve
ĠMT X
Ġstij ve
Ġaf wissel
Ġgegener eerde
Ġcarb oxy
Ġsplen omegalie
Ġsc ale
Ġrec s
ia ir
Ġh oren
Ġmei ose
Ġuite inden
ult uur
Ġtran splantaten
Ġst ig
Ġschak elen
fag ie
ob acillus
rop h
w et
Ġgeco deerde
p eerd
Ġpolyp eptiden
Ġmanip uleren
ĠNAD H
. ),
Ġaf leiding
Ġf ant
ĠC lopidogrel
romit teerde
UR S
b ank
am inale
ĠA PC
Ġmest cellen
Ġkort durend
LOR IDE
Ġile um
ĠJ NK
Ġmod aliteit
Ġverrijk te
Ġsignificant ie
Ġf otor
An g
ob ronch
ĠPen icil
k inesie
Ġbed rijfs
Ġuit droging
ĠTele phone
ĠN ek
Ġaff erente
ati de
Ġintern et
or ige
Ġmicro flu
stij ging
Ġsamen stellingen
Ġverlen gen
ber icht
Ġpil ot
activiteit s
ĠL im
Ġbew uste
ra x
um inale
con structies
bb er
Ġe dema
Ġpla ssen
binding splaatsen
ura f
ĠS ep
ĠM ass
u cl
En d
Ġge ag
Ġextra vasatie
Ġannuleerte ken
ĠF M
extra cten
gen te
Ġinvas ief
ĠDel ivery
Hy dro
Z oeken
Ġtechn isch
A la
Ġal len
Ġfra ai
mat igheid
ĠB actrim
Ġtr illings
Ġaantoon de
Ġp eer
ell ar
al le
Ġhersen schors
riÃ«n ten
on es
Ġr ang
sc yclus
cum ine
p ijp
Ġcef al
Ġverwer ven
Ġafger ond
Ġhart revalidatie
T ract
Ġuitbarst ing
syn thet
Ġcardiopulmon ale
Ġopmer king
Ġl er
ĠMe vrouw
di i
oort je
ĠCF U
Ġwaar neem
osc open
er kt
T SH
Ġnaboot sen
Ġintermitt erend
ser ine
Ant i
Ġcollo Ã¯d
pl aten
Ġge iten
Ġr ange
oca ine
Ġver zeker
ÃīÃī ÃīÃī
X T
ĠIC P
Ġpost traumatische
on ende
cent imeter
E uro
ĠComp uter
Ġst elden
ĠL ichamelijk
Ġno dule
G a
Ġla m
ĠE v
Ġmet er
Ġregel gevende
Ġtrig ger
Ġvast gelegd
Ġvond st
Hart falen
Ġtransform erende
c il
ĠSle chte
Ġfag ocytose
elok een
N ES
amot idine
ĠAn amnese
Ġschak el
col leg
Ġverif iÃ«ren
Ġrust ige
yl sulfaat
Ġdosis afhankelijk
Ġa Ã«robe
ĠW as
spre staties
Ġlongknoop jes
Ġuitgedaag d
Ġassist ance
M it
ex periment
er baar
orf yrine
lax is
Ġminer ale
bri den
ĠP el
ab ilisatie
ĠB et
k eer
Ġbuik aorta
Ġfibr ine
Ġunivers ele
ĠMo dule
Ġ## )
Ġverwijder de
ĠB W
nit ros
dro og
ĠG S
okin ase
ĠCO S
Ġinterd isciplin
ute d
Ġische mia
Ġkleur stoffen
Ġrapport age
Ġaf b
cardi o
Ġno dulaire
ne y
osom al
om vang
Ġdemon stratie
ER D
Ġneuromus culaire
arit mie
Ġdim ethyl
Ġsupp ressor
Ġfila menten
Ġl ncRNA
duc er
Ġp lt
Ġ19 94
g ings
rij pe
Ġer kende
ĠVand aar
AD P
Ġe u
and aag
Ġin ner
Ġser vice
Ġonderhoud s
Ġno de
Ġpro m
gren zen
Ġhyster ectomie
Ġhaplot ype
rie ten
Ġr r
Ġuitge put
Ġf lecainide
lamp sie
r or
aan passing
ĠT DI
ĠJ L
Ġmis match
ĠResp ons
ĠX R
Ġopgeb ouwd
ĠPT CA
Ġuitda gende
ĠR OS
Ġbehandelings opties
ĠR PM
vole mie
in o
il iter
Bel consult
di abetische
Gl c
Ġprovinc ie
Ġmit ose
Atrium fibrilleren
R ele
Ġstemm ings
ĠP acemaker
Ġs ing
opolym eer
spro cedure
Ġversch oven
Ġmidden lijn
Ġox ide
ĠP up
Ġonder ge
ĠL aag
Ġgeopen d
âĢ ĵ
Ġmeth ionine
ĠâĢ ¢
ĠPMH x
off ers
ge ver
Ġuitbre iden
arg ine
Ġei witexpressie
Ġin tran
be straling
f os
Ġre pro
Y T
ĠRV OT
Ġle vo
11 4
Ġpap illaire
ĠVer minderde
Ġkw adr
Ġep idemie
dig ings
neuro pathie
Ġcran iot
Ġmuc osa
ĠO pen
ĠhiÃ«rarch ische
Ġver plaatsen
Ġd rift
reg imes
otrof e
ne den
ĠLE UK
ĠVeren igd
ĠMon te
Ġlum inale
Ġagressie f
b ische
d opa
Ġopt isch
Ġopz w
Ġcan al
Ġp aal
P SC
ĠPR L
Ġbl ind
ĠDISCH AR
f arin
Ġhilar ische
Ġantir etrovirale
AR E
Ġgla zen
ĠZ vH
ĠADRENAL S
Ġpat ella
lin ge
ĠgeÃ¯mmun iseerd
Ġvoor keuren
AV R
ĠMinim aal
ĠProp ofol
Ġgebruik er
Ġind omethacine
Ġcommun iceren
ĠF as
Ġs ide
Ġschro even
ĠT TP
Ġc oping
LIN ISCHE
bijn ier
ge corrige
lap se
Ġuitgangs vragen
Ġn t
Ġend ocytose
rof ische
Ġgep olar
Ġbemonst erd
anc y
ĠCol or
ĠL ichte
us us
ĠH U
Ġph ot
sla ap
g ron
mo de
re in
microsc oop
ĠL ater
Ġra ken
Ġtherm odynamische
Ġbijge volg
Ġonvrucht baarheid
Ġcardiomy ocyten
I B
con cept
ĠM acro
Ġdeeltjes grootte
Ġ12 00
Ġst ond
ro st
Ġsc ientific
ar ose
Ġannu anced
Ġanter oseptaal
Ġgedra peerd
Ġvol umes
Ġam f
ĠAf ebrile
bet aald
wijzig ing
Ġgetrans formeerde
er ve
ĠCon clusies
ĠDo wn
Ġverkla arde
Ġvoorsp ellings
prote ctieve
Ġtechn ologische
]] ]
Ġlinker long
ĠMe de
Ġbewijs kracht
od od
Ġmg PO
Ġcyt o
Ġspecial isten
Ġsur veillance
ĠMagn esium
Ġcase study
Ġverzam elde
T ran
sectie s
ĠV E
Ġra am
Ġcon genitale
H CT
ĠRicht lijn
injectie s
ox ap
hosp h
Ġdrupp els
osyl transferase
ĠHer sen
Ġal g
ge min
Ġintermedi air
ĠF armac
Ġwerk plek
oven euze
oÃ¯ sche
ĠAn at
M CV
Ġk loof
Ġnec rotische
woor dig
Ġdaar voor
ĠG D
ĠCR F
Ġglucocortic oÃ¯den
ĠR isk
U TE
ĠS hort
Ġpy ruvaat
Ġonomk eerbare
Ġver volgen
Ġfamil iaire
ys ine
ĠProte Ã¯ne
ĠA ziatische
Ġklachten vrij
ĠG es
rof osmine
Ġvor ig
ĠAnt ib
Ġfibrill atie
Ġwandbewegings stoornissen
om avirus
ad vies
Ġven en
ĠOR F
ign alen
ĠK NO
ic in
Ġdys lipidemie
hoog de
Ġast rocyt
Ġtaxon omische
Ġan af
ĠHist orie
Ġnorm alisatie
ac ellen
CH F
t is
Ġin itie
Ġpre operatief
Ġbi omech
Ġh it
Ġagen tia
ge schreven
Ġscreen ings
hol ten
respon sieve
Ġbet ablokker
ĠP neum
c apsule
s ig
Ġserum spiegels
il ob
let sels
Ġventr ik
ĠPM A
Ġmult is
Ġs acc
ce Ã¯ne
ĠM or
Ġbescherm de
ve ct
Ġcomm issie
ĠOr th
i as
Ġhematopo ietische
O A
der male
ĠToe voeging
ge comp
Ġk a
Ġverd unning
Ġtekortkom ingen
ĠLe w
Ġcel type
Ġfal anx
Ġis ole
Ġzorgverlen er
of lav
Ġhem olyse
ĠAl kalische
Ġa erobe
verkal kingen
d aling
wort els
ĠPC B
] /
Ġd in
Ġgen us
Ġ 00
mat ica
ĠW NT
lip ide
Ġuitkomst maat
Ġb rug
Ġhyper ther
Ġlact atie
Ġemphyse ma
Ġonbep aalde
ĠP l
con d
mass aspectrometrie
geb oorte
ĠD ys
ail ingen
Ġposition ering
fosf or
Ġaan melding
Ġ14 7
splant aties
Ġsign al
t rial
Ġziekenhuis opnames
Sc ore
Ġmt DNA
Ġdocument eren
ĠArt sen
Ġrecht vaardig
Ġhem ip
ĠPro min
Ġimmun ocyt
th iazide
Ġpalp itatie
Ġla stig
ver sus
Ġceft riaxon
Ġin eff
v rien
ma ximale
Ġrecor ds
IE F
Ġre is
Ġo vale
lu ent
Ġna dere
bi osynthese
ĠM amm
pers on
y reen
Ġv eter
Ġcris is
se igenschappen
K olom
vo uwen
Ġextra cellulair
P atiÃ«nten
Ġtam oxifen
Ġf os
Ġsem antische
ĠM ot
Ġstre kt
: (
ud ine
Ġzelf ver
test en
Ġat leten
Ġeic el
Ġsynerge tisch
Ġbloed producten
intest inal
ven d
Ġaan sluit
Ġendo geen
ĠBP H
v ier
C lopidogrel
de pletie
S EM
ĠVer schillen
Ġaort ab
uitdag ing
ĠL orazepam
oprote in
erge tische
is eerden
Ġopsp oren
con de
'-'- '-'-
Ġveronderst elde
Ġver tekening
iv um
ĠDer mat
bl ock
Ġexp lo
ĠCommun ication
Î Ķ
ĠAt rial
Ġco agulatie
Ġhyponat riÃ«mie
z akelijk
ĠK Cl
Ġtussen producten
Ġpancreas kanaal
Ġong rijp
Ġklep vit
uz umab
ĠR ash
aan val
st u
metho d
rip s
ĠBe wijs
P he
se iz
S NP
amet rische
AS AT
oper aties
Ġgrenzen d
Ġicter us
per spectief
o ste
ic le
Ġpol ysaccharide
Ġver ouder
Ġauscul ation
re atische
S ulf
Ġradi us
Ġgeluid s
posit ies
d ysp
ĠAt ivan
Kolom nr
oriÃ«n tatie
Ġecos ystemen
Ġhersen infarct
Ġfra me
vol ution
Ġhart katheterisatie
Ġzil ver
re erden
T GF
Ġh ot
Gest opte
Ġvoor stellen
ij e
hal f
ĠTI PS
ĠB SE
Ġis op
Ġinge vuld
Ġom ze
ĠO og
Ġad ministratie
Ġdiff ractie
C NT
ic ardi
om ica
Ġdoor gankelijk
Ġkle uren
Ġverduist erd
ĠA mp
Ġcon cent
lig anden
Ġati van
ĠS at
Ġverb indt
ul inen
k amers
ith ine
de de
ĠB rit
Ġlip pen
Ġrust ende
ON S
Ġtransm embrane
ĠgeÃ« t
cort ison
Ġmetat ars
Ġster iel
volg orde
com mun
ra p
Ġsp i
Ġhulp bronnen
Ġfosfat idylinositol
15 5
ĠUR B
Ġattitude s
j arig
Ġbinnen komst
Ġtoler eerde
mi R
Ġap art
Ġziekte progressie
ATIE VE
chem otherapie
Ġlang werp
Ġmus car
Ġc ot
Ġp os
14 4
Ġpro line
p rik
Ġovert uigingen
omy omy
ĠA ge
Ġcaud ale
Ġantisch immel
ĠZ D
ATER AL
ĠZelf s
Ġb in
b B
Ġvar iÃ«rende
ĠSub cutane
ss ure
Ġcel deling
Ġkwets baar
vis ed
hol tes
ĠP atiÃ«nte
Ġendot oxine
di astolische
Ġatm osferische
toe standen
ĠNeg atieve
Ġaminozuur residuen
Ġt ange
ĠR atten
dro me
zen den
Ġge Ã«nt
it le
Ġe cg
Ġsporad ische
Ġpoly kl
Ġonder druk
Ġal lot
Ġ5 50
Ġbel of
it onine
ĠPro g
ĠPD A
J M
Ġaan geven
Ġgedro og
Ġz uigen
Ġrechter heup
Ġgroeien d
ac iale
hor bol
ercul ose
Ġgist er
Ġtri gemin
z ings
ĠDS M
ver lichting
mod aliteiten
Ġgeconju geerd
Ġvol bloed
L ip
Ġzoogdier cellen
ly ing
Ġglyc oproteÃ¯nen
L IMA
Ġ2 10
ment s
Ġvoor zorg
ĠAl les
ĠR APPORT
V rouw
Ġh ili
Ġr ales
of aryngeale
Ġniet jes
Ġvan co
Ġbemoe ilijk
or atie
Ġs he
M ax
Ġac cur
Ġsig ma
Ġspijsver tering
aties ysteem
Ġor igo
scher m
liothe ken
Ġadolesc ente
ĠFunction ele
v r
Ġtabak s
Ġeiland jes
sub straten
Ġuitgangs waarde
Ġatax ie
F S
omeg al
Ġp CO
Ġon aan
IC I
Ġaten olol
appar atuur
er baarheid
p aden
cellymf oom
ox aan
punt s
Ġul c
Ġinte graal
Ġpercept ies
Ġverbre ding
Ġbas ed
Ġprof il
Ġbloed ings
Ġvas c
atter y
vle k
Ġf ructose
Ġevalu eerde
Ġc ijfer
ĠH ET
: -
h ar
ĠT one
Ġwerk geheugen
ĠPub Med
Ġreflex en
Ġkort etermijn
Ġslaap t
ĠGe deelt
Ġder ivaat
Ġgef us
ĠK anker
Ġo culaire
Ġlymf omen
di men
Ġprogra mm
pre c
Ġdrugs gebruik
Ġb indingen
af scheiding
Ġonderscheiden de
ander s
ĠV max
Ġbeoordeel baar
ye ar
Ġinter cellulaire
carbox ylase
as k
Ġwaar aan
Ġrechter oog
Ġsc ans
Ġaanval s
ĠQ S
Ġc ast
la sm
Ġv in
aden osine
ĉ ĉč
fibro blasten
itu ximab
z aÃ¯
cyste Ã¯ne
ĠBD NF
Ġtib ia
do ofd
Ġbesmet telijke
Ġlab el
Ġ- ,
ĠPT X
dynam ische
il en
Ġtri als
Ġschaar se
Ġuit gaande
Ġaden oom
Ġgas chromatografie
Ġbot vorming
obacter iÃ«le
Ġbe antwoord
ĠD hr
ings middelen
som ale
Ġaf komst
ox iden
spron g
Ġ oren
leven s
Hoofd stam
Ġre quired
Ġf L
ĠCT C
rapport age
Ġmaal tijden
Ġpro mot
ĠCon st
lan ar
ged reven
ĠIn tellectual
E BP
Ġen trop
Ġepic ardiale
Ġuitda gend
Ġconf ocale
ep itheliale
ill on
Ġopmer kingen
am ylo
ĠT am
Ġtib ial
Ġpol iepen
Ġhyper intense
Ġsedi menten
ro otte
Ġklep afwijkingen
Ġpsych ose
ifug atie
Ġcholecyste ctomie
ĠR AS
Ġcalc ificatie
ĠDat abase
Bel oop
Ġmicro sat
Ġvoorsp el
Ġm uur
Ġcol chicine
Afrik a
ĠL eg
Ġtelem etrie
l erings
Ġan y
Ġexcit erende
Ġverb rand
Ġwer pen
Ġverdw een
Ġs an
Ġdocument atie
Ġbest rijding
nnnnnnnnnnnnnnnn nnnnnnnnnnnnnnnn
vag inale
ĠHyper cholesterolemie
Ġvererg erende
Ġtra cer
Ġgerangschik t
mod ulatie
m ult
Ġontwikkelings landen
Ġinge schreven
P LA
Ġnit riet
Ġover schrij
S al
ĠP AL
ĠD an
Ġacet aminofen
Referentie datum
Ġont spannen
Acetyl salicylzuur
ĠXen opus
Ġuit oef
Ġsubt ilis
Ġabsol uut
Ġgener al
A ir
Ġet iologische
Ġm ist
ĠM aag
hy brid
duct or
oe g
Ġgecondition eerde
G luc
fer on
Ġindic atief
Ġing redi
ĠAsp ergillus
og ere
bevorder ende
Ġanest hes
F unction
ĠRec eptor
Ġb oek
ĠEp i
Ġsjab loon
Ġl bs
Ġpac litaxel
otrof ine
identific atie
zw akte
B arr
b y
Ġcos met
Ġf orens
m itte
ĠComment aar
Ge zien
Ġph ys
Ġcalc ane
Ġeukary ote
Ġsomat ostatine
lip iden
OC ED
aren ale
Ġgeb re
Ġgez w
Ġisol ette
11 8
Ġop dat
Ġeleg ans
ĠW D
Ġasp artaat
Ġpar ap
Ġhep ato
Ġzw art
h oeken
o ere
Ġk auw
Ġd ode
or ders
ĠE A
Ġd ingen
ĠM otor
Ġbloe der
Ġso ja
b ase
ineres iduen
gener eerde
Ġm amma
termin aal
on a
Ġuit braken
ĠOrg anisatie
Ġre ductase
ĠData Lin
Echocardi ografie
ĠgeÃ¯n formeerd
Ġn ationaal
- /-
Ġechtgen oot
Ġant if
cl us
ĠdiÃ« lekt
Ġ19 92
Ġma jor
Ġkno op
Ġoog punt
chloor thiazide
ĠM es
ĠT al
ĠD ental
Ġin continentie
ĠT abel
Ġnan ot
ĠCardio vasculaire
amin otransferase
ĠPoliklin ische
Y L
Ġfit ness
drukken de
Ġec zeem
Ġdoc king
OR ATO
Ġafge scheiden
Ġjeug d
binding splaats
ar an
Ġonder linge
Ġ15 3
Ġdi azepam
Ġparod ont
H CV
la as
Ġben zeen
la geen
Ġafge kn
ĠV irus
ĠAb normale
ĠHier voor
Ġsin ustachycardie
Ġmy algie
romus cular
ĠURI NARY
ĠF ailure
Ġpresyn aptische
uit scheiding
schik t
ge komen
Ġchrom atografische
Ġak inesie
ĠA GA
ĠR IP
ĠFunction al
ĠOnder tussen
Ġkal m
Ġbeoog de
j unctie
Ġdys art
ool de
oprop yl
Ġv v
Ġventr iculair
Ġzorg de
Ġverz adig
Ġorganis atorische
Ġcogn itief
vul lingen
Ġglijden de
Ġre stenose
Ġb atch
Ġverla mming
Ġder male
Ġaanvaard baar
am fetamine
ĠR EG
Ġuit ster
aly tisch
ĠBelang rijke
at ase
Ad vies
ĠP d
ĠTrans fer
nauwkeur igheid
Ġwissel end
t yrosine
Ġresult s
Ġleuc ocytose
Ġcont in
Ġlev ofloxacine
p ale
Ġcir ca
Ġint ral
s clerose
Ġprior iteit
iak ie
ĠEr gometrie
ĠT op
Ġgemute erd
ĠCH O
F L
Ġm ore
uden t
Ġg ratis
eten te
open ing
zen d
T V
iel den
Ġtoler eren
ĠMV P
Qu ant
Ġper fect
Ġcom orbiditeiten
ĠInf ectie
Ġsterftec ijfers
Ġgen therapie
Ġwoon t
reg ressie
Ġom eprazol
Ġposit ron
el k
ĠT iO
Ġle ider
ĠSur vey
Ġlos artan
he ps
kn open
reg urgitatie
TI A
ĠF U
per oxidatie
Ġex tension
iss eld
Ġluc iferase
Ġar yl
Ġzuige ling
Ġre generatieve
ast ric
ĠbeÃ¯nvloed den
Ġma ste
Ġge loven
ĠM U
ĠK NE
Ġontle ding
Ġat ri
19 98
ip en
Ġsla per
OD UCT
syst olische
Ġgekarakter iseerde
Ġwissel ende
RA Y
Ġantit um
Ġmond holte
Ġmoeilijk heid
ĠIn d
Ġhepatop etale
Ġge groep
Ġmicro b
Ġfollow ing
Ġverduidelijk t
Ġdringen d
persoon lijke
Ġpi ramidale
or ig
Ġde cub
fluor escentie
Ġantico agulantia
per k
Ġx yl
Ġkeizers nede
Ġ19 93
Ġvestib ulaire
Ġplak jes
Ġjejun um
Rec ent
ĠDifferent ial
omat ose
Ġper oxis
Ġb uff
Ġg iftig
c d
ĠChole sterol
Ġm ak
Ġtrop ische
Ġten der
Ġch aperon
on or
kw ant
ip arum
inter ferentie
ĠAsc al
Ġorig inele
Ġch oler
condition ering
ort ium
pro even
Ġappendic itis
Ġ( /
ĠM at
Ġgeoxide erde
lamy dia
Ġoptra d
Or gan
Z O
s analyse
ocyste Ã¯ne
ĠCar lo
oft ware
Ġinsert ie
ĠT her
Ġup regulated
Ġvene us
ĠR W
arter iÃ«le
Ġhypox emie
ĠE Y
Ġvacu Ã¼m
Ġover heid
f isch
geb rek
Ġfem oral
Ġkoort sen
? ?
ĠT herapeutische
Ġecos ysteem
he e
ĠD isch
Ġwekelijk se
AN T
Ġposttrans lationele
Ġasp ecifieke
omer isatie
Ġk ar
Ġgener aties
Ġrecht v
Ġeind punten
wer kend
Ġplot s
ĠU r
ĠM ac
hr s
Ġex centrische
12 7
ĠY E
Ġmetab olische
Ġantist ollings
am plificatie
wen dige
disp ended
in ation
of oren
Ġp te
gen cy
bes liss
verst rooiing
acry laat
Ġaf tast
Ġcollab eert
Ġex tended
ĠPS Y
Ġbre athing
Ġveel zijdige
Ã¯ die
modi fic
Ġpar adox
Ġper t
Ġmedul la
ĠHD AC
ĠE MS
h ing
Ġdis section
Ġč Ġ
Ġbehandelen d
Ġherschik kingen
ri ch
Ġvoorkomen d
in hib
Ġvoor waar
LE S
land s
Ġgezamen lijk
verzam eling
gluc uron
n ar
ĠH x
ĠO T
. ]
ris k
AM M
Ġver ont
ĠP alp
S ociaal
Ġdi laudid
Ġvull ings
Ġaanvaard bare
Ġdro egen
Ġcel migratie
Ġhypot halamische
Ġaan genaam
uil en
Ġged ood
z a
sch im
cor relatie
blok kade
Ġcult iv
Ġsp eech
- :
Ġden k
Ġat omen
i omy
athy re
Ġ16 2
Ġbew akings
s in
Ġ19 80
S m
Ġopzw ellen
f onisch
Ġv uur
aan vallen
Ġa ch
elz inn
ĠT issue
ĠWe ight
stim ulus
Ġgevoel ens
n ul
Ġparac entese
Ġged own
Ġosteophy ten
Ġosteo artritis
ĠT yr
Ġbar ium
Ġhol le
Ġsub chond
alk yl
per to
ĠT ime
Ġp u
Ġdarm gas
Ġontvang t
Ġselen ium
v inyl
Ġblaas kanker
ĠC CK
Ġher kent
Ġhem ostase
Ġont oere
schrom atografie
Ġgest oorde
ĠRe agent
neg atief
ĠG all
ĠS ed
Ġborst buis
ide mi
Ġhyper glykemie
H OSPITAL
Ġbru in
Ġchond rocyten
Ġtri v
ogroep en
co hort
Ġbloe men
houden dheid
ĠIn derdaad
Ġvolg frequentie
s ide
Ġwaarb orgen
Ġreag erend
Ġcreat ine
Ġp O
Hoofd diagnose
Ġwijdverspre id
nit ine
S ES
yl y
Ġlip oproteÃ¯nen
Ġdoss iers
Ġge zegd
ĠM ON
Ġwaterstof binding
Ġover matig
O V
ĠGe Ã¯n
d oss
ĠCH ADS
osens orische
h im
Ġspec i
Ġechocardi ografisch
Ġmo dules
ple ging
Ġeros ie
Ġn ikkel
Ġgepro duceerde
ĠB and
EE K
Ġd uring
W eer
M g
yla mine
u iden
ar aat
Ġmob ilisatie
im at
Ġval se
C AD
Ġveer kracht
Ġem fyse
Ġh aven
Ġhydrocefal us
Ġt acrolimus
os coop
Ġgeconju geerde
Ġop drachten
parenchym ale
Ġnef rectomie
i dere
ne d
k on
m t
Ġhet geen
ĠcoÃ¶rd in
Ġhartritme stoornissen
Ġklimaat verandering
leg ie
Ġsch ok
Ġvag ina
ĠF lu
Ġat ropine
Ġlinker been
ĠVrouw en
Ġadnex ale
Ġchol angitis
Ġap olip
Ġsno er
lycer ide
Ġfunction aliteit
ĠSt abiel
IC E
ER E
Ġcrac kles
ĠH NN
Ġgrond water
L ys
ĠP ORT
Ġrechter atrium
Ġy ellow
Ġport al
Ġmicro calcificaties
giÃ«n e
s um
Ġgevalide erde
Ġb urs
sch ro
Ġoor deel
CO VID
Ġantihyper tensiva
Ġinte elt
opla sten
ĠefficiÃ«n ter
Ġaqu atische
Ġvoortvloe iende
sp ine
Ġtussen po
Ġontbre kende
Ġb uig
ĠDis losure
ĠS oort
Ġstem men
Ġat ypisch
Ġun ilaterale
Ġman dibulaire
o L
Ġ3 60
Ġkno wn
verontreinig ing
Ġgemon itor
Ġc yc
ic ill
smol ten
Ġbi direction
met en
dis functie
Ġc le
Ġgel elektroforese
Ġl ymph
ex ia
Ġg m
ĠLat ere
Ġintra vasculaire
b siella
St andaard
Ġfalc iparum
M an
compli ant
arit m
och e
hang t
Ġen scen
ĠSec ret
or r
Ġrug ligging
rop last
Ġrevers ibele
UL T
ĠColle ge
Ġf irst
ad ing
Ġtricuspid alisklep
Ġaan houdend
d der
ĠAb latie
Ġverplaat ste
Ġonder liggend
V EGF
w ire
Ġeen zijdige
cir cu
Ġn ifedipine
sex perimenten
dubb elzinn
ocicept ieve
Ġbekken wand
Ġverst rooiing
Ġneven bevindingen
ĠCon junct
re ferentie
opa uze
ĠS HR
Ġz uren
Tract us
Ġju ven
oper idol
Î¼ g
op res
onder drukking
Ġadolesc entie
Ġent iteiten
Ġhe chten
ĠR UL
Ġle ed
hosp hosp
iton itis
ĠT W
ĠK m
prin cip
Ġwe b
aan bevel
Ġ16 8
sc opisch
Ġp lo
voor bereiding
GR AM
et ens
ĠM us
Ġap plic
Ġwe st
Ġnefro gram
Ġh alen
Ġverw arm
on al
Ġop vatting
Ġeosin ofiele
Ġribbre uken
Ġdan wel
uc ocyten
Ġgel aten
Ġap ixaban
Ġare a
Ġlucht pijp
Ġgeprogramm eerde
Ġbest emd
spro bleem
ĠW oon
Ġvoorloper cellen
ĠBijn a
ĠB ed
Ġad viezen
Ġsp hen
ĠD raagbare
Ġheter ologe
Ġafge beelde
Ġrepe at
Ġsn r
Ġpl aten
ton ix
ep is
verlen ging
ORAC IC
complic aties
Ġad sorb
Ġboodschap per
p oort
et ijd
Ġverontreinig ingen
] ),
illen de
Ġv ij
Ġcon gru
y o
Ġw are
age erd
Ġser otype
Ġbur st
ĠA ten
ch us
ĠM inder
l ar
ox ym
Ġstol sel
Ġperone ale
Ġkrom ming
Ġinterfer eren
Ġc utaan
op yr
Ġals mede
Ġgemonitor d
atin ib
Ġmur iene
Ġa VL
oh umer
Ġvererg erde
Ġge maakte
ĠAx ial
Ġren al
Ġleth arg
Ġverkl aringen
Ġconfli ct
ĠG econ
Ġblo od
lo zing
Ġma cht
hydro chloride
ĠToekomst ige
Ġten sie
kat alyse
Ġevolution air
Ġaf zetting
Ġloop s
ĠPD GF
re perfusie
Ġtegenstrij dige
o actieve
Ġmerk baar
Ġverster kende
j ac
beoor delingen
ens ion
Ġbloe dende
op hed
M n
if orn
ĠL AVI
tie f
ĠU N
ect ion
Ġconclude erden
Ġverst ro
H PLC
h onderd
in alis
Ġdiff ic
Ġstri atale
bu profen
Ġbelof te
ĠMut ation
ĠPol i
Ġrepresent atief
co valente
macrofa gen
ĠbeÃ«in diging
F AC
Ġdem yelin
Ġbedre iging
Ġechocardi ografische
Ġver nevel
is aties
EN OS
gemeen schappen
ĠMid den
Ġep silon
dur ige
19 97
ec lampsie
ĠToe diening
Ġ9 00
Ġre chte
L eeftijd
Ġovert ollige
Ġgro enten
18 7
transp orter
Ġnat te
alc iferol
ĠW EG
ĠN GF
Ġnan ostruct
Ġaan leg
Ġverlaag t
Ġz innen
ĠC iprofloxacine
ĠPV AI
bi opten
h aald
Ġprojectie s
ure um
r ende
g us
Ġontle ed
Ġpasgeboren e
i os
Ġdicht st
Ġmicrom ol
ĠC ur
ĠNeu romuscular
z elen
c are
Ġgen tam
k olonie
ie ct
Ġmater ie
Ġerytro poÃ«
P lat
Ġtijdsver loop
Ġmen iscus
ĠCAL CIUM
ĠK inder
Ġlact ulose
iqu id
Ġrechter kwab
Ġ15 1
Ġsub muc
Ġin ositol
pulmon ale
Z o
Ġwetenschap pers
ur eter
gele id
ĠB ur
ĠS out
Ġst uwing
Ġdist ended
ĠKwant itatieve
Ġsuc cin
rof ot
ate ur
ĠM uc
ĠWee fsel
ĠCX CR
x en
Ġst ille
Ġge tro
ĠO plos
Ġzintuig lijke
GF P
Ver der
Ġhem angi
P r
Ġversch a
Ġhaal bare
ĠHart frequentie
iciÃ«nt ies
t oxische
ag ram
Ġhyp oc
Ġster ven
Ġmedi atoren
th io
om mend
Ġadip ositas
ĠNC AT
Ġuitge doofd
0 25
ĠEn doc
Ġorgel component
iver se
Ġkra ken
Ġpro laps
ĠCardi aal
glyc oproteÃ¯ne
d ose
Ġagen ten
Ġvrien den
Ġin zet
Ġ() :
Ġd hr
aff ine
ĠB ronch
Ġ15 2
ofyl line
ĠN oor
Ġfraction ele
ĠIn fect
ĠGR AM
ĠI dent
ĠSyn drome
Ġpr aten
Ġextrem ity
oxap arine
ĠS CD
Ġbevrucht ing
Ġaortaklep folders
b ody
00 7
ĠC LL
Ġy ears
Ġspoel en
Ġmar ge
ze stig
om as
ĠVer pleegkundige
Ġaan houden
tegen deel
Ġsubst antie
OT H
Ġv on
ĠHY PER
Ġal arm
val vulaire
o ost
P rop
ect al
os oma
verg iftiging
Ġin herente
f ul
Ġmedi astinale
Ġsens ibilisatie
Ġw ire
F low
ge co
Ġkoolwater stoffen
Ġdu im
CO MPARISON
Ġbal loon
par as
ĠSA H
Ġl ent
ĠScintig rafisch
cell ulose
Ġsamen spel
D ES
Ġpathologie Ã«n
Ġau di
Ġprov ider
Complic atie
Ġet hyl
ĠAV A
Ġhy d
Ġchond ro
Ġoscill aties
ĠH CM
LO GY
opro liferatieve
Ġkatalys eren
Ġon dubbelzinn
op ositie
Ġarachid onzuur
ĠDi agn
Ġincident ele
bouw ing
ob alamine
t an
ĠO X
Ġab ru
pyr idine
g las
Ġang stig
U UR
n ip
Ġdelet ies
Ġsten osering
Ġab sorb
Z w
IC C
Ġopge hoogd
ĠU DP
Ġge tit
ĠOr gan
Ġneuro protectieve
anger schap
Ġafstam ming
ĠL ocation
ĠR B
ĠVEN TRIC
Ġterug gevonden
Ġhoofd zakelijk
Ġstroom gebied
Ġm w
conf iguratie
t erd
ĠpatiÃ«nten zorg
im id
ĠAD L
Ġstikstof oxide
ic ally
Ġcyt ologie
A CH
Ġwijzen d
et ing
Ġchim ere
P lus
licht ings
be vol
ati enten
Ġst opt
yle frine
ps is
ĠB ib
ĠP lant
ĠM AL
Ġk ost
Ġ15 6
Ġmultic enter
adju vante
Ġ( '
eert ien
Ġbre der
Ġidee Ã«n
Ġversn eld
aar den
Ġlinker kwab
s elect
aa ien
K E
am ple
ĠVoor lop
Ġc ole
th ym
w ongen
Ġinge trokken
ĠEXTREMI TEITEN
Ġklepvit ia
Ġhersen bloeding
ĠB F
Ne onat
ten de
Ġrest a
Ġtri ple
oten t
is erend
Ġsch eur
t ien
Ġlichaam stemperatuur
volg d
weten schap
Ġh is
ĠFib rin
s le
Ġnucle Ã¯nezuur
Ġvergelijk ings
C d
b ach
Ġelektrof oretische
a ant
Ġcasus rapport
unct uur
Ġmaan delijk
Ġcel cultuur
et st
Ġtransp orte
Ġla mine
pro tectie
Ġachter uit
Ġritme stoornis
Ġrep etitieve
ĠB Y
Ġpatho gen
Ġhyper glyc
Ġuit val
Ġt ors
ĠComp lement
oprote ctieve
Ġop halen
ĠE CT
v age
ĠF F
Ġal f
ĠFLU ID
Ġbij een
Ġlop ressor
Ġ# %
Ġdel irium
Ġspond yl
ĠR u
Ġen gineering
Huis arts
up s
ram pen
ĠDe s
Ġzwaarlij vige
lig ht
Ġbest eld
ĠS DH
C lin
ĠK ind
n ie
Ġne bs
Ġser ies
Ġuitge lijn
cont inue
ĠET OH
bet rouw
Ġqu antum
opo Ã«
Ġsubst itu
os ure
Ġcaus ale
Ġfib ula
K L
fin cter
| |
met ting
Ġstaps gewijze
Ġst rengen
P OS
Ġro om
ĠMD R
Ġrechter been
Ġp ret
Ġtussen product
z iekenhuis
TR AS
Ġmer kten
Ġslaapap neu
Ġfol aat
ĠT stroom
Ġpo int
ru b
Ġcontrast materiaal
c ijfers
Ġt x
ĠOH CA
ĠC uff
Ġpup il
asp artaat
ĠG F
ill atie
Ġuiteen lopende
Ġongrijp baar
ĠG ly
ĠD octor
ĠBuik pijn
Ġdeel namen
ov iew
ce f
14 6
Ġsim ple
Ġthyro id
ĠSol n
Ġvoor behandeld
Ġonregel matig
d ansetron
omegal ovirus
stre am
st ikstof
ur eth
Ġradio actieve
Ġoppervla kt
ĠVoor al
ĠB ax
onder dag
arter ie
12 8
Ġsyst olic
on ucl
Ġhabit ats
or isatie
Ġschro ef
b romide
ma ag
Ġcortic osteron
Ġbero er
č ĠĠ
ĠG isteren
ĠS PR
PR ODUCT
Ġne oplasie
Ġprecor diale
af val
ri ur
L eu
Ġin herent
z aad
Ġcholecyste ctomy
Ġdrin kt
it utionele
Ġla w
Ġlevens lange
ch anter
k ary
Ġvert akte
Ġcontinu ed
mal ige
Del ta
Ġo zon
âī ¥
Ġbezorg d
ĠN ID
ul de
luenz a
IS PR
oten tieel
Ġdesc endens
Ġbemid delaar
Ġoog lid
ĠB ody
12 6
Ġvak antie
Ġkl onale
p n
f lank
Ġv la
oe uv
Ġafgekn otte
aaaa aaaa
ont ine
t hal
Ġmes othel
ien sis
ĠGeb oortedatum
Ġen ergieÃ«n
per formance
CD ISC
vent ioneel
Ġparenter ale
Ġan omal
Ġc am
Ġver vangende
Ġop stelling
Ġon no
ĠPH OS
Ġac enocoumarol
12 4
ff end
ident iteit
ĠcoÃ¶per atieve
Ġin vent
Ġdoub let
ĠG AL
ental len
Ġbov iene
ĠWe inig
TP A
[...]
