{"<s>":0,"</s>":1,"<pad>":2,"<unk>":3,"<mask>":4,"!":5,"\"":6,"#":7,"$":8,"%":9,"&":10,"'":11,"(":12,")":13,"*":14,"+":15,",":16,"-":17,".":18,"/":19,"0":20,"1":21,"2":22,"3":23,"4":24,"5":25,"6":26,"7":27,"8":28,"9":29,":":30,";":31,"<":32,"=":33,">":34,"?":35,"@":36,"A":37,"B":38,"C":39,"D":40,"E":41,"F":42,"G":43,"H":44,"I":45,"J":46,"K":47,"L":48,"M":49,"N":50,"O":51,"P":52,"Q":53,"R":54,"S":55,"T":56,"U":57,"V":58,"W":59,"X":60,"Y":61,"Z":62,"[":63,"\\":64,"]":65,"^":66,"_":67,"`":68,"a":69,"b":70,"c":71,"d":72,"e":73,"f":74,"g":75,"h":76,"i":77,"j":78,"k":79,"l":80,"m":81,"n":82,"o":83,"p":84,"q":85,"r":86,"s":87,"t":88,"u":89,"v":90,"w":91,"x":92,"y":93,"z":94,"{":95,"|":96,"}":97,"~":98,"¡":99,"¢":100,"£":101,"¤":102,"¥":103,"¦":104,"§":105,"¨":106,"©":107,"ª":108,"«":109,"¬":110,"®":111,"¯":112,"°":113,"±":114,"²":115,"³":116,"´":117,"µ":118,"¶":119,"·":120,"¸":121,"¹":122,"º":123,"»":124,"¼":125,"½":126,"¾":127,"¿":128,"À":129,"Á":130,"Â":131,"Ã":132,"Ä":133,"Å":134,"Æ":135,"Ç":136,"È":137,"É":138,"Ê":139,"Ë":140,"Ì":141,"Í":142,"Î":143,"Ï":144,"Ð":145,"Ñ":146,"Ò":147,"Ó":148,"Ô":149,"Õ":150,"Ö":151,"×":152,"Ø":153,"Ù":154,"Ú":155,"Û":156,"Ü":157,"Ý":158,"Þ":159,"ß":160,"à":161,"á":162,"â":163,"ã":164,"ä":165,"å":166,"æ":167,"ç":168,"è":169,"é":170,"ê":171,"ë":172,"ì":173,"í":174,"î":175,"ï":176,"ð":177,"ñ":178,"ò":179,"ó":180,"ô":181,"õ":182,"ö":183,"÷":184,"ø":185,"ù":186,"ú":187,"û":188,"ü":189,"ý":190,"þ":191,"ÿ":192,"Ā":193,"ā":194,"Ă":195,"ă":196,"Ą":197,"ą":198,"Ć":199,"ć":200,"Ĉ":201,"ĉ":202,"Ċ":203,"ċ":204,"Č":205,"č":206,"Ď":207,"ď":208,"Đ":209,"đ":210,"Ē":211,"ē":212,"Ĕ":213,"ĕ":214,"Ė":215,"ė":216,"Ę":217,"ę":218,"Ě":219,"ě":220,"Ĝ":221,"ĝ":222,"Ğ":223,"ğ":224,"Ġ":225,"ġ":226,"Ģ":227,"ģ":228,"Ĥ":229,"ĥ":230,"Ħ":231,"ħ":232,"Ĩ":233,"ĩ":234,"Ī":235,"ī":236,"Ĭ":237,"ĭ":238,"Į":239,"į":240,"İ":241,"ı":242,"Ĳ":243,"ĳ":244,"Ĵ":245,"ĵ":246,"Ķ":247,"ķ":248,"ĸ":249,"Ĺ":250,"ĺ":251,"Ļ":252,"ļ":253,"Ľ":254,"ľ":255,"Ŀ":256,"ŀ":257,"Ł":258,"ł":259,"Ń":260,"en":261,"er":262,"an":263,"in":264,"Ġv":265,"de":266,"ie":267,"or":268,"ge":269,"at":270,"et":271,"st":272,"Ġde":273,"on":274,"ch":275,"Ġm":276,"al":277,"ij":278,"el":279,"Ġvan":280,"Ġb":281,"is":282,"Ġh":283,"Ġd":284,"ar":285,"Ġo":286,"Ġt":287,"Ġw":288,"re":289,"ing":290,"Ġe":291,"Ġen":292,"it":293,"Ġge":294,"ro":295,"Ġp":296,"Ġin":297,"oor":298,"Ġa":299,"den":300,"le":301,"Ġs":302,"Ġ(":303,"Ġn":304,"ct":305,"Ġver":306,"der":307,"Ġeen":308,"ol":309,"Ġc":310,"Ġz":311,"Ġmet":312,"om":313,"Ġhet":314,"te":315,"Ġbe":316,"Ġk":317,"gen":318,"la":319,"atie":320,"ra":321,"di":322,"ĠD":323,"isch":324,"aar":325,"ijk":326,"oe":327,"as":328,"Ġop":329,"id":330,"erd":331,"Ġvoor":332,"ten":333,"Ġon":334,"ic":335,"am":336,"ul":337,"ĠC":338,"ale":339,"ische":340,"ot":341,"cht":342,"ent":343,"Ġl":344,"Ġre":345,"ur":346,"Ġ1":347,"us":348,"Ġst":349,"Ġg":350,"Ġte":351,"il":352,"Ġaan":353,"og":354,"ijn":355,"ver":356,"sch":357,"ken":358,"ig":359,"se":360,"Ġis":361,"he":362,"un":363,"Ġf":364,"ĠA":365,"len":366,"ee":367,"op":368,"ine":369,"ĠP":370,"um":371,"eer":372,"ĠDe":373,"Ġal":374,"Ã«":375,"ctie":376,"ĠH":377,"ven":378,"sp":379,"ru":380,"del":381,"im":382,"Ġu":383,"ĠS":384,"ve":385,"ĠE":386,"ik":387,"Ġom":388,"Ġbij":389,"Ġdie":390,"eren":391,"Ġwor":392,"ati":393,"ĠI":394,"em":395,"Ġ2":396,"Ġ.":397,"os":398,"ĠM":399,"Ġdat":400,"ĠT":401,"ingen":402,"ze":403,"ant":404,"Ġzijn":405,"ag":406,"aal":407,"ĠB":408,"Ġ-":409,"if":410,"es":411,"Ġof":412,"oc":413,"Ġdoor":414,"orm":415,"Ã«n":416,"iet":417,"Ġonder":418,"ele":419,"sen":420,"lijk":421,"ĠN":422,"ste":423,"ter":424,"ĠR":425,"Ġuit":426,"ak":427,"ap":428,"Ġwerd":429,"heid":430,"ĠG":431,"Ġwer":432,"Ġpro":433,"ite":434,"ab":435,"ep":436,"Ġr":437,"ĠL":438,"ut":439,"Ġcon":440,"ire":441,"ĠO":442,"ĠV":443,"Ġals":444,"and":445,"ang":446,"per":447,"sie":448,"elijk":449,"iteit":450,"Ġgeen":451,"Ġniet":452,"du":453,"dt":454,"ho":455,"Ġwaar":456,"ff":457,"Ġgeb":458,"Ġtot":459,"uw":460,"ist":461,"Ġ[":462,"eg":463,"atiÃ«n":464,"Ã¯":465,"olog":466,"iek":467,"res":468,"act":469,"han":470,"eld":471,"Ġ3":472,"ion":473,"ult":474,"ir":475,"art":476,"Ġaf":477,"Ġover":478,"ri":479,"lo":480,"Ġworden":481,"oed":482,"omen":483,"ft":484,"ect":485,"Ġle":486,"Ġwerden":487,"00":488,"ige":489,"een":490,"Ġna":491,"eerd":492,"ac":493,"Ġper":494,"iv":495,"Ġont":496,"ĠpatiÃ«n":497,"Ġwordt":498,"ier":499,"ide":500,"Ġmo":501,"ker":502,"ad":503,"of":504,"Ġwas":505,"aat":506,"Ġsp":507,"Ġan":508,"ud":509,"lu":510,"Ġer":511,"icht":512,"nen":513,"gelijk":514,"wij":515,"ich":516,"Ġla":517,"val":518,"uur":519,"ran":520,"ok":521,"aan":522,"ardi":523,"be":524,"ies":525,"Ġgro":526,"ast":527,"Ġdeze":528,"ĠW":529,"ort":530,"men":531,"ere":532,"ĠIn":533,"kt":534,"Ġonderz":535,"eerde":536,"AT":537,"ose":538,"Ġ4":539,"aten":540,"oon":541,"ellen":542,"min":543,"ific":544,"ĠF":545,"Ġzo":546,"yp":547,"Ġ5":548,"Ġsu":549,"Ġkan":550,"ings":551,"ec":552,"ym":553,"Ġ0":554,"vol":555,"ien":556,").":557,"ON":558,"ne":559,"vo":560,"ER":561,"tra":562,"),":563,"Ġex":564,"Ġgen":565,"ron":566,"handel":567,"Ġwe":568,"dere":569,"ruik":570,"aties":571,"ed":572,"chter":573,"omp":574,"onder":575,"Ġtoe":576,"dig":577,"ase":578,"ind":579,"tro":580,"rij":581,"con":582,"erde":583,"sult":584,"Ġversch":585,"ma":586,"Ġch":587,"wee":588,"ers":589,"iden":590,"ologie":591,"we":592,"ip":593,"aren":594,"af":595,"Ġho":596,"entie":597,"ame":598,"Ġeff":599,"ui":600,"ectie":601,"Ġj":602,"ĠEr":603,"ost":604,"Ġvol":605,"oek":606,"Ġmg":607,"ell":608,"Ġgebruik":609,"Ġbl":610,"Ġdi":611,"Ġhe":612,"ijd":613,"laire":614,"cu":615,"bb":616,"me":617,"cl":618,"od":619,"ign":620,"her":621,"ater":622,"ass":623,"ende":624,"ia":625,"illen":626,"ĠHet":627,"ib":628,"yn":629,"SO":630,"Ġbehandel":631,"elijke":632,"Ġ6":633,"qu":634,"ox":635,"ke":636,"lin":637,"Ġnaar":638,"ĠpatiÃ«nten":639,"oren":640,"Ġne":641,"Ġant":642,"Ġstud":643,"yst":644,"ond":645,"ussen":646,"PER":647,"pro":648,"pen":649,"Ġverb":650,"aly":651,"##":652,"als":653,"Ġmaar":654,"Ġgem":655,"Ġme":656,"SOON":657,"PERSOON":658,"yl":659,"sel":660,"mer":661,"Ġinter":662,"Ġnorm":663,"ĠU":664,"usie":665,"Ġim":666,"entr":667,"ger":668,"geven":669,"Ġsch":670,"Ġdan":671,"ressie":672,"king":673,"Ġbet":674,"sc":675,"ander":676,"ept":677,"UM":678,"dige":679,"Ġverschillen":680,"Ġ((":681,"Ġč":682,"pt":683,"Ġlin":684,"Ġbel":685,"aak":686,"Ġook":687,"Ġher":688,"ijden":689,"baar":690,"ĠK":691,"kel":692,"zen":693,"ce":694,"Ã¯n":695,"amen":696,"onen":697,"iÃ«":698,"org":699,"delijk":700,"Ġ()":701,"sm":702,"NA":703,"iviteit":704,"Ġinf":705,"reven":706,"Ġter":707,"actie":708,"Ġwaren":709,"Ġsign":710,"bben":711,"Ġeer":712,"AR":713,"aire":714,"Ġ9":715,"Ġkun":716,"oen":717,"Ġtussen":718,"dic":719,"ive":720,"Ġhebben":721,"Ġro":722,"eeft":723,"Ġuitge":724,"laat":725,"Ġbesch":726,"Ġ7":727,"Ġontw":728,"Ġgez":729,"ath":730,"wel":731,"unctie":732,"rie":733,"DAT":734,"kken":735,"oven":736,"sla":737,"atieve":738,"pl":739,"ĠZ":740,"IN":741,"Ġ10":742,"Ġtwee":743,"are":744,"Ġ8":745,"DATUM":746,"eel":747,"ering":748,"wit":749,"alyse":750,"ann":751,"rom":752,"Ġonderzoek":753,"uis":754,"deren":755,"Ġmin":756,"01":757,"Ġei":758,"Ġmeer":759,"Ġkunnen":760,"Ġ'":761,"ieden":762,"Ġeffect":763,"iddel":764,"Ġverho":765,"io":766,"ieuw":767,"ren":768,"Ġheeft":769,"delen":770,"ium":771,"rijk":772,"itie":773,"ation":774,"Ġbev":775,"ĠpatiÃ«nt":776,"Ġno":777,"oel":778,"ĠGeen":779,"yt":780,"Ġdit":781,"Ġresult":782,"Ġbelang":783,"ĠDeze":784,"yc":785,"trole":786,"duc":787,"Ġcomp":788,"ys":789,"zig":790,"ole":791,"ĠCon":792,"alen":793,"dien":794,"hul":795,"Ġalle":796,"Ġverschillende":797,"aam":798,"ogen":799,"Ġx":800,"Ċč":801,"gel":802,"Ġhy":803,"Ġverander":804,"toon":805,"gevens":806,"Ġact":807,"gro":808,"ardiologie":809,"genomen":810,"Ġged":811,"ces":812,"ate":813,"agn":814,"ens":815,"Ġontwik":816,"Ġstudie":817,"Ġger":818,"Ġvergelijk":819,"van":820,"Ġbloed":821,"onden":822,"ving":823,"Ġma":824,"arm":825,"alis":826,"Ġtran":827,"wer":828,"cellen":829,"Ġpre":830,"Ġbest":831,"Ġbehandeling":832,"Ġsignific":833,"pressie":834,"ert":835,"schap":836,"Ġlinker":837,"icro":838,"geb":839,"ĠWe":840,"chten":841,"mm":842,"Ġhart":843,"met":844,"herap":845,"Ġwat":846,"ijdens":847,"iÃ«le":848,"Ġverhoog":849,"Ġkle":850,"ĠAn":851,"Ġze":852,"oom":853,"Ġhad":854,"Ġra":855,"acht":856,"ĠEen":857,"10":858,"ogra":859,"dro":860,"Ġpol":861,"ub":862,"ivea":863,"Ġat":864,"ong":865,"ologische":866,"ill":867,"Ġresultaten":868,"eten":869,"hy":870,"Ġvermin":871,"Ġcor":872,"Ġandere":873,"ĠAl":874,"ss":875,"gest":876,"ente":877,"ader":878,"Ġsub":879,"Ġrec":880,"Ġvro":881,"ment":882,"Ġrechter":883,"EN":884,"Ġbelangrijk":885,"ek":886,"Ġverk":887,"age":888,"orst":889,"Ġgebruikt":890,"vl":891,"ĠCT":892,"Ġbas":893,"ster":894,"uc":895,"Ġzonder":896,"Ġnieuw":897,"Ġmogelijk":898,"clusie":899,"ef":900,"Ġaange":901,"woor":902,"Ġreg":903,"21":904,"iekte":905,"Ġontwikkel":906,"let":907,"ĠVer":908,"ruct":909,"elf":910,"..":911,"Ġhun":912,"fie":913,"slag":914,"ante":915,"atten":916,"schreven":917,"Ġtijdens":918,"Ġverbet":919,"erende":920,"hal":921,"dru":922,"ard":923,"uro":924,"Ġel":925,"hulp":926,"name":927,"dat":928,"ype":929,"wezig":930,"Ġmm":931,"IE":932,"heden":933,"ress":934,"tie":935,"Ġzich":936,"Ġor":937,"ulatie":938,"Ġdag":939,"vorm":940,"Ġbehulp":941,"nel":942,"iale":943,"bare":944,"Ġhoe":945,"Ġpijn":946,"Ġkw":947,"Ã©":948,"Ġda":949,"Ġzoals":950,"De":951,"ieke":952,"TE":953,"Ġ12":954,"Ġjaar":955,"Ġklin":956,"kelijk":957,"čĊč":958,"elling":959,"Ġmee":960,"ĠOn":961,"uren":962,"Ġtoon":963,"volg":964,"eem":965,"Ġab":966,"anis":967,"valu":968,"pp":969,"Ġman":970,"iÃ«n":971,"Ġeiwit":972,"Ġ+":973,"Ġ<":974,"Ġgoed":975,"IS":976,"ction":977,"uden":978,"ex":979,"AD":980,"innen":981,"ei":982,"bij":983,"lex":984,"schieden":985,"schiedenis":986,"Ġcel":987,"))":988,"eft":989,"IC":990,"Ġverminder":991,"vallen":992,"dem":993,"Ġ=":994,"oorz":995,"Ġsyst":996,"itis":997,"CT":998,"Ġnormale":999,"ĠQ":1000,"eratie":1001,"eter":1002,"Ġmicro":1003,"Ġ...":1004,"uit":1005,"ateg":1006,"gele":1007,"waar":1008,"racht":1009,"co":1010,"Ġcol":1011,"Ġcontrole":1012,"cedu":1013,"fer":1014,"kend":1015,"ram":1016,"âĢ":1017,"50":1018,"Ġbep":1019,"gger":1020,"Ġcellen":1021,"ob":1022,"Ġlever":1023,"chts":1024,"Con":1025,"ting":1026,"deel":1027,"Ġonge":1028,"zien":1029,"ecif":1030,"etische":1031,"ĠgeÃ¯n":1032,"Ġlong":1033,"kte":1034,"ure":1035,"Ġborst":1036,"centr":1037,"Ġbi":1038,"Ġwee":1039,"tific":1040,"isic":1041,"est":1042,"omst":1043,"ari":1044,"Ġfunctie":1045,"oten":1046,"Ġomschreven":1047,"culaire":1048,"gende":1049,"Ġbeoor":1050,"12":1051,"Ġco":1052,"Ġpar":1053,"ocht":1054,"Ġ/":1055,"iddelen":1056,"ositie":1057,"Ġintra":1058,"):":1059,"Ġ##":1060,"laats":1061,"Ġvorm":1062,"Ġnieuwe":1063,"Ġaanwezig":1064,"Ġru":1065,"voor":1066,"Ġresp":1067,"Ġwaargenomen":1068,"eert":1069,"Ġuur":1070,"dra":1071,"Ġpla":1072,"voerd":1073,"indingen":1074,"Ġbeg":1075,"Ġster":1076,"lan":1077,"ator":1078,"Ġimm":1079,"herapie":1080,"ieerd":1081,"LO":1082,"gem":1083,"Ġsugger":1084,"Ġ(()":1085,"Ġtegen":1086,"igheid":1087,"'s":1088,"Ġmon":1089,"ug":1090,"CAR":1091,"ule":1092,"emen":1093,"Cardiologie":1094,"atische":1095,"Ġbere":1096,"ablet":1097,"ĠSt":1098,"ID":1099,"orie":1100,"]:":1101,"Ġtoen":1102,"Ġhyper":1103,"Ġpost":1104,"Ġechter":1105,"test":1106,"ĠDit":1107,"AL":1108,"gens":1109,"fsel":1110,"ductie":1111,"Ġuitgevoerd":1112,"Ġnormaal":1113,"groep":1114,"Ġ20":1115,"Ġactiviteit":1116,"ach":1117,"cin":1118,"cedure":1119,"regen":1120,"ax":1121,"Ġhyp":1122,"voel":1123,"mon":1124,"rim":1125,"Ġvertoon":1126,"hor":1127,"Ġziekte":1128,"atief":1129,"nst":1130,"one":1131,"Ġkla":1132,"jes":1133,"tal":1134,"Ġres":1135,"erg":1136,"Ġvrouw":1137,"Ġbasis":1138,"ING":1139,"oede":1140,"stelling":1141,"Ġlich":1142,"cel":1143,"Ġhem":1144,"Ġcom":1145,"nis":1146,"Ġeerste":1147,"CH":1148,"tre":1149,"ks":1150,"oeken":1151,"AM":1152,"Ġveroorz":1153,"Ġben":1154,"Ġsc":1155,"wijs":1156,"Ġ#":1157,"Ġart":1158,"up":1159,"Ġdeel":1160,"ikel":1161,"atuur":1162,"Ġbinnen":1163,"ĠgeÃ¯":1164,"Ġgev":1165,"Ġgegevens":1166,"spro":1167,"Ġzowel":1168,"form":1169,"assoc":1170,"Ġcardi":1171,"do":1172,"rit":1173,"Ġtra":1174,"osf":1175,"Ġble":1176,"ĠConsult":1177,"ieken":1178,"elekt":1179,"Ġ>":1180,"eu":1181,"Ġrisic":1182,"Ġgroep":1183,"ĠBij":1184,"chn":1185,"Ġrol":1186,"Ġbetro":1187,"Ġnivea":1188,"Ġgep":1189,"Ġand":1190,"Ġklinische":1191,"sten":1192,"Ġhoog":1193,"Ġverwij":1194,"Ġtum":1195,"Ġep":1196,"Ġveranderingen":1197,"Ġsyn":1198,"wijl":1199,"11":1200,"cept":1201,"bin":1202,"comp":1203,"ute":1204,"Conclusie":1205,"Ġhoge":1206,"Ġtijd":1207,"wijk":1208,"Ġveel":1209,"bre":1210,"vat":1211,"Ġacu":1212,"rag":1213,"Ġzw":1214,"och":1215,"deling":1216,"lijke":1217,"huis":1218,"amil":1219,"unction":1220,"()":1221,"Ġnu":1222,"ĠPro":1223,"vel":1224,"Ġam":1225,"Ġverhoogde":1226,"Ġsignificant":1227,"komst":1228,"sus":1229,"Ġkin":1230,"iding":1231,"ymf":1232,"air":1233,"kking":1234,"all":1235,"Ġdrie":1236,"Ġreactie":1237,"rium":1238,"komen":1239,"kan":1240,"Ġgevolg":1241,"schijn":1242,"Ġar":1243,"Ġsnel":1244,"Ġwij":1245,"Ġgew":1246,"Ġdis":1247,"Ġvergelijking":1248,"urende":1249,"ĠAnt":1250,"Ġlang":1251,"20":1252,"ofd":1253,"Ġdoel":1254,"inding":1255,"oÃ¯":1256,"ude":1257,"19":1258,"dicatie":1259,"Ġwerk":1260,"assen":1261,"Ġstab":1262,"th":1263,"Ġanalyse":1264,"lic":1265,"Ġgroot":1266,"Ġsamen":1267,"ecifieke":1268,"Ġstruct":1269,"**":1270,"Ġdiagn":1271,"LE":1272,"Ġterwijl":1273,"yten":1274,"osis":1275,"Ġrel":1276,"vul":1277,"Ġ100":1278,"ijnen":1279,"tran":1280,"Ġstudies":1281,"Ġeffecten":1282,"ome":1283,"Ġdui":1284,"Ġboven":1285,"Ġsym":1286,"Ġad":1287,"Ġvia":1288,"mie":1289,"na":1290,"30":1291,"delijke":1292,"MP":1293,"II":1294,"aakt":1295,"Ġmeest":1296,"Ġverm":1297,"atus":1298,"oort":1299,"Ġsle":1300,"Ġdagen":1301,"quentie":1302,"ble":1303,"Ġcont":1304,"weg":1305,"ont":1306,"ied":1307,"uk":1308,"Ġernst":1309,"Om":1310,"schrij":1311,"cul":1312,"open":1313,"IL":1314,"],":1315,"vas":1316,"Ġser":1317,"Ġgest":1318,"Ġevalu":1319,"activiteit":1320,"mo":1321,"lt":1322,"bra":1323,"Ġ14":1324,"low":1325,"Ġmech":1326,"woord":1327,"Ġnog":1328,"Ġml":1329,"inale":1330,"ategorie":1331,"Ġaantal":1332,"Ġbewijs":1333,"ĠCO":1334,"ore":1335,"Ġmetho":1336,"Ġgeassoc":1337,"iver":1338,"zuur":1339,"Ġ11":1340,"ith":1341,"EG":1342,"und":1343,"Ġac":1344,"inf":1345,"duct":1346,"Ġbre":1347,"analyse":1348,"ĠLV":1349,"ES":1350,"kende":1351,"schijnlijk":1352,"ica":1353,"rel":1354,"ucle":1355,"AS":1356,"Ġend":1357,"oog":1358,"anc":1359,"Ġ[(":1360,"Ġplaats":1361,"uizen":1362,"aterale":1363,"ĠNa":1364,"aliteit":1365,"alc":1366,"mp":1367,"Ġneuro":1368,"Ġsignificante":1369,"ĠThe":1370,"Ġmens":1371,"Ġpat":1372,"spre":1373,"Ġap":1374,"Ġgra":1375,"vla":1376,"Ġten":1377,"isatie":1378,"xim":1379,"Ġonderste":1380,"ĠRe":1381,"geschiedenis":1382,"Ġelekt":1383,"acter":1384,"afhan":1385,"Ġ19":1386,"AB":1387,"Ġken":1388,"orta":1389,"ATIE":1390,"aande":1391,"Ġmil":1392,"Ġgele":1393,"Ġhog":1394,"Ġtoege":1395,"gesteld":1396,"gegevens":1397,"atige":1398,"los":1399,"functie":1400,"ĠMet":1401,"ĠBoven":1402,"ders":1403,"Ġweefsel":1404,"Ġgek":1405,"Ġhaar":1406,"Ġ15":1407,"gang":1408,"Ġgeassocieerd":1409,"Ġblo":1410,"Ġnodig":1411,"Ġbil":1412,"Ġhij":1413,"erv":1414,"ane":1415,"nam":1416,"mg":1417,"schrijving":1418,"kelijke":1419,"actoren":1420,"ĠGe":1421,"Ġdif":1422,"cent":1423,"opt":1424,"Ġwaarbij":1425,"iciÃ«n":1426,"Ġkleine":1427,"eftijd":1428,"ografie":1429,"ons":1430,"Ġalleen":1431,"Ġbeper":1432,"urg":1433,"iel":1434,"Ġmodel":1435,"Ġgevoel":1436,"Ġpositie":1437,"Ġgenee":1438,"uid":1439,"AP":1440,"RI":1441,"emische":1442,"Ġbeschreven":1443,"Ġonderzoeken":1444,"assa":1445,"ĠBovendien":1446,"anneer":1447,"Ġonderzocht":1448,"ĠJ":1449,"actor":1450,"Ġ-)":1451,"eratieve":1452,"stand":1453,"Ġgedurende":1454,"stof":1455,"Ġbetrokken":1456,"elen":1457,"raag":1458,"Ġdaar":1459,"Ġgrote":1460,"perim":1461,"ĠAntwoord":1462,"elden":1463,"Ġminder":1464,"ED":1465,"uele":1466,"ĠThema":1467,"ĠCategorie":1468,"Ġint":1469,"amine":1470,"Omschrijving":1471,"versie":1472,"pervla":1473,"last":1474,"ta":1475,"keur":1476,"Ġ13":1477,"Ġob":1478,"room":1479,"opro":1480,"rische":1481,"Ġextra":1482,"ĠPo":1483,"201":1484,"Ġontwikkeling":1485,"Ġorg":1486,"In":1487,"zicht":1488,"elde":1489,"ctieve":1490,"mat":1491,"Ġgede":1492,"ood":1493,"duceerde":1494,"Ġet":1495,"zet":1496,"Ġimmun":1497,"ĠBe":1498,"Ġiden":1499,"Ġgezien":1500,"Ġverkregen":1501,"orte":1502,"Ġpoten":1503,"Ġacute":1504,"Ġ]":1505,"sse":1506,"vent":1507,"Ġanti":1508,"Ġleeftijd":1509,"luc":1510,"tensie":1511,"iss":1512,"Ġcyt":1513,"Ġproces":1514,"Ġgl":1515,"Ġvrij":1516,"fa":1517,"Ġimp":1518,"str":1519,"Ġopge":1520,"Âł":1521,"Ġmen":1522,"EF":1523,"ondheid":1524,"Ġverz":1525,"/-":1526,"Ġmoe":1527,"Ġmole":1528,"aanden":1529,"Ġaand":1530,"Ġafwijk":1531,"houden":1532,"Ġlymf":1533,"Ġ40":1534,"Ġ201":1535,"Ġnier":1536,"toond":1537,"Ġexpressie":1538,"ool":1539,"Ġbelangrijke":1540,"Ġhel":1541,"Ġtrans":1542,"ĠOp":1543,"stru":1544,"Ġ16":1545,"druk":1546,"ronische":1547,"14":1548,"Ġneg":1549,"Ġ50":1550,"Ġradi":1551,"Ġfor":1552,"ieren":1553,"Ġ30":1554,"ou":1555,"Ġblij":1556,"Ġhersen":1557,"rop":1558,"RNA":1559,"ret":1560,"BC":1561,"atum":1562,"ĠPC":1563,"Ġhui":1564,"amin":1565,"Ġ24":1566,"MM":1567,"Ã©n":1568,"ulaire":1569,"Ġ&":1570,"Ġprog":1571,"Ġdru":1572,"mb":1573,"iaal":1574,"ocyten":1575,"baarheid":1576,"Ġ18":1577,"Ġech":1578,"Ġvolle":1579,"Ġinfectie":1580,"Ġzeer":1581,"lat":1582,"Ġcm":1583,"Ġleven":1584,"ging":1585,"Ġrisico":1586,"Ġzorg":1587,"vloed":1588,"geen":1589,"Ġvast":1590,"stig":1591,"kl":1592,"gt":1593,"Ġwaarschijnlijk":1594,"Ġweken":1595,"opath":1596,"veer":1597,"orf":1598,"zel":1599,"iliteit":1600,"Ġtype":1601,"reg":1602,"ĠDNA":1603,"Ġuw":1604,"Ġzelf":1605,"15":1606,"13":1607,"ĠCh":1608,"OR":1609,"Ġbepaal":1610,"Ġmy":1611,"end":1612,"Ġaangetoond":1613,"par":1614,"CG":1615,"Ġcons":1616,"ĠDis":1617,"Ġto":1618,"no":1619,"25":1620,"adi":1621,"Ã¯ne":1622,"Ġlijk":1623,"Ġtumor":1624,"Ġmaanden":1625,"eed":1626,"Ġhuidige":1627,"kun":1628,"resent":1629,"hese":1630,"ĠOm":1631,"Ġvit":1632,"lulaire":1633,"ĠTablet":1634,"elat":1635,"Ġbevindingen":1636,"ijf":1637,"vorming":1638,"oorten":1639,"ogene":1640,"ĠIV":1641,"Ġgecon":1642,"Ġeigen":1643,"Ġrem":1644,"PM":1645,"ffen":1646,"ĠCardiologie":1647,"Ġoor":1648,"CA":1649,"Ġgeh":1650,"oornis":1651,"Ġlage":1652,"Ġbetre":1653,"Ġgeneesm":1654,"Ġvari":1655,"Ġeerder":1656,"Ġaanzien":1657,"Ġsympt":1658,"Ġbeide":1659,"Ġfunction":1660,"Ġple":1661,"ucht":1662,"ĠOver":1663,"ĠEx":1664,"lant":1665,"iot":1666,"gene":1667,"antie":1668,"Ġtest":1669,"kers":1670,"Ġthe":1671,"Ġsla":1672,"Ġsec":1673,"ition":1674,"sche":1675,"Ġtonen":1676,"Ġverminderde":1677,"rin":1678,"ptie":1679,"Ġhadden":1680,"Ġmid":1681,"opp":1682,"zoek":1683,"Ġmiddel":1684,"Ġ\"":1685,"Ġvoorkomen":1686,"Ġcontra":1687,"eleid":1688,"schappen":1689,"sters":1690,"urale":1691,"ĠNo":1692,"amilie":1693,"Ġwel":1694,"Ġdosis":1695,"vang":1696,"Ġmult":1697,"Ġvoed":1698,"iets":1699,"Ġmechanis":1700,"Ġgemiddel":1701,"pass":1702,"Ġklachten":1703,"ycl":1704,"Ã©Ã©n":1705,"Ġ25":1706,"Ġprim":1707,"Ġang":1708,"ĠIC":1709,"ych":1710,"Ġret":1711,"%)":1712,"ieÃ«n":1713,"eut":1714,"tect":1715,"omy":1716,"Ġtoename":1717,"aard":1718,"OS":1719,"leg":1720,"anden":1721,"iatie":1722,"Ġgevallen":1723,"Ġweer":1724,"Ġwanneer":1725,"Het":1726,"Datum":1727,"ity":1728,"ph":1729,"AC":1730,"behandel":1731,"kele":1732,"Ġaanwezigheid":1733,"sul":1734,"ange":1735,"Ġeven":1736,"Ġmed":1737,"Ġidentific":1738,"Ġur":1739,"ĠbeÃ¯n":1740,"ĠÃ©Ã©n":1741,"Ġverhoogd":1742,"vou":1743,"Ġpers":1744,"kingen":1745,"Ġsom":1746,"irus":1747,"Ġongeveer":1748,"Ġvoorgeschiedenis":1749,"irurg":1750,"Ġcar":1751,"unt":1752,"ieerde":1753,"ical":1754,"Ġkenmer":1755,"Ġconcentr":1756,"Ġsuggereren":1757,"vloe":1758,"sproken":1759,"Ġaut":1760,"iekten":1761,"Ġstim":1762,"scri":1763,"TI":1764,"dentific":1765,"Ġtechn":1766,"ectiev":1767,"expressie":1768,"Ġcomplex":1769,"Ġmuizen":1770,"Ġhoofd":1771,"neum":1772,"Ġverw":1773,"ouw":1774,"ĠVoor":1775,"omie":1776,"ectievelijk":1777,"Ġmenselijke":1778,"Ġbeeld":1779,"Ġ###":1780,"Ġgezondheid":1781,"jectie":1782,"Ġdiagnose":1783,"omet":1784,"ĠHij":1785,"lijn":1786,"door":1787,"Ġmoet":1788,"Ġterug":1789,"Ġlucht":1790,"Ġzieken":1791,"zelf":1792,"aken":1793,"Ġgebied":1794,"wege":1795,"emie":1796,"elect":1797,"Ġenkele":1798,"lok":1799,"ratie":1800,"Ġhuis":1801,"Ġwater":1802,"syst":1803,"ĠSp":1804,"aling":1805,"Ġ200":1806,"verd":1807,"Ġelk":1808,"sych":1809,"Ġdarm":1810,"Ġmedi":1811,"enten":1812,"Ġexperim":1813,"Ġtoonde":1814,"Ġventr":1815,"Ġges":1816,"tische":1817,"Ġhier":1818,"ĠDA":1819,"kg":1820,"Ġwaaronder":1821,"Ġlicht":1822,"stel":1823,"lair":1824,"YY":1825,"kanker":1826,"Ġratten":1827,"ĠNe":1828,"beeld":1829,"Ġgoede":1830,"Ġlichaam":1831,"ynam":1832,"akt":1833,"merkt":1834,"Ġricht":1835,"ĠZe":1836,"Ġvoorsp":1837,"euze":1838,"fect":1839,"Ġenz":1840,"deeld":1841,"lep":1842,"dag":1843,"Ġiets":1844,"wassen":1845,"ĠPO":1846,"Ġas":1847,"anning":1848,"da":1849,"hyl":1850,"ple":1851,"Ġgevonden":1852,"Ġinteractie":1853,"Ġdist":1854,"Ġ17":1855,"Ġwil":1856,"Ġbloot":1857,"ins":1858,"Ġgec":1859,"opie":1860,"fin":1861,"inden":1862,"Ġzou":1863,"Ġgedi":1864,"teerd":1865,"conversie":1866,"ĠSTE":1867,"Ġlaes":1868,"eiwit":1869,"Ġwith":1870,"Ġder":1871,"ĠDaar":1872,"Hg":1873,"iele":1874,"Ġdra":1875,"16":1876,"Ġprocedure":1877,"Ġlaat":1878,"erden":1879,"Ġlig":1880,"Ġernstige":1881,"Ġproble":1882,"gew":1883,"vullen":1884,"Ġcoron":1885,"Ġbleek":1886,"lig":1887,"Ġstaat":1888,"ject":1889,"ĠgeÃ¯dentific":1890,"Ġchronische":1891,"Ġcombin":1892,"ĠgeÃ«":1893,"ĠIN":1894,"olische":1895,"veel":1896,"Ġoppervla":1897,"alcium":1898,"lies":1899,"Ġfol":1900,"az":1901,"volgens":1902,"Ġopname":1903,"Ġ|":1904,"Ġzal":1905,"requentie":1906,"horax":1907,"ade":1908,"ĠMe":1909,"Ġrespectievelijk":1910,"ursus":1911,"conversiegegevens":1912,"Ġbehandeld":1913,"Ġinform":1914,"Ġlaag":1915,"afhankelijke":1916,"Ġrechts":1917,"Ġkinderen":1918,"PR":1919,"houd":1920,"Ã¨":1921,"ix":1922,"ĠHier":1923,"Ġziekenhuis":1924,"wijz":1925,"Nee":1926,"Ġhuid":1927,"Ġvier":1928,"Ġbeve":1929,"atiÃ«nten":1930,"Ġvaak":1931,"Ġveroorzaakt":1932,"Ġvis":1933,"ry":1934,"Ġovereen":1935,"gra":1936,"Ġmit":1937,"ĠCD":1938,"reat":1939,"Ġse":1940,"Ġkanker":1941,"Ġ+/-":1942,"Ġsymptomen":1943,"eff":1944,"luor":1945,"Ġbekend":1946,"CV":1947,"romb":1948,"ĠX":1949,"Ġbot":1950,"Ġvo":1951,"uik":1952,"Ġzien":1953,"GF":1954,"Ġonze":1955,"ichte":1956,"genen":1957,"CO":1958,"embra":1959,"ding":1960,"nese":1961,"lij":1962,"tern":1963,"heel":1964,"ĠAb":1965,"iken":1966,"ormale":1967,"Ġgeneesmiddelen":1968,"Ġgroter":1969,"MMING":1970,"model":1971,"Ġve":1972,"Ġnauw":1973,"Ġgemiddelde":1974,"Ġimpl":1975,"ilich":1976,"Ġomge":1977,"Ġlip":1978,"ust":1979,"Ġvas":1980,"Ġgeven":1981,"utie":1982,"ILY":1983,"heer":1984,"line":1985,"ode":1986,"ĠBLO":1987,"].":1988,"Ġlab":1989,"Ġtotale":1990,"Ġniveau":1991,"ĠPM":1992,"Ġspecifieke":1993,"Ġniveaus":1994,"gemeen":1995,"Ġun":1996,"AG":1997,"middel":1998,"Ġstr":1999,"onde":2000,"Ġmeerdere":2001,"Ġass":2002,"ĠII":2003,"ibr":2004,"Ġbetrekking":2005,"maal":2006,"Ġische":2007,"Ġpneum":2008,"Ġrapp":2009,"sor":2010,"verander":2011,"geleken":2012,"AN":2013,"hol":2014,"Ġoperatie":2015,"ĠgeÃ¯dentificeerd":2016,"afg":2017,"nivea":2018,"splant":2019,"opathie":2020,"âĢī":2021,"vid":2022,"embraan":2023,"Ġaandoen":2024,"Ġvl":2025,"Ġgemeten":2026,"sing":2027,"Ġvolwassen":2028,"Ġmut":2029,"abet":2030,"achte":2031,"Ġvar":2032,"oloog":2033,"40":2034,"Ġmethode":2035,"Ġbereik":2036,"ventie":2037,"Ġasp":2038,"ĠDAILY":2039,"Ġhep":2040,"Ġindi":2041,"int":2042,"digheden":2043,"inus":2044,"ly":2045,"Ġinsp":2046,"Ġrecept":2047,"Ġduidelijk":2048,"Ġverband":2049,"hydro":2050,"Ġverder":2051,"kenen":2052,"resp":2053,"Ġomdat":2054,"Ġfosf":2055,"Ġou":2056,"UR":2057,"Ġbelangrijkste":2058,"cler":2059,"ocardi":2060,"%,":2061,"lob":2062,"these":2063,"inter":2064,"arige":2065,"ĠAd":2066,"eks":2067,"Ġaanzienlijk":2068,"deelt":2069,"18":2070,"luit":2071,"Ġgeval":2072,"Ġvrouwen":2073,"zelfde":2074,"je":2075,"ferent":2076,"Ġsoorten":2077,"rale":2078,"ml":2079,"Ġth":2080,"Ġbacter":2081,"eur":2082,"onale":2083,"rose":2084,"raak":2085,"Ġlijkt":2086,"iciteit":2087,"oewel":2088,"Ġoplos":2089,"arct":2090,"recept":2091,"05":2092,"17":2093,"Ġwaardoor":2094,"iode":2095,"atine":2096,"Ġartikel":2097,"dragen":2098,"Ġaorta":2099,"Ġchrom":2100,"bel":2101,"Ġdo":2102,"Ġmetab":2103,"IV":2104,"Ġoraal":2105,"structie":2106,"ial":2107,"Ġeffectie":2108,"av":2109,"Ġonthul":2110,"kw":2111,"Ġlo":2112,"amet":2113,"ĠRR":2114,"Ġstam":2115,"lucose":2116,"Ġbeschik":2117,"Ġnucle":2118,"nem":2119,"Ġhoeveel":2120,"Ġkenmerken":2121,"herapeut":2122,"Ġgedrag":2123,"OD":2124,"Ġvanwege":2125,"ronen":2126,"Ġpt":2127,"ling":2128,"iseerd":2129,"Een":2130,"ivering":2131,"ief":2132,"PC":2133,"oÃ¯de":2134,"rof":2135,"Ġgesch":2136,"kin":2137,"iter":2138,"Ġvertoonden":2139,"fusie":2140,"irect":2141,"inds":2142,"itu":2143,"isme":2144,"zaam":2145,"amer":2146,"sma":2147,"Ġopn":2148,"Ġhydro":2149,"Ġpul":2150,"Ġverst":2151,"droom":2152,"struct":2153,"odi":2154,"icale":2155,"omt":2156,"Ġinformatie":2157,"over":2158,"Ġ-()":2159,"TR":2160,"offen":2161,"Ġmaken":2162,"Ġeiwitten":2163,"oornissen":2164,"arts":2165,"Ġverwijder":2166,"Ġregul":2167,"concentr":2168,"duceerd":2169,"otische":2170,"ming":2171,"inu":2172,"zonder":2173,"ograf":2174,"uun":2175,"Ġafwijkingen":2176,"Ġevaluatie":2177,"Ġadem":2178,"24":2179,"eerden":2180,"Ġplan":2181,"anten":2182,"PO":2183,"Ġsuggereert":2184,"eeds":2185,"rine":2186,"ologisch":2187,"ede":2188,"Ġdu":2189,"lyc":2190,"MI":2191,"Ġstabiel":2192,"Ġi":2193,"to":2194,"Ġmedische":2195,"otor":2196,"200":2197,"Ġgast":2198,"ated":2199,"Ġbepalen":2200,"ysi":2201,"Ġcontrast":2202,"syn":2203,"Ġ60":2204,"Ġabd":2205,"NI":2206,"zorg":2207,"osc":2208,"Ġoverle":2209,"Ġelke":2210,"Ġtoonden":2211,"Ã³":2212,"ĠSTEMMING":2213,"%.":2214,"Ġcombinatie":2215,"Ġondersteun":2216,"ato":2217,"igh":2218,"ziekte":2219,"Ġvoort":2220,"car":2221,"Ġleid":2222,"Ġlok":2223,"Ġvert":2224,"Ġmassa":2225,"Ġhist":2226,"Ġsuc":2227,"Ġdirect":2228,"Ġgroepen":2229,"Ġstatus":2230,"Ġinc":2231,"Ġgebas":2232,"Ġcorrel":2233,"HU":2234,"Ġgelijk":2235,"Ġfen":2236,"geÃ¯n":2237,"Ġneur":2238,"aden":2239,"pers":2240,"Ġbla":2241,"ess":2242,"Ġtablet":2243,"atheter":2244,"tens":2245,"iklin":2246,"Ġmoeten":2247,"pol":2248,"ĠDi":2249,"Ġzij":2250,"quent":2251,"Ġspec":2252,"Ġverd":2253,"22":2254,"Ġverbeteren":2255,"inig":2256,"pijn":2257,"ary":2258,"Ġlinks":2259,"lot":2260,"maakt":2261,"abetes":2262,"richt":2263,"Ġbron":2264,"gels":2265,"ĠPT":2266,"clu":2267,"jarige":2268,"Ġval":2269,"reen":2270,"Ġprimaire":2271,"Ġtherapie":2272,"gemen":2273,"Ġbevestig":2274,"Ġblijft":2275,"Ġeigenschappen":2276,"ximale":2277,"ression":2278,"Ġvertoonde":2279,"ragen":2280,"andigheden":2281,"behandeling":2282,"Ġhogere":2283,"Ġvloe":2284,"Ġtranscri":2285,"Ġpsych":2286,"ura":2287,"atient":2288,"ardiale":2289,"slagader":2290,"Ġstress":2291,"erend":2292,"Ġcent":2293,"LOC":2294,"CC":2295,"Ġverandering":2296,"ĠHoewel":2297,"Ġachter":2298,"KEN":2299,"Ġsten":2300,"ĠčĊč":2301,"Ġpresent":2302,"ĠÎ":2303,"app":2304,"Ġbeschrij":2305,"itme":2306,"Ġdus":2307,"gemene":2308,"fen":2309,"ĠCV":2310,"teerde":2311,"Ġfoc":2312,"Ġgrootte":2313,"cinoom":2314,"Ġtr":2315,"Ġtoepass":2316,"etten":2317,"Ġtekenen":2318,"Ġgroe":2319,"arak":2320,"voe":2321,"istent":2322,"idatie":2323,"Ġuitgebre":2324,"ild":2325,"imm":2326,"Ġmoleculaire":2327,"arakter":2328,"60":2329,"opla":2330,"Ġvergeleken":2331,"80":2332,"Ġchirurg":2333,"Ġhypertensie":2334,"Ġaanwijz":2335,"ZIE":2336,"igen":2337,"gaan":2338,"LOCATIE":2339,"ior":2340,"imale":2341,"Ġafhan":2342,"Ġmar":2343,"Ġox":2344,"gte":2345,"Ġindivid":2346,"aps":2347,"HUIS":2348,"ĠMRI":2349,"KENHUIS":2350,"tieel":2351,"spie":2352,"rond":2353,"ZIEKENHUIS":2354,"iciÃ«ntie":2355,"Ġvergelijkbaar":2356,"Ġnan":2357,"Ġwaarvoor":2358,"Ġnet":2359,"Ġgenen":2360,"Ġhoger":2361,"Ġgal":2362,"Ġpop":2363,"mige":2364,"Ġlaatste":2365,"Ġmedic":2366,"Ġcentr":2367,"loed":2368,"inge":2369,"Ġchem":2370,"Ġrecente":2371,"Ġbepaald":2372,"TP":2373,"bi":2374,"centage":2375,"rip":2376,"asen":2377,"vatting":2378,"Ġ80":2379,"Ġverschil":2380,"Ġeerdere":2381,"iculaire":2382,"metho":2383,"ulp":2384,"Ġbesproken":2385,"Ġserum":2386,"ĠCa":2387,"cm":2388,"ĠAt":2389,"Ġkon":2390,"HT":2391,"chte":2392,"Ġloc":2393,"Ġmatige":2394,"ĠST":2395,"digen":2396,"Ġprote":2397,"Ġmogelijke":2398,"Ã¶":2399,"ĠVan":2400,"Ġvormen":2401,"kla":2402,"ital":2403,"schapp":2404,"Ġdruk":2405,"systeem":2406,"uze":2407,"Ġbuik":2408,"Ġcir":2409,"tegen":2410,"Ġvolledig":2411,"Ġvervolgens":2412,"ines":2413,"Ġbeoordeeld":2414,"itieve":2415,"Ġvoorafg":2416,"Ġgeschiedenis":2417,"oma":2418,"trans":2419,"ĠPt":2420,"+)":2421,"ĠmmHg":2422,"Ġsterk":2423,"mper":2424,"ST":2425,"ice":2426,"ene":2427,"ĠOnze":2428,"ĠEn":2429,"rief":2430,"Ġenzym":2431,"Ġfase":2432,"Ġopgenomen":2433,"Ġatrium":2434,"Ġgemeen":2435,"Ġbilaterale":2436,"Ġsysteem":2437,"ĠMCH":2438,"Ġresul":2439,"-##":2440,"ory":2441,"Ġons":2442,"Ġdifferent":2443,"gelijke":2444,"Ġtweede":2445,"Ġvitro":2446,"iz":2447,"pleeg":2448,"lif":2449,"anger":2450,"order":2451,"ĠSig":2452,"ergie":2453,"ĠAan":2454,"ime":2455,"raat":2456,"Ġalgemeen":2457,"Ġevenals":2458,"ueel":2459,"loten":2460,"ocyt":2461,"kk":2462,"Ġhand":2463,"alisatie":2464,"vis":2465,"Ġsteeds":2466,"ĠRD":2467,"vatten":2468,"log":2469,"atrium":2470,"specifieke":2471,"voudige":2472,"Ġnon":2473,"90":2474,"aker":2475,"Ġminu":2476,"lip":2477,"Ġopt":2478,"Ġvere":2479,"Ġfactoren":2480,"tijd":2481,"eptide":2482,"SA":2483,"Ġopen":2484,"Ġpath":2485,"otherapie":2486,"fosf":2487,"Ġstructuur":2488,"Ġfollow":2489,"omein":2490,"Ġsucces":2491,"tig":2492,"ĠĠ":2493,"ege":2494,"Ġkre":2495,"teg":2496,"Ġmat":2497,"ĠDisp":2498,"Ġvet":2499,"weging":2500,"Ġslechts":2501,"Ġervan":2502,"rakt":2503,"wn":2504,"Ġbestude":2505,"IT":2506,"UL":2507,"Ġall":2508,"ĠECG":2509,"(-":2510,"Aan":2511,"Ġlichte":2512,"Ġpotent":2513,"ICATIE":2514,"orator":2515,"ero":2516,"wijzig":2517,"aand":2518,"Ġnegatief":2519,"ĠRV":2520,"mming":2521,"23":2522,"ichten":2523,"Ġaanwijzingen":2524,"illig":2525,"ĠOnder":2526,"yper":2527,"Ġmaag":2528,"tr":2529,"Ġker":2530,"Ġag":2531,"Ġstand":2532,"Ġurine":2533,"Ġbeh":2534,"Ġinvloed":2535,"Ġlaten":2536,"Ġklein":2537,"Ġpanc":2538,"bla":2539,"Ġdagelijk":2540,"ijst":2541,"ans":2542,"Ġruim":2543,"land":2544,"atisch":2545,"Ġvermogen":2546,"wegen":2547,"Ġafhankelijk":2548,"ibrill":2549,"Ġkreeg":2550,"Ġfunctionele":2551,"osp":2552,"ĠIL":2553,"ĠTot":2554,"Ġtherapeut":2555,"ibiot":2556,"ĠPh":2557,"roon":2558,"Ġcontact":2559,"Er":2560,"uff":2561,");":2562,"ĠAF":2563,"els":2564,"ionele":2565,"Ġtromb":2566,"tegenwoor":2567,"atiÃ«nt":2568,"ĠAP":2569,"ance":2570,"iew":2571,"Ġbenader":2572,"reactie":2573,"ysp":2574,"SC":2575,"icatie":2576,"var":2577,"Ġzuur":2578,"Ġfamilie":2579,"Ġopnieuw":2580,"Ġcomplic":2581,"laag":2582,"ĠPR":2583,"raal":2584,"cellulaire":2585,"iseerde":2586,"Ġzen":2587,"keld":2588,"Ġrespons":2589,"ser":2590,"omische":2591,"Ġdatum":2592,"falen":2593,"ĠBP":2594,"ĠAD":2595,"sieke":2596,"Ġantilich":2597,"Ġbijn":2598,"Ġmeeste":2599,"patiÃ«nten":2600,"Ġmmol":2601,"ocard":2602,"Ġimmuun":2603,"Ġzicht":2604,"indt":2605,"ET":2606,"emb":2607,"Ġverbetering":2608,"Ġhulp":2609,"Ġsele":2610,"ay":2611,"zij":2612,"Ġpolym":2613,"Ġmidden":2614,"Ġnood":2615,"rans":2616,"past":2617,"Ġaanbe":2618,"ume":2619,"oment":2620,"tectie":2621,"DICATIE":2622,"Ġhoewel":2623,"operatieve":2624,"Ġmater":2625,"mino":2626,"Ġ90":2627,"anische":2628,"ivo":2629,"Ġbieden":2630,"Ġweek":2631,"Ġnut":2632,"Ġgroei":2633,"Ġmel":2634,"Ġsnelheid":2635,"Ġgebru":2636,"EL":2637,"35":2638,"ameters":2639,"Ġactieve":2640,"26":2641,"gere":2642,"Ġmechanismen":2643,"ĠgeÃ«valu":2644,"amp":2645,"lop":2646,"ĠbeÃ¯nvloe":2647,"-,":2648,"Ġoog":2649,"Ġkwant":2650,"Ġdec":2651,"cc":2652,"pe":2653,"Ġgegeven":2654,"Ġgewicht":2655,"waarden":2656,"Ġspier":2657,"trol":2658,"SD":2659,"Ġkracht":2660,"ĠUit":2661,"Ġrest":2662,"Ġbeoordelen":2663,"Ġiv":2664,"man":2665,"Ġstimul":2666,"Ġgemaakt":2667,"ain":2668,"70":2669,"entele":2670,"BP":2671,"elateerde":2672,"bere":2673,"aalde":2674,"Ġrapport":2675,"Ġzenuw":2676,"Ġvastgesteld":2677,"Ġintact":2678,"Ġbio":2679,"Ġoede":2680,"100":2681,"lor":2682,"spraak":2683,"gram":2684,"Ġbeperkt":2685,"olom":2686,"Ġsuper":2687,"29":2688,"ĠAm":2689,"ongen":2690,"Ġgevoeligheid":2691,"yla":2692,"iteiten":2693,"Ġhemat":2694,"geÃ¯nduceerde":2695,"oorts":2696,"enz":2697,"ĠgeÃ«valueerd":2698,"achtige":2699,"ĠCR":2700,"Ġimpression":2701,"middelen":2702,"ociale":2703,"Ġname":2704,"Ġpotentieel":2705,"ating":2706,"dan":2707,"idine":2708,"istof":2709,"vullend":2710,"sole":2711,"out":2712,"acro":2713,"Ġischemie":2714,"45":2715,"Ġste":2716,"Ġgenetische":2717,"inde":2718,"amelijk":2719,"Ġbekken":2720,"vers":2721,"gd":2722,")-":2723,"nt":2724,"Ġminuten":2725,"Ġfib":2726,"ov":2727,"arge":2728,"Ġmoment":2729,"ina":2730,"**]":2731,"mische":2732,"ĠÂ":2733,"28":2734,"armac":2735,"Anam":2736,"Ġmal":2737,"Ġliter":2738,"ĠRNA":2739,"Me":2740,"Ġhom":2741,"Ġnauwkeur":2742,"Ġgevolgd":2743,"atoire":2744,"ider":2745,"Beleid":2746,"type":2747,"Ġbeoordeling":2748,"Ġwervel":2749,"Ġprogressie":2750,"Ġdezelfde":2751,"Ġdieren":2752,"ps":2753,"orb":2754,"Ġgesla":2755,"plaat":2756,"Ġontwikkeld":2757,"Ġblootstelling":2758,"Ġmembraan":2759,"Anamnese":2760,"onderzoek":2761,"Ġecho":2762,"Ġregio":2763,"infectie":2764,"Ġperiode":2765,"Ġnee":2766,"les":2767,"Ġvroege":2768,"stroom":2769,"Ġademhal":2770,"Ġvivo":2771,"Ġvolgende":2772,"ail":2773,"matig":2774,"oler":2775,"diening":2776,"ecifiek":2777,"bet":2778,"tex":2779,"Ġhum":2780,"Ġontde":2781,"Ġmate":2782,"Ġaort":2783,"Ġleiden":2784,"ateraal":2785,"Ġmorf":2786,"Ġwaarvan":2787,"ock":2788,"Re":2789,"Ġoste":2790,"JD":2791,"elt":2792,"ziekten":2793,"Ġproef":2794,"groot":2795,"Ġsommige":2796,"Ġrelatie":2797,"halte":2798,"Ġrele":2799,"esc":2800,"olester":2801,"Ġverzam":2802,"Ġdiagnost":2803,"ractie":2804,"Ġprot":2805,"Ġdicht":2806,"Ġlevens":2807,"Ġgericht":2808,"Ġzwanger":2809,"datum":2810,"Ġbeter":2811,"Ġcontinu":2812,"Ġverdere":2813,"Ġtoont":2814,"klier":2815,"omin":2816,"ellingen":2817,"positie":2818,"Ġhoeveelheid":2819,"Ġperif":2820,"Ġmis":2821,"Ġinge":2822,"Ġbloeddruk":2823,"ĠgeÃ¯sole":2824,"urele":2825,"Ġkn":2826,"Ġfot":2827,"Ġproductie":2828,"Ġarter":2829,"ycine":2830,"Ġidentificeren":2831,"Ġfluor":2832,"Ġsinds":2833,"drukt":2834,"horac":2835,"agon":2836,"aliseerde":2837,"gebruik":2838,"Ġverminderen":2839,"ĠCH":2840,"ace":2841,"orgen":2842,"volle":2843,"zing":2844,"Ġsignaal":2845,"doende":2846,"Ġkal":2847,"Al":2848,"suline":2849,"tale":2850,"27":2851,"Ġvertegenwoor":2852,"Ġgezondheids":2853,"stud":2854,"Ġnaam":2855,"ogram":2856,"Ġvir":2857,"orale":2858,"NP":2859,"Ġmensen":2860,"Ġcalcium":2861,"Ġven":2862,"ĠAls":2863,"Ġgedetect":2864,"Ġalfa":2865,"Ġlange":2866,"Ġsh":2867,"Ġstellen":2868,"ĠPer":2869,"ract":2870,"namelijk":2871,"PD":2872,"-##>":2873,"Ġverminderd":2874,"verdracht":2875,"aste":2876,"Ġoorz":2877,"ĠLAD":2878,"itor":2879,"ducten":2880,"Ġtotaal":2881,"Ġhersenen":2882,"Ġcentrale":2883,"Ġactie":2884,"Ġwand":2885,"Ġvolgens":2886,"Ġfrequentie":2887,"Ġpatho":2888,"ĠHR":2889,"ulaties":2890,"stoornissen":2891,"lang":2892,"Ġweinig":2893,"olie":2894,"ĠRDW":2895,"Ġgedeelt":2896,"TIJD":2897,"Ġfactor":2898,"ĠOverzicht":2899,"Ġafge":2900,"EFTIJD":2901,"Ġvijf":2902,"ificatie":2903,"aad":2904,"Gy":2905,"Ġgebruiken":2906,"tij":2907,"Ġlagere":2908,"sloten":2909,"Ġversus":2910,"stem":2911,"Ġtemper":2912,"Ġduur":2913,"LP":2914,"Ġbespre":2915,"imeter":2916,"LEEFTIJD":2917,"asp":2918,"illigram":2919,"Ġhypot":2920,"istentie":2921,"Ġbed":2922,"erie":2923,"DI":2924,"scheiden":2925,"Ġmilligram":2926,"agnose":2927,"Ġkwaliteit":2928,"opische":2929,"ocol":2930,"Ġkl":2931,"Ġkat":2932,"Ġrecht":2933,"onie":2934,"Ġorganis":2935,"Ġconcentratie":2936,"ril":2937,"Ġvorming":2938,"pak":2939,"Ġproblemen":2940,"akkelijk":2941,"iging":2942,"itale":2943,"Ġmond":2944,"Ġsecund":2945,"Ġreacties":2946,"matige":2947,"EC":2948,"cohol":2949,"Ex":2950,"Ġpositieve":2951,"sluit":2952,"000":2953,"kings":2954,"Ge":2955,"lut":2956,"Ġmeestal":2957,"waarde":2958,"oem":2959,"Ġverbeterde":2960,"Ġgepre":2961,"Ġpoly":2962,"wezen":2963,"MS":2964,"uleerd":2965,"duceren":2966,"Ġvoornamelijk":2967,"Ġapp":2968,"menten":2969,"ument":2970,"Ġontste":2971,"ili":2972,"ĠGen":2973,"Ġcolleg":2974,"Ġ21":2975,"Ġvrije":2976,"ros":2977,"Ġgedetecteerd":2978,"95":2979,"Ġhouden":2980,"Ġomst":2981,"Ġax":2982,"Ġvolledige":2983,"ĠmRNA":2984,"Ġbiologische":2985,"kenmerkt":2986,"uiten":2987,"Ġsnelle":2988,"Ġaden":2989,"fibrill":2990,"usies":2991,"Ġgekenmerkt":2992,"Ġbew":2993,"ameter":2994,"cho":2995,"idelijk":2996,"Ġstroom":2997,"dL":2998,"Ġstop":2999,"miss":3000,"issie":3001,"wand":3002,"ors":3003,"achting":3004,"Ġzetten":3005,"Ġdisc":3006,"Ġvereist":3007,"MPAR":3008,"amenvatting":3009,"ĠUn":3010,"gelopen":3011,".)":3012,"Ġprest":3013,"We":3014,"ight":3015,"oxiciteit":3016,"ĠHe":3017,"itte":3018,"Ġchromos":3019,"ifte":3020,"Ġoedeem":3021,"gestelde":3022,"Ġmiddelen":3023,"umb":3024,"Ġbescher":3025,"personen":3026,"Ã¨ta":3027,"fte":3028,"MPARIS":3029,"ochten":3030,"Ġmedicatie":3031,"Ġmann":3032,"Ġ70":3033,"Ġmanier":3034,"lamm":3035,"MA":3036,"groepen":3037,"uter":3038,"Ġevalueren":3039,"engte":3040,"view":3041,"ĠpotentiÃ«le":3042,"Ġimplant":3043,"Ġbekende":3044,"Ġgaat":3045,"ycard":3046,"Ġfy":3047,"Ġlaesies":3048,"33":3049,"Ġkomen":3050,"Ġcellulaire":3051,"ae":3052,"Ġwaarin":3053,"Pro":3054,"Ġomstandigheden":3055,"quenties":3056,"afhankelijk":3057,"Ġenkel":3058,"eemt":3059,"Ġassoc":3060,"PA":3061,"rijgen":3062,"iÃ«ren":3063,"eling":3064,"Ġbra":3065,"Ġ,":3066,"Ġmechanisme":3067,"Ġreceptor":3068,"doc":3069,"accin":3070,"Ġja":3071,"Ġactivering":3072,"Ġonbe":3073,"MPARISON":3074,"asis":3075,"moe":3076,"productie":3077,"oord":3078,"osine":3079,"bine":3080,"Ġantibiot":3081,"schappelijke":3082,"Ġbloe":3083,"Tijd":3084,"Ġgepresen":3085,"Ġalgemene":3086,"RA":3087,"sub":3088,"pat":3089,"Ġbevat":3090,"inine":3091,"raktijk":3092,"SI":3093,"scopie":3094,"rist":3095,"Ġkarakter":3096,"reas":3097,"teel":3098,"Ġduidelijke":3099,"stam":3100,"spron":3101,"Ġstenose":3102,"weefsel":3103,"lol":3104,"Ġ[((":3105,"Ġkoorts":3106,"Ġelektro":3107,"receptor":3108,"splantatie":3109,"elateerd":3110,"CR":3111,"nn":3112,"DL":3113,"Ġleidt":3114,"Ġgereg":3115,"adig":3116,"Ġsinus":3117,"ĠNiet":3118,"ĠâĢ":3119,"oratorium":3120,"micro":3121,"Ġliteratuur":3122,"Ġhals":3123,"teert":3124,"Ġzwangerschap":3125,"Ġhepat":3126,"Ġpulmon":3127,"riale":3128,"Ġinst":3129,"Ġmethoden":3130,"oxy":3131,"Ġcort":3132,"oxide":3133,"put":3134,"Ġblijven":3135,"daag":3136,"Ġspra":3137,"ĠPCI":3138,"medi":3139,"leden":3140,"Ġgemeld":3141,"Ġgecontrole":3142,"anen":3143,"ĠICD":3144,"ilijk":3145,"SH":3146,"Ġbinding":3147,"ile":3148,"Ġ23":3149,"danks":3150,"Ġform":3151,"ĠZo":3152,"Ġgedilat":3153,"Over":3154,"Ġnegatieve":3155,"kse":3156,"genese":3157,"ĠmGy":3158,"ĠHist":3159,"stre":3160,"lijden":3161,"mission":3162,"verlies":3163,"ĠAc":3164,"Ġwaarde":3165,"ĠpH":3166,"werking":3167,"Ġafgele":3168,"Ġgebieden":3169,"Ġrug":3170,"vasculaire":3171,"Ġbestaande":3172,"Ġdien":3173,"Ġziekten":3174,"mende":3175,"Ġstandaard":3176,"yste":3177,"ĠBLOED":3178,"aven":3179,"ĠY":3180,"PS":3181,"ĠAlle":3182,"Ġklinisch":3183,"Ġdistale":3184,"acet":3185,"Ġrust":3186,"gelen":3187,"Ġopz":3188,"been":3189,"Ġkorte":3190,"Ġoude":3191,"niveau":3192,"laatst":3193,"serv":3194,"Ġ95":3195,"Ġplasm":3196,"ning":3197,"Ġcere":3198,"Ġcardiale":3199,"ĠMedic":3200,"Ġregel":3201,"gerelateerde":3202,"Ġkeer":3203,"Ġy":3204,"ieve":3205,"Ġvasculaire":3206,"LA":3207,"Ġdysp":3208,"ĠCOMPARISON":3209,"Ġtoediening":3210,"Ġgepro":3211,"alys":3212,"wijzigd":3213,"Ġveroorzaken":3214,"oet":3215,"Ġmaakt":3216,"Ġvariab":3217,"75":3218,"zame":3219,"ĠUR":3220,"Ġverl":3221,"cum":3222,"Ġcomplicaties":3223,"Ġmod":3224,"ric":3225,"ĠRA":3226,"ĠMI":3227,"Ġgehad":3228,"atale":3229,"ĠAM":3230,"sign":3231,"ĠWBC":3232,"lass":3233,"ĠBID":3234,"Ġventrikel":3235,"Ġtherapeutische":3236,"YYYY":3237,"urs":3238,"Ġfem":3239,"34":3240,"mut":3241,"loc":3242,"idi":3243,"Ġverster":3244,"Ġvocht":3245,"spectie":3246,"Ġoptre":3247,"ografische":3248,"Ġmannen":3249,"Ġrond":3250,"99":3251,"activ":3252,"nemers":3253,"aakte":3254,"otype":3255,"Ġ22":3256,"Ġsens":3257,"Ġcentimeter":3258,"tel":3259,"Ġdiff":3260,"vangen":3261,"Ġafgelopen":3262,"Ġgeanalyse":3263,"ullen":3264,"rib":3265,"Ġspect":3266,"Ġ)":3267,"Ver":3268,"Ġbestudeerd":3269,"Ġafwezig":3270,"ouwd":3271,"ecten":3272,"Ġlet":3273,"CD":3274,"ionale":3275,"uleerde":3276,"pre":3277,"Ġabn":3278,"oden":3279,"Ġretro":3280,"kundige":3281,"cip":3282,"Ġvervolg":3283,"ĠbeÃ¯nvloed":3284,"32":3285,"plaats":3286,"operatie":3287,"naam":3288,"CI":3289,"staat":3290,"oprote":3291,"slagen":3292,"oplast":3293,"NEG":3294,"mit":3295,"Ġdergelijke":3296,"Ġvragen":3297,"Ġmes":3298,"Ġafname":3299,"lag":3300,"Ġgeschik":3301,"mole":3302,"formatie":3303,"Ġsche":3304,"Ġontwikkelen":3305,"dd":3306,"mijn":3307,"lacht":3308,"ĠProcedure":3309,"Ġ28":3310,"gevoel":3311,"Ġgren":3312,"Ġemb":3313,"uen":3314,"Ġinspanning":3315,"Ġpleura":3316,"ĠAf":3317,"Ġpoliklin":3318,"Ġisol":3319,"Ġlaesie":3320,"Ġcell":3321,"hel":3322,"erior":3323,"ultaten":3324,"Ġomvatten":3325,"gewicht":3326,"binding":3327,"Ġconsistent":3328,"ochond":3329,"Ġremming":3330,"RS":3331,"Ġdynam":3332,"dis":3333,"Ġseg":3334,"iedt":3335,"agnost":3336,"ĠSc":3337,"even":3338,"Ġweefsels":3339,"reening":3340,"Ġperic":3341,"__":3342,"Ġvooral":3343,"Ġroute":3344,"ikkel":3345,"Ġgraden":3346,"ĠAll":3347,"osition":3348,"Aanvullend":3349,"diend":3350,"gs":3351,"Ġglyc":3352,"UE":3353,"able":3354,"ĠAL":3355,"ogn":3356,"Ġvertonen":3357,"Ġdiabetes":3358,"Ġverspre":3359,"lect":3360,"antwoor":3361,"Ġconst":3362,"Ġgeplaatst":3363,"ypische":3364,"STE":3365,"euzel":3366,"euzelijst":3367,"Keuzelijst":3368,"Ġcontroles":3369,"lement":3370,"Ġherh":3371,"liferatie":3372,"aliseerd":3373,"Ġbevatten":3374,"gener":3375,"EP":3376,"gehalte":3377,"Ġamino":3378,"onent":3379,"aanse":3380,"Ġcult":3381,"Ġpancreas":3382,"oprolol":3383,"atist":3384,"Ġ26":3385,"Ġbiedt":3386,"unten":3387,"bo":3388,"Ġzuurstof":3389,"etisch":3390,"ĠPol":3391,"aart":3392,"SP":3393,"Ġmonsters":3394,"culen":3395,"Ġ35":3396,"werk":3397,"rengen":3398,"Ġverwijderd":3399,"Ġinciden":3400,"Ġoorspron":3401,"Ġgepresenteerd":3402,"Ġonop":3403,"ift":3404,"Ġarts":3405,"Ġpositief":3406,"Ġonderzochten":3407,"raz":3408,"Ġthuis":3409,"acem":3410,"Ġdim":3411,"Ġivm":3412,"klep":3413,"termin":3414,"Ġcolla":3415,"score":3416,"Ġgrond":3417,"DNA":3418,"uiv":3419,"Ġnemen":3420,"ĠHT":3421,"NF":3422,"Ġapopt":3423,"EM":3424,"ysiologische":3425,"Ġaandoeningen":3426,"ENT":3427,"36":3428,"kant":3429,"othorax":3430,"oses":3431,"Ġsoort":3432,"Ġdepressie":3433,"Ġcoronair":3434,"Ġendot":3435,"ritme":3436,"mol":3437,"atio":3438,"ĠIg":3439,"Ġveil":3440,"Ġjaren":3441,"generatieve":3442,"Ġsyndroom":3443,"Be":3444,"ycardie":3445,"Ġgere":3446,"Ġ(((":3447,"ĠgeÃ¯nduceerde":3448,"Ġdetectie":3449,"Ġess":3450,"ĠbeÃ¯nvloeden":3451,"ĠAV":3452,"Ġconcentraties":3453,"xy":3454,"Ġweten":3455,"Ġsubst":3456,"Ġgener":3457,"Ġbeelden":3458,"ĠHg":3459,"amma":3460,"icul":3461,"Ġline":3462,"Ġchemische":3463,"kening":3464,"ĠED":3465,"Ġopzichte":3466,"gader":3467,"Ġproefpersonen":3468,"Ġ75":3469,"Ġleuk":3470,"Ġbuiten":3471,"Ġgeanalyseerd":3472,"Ġexperimentele":3473,"ospital":3474,"osten":3475,"Ġgerelateerd":3476,"ĠPatiÃ«nt":3477,"Ġzeld":3478,"Ġomvat":3479,"Ġkool":3480,"tub":3481,"complex":3482,"osit":3483,"edieerde":3484,"tenis":3485,"ement":3486,"Ġpatient":3487,"Ġcontrol":3488,"dering":3489,"kolom":3490,"eria":3491,"consult":3492,"yse":3493,"Ġbeschikbaar":3494,"Ġhuisarts":3495,"Ġzichtbaar":3496,"yr":3497,"OM":3498,"ody":3499,"Name":3500,"Ġbeen":3501,"ventr":3502,"Ġtoekomst":3503,"nelheid":3504,"Ġfuncties":3505,"vallend":3506,"])":3507,"olf":3508,"Ġinjectie":3509,"eek":3510,"controle":3511,"53":3512,"Ġnatuur":3513,"Ġritme":3514,"INE":3515,"ĠCom":3516,"Ġzes":3517,"orpen":3518,"latie":3519,"opsie":3520,"fibrilleren":3521,"indings":3522,"Ġoverleving":3523,"Ġtransp":3524,"Ġaandoening":3525,"Ġtoepassing":3526,"Ġverbindingen":3527,"alp":3528,"Ġonthulde":3529,"gebied":3530,"Ġcycl":3531,"Ġtranscriptie":3532,"Ġeffectief":3533,"Ġspelen":3534,"Ġvoorkomende":3535,"Ġnoodz":3536,"Ġ:":3537,"Ġstrateg":3538,"Ġverlies":3539,"ĠTen":3540,"isten":3541,"Ġpl":3542,"ĠNormale":3543,"Ġgebaseerd":3544,"Ġbegin":3545,"Ġspecifiek":3546,"Ġplasma":3547,"Ġstructuren":3548,"cult":3549,"Ġvoedings":3550,"sses":3551,"Ġdubb":3552,"mot":3553,"apsule":3554,"issel":3555,"vante":3556,"Ġverbeterd":3557,"Ġuitgebreide":3558,"olisme":3559,"acemaker":3560,"sment":3561,"Ġmoeilijk":3562,"oi":3563,"Ġstof":3564,"cycl":3565,"lav":3566,"Ġtumoren":3567,"aald":3568,"Ġsitu":3569,"Ġheter":3570,"38":3571,"Ġverpleeg":3572,"Ġoppervlakte":3573,"Ġlaterale":3574,"Ġfocale":3575,"Ġhal":3576,"deerd":3577,"ichting":3578,"Ġthorac":3579,"Ġappar":3580,"Ġgaan":3581,"omenteel":3582,"Ġtach":3583,"rem":3584,"kle":3585,"Ġgrotere":3586,"itatie":3587,"Ġtoestand":3588,"Ġenergie":3589,"Ġhele":3590,"Ġbepaalde":3591,"Ġgezicht":3592,"Ġbereikt":3593,"Ġlokale":3594,"onenten":3595,"Ġdetect":3596,"Ġbijwer":3597,"ssessment":3598,"techn":3599,"oper":3600,"Ġinsuline":3601,"Ġwereld":3602,"Geen":3603,"ars":3604,"water":3605,"linische":3606,"merg":3607,"nauw":3608,"au":3609,"dition":3610,"Ġsprake":3611,"ĠDate":3612,"Ġexp":3613,"Ġkru":3614,"liggende":3615,"SS":3616,"Ġvaat":3617,"ergieÃ«n":3618,"ĠOne":3619,"uiste":3620,"onge":3621,"dende":3622,"isie":3623,"Ġmagn":3624,"Ġkg":3625,"Ġplaat":3626,"Ġpneumothorax":3627,"Ġgel":3628,"Ġsystolische":3629,"Ġsystemen":3630,"ofactoren":3631,"MD":3632,"ĠDaarom":3633,"afwijk":3634,"Ġverh":3635,"ĠBLOOD":3636,"ĠVers":3637,"Ġkleur":3638,"Ġtoegepast":3639,"dur":3640,"Ġbeleid":3641,"Ġblaas":3642,"Ġdefin":3643,"ĠLe":3644,"Ġbegon":3645,"Ġdelen":3646,"ets":3647,"55":3648,"VT":3649,"Ġspeel":3650,"fiel":3651,"ulf":3652,"aring":3653,"Ġglucose":3654,"Ġherstel":3655,"Ġbestaan":3656,"che":3657,"fic":3658,"vrij":3659,"Ġtoegediend":3660,"Ġcap":3661,"Ġvers":3662,"Ġbeheer":3663,"Ġstadi":3664,"cell":3665,"Ġinterne":3666,"ĠAC":3667,"ĠPlan":3668,"37":3669,"Ġfe":3670,"vings":3671,"cor":3672,"ximaal":3673,"Ġ27":3674,"Ġlager":3675,"Ġkomt":3676,"regel":3677,"Ġcru":3678,"oglob":3679,"Ġdieet":3680,"erp":3681,"use":3682,"ABG":3683,"arine":3684,"methode":3685,"Ġacuut":3686,"Met":3687,"Ġtemperatuur":3688,"infarct":3689,"Ġdd":3690,"Ġvirus":3691,"Ġdro":3692,"Ġsim":3693,"ormaal":3694,"ĠMD":3695,"LC":3696,"Ġalcohol":3697,"oft":3698,"ĠDoor":3699,"Ġlongen":3700,"ylering":3701,"wicht":3702,"Ġbeschrijven":3703,"Ġcorrelatie":3704,"OT":3705,"tail":3706,"voudig":3707,"ĠCK":3708,"sorptie":3709,"zw":3710,"ymen":3711,"Ġintraven":3712,"Ġopgemerkt":3713,"Ġpleurale":3714,"ben":3715,"Ġvergelijkbare":3716,"aklep":3717,"inen":3718,"Ġcardio":3719,"cur":3720,"ms":3721,"Ġneut":3722,"Ġbevestigd":3723,"Ġgeeft":3724,"Ġbo":3725,"oging":3726,"Ġpassen":3727,"Ġbijna":3728,".,":3729,"Ġreeks":3730,"oph":3731,"Ġvertra":3732,"oster":3733,"Ġeffusie":3734,"concentratie":3735,"Ġasc":3736,"niveaus":3737,"Ġneuronen":3738,"Ġkregen":3739,"Ġkno":3740,"ferentie":3741,"onine":3742,"Ġdys":3743,"luid":3744,"Samenvatting":3745,"iseren":3746,"ometrie":3747,"Ġgesp":3748,"Ġactiviteiten":3749,"Ġmitochond":3750,"Ġherst":3751,"Ġvermoe":3752,"stemming":3753,"methyl":3754,"Ġbeeldvorming":3755,"Ġmetast":3756,"Ġstructurele":3757,"31":3758,"atoren":3759,"Ġdaarom":3760,"Ġbleef":3761,"reerd":3762,"ĠNeuro":3763,"gebracht":3764,"asting":3765,"Ġuitkomst":3766,"Ġdil":3767,"respons":3768,"arc":3769,"Ġ%":3770,"Ġgebeur":3771,"rum":3772,"our":3773,"Ġblijk":3774,"ĠRec":3775,"Ġzwak":3776,"Ġabdomen":3777,"proces":3778,"que":3779,"Ġlast":3780,"sectie":3781,"Ġ500":3782,"Ġenige":3783,"aardige":3784,"Ġion":3785,"ous":3786,"Ġ36":3787,"Ġuitgedrukt":3788,"Ġfarmac":3789,"ĠHIV":3790,"Ġtemp":3791,"Ġbovenste":3792,"oÃ¯den":3793,"Ġtri":3794,"schillen":3795,"Ġlinkse":3796,"Ġdrain":3797,"98":3798,"kamer":3799,"olesterol":3800,"Ġprogn":3801,"Ġslechte":3802,"rouw":3803,"Ġlichaams":3804,"Ġverhogen":3805,"concentraties":3806,"glyc":3807,"lit":3808,"vast":3809,"Ġbetrouw":3810,"Ġvanaf":3811,"ĠDr":3812,"kanaal":3813,"Ġcode":3814,"klachten":3815,"IR":3816,"voorbeeld":3817,"Ġparameters":3818,".:":3819,"Ġlater":3820,"ts":3821,"Ġgezonde":3822,"zaamheid":3823,"kunde":3824,"Ġdagelijks":3825,"oppervla":3826,"Di":3827,"Ġmaximale":3828,"lab":3829,"cluderen":3830,"virus":3831,"cus":3832,"Ġonverander":3833,"Ġaandacht":3834,"CP":3835,"Ġstabiele":3836,"Ġkort":3837,"ĠSR":3838,"Ġrelatief":3839,"Ġtoel":3840,"Ġwervelkolom":3841,"ĠQu":3842,"zijn":3843,"hesie":3844,"Ġslagader":3845,"aardig":3846,"geboren":3847,"spect":3848,"itatieve":3849,"zer":3850,"Eq":3851,"Ġrichtlijn":3852,"lijnen":3853,"ischarge":3854,"Ã³r":3855,"Ġgetest":3856,"Ġinfarct":3857,"FO":3858,"Ġvolume":3859,"rijpen":3860,"Ã³Ã³r":3861,"oscler":3862,"Ġperifere":3863,"Ġdik":3864,"Ġbreed":3865,"Ġjuiste":3866,"uken":3867,"FR":3868,"pm":3869,"structuur":3870,"ree":3871,"ĠMon":3872,"aseerde":3873,"mech":3874,"Ġstatist":3875,"Ġcruc":3876,"Ġmacro":3877,"Ġzelfs":3878,"reng":3879,"Ġminim":3880,"Ġvroeg":3881,"Ġhartfalen":3882,"vari":3883,"Ġprestaties":3884,"Ġbestaat":3885,"Ġaff":3886,"langs":3887,"luiden":3888,"Ġspeelt":3889,"odynam":3890,"Ġvermindering":3891,"Ġmaat":3892,"radi":3893,"weest":3894,"Ġwijzen":3895,"Ġbeschouwd":3896,"Ġmoeder":3897,"Ġup":3898,"Ġkatheter":3899,"ĠResp":3900,"sis":3901,"umor":3902,"Ġplanten":3903,"Ġing":3904,"zuren":3905,"Ġhelpen":3906,"Ġaltern":3907,"hou":3908,"Ġstap":3909,"Ġprocessen":3910,"path":3911,"ĠmEq":3912,"Ġmannelijke":3913,"Ġgeweest":3914,"kelet":3915,"ritis":3916,"Ġgecor":3917,"ĠInter":3918,"gemedieerde":3919,"mun":3920,"ĠAB":3921,"Ġuite":3922,"Ġvoedsel":3923,"Ġpersonen":3924,"Ġbreuk":3925,"gezet":3926,"kal":3927,"Ġ45":3928,"houdende":3929,"41":3930,"čĊ":3931,"Ġvoorspellen":3932,"IP":3933,"sec":3934,"volgende":3935,"Ġtechniek":3936,"enter":3937,"48":3938,"ĠLab":3939,"rug":3940,"Ġafg":3941,"adru":3942,"Ġmilt":3943,"Ġsept":3944,"riteria":3945,"oxine":3946,"Ġfil":3947,"Ġevol":3948,"Ġverantwoor":3949,"Ġprof":3950,"iat":3951,"St":3952,"dr":3953,"oxid":3954,"bep":3955,"Ġdon":3956,"Ġprobleem":3957,"aliseren":3958,"escentie":3959,"Ġinit":3960,"gor":3961,"Ġvertoont":3962,"Ġkern":3963,"ialen":3964,"duidelijk":3965,"Ġlengte":3966,"Ġko":3967,"Ġ150":3968,"ĠIII":3969,")))":3970,"alfa":3971,"Ġgrenzen":3972,"erieure":3973,"OB":3974,"Ġselectie":3975,"route":3976,"Ġinteg":3977,"Ġstoffen":3978,"boven":3979,"ular":3980,"icus":3981,"monsters":3982,"Ġdifferentiatie":3983,"chym":3984,"Ġca":3985,"istente":3986,"tjes":3987,"gde":3988,"ĠCardi":3989,"Ġmi":3990,"Ġgelijktij":3991,"Ġvoorafgaande":3992,"itus":3993,"Ġ98":3994,"Ġzachte":3995,"Ġaanpak":3996,"Ġsn":3997,"ombin":3998,"ĠRes":3999,"Ġpraktijk":4000,"Ġantibiotica":4001,"Ġdirecte":4002,"97":4003,"Ġindividuele":4004,"Ġdun":4005,"Ġpart":4006,"Ġscler":4007,"Ġgedeeltelijk":4008,"Ġbilateraal":4009,"Ġcogn":4010,"ology":4011,"Brief":4012,"US":4013,"illaire":4014,"ĠMR":4015,"Ġ((()":4016,"inatie":4017,"ĠAbd":4018,"ĠgeÃ¯soleerd":4019,"Ġmeet":4020,"Ġchirurgische":4021,"agen":4022,"Ġverlaag":4023,"Ġeerst":4024,"Ġactiv":4025,"Ġvor":4026,"volen":4027,"ypen":4028,"Ġcomplexe":4029,"kten":4030,"die":4031,"Ġmilde":4032,"Ġvraag":4033,"LL":4034,"utane":4035,"Ġresulteerde":4036,"Ġast":4037,"lammatoire":4038,"Ġqu":4039,"Ġij":4040,"Ġsociale":4041,"001":4042,"BS":4043,"ĠHistory":4044,"nia":4045,"itheel":4046,"aa":4047,"ĠRBC":4048,"ĠvÃ³Ã³r":4049,"ympt":4050,"igeen":4051,"erings":4052,"Ġpercentage":4053,"Ġveroorzaakte":4054,"ĠHct":4055,"ĠAndere":4056,"Ġ([":4057,"oedeem":4058,"HR":4059,"oop":4060,"kens":4061,"ĠDD":4062,"%).":4063,"oxische":4064,"ĠINDICATIE":4065,"tes":4066,"Ġletsel":4067,"ĠPA":4068,"Ã¯de":4069,"Ġdoc":4070,"Ġcyst":4071,"agnostic":4072,"sper":4073,"pla":4074,"Ġult":4075,"Ġslecht":4076,"Ġvoldoende":4077,"Ġaortaklep":4078,"oh":4079,"NE":4080,"Ġverantwoordelijk":4081,"OP":4082,"braak":4083,"emd":4084,"Ġafwezigheid":4085,"Ġvloeistof":4086,"Ġepis":4087,"Ġsubc":4088,"sem":4089,"Ġzullen":4090,"Ġinteracties":4091,"Ġbiom":4092,"Ġgedefin":4093,"oplos":4094,"hoog":4095,"ĠTI":4096,"osyn":4097,"Ġather":4098,"Ġernstig":4099,"culair":4100,"ĠTwee":4101,"Ġ37":4102,"ras":4103,"erge":4104,"44":4105,"opname":4106,"rofie":4107,"oge":4108,")]":4109,"Ġmyocard":4110,"komt":4111,"Sp":4112,"06":4113,"VC":4114,"spiegels":4115,"rect":4116,"Ġbegrip":4117,"PRN":4118,"Ġlangdur":4119,"Ġanders":4120,"Ġbegrijpen":4121,"Ġapoptose":4122,"SR":4123,"Ġinterventie":4124,"ded":4125,"Ġondersteunen":4126,"Ġmax":4127,"ila":4128,"Ġpaar":4129,"Ġlog":4130,"fot":4131,"Ġspont":4132,"Ġcollegiale":4133,"Ġvandaag":4134,"Ġpresenteren":4135,"vraag":4136,"ĠDischarge":4137,"Medicatie":4138,"ness":4139,"Ġincidentie":4140,"Ġlaboratorium":4141,"Ġoorzaak":4142,"Ġdomein":4143,"factor":4144,"ugen":4145,"Ġacet":4146,"Ġther":4147,"ĠAr":4148,"ĠChe":4149,"Ġaanbevolen":4150,"Ġomvang":4151,"br":4152,"orten":4153,"Ġbijzonder":4154,"eslacht":4155,"Ġnatrium":4156,"EGEG":4157,"Ġwaarden":4158,"rele":4159,"ECG":4160,"aag":4161,"ĠZij":4162,"Ġlijken":4163,"Ġmodellen":4164,"Ġgestart":4165,"ysma":4166,"Ġ48":4167,"Ġwijten":4168,"frequentie":4169,"sies":4170,"roc":4171,"Ġvernauw":4172,"Ġimplantatie":4173,"ĠVol":4174,"ĠCAG":4175,"Ġverkal":4176,"AV":4177,"Ġbez":4178,"PT":4179,"ĠefficiÃ«n":4180,"dip":4181,"ĠRCA":4182,"plant":4183,"Ġmass":4184,"etting":4185,"ĠPD":4186,"kwab":4187,"Ġonveranderd":4188,"drukken":4189,"arb":4190,"clusief":4191,"ĠER":4192,"Ġlangs":4193,"Ġgenomen":4194,"EH":4195,"Ġbespreken":4196,"Reden":4197,"Ġextre":4198,"ung":4199,"bum":4200,"cg":4201,"vastatine":4202,"ichamelijk":4203,"Ġref":4204,"Ġinvas":4205,"organis":4206,"Ġwarm":4207,"Ġik":4208,"ĠStatus":4209,"iod":4210,"Ġgebaseerde":4211,"actieve":4212,"Ġafgifte":4213,"omatische":4214,"Ġhol":4215,"amnese":4216,"Ġdiver":4217,"Ġvolwassenen":4218,"Ġpols":4219,"rek":4220,"halve":4221,"65":4222,"ites":4223,"Ġbenadru":4224,"dex":4225,"ema":4226,"cular":4227,"its":4228,"Ġaard":4229,"mechanis":4230,"Ġverdi":4231,"cer":4232,"Ġfre":4233,"ypertensie":4234,"mens":4235,"uitgang":4236,"ĠATP":4237,"Ġkennis":4238,"ĠRef":4239,"Ġpas":4240,"zo":4241,"apporte":4242,"erol":4243,"ogeen":4244,"ize":4245,"Ġmeten":4246,"SV":4247,"Ġgla":4248,"ĠCor":4249,"04":4250,"Ġtek":4251,"Ġnuttig":4252,"Ġvoorgesteld":4253,"HTX":4254,"Cl":4255,"plan":4256,"verb":4257,"ytische":4258,"ĠAdmission":4259,"wegingen":4260,"ĠSP":4261,":[":4262,"Ġbenadering":4263,"Ġneurale":4264,"96":4265,"Ġpr":4266,"ĠBle":4267,"Ġgecontroleerd":4268,"Ġkwab":4269,"03":4270,"Ġverkl":4271,"voer":4272,"oot":4273,"azol":4274,"02":4275,"Ġstent":4276,"ĠCX":4277,"Ġgebeurtenis":4278,"Ġ31":4279,"Î²":4280,"Ġort":4281,"UN":4282,"Ġtoelating":4283,"Ġnam":4284,"ube":4285,"Ġslaap":4286,"Ġindien":4287,"istische":4288,"Ġbereiken":4289,"oep":4290,"beelden":4291,"oplasm":4292,"rol":4293,"ĠgeÃ¯nduceerd":4294,"ĠCont":4295,"Ġtub":4296,"ĠTijdens":4297,"Ġgehe":4298,"Ġimplic":4299,"omer":4300,"Ġdoses":4301,"Ġpeptide":4302,"LV":4303,"itone":4304,"Ġantilichamen":4305,"Ġeffectieve":4306,"Ġresultaat":4307,"Ġpopulatie":4308,"olon":4309,"valentie":4310,"Ġstimulatie":4311,"Ġrep":4312,"Ġfysieke":4313,"Ġhorm":4314,"mmers":4315,"Ġgeslacht":4316,"ray":4317,"uiver":4318,"Ġbronch":4319,"Ġassociatie":4320,"Ġscore":4321,"dieren":4322,"Ġvoorste":4323,"mee":4324,"Dec":4325,"ound":4326,"rix":4327,"Ġbehandelings":4328,"Ġintrac":4329,"toe":4330,"85":4331,"Ġpreventie":4332,"Ġbijdragen":4333,"On":4334,"ĠOok":4335,"Ġbijwerkingen":4336,"Ġsup":4337,"Ġoverdracht":4338,"Ġlijn":4339,"Ġmatig":4340,"ral":4341,"lage":4342,"vullende":4343,"Ġuitdag":4344,"Ġembry":4345,"ata":4346,"alering":4347,"ĠDiagnose":4348,"Ġderde":4349,"Ġmotor":4350,"cont":4351,"otide":4352,"Ġlos":4353,"Ġsystem":4354,"ildklier":4355,"QUE":4356,"Ġfoet":4357,"uderen":4358,"ĠComp":4359,"gaande":4360,"chemische":4361,"Ġdichtheid":4362,"ombine":4363,"Ġbeperkte":4364,"aciteit":4365,"reatinine":4366,"gebonden":4367,"Ġcereb":4368,"OL":4369,"iditeit":4370,"enc":4371,"47":4372,"uleren":4373,"Ġkans":4374,"Ġ29":4375,"bloed":4376,"Ġondergaan":4377,"niet":4378,"ummer":4379,"Ġvaccin":4380,"Ġneurolog":4381,"ĠLin":4382,"abiliteit":4383,"ĠLVEF":4384,"aatste":4385,"ici":4386,"Ġgehele":4387,"Ġhoogachting":4388,"((":4389,"Ġ05":4390,"ublic":4391,"Ġangst":4392,"ationele":4393,"07":4394,"Ġklep":4395,"fase":4396,"Ġaneur":4397,"Ġoptreden":4398,"MR":4399,"ĠGro":4400,"ffer":4401,"Ġbeta":4402,"carcinoom":4403,"ĠNE":4404,"Ġgrootste":4405,"akken":4406,"Ġmig":4407,"Ġmaal":4408,"Ġbehoe":4409,"ĠCP":4410,"Ġademhalings":4411,"Ġklasse":4412,"Ġ_":4413,"Ġsecret":4414,"eptiden":4415,"Ġprotocol":4416,"Ġgevoelig":4417,"Ġkrit":4418,"Ġdilat":4419,"Ġminimale":4420,"punt":4421,"Ġdiast":4422,"Ġledem":4423,"Ġmedicijnen":4424,"razol":4425,"ark":4426,"embran":4427,"Ġventriculaire":4428,"Ġbehan":4429,"ĠbÃ¨ta":4430,"staan":4431,"Ġvoorafgaand":4432,"Ġwerking":4433,"CK":4434,"ĠTe":4435,"Ġsterke":4436,"Ġgemeenschappelijke":4437,"vlies":4438,"fil":4439,"Ġvoel":4440,"ii":4441,"Ġthoracale":4442,"thet":4443,"ulair":4444,"Ġvezel":4445,"Ġmomenteel":4446,"sequentie":4447,"Ġorale":4448,"Ġtermijn":4449,"Ġrelatieve":4450,"stenose":4451,"Ġafwijking":4452,"aily":4453,"ĠMCV":4454,"Ġmetabole":4455,"Ġstij":4456,"PI":4457,"Ġangi":4458,"Ġcolon":4459,"Ġgeselect":4460,"Ġschaal":4461,"ĠRE":4462,"RR":4463,"volgen":4464,"vice":4465,"ralis":4466,"Ġpersoon":4467,"Ġaspir":4468,"43":4469,"Ġgebracht":4470,"46":4471,"NIQUE":4472,"ack":4473,"risch":4474,"Ġscreening":4475,"leerde":4476,"Ġkosten":4477,"Ġeenvoudige":4478,"abel":4479,"CS":4480,"Ġout":4481,"Ġ;":4482,"Ġafgeleid":4483,"Ġloop":4484,"Ġdefect":4485,"Ġoverw":4486,"Decursus":4487,"Ġdomin":4488,"Ġafspraak":4489,"darm":4490,"asc":4491,"ĠMg":4492,"osom":4493,"CM":4494,"Lichamelijk":4495,"Ġregulatie":4496,"Ġpatroon":4497,"ĠGI":4498,"rd":4499,"ĠCo":4500,"Ġexperimenten":4501,"Ġec":4502,"ĠDM":4503,"Ġgedaan":4504,"Ġtoevoe":4505,"Ġdier":4506,"ĠbacteriÃ«n":4507,"Ġbestuderen":4508,"Ġverzameld":4509,"ĠDLP":4510,"Ġonver":4511,"ĠAllergieÃ«n":4512,"ĠSub":4513,"ĠPE":4514,"blemen":4515,"tatie":4516,"cub":4517,"Ġvrouwelijke":4518,"ations":4519,"Ġontwikkelde":4520,"ĠHart":4521,"stit":4522,"sver":4523,"kn":4524,"Ġproximale":4525,"Ġvorige":4526,"ominale":4527,"Ġnatuurlijke":4528,"Ġonopvallend":4529,"ventionele":4530,"Ġfysiologische":4531,"Ġimpact":4532,"Ġobserv":4533,"Ġwerkzaamheid":4534,"Ġcontroleren":4535,"Ġ--":4536,"Ġtraum":4537,"noe":4538,"Ġepisode":4539,"borst":4540,"Ġvisuele":4541,"emende":4542,"olaire":4543,"orderen":4544,"Ġconsult":4545,"prote":4546,"complic":4547,"Ġvoeding":4548,"Ġdiagnostische":4549,"OH":4550,"42":4551,"buis":4552,"telijke":4553,"Ġcytok":4554,"Ġtranscript":4555,"ĠAT":4556,"Ġveld":4557,"cedures":4558,"49":4559,"gez":4560,"ERK":4561,"iep":4562,"Ġontslag":4563,"Ġcerv":4564,"Ja":4565,"ĠMCHC":4566,"CL":4567,"ĠTer":4568,"ĠTotal":4569,"Ġsequentie":4570,"ave":4571,"omyopathie":4572,"ĠAssessment":4573,"Ġmetingen":4574,"Ġatheroscler":4575,"'-":4576,"loop":4577,"erte":4578,"idief":4579,"Ġcoronaire":4580,"Ġgegener":4581,"ull":4582,"Ġdos":4583,"Ġkant":4584,"Ġvinden":4585,"Ġvergro":4586,"tensiteit":4587,"Ġsegment":4588,"effect":4589,"Ġproduct":4590,"Ġantilichaam":4591,"iologie":4592,"Ġgedilateerd":4593,"producten":4594,"Ġoverzicht":4595,"wissel":4596,"ĠAR":4597,"Ġ120":4598,"Ġ97":4599,"Ġabnormale":4600,"Ġpresentatie":4601,"Ġoxid":4602,"status":4603,"seud":4604,"Ġpresen":4605,"Ġreview":4606,"Ġpalp":4607,"Ġmaand":4608,"ieten":4609,"ancer":4610,"orter":4611,"ĠarteriÃ«le":4612,"Ġgeproduceerd":4613,"digt":4614,"ĠHem":4615,"Ġelkaar":4616,"Ġveneuze":4617,"Ġuitein":4618,"Ġprostaat":4619,"Ġgediagnostic":4620,"Ġbevorderen":4621,"Ġhelder":4622,"57":4623,"loor":4624,"Ġdunne":4625,"Ġ99":4626,"Ġpap":4627,"etra":4628,"Ġdoen":4629,"therapie":4630,"ĠCalcium":4631,"Hospital":4632,"Ġev":4633,"amide":4634,"Ġanat":4635,"uline":4636,"Ġatriumfibrilleren":4637,"ĠMED":4638,"Ġmyel":4639,"positieve":4640,"Ġpostoperatieve":4641,"Ġglut":4642,"NT":4643,"ĠAbs":4644,"Ġrapporteren":4645,"fal":4646,"Ġvent":4647,"Ġveronder":4648,"DS":4649,"Ġwond":4650,"Ġslot":4651,"sieve":4652,"heem":4653,"Ġproliferatie":4654,"Ġgekwee":4655,"electase":4656,"zetting":4657,"oline":4658,"56":4659,"Ġgecombine":4660,"ulmon":4661,"studies":4662,"73":4663,"Ġtesten":4664,"aryn":4665,"Ġbehouden":4666,"Ġonderliggende":4667,"ĠbacteriÃ«le":4668,"entegen":4669,"uding":4670,"CHNIQUE":4671,"metab":4672,"astin":4673,"ĠPlt":4674,"Ġgist":4675,"Ġminste":4676,"ills":4677,"GFR":4678,"mal":4679,"Ġnaast":4680,"ĠMo":4681,"Ġperc":4682,"Ġtij":4683,"Ġterugk":4684,"uus":4685,"Ġauto":4686,"Ġwelke":4687,"Ġperfusie":4688,"isen":4689,"Ġgeleden":4690,"eerbare":4691,"ĠVeren":4692,"Ġclu":4693,"grootte":4694,"gan":4695,"cuul":4696,"Ġgerapporte":4697,"Ġzout":4698,"Procedure":4699,"Ġdegeneratieve":4700,"Ġrisicofactoren":4701,"Ġonafhankelijk":4702,"Ġgraad":4703,"Ġzeldzame":4704,"Ġbinden":4705,"Ġbetrokkenheid":4706,"oscopie":4707,"ĠAct":4708,"Ġden":4709,"ĠEF":4710,"Ġeind":4711,"Ġoplossing":4712,"Ġpathologische":4713,"ĠICU":4714,"Ab":4715,"Ġbloeding":4716,"iduen":4717,"dl":4718,"Ġmer":4719,"vir":4720,"ĠCABG":4721,"ografisch":4722,"kinase":4723,"Ġblijkt":4724,"gren":4725,"ĠINR":4726,"Ġprevalentie":4727,"39":4728,"Ġactief":4729,"Ġpulmonale":4730,"%),":4731,"pop":4732,"gramma":4733,"88":4734,"Ġverlen":4735,"Ġnef":4736,"Ġtoenemende":4737,"Ġstammen":4738,"Ġsystemische":4739,"Ġvoorge":4740,"omycine":4741,"Ġbasale":4742,"Ġsecundaire":4743,"HA":4744,"bri":4745,"Ġvolgen":4746,"Ġinterval":4747,"aby":4748,"Ġgastheer":4749,"Ġonmiddel":4750,"oordeling":4751,"Ġlangdurige":4752,"TU":4753,"SION":4754,"Ġeenheden":4755,"iaire":4756,"Ġ32":4757,"plaatjes":4758,"ementen":4759,"ĠMeer":4760,"Ġeenmaal":4761,"Ġnieren":4762,"ĠPre":4763,"orylering":4764,"uig":4765,"Ġgeschikt":4766,"bed":4767,"fecteerde":4768,"08":4769,"duur":4770,"oid":4771,"Ġexc":4772,"Ġstart":4773,"Ġkrijgen":4774,"Ġmateriaal":4775,"Ġhan":4776,"(+)":4777,"Ġhartslag":4778,"Ġomgeving":4779,"Ġnucleaire":4780,"plic":4781,"Ġrecombin":4782,"stim":4783,"âĢĻ":4784,"hyper":4785,"ju":4786,"thetische":4787,"Ġkind":4788,"Ġontworpen":4789,"09":4790,"vormige":4791,"Ġcomponenten":4792,"Ġaanzienlijke":4793,"leiding":4794,"Ġresulteert":4795,"Ġtand":4796,"Ġcognitieve":4797,"motor":4798,"trast":4799,"pret":4800,"Ġtests":4801,"Ġdop":4802,"structies":4803,"scher":4804,"ted":4805,"Ġrelevante":4806,"Ġcontinue":4807,"Ġsynthese":4808,"Ġinfil":4809,"ĠFindings":4810,"werp":4811,"initeit":4812,"ining":4813,"modellen":4814,"entale":4815,"Ġdeelnemers":4816,"eiden":4817,"moeder":4818,"Ġinb":4819,"olerantie":4820,"Ġgeschat":4821,"keerd":4822,"Ġerg":4823,"ortadem":4824,"Ġmilie":4825,"Ġseks":4826,"ĠMult":4827,"Ġkwaad":4828,"Ġbehandelde":4829,"oorte":4830,"enen":4831,"ĠIMP":4832,"urie":4833,"Ġoppervlak":4834,"ĠReg":4835,"ilde":4836,"yan":4837,"Ġessentie":4838,"Ġprob":4839,"rontale":4840,"Ġtransm":4841,"geluiden":4842,"Ġborstkanker":4843,"ctomie":4844,"Ġweg":4845,"Ġvaste":4846,"ees":4847,"Ġonderzoe":4848,"Ġmogelijkheid":4849,"ĠFunction":4850,"Ġbijdra":4851,"vanging":4852,"text":4853,"neg":4854,"Ġbehandelen":4855,"Ġuitgebreid":4856,"Ġsluit":4857,"agde":4858,"andom":4859,"ĠCar":4860,"BI":4861,"Ġsil":4862,"vocht":4863,"Ġaanhoudende":4864,"ue":4865,"troffen":4866,"Ġchemotherapie":4867,"Ġwereldwij":4868,"receptoren":4869,"insuff":4870,"Ġclass":4871,"aminering":4872,"activering":4873,"chrom":4874,"transplantatie":4875,"akelijk":4876,"ogenese":4877,"ilisatie":4878,"Ġremmen":4879,"onucle":4880,"Ġkunt":4881,"ĠVerslag":4882,"-(":4883,"ĠOR":4884,"ACT":4885,"did":4886,"Ġouder":4887,"ageren":4888,"Ġschade":4889,"eiwitten":4890,"lijm":4891,"Ġpiek":4892,"lux":4893,"rac":4894,"ĠPhys":4895,"ĠTh":4896,"Ġschildklier":4897,"itro":4898,"Ġaanbevel":4899,"ĠVerder":4900,"Ġmechanische":4901,"li":4902,"Î±":4903,"Cor":4904,"yclo":4905,"Ġepitheel":4906,"Ġprop":4907,"gingen":4908,"hoofd":4909,"Ġlact":4910,"Ġtegenstelling":4911,"Ġreden":4912,"ĠNAD":4913,"Ġgeco":4914,"Ġproduceren":4915,"Ġgef":4916,"Ġbeweging":4917,"Ġgastro":4918,"gelaten":4919,"Ġkrist":4920,"leerd":4921,"Ġondersteuning":4922,"67":4923,"oring":4924,"oplasma":4925,"Ġpneumonie":4926,"pha":4927,"antilich":4928,"Ġdeeltjes":4929,"rooi":4930,"aging":4931,"Ġgun":4932,"Ġcoli":4933,"Ġintern":4934,"regelen":4935,"etrie":4936,"ula":4937,"Deze":4938,"Ġervar":4939,"Ġtoepassingen":4940,"Ġrechtse":4941,"ĠDisposition":4942,"active":4943,"Ġinductie":4944,"sl":4945,"lekeur":4946,"olen":4947,"cten":4948,"Ġade":4949,"leen":4950,"Ġ38":4951,"iezen":4952,"olip":4953,"Ġoptim":4954,"Ġbevol":4955,"Hart":4956,"ĠWij":4957,"Ġhoest":4958,"ll":4959,"Ġontstekings":4960,"Ġintracellulaire":4961,"Ġber":4962,"Ġvervolgconsult":4963,"ĠRefills":4964,"ĠAo":4965,"Ġbleken":4966,"ymmet":4967,"Ġol":4968,"ylo":4969,"ouder":4970,"Ġanal":4971,"ĠName":4972,"Ġijzer":4973,"Ġidentificatie":4974,"Ġtechnieken":4975,"Ġfrag":4976,"ual":4977,"bron":4978,"Ġverwijdering":4979,"akte":4980,"ĠPresent":4981,"Ġgeringe":4982,"alytische":4983,"RES":4984,"Ġinclusief":4985,"omat":4986,"ds":4987,"Ġoudere":4988,"Ġmild":4989,"drag":4990,"veranderingen":4991,"ĠTR":4992,"lijst":4993,"Ġrecent":4994,"Ġmonster":4995,"werken":4996,"ner":4997,"Ġvolgt":4998,"Ġliggen":4999,"Ġcommun":5000,"lear":5001,"Ġmutaties":5002,"Ġvernauwing":5003,"Ġvertegenwoordigen":5004,"Ġvirale":5005,"Ġruimte":5006,"Ġtele":5007,"Af":5008,"Bij":5009,"Ġgemakkelijk":5010,"INDICATIE":5011,"Ġtoegang":5012,"lever":5013,"dicht":5014,"ĠMS":5015,"Ġveranderd":5016,"ĠSch":5017,"releerd":5018,"oglobine":5019,"oods":5020,"Ġcyste":5021,"ĠVS":5022,"Ġvs":5023,"afwijkingen":5024,"scheid":5025,"gebaseerde":5026,"tit":5027,"]-":5028,"Ġtop":5029,"Ġwitte":5030,"Ġgran":5031,"Ġovereenstemming":5032,"GE":5033,"Ġmultip":5034,"Ġaneurysma":5035,"ĠWanneer":5036,"IF":5037,"ha":5038,"komstig":5039,"hanol":5040,"Ġvle":5041,"HS":5042,"GT":5043,"Ġgecorreleerd":5044,"ector":5045,"terne":5046,"arch":5047,"Ġfamil":5048,"Ġbrengen":5049,"AF":5050,"quenc":5051,"Ġmic":5052,"Ġhoogte":5053,"Ġconsol":5054,"respon":5055,"ring":5056,"cumulatie":5057,"Ġnot":5058,"Ġkopp":5059,"immun":5060,"87":5061,"Ġrect":5062,"ĠNO":5063,"bul":5064,"Ġweerspie":5065,"Ġindic":5066,"Ã¶rd":5067,"Ġtermen":5068,"Ġondanks":5069,"Ġconventionele":5070,"Ġstabiliteit":5071,"ross":5072,"mod":5073,"Ġkortadem":5074,"Ġdagelijkse":5075,"ution":5076,"stoornis":5077,"scan":5078,"merik":5079,"Ġenig":5080,"beta":5081,"olutie":5082,"amm":5083,"operatief":5084,"Ġaanvan":5085,"ĠHer":5086,"DH":5087,"Ġvoorkeur":5088,"Overige":5089,"Ġgekopp":5090,"orische":5091,"Ġgaf":5092,"Ġbol":5093,"Ġvariatie":5094,"Ġmelan":5095,"tt":5096,"inst":5097,"Ġflow":5098,"ellitus":5099,"ores":5100,"Ġopmer":5101,"cefal":5102,"oit":5103,"Ġgediagnosticeerd":5104,"eth":5105,"def":5106,"ntgen":5107,"Ġgeleid":5108,"syndroom":5109,"massa":5110,"Ġ55":5111,"Ġdiep":5112,"ĠEchter":5113,"###":5114,"ĠDaarna":5115,"ella":5116,"generatie":5117,"rijke":5118,"dens":5119,"kent":5120,"Ġacht":5121,"MB":5122,"ics":5123,"bruik":5124,"]]":5125,"ysteem":5126,"duceert":5127,"ĠTF":5128,"ypes":5129,"ĠCI":5130,"gemakkelijk":5131,"Ġkamer":5132,"Ġgevorm":5133,"rand":5134,"Ġbloedplaatjes":5135,"uli":5136,"sulf":5137,"ĠVT":5138,"Ġvoordelen":5139,"Ġgeneesmiddel":5140,"ikstof":5141,"ipp":5142,"PV":5143,"Ġdiameter":5144,"Ġvergemakkelijk":5145,"eerbaar":5146,"Ġpunt":5147,"idemie":5148,"activeerde":5149,"Ġmag":5150,"Co":5151,"Ġonlangs":5152,"heids":5153,"Ġ65":5154,"pport":5155,"Ġmob":5156,"Ġablatie":5157,"Ġatelectase":5158,"Ġenzymen":5159,"Ġlocatie":5160,"Ġoorsprong":5161,"stest":5162,"Ġjonge":5163,"Ġvonden":5164,"Op":5165,"Ġveronderst":5166,"Ġangio":5167,"Ġanalys":5168,"ĠCTA":5169,"Ġlipide":5170,"Ġprocent":5171,"zep":5172,"Ch":5173,"derland":5174,"adem":5175,"obacter":5176,"mmun":5177,"cyt":5178,"MG":5179,"Ġtre":5180,"max":5181,"Ġnab":5182,"geassoc":5183,"char":5184,"Ġneus":5185,"AST":5186,"ĠHaar":5187,"Ġann":5188,"atory":5189,"Ġbevindt":5190,"Ġonderscheiden":5191,"houding":5192,"Ġlumb":5193,"Ġcre":5194,"Ġcholesterol":5195,"Ġstoornissen":5196,"cess":5197,"okken":5198,"greg":5199,"kracht":5200,"vies":5201,"III":5202,"ĠAtten":5203,"Ġplaatsen":5204,"kno":5205,"remp":5206,"ĠComment":5207,"ificiteit":5208,"Ġapparaat":5209,"ĠZijn":5210,"lim":5211,"pler":5212,"ĠEer":5213,"oplossing":5214,"Ġuitgesloten":5215,"opril":5216,"cyclus":5217,"Dit":5218,"Ġselectieve":5219,"Ġklas":5220,"handeling":5221,"Ġoct":5222,"Ġcc":5223,"Ġbehandelingen":5224,"Ġendotheel":5225,"Ġsubstraat":5226,"Examinering":5227,"Ġbro":5228,"Ġkonden":5229,"Ġstadium":5230,"Ġul":5231,"Ġzacht":5232,"wikkel":5233,"91":5234,"//":5235,"Ġbenaderingen":5236,"ions":5237,"Ġevent":5238,"Ġblootgesteld":5239,"Ġplat":5240,"mogen":5241,"ĠProte":5242,"Ġdimen":5243,"94":5244,"oemde":5245,"Ġconform":5246,"Ġslotte":5247,"Ġ33":5248,"neu":5249,"repen":5250,"Ġgang":5251,"Ġhalsslagader":5252,"Ġelektronen":5253,"Ġovergang":5254,"foto":5255,"92":5256,"Ġzouden":5257,"Ġovereenkomst":5258,"Ġverdragen":5259,"LAR":5260,"Ġnacht":5261,"Ġonbekend":5262,"Ġongewijzigd":5263,"Ġsin":5264,"Ġfibro":5265,"Ġademhaling":5266,"Ġren":5267,"stoffen":5268,"bindende":5269,"jaar":5270,"UC":5271,"Ġoud":5272,"Ġessentieel":5273,"Ġverwijst":5274,"isselijk":5275,"Ġvat":5276,"Ġins":5277,"agonist":5278,"Ġhumane":5279,"eekpro":5280,"Ġgebruikten":5281,"Ġsecundair":5282,"biÃ«le":5283,"ĠEl":5284,"Ġsymmet":5285,"Ġreguleren":5286,"ink":5287,"domein":5288,"ĠET":5289,"oofd":5290,"Ġontdekten":5291,"Ġprognose":5292,"Ġdrainage":5293,"Ġrib":5294,"Ã¶ntgen":5295,"ĠHgb":5296,"Ġgenexpressie":5297,"geving":5298,"locatie":5299,"Ġrecidief":5300,"Ġwillekeur":5301,"ĠOnderzoek":5302,"omeg":5303,"Ġvergelijken":5304,"NO":5305,"Ġconf":5306,"ĠRadi":5307,"Ġintraveneuze":5308,"Ġident":5309,"Ġinfecties":5310,"Body":5311,"ote":5312,"Ġbaar":5313,"sh":5314,"Ġwv":5315,"oll":5316,"dimens":5317,"Ġkinder":5318,"vingen":5319,"schillende":5320,"tering":5321,"iform":5322,"Ġcarb":5323,"Naam":5324,"Ġuiter":5325,"Ġafbraak":5326,"Ġparas":5327,"Ġgezondheidszorg":5328,"dnis":5329,"hals":5330,"ative":5331,"chlor":5332,"Ġlymfaden":5333,"ĠNederland":5334,"mmHg":5335,"bouw":5336,"Ġledematen":5337,"Ġaute":5338,"86":5339,"Ġrekening":5340,"MT":5341,"lutter":5342,"isering":5343,"Ġ(-":5344,"ectomie":5345,"ĠMilde":5346,"bereik":5347,"Ġdem":5348,"ctor":5349,"Ġanalyses":5350,"Ġuitvo":5351,"Ġsper":5352,"ĠKle":5353,"stelsel":5354,"ĠOr":5355,"Ġneemt":5356,"ytro":5357,"Ġkwantitatieve":5358,"annings":5359,"93":5360,"ĠBloed":5361,"bumine":5362,"keningen":5363,"attern":5364,"vrije":5365,"ala":5366,"Ġwerken":5367,"Ġhoeveelheden":5368,"ĠTE":5369,"Ġoptimale":5370,"Ġaanvullende":5371,"oest":5372,"bu":5373,"anti":5374,"Ġgepaard":5375,"Ġexterne":5376,"ĠUrine":5377,"Ġoc":5378,"Ġbevorder":5379,"agement":5380,"arisatie":5381,"Ġtachycardie":5382,"Ġgevolgen":5383,"ĠServ":5384,"ĠCapsule":5385,"aris":5386,"zijde":5387,"Ġaminozuur":5388,"aut":5389,"olling":5390,"hep":5391,"Ġgroeif":5392,"Ġgeregist":5393,"Ġhen":5394,"Ġlineaire":5395,"Ġmacrofa":5396,"Ġcervicale":5397,"Ġtransport":5398,"yg":5399,"Ġgeheugen":5400,"mel":5401,"oz":5402,"Ġcortex":5403,"Ġechocardi":5404,"lost":5405,"alie":5406,"venties":5407,"ĠGer":5408,"artsen":5409,"ĠHel":5410,"Ġvitamine":5411,"uurd":5412,"Ġkader":5413,"Ġgene":5414,">,":5415,"Ġcytot":5416,"Ġ02":5417,"Ġ250":5418,"acchar":5419,"Ġmuc":5420,"ipatie":5421,"Ġmot":5422,"Ġintracran":5423,"Ġplace":5424,"Ġoper":5425,"uwen":5426,"estion":5427,"Ġpe":5428,"nnnn":5429,"Ġmitochondriale":5430,"Ġland":5431,"oppervlak":5432,"Ġleeftijds":5433,"Ã¯nen":5434,"Ġmoleculen":5435,"SE":5436,"oca":5437,"ometrische":5438,"rijven":5439,"plicatie":5440,"ND":5441,"spectief":5442,"Ġknie":5443,"Ġhoogste":5444,"Ġverdw":5445,"Ã«nt":5446,"Ġdecursus":5447,"erase":5448,"FT":5449,"ĠIk":5450,"snelheid":5451,"uratie":5452,"Ġ96":5453,"Ġbaarmoeder":5454,"AA":5455,"ĠPhysical":5456,"Ġgenoom":5457,"Ġpo":5458,"Ġ#,":5459,"Ġzeven":5460,"cardi":5461,"Ġmort":5462,"ĠOP":5463,"Ġblokk":5464,"ĠRX":5465,"drukking":5466,"factoren":5467,"Ġmitralis":5468,"testinale":5469,"fractie":5470,"Ġmuis":5471,"Ġdes":5472,"Ġveranderde":5473,"Ġreson":5474,"Ġreceptoren":5475,"Ġbeste":5476,"sels":5477,"YYYYYYYY":5478,"Ġhypothese":5479,"Ġsite":5480,"uurt":5481,"ouff":5482,"uiving":5483,"Ġveranderen":5484,"mis":5485,"ĠÂ±":5486,"Ġbero":5487,"Ġruggen":5488,"Ġmalign":5489,"Ġ*":5490,"gedragen":5491,"58":5492,"plaatsing":5493,"Ġverscheiden":5494,"Ġkruis":5495,"Ġcontext":5496,"Ġgebrek":5497,"Ġdaarop":5498,"passing":5499,"alol":5500,"Ġging":5501,"Ġherken":5502,"basis":5503,"Ġdilatatie":5504,"smet":5505,"dheid":5506,"synthese":5507,"ĠGeslacht":5508,"Ġtoegelaten":5509,"Ġextracellulaire":5510,"Ġveiligheid":5511,"ĠdifferentiÃ«le":5512,"76":5513,"Ġaffiniteit":5514,"BD":5515,"maat":5516,"Ġsat":5517,"arten":5518,"Ġgedefinieerd":5519,"richting":5520,"OC":5521,"haling":5522,"Ġbaby":5523,"Ġogen":5524,"seg":5525,"ĠCXR":5526,"Ġbetere":5527,"Ġschat":5528,"strateg":5529,"studie":5530,"Ġwild":5531,"delingen":5532,"Ġanamnese":5533,"verslag":5534,"grond":5535,"carb":5536,"Ġrichting":5537,"Ġontsteking":5538,"ĠHE":5539,"ĠDaarentegen":5540,"HH":5541,"gebieden":5542,"ĠCare":5543,"arkers":5544,"resultaten":5545,"Ġflex":5546,"Ġonduidelijk":5547,"ĠInvas":5548,"tingen":5549,"Ġdiar":5550,"schik":5551,"Ġvoorlop":5552,"eenheid":5553,"arenchym":5554,"Ġverzw":5555,"Ġtoxiciteit":5556,"beweging":5557,"Laatste":5558,"embranen":5559,"hm":5560,"vle":5561,"Ġgaven":5562,"Ġontwikkelings":5563,"Ġ1000":5564,"Ġoest":5565,"ases":5566,"lymf":5567,"beloven":5568,"Ġcomponent":5569,"Ġolig":5570,"Ġsouff":5571,"Ġbiopsie":5572,"systemen":5573,"elding":5574,"nemen":5575,"At":5576,"ventrikel":5577,"allel":5578,"oodsoorz":5579,"ĠCl":5580,"semide":5581,"Ġoxidatieve":5582,"ĠQuestion":5583,"FA":5584,"voed":5585,"Ġhetzelfde":5586,"blok":5587,"rik":5588,"Ġmagnetische":5589,"Ġconcept":5590,"imer":5591,"oscopische":5592,"Ġdetecteren":5593,"Ġsem":5594,"Voor":5595,"ĠConclusie":5596,"ERKLAR":5597,"beper":5598,"MC":5599,"Ġafstand":5600,"ĠNT":5601,"oproteÃ¯ne":5602,"Ġveelbeloven":5603,"cap":5604,"Ġtoegenomen":5605,"ĠURINE":5606,"Ġchromosoom":5607,"mi":5608,"Ġreage":5609,"week":5610,"PH":5611,"Ġzoog":5612,"abil":5613,"astinum":5614,"Ġverkrijgen":5615,"Ġvoorgestelde":5616,"ferase":5617,"Ġrelev":5618,"ĠVervolgens":5619,"Ġng":5620,"ichaam":5621,"77":5622,"spanning":5623,"Ġlymfadenopathie":5624,"lucht":5625,"Ġgebeurtenissen":5626,"BL":5627,"Ġleveren":5628,"laes":5629,"yros":5630,"Ġvoorgeschreven":5631,"ĠGezien":5632,"Ġarm":5633,"Ġtoekomstige":5634,"Ġontstaan":5635,"Ġherhaalde":5636,"Ġuitbre":5637,"ational":5638,"Ġcal":5639,"Ġmaximaal":5640,"ustzijn":5641,"Ġbete":5642,"ococ":5643,"RESSION":5644,"ĠFe":5645,"Ġwijst":5646,"DA":5647,"Ġcomputer":5648,"osa":5649,"ĠSC":5650,"ĠMEDIC":5651,"Ġfemorale":5652,"ĠvariÃ«ren":5653,"Ġsol":5654,"Ġverdeling":5655,"Ġlopen":5656,"Ġtoevoeging":5657,"isol":5658,"acine":5659,"Ġprin":5660,"ocar":5661,"emm":5662,"Ġsep":5663,"ĠRele":5664,"Ġsoft":5665,"rucht":5666,"hydroxy":5667,"Ġbeperkingen":5668,"Ġbehalve":5669,"ringen":5670,"Ġgevormd":5671,"Ġnoodzakelijk":5672,"DM":5673,"Ġontslagen":5674,"hyro":5675,"uring":5676,"ĠAttending":5677,"ĠUnit":5678,"dule":5679,"regulatie":5680,"Ġvooruitgang":5681,"Ġvoet":5682,"Ġander":5683,"bs":5684,"INGEN":5685,"Ġmilieu":5686,"Ġbeenmerg":5687,"Ġmisselijk":5688,"Ġaangeeft":5689,"structuren":5690,"ĠIll":5691,"Ġafzonder":5692,"po":5693,"Ġschimm":5694,"hepatische":5695,"Ġzeg":5696,"edieerd":5697,"Ġgehouden":5698,"umer":5699,"ĠMa":5700,"**)":5701,"Ġverkla":5702,"VID":5703,"aptische":5704,"Lab":5705,"Ġontwerp":5706,"Ġpopulaties":5707,"ĠPCR":5708,"Ġscan":5709,"Ġzorgen":5710,"itoring":5711,"Ġgemeenschap":5712,"dend":5713,"ĠService":5714,"OSE":5715,"Ġoptische":5716,"iber":5717,"gegeven":5718,"Ġcorticale":5719,"Ġsteekpro":5720,"Ġmortaliteit":5721,"ĠNF":5722,"Ġnr":5723,"otensie":5724,"Ġgluc":5725,"itten":5726,"Ġantigeen":5727,"EA":5728,"ĠOmdat":5729,"Ne":5730,"Ġhypox":5731,"vindingen":5732,"Ġneuronale":5733,"Ġdaalde":5734,"BT":5735,"Ġaanvallen":5736,"Ġsig":5737,"ĠCAD":5738,"asale":5739,"ijds":5740,"84":5741,"Ġstoel":5742,"Ġvanuit":5743,"esit":5744,"Ġvolto":5745,"Ġaspecten":5746,"sol":5747,"hr":5748,"Ġph":5749,"Ġleidde":5750,"Ġprogram":5751,"TUUR":5752,"Ġknobb":5753,"Ġadequ":5754,"oodsoorzaak":5755,"sil":5756,"Da":5757,"angi":5758,"Ġmatrix":5759,"Ġruimtelijke":5760,"regul":5761,"Ġverwijderen":5762,"54":5763,"cursus":5764,"ĠNormaal":5765,"ĠDop":5766,"male":5767,"Ġstikstof":5768,"methoden":5769,"negatieve":5770,"ĠAsp":5771,"ĠAS":5772,"Ġ34":5773,"Ġ81":5774,"plet":5775,"Ġobstructie":5776,"Ġsoms":5777,"mentatie":5778,"utine":5779,"ĠDrie":5780,"Ġgebruikte":5781,"Ġberekend":5782,"ĠSex":5783,"ĠPoliklin":5784,"Ġlate":5785,"ĠmicroM":5786,"Ġpromin":5787,"Ġneurologische":5788,"jun":5789,"hort":5790,"Ġbar":5791,"Ġdyspnoe":5792,"tests":5793,"agt":5794,"89":5795,"Ġrij":5796,"iol":5797,"jor":5798,"Ġaxiale":5799,"Ġhypertro":5800,"Ġcarcinoom":5801,"Ġvoorbere":5802,"Ġgenereren":5803,"Ġdubbele":5804,"lam":5805,"Ġconcluderen":5806,"nier":5807,"Ġschijn":5808,"ĠIm":5809,"Ġregressie":5810,"ĠPL":5811,"Ġprec":5812,"inal":5813,"ĠIMPRESSION":5814,"odium":5815,"tellect":5816,"deeltjes":5817,"Ġmedicijn":5818,"ĠstrategieÃ«n":5819,"Ġgenees":5820,"HD":5821,"Ġonderzoeks":5822,"Ġav":5823,"Ġeinde":5824,"ivers":5825,"Ġrat":5826,"Ġgeregistreerd":5827,"Ġnauwkeurigheid":5828,"ificeerd":5829,"atografie":5830,"Ġskelet":5831,"opy":5832,"ĠGlucose":5833,"interactie":5834,"Ġpolikliniek":5835,"Ġcross":5836,"agit":5837,"ART":5838,"Ġcruciaal":5839,"Ġindicatie":5840,"Ġ-(":5841,"52":5842,"kopp":5843,"78":5844,"Niet":5845,"51":5846,"Ġgeremd":5847,"Ġgemen":5848,"Ġslok":5849,"Ġbeschikbare":5850,"Ġemot":5851,"Ġkanaal":5852,"ĠPost":5853,"ĠMed":5854,"Ġlymfek":5855,"ieel":5856,"kundigen":5857,"Ġport":5858,"Ġintro":5859,"riÃ¨":5860,"Ġverstre":5861,"esitas":5862,"olesc":5863,"Ġdetail":5864,"ease":5865,"zoeken":5866,"Ġonderging":5867,"ĠFol":5868,"osomen":5869,"verlen":5870,"Ġpathologie":5871,"gedrag":5872,"Ġcur":5873,"olol":5874,"Ġ%,":5875,"Ġ\\":5876,"Ġmutatie":5877,"Ġnetwerk":5878,"68":5879,"soorten":5880,"ĠCr":5881,"ĠGeschiedenis":5882,"PCR":5883,"Ġzu":5884,"?:":5885,"Ġfosfat":5886,"Ġnec":5887,"poten":5888,"ĠOnt":5889,"Ġms":5890,"Ġproducten":5891,"Ġanalyseren":5892,"alth":5893,"Ġbreuken":5894,"tia":5895,"Ġlys":5896,"Ġgas":5897,"ket":5898,"ĠÎ¼":5899,"udenten":5900,"reep":5901,"MV":5902,"Ġofwel":5903,"Ġhoofdpijn":5904,"band":5905,"Ġmicrog":5906,"azep":5907,"Ġischemische":5908,"omstandigheden":5909,"microscopie":5910,"Ġtweemaal":5911,"Ġnauwkeurig":5912,"rot":5913,"geleide":5914,"Ġunieke":5915,")(":5916,"Ġchron":5917,"Ġgelijktijdige":5918,"Ġcardiovasculaire":5919,"onair":5920,"MER":5921,"Ġtoegevoe":5922,"Ġvaatziekten":5923,"icine":5924,"deels":5925,"muizen":5926,"Ġlumbale":5927,"64":5928,"Ġremmende":5929,"Ġmetoprolol":5930,"EV":5931,"Ġnamen":5932,"Ġfluorescentie":5933,"kere":5934,"Ġmenselijk":5935,"Ġprogressieve":5936,"Ġtal":5937,"ULTUUR":5938,"geassocieerde":5939,"Ġgesyn":5940,"gevoeligheid":5941,"ĠPar":5942,"Ġsterfte":5943,"zie":5944,"Ġverscheidenheid":5945,"for":5946,"tot":5947,"Ġinflammatoire":5948,"wikkeling":5949,"Ġherzien":5950,"Ġbodem":5951,"Ġdynamische":5952,"Ġgereguleerd":5953,"Ġmethyl":5954,"paratie":5955,"Ġ(**":5956,"72":5957,"Ġmcg":5958,"iner":5959,"Ġaanvankelijk":5960,"oelichting":5961,"egrip":5962,"ĠCond":5963,"groei":5964,"transp":5965,"ĠHep":5966,"Ġvloeib":5967,"ditie":5968,"ĠproteÃ¯ne":5969,"Ġindex":5970,"Ġaangeboren":5971,"HC":5972,"ĠIgG":5973,"Ġonvol":5974,"ĠQRS":5975,"Ġmediastinum":5976,"Ġgezichts":5977,"Ġ400":5978,"ope":5979,"Ġzie":5980,"oemd":5981,"Ġkoolstof":5982,"Ġspecificiteit":5983,"Ġverbinding":5984,"genase":5985,"illine":5986,"Ġkrans":5987,"Hypertensie":5988,"Ġdubbel":5989,"Ġrecon":5990,"ĠIF":5991,"Ġcardioloog":5992,"Ġverlaagd":5993,"Ġvoordat":5994,"Ġgeboorte":5995,"ĠControle":5996,"Ġide":5997,"ĠÎ²":5998,"DR":5999,"ofen":6000,"Ġmotorische":6001,"Ġbuurt":6002,"Ġ300":6003,"bÃ¨ta":6004,"Ġeier":6005,"gezondheid":6006,"Ġoverwegen":6007,"oley":6008,"Ġgolf":6009,"lox":6010,"roscopie":6011,"Ġpen":6012,"ĠgeÃ¯soleerde":6013,"doeld":6014,"sproces":6015,"Ġnierfunctie":6016,"ME":6017,"Ġverhoogt":6018,"breng":6019,"Ġuiteindelijk":6020,"Ġemp":6021,"index":6022,"Ġantist":6023,"Ġorgan":6024,"dimensionale":6025,"fosfaat":6026,"Ġminimaal":6027,"iende":6028,"Ġelektrische":6029,"eds":6030,"Ġtermin":6031,"istratie":6032,"urosemide":6033,"ĠCOPD":6034,"familie":6035,"ĠAange":6036,"naire":6037,"umenten":6038,"etica":6039,"NAL":6040,"onische":6041,"Ġrun":6042,"otrop":6043,"Ġhecht":6044,"Ġsamenstelling":6045,"iene":6046,"83":6047,"otalol":6048,"59":6049,"Ġsuccesvolle":6050,"Ġspre":6051,"Ġgekoppeld":6052,"Ġactiver":6053,"ĠIllness":6054,"Ġroutine":6055,"Ġpan":6056,"Ġinstr":6057,"kenis":6058,"ĠpatiÃ«nte":6059,"Ġnano":6060,"Ġwerkgroep":6061,"orrel":6062,"Ġoverwogen":6063,"Ġspontane":6064,"ippoc":6065,"Ġpeptiden":6066,"Ġopeen":6067,"thorax":6068,"Ġsoc":6069,"ĠVerschillende":6070,"ĠPatient":6071,"ĠPTT":6072,"Ġoef":6073,"Ġerv":6074,"Daily":6075,"itude":6076,"Ġmarkers":6077,"ontre":6078,"Ġbereid":6079,"orbiditeit":6080,"scheiding":6081,"cter":6082,"Ġorganische":6083,"ĠmM":6084,"leuk":6085,"ĠSamen":6086,"gend":6087,"ulus":6088,"RD":6089,"Ġje":6090,"fib":6091,"Ġgegenereerd":6092,"cement":6093,"Ġaspect":6094,"ocardiocardi":6095,"activeerd":6096,"schat":6097,"ĠALT":6098,"Ġuitsluit":6099,"Ġslokdarm":6100,"lak":6101,"reum":6102,"halam":6103,"dichtheid":6104,"arde":6105,"Ġafkomstig":6106,"Ġvaker":6107,"Ġstatistisch":6108,"metingen":6109,"Ġroken":6110,"wegings":6111,"Ġregionale":6112,"inder":6113,"Ġleren":6114,"Ġverla":6115,"ĠrÃ¶ntgen":6116,"Ġmicrogram":6117,"acc":6118,"Ġgemedieerd":6119,"Ġdood":6120,"ĠBorst":6121,"tendeels":6122,"Ġsignalen":6123,"Ġnoch":6124,"Ġdors":6125,"Ġkwantific":6126,"Ġauteurs":6127,"inn":6128,"ĠRelease":6129,"Ġwonden":6130,"isico":6131,"versiteit":6132,"ally":6133,"ĠPG":6134,"katheter":6135,"Ġligt":6136,"Ġein":6137,"rempel":6138,"Ac":6139,"ippocamp":6140,"Ġduizel":6141,"volume":6142,"Ġverhouding":6143,"riet":6144,"NUM":6145,"lank":6146,"ĠKlinische":6147,"Ġvervangen":6148,"lap":6149,"Ġmelden":6150,"Ġposterior":6151,"Ġchirurgie":6152,"Ġbehoefte":6153,"ĠPatiÃ«nten":6154,"Ġbedoeld":6155,"Ġvoorkomt":6156,"Ġvermindert":6157,"Ġfer":6158,"ĠVraag":6159,"zende":6160,"ĠCC":6161,"Echo":6162,"lulair":6163,"Ġpy":6164,"Ġcriteria":6165,"imuleerde":6166,"Ġhome":6167,"effusie":6168,"Ġvoeren":6169,"Ġverschijn":6170,"Ġbetreft":6171,"Ġlat":6172,"ohist":6173,"Ġconsolidatie":6174,"Ġaltijd":6175,"rogeen":6176,"chocardi":6177,"Ġresistentie":6178,"Ġmodi":6179,"gemiddel":6180,"ĠCardiale":6181,"mid":6182,"Ġkrachtige":6183,"rift":6184,"hand":6185,"Ġbetekenis":6186,"74":6187,"81":6188,"ruim":6189,"Ġlead":6190,"Ġaccumulatie":6191,"Ġbeschrijft":6192,"lingen":6193,"Ġteam":6194,"Ġprogramma":6195,"werkt":6196,"Ġstimuli":6197,"ADS":6198,"Ġlid":6199,"rig":6200,"best":6201,"Ġroutes":6202,"Ġkomst":6203,"YP":6204,"Ġventil":6205,"ian":6206,"vaardig":6207,"Ġvag":6208,"Ġberoerte":6209,"Ġhumaan":6210,"Ġdaaropvolgende":6211,"Ġverwacht":6212,"ĠOndanks":6213,"ditionele":6214,"Ġ140":6215,"upp":6216,"dilat":6217,"acing":6218,"odynamische":6219,"Ġgedilateerde":6220,"eus":6221,"Toelichting":6222,"eline":6223,"Ġgepublic":6224,"Ġmeting":6225,"oide":6226,"Ġdient":6227,"aking":6228,"Ġhonden":6229,"Ġrelaties":6230,"ister":6231,"66":6232,"Ġfrontale":6233,"sz":6234,"Ġstre":6235,"ifest":6236,"procedure":6237,"ogingen":6238,"Ġ//":6239,"Ġschedel":6240,"Ġcalc":6241,"Ġgebonden":6242,"Ġasse":6243,"itoneale":6244,"ĠPert":6245,"hersen":6246,"Ġerop":6247,"ĠPV":6248,"Ġdaarna":6249,"Ġpatronen":6250,"vrouw":6251,"Ġhormoon":6252,"rat":6253,"hop":6254,"Ġuitste":6255,"Ġprocedures":6256,"olec":6257,"aorta":6258,"Ġ72":6259,"isu":6260,"Ġir":6261,"Ġabdominale":6262,"iva":6263,"uleert":6264,"Ġgrotendeels":6265,"Ġresolutie":6266,"fort":6267,"appar":6268,"Ġcontrolegroep":6269,"Ġgemiddeld":6270,"selen":6271,"ateriaal":6272,"NUMMER":6273,"Ġziek":6274,"cludeerd":6275,"ĠmiR":6276,"UT":6277,"sed":6278,"medic":6279,"splantaat":6280,"Ġpseud":6281,"Ġmellitus":6282,"Ġbevolking":6283,"Ġkortademigheid":6284,"analyses":6285,"Ġleukemie":6286,"Ġopac":6287,"eringen":6288,"Ġtel":6289,"Ġgelok":6290,"lekt":6291,"olyse":6292,"Ġstoppen":6293,"etiek":6294,"Ġvergroot":6295,"gamma":6296,"Ġradio":6297,"ekt":6298,"RT":6299,"Ġtrop":6300,"Ġkwaadaardige":6301,"nee":6302,"ĠHCT":6303,"Ġtren":6304,"ĠNC":6305,"Ġmolecuul":6306,"ysiologie":6307,"Ġinname":6308,"Ġplast":6309,"Ġpacemaker":6310,".|":6311,"Ġtelef":6312,"Ġfractie":6313,"Ġinbegrip":6314,"ities":6315,"IA":6316,"Ġwie":6317,"Ġbegonnen":6318,"ICU":6319,"ĠTH":6320,"ĠBS":6321,"Ġ01":6322,"Ca":6323,"elingen":6324,"Ġontvangen":6325,"Ġonderdeel":6326,"ributie":6327,"IG":6328,"Ġverspreiding":6329,"dron":6330,"icusp":6331,"metabolisme":6332,"wonden":6333,"Ġinterpret":6334,"des":6335,"punten":6336,"Ġmetaal":6337,"schade":6338,"RV":6339,"ĠDaarnaast":6340,"Ġbru":6341,"anningen":6342,"82":6343,"Ġbegele":6344,"Ġvele":6345,"ĠDoppler":6346,"Ġrh":6347,"62":6348,"ĠBleood":6349,"Ġkinase":6350,"oriÃ«n":6351,"Ġorgaan":6352,"Ġmorfologie":6353,"Ġ130":6354,"Ġonc":6355,"polym":6356,"ĠPertin":6357,"adiging":6358,"Pattern":6359,"genoemde":6360,"Ġdaling":6361,"Ġfract":6362,"ton":6363,"Ġ###;":6364,"Ġeffectiviteit":6365,"belasting":6366,"čč":6367,"waarschijnlijk":6368,"Ġafdeling":6369,"Ġetiologie":6370,"Ġem":6371,"stige":6372,"Ġrichten":6373,"okin":6374,"VAL":6375,"Ġintermedi":6376,"Ġbepaling":6377,"singen":6378,"Ġbijvoorbeeld":6379,"mechanisme":6380,"Ġdecomp":6381,"Ġfenot":6382,"Ġgesynthet":6383,"Ġultra":6384,"Ġartsen":6385,"ucces":6386,"79":6387,"Ġresonantie":6388,"lengte":6389,"Ġligand":6390,"remmer":6391,"schaal":6392,"ugger":6393,"Ġonthulden":6394,"Sinus":6395,"Ġfund":6396,"Ġthorax":6397,"yrosine":6398,"Ġgedeel":6399,"Ġfocus":6400,"Ġsequenties":6401,"tratie":6402,"outen":6403,"Ġdig":6404,"Ġgenoemd":6405,"Ġsl":6406,"Ġhernia":6407,"standen":6408,"validatie":6409,"Ġdisfunctie":6410,"abetische":6411,"Ġsplit":6412,"fficiÃ«n":6413,"blaas":6414,"Ġextrem":6415,"Ġzwelling":6416,"blast":6417,"omatisch":6418,"odific":6419,"Ġpresenteert":6420,"ĠHS":6421,"Ġ42":6422,"Ġslijm":6423,"Ġgedeeltelijke":6424,"Ġplant":6425,"ingle":6426,"oside":6427,"xe":6428,"ocytose":6429,"Ġionen":6430,"ĠQT":6431,"pan":6432,"reden":6433,"ĠPS":6434,"Ġrespon":6435,"ĠMild":6436,"ca":6437,"Ġcav":6438,"ĠGoede":6439,"chirurg":6440,"Ġuitgang":6441,"overdracht":6442,"Ġgranul":6443,"Ġreductie":6444,"Ġfys":6445,"Ġcomplexen":6446,"remmers":6447,"Â°":6448,"Ġkwam":6449,"Ġinterventies":6450,"Ġstrategie":6451,"Ġcortic":6452,"ĠIs":6453,"abiele":6454,"Ġverklaren":6455,"olisch":6456,"ĠProduct":6457,"geh":6458,"Ġmeth":6459,"ationale":6460,"ECT":6461,"ylase":6462,"ĠHCO":6463,"ĠInf":6464,"ĠAlert":6465,"reacties":6466,"ohistoch":6467,"olin":6468,"lipidemie":6469,"bar":6470,"63":6471,"Ġpolymorf":6472,"Ġeierst":6473,"bal":6474,"spercentage":6475,"Ġbent":6476,"ĠCOVID":6477,"Ġerytro":6478,"Ġalternatieve":6479,"Ġhulpmiddel":6480,"Ġmetabolisme":6481,"ĠTNF":6482,"xtra":6483,"Ġselect":6484,"ĠSe":6485,"Ġgeleiding":6486,"pland":6487,"69":6488,"Ġpoli":6489,"ĠID":6490,"zem":6491,"Ġtoler":6492,"Ġzenuwstelsel":6493,"Ġsteekproef":6494,"Ġhippocamp":6495,"Ġremde":6496,"Ġnoodzaak":6497,"ieven":6498,"Ġgradi":6499,"GS":6500,"Ġdocument":6501,"eller":6502,"perimenten":6503,"iem":6504,"Ġenter":6505,"ĠDoodsoorzaak":6506,"Â±":6507,"verwij":6508,"stellen":6509,"ĠPIC":6510,"Ġhypotensie":6511,"sequenties":6512,"Ġcultuur":6513,"Ġouders":6514,"Ġcollageen":6515,"Ġtransplantatie":6516,"irg":6517,"ĠCAR":6518,"Ġhalf":6519,"ĠRDWSD":6520,"Ġgamma":6521,"Ġontbre":6522,"Ġverdo":6523,"ontwikkeling":6524,"Ġevolutie":6525,"Ġlas":6526,"ABS":6527,"achten":6528,"Ġdiarree":6529,"Ġfeit":6530,"verhouding":6531,"YS":6532,"Ġlum":6533,"osteron":6534,"ĠAg":6535,"hydrox":6536,"Ġgevisu":6537,"ament":6538,"osoom":6539,"staande":6540,"spectieve":6541,"Ġaanbevelingen":6542,"Ġadolesc":6543,"Ġthis":6544,"Ġmaterialen":6545,"gevoelige":6546,"apt":6547,"iaties":6548,"ĠCol":6549,"aline":6550,"Ġrode":6551,"Ġinzicht":6552,"Ġplot":6553,"sterkte":6554,"cy":6555,"iO":6556,"Na":6557,"Ġgewijzigd":6558,"--":6559,"ypt":6560,"ochte":6561,"Ġpathogenese":6562,"merken":6563,"BV":6564,"ĠEuro":6565,"lood":6566,"Ġgestopt":6567,"Ġwijzig":6568,"omografie":6569,"lering":6570,"Ġrapporte":6571,"ĠÃ":6572,"ĠAangezien":6573,"leven":6574,"Ġbetrouwbaarheid":6575,"Ġbevest":6576,"Ġeviden":6577,"Ġreal":6578,"LR":6579,"itamine":6580,"Ġosse":6581,"Ġlipiden":6582,"ĠDP":6583,"Ġbeginnen":6584,"richten":6585,"veren":6586,"intig":6587,"lact":6588,"ĠLA":6589,"neur":6590,"Ġmedium":6591,"mblage":6592,"utum":6593,"Ġallel":6594,"'d":6595,"Ġverleden":6596,"ĠCA":6597,"Ġlanger":6598,"Ġpericardiale":6599,"ĠBi":6600,"Ġeenheid":6601,"Ġastma":6602,"ivaten":6603,"ĠReden":6604,"Ġeryt":6605,"hen":6606,"Ġcodeert":6607,"AMP":6608,"olieten":6609,"ĠMV":6610,"Ġorganen":6611,"ĠSinds":6612,"Ġbesl":6613,"zijds":6614,"71":6615,"com":6616,"trek":6617,"ĠDVT":6618,"Ġlymfocyten":6619,"fielen":6620,"Ġrichtlijnen":6621,"anyl":6622,"ĠDif":6623,"Ġstudenten":6624,"Ġanest":6625,"Ġvertegenwoordigt":6626,"Ġkristal":6627,"ĠDR":6628,"ĠBel":6629,"responsen":6630,"Ġcollega":6631,"aspect":6632,"ris":6633,"onaat":6634,"Ġfusie":6635,"anine":6636,"ĠKleine":6637,"Ã«fficiÃ«n":6638,"chi":6639,"ĠHTX":6640,"irale":6641,"ĠSom":6642,"adr":6643,"Ġglob":6644,"Ġ41":6645,"ĠDel":6646,"ĠTTE":6647,"Ġspieren":6648,"stellingen":6649,"Ġisolaten":6650,"Ġvoe":6651,"ĠNee":6652,"nea":6653,"ĠGR":6654,"ĠBeide":6655,"Ġdoelen":6656,"quente":6657,"eden":6658,"Ġdienen":6659,"Ġgesugger":6660,"Ġregelmatig":6661,"igde":6662,"Cardi":6663,"Ġbloeden":6664,"NS":6665,"Ġcl":6666,"Ġonafhankelijke":6667,"vezel":6668,"oppingen":6669,"heren":6670,"vormen":6671,"Ġmacrofagen":6672,"Ġstro":6673,"Ġscha":6674,"ware":6675,"Ġgemet":6676,"Ġbpm":6677,"Ġbal":6678,"Ġverbetert":6679,"Ġervaring":6680,"Ġlocaties":6681,"Ġvarie":6682,"transcri":6683,"ĠInvasive":6684,"brid":6685,"keerde":6686,"Ġgesuggereerd":6687,"ĠEX":6688,"steun":6689,"TELE":6690,"ĠMy":6691,"emp":6692,"programma":6693,"Ġhepatitis":6694,"Ġfoto":6695,"ofag":6696,"Ġdrin":6697,"Ġ110":6698,"bas":6699,"Ġimplement":6700,"ĠFollow":6701,"Ġzwaar":6702,"ĠAbdomen":6703,"ĠMajor":6704,"olytische":6705,"plitude":6706,"gevallen":6707,"vloeistof":6708,"culturen":6709,"dust":6710,"Ġgeschikte":6711,"venen":6712,"GR":6713,"Ġhigh":6714,"Ġoperatieve":6715,"orden":6716,"arte":6717,"Ġallemaal":6718,"tast":6719,"Ġsm":6720,"ĠMole":6721,"ontste":6722,"Ġnit":6723,"Ġondergingen":6724,"FOON":6725,"ĠÎ±":6726,"invas":6727,"ĠCTDI":6728,"ĠHF":6729,"Ġmening":6730,"ake":6731,"Ġbehoud":6732,"Ġmanifest":6733,"ocaÃ¯ne":6734,"Ġwaterstof":6735,"tocol":6736,"Ġgerandom":6737,"Ġovergebracht":6738,"Ġgo":6739,"Ġgu":6740,"Ã¯d":6741,"Ġtrombose":6742,"Ġinterfer":6743,"ĠChirg":6744,"ilar":6745,"Ġpsychiat":6746,"irine":6747,"Ġuitdaging":6748,"FOONNUMMER":6749,"TELEFOONNUMMER":6750,"ĠKlin":6751,"roep":6752,"ĠNederlandse":6753,"Ġcardiologie":6754,"acil":6755,"Ġgekregen":6756,"Ġgroeifactor":6757,"Ġvarkens":6758,"ĠAST":6759,"Ġkandid":6760,"Ġobesitas":6761,"Ġheparine":6762,"port":6763,"ethyl":6764,"abd":6765,"riene":6766,"Ġect":6767,"hyleen":6768,"Ġoverleg":6769,"GA":6770,"ĠCULTUUR":6771,"osyl":6772,"orph":6773,"Ġvader":6774,"Ġving":6775,"ithel":6776,"Ġafgenomen":6777,"STELL":6778,"Ġluchtweg":6779,"Ġsuperie":6780,"ionen":6781,"lijf":6782,"icum":6783,"gressie":6784,"Ġverdeeld":6785,"entiÃ«le":6786,"Ġovar":6787,"nummer":6788,"Ġtrauma":6789,"rige":6790,"derheid":6791,"igne":6792,"ureel":6793,"Ġshock":6794,"eenheden":6795,"Ġweerstand":6796,"scopische":6797,"ologe":6798,"bijvoorbeeld":6799,"Ġcan":6800,"patroon":6801,"nstige":6802,"Ġantic":6803,"horende":6804,"STELLING":6805,"VERKLAR":6806,"Ġdown":6807,"MRI":6808,"schappelijk":6809,"ĠHENT":6810,"Ġader":6811,"Ġhoogst":6812,"Ġmeng":6813,"ĠCL":6814,"press":6815,"ĠSoc":6816,"Ġkarakteriseren":6817,"net":6818,"oire":6819,"kwaliteit":6820,"ĠUitslag":6821,"ĠPhos":6822,"ofil":6823,"Ġcarcin":6824,"Ġgerichte":6825,"letsel":6826,"Ġdikke":6827,"ĠHD":6828,"Ġ@":6829,"ĠCreat":6830,"Ġdiffuus":6831,"holte":6832,"voeding":6833,"Ġ85":6834,"ĠCTDIvol":6835,"Ġright":6836,"ercul":6837,"cluderend":6838,"pul":6839,"ĠNS":6840,"Ġdiastolische":6841,"mate":6842,"medicatie":6843,"Ġbevestigen":6844,"ĠZowel":6845,"Ġlanden":6846,"Ġbraken":6847,"Ġzon":6848,"Ġcollaps":6849,"Ġnooit":6850,"benader":6851,"Ġresterende":6852,"Ġfrom":6853,"ificaties":6854,"ĠIVF":6855,"verw":6856,"ypisch":6857,"Ġimplicaties":6858,"ĠStud":6859,"ĠPI":6860,"Ġjong":6861,"Ġhard":6862,"Ġhypo":6863,"ĠPAC":6864,"allon":6865,"merikaanse":6866,"iodar":6867,"Ġ[**":6868,"Ġonmiddellijk":6869,"Ġdiepe":6870,"ber":6871,"Ġsporen":6872,"ĠActie":6873,"Ġverbonden":6874,"Ġoctrooi":6875,"ĠWat":6876,"behandelde":6877,"west":6878,"Ġtoegevoegd":6879,"Ġreageren":6880,"alium":6881,"kloppingen":6882,"ĠLDL":6883,"ĠABG":6884,"cultuur":6885,"Ġnadat":6886,"adren":6887,"Ġ39":6888,"Ġreferentie":6889,"Ġdroog":6890,"lyse":6891,"61":6892,"iae":6893,"iveaus":6894,"Ġzodat":6895,"omyc":6896,"Ġlongoedeem":6897,"Ġgeselecteerde":6898,"ĠExam":6899,"Ġbenen":6900,"Ġgedrags":6901,"polarisatie":6902,"Ġvariabelen":6903,"alpha":6904,"rest":6905,"ĠCS":6906,"achtig":6907,"EGEGEGEG":6908,"Ġcare":6909,"loot":6910,"bl":6911,"Ġfosforylering":6912,"Ġgekweekt":6913,"Ġtumorcellen":6914,"Ġsulf":6915,"roken":6916,"defect":6917,"Ġcardiomyopathie":6918,"ĠFamilie":6919,"sproblemen":6920,"heen":6921,"Ġvormt":6922,"Ġelementen":6923,"Ġtube":6924,"spec":6925,"Ġplacebo":6926,"doel":6927,"istoffen":6928,"Ġpolyp":6929,"Ġisolatie":6930,"Ġplaatsv":6931,"Radi":6932,"ĠBM":6933,"moleculen":6934,"Ġfra":6935,"ĠbeÃ¯nvloedt":6936,"Ġtheorie":6937,"ilis":6938,"ĠTele":6939,"PCI":6940,"Ġtraining":6941,"ĠRF":6942,"ĠPolikliniek":6943,"Ġmigratie":6944,"oken":6945,"ĠefficiÃ«nte":6946,"ĠLabs":6947,"Ġfunctioneren":6948,"jecten":6949,"Ġopgelost":6950,"Ġgecombineerde":6951,"but":6952,"arg":6953,"ĠTrans":6954,"ĠConcluderend":6955,"Ġocclusie":6956,"ĠNEUR":6957,"Ġincisie":6958,"Ġâ":6959,"product":6960,"trokken":6961,"eck":6962,"DE":6963,"rial":6964,"ococcus":6965,"Ġlevensvat":6966,"ĠResultaten":6967,"Ġonderzochte":6968,"ping":6969,"ĠHol":6970,"ids":6971,"compliceerd":6972,"Ġoorzaken":6973,"Ġbijdrage":6974,"Ġchlor":6975,"oxic":6976,"Ġwaarnem":6977,"Ġfenotype":6978,"ylaxe":6979,"Ġdw":6980,"HO":6981,"hoek":6982,"Ġvlak":6983,"Ġgecontroleerde":6984,"Ġovergedragen":6985,"Ġdragen":6986,"seff":6987,"Ġinferieure":6988,"Ġtheor":6989,"reerde":6990,"ICD":6991,"urine":6992,"cubatie":6993,"laden":6994,"Ġwaarmee":6995,"Ġbiochemische":6996,"Ġkunst":6997,"Ġplaatsing":6998,"Ġbenadrukt":6999,"ĠImmun":7000,"ĠZie":7001,"Ġstaan":7002,"Ġantim":7003,"Ġplus":7004,"Ġscala":7005,"dipine":7006,"spier":7007,"diagnose":7008,"INSTELLING":7009,"ĠSer":7010,"Ġgeactiveerd":7011,"ivity":7012,"Ġendogene":7013,"ĠTra":7014,"ongem":7015,"ĠNieuw":7016,"Ġradic":7017,"diat":7018,"ĠSV":7019,"Ġagressie":7020,"otomie":7021,"Ġgrondslag":7022,"ontsteking":7023,"Ġsagit":7024,"Ġleg":7025,"Ġintensiteit":7026,"Ġmelk":7027,"inc":7028,"Ġsynthetische":7029,"ĠintracraniÃ«le":7030,"ĠToe":7031,"idase":7032,"Ġgram":7033,"Ġvond":7034,"ĠčĊ":7035,"hyre":7036,"ise":7037,"pletie":7038,"Ġhelft":7039,"melding":7040,"Ġepisodes":7041,"Ġdiffuse":7042,"ĠIFN":7043,"ats":7044,"Ġremt":7045,"Ġperi":7046,"Ġeth":7047,"Ġbeneden":7048,"ĠRep":7049,"signalering":7050,"olesterole":7051,"entiel":7052,"ĠâĢĺ":7053,"Ġstrom":7054,"Ġafbeeld":7055,"straling":7056,"Ġcruciale":7057,"Ġorde":7058,"ĠNP":7059,"glut":7060,"names":7061,"wort":7062,"onisch":7063,"auw":7064,"Ġasympt":7065,"orele":7066,"Ġascites":7067,"Ġpain":7068,"kenmerken":7069,"Ġ~":7070,"Ġregulering":7071,"Ġmorfologische":7072,"Ġbijbe":7073,"Ġfoetale":7074,"Ġil":7075,"Ġervaren":7076,"peratie":7077,"Ġluchtwegen":7078,"digd":7079,"Ġnauwkeurige":7080,"Ġclin":7081,"Ġindividuen":7082,"vaccin":7083,"Ġruggenmerg":7084,"ĠGL":7085,"Ġinduceren":7086,"Ġaangetroffen":7087,"Ġverdachte":7088,"Ġbegrepen":7089,"sorb":7090,"off":7091,"Ġdraag":7092,"opol":7093,"Ġvitale":7094,"ses":7095,"arin":7096,"ĠUV":7097,"Ġtw":7098,"ounds":7099,"ĠOnge":7100,"afgifte":7101,"Ġby":7102,"2015":7103,"Ġmarker":7104,"Ġtaak":7105,"ratten":7106,"ORT":7107,"Ġmentale":7108,"Ġ[]":7109,"ĠNH":7110,"Ġmyocardinfarct":7111,"Ġevenwicht":7112,"ized":7113,"Ġdoelwit":7114,"osin":7115,"gering":7116,"ĠMT":7117,"flutter":7118,"eeee":7119,"Ġhou":7120,"Ġafw":7121,"Ġbeoordeel":7122,"ason":7123,"Ġrechterkant":7124,"Ġgevoelige":7125,"Ġ44":7126,"Ġendomet":7127,"face":7128,"Ġvloeibare":7129,"Ġred":7130,"ĠBas":7131,"ai":7132,"Ġtechnologie":7133,"Ġgete":7134,"Ġdrug":7135,"icot":7136,"ental":7137,"Ġasymmet":7138,"____":7139,"team":7140,"Ġaantoon":7141,"produc":7142,"Ġverhoging":7143,"goritme":7144,"Ġbindt":7145,"Ġ43":7146,"Ġcerebrale":7147,"LD":7148,"Ġgeneeskunde":7149,"210":7150,"Ġspinale":7151,"Ġent":7152,"Ġbeschikbaarheid":7153,"kru":7154,"Ġ64":7155,"transferase":7156,"Ġkaliber":7157,"ĠEcho":7158,"Ġwortel":7159,"insufficiÃ«ntie":7160,"radioloog":7161,"Ġmitralisklep":7162,"Ġcapaciteit":7163,"Ġzuiver":7164,"Ġvermoeid":7165,"fact":7166,"An":7167,"Ġopeenvolgende":7168,"Ġuiterlijk":7169,"ĠIndicatie":7170,"Ġdegenen":7171,"Cardiale":7172,"ĠefficiÃ«ntie":7173,"umente":7174,"rectie":7175,"dist":7176,"Ġvergemakkelijken":7177,"dent":7178,"Ġvervanging":7179,"atter":7180,"Ġmediale":7181,"ĠRT":7182,"chron":7183,"ĠChirgical":7184,"IST":7185,"Ġbijbehorende":7186,"Ġverricht":7187,"Ġheup":7188,"interval":7189,"ther":7190,"frag":7191,"Ġratio":7192,"Ġartikelen":7193,"long":7194,"Ġproximaal":7195,"Ġatriale":7196,"Ġwilde":7197,"assay":7198,"Ġintacte":7199,"cal":7200,"gehele":7201,"Ġremmer":7202,"ĠHeeft":7203,"straten":7204,"Ġcytos":7205,"Ġaangepast":7206,"Ġtherm":7207,"itaties":7208,"Ġ52":7209,"ices":7210,"Ġkaart":7211,"inname":7212,"tender":7213,"sn":7214,"Ġwegens":7215,"ĠHA":7216,"omegalie":7217,"ĠRRR":7218,"oss":7219,"Ġgerapporteerd":7220,"Ġrood":7221,"Ġabsorptie":7222,"Ġcolor":7223,"enzym":7224,"cholesterole":7225,"LAD":7226,"Ġ46":7227,"ĠDisc":7228,"Ġbelasting":7229,"eeftijd":7230,"mus":7231,"Ġaminozuren":7232,"activiteiten":7233,"oplastische":7234,"ria":7235,"Ġvoorbij":7236,"ymph":7237,"OX":7238,"hyp":7239,"rometrie":7240,"cyten":7241,"oorden":7242,"ĠEp":7243,"Ġstadia":7244,"verdeling":7245,"vanc":7246,"dier":7247,"Ġleden":7248,"Ġsur":7249,"periode":7250,"Ġgeleidelijk":7251,"ĠLVF":7252,"spat":7253,"oli":7254,"ippen":7255,"klieren":7256,"ĠNot":7257,"ĠVanwege":7258,"Ġontkent":7259,"NM":7260,"Ġtrache":7261,"Ġsecretie":7262,"Ġdialyse":7263,"quencing":7264,"elfunctie":7265,"Ġschatten":7266,"ĠECV":7267,"Ġtib":7268,"Ġwerkt":7269,"Ġaangren":7270,"wisseling":7271,"Ġcyclo":7272,"houet":7273,"ĠMeerdere":7274,"Ġhartkloppingen":7275,"vermogen":7276,"Ġresectie":7277,"ĠLC":7278,"Ġhetero":7279,"osomale":7280,"Ġverschuiving":7281,"membraan":7282,"Ġmedisch":7283,"onderzoeken":7284,"Ġonvoldoende":7285,"tent":7286,"inese":7287,"Ġcordis":7288,"acu":7289,"ĠSBP":7290,"Ġtekort":7291,"ineerd":7292,"Ġorganismen":7293,"va":7294,"openie":7295,"chloride":7296,"odone":7297,"weeg":7298,"component":7299,"hes":7300,"ogeniteit":7301,"ĠessentiÃ«le":7302,"loxacine":7303,"ank":7304,"Ġtit":7305,"okl":7306,"Ġtrac":7307,"reren":7308,"Ġversterkt":7309,"ĠgeÃ¯nfecteerde":7310,"Ġhoor":7311,"structieve":7312,"Ġonregel":7313,"ostase":7314,"Ġvul":7315,"gluc":7316,"Ġvoortgezet":7317,"Ġ2016":7318,"agonisten":7319,"Ġgewichts":7320,"ĠOF":7321,"Ġwaarop":7322,"Ġgenoe":7323,"Ġband":7324,"Ġelektrof":7325,"Ġgelijktijdig":7326,"riÃ«n":7327,"Ġsinusritme":7328,"ijken":7329,"abase":7330,"hom":7331,"doen":7332,"secret":7333,"ologen":7334,"Ġtab":7335,"sne":7336,"Ġwijze":7337,"ectieve":7338,"Ġzware":7339,"iere":7340,"Ġtar":7341,"Ġeenvoudig":7342,"Ġinvasieve":7343,"ĠtherapieÃ«n":7344,"nale":7345,"Ġvermeld":7346,"ĠSEH":7347,"BB":7348,"bride":7349,"oepen":7350,"genitale":7351,"Ġtoegeschreven":7352,"2016":7353,"Ġmesenter":7354,"ĠRespir":7355,"Ġgedeelte":7356,"Ġontwikkelden":7357,"Ġthym":7358,"ĠBehandeling":7359,"ĠNEURO":7360,"atiente":7361,"Ġgedetail":7362,"ĠgeÃ¯nject":7363,"heemse":7364,"edt":7365,"vulling":7366,"Ġ56":7367,"hoe":7368,"ongemb":7369,"ĠVergeleken":7370,"horm":7371,"immuun":7372,"ĠHealth":7373,"enteel":7374,"itect":7375,"ĠQuestionnaire":7376,"loos":7377,"amaat":7378,"Ġpericard":7379,"ĠTAB":7380,"Ġversle":7381,"cholesterolemie":7382,"nown":7383,"Geachte":7384,"Ġongew":7385,"afrag":7386,"ypass":7387,"time":7388,"Ġhaal":7389,"percentage":7390,"Ġgesynthetiseerd":7391,"Ar":7392,"proliferatie":7393,"Ġ(())":7394,"Ġverschillend":7395,"Ġresiduen":7396,"Ġanatomische":7397,"ĠOS":7398,"Ġinstelling":7399,"ertijd":7400,"Ġgemengde":7401,"Diabetes":7402,"ĠAcid":7403,"Ph":7404,"Ġgelab":7405,"Ġmaatregelen":7406,"ĠPRN":7407,"emmer":7408,"ci":7409,"osynthese":7410,"undel":7411,"techniek":7412,"igende":7413,"extra":7414,"szins":7415,"Ġclassificatie":7416,"Ġgekarakter":7417,"diging":7418,"ĠVergelijk":7419,"Ġrelevant":7420,"Ġspin":7421,"differ":7422,"Ġbrand":7423,"oÃ¯d":7424,"arynx":7425,"Ġintraveneus":7426,"oeder":7427,"iguur":7428,"apen":7429,"ceptie":7430,"Ġlitte":7431,"ugh":7432,"ays":7433,"quis":7434,"othe":7435,"kkige":7436,"Ġafgeleide":7437,"Ġreeds":7438,"antilichamen":7439,"Ġheden":7440,"NamePattern":7441,"Ġomgevings":7442,"ĠEvalu":7443,"Ġvoordeel":7444,"Ġmeerderheid":7445,"tumor":7446,"ĠSyst":7447,"Ġverwerking":7448,"ocon":7449,"Ġsoep":7450,"oblast":7451,"Gap":7452,"grade":7453,"iraal":7454,"Ġculturen":7455,"En":7456,"zichten":7457,"fs":7458,"xine":7459,"Ġfeed":7460,"ĠComments":7461,"Ġmethod":7462,"Ġkliniek":7463,"ĠMatige":7464,"Ġcommunicatie":7465,"Ġmorbiditeit":7466,"Ġadvies":7467,"ficatie":7468,"Ġtraditionele":7469,"complexen":7470,"Ġstimuleren":7471,"mitt":7472,"Ġantioxid":7473,"Ġafzonderlijke":7474,"VIS":7475,"Ġatherosclerose":7476,"Ġpromotor":7477,"IND":7478,"iculair":7479,"Ġepide":7480,"Ġverrijk":7481,"dikte":7482,"iratoire":7483,"ended":7484,"pel":7485,"ĠToen":7486,"ĠBrief":7487,"ĠinitiÃ«le":7488,"paste":7489,"Ġmetalen":7490,"ulose":7491,"aandoen":7492,"Ġreactieve":7493,"Ġnat":7494,"CON":7495,"umoren":7496,"ticul":7497,"metast":7498,"Ġethanol":7499,"Ġstraling":7500,"Ġverspreid":7501,"populatie":7502,"Ġovert":7503,"Ġcapsule":7504,"Ġlozing":7505,"Ġuitdagingen":7506,"Ġkatalyse":7507,"Ġbezorg":7508,"Ġfunctioneel":7509,"dela":7510,"Ġscreen":7511,"Ġ125":7512,"ROM":7513,"ĠRC":7514,"Ġmediane":7515,"Ġaangrenzende":7516,"Ġbenadrukken":7517,"Ġechografie":7518,"umat":7519,"eiz":7520,"vestig":7521,"Ġvezels":7522,"ivari":7523,"ĠDecursus":7524,"Ġcomplement":7525,"Ġbesliss":7526,"Ġgtt":7527,"Ġschu":7528,"uste":7529,"oth":7530,"blad":7531,"Ġdiversiteit":7532,"dehy":7533,"Eer":7534,"Ġhydron":7535,"Ġket":7536,"Ġvererg":7537,"denking":7538,"fluor":7539,"Ġlinkerventrikel":7540,"Ġmaligniteit":7541,"Ġkeuze":7542,"Ġeens":7543,"Ġbloedingen":7544,"Ġnegen":7545,"ĠAnalyse":7546,"Ġmonitoring":7547,"Ġbrede":7548,"otiden":7549,"2014":7550,"ook":7551,"Ġvertraagde":7552,"Ġaanvang":7553,"gave":7554,"Ġglad":7555,"breuk":7556,"Ġoptreedt":7557,"Ġmechan":7558,"Ġtricusp":7559,"ĠHb":7560,"Ġgezamen":7561,"Ġterugkerende":7562,"Ġelim":7563,"ormal":7564,"durende":7565,"Ġaspiratie":7566,"RE":7567,"mechanismen":7568,"ocarcinoom":7569,"omgeving":7570,"Ġuitzonder":7571,"Ġvooraf":7572,"omeren":7573,"itaire":7574,"vragen":7575,"ĠÂµ":7576,"idyl":7577,"raling":7578,"ION":7579,"ĠPK":7580,"Ad":7581,"can":7582,"ick":7583,"Ġ2015":7584,"atig":7585,"odel":7586,"const":7587,"ĠMAP":7588,"Ġziekenhuisopname":7589,"ĠAlk":7590,"Ġwereldwijde":7591,"Ġgemodific":7592,"Ġneon":7593,"Ġmorgen":7594,"stij":7595,"Ġveelbelovende":7596,"Ġcirc":7597,"Ġbescherming":7598,"signaal":7599,"anth":7600,"golf":7601,"Ġaanpassing":7602,"ĠGU":7603,"ĠMicro":7604,"Ġ47":7605,"Ġecon":7606,"Ġovereenkomstige":7607,"Ġgeworden":7608,"ĠLong":7609,"Ġgepland":7610,"Ġregulerende":7611,"Ġele":7612,"verandering":7613,"optim":7614,"Ġsystematische":7615,"ĠDer":7616,"ĠHospital":7617,"mber":7618,"Ġgestuurd":7619,"Ġong":7620,"stammen":7621,"ĠCON":7622,"Ġmast":7623,"Ġprednis":7624,"Ġneiging":7625,"ĠVerhoog":7626,"Ġ54":7627,"ransp":7628,"uL":7629,"Ġcohort":7630,"Ġalert":7631,"ĠHeart":7632,"Ġtoch":7633,"afwijking":7634,"Ġsingle":7635,"asse":7636,"ĠAng":7637,"gelijkertijd":7638,"Ġnm":7639,"ĠBI":7640,"Ġimmunos":7641,"Ġperifeer":7642,"Ġecht":7643,"stadi":7644,"ures":7645,"ĠEN":7646,"Ġlabs":7647,"Ant":7648,"fol":7649,"ronic":7650,"Ġtransmissie":7651,"iket":7652,"Ġlichaamsgewicht":7653,"Ġdistributie":7654,"Ġabces":7655,"ateerd":7656,"Ġopger":7657,"my":7658,"ocale":7659,"werpen":7660,"Ġontvang":7661,"ofren":7662,"urm":7663,"Ġdosering":7664,"Ġ58":7665,"ĠDC":7666,"Ġrobu":7667,"ssen":7668,"riÃ¨re":7669,"ichia":7670,"code":7671,"ĠMC":7672,"ften":7673,"Ġdrugs":7674,"Ġspeciale":7675,"Ġtien":7676,"bijv":7677,"rijgt":7678,"ĠAnGap":7679,"DP":7680,"aser":7681,"patronen":7682,"Ġnucleotide":7683,"Ġweerspiegel":7684,"cute":7685,"ĠCu":7686,"Ġlaser":7687,"Ġveren":7688,"Ġredelijke":7689,"Ġhoudt":7690,"Ġuitbreiding":7691,"itatief":7692,"benz":7693,"siek":7694,"mutatie":7695,"inflammatoire":7696,"Ġangiografie":7697,"Ġsclerose":7698,"Ġcomfort":7699,"ĠGene":7700,"iasis":7701,"verz":7702,"ĠExtre":7703,"Ġbul":7704,"biopsie":7705,"Ġcontractie":7706,"blasten":7707,"Ġparallel":7708,"Ġconstipatie":7709,"Ġintub":7710,"âĢ¯":7711,"Ġsed":7712,"ĠOK":7713,"section":7714,"illus":7715,"Ġgenot":7716,"part":7717,"Ġkransslagader":7718,"Ġblok":7719,"spieren":7720,"Ġarch":7721,"Ġsuccesvol":7722,"ja":7723,"Ġflexib":7724,"ĠTest":7725,"Ġ62":7726,"Ġoorspronkelijke":7727,"Ġ##%":7728,"eltjes":7729,"ĠRh":7730,"isin":7731,"Ġstier":7732,"ĠHyp":7733,"Ġdominante":7734,"KG":7735,"criteria":7736,"Ġdynamiek":7737,"Ġdroge":7738,"kenning":7739,"hydr":7740,"risico":7741,"',":7742,"entanyl":7743,"glucose":7744,"Ġreparatie":7745,"terminale":7746,"ves":7747,"ĠProtein":7748,"ĠHyper":7749,"Ġ94":7750,"Ġassay":7751,"ĠCRP":7752,"Ġgeselecteerd":7753,"Comp":7754,"Ġzuige":7755,"Ġimmunohistoch":7756,"genetische":7757,"ĠWaar":7758,"rif":7759,"Ġgespec":7760,"ĠAmb":7761,"ofyse":7762,"Ġadenosine":7763,"ĠPVC":7764,"Ġkarakterisering":7765,"som":7766,"ĠCancer":7767,"Ġrechterboven":7768,"Ġlangzaam":7769,"ĠEnd":7770,"vaten":7771,"Ġindirect":7772,"Afspraak":7773,"Ġhandh":7774,"Ġyes":7775,"mine":7776,"Ġaderen":7777,"ĠSociale":7778,"Ġcase":7779,"ialis":7780,"Ġmulti":7781,"want":7782,"omeer":7783,"ĠImp":7784,"infecties":7785,"artim":7786,"MO":7787,"Ġherhaling":7788,"Ġthermische":7789,"Ġenigszins":7790,"ofie":7791,"Ġoverd":7792,"opo":7793,"oxidase":7794,"kort":7795,"atin":7796,"Ġkalium":7797,"2017":7798,"Ġexperiment":7799,"Ġ180":7800,"komende":7801,"Ġschimmel":7802,"jectieve":7803,"ĠOb":7804,"Ġeet":7805,"VI":7806,"ĠHoofd":7807,"Ġtime":7808,"chem":7809,"Ġhypoxie":7810,"edische":7811,"Ġatherosclerotische":7812,"coÃ«fficiÃ«n":7813,"Ġhematoma":7814,"beoordeling":7815,"lus":7816,"PE":7817,"ique":7818,"amente":7819,"ĠDrug":7820,"Ġrate":7821,"Ġdiabetische":7822,"Ġgeneratie":7823,"ĠDE":7824,"Ġmus":7825,"Ġveilig":7826,"sk":7827,"Ġlapar":7828,"Ġbiologisch":7829,"Ġuitvoeren":7830,"Ġflu":7831,"ional":7832,"eldood":7833,"Ġultras":7834,"Ġverwijd":7835,"Ġlokalisatie":7836,"Ġalgehele":7837,"oprazol":7838,"col":7839,"choline":7840,"isk":7841,"idog":7842,"iwit":7843,"opa":7844,"ord":7845,"ĠVereniging":7846,"amination":7847,"oefen":7848,"Ġinheemse":7849,"Ġspontaan":7850,"ĠAp":7851,"Ġprov":7852,"Ġseksuele":7853,"eters":7854,"150":7855,"Ġexperimenteel":7856,"moleculaire":7857,"Ġmetastase":7858,"gestie":7859,"segment":7860,"Ġformul":7861,"eron":7862,"Ġdaarvan":7863,"Ġstem":7864,"ĠMA":7865,")/":7866,"Ġlagen":7867,"umes":7868,"lete":7869,"leukine":7870,"Ġinduceert":7871,"Ġzeggen":7872,"Ġalkal":7873,"ĠGeringe":7874,"brengst":7875,"Ġtev":7876,"iliac":7877,"ouwen":7878,"Ġantistolling":7879,"Â²":7880,"Ġ())":7881,"ife":7882,"Ġ160":7883,"appa":7884,"Ġgewoon":7885,"ĠActivity":7886,"Ġsonde":7887,"ĠNu":7888,"Ġvereisen":7889,"ĠPain":7890,"Ġtetra":7891,"tellectueel":7892,"cons":7893,"ĠcDNA":7894,"Ġ68":7895,"Ġbrad":7896,"Ġsug":7897,"ioom":7898,"intestinale":7899,"ELVIS":7900,"rinsieke":7901,"ĠChirurg":7902,"flex":7903,"Ġsluiten":7904,"Ġheb":7905,"stijd":7906,"Ġmanagement":7907,"akker":7908,"Ġposit":7909,"Ġtrig":7910,"Ġembryo":7911,"Ġcalciumscore":7912,"Le":7913,"Ġmedia":7914,"Ġsamenvatting":7915,"gentie":7916,"aturen":7917,"aakten":7918,"Ġpassend":7919,"ONE":7920,"Controle":7921,"Ġprakt":7922,"Ġmamm":7923,"ĠPP":7924,"Ġset":7925,"Ġhartas":7926,"Ġseptum":7927,"artan":7928,"eende":7929,"Ġonthullen":7930,"Ġlymfekl":7931,"ĠPCP":7932,"Ġverwond":7933,"Ġgeest":7934,"ĠSpO":7935,"Ġjan":7936,"Ġstappen":7937,"top":7938,"Ġartritis":7939,"down":7940,"digheid":7941,"Ġneutrofie":7942,"Ġ88":7943,"Ġdopamine":7944,"Ġredelijk":7945,"Ġballon":7946,"luenz":7947,"Ġmac":7948,"BM":7949,"Ġgetrans":7950,"ĠLact":7951,"vaat":7952,"oneel":7953,"Ġnek":7954,"Ġcyan":7955,"Ġbestand":7956,"itter":7957,"Ġdecompens":7958,"ĠHome":7959,"loon":7960,"Ġoverexpressie":7961,"Ġ2017":7962,"Ġstamcellen":7963,"ressor":7964,"omedi":7965,"ĠcmH":7966,"BR":7967,"otis":7968,"Ġbib":7969,"Ġ_-":7970,"Ġhippocampus":7971,"uil":7972,"aff":7973,"ĠMetoprolol":7974,"Ġvariabele":7975,"Algemene":7976,"Ġsituatie":7977,"Ġbemon":7978,"Ġselectief":7979,"Ġcelcyclus":7980,"raad":7981,"Ġonbekende":7982,"ĠCVA":7983,"ubl":7984,"Ġdonor":7985,"obob":7986,"isinopril":7987,"Ġsagittale":7988,"Ġ66":7989,"veld":7990,"ĠBeoordeling":7991,"Ġ53":7992,"ortic":7993,"Ġdecen":7994,"Ġwetenschappelijke":7995,"Ġ67":7996,"arcoom":7997,"space":7998,"Ġcran":7999,"Ġiso":8000,"Ġuitgesproken":8001,"Ġepider":8002,"stap":8003,"Ġtoegewezen":8004,"+/-":8005,"Ġomgekeerde":8006,"Ġdimensie":8007,"Ġcircul":8008,"ĠPH":8009,"Ġbevestigde":8010,"Ġrollen":8011,"Ġsegmenten":8012,"fenyl":8013,"acetyl":8014,"Ġvallen":8015,"ĠefficiÃ«nt":8016,"Ġaangegeven":8017,"Ġtyrosine":8018,"Ġbevinding":8019,"Ġaccept":8020,"Ġzeldzaam":8021,"ocriene":8022,"Ġcellijnen":8023,"Ġatypische":8024,"dilatatie":8025,"Ġverwezen":8026,"ops":8027,"Ġcholec":8028,"Ġbypass":8029,"Ġip":8030,"ĠTerwijl":8031,"Ġaug":8032,"Ġvrijw":8033,"oplastic":8034,"EHTX":8035,"Ġneer":8036,"cir":8037,"Ġbif":8038,"Ġvertro":8039,"Ġ57":8040,"aas":8041,"Ġbronnen":8042,"chloor":8043,"scherichia":8044,"Ġbeheersen":8045,"PL":8046,"rache":8047,"Ġcis":8048,"huid":8049,"Ġverslag":8050,"Ġpersist":8051,"Ġgemetast":8052,"ĠScale":8053,"ĠPICC":8054,"kering":8055,"Ġ63":8056,"Ġvoorspelde":8057,"Ġaggreg":8058,"ĠcoÃ¶rd":8059,"led":8060,"Ġdiverse":8061,"ilaire":8062,"Ġonderscheid":8063,"omon":8064,"uigen":8065,"Ġconcur":8066,"Ġgescheiden":8067,"Ġgenetisch":8068,"Ġtypische":8069,"Ġclear":8070,"strategieÃ«n":8071,"Ġ2014":8072,"ĠĠč":8073,"...":8074,"oÃ¯die":8075,"Ġbestond":8076,"functies":8077,"Ġconserv":8078,"Ġbijnier":8079,"Ġsinussen":8080,"Ġopnemen":8081,"graad":8082,"Ġtubercul":8083,"Ġlongemb":8084,"Ġget":8085,"Ġonderwijs":8086,"aminofen":8087,"rijding":8088,"ĠTw":8089,"jug":8090,"ĠAu":8091,"ĠoriÃ«n":8092,"worpen":8093,"clusies":8094,"Ġduizeligheid":8095,"zon":8096,"antigeen":8097,"Ġmelanoom":8098,"versch":8099,"002":8100,"temper":8101,"anal":8102,"Ġsupra":8103,"cholesterol":8104,"Ġbeschermen":8105,"ĠSign":8106,"iodaron":8107,"Ġgead":8108,"Ġlangere":8109,"Ġkoude":8110,"FP":8111,"Ġdetails":8112,"Ġpulmonaal":8113,"lust":8114,"Ġplaque":8115,"Ġrepresent":8116,"Ġmonokl":8117,"ontreinig":8118,"Ġpercentiel":8119,"ochroom":8120,"vlees":8121,"Ġvisu":8122,"wek":8123,"Ġuitstekende":8124,"Ġgerapporteerde":8125,"Ġnamelijk":8126,"Ġ51":8127,"ephal":8128,"Ġtotdat":8129,"He":8130,"essant":8131,"aardigheden":8132,"azepam":8133,"groe":8134,"andaard":8135,"COM":8136,"Ġorganisatie":8137,"Ġintermediaire":8138,"Ġnn":8139,"Ġacetyl":8140,"afgeleide":8141,"2013":8142,"Ġzeker":8143,"Ġinhoud":8144,"Ġpuls":8145,"orese":8146,"ow":8147,"Ġvarieerde":8148,"etre":8149,"Ġgeteste":8150,"zijdige":8151,"Ox":8152,"laesies":8153,"ulerende":8154,"Ġinsuff":8155,"fac":8156,"Ġpasgeboren":8157,"Ġschiz":8158,"merc":8159,"Ġstatistische":8160,"Ġretroper":8161,"tubeerd":8162,"DD":8163,"Ġgenomische":8164,"umab":8165,"intensiteit":8166,"Ġcat":8167,"Ġulcer":8168,"Ġwillekeurig":8169,"Ġceldood":8170,"Ġkwal":8171,"haaf":8172,"Ġzoogdieren":8173,"Ġkrijgt":8174,"ollen":8175,"Ġq":8176,"Ġvarianten":8177,"perfusie":8178,"Ġkra":8179,"Ġinfiltr":8180,"Ġsterkte":8181,"Ġlevende":8182,"Ġalternatief":8183,"Ġgon":8184,"prop":8185,"Ġhybrid":8186,"Ġprincip":8187,"Ġdomeinen":8188,"ystemen":8189,"ĠHypertensie":8190,"Ġinse":8191,"lase":8192,"Ġprognost":8193,"Pol":8194,"cardiale":8195,"Ġlasix":8196,"Hz":8197,"osen":8198,"ĠAspirine":8199,"Ġactiveren":8200,"Ġverwijzing":8201,"Ġbezoek":8202,"ĠLeeftijd":8203,"klin":8204,"heerd":8205,"indic":8206,"athion":8207,"inaal":8208,"Ġkop":8209,"fecteerd":8210,"Ġverpleegkundigen":8211,"ĠgeÃ¯njecteerd":8212,"kanalen":8213,"ĠCode":8214,"aars":8215,"rapport":8216,"EST":8217,"imuleerd":8218,"Ġarg":8219,"peratieverslag":8220,"%;":8221,"Ġ49":8222,"uss":8223,"injectie":8224,"Ġcr":8225,"inaire":8226,"Ġsignalering":8227,"Ġsepsis":8228,"Ġorthop":8229,"Ġstatine":8230,"Ġbewegings":8231,"Ġidentificeerden":8232,"Ġ(#":8233,"ident":8234,"Ġonderzoekers":8235,"Ġwereldwijd":8236,"ondersteun":8237,"Ġobv":8238,"TRAST":8239,"Ġdip":8240,"ĠAanmelding":8241,"ulm":8242,"Ġgevorder":8243,"Ġit":8244,"Ġobservatie":8245,"Ġhiel":8246,"aria":8247,"Ġmetabolieten":8248,"Ġremmers":8249,"aalf":8250,"ASC":8251,"Ġbesluit":8252,"Ġretin":8253,"Ġwar":8254,"None":8255,"Ġhoek":8256,"Ġblot":8257,"Ġmultif":8258,"Ġpector":8259,"Ġwillen":8260,"fre":8261,"Ġvoerden":8262,"iveau":8263,"2018":8264,"Ġrand":8265,"waart":8266,"Ġhistologische":8267,"iÃ«r":8268,"inue":8269,"Ġfist":8270,"ĠJap":8271,"ĠClin":8272,"Ġanderen":8273,"Ġoefen":8274,"120":8275,"idiver":8276,"Ġkrachtig":8277,"Ġagen":8278,"Ġdend":8279,"idu":8280,"hex":8281,"Ġverpleegkundige":8282,"Ġingreep":8283,"las":8284,"ĠDevice":8285,"ĠBlood":8286,"Ġ2013":8287,"tage":8288,"Ġosteop":8289,"Ġtaal":8290,"nit":8291,"Ġwijd":8292,"gerichte":8293,"Ġheel":8294,"NL":8295,"Ġdermat":8296,"mutaties":8297,"BTB":8298,"ATP":8299,"werving":8300,"Ġintermitt":8301,"ĠOverige":8302,"icientie":8303,"Ġhypertrofie":8304,"140":8305,"Ġonderdrukt":8306,"Ġsleut":8307,"ĠSle":8308,"osens":8309,"oien":8310,"ATE":8311,"TS":8312,"ijne":8313,"ĠNG":8314,"amily":8315,"Ġbespreekt":8316,"Ġaankomst":8317,"dia":8318,"Ġstructureel":8319,"ABA":8320,"Ġmei":8321,"antagonist":8322,"Ġkandidaat":8323,"cintig":8324,"ĠEscherichia":8325,"sniveau":8326,"heimer":8327,"ĠSec":8328,"inezuur":8329,"ĠCN":8330,"Ġbleven":8331,"Ġchange":8332,"Ġkonijnen":8333,"ĠCan":8334,"lycer":8335,"Ġklassieke":8336,"ĠMin":8337,"gemiddelde":8338,"alings":8339,"progressie":8340,"Ġhor":8341,"Ġantit":8342,"Ġgeslachts":8343,"azine":8344,"ĠCd":8345,"weefsels":8346,"Ġvergroten":8347,"tensieve":8348,"Ġpoging":8349,"nelheden":8350,"uron":8351,"Ġ(###":8352,"Ġagon":8353,"Ġoplever":8354,"Ġpakken":8355,"ĠNEC":8356,"Ġhulpmiddelen":8357,"Ġ09":8358,"HY":8359,"waartse":8360,"Ġbesmet":8361,"ĠZn":8362,"Ġfarmacologische":8363,"ĠHLA":8364,"Ġdochter":8365,"Ġ76":8366,"Ġ2018":8367,"ĠTel":8368,"Ġ69":8369,"Ġachtergrond":8370,"Ġvoelt":8371,"frine":8372,"KT":8373,"antoprazol":8374,"Ġlongkanker":8375,"verse":8376,"ĠDOSE":8377,"technologie":8378,"ĠOx":8379,"Ġtherapeutisch":8380,"Van":8381,"Ġgecombineerd":8382,"Ġangina":8383,"ĠTP":8384,"Ġ600":8385,"Ġ(<":8386,"get":8387,"wervel":8388,"orvastatine":8389,"Ġvoorspeld":8390,"Ġequ":8391,"avanc":8392,"aspectrometrie":8393,"tri":8394,"ozen":8395,"adrant":8396,"Ġindividu":8397,"Ġsensorische":8398,"Ġnanop":8399,"Ġstee":8400,"ĠLast":8401,"stijden":8402,"bp":8403,"arker":8404,"2012":8405,"Ġavond":8406,"icaal":8407,"Ġaanval":8408,"Ġomgezet":8409,"Ġgesteld":8410,"VD":8411,"Ġkwamen":8412,"Ġonderworpen":8413,"Ġneuropath":8414,"Ġketen":8415,"Ġmol":8416,"ycodone":8417,"Ġdiagnostiek":8418,"zetten":8419,"Ġanemie":8420,"Ġafval":8421,"raakbeen":8422,"Ġnor":8423,"gas":8424,"hem":8425,"Ġstimulus":8426,"Type":8427,"Ġgekweekte":8428,"iforme":8429,"Ġbloedstroom":8430,"stitiÃ«le":8431,"Ġverduidelijk":8432,"accharide":8433,"Ġbeval":8434,"spor":8435,"zheimer":8436,"oestand":8437,"fo":8438,"ocomp":8439,"itud":8440,"Ġprost":8441,"ĠLung":8442,"Ġgewricht":8443,"Ġonderhoud":8444,"sulfaat":8445,"Ġeierstok":8446,"Ġstelt":8447,"Ġsul":8448,"ĠgeÃ¯nteg":8449,"Ġvrucht":8450,"Ġ101":8451,"ged":8452,"Ġouderen":8453,"Ġvloeistoffen":8454,"Ġvariabiliteit":8455,"ori":8456,"ylen":8457,"Ġgunstige":8458,"Ġhemoglobine":8459,"ĠKort":8460,"stherapie":8461,"utaan":8462,"Ġprominente":8463,"Ġ59":8464,"splaat":8465,"problemen":8466,"materiaal":8467,"ĠVraagstelling":8468,"Ġcomplicatie":8469,"Ġdiffusie":8470,"Ġverstoring":8471,"evens":8472,"Lengte":8473,"iciÃ«nte":8474,"Ġgoedaardige":8475,"ĠTGF":8476,"ocardiale":8477,"Ġmoduleren":8478,"erpen":8479,"Ġzorgverlen":8480,"lichaam":8481,"Ġ93":8482,"euk":8483,"Ġherstellen":8484,"ĠVeel":8485,"Ġdatas":8486,"stimulatie":8487,"hart":8488,"Ġ92":8489,"Ġplotsel":8490,"pties":8491,"ergische":8492,"Ġadip":8493,"ocumente":8494,"eprazol":8495,"endens":8496,"Ġadequate":8497,"Ġ78":8498,"Ġbasaal":8499,"the":8500,"Ġresulterende":8501,"Ġfalen":8502,"Ġcysten":8503,"Ġerf":8504,"ĠMan":8505,"Ġring":8506,"Ġrenale":8507,"aec":8508,"AI":8509,"mmol":8510,"ĠCYP":8511,"Ġmembranen":8512,"riÃ«":8513,"apamil":8514,"icter":8515,"vet":8516,"Ġlymfoom":8517,"ĠSommige":8518,"nucle":8519,"Ġelektron":8520,"Ġzelden":8521,"Ġ86":8522,"Ġverdikking":8523,"ĠMedications":8524,"Ġhiervan":8525,"Ġhypoden":8526,"Ġ77":8527,"Ġgevisualiseerde":8528,"NOS":8529,"Ġmisselijkheid":8530,"arter":8531,"componenten":8532,"ĠIGF":8533,"artic":8534,"huizen":8535,"Ġpediat":8536,"Ġves":8537,"Ġbeschermende":8538,"Ġpri":8539,"sens":8540,"ĠvariÃ«rend":8541,"Ġuitgangs":8542,"ucc":8543,"Ġincubatie":8544,"ĠIntra":8545,"Ġpancreat":8546,"ĠVis":8547,"keten":8548,"Ġdal":8549,"čĊčĊč":8550,"verbindingen":8551,"implant":8552,"125":8553,"Ġgenoeg":8554,"Ġ2019":8555,"Ġmeld":8556,"stechn":8557,"Ġverklaard":8558,"ĠClip":8559,"GD":8560,"ĠÂ°":8561,"Ġcoronairlijden":8562,"het":8563,"Ġendometrium":8564,"apparaat":8565,"chol":8566,"arit":8567,"Ġaspirine":8568,"pacemaker":8569,"nieuw":8570,"urgitatie":8571,"Ġsuperieure":8572,"Ġgekarakteriseerd":8573,"Ġnabij":8574,"Ġdevice":8575,"Ġinvasie":8576,"Ġembryonale":8577,"umptie":8578,"omeen":8579,"Ġuro":8580,"ofiele":8581,"onaal":8582,"Ġcommerc":8583,"Ġbis":8584,"ineerde":8585,"uiverd":8586,"actief":8587,"ĠcreÃ«":8588,"Ġgecodeerd":8589,"ĠNaast":8590,"veal":8591,"Ġfin":8592,"Ġcytokine":8593,"Ġsynaptische":8594,"hosp":8595,"Ġbestraling":8596,"amino":8597,"ĠNeurolog":8598,"Ġkwest":8599,"Ġdefinitieve":8600,"OOR":8601,"dehyde":8602,"Ġaanv":8603,"ĠLinker":8604,"dosis":8605,"oxysm":8606,"ĠWer":8607,"Ãª":8608,"Ġschijnbare":8609,"wortel":8610,"Ġbolus":8611,"umar":8612,"ĠmicrobiÃ«le":8613,"idogrel":8614,"Ġdiscus":8615,"Ġimplementatie":8616,"don":8617,"Ġdoorge":8618,"oprofiel":8619,"back":8620,"AVI":8621,"Ġleukocyten":8622,"VP":8623,"ĠTrop":8624,"lectie":8625,"adigde":8626,"eral":8627,"Ġpoliklinisch":8628,"Ġpleuravocht":8629,"capaciteit":8630,"Ġamplitude":8631,"populaties":8632,"wijzing":8633,"Ġgehoor":8634,"Ġverzorg":8635,"Ġzee":8636,"Bloed":8637,"Ġgelokaliseerd":8638,"son":8639,"Ġbemiddelen":8640,"Ġsuik":8641,"ologic":8642,"chromatografie":8643,"Ġillu":8644,"ĠMO":8645,"oxidatie":8646,"Ġindust":8647,"ĠVerander":8648,"Ġoplosbare":8649,"Ġonzeker":8650,"oudering":8651,"Ġgedefinieerde":8652,"Ġ>)":8653,"Ġmeldt":8654,"Ġgedocumente":8655,"kat":8656,"astom":8657,"Ġverlaagde":8658,"ĠIndien":8659,"Ġcath":8660,"Ġknock":8661,"Ġdisease":8662,"ameth":8663,"eeksel":8664,"Ġsouffle":8665,"Ġapparaten":8666,"Ġpoliklinische":8667,"tended":8668,"Ġverdenking":8669,"ĠRight":8670,"buter":8671,"Ġverlagen":8672,"lia":8673,"besch":8674,"interacties":8675,"ciplin":8676,"RCA":8677,"Ġvaten":8678,"Ġgunstig":8679,"ĠAlzheimer":8680,"Ġvermeende":8681,"Ġhuisartsen":8682,"Ġglomer":8683,"ius":8684,"ĠAlgemeen":8685,"antilichaam":8686,"ĠKliniek":8687,"Ġ61":8688,"ĠCF":8689,"vezels":8690,"Ġonderwerp":8691,"Ġdraad":8692,"staties":8693,"Ġonderzoekt":8694,"Ġallo":8695,"dienst":8696,"Ġwakker":8697,"())":8698,"Ġanesthesie":8699,"opisch":8700,"Ġbewustzijn":8701,"ĠStaten":8702,"2019":8703,"rien":8704,"Pre":8705,"Ġsotalol":8706,"Ġcytoplasm":8707,"regio":8708,"Ġverkalking":8709,"Ġoestrogeen":8710,"Ġfix":8711,"Ġcef":8712,"ductase":8713,"alg":8714,"Bili":8715,"ivariate":8716,"Ġgelegen":8717,"Ġgecompliceerd":8718,"Ġmijn":8719,"beur":8720,"Ġoverig":8721,"deficiÃ«ntie":8722,"Ġelement":8723,"ĠHolter":8724,"Familie":8725,"ĠSamenvatting":8726,"eest":8727,"Ġcoderen":8728,"ĠCPAP":8729,"ĠContrast":8730,"bronnen":8731,"ĠSD":8732,"Ġkatalytische":8733,"ags":8734,"namen":8735,"hydrogenase":8736,"Ġsubstraten":8737,"Ġassessment":8738,"ĠGez":8739,"ĠJapan":8740,"Ġbescherm":8741,"Ġsputum":8742,"buterol":8743,"Doc":8744,"Ġtrombus":8745,"Cell":8746,"athie":8747,"benadering":8748,"ĠPertinent":8749,"Ġkritische":8750,"Ġoff":8751,"ww":8752,"Ġonderdrukking":8753,"ĠgeÃ¯ntro":8754,"Ġdiverticul":8755,"Ġontdekking":8756,"NR":8757,"ĠErnstige":8758,"Ġhandhaven":8759,"Ġheterogene":8760,"ĠSK":8761,"enste":8762,"Ġ((**":8763,"inson":8764,"knoop":8765,"Ġslagaders":8766,"Ġadap":8767,"ette":8768,"Ġgezamenlijke":8769,"ijfers":8770,"Ġpal":8771,"Ġbindende":8772,"gev":8773,"ĠPELVIS":8774,"Ġ(&":8775,"ĠMedical":8776,"Ġgisteren":8777,"Ġ(##":8778,"Ġkenmerk":8779,"ĠAmerikaanse":8780,"ĠSO":8781,"function":8782,"Ġgeconcludeerd":8783,"eiste":8784,"Ġdementie":8785,"Ġgerandomiseerde":8786,"Ġgeaut":8787,"nnnnnnnn":8788,"VE":8789,"Ġongeacht":8790,"Ġverdwenen":8791,"vuld":8792,"idis":8793,"Ġblan":8794,"Ġopmerkelijk":8795,"ĠQHS":8796,"Ġgeheel":8797,"angen":8798,"Ġpolymeer":8799,"Ġgebruikelijke":8800,"Ġantimicro":8801,"Ġverondersteld":8802,"itief":8803,"ovirus":8804,"Ġinterleukine":8805,"ĠNut":8806,"Ġ74":8807,"jectiefractie":8808,"ĠHTN":8809,"ced":8810,"Ġonderdrukken":8811,"ĠDI":8812,"esium":8813,"Ġochten":8814,"Ġfluid":8815,"ĠVerenigde":8816,"IMA":8817,"Ġlu":8818,"ĠLE":8819,"Ġverschijnen":8820,"geactiveerde":8821,"ureus":8822,"ĠExt":8823,"Ġspectrum":8824,"Ġzitten":8825,"stering":8826,"osale":8827,"herent":8828,"ĠLPS":8829,"fferentie":8830,"Ġcompressie":8831,"bacter":8832,"Ġcategorie":8833,"umad":8834,"Ġweerspiegelen":8835,"Ġgedifferentie":8836,"TA":8837,"tige":8838,"ofage":8839,"meting":8840,"Ġeic":8841,"ined":8842,"iderzijds":8843,"Ġ71":8844,"moid":8845,"Ġbeperken":8846,"lanco":8847,"bevatten":8848,"acte":8849,"strueerd":8850,"formaties":8851,"effecten":8852,"Ġfosfolip":8853,"Ġhoorn":8854,"Ġleer":8855,"aban":8856,"Ġwezen":8857,"Ġ04":8858,"ĠPla":8859,"EGF":8860,"ellings":8861,"Ġuitslag":8862,"Ġparan":8863,"Ġcyclus":8864,"Ġ73":8865,"ksgezondheid":8866,"Ġdex":8867,"Ġbeiderzijds":8868,"ĠDO":8869,"Ġmyc":8870,"etine":8871,"ĠPET":8872,"ĠCB":8873,"oorde":8874,"Ġgemute":8875,"WS":8876,"Ġomgekeerd":8877,"Ġelektronische":8878,"Ġonmiddellijke":8879,"vaardigd":8880,"Klinische":8881,"Ġabsol":8882,"Ġ84":8883,"Ġvoortplant":8884,"stern":8885,"Ġverkalkingen":8886,"lyk":8887,"Ġleft":8888,"Ġgezuiverd":8889,"calc":8890,"halamus":8891,"Ġmogelijkheden":8892,"kundig":8893,"lymfocyten":8894,"Ġbewegingen":8895,"eta":8896,"ĠgeÃ¯ntubeerd":8897,"Ġgedetailleerde":8898,"Ġpunten":8899,"Ġschizofren":8900,"Bel":8901,"Ġ]]":8902,"Ġvariant":8903,"Ġserot":8904,"Ġfac":8905,"Rec":8906,"Ġgehand":8907,"Ġ2012":8908,"routes":8909,"Ġradiotherapie":8910,"ĠEurope":8911,"Ġzwakte":8912,"schak":8913,"atch":8914,"ĠLVAD":8915,"Ġchronisch":8916,"diff":8917,"ĠLD":8918,"NC":8919,"Ġwissel":8920,"Ġgehandhaaf":8921,"Ġassociaties":8922,"liferatieve":8923,"Ġdij":8924,"orven":8925,"atib":8926,"peratuur":8927,"Ġsleutel":8928,"anim":8929,"inesie":8930,"Ġgestaakt":8931,"parameters":8932,"Ġkleiner":8933,"Ġsen":8934,"hydra":8935,"Ġfluoresc":8936,"Ġgehandhaafd":8937,"herapeutische":8938,"Ġextractie":8939,"different":8940,"tieve":8941,"Ġkorrel":8942,"dz":8943,"Ġtip":8944,"Ġpatent":8945,"Ġlichamelijk":8946,"Ġprognostische":8947,"bew":8948,"nec":8949,"iron":8950,"Ġnetwerken":8951,"ĠHy":8952,"Ġluchtcellen":8953,"uari":8954,"gebre":8955,"ĠDen":8956,"Ġvascul":8957,"Ġambul":8958,"Ġadhesie":8959,"iaz":8960,"Ġparenchym":8961,"Ġverklaring":8962,"orde":8963,"Ġlossen":8964,"Ġchol":8965,"Ġomvatte":8966,"Ġpolymerase":8967,"Ġeffusies":8968,"ĠRecente":8969,"Ġnadruk":8970,"Ġlevert":8971,"ĠAcet":8972,"Ġverslechter":8973,"alt":8974,"lodipine":8975,"Ġemotionele":8976,"ĠgeÃ¯nter":8977,"neuronen":8978,"ĠdiÃ«":8979,"schema":8980,"PLC":8981,"antal":8982,"Ġverandert":8983,"avirus":8984,"oyl":8985,"ĠmiRNA":8986,"Ġtransformatie":8987,"Ġdorsale":8988,"Ġbevalling":8989,"plaatsen":8990,"450":8991,"ĠdefiniÃ«ren":8992,"wijzigde":8993,"Ġzin":8994,"Ġgeavanc":8995,"PP":8996,"Ġopslag":8997,"tensine":8998,"-##>,":8999,"armen":9000,"ilaterale":9001,"Ġ###)":9002,"detectie":9003,"ĠSh":9004,"Ã¨t":9005,"Ġversn":9006,"Ġkweek":9007,"-/":9008,"gankelijk":9009,"Ġmutant":9010,"Ġtak":9011,"Ġgeactiveerde":9012,"CABG":9013,"ritische":9014,"ĠTC":9015,"500":9016,"Ġlactaat":9017,"Ġidee":9018,"temperatuur":9019,"ofactor":9020,"Ġholte":9021,"etro":9022,"ĠPsych":9023,"Ġoplossingen":9024,"Ġendo":9025,"osfaat":9026,"leb":9027,"duid":9028,"ico":9029,"Ġstoornis":9030,"Ġgevalide":9031,"dynam":9032,"spra":9033,"Ġzoek":9034,"Ġontbreken":9035,"kkende":9036,"usp":9037,"Ġjun":9038,"astische":9039,"Ġzichzelf":9040,"Ġintegratie":9041,"abele":9042,"ikels":9043,"Geslacht":9044,"Ġfibrose":9045,"medicijnen":9046,"Ġschool":9047,"Ġuitzondering":9048,"octor":9049,"Ġaer":9050,"YYYYYYYYYYYYYYYY":9051,"iserende":9052,"sende":9053,"odon":9054,"Ġevolution":9055,"Ġgesc":9056,"ĠSkin":9057,"iland":9058,"contact":9059,"Ġpathof":9060,"Ġwan":9061,"Post":9062,"Ġkleinere":9063,"Ġdienst":9064,"Ġvoorbijgaande":9065,"Ġgehalte":9066,"Ġschatting":9067,"Ġdimensies":9068,"Ġbetrouwbare":9069,"Ġgeschatte":9070,"130":9071,"activatie":9072,"Ġbeloop":9073,"ĠAmbul":9074,"matigheden":9075,"mmon":9076,"klaring":9077,"py":9078,"Ġfosfatase":9079,"Ġlijnen":9080,"quit":9081,"vinger":9082,"Ġwaterige":9083,"ĠinterstitiÃ«le":9084,"roe":9085,"Ġiliac":9086,"Ġlinkerborst":9087,"Ġgerelateerde":9088,"fract":9089,"Atrium":9090,"orting":9091,"ĠEos":9092,"Ġwaarna":9093,"Ġbewaar":9094,"herapy":9095,"Ġfylo":9096,"Ġervoor":9097,"Ġshift":9098,"uma":9099,"Ġwillekeurige":9100,"Ġkankercellen":9101,"Ag":9102,"thase":9103,"Ġsteun":9104,"Ġreplicatie":9105,"delings":9106,"ablok":9107,"splaats":9108,"ye":9109,"Ġtheoretische":9110,"ĠChest":9111,"telijk":9112,"Ġvertraging":9113,"Ġaz":9114,"Ġtanden":9115,"ĠKlacht":9116,"Ġbuis":9117,"ĠVerrichting":9118,"ineres":9119,"anker":9120,"ioden":9121,"oliet":9122,"ikken":9123,"Ġkolon":9124,"Ġbloedcellen":9125,"Ġadolescenten":9126,"Document":9127,"Ġaud":9128,"Ġsociaal":9129,"ĠMedicatie":9130,"verspre":9131,"Ġepi":9132,"Ġkernen":9133,"Ġdetermin":9134,"110":9135,"Ġstuk":9136,"Ġmutanten":9137,"Ġomk":9138,"celcarcinoom":9139,"contrast":9140,"tings":9141,"phy":9142,"Ġâī":9143,"Ġzone":9144,"ĠCRT":9145,"quÃª":9146,"Ġgesloten":9147,"afdeling":9148,"lopidogrel":9149,"ĠFinding":9150,"ĠNMR":9151,"eizoen":9152,"uut":9153,"Ġocc":9154,"Ġstaart":9155,"Ġstarten":9156,"Ġstoelgang":9157,"NG":9158,"Ġprofess":9159,"ierd":9160,"Ġverschilden":9161,"oo":9162,"resistente":9163,"ĠRS":9164,"Ġoutput":9165,"Ġmicrom":9166,"Ġsteeg":9167,"ĠMEDICE":9168,"oglobuline":9169,"ioneel":9170,"ĠSyn":9171,"ĠCondition":9172,"EHEH":9173,"ille":9174,"Ġsetting":9175,"Ġdiensten":9176,"Ġfragment":9177,"STEMMING":9178,"Ġ03":9179,"Ġwet":9180,"ient":9181,"Ġmanip":9182,"Ġplacent":9183,"Ġbezorgdheid":9184,"geruis":9185,"Ġzwakke":9186,"ringende":9187,"Ġlongembolie":9188,"streren":9189,"oder":9190,"Ġcentraal":9191,"Ġgezichten":9192,"Ġneonatale":9193,"Ġeval":9194,"->":9195,"licht":9196,"tekeningen":9197,"Ġvereiste":9198,"rep":9199,"types":9200,"Ġnas":9201,"Ġbevatte":9202,"ĠkDa":9203,"Ġzuigelingen":9204,"Ġpsychiatrische":9205,"ĠIR":9206,"angere":9207,"Ġlongitud":9208,"rench":9209,"Ġtandheel":9210,"Ġvariaties":9211,"ontale":9212,"Ġfrequente":9213,"ISCH":9214,"ĠML":9215,"Ġwarmte":9216,"Ġpectoris":9217,"loze":9218,"Ġinfusie":9219,"Ġtax":9220,"vale":9221,"2011":9222,"Ġinterpretatie":9223,"eptor":9224,"Ġ82":9225,"Ġvinger":9226,"ality":9227,"Ġspecial":9228,"rubine":9229,"Ġimaging":9230,"eeskunde":9231,"iaanse":9232,"Ġpiep":9233,"Ġamylo":9234,"Ġproject":9235,"ĠVerslagdatum":9236,"Ġlar":9237,"Coronair":9238,"cope":9239,"ĠFamiliegeschiedenis":9240,"omale":9241,"Ġsubclav":9242,"Ġrectum":9243,"Ġcorrectie":9244,"ĠEKG":9245,"integ":9246,"Ġsensor":9247,"Ġtijdelijk":9248,"Ġrapporten":9249,"ĠVier":9250,"],[":9251,"Ġstere":9252,"ymptomen":9253,"gg":9254,"Ġinstrument":9255,"+:":9256,"beeldvorming":9257,"rab":9258,"Ġbrief":9259,"Ġknoopp":9260,"gelegd":9261,"Ġhypofyse":9262,"ofol":9263,"ĠLip":9264,"atterij":9265,"Aanvraag":9266,"sim":9267,"ARS":9268,"Ġpass":9269,"Ġortho":9270,"sat":9271,"Ġencefal":9272,"amenstelling":9273,"Ġsedatie":9274,"oglyc":9275,"Ġgeleverd":9276,"Ġnierfalen":9277,"Ġstri":9278,"Ġvirussen":9279,"Ġhydronef":9280,"protocol":9281,"Ġmesenterische":9282,"hole":9283,"ĠEC":9284,"Ġlood":9285,"Ġgeassocieerde":9286,"riminatie":9287,"olact":9288,"hyreoÃ¯die":9289,"Ġdrempel":9290,"Ġuitkomsten":9291,"titel":9292,"Ġvermoeidheid":9293,"search":9294,"Ġ325":9295,"Ġscheiding":9296,"ĠVerdere":9297,"enis":9298,"Ġ83":9299,"ĠGem":9300,"Ġlokaal":9301,"ĠSS":9302,"Ġtegelijkertijd":9303,"annen":9304,"TER":9305,"Ġinsul":9306,"ĠTNM":9307,"Ġlim":9308,"ĠLVH":9309,"fische":9310,"Ġdysfunctie":9311,"bes":9312,"ĠgeÃ«xtra":9313,"ĠEEG":9314,"irst":9315,"umadin":9316,"Ġbek":9317,"Ġbeperking":9318,"Ġintrahepatische":9319,"Ġtijdst":9320,"Ig":9321,"UD":9322,"Ġdelt":9323,"oeien":9324,"ĠDaily":9325,"mes":9326,"ĠKalium":9327,"Ġtemporale":9328,"bezoek":9329,"Ġcasp":9330,"Ġcirrose":9331,"ĠFiO":9332,"rocyten":9333,"Ġmilj":9334,"Ġverwachte":9335,"Boven":9336,"Ġwit":9337,"Ġziektever":9338,"lopen":9339,"knie":9340,"ĠAMP":9341,"Ġcytotoxische":9342,"Ġfenomeen":9343,"+,":9344,"Ġ[(((":9345,"Ġverg":9346,"Ġlies":9347,"Ġnachts":9348,"Ġfl":9349,"Ġfasen":9350,"itutie":9351,"Ġbewaard":9352,"spectrum":9353,"velden":9354,"idose":9355,"Ġassays":9356,"su":9357,"-[":9358,"Ġimmuniteit":9359,"Ġoxidatie":9360,"Ġplasmac":9361,"Ġoppervlakkige":9362,"Ġgeladen":9363,"urend":9364,"Ġmeta":9365,"scha":9366,"Ġgesproken":9367,"Ġbevordert":9368,"rh":9369,"differentiatie":9370,"Ġinteractief":9371,"deerde":9372,"NK":9373,"Ġverer":9374,"Ġantip":9375,"Ġtemporele":9376,"respectievelijk":9377,"Ġmiddelste":9378,"ĠDS":9379,"Ġempir":9380,"Ġhemodynam":9381,"Ġechte":9382,"STEMI":9383,"voet":9384,"Ont":9385,"merking":9386,"vervanging":9387,"ĠFamily":9388,"Uit":9389,"ĠFlow":9390,"Ġkoppeling":9391,"ĠHun":9392,"Ġbeschrijving":9393,"Ġpediatrische":9394,"volumes":9395,"Ġ08":9396,"Ġtransplantaat":9397,"Ġvoorzien":9398,"idale":9399,"Ġvullen":9400,"ĠGlyc":9401,"ĠPMH":9402,"stress":9403,"uccesvolle":9404,"matische":9405,"Ġvoorheen":9406,"omonas":9407,"sprek":9408,"Gewicht":9409,"urt":9410,"Ġverblijf":9411,"Ġondersteunt":9412,"Ġpercutane":9413,"waarts":9414,"Ġvre":9415,"invasieve":9416,"uld":9417,"weken":9418,"ilept":9419,"vormings":9420,"ĠgeÃ¯ntroduceerd":9421,"rimin":9422,"tijdige":9423,"Ġorganisme":9424,"dit":9425,"obil":9426,"Ġsplitsing":9427,"Ġbevinden":9428,",#":9429,"ĠCel":9430,"ocarditis":9431,"passingen":9432,"splaatsen":9433,"Ġverenig":9434,"Ã¼":9435,"bevindingen":9436,"Ġcompet":9437,"Ġplasmam":9438,"kennen":9439,"Ġnuttige":9440,"rictie":9441,"eph":9442,"nest":9443,"Ġintens":9444,"Ġbiomarkers":9445,"schrift":9446,"Ġzink":9447,"visie":9448,"hang":9449,"Ġposterieure":9450,"informatie":9451,"Ġgetroffen":9452,"Ġpijnklachten":9453,"Ġ2011":9454,"oezem":9455,"Ġvetzuren":9456,"Ġintrinsieke":9457,"parenchym":9458,"Ġarchitect":9459,"Ġbijge":9460,"ĠNPO":9461,"Ġtijdelijke":9462,"ork":9463,"Ġ-->":9464,"Ġaant":9465,"Ġbdz":9466,"Ġinfectieuze":9467,"Ġkwets":9468,"Ġmaxim":9469,"french":9470,"Size":9471,"ĠNeem":9472,"secretie":9473,"Ġpall":9474,"Ġproduceerde":9475,"gaat":9476,"Ġ87":9477,"Ġsedi":9478,"Ġ2010":9479,"Ġinfect":9480,"ormaliteit":9481,"rar":9482,"ĠWel":9483,"alk":9484,"ĠsteroÃ¯den":9485,"Ġanterior":9486,"ĠVersion":9487,"tisch":9488,"Ġmetastasen":9489,"lopende":9490,"Ġfilm":9491,"amycine":9492,"Ġvoren":9493,"paraten":9494,"Ġzoutoplossing":9495,"Ġuter":9496,"asten":9497,"DEN":9498,"Ġgeestelijke":9499,"LS":9500,"brale":9501,"Ġgrij":9502,"Ġtoenemen":9503,"isel":9504,"VERKLARING":9505,"way":9506,"herstel":9507,"omisch":9508,"istieke":9509,"uiverde":9510,"Ġdemon":9511,"Ġheer":9512,"Ġspanning":9513,"elin":9514,"Ġvindt":9515,"chirurgie":9516,"hormoon":9517,"termijn":9518,"Ġcreatinine":9519,"Ġfla":9520,"uppressie":9521,"ijns":9522,"Ġspectrale":9523,"Ġ07":9524,"Ġest":9525,"Ġrechterborst":9526,"Ġgewichtsverlies":9527,"contin":9528,"ĠGegevens":9529,"passen":9530,"imes":9531,"Ġinzichten":9532,"kleuring":9533,"Ġopvallend":9534,"ĠHemat":9535,"lykemie":9536,"dema":9537,"TH":9538,"vere":9539,"opulmon":9540,"radiol":9541,"Ġpersoneel":9542,"Ġtrend":9543,"Ġradiografie":9544,"lepsie":9545,"Ġradiale":9546,"Ġserie":9547,"ĠFoley":9548,"Ġlevensvatbaarheid":9549,"pus":9550,"plande":9551,"Ġklim":9552,"Ġaanvullend":9553,"Ġaangenomen":9554,"ectale":9555,"DC":9556,"typen":9557,"stenen":9558,"Ġmeervoudige":9559,"daagse":9560,"Ġgekozen":9561,"Ġvermoedelijk":9562,"Ġverv":9563,"Ġreticul":9564,"aadpleeg":9565,"Ġnadel":9566,"ĠOSH":9567,"scores":9568,"Ġdoorgaan":9569,"gal":9570,"Ġ79":9571,"technieken":9572,"ĠDien":9573,"Ġeindigt":9574,"meer":9575,"drukte":9576,"Ġteken":9577,"ural":9578,"spiegel":9579,"leving":9580,"Ġblad":9581,"nd":9582,"stadium":9583,"onregel":9584,"wijzen":9585,"ĠHCV":9586,"Ġmorfine":9587,"etrische":9588,"Ġondersteund":9589,"Ġ-(()":9590,"acer":9591,"Ġlev":9592,"Ġontwerpen":9593,"Act":9594,"Ġcyclische":9595,"Ġcla":9596,"Ġtransgene":9597,"soc":9598,"Ġleek":9599,"Ġantigenen":9600,"Ġveroudering":9601,"Ġmodule":9602,"lootstelling":9603,"Ġbuikpijn":9604,"Ġjon":9605,"Ġreproductie":9606,"biot":9607,"Ġuitstre":9608,"uz":9609,"ĠRES":9610,"tekening":9611,"ositeit":9612,"Ġfinanc":9613,"Ġcystische":9614,"BA":9615,"ĠZuid":9616,"ĠHoog":9617,"Ġtan":9618,"experimenten":9619,"Normale":9620,"Ġ?":9621,"ĠEchocardi":9622,"beschadiging":9623,"ĠMMM":9624,"Ġfosfaat":9625,"derd":9626,"beurtenis":9627,"Ġhepatische":9628,"ĠLY":9629,"Ġheterogeniteit":9630,"Ġhersteld":9631,"Ġprednison":9632,"ĠCursus":9633,"wijze":9634,"ĠZoals":9635,"derende":9636,"Ġbut":9637,"otisch":9638,"ious":9639,"iguratie":9640,"Ġzure":9641,"Per":9642,"ĠNK":9643,"Ġlongslagader":9644,"Ġjanuari":9645,"spectroscopie":9646,"Ġuitsluitend":9647,"Ġhybride":9648,"schien":9649,"set":9650,"sal":9651,"Ġbijgeluiden":9652,"ikend":9653,"icteric":9654,"Ġinspanningen":9655,"bic":9656,"Ġnicot":9657,"datie":9658,"peptide":9659,"Ġcardiaal":9660,"agul":9661,"Î¼":9662,"fibr":9663,"ĠantimicrobiÃ«le":9664,"Ġmede":9665,"Ġsymmetrisch":9666,"Ġoverleven":9667,"Ġafgesloten":9668,"loog":9669,"ĠMatig":9670,"gekopp":9671,"Ġgestimuleerd":9672,"Ġak":9673,"Ġdrupp":9674,"ĠLine":9675,"Ġwell":9676,"Ġconcurr":9677,"Ġvoorspellende":9678,"Ġbekkens":9679,"modellering":9680,"pa":9681,"Ġontdekt":9682,"Ġgalblaas":9683,"Ġvanc":9684,"PatiÃ«nt":9685,"cyst":9686,"2010":9687,"oos":9688,"wintig":9689,"rete":9690,"Ġconformatie":9691,"icilline":9692,"ĠMedisch":9693,"reveal":9694,"ĠConcept":9695,"ĠBew":9696,"Ġpsychologische":9697,"ĠHO":9698,"Ġechocardiogram":9699,"Ġpi":9700,"Ġhydronefrose":9701,"Ġglutathion":9702,"Ġgraag":9703,"bru":9704,"Ġsouffles":9705,"Sinusritme":9706,"Ġcytochroom":9707,"stitu":9708,"ML":9709,"Ġgevestig":9710,"ish":9711,"oral":9712,"Ġlogin":9713,"Ġperman":9714,"modi":9715,"Ġopgeroepen":9716,"Ġmodulatie":9717,"fus":9718,"Ġbehoren":9719,"Ġplannen":9720,"Ġhybridisatie":9721,"vens":9722,"ada":9723,"remmende":9724,"Ġdram":9725,"gewogen":9726,"eigen":9727,"rition":9728,"bloeding":9729,"etreft":9730,"ĠMonitor":9731,"edisch":9732,"iders":9733,"Ġgevaar":9734,"ĠPQ":9735,"Ġontlast":9736,"Ġpiepende":9737,"dw":9738,"lasie":9739,"Ġscores":9740,"idiverende":9741,"ĠVit":9742,"Ġsneller":9743,"Ġgemetastaseerde":9744,"idende":9745,"Ġtemperaturen":9746,"ĠBinnen":9747,"clip":9748,"onnen":9749,"genaam":9750,"emmers":9751,"Ġjaarlijk":9752,"Ġmach":9753,"ariteit":9754,"Ġsamenge":9755,"consultatie":9756,"amol":9757,"Ġond":9758,"Ġgeluid":9759,"derivaten":9760,"stent":9761,"Ġbetrouwbaarheids":9762,"Ġopsp":9763,"amb":9764,"Ġkanalen":9765,"ysm":9766,"ocriet":9767,"ĠSpec":9768,"Ġgemodificeerde":9769,"ĠAcute":9770,"Ġverwante":9771,"potent":9772,"Ġkraakbeen":9773,"ĠRechts":9774,"Ġgeavanceerde":9775,"Ġaccess":9776,"Ġmoleculair":9777,"\",":9778,"Ġ89":9779,"alerings":9780,"Ġhilar":9781,"verst":9782,"psych":9783,"valuatie":9784,"Ġ(###)":9785,"Ġzover":9786,"Ġbenz":9787,"Ġdepressieve":9788,"resistentie":9789,"Ġcluster":9790,"Ġlongontsteking":9791,"ĠÃĹ":9792,"armoede":9793,"Ġjarige":9794,"ĠBelang":9795,"Ġnaald":9796,"YHA":9797,"ĠmitochondriÃ«n":9798,"ĠBevindingen":9799,"isicofactoren":9800,"Ġcorrelaties":9801,"ĠAnders":9802,"esse":9803,"bewegingen":9804,"ĠInc":9805,"ĠPOD":9806,"Ġgladde":9807,"OMI":9808,"ters":9809,"Ġfosfor":9810,"igo":9811,"ems":9812,"sensus":9813,"scheidingen":9814,"Ġlumen":9815,"Ġolie":9816,"Ġinhal":9817,"ĠNieuwe":9818,"ember":9819,"Ġvolksgezondheid":9820,"sprogramma":9821,"flu":9822,"ĠTechn":9823,"Ġhydrox":9824,"ĠInteressant":9825,"ĠFL":9826,"Ġcontro":9827,"keken":9828,"ISS":9829,"onchi":9830,"Ġwaaruit":9831,"other":9832,"Ġwaarnemingen":9833,"Ġprostaatkanker":9834,"Ġglutamaat":9835,"Ġcytotoxiciteit":9836,"Ġvaccinatie":9837,"Ġneutrofielen":9838,"compliceerde":9839,"Ġnanopartic":9840,"iger":9841,"locaties":9842,"Ġ#,##":9843,"enchym":9844,"ĠDiabetes":9845,"ALY":9846,"plijden":9847,"Ġnefro":9848,"Ġkwantificeren":9849,"Ġdecompensatio":9850,"Ġzoeken":9851,"Ġoverleden":9852,"Ġwacht":9853,"Ġknobbel":9854,"Ġ91":9855,"iekenhuis":9856,"ĠSOB":9857,"Ġsuggereerden":9858,"Ġleggen":9859,"Ġredenen":9860,"Ġtwaalf":9861,"bol":9862,"Ġleverde":9863,"Ġspeeksel":9864,"geÃ¯nfecteerde":9865,"liot":9866,"TC":9867,"Ġbacterie":9868,"asix":9869,"ysiologisch":9870,"ĠASA":9871,"Ġgepubliceerde":9872,"pg":9873,"Ġzit":9874,"Ġzorgvul":9875,"ript":9876,"Ġafter":9877,"Ġvoldoen":9878,"Ġverstrekt":9879,"ĠTSH":9880,"Ġrecombinant":9881,"ĠChinese":9882,"reatment":9883,"ĠNECK":9884,"Ġinferior":9885,"dium":9886,"Ġduct":9887,"Ġresistent":9888,"bestrijding":9889,"0001":9890,"Ġdiur":9891,"LF":9892,"yle":9893,"Ġaanleiding":9894,"Ġneo":9895,"Ġventrikels":9896,"Ġdissectie":9897,"Ġtypisch":9898,"Ġschema":9899,"101":9900,"Ġgeraadpleeg":9901,"Ġautofag":9902,"ense":9903,"Ġresulteren":9904,"idings":9905,"Ġonvolle":9906,"ĠSol":9907,"NH":9908,"Ġontwikkelingen":9909,"ĠCardio":9910,"Ġsoepel":9911,"ORM":9912,"viseerd":9913,"Ġenzymatische":9914,"Ġversterking":9915,"Ġapicale":9916,"Ġzieke":9917,"state":9918,"relatie":9919,"Gu":9920,"Ġvrijwillig":9921,"cellijnen":9922,"ĠSinus":9923,"uitslag":9924,"PF":9925,"tomografie":9926,"teit":9927,"ĠInt":9928,"Onder":9929,"Ġklonen":9930,"GC":9931,"nex":9932,"ĠTECHNIQUE":9933,"Ġmengsel":9934,"onregelmatigheden":9935,"Ġaangezien":9936,"kern":9937,"Ġprikkel":9938,"Ġendotheelcellen":9939,"bot":9940,"richts":9941,"Ġadju":9942,"mic":9943,"iÃ«tale":9944,"opathische":9945,"Ġeten":9946,"Ġplacement":9947,"bound":9948,"Ġprofiel":9949,"ĠOnlangs":9950,"iteren":9951,"ĠPF":9952,"beerd":9953,"ĠProf":9954,"Ġarit":9955,"ethyleen":9956,"Ġverloop":9957,"ructure":9958,"Ġperip":9959,"Ġamin":9960,"Ġremissie":9961,"Ġpara":9962,"ironolact":9963,"amentele":9964,"entine":9965,"ĠSH":9966,"ĠTeleconsultatie":9967,"Ġvolg":9968,"gewricht":9969,"liothe":9970,"Ġbestudeerden":9971,"oproteÃ¯nen":9972,"inol":9973,"Ġgeplande":9974,"Ġvarieerden":9975,"Ġherhaal":9976,"Ġblauw":9977,"wan":9978,"deficiÃ«nte":9979,"orticale":9980,"tense":9981,"angiografie":9982,"Ġovereenkomt":9983,"Ġbewezen":9984,"Ġbiliaire":9985,"ĠAoI":9986,"Ġmoest":9987,"ĠGABA":9988,"ĠFFR":9989,"ialisme":9990,"Ġintroductie":9991,"Ġhoogstwaarschijnlijk":9992,"zeker":9993,"Ġomgevingen":9994,"ĠmL":9995,"ĠTevens":9996,"Ġsamengesteld":9997,"ĠMomenteel":9998,"based":9999,"ĠUnivers":10000,"ĠPark":10001,"Ġlow":10002,"Ġpil":10003,"apping":10004,"nov":10005,"Ġnecrose":10006,"Ġbewegen":10007,"ĠBili":10008,"Ġoverige":10009,"ĠVP":10010,"specifiek":10011,"Ġalgoritme":10012,"Ġwetenschap":10013,"ĠGC":10014,"Ġhap":10015,"Ġcompartim":10016,"Ġneoplasma":10017,"behoe":10018,"Is":10019,"Ġbaseline":10020,"Ġuitst":10021,"Ġinfluenz":10022,"post":10023,"Ġlamin":10024,"Ġsymptomatische":10025,"aggreg":10026,"Ġlatere":10027,"Ġochtend":10028,"ĠIM":10029,"BAT":10030,"CVA":10031,"Ġgroeiende":10032,"agnetische":10033,"Ġtaken":10034,"Ġeigenschap":10035,"ressure":10036,"Ġmoeders":10037,"Ġras":10038,"ocardiocardiocardiocardi":10039,"organisatie":10040,"((()":10041,"ectine":10042,"eeded":10043,"promotor":10044,"organismen":10045,"oorzicht":10046,"Ġstijging":10047,"Ġanastom":10048,"fosforylering":10049,"Ġtechnische":10050,"Ġcardioversie":10051,"ands":10052,"ĠnM":10053,"akking":10054,"Ġinflamm":10055,"Ġsupport":10056,"ĠVF":10057,"Ġene":10058,"Ġlongbasis":10059,"Ġbloedarmoede":10060,"aterialen":10061,"Ġvergrote":10062,"Ġpatch":10063,"Ġpancreatitis":10064,"Ġgepubliceerd":10065,"Ġrisicoprofiel":10066,"Ġcas":10067,"Ġschouder":10068,"Ġminst":10069,"Ġepidemi":10070,"Ġseizoen":10071,"Ġbijwerken":10072,"Ġfec":10073,"strategie":10074,"ĠChem":10075,"residuen":10076,"Ġgenezen":10077,"ĠLUN":10078,"ĠHC":10079,"Ġjuni":10080,"Ġnumer":10081,"olven":10082,"Ġverdacht":10083,"betering":10084,"ropathie":10085,"Ġgeluiden":10086,"Ġzwangerschaps":10087,"Ġwerkings":10088,"otrope":10089,"hist":10090,"agentia":10091,"Ġabnormaal":10092,"Ġscher":10093,"oekt":10094,"Ġgeraadpleegd":10095,"ĠAden":10096,"ieniveaus":10097,"Ġliganden":10098,"pert":10099,"Ġannu":10100,"lijning":10101,"Ġconstante":10102,"Succ":10103,"YROM":10104,"2020":10105,"vergelijk":10106,"ĠSal":10107,"miteiten":10108,"Ġautor":10109,"Ġeconomische":10110,"otrans":10111,"periment":10112,"Opties":10113,"ival":10114,"ofluor":10115,"Ġpatiente":10116,"Ġvierde":10117,"Betreft":10118,"nT":10119,"oÃ¯ne":10120,"ĠEven":10121,"Succeeded":10122,"Ġosseeuze":10123,"Ġmobiliteit":10124,"Ġkb":10125,"Ġschizofrenie":10126,"Ġdikte":10127,"stra":10128,"Ġrepolarisatie":10129,"Hyper":10130,"ĠFA":10131,"Ġile":10132,"Ġkorter":10133,"ĠSim":10134,"Bovengenoemde":10135,"transm":10136,"Ġmarg":10137,"Ġafgest":10138,"Ġnanodeeltjes":10139,"Ġkinetiek":10140,"aandoeningen":10141,"Ġperme":10142,"ĠAss":10143,"Ġaureus":10144,"serveerde":10145,"Ġmij":10146,"Ġonregelmatige":10147,"Ġvrijwel":10148,"Ġfundamentele":10149,"ĠeGFR":10150,"achycardie":10151,"veolaire":10152,"idelijke":10153,"Ġenorm":10154,"ĠElekt":10155,"Ġrecombinante":10156,"processen":10157,"Ġoppervlakken":10158,"klinische":10159,"ĠContinue":10160,"ĠLS":10161,"iÃ«mie":10162,"EE":10163,"ĠBal":10164,"Ġbic":10165,"hab":10166,"neuro":10167,"Ġkankers":10168,"itraat":10169,"Ġterminale":10170,"ylenol":10171,"Ġcirculerende":10172,"electieve":10173,"orrag":10174,"ĠGel":10175,"uwd":10176,"Ġparanasale":10177,"Ġassemblage":10178,"Ġare":10179,"Ġactiveert":10180,"Ġunivers":10181,"Ġreguleert":10182,"formeerde":10183,"ctomy":10184,"ĠChief":10185,"ficiÃ«ntie":10186,"Ġafhankelijkheid":10187,"nect":10188,"Ġbetrouwbaar":10189,"ynaec":10190,"Ġsites":10191,"yndroom":10192,"Ġversie":10193,"BMI":10194,"erine":10195,"Ġinterview":10196,"Ġpraktische":10197,"vig":10198,"ĠSVC":10199,"hib":10200,"Ġmaakte":10201,"Ġpalpitaties":10202,"ĠcAMP":10203,"Ġprogest":10204,"aders":10205,"Ġkleuring":10206,"ĠHCC":10207,"inefrine":10208,"velop":10209,"echo":10210,"Ġagressieve":10211,"âĢĬ":10212,"Ġso":10213,"ukary":10214,"Ġhistopath":10215,"GB":10216,"verh":10217,"Ġmono":10218,"Ġbotten":10219,"ĠVoort":10220,"ĠAI":10221,"Ġpostoperatief":10222,"Ġpacing":10223,"DER":10224,"Ġopw":10225,"Ġverzameling":10226,"ĠLinks":10227,"sept":10228,"avond":10229,"astro":10230,"Ġcomm":10231,"Ġnod":10232,"ĠsteroÃ¯de":10233,"Ġperitoneale":10234,"ĠMB":10235,"Ġcerebel":10236,"derde":10237,"ĠTO":10238,"Ġlevensduur":10239,"Ġconditie":10240,"losure":10241,"ĠGenome":10242,"Ġfouten":10243,"leet":10244,"CSF":10245,"ĠPUL":10246,"My":10247,"Ġnovo":10248,"Complic":10249,"ĠTumor":10250,"Ġbijzonderheden":10251,"weer":10252,"Ġzaad":10253,"ĠJa":10254,"ĠNutrition":10255,"Ġgeblok":10256,"Ġverwondingen":10257,"2003":10258,"Ġinstructies":10259,"ĠAorta":10260,"Ġextremiteit":10261,"okokken":10262,"Ġleuc":10263,"ĠVijf":10264,"Ġmurm":10265,"mak":10266,"rank":10267,"Ġ2020":10268,"Ġimmuunrespons":10269,"Ġsymmetrische":10270,"onat":10271,"Ġaangebracht":10272,"Phos":10273,"Ġatm":10274,"profielen":10275,"durend":10276,"ĠEt":10277,"itheliale":10278,"Ġvoorbereid":10279,"ĠoriÃ«ntatie":10280,"gorit":10281,"Ġpersoonlijke":10282,"ĠcreÃ«ren":10283,"Ġdata":10284,"Ġbip":10285,"necrose":10286,"ĠPeptide":10287,"Ġanalyseerden":10288,"Ġversterken":10289,"Ġgeleidingstijden":10290,"Ġintegr":10291,"Ġverdikt":10292,"Ġfoley":10293,"ĠACT":10294,"ĠMentale":10295,"ĠHDL":10296,"oco":10297,"ĠQTc":10298,"Ġloopt":10299,"Ġreconstructie":10300,"krist":10301,"ĠSN":10302,"Ġgezuiverde":10303,"meth":10304,"Ġrijping":10305,"cyste":10306,"Ġmanieren":10307,"Ġsperma":10308,"Ġblaasjes":10309,"nat":10310,"laesie":10311,"Ġprospectieve":10312,"Ġadsorptie":10313,"ĠType":10314,"ĠGH":10315,"Ġactine":10316,"ash":10317,"sion":10318,"ĠVerhoogde":10319,"Ġuiteindelijke":10320,"ĠTri":10321,"ĠVanc":10322,"ĠPath":10323,"Ġpreoperatieve":10324,"beperking":10325,"Ġchromatine":10326,"VAD":10327,"iste":10328,"Ġgrof":10329,"ĠVerleden":10330,"ĠSur":10331,"Reg":10332,"ĠBewustzijn":10333,"Ġovarium":10334,"Ġrevalidatie":10335,"Ġtolerantie":10336,"Ġdelet":10337,"bevattende":10338,"Ġadvis":10339,"ĠVolgens":10340,"Ġinput":10341,"Ġvoert":10342,"ĠIH":10343,"Ġadren":10344,"slijden":10345,"Ġoverheer":10346,"ĠTemp":10347,"Hoewel":10348,"Ġherziening":10349,"gebeurtenis":10350,"gestief":10351,"VA":10352,"ĠPers":10353,"Ġlongitudinale":10354,"Ġgecorrige":10355,"iftig":10356,"Ġovervloe":10357,"Ġgevraag":10358,"Trop":10359,"ads":10360,"Ġvene":10361,"vallende":10362,"ĠgeÃ¯nfecteerd":10363,"Ġapex":10364,"Ġureter":10365,"idae":10366,"Ġbehoeften":10367,"leten":10368,"ĠVAG":10369,"Ġcomplexiteit":10370,"ĠSter":10371,"otrof":10372,"Ġalbumine":10373,"acillus":10374,"upple":10375,"Ġlijden":10376,"Ġfiet":10377,"ollings":10378,"ventriculaire":10379,"WI":10380,"Ġhoriz":10381,"ĠCalciumscore":10382,"Ġhydrolyse":10383,"epen":10384,"Ġbede":10385,"duceerden":10386,"ĠChina":10387,"ĠClinical":10388,"Ġfarmacokin":10389,"Ġdegeneratie":10390,"Ġintubatie":10391,"ĠPOB":10392,"Ġeosin":10393,"ĠVeranderingen":10394,"Ġepilepsie":10395,"Ġmaart":10396,"Ġ(+)":10397,"Ġchond":10398,"balans":10399,"ĠAA":10400,"Ġbili":10401,"Ġziekenhuizen":10402,"Ġelect":10403,"ĠIntern":10404,"Ġhechting":10405,"Ġcelproliferatie":10406,"ĠLM":10407,"ĠPa":10408,"Ġkritieke":10409,"Ġlangetermijn":10410,"Ġkolom":10411,"Ġokt":10412,"zenuw":10413,"atier":10414,"Ġgeoptim":10415,"Ġafbeelding":10416,"Ġadequaat":10417,"loof":10418,"ryo":10419,"veisel":10420,"Ġsupp":10421,"Ġreproduc":10422,"Ġconclusie":10423,"Ġelektrol":10424,"Ġprimair":10425,"Ġgeboren":10426,"Ob":10427,"leeftijd":10428,"Ġbereikte":10429,"zi":10430,"Ġantioxidant":10431,"ĠHum":10432,"Ġinspannings":10433,"Ġalk":10434,"Ġnummer":10435,"Ġminer":10436,"Ġhydrofo":10437,"splantaten":10438,"Ġconversie":10439,"ĠFI":10440,"wervelde":10441,"Ġdistaal":10442,"fun":10443,"Ġverergering":10444,"Ġauditieve":10445,"ĠHCK":10446,"eesm":10447,"istr":10448,"tumoren":10449,"ĠAut":10450,"ĠUw":10451,"Ġkoper":10452,"verschillen":10453,"ĠDat":10454,"Ġvide":10455,"Ġmoder":10456,"arynge":10457,"Ġsemi":10458,"Ġbijnieren":10459,"Ġepitheelcellen":10460,"Ġconc":10461,"ifen":10462,"Ġtevens":10463,"Ġcombineren":10464,"Ġhanden":10465,"verwerking":10466,"VALVAL":10467,"ruimte":10468,"Ġsal":10469,"ismen":10470,"Ġdefecten":10471,"medium":10472,"Ġfibroblasten":10473,"Fe":10474,"ĠDES":10475,"aalden":10476,"Ġkeel":10477,"Als":10478,"akom":10479,"Ġmiljoen":10480,"Ġstra":10481,"urese":10482,"400":10483,"Ġcentrum":10484,"pas":10485,"ocortic":10486,"Natrium":10487,"etje":10488,"Ġvragenlijst":10489,"Ġsystematisch":10490,"breuken":10491,"oncentr":10492,"Ġevalueerden":10493,"Ġintermitterende":10494,"Ġbesloten":10495,"Ġgetrokken":10496,"Ġald":10497,"Ġbijdraagt":10498,"Ġdiscussie":10499,"ĠMIC":10500,"Ġamiodaron":10501,"stro":10502,"cellulair":10503,"Ġerfelijke":10504,"neemt":10505,"Ġaanb":10506,"DO":10507,"Ġperiod":10508,"meel":10509,"CONTRAST":10510,"Ġretinale":10511,"teren":10512,"Ġkatalys":10513,"fet":10514,"ĠSm":10515,"Ġmiddels":10516,"ario":10517,"Ġses":10518,"activer":10519,"inet":10520,"itr":10521,"Ġkleplijden":10522,"ĠNM":10523,"Ġpathogene":10524,"Ġfung":10525,"Ġbevelen":10526,"ĠStabiele":10527,"vasculair":10528,"Ġproberen":10529,"Ġ#,#":10530,"Neut":10531,"Ġkristall":10532,"Ġcytokines":10533,"Ġham":10534,"Ġauton":10535,"biologie":10536,"Indicatie":10537,"Ġverworven":10538,"dib":10539,"ĠHeparin":10540,"Ġcaspase":10541,"Ġput":10542,"Ġmisschien":10543,"apine":10544,"Ġthyro":10545,"Ġovereenkomen":10546,"Ġlitteken":10547,"phone":10548,"Ġhematopo":10549,"Ġschrijven":10550,"Ġverzamelen":10551,"beheer":10552,"Ġpomp":10553,"spreking":10554,"potentieel":10555,"Ġstralings":10556,"ĠStress":10557,"ĠMMP":10558,"Ġwoon":10559,"Ġtelefonisch":10560,"Ġondoorzicht":10561,"Ġstopgezet":10562,"iers":10563,"ophila":10564,"Ġgeadviseerd":10565,"ĠLymf":10566,"Ġvaardigheden":10567,"Ġschadelijke":10568,"ablatie":10569,"Ġbewust":10570,"Ġtoxische":10571,"Ġpersoonlijk":10572,"Ġidentiek":10573,"Ġproton":10574,"Ġ105":10575,"ITAL":10576,"traat":10577,"Ġvirul":10578,"ike":10579,"Ġarteri":10580,"Ġintestinale":10581,"ĠMP":10582,"ĠSA":10583,"Ġinduceerde":10584,"Ġgb":10585,"iso":10586,"Ġplacenta":10587,"Ġbekijken":10588,"Ġevidence":10589,"Hoofd":10590,"astrische":10591,"Ġhypog":10592,"Ġsuperior":10593,"Ġcolitis":10594,"delaar":10595,"gekeur":10596,"Ġgevraagd":10597,"Ġimmuunsysteem":10598,"Ġtol":10599,"Ġkruk":10600,"atose":10601,"akomelingen":10602,"Ġacties":10603,"âĢĿ":10604,"Ġmeis":10605,"Ġneurode":10606,"Ġ2000":10607,"Ġcum":10608,"Ġyo":10609,"Hb":10610,"Ġovervloed":10611,"Ġgedocumenteerd":10612,"Ġsuiker":10613,"ĠLev":10614,"iratie":10615,"eper":10616,"houdt":10617,"ĠSignific":10618,"Ġost":10619,"Ġmedicamente":10620,"Ġpatint":10621,"Ġbood":10622,"Ġnavel":10623,"redi":10624,"ĠData":10625,"apopt":10626,"Ġreumat":10627,"ĠLABS":10628,"ĠOns":10629,"oxyl":10630,"Ġsectie":10631,"aatst":10632,"Ġflav":10633,"Ġsequencing":10634,"Ġhypok":10635,"yps":10636,"ĠVerwer":10637,"ĠAmbulatory":10638,"Ġrebound":10639,"uspen":10640,"formul":10641,"LVEF":10642,"Ġsimulaties":10643,"amethason":10644,"menteerd":10645,"Ġeventueel":10646,"ĠMM":10647,"ĠLun":10648,"Ġberekenen":10649,"ĠIU":10650,"Ġstierf":10651,"Ġontstaat":10652,"ĠWarm":10653,"ransport":10654,"stests":10655,"Ġingu":10656,".(":10657,"zym":10658,"Ġnl":10659,"bev":10660,"Ġopkomende":10661,"Ġpublic":10662,"OF":10663,"Ġmonoklonale":10664,"Ġtrad":10665,"odu":10666,"ĠConditie":10667,"Ġpijnst":10668,"Ġdwars":10669,"Ġascendens":10670,"Ġmidline":10671,"Ġopio":10672,"Ġdosisafhankelijke":10673,"ĠSubst":10674,"Ġspoor":10675,"ĠKen":10676,"gangen":10677,"inase":10678,"ximal":10679,"Ġchemot":10680,"Ġgewoonlijk":10681,"Ġubi":10682,"ĠRen":10683,"Ġback":10684,"Ġdemp":10685,"Ġslang":10686,"assays":10687,"wijf":10688,"dec":10689,"Ġposition":10690,"Ġgroeien":10691,"acility":10692,"Ġpren":10693,"ĠControl":10694,"Ġtwe":10695,"ĠRespiratory":10696,"ĠAllerg":10697,"Ġtoestemming":10698,"onzuur":10699,"oeps":10700,"lay":10701,"Ġgeconserveerde":10702,"leren":10703,"ositol":10704,"lasten":10705,"oppervlakte":10706,"Ġschapen":10707,"Ġcytoplasma":10708,"Ġapril":10709,"iepen":10710,"ĠLaatste":10711,"Ġrespiratoire":10712,"Ġbur":10713,"ĠOnderzoekdatum":10714,"Ġgemuteerde":10715,"ĠEÃ©n":10716,"Ġmicrotub":10717,"Ġproduceert":10718,"Ġmonocyten":10719,"Ġvest":10720,"waardige":10721,"Ġgr":10722,"aliteiten":10723,"nog":10724,"Ġverslechtering":10725,"Ġfoetus":10726,"Ġfemur":10727,"huismedicatie":10728,"antia":10729,"Ġvena":10730,"coÃ«fficiÃ«nt":10731,"hout":10732,"ĠVCI":10733,"Ġrisk":10734,"ythm":10735,"Bas":10736,"ĠMolecular":10737,"remming":10738,"hersenen":10739,"iro":10740,"Ġbilater":10741,"Ġverloren":10742,"Ġ2009":10743,"ĠTran":10744,"opre":10745,"molecuul":10746,"ĠenquÃª":10747,"vascular":10748,"loste":10749,"Ġafwijkende":10750,"Ġoptimaal":10751,"gorde":10752,"kkoord":10753,"Ġfout":10754,"Ġdaags":10755,"Ġmassaspectrometrie":10756,"ler":10757,"ĠDa":10758,"ĠgeoriÃ«n":10759,"Ġgraft":10760,"Ġnierziekte":10761,"ĠgradiÃ«nt":10762,"mpl":10763,"Ġarte":10764,"vit":10765,"Ġcorrect":10766,"Ġamb":10767,"Ġhierboven":10768,"Ġcoronairen":10769,"Ġinstellingen":10770,"Ġmas":10771,"Ġfracturen":10772,"Ġobject":10773,"Ġcoronale":10774,"Ġcursus":10775,"Ġlangzame":10776,"Ġsyndro":10777,"\".":10778,"omorf":10779,"ĠTr":10780,"Ġtoeneemt":10781,"Ġhex":10782,"ĠResearch":10783,"SG":10784,"antwoord":10785,"ĠBewustzijnsniveau":10786,"ĠPrim":10787,"Ġana":10788,"Ġwoorden":10789,"DG":10790,"ĠGrote":10791,"abdominale":10792,"ĠBIL":10793,"junct":10794,"antigenen":10795,"Ġdissoc":10796,"Ġapothe":10797,"Ġvolgorde":10798,"Ġstaken":10799,"Ġabsolute":10800,"Ġuniek":10801,"otomy":10802,"Ġosc":10803,"Ġtim":10804,"Ġboezem":10805,"Ġgespeci":10806,"Ġsilhouet":10807,"trop":10808,"Ġkindertijd":10809,"zyg":10810,"Ġrook":10811,"ĠCVD":10812,"Ġextub":10813,"elektro":10814,"Ġvisueel":10815,"Roken":10816,"Ġadaptieve":10817,"Ġconsensus":10818,"ysaccharide":10819,"Ġtransf":10820,"Congenitale":10821,"Ġknobbeltjes":10822,"prestaties":10823,"geneeskunde":10824,"ferentieel":10825,"Ġpreventieve":10826,"ĠLeft":10827,"vormende":10828,"Ġverontreinig":10829,"mcg":10830,"ĠDist":10831,"Ġvlees":10832,"RADS":10833,"Ġweke":10834,"Ġdraagt":10835,"Ġhypertensieve":10836,"Ġlinkerboven":10837,"ĠNote":10838,"ĠBo":10839,"Ġafst":10840,"Ġlineair":10841,"tijden":10842,"Ġnadelige":10843,"Ġhemodynamische":10844,"ĠAs":10845,"ĠHuis":10846,"Ġonth":10847,"Ġcoherent":10848,"ateuze":10849,"Ġlaagste":10850,"olic":10851,"lijft":10852,"Ġcytoplasmatische":10853,"Ġkinetische":10854,"Ġparen":10855,"Doctor":10856,"ĠEuropese":10857,"mann":10858,"schijnlijke":10859,"spercentages":10860,"ĠMen":10861,"fe":10862,"Ġrapporteerden":10863,"bekend":10864,"Ġspraak":10865,"streng":10866,"Ġanalytische":10867,"Ġdominant":10868,"Ġgeble":10869,"2009":10870,"ved":10871,"profiel":10872,"iceren":10873,"Ġfurosemide":10874,"Ġmaternale":10875,"Ġdeels":10876,"Ġafgeb":10877,"Ġfamiliegeschiedenis":10878,"insufficientie":10879,"stoestand":10880,"Ġwijdverspre":10881,"Ġgevalideerd":10882,"ĠSuccesvolle":10883,"ĠParkinson":10884,"Ġfasc":10885,"animatie":10886,"ofageale":10887,"Ġjuli":10888,"Ġovermatige":10889,"iatief":10890,"Ġtrim":10891,"elz":10892,"ĠHoe":10893,"Ġammon":10894,"ettingreactie":10895,"verdi":10896,"Ġregime":10897,"pyr":10898,"ady":10899,"Ġtoestanden":10900,"ĠMut":10901,"ĠEGFR":10902,"Ġslank":10903,"ĠNeemt":10904,"ĠCMV":10905,"Ġparoxysm":10906,"uls":10907,"Ġdrukken":10908,"Ġfamilies":10909,"volge":10910,"Ġrot":10911,"HE":10912,"Ã¯s":10913,"send":10914,"orderline":10915,"Ġanatomie":10916,"Ġspor":10917,"čĠ":10918,"auge":10919,"valente":10920,"Ġliet":10921,"Ġvoorbeeld":10922,"Ġontlasting":10923,"Ġlevering":10924,"ĠCTAB":10925,"beleid":10926,"Ġbp":10927,"Ġzak":10928,"goritmen":10929,"normale":10930,"CoV":10931,"Hem":10932,"ĠES":10933,"GG":10934,"centrum":10935,"Ġ[(**":10936,"lichting":10937,"Ġfyt":10938,"Ġtelefoon":10939,"Ġhartziekte":10940,"Ġdelta":10941,"vents":10942,"aamd":10943,"Ġverdoving":10944,"Ġherkenning":10945,"erum":10946,"otorische":10947,"brile":10948,"ĠCreatinine":10949,"Ġcomplete":10950,"anties":10951,"pi":10952,"ĠSI":10953,"roei":10954,"Ġgoedgekeur":10955,"maak":10956,"hans":10957,"Ġtandheelkundige":10958,"instr":10959,"ochrom":10960,"Ġfixatie":10961,"entriculaire":10962,"Ġidentiteit":10963,"Ġstamcel":10964,"ĠBacter":10965,"Ġloci":10966,"Ġpig":10967,"Ġtro":10968,"pathische":10969,"ochemische":10970,"Ġregelen":10971,"vormingen":10972,"Ġaanvaard":10973,"ican":10974,"ĠVAD":10975,"Ġgron":10976,"unit":10977,"klasse":10978,"emde":10979,"osering":10980,"Ġvector":10981,"ĠcommerciÃ«le":10982,"ĠNational":10983,"gu":10984,"Ġverwijding":10985,"Ġeukary":10986,"bumin":10987,"Ġterm":10988,"unct":10989,"absorptie":10990,"ibele":10991,"aldehyde":10992,"ailure":10993,"Ġnul":10994,"HHHH":10995,"Ġmethodologie":10996,"300":10997,"sluiting":10998,"adigma":10999,"streeks":11000,"Ġantib":11001,"Ġthi":11002,"afname":11003,"ston":11004,"Ġnaarmate":11005,"mogelijk":11006,"Ġsamenwerking":11007,"ellow":11008,"ĠCoron":11009,"Ã«in":11010,"Ġtranslocatie":11011,"Ġcardiopulmon":11012,"Ġmoeite":11013,"Ġga":11014,"ĠgeÃ«xtraheerd":11015,"ĠTromb":11016,"Ġherp":11017,"persoon":11018,"Ġletsels":11019,"rijf":11020,"diensten":11021,"Ġaantallen":11022,"Î³":11023,"idisciplin":11024,"ectatief":11025,"ivaat":11026,"ĠReact":11027,"Ġcaud":11028,"Ritme":11029,"Ġasymmetrische":11030,"Ġverzoek":11031,"stral":11032,"ikelfunctie":11033,"Ġzichtbare":11034,"ikettering":11035,"stil":11036,"Ġspoel":11037,"Ġbiosynthese":11038,"gl":11039,"eutische":11040,"Ġkunstmatige":11041,"gekoppelde":11042,"geerde":11043,"Ġanterieure":11044,"ĠbÃ¨t":11045,"ĠACS":11046,"Ġpassende":11047,"Ġsilic":11048,"ĠLymph":11049,"Ġfragmenten":11050,"fosfory":11051,"eerbaarheid":11052,"atic":11053,"dagen":11054,"Ġdiafrag":11055,"Ġverhogingen":11056,"Ġhx":11057,"Ġevolutionaire":11058,"ĠRicht":11059,"aarde":11060,"Ġverduidelijken":11061,"Ġlading":11062,"lassificeerd":11063,"misch":11064,"ileren":11065,"Ġregurgitatie":11066,"Ġoverlevings":11067,")).":11068,"Ġlinkerkant":11069,"ĠVerwervings":11070,"Ġplaveisel":11071,"Ġcomput":11072,"ĠZeer":11073,"ffect":11074,"igratie":11075,"hemat":11076,"Ġprojectie":11077,"Ġademgeruis":11078,"ivirale":11079,"Ġemissie":11080,"Ġziekteverwek":11081,"Ġdoet":11082,"formine":11083,"Ġritmestoornissen":11084,"kom":11085,"hod":11086,"ĠVAP":11087,"ĠKnown":11088,"raine":11089,"eps":11090,"Ġshunt":11091,"Ġsubcutane":11092,"Ġwandonregelmatigheden":11093,"Ġkwaadaardig":11094,"Ġsac":11095,"opte":11096,"Ġepit":11097,"Ġoverb":11098,"Ġachterste":11099,"Ġsuggereerde":11100,"ĠHelder":11101,"ĠGaat":11102,"Ġzorgverleners":11103,"Ġerytrocyten":11104,"ĠClear":11105,"Ġrechtstreeks":11106,"ijfer":11107,"Tele":11108,"onafhankelijke":11109,"Ġfibr":11110,"Ġtijds":11111,"ĠMr":11112,"transcriptie":11113,"ĠSocial":11114,"Ġ-((()":11115,"Ġoverlijden":11116,"oston":11117,"uurde":11118,"Mon":11119,"Ġhead":11120,"Ġverniet":11121,"ĠCHF":11122,"Ġtrach":11123,"Ġsplen":11124,"heers":11125,"Ġgebleken":11126,"ĠLH":11127,"alige":11128,"patiÃ«nt":11129,"Ġneutrale":11130,"ĠgeÃ¯mp":11131,"ete":11132,"Abd":11133,"ĠGeneral":11134,"Ġfractuur":11135,"iatieve":11136,"]):":11137,"Ġbelast":11138,"uurs":11139,"Ġvoorbehandeling":11140,"dubb":11141,"acetaat":11142,"Ġ->":11143,"ijft":11144,"Cardiomyopathie":11145,"Ġvrijwilligers":11146,"Pacemaker":11147,"ĠSE":11148,"Ġtong":11149,"Ġsimulatie":11150,"bindend":11151,"Ġhi":11152,"ĠOrale":11153,"Ġgenaamd":11154,"Ġnetvlies":11155,"Ġzwangere":11156,"Ġvaginale":11157,"aringen":11158,"Ġ102":11159,"Ġclusters":11160,"Ġfo":11161,"Ġoscill":11162,"Ġlymfeklieren":11163,"Behandel":11164,"Ġintram":11165,"Ġdyspneu":11166,"Ġtabak":11167,"Ġpartner":11168,"Ġnakomelingen":11169,"Ġinterferon":11170,"Ġcongestie":11171,"temin":11172,"ĠChirurgische":11173,"Ġapoptotische":11174,"ograph":11175,"ĠLang":11176,"depen":11177,"ober":11178,"Ġtuberculose":11179,"osus":11180,"ĠBuik":11181,"Ġtun":11182,"Ġadenocarcinoom":11183,"erc":11184,"ization":11185,"Ġdriedimensionale":11186,"ĠACE":11187,"Ġindirecte":11188,"Ġseksueel":11189,"werkers":11190,"proteÃ¯ne":11191,"ĠSL":11192,"heet":11193,"moord":11194,"Ġvacu":11195,"ĠNon":11196,"Ġtransform":11197,"ĠBre":11198,"Ġnatuurlijk":11199,"Ġdurende":11200,"elektronen":11201,"dings":11202,"Ġtevreden":11203,"Ġtekorten":11204,"oename":11205,"acyl":11206,"Ġaccessoire":11207,"ĠHPV":11208,"ocytaire":11209,"Ġstern":11210,"Ġsomatische":11211,"Ġspannings":11212,"iral":11213,"Ġhouding":11214,"afe":11215,"Ġ()))":11216,"Ġcarotis":11217,"miner":11218,"Ġbovenstaande":11219,"ressing":11220,"Ġhartfrequentie":11221,"Ġbestudeerde":11222,"ĠmyeloÃ¯de":11223,"Ġgekomen":11224,"Ġ06":11225,"Ġoptimaliseren":11226,"Ġverstrekken":11227,"Ġie":11228,"Ġvergelijkingen":11229,"Ġinstantie":11230,"Ġbesteed":11231,"tet":11232,"Ġbellen":11233,"ocyst":11234,"Ġgebleven":11235,"helft":11236,"Ġbezig":11237,"ationaire":11238,"olonie":11239,"ĠMEDICAL":11240,"Ġrisicofactor":11241,"Ġverwer":11242,"Ġgenezing":11243,"ĠZes":11244,"spraken":11245,"Ġaangetast":11246,"Ġcorpus":11247,"icon":11248,"Ġwaarom":11249,"Ġsterf":11250,"ocel":11251,"demie":11252,"ageert":11253,"Ġpres":11254,"Ġnormal":11255,"image":11256,"Ġpad":11257,"trekking":11258,"ĠFacility":11259,"otte":11260,"APT":11261,"ners":11262,"Ġerkend":11263,"Ontslag":11264,"bescher":11265,"Ġintraper":11266,"eng":11267,"Ġdrinken":11268,"Ġverbeteringen":11269,"Ġmyocardiale":11270,"ĠRos":11271,"maanden":11272,"Ġhomogene":11273,"-<":11274,"Ġparac":11275,"veerd":11276,"ĠSu":11277,"praktijk":11278,"Ġgeklo":11279,"Ġreflex":11280,"ĠPNA":11281,"ĠSounds":11282,"duit":11283,"ĠLasix":11284,"Ġdecember":11285,"umin":11286,"ĠAlgemene":11287,"ASON":11288,"Ġerytheem":11289,"ĠIS":11290,"Ġervaringen":11291,"ruit":11292,"Ġgeslachten":11293,"ĠAction":11294,"nings":11295,"ĠHead":11296,"ĠcocaÃ¯ne":11297,"Ġopbrengst":11298,"Ġgewrichts":11299,"Ġschattingen":11300,"Ġbind":11301,"EGEGEGEGEGEGEGEG":11302,"ingenomen":11303,"aster":11304,"sief":11305,"Ġpremat":11306,"onucleaire":11307,"ĠEOMI":11308,"agland":11309,"Ġveroorzaakten":11310,"Spec":11311,"Ġverschilt":11312,"iak":11313,"draagt":11314,"assemblage":11315,"Ġperspectief":11316,"obstructie":11317,"Ġschoon":11318,"Ġgelijkenis":11319,"ĠTotBili":11320,"Ġju":11321,"Ġverplaat":11322,"Ġanicteric":11323,"#)":11324,"anding":11325,"Ġvrijk":11326,"gereg":11327,"osomaal":11328,"Ġlinkernier":11329,"Ġnitro":11330,"umatische":11331,"Ġubiquit":11332,"Ġbelemm":11333,"Twee":11334,"Ġepidermale":11335,"markers":11336,"vic":11337,"Ġvancomycine":11338,"RH":11339,"ature":11340,"rust":11341,"Ġgeblokkeerd":11342,"Ġkritisch":11343,"Ġbinnenste":11344,"Ġext":11345,"ocy":11346,"eep":11347,"Ġpg":11348,"Ġtroponine":11349,"smetting":11350,"ĠÎ¼g":11351,"aminen":11352,"morf":11353,"Ġafwijkend":11354,"ĠLDH":11355,"bese":11356,"Ġpm":11357,"Ġvlucht":11358,"Ġdel":11359,"red":11360,"Ġgeclassificeerd":11361,"kleur":11362,"Ġprofylaxe":11363,"rec":11364,"Ġfrequenties":11365,"Ġpaden":11366,"ĠPe":11367,"spatronen":11368,"monoxide":11369,"Ġscherp":11370,"ĠEerdere":11371,"igd":11372,"Ġcerebellaire":11373,"zige":11374,"Ã¯den":11375,"umber":11376,"Ġfraction":11377,"Ġpac":11378,"INDINGEN":11379,"ferische":11380,"elke":11381,"cule":11382,"Ġminuut":11383,"Ġnationale":11384,"Ġdiepte":11385,"ĠVal":11386,"ĠâĢĵ":11387,"ĠAllergies":11388,"Ġveelbelovend":11389,"Ġakkoord":11390,"membranen":11391,"Ġmodificatie":11392,"weten":11393,"Ġrijk":11394,"Ġonbehandelde":11395,"Ġaxillaire":11396,"Îº":11397,"ĠElke":11398,"Ġdifferentieel":11399,"KA":11400,"uccin":11401,"econ":11402,"wal":11403,"Ġreactiviteit":11404,"ĠHB":11405,"Ġlateraal":11406,"Ġhemodi":11407,"speriode":11408,"Ġrit":11409,"Ġfibrill":11410,"verwijdering":11411,"hyd":11412,"epten":11413,"afspraak":11414,"lys":11415,"ĠImaging":11416,"ĠmV":11417,"Ġbundel":11418,"ĠNet":11419,"Ġgroene":11420,"Ġaantekeningen":11421,"Ġendocarditis":11422,"Ġsamengestelde":11423,"Ġspermat":11424,"Ġhuiduitslag":11425,"tak":11426,"erisatie":11427,"braken":11428,"ofarynx":11429,"Ġoes":11430,"Ġgetra":11431,"Ġlymfklieren":11432,"lineaire":11433,"Echocardi":11434,":\\":11435,"sonde":11436,"Ġcapillaire":11437,"Ġwerknemers":11438,"Hij":11439,"Ġfila":11440,"inductie":11441,"ĠGram":11442,"dependent":11443,"kappa":11444,"Ġgestandaard":11445,"oraal":11446,"eeeeeeee":11447,"heugen":11448,"ocation":11449,"orbide":11450,"isende":11451,"Ġlot":11452,"Ġondoorzichtigheid":11453,"lion":11454,"ogroep":11455,"Ġlocus":11456,"ĠAlkPhos":11457,"ĠDifferent":11458,"implantatie":11459,"eigenschappen":11460,"Ġkiem":11461,"ges":11462,"Ġafwachting":11463,"ĠChronische":11464,"Ġtekst":11465,"Ġexpress":11466,"varianten":11467,"nal":11468,"Ġvoorbeelden":11469,"Bi":11470,"acry":11471,"daad":11472,"Ġverschijnselen":11473,"Ġerger":11474,"Ġaantonen":11475,"Ġimmunore":11476,"Ġfoll":11477,"Ġactivity":11478,"VL":11479,"Ġvetzuur":11480,"ĠTAVI":11481,"Ġechocardiografie":11482,"Ġhydrofobe":11483,"Ġgevorderde":11484,"TEIT":11485,"tetra":11486,"Ġvergemakkelijkt":11487,"Ġbesluitvorming":11488,"Ġ104":11489,"contra":11490,"gestimuleerde":11491,"uties":11492,"ĠCCU":11493,"klepafwijking":11494,"aarten":11495,"ostomy":11496,"ĠMoleculaire":11497,"Ġwervels":11498,"Ġosm":11499,":\"":11500,"Ġfrequent":11501,"ĠgeÃ¯dentificeerde":11502,"herente":11503,"ĠGed":11504,"Ġconclusies":11505,"ymp":11506,"aceae":11507,"Ġvoorwaarden":11508,"Ġuitput":11509,"Ġretrospectieve":11510,"Ġchloor":11511,"Ġfenotypische":11512,"Ġoperaties":11513,"Ġaritmie":11514,"ĠStart":11515,"Ġweder":11516,"Ġbloedverlies":11517,"woorden":11518,"Ġblast":11519,"Ġfamilieleden":11520,"ĠVitamine":11521,"Ġberoeps":11522,"mark":11523,"behandelingen":11524,"Ġorb":11525,"iqu":11526,"ovende":11527,"Ġpijnlijke":11528,"GY":11529,"enario":11530,"Ġluc":11531,"Ġpool":11532,"lachten":11533,"Ġfun":11534,"Ġnanoparticles":11535,"tube":11536,"Ġdecennia":11537,"ĠResult":11538,"Ġbloedt":11539,"lau":11540,"Ġgrens":11541,"Ġwelzijn":11542,"Ġri":11543,"Ġgedacht":11544,"Ġklier":11545,"Ġartefact":11546,"omere":11547,"natale":11548,"ĠBMI":11549,"Ġherschik":11550,"Ġgelabeld":11551,"HB":11552,"Ġexcisie":11553,"Ã«ro":11554,"Ġopacificatie":11555,"achter":11556,"ĠGLUC":11557,"ĠWestern":11558,"oes":11559,"onderd":11560,"dtronic":11561,"Ġstenen":11562,"160":11563,"Ġpseudo":11564,"acties":11565,"Ġklassen":11566,"gradi":11567,"ĠStre":11568,"Ġzegt":11569,"Ġfeedback":11570,"Ġextracten":11571,"erobe":11572,"Ġped":11573,"Ġdox":11574,"Ġwh":11575,"Ġsi":11576,"emaal":11577,"ĠNoord":11578,"Ġelektronenmicroscopie":11579,"effusies":11580,"ĠSNP":11581,"divid":11582,"Ġholter":11583,"pakt":11584,"ellers":11585,"Ġview":11586,"ĠUl":11587,"Ġgekwant":11588,"CRE":11589,"PG":11590,"Ġtakken":11591,"Ġverzwakt":11592,"Ġgewone":11593,"ĠSoft":11594,"Ġventrale":11595,"Ġtet":11596,"pon":11597,"Ġok":11598,"Ġisot":11599,"Ġgenotype":11600,"teerden":11601,"Ġgrijze":11602,"Ġonderdrukte":11603,"Ġspectroscopie":11604,"ivalen":11605,"hydraat":11606,"monella":11607,"ibiotica":11608,"osept":11609,"Ġpercept":11610,"figuur":11611,"MDA":11612,"ronch":11613,"Ġbemiddel":11614,"ylzuur":11615,"statische":11616,"ĠESR":11617,"ĠZorg":11618,"Ġcolorectale":11619,"Ġmanifestaties":11620,"graat":11621,"hyse":11622,"ĠCHest":11623,"Ġmicron":11624,"gradatie":11625,"Ġpa":11626,"Ġseconden":11627,"erieur":11628,"Ġaus":11629,"Ġronde":11630,"Ġopaciteiten":11631,"ĠEFO":11632,"omal":11633,"Ġgemeenschappen":11634,"tine":11635,"Ġic":11636,"gkin":11637,"rex":11638,"asal":11639,"Ġblokkeren":11640,"Ġgezin":11641,"Ġkippen":11642,"erbare":11643,"Ġtricuspide":11644,"bindingen":11645,"ĠIVC":11646,"rengt":11647,"diameter":11648,"CVD":11649,"Ġgraf":11650,"leur":11651,"ĠDiff":11652,"Ġ170":11653,"jab":11654,"Ġaanmerking":11655,"geleiding":11656,"epro":11657,"neumonie":11658,"Ġbiofil":11659,"ĠAdmit":11660,"ZS":11661,"Ġ().":11662,"Ġeventuele":11663,"ĠSM":11664,"oeling":11665,"Ã¯nezuur":11666,"TT":11667,"ĠBleed":11668,"Ġsport":11669,"Ġfilms":11670,"Ġonderwerpen":11671,"enchymale":11672,"iation":11673,"ijfheid":11674,"Ġimmunoglobuline":11675,"ĠGra":11676,"Ġzoogdier":11677,"Ġarbe":11678,"Sch":11679,"dicap":11680,"Ġtestosteron":11681,"Ġconservatief":11682,"voorsp":11683,"Ġfistel":11684,"Ġimmunode":11685,"Ġ**]":11686,"ascade":11687,"UB":11688,"Ġvalt":11689,"serie":11690,"idazol":11691,"Ġvertrouwen":11692,"Ġxen":11693,"ĠNSTEMI":11694,"Ġuitdrukken":11695,"enzymen":11696,"ĠNYHA":11697,"ĠNaar":11698,"Ġslijmvlies":11699,"Ġpneumon":11700,"ĠGoed":11701,"ibiliteit":11702,"stuk":11703,"loÃ¯de":11704,"ĠPER":11705,"anamnese":11706,"Hep":11707,"ĠVand":11708,"ĠIdentific":11709,"Ġcompens":11710,"avel":11711,"Ġepigen":11712,"romus":11713,"Ġverwaar":11714,"Hartklepafwijking":11715,"ĠFull":11716,"Ġmucosale":11717,"Ġantine":11718,"aseerd":11719,"Ġschak":11720,"Ġcellijn":11721,"Ġsera":11722,"2008":11723,"zigen":11724,"ĠMn":11725,"ACE":11726,"anteerd":11727,"Ġoverwegingen":11728,"Ġgeautomat":11729,"insuline":11730,"Ġglas":11731,"Ġfab":11732,"Ġreageerden":11733,"lyceriden":11734,"angschik":11735,"agd":11736,"bpm":11737,"posit":11738,"gehouden":11739,"eend":11740,"spectra":11741,"ĠStudies":11742,"Ġklimaat":11743,"CoA":11744,"zwollen":11745,"Ġkarakteristieke":11746,"Ġ2008":11747,"Ġleverziekte":11748,"ylact":11749,"Ġvarieert":11750,"emic":11751,"Ġweergegeven":11752,"Ġpup":11753,"ituatie":11754,"Ġmultiple":11755,"ĠCoronair":11756,"Ġkwantum":11757,"Ġonthult":11758,"Ġriv":11759,"ĠGa":11760,"Ġpatients":11761,"RO":11762,"ĠDus":11763,"ikt":11764,"Ġinfiltratie":11765,"Ġsymptoom":11766,"ĠPEEP":11767,"Ġachteruitgang":11768,"osol":11769,"ĠMyc":11770,"angio":11771,"Ġsnelheids":11772,"Ġstrept":11773,"Ġbegint":11774,"Ġtox":11775,"ĠDeel":11776,"fosfat":11777,"Ġberekeningen":11778,"Ġplasmide":11779,"vatslijden":11780,"orose":11781,"ificeerde":11782,"Ġbiologie":11783,"ĠCARDI":11784,"Ġcoll":11785,"ĠPen":11786,"ĠIgM":11787,"Ġkwalitatieve":11788,"naag":11789,"omyel":11790,"Ġaandeel":11791,"ĠTM":11792,"ĠTabletPO":11793,"Ġhandel":11794,"percentages":11795,"xt":11796,"ĠMedicijnen":11797,"Ġejectiefractie":11798,"ofyl":11799,"Ġmisbruik":11800,"abiel":11801,"Ġverhinder":11802,"umarol":11803,"Ġbedre":11804,"Ġschimmels":11805,"Ġvlekken":11806,"ĠHierin":11807,"pr":11808,"Ġvergelijkende":11809,"ley":11810,"ĠPseud":11811,"ometer":11812,"Ġfag":11813,"ĠIP":11814,"geluid":11815,"Ġcancer":11816,"vleesklier":11817,"Ġhiston":11818,"ĠTA":11819,"Ġgalwegen":11820,"ĠFYROM":11821,"Ġeerstel":11822,"ozyg":11823,"Ġbuitenste":11824,"ĠNR":11825,"Ġ103":11826,"Ġinstabiliteit":11827,"ĠAx":11828,"Ġmislu":11829,"Ġbevestigden":11830,"Ġlinkerzijde":11831,"witch":11832,"omyces":11833,"Ġwijziging":11834,"ĠÂµmol":11835,"ĠBLE":11836,"Ġgebeld":11837,"Ġbovengenoemde":11838,"Ġidi":11839,"Ġveilige":11840,"Ġrelevantie":11841,"Ġherkennen":11842,"Ġmolecuulgewicht":11843,"Ġzelfmoord":11844,"aneur":11845,"zoals":11846,"Ġkwantitatief":11847,"Sc":11848,"ĠREASON":11849,"Ġafscheidingen":11850,"diale":11851,"hn":11852,"mend":11853,"Ġsulci":11854,"Ġpotentie":11855,"ained":11856,"wekt":11857,"ĠVES":11858,"derdaad":11859,"DF":11860,"ĠSKIN":11861,"ĠDo":11862,"polymerase":11863,"apro":11864,"icide":11865,"jpg":11866,"2021":11867,"ĠPerr":11868,"ĠPPI":11869,"ratio":11870,"Pulm":11871,"Ġpresenteerde":11872,"Ġbegeleiding":11873,"VER":11874,"Ġdendritische":11875,"Ġbradycardie":11876,"glob":11877,"ĠRN":11878,"Ġimplantaten":11879,"usion":11880,"asische":11881,"Ġangiotensine":11882,"Ġmerk":11883,"mented":11884,"Ġimmunosuppressie":11885,"iprof":11886,"voeging":11887,"Ġchor":11888,"Ġinstrumenten":11889,"ademing":11890,"Ġzwarte":11891,"erecept":11892,"Ġrotatie":11893,"Ġheterozyg":11894,"Ġzenuwen":11895,"delinge":11896,"Ġextract":11897,"Ġtransfer":11898,"replicatie":11899,"dwz":11900,"Ġscintig":11901,"Ġvoer":11902,"Ġgeper":11903,"sequent":11904,"Ġsmal":11905,"bevel":11906,"Ġlan":11907,"Bekend":11908,"uim":11909,"CHO":11910,"Ġobstructieve":11911,"racheale":11912,"Ġalcoholgebruik":11913,"Ġfysiek":11914,"tellectual":11915,"Ġ135":11916,"Ġonthuld":11917,"Ġvaccins":11918,"itting":11919,"cellijn":11920,"103":11921,"Ġwort":11922,"ineren":11923,"ĠBilaterale":11924,"Ġradiologie":11925,"ĠDra":11926,"ĠInit":11927,"Ġatrofie":11928,"ĠVitale":11929,"Ġplaqu":11930,"ĠTmax":11931,"ĠNA":11932,"Ġobservaties":11933,"Ġbeoordeelden":11934,"yslipidemie":11935,"cellige":11936,"Ġepilept":11937,"Ġomzetting":11938,"Gen":11939,"oxis":11940,"dehydrogenase":11941,"Ġvatbaar":11942,"Ġvogels":11943,"ĠLungs":11944,"atibel":11945,"Ġverwar":11946,"Ġvermijden":11947,"cubeerd":11948,"Ġ115":11949,"Ġasymptomatisch":11950,"Ġwerkzaam":11951,"Ġgynaec":11952,"stan":11953,"vert":11954,"Ġbesmetting":11955,"Ġaantrek":11956,"rs":11957,"Ġpathogenen":11958,"ĠCRE":11959,"foratie":11960,"proteÃ¯nen":11961,"ĠADD":11962,"Ġprogesteron":11963,"onyl":11964,"Ġbeurt":11965,"ĠSB":11966,"Ġwetenschappelijk":11967,"Ġwijzigingen":11968,"ĠDet":11969,"Ġvroegtijdige":11970,"gevende":11971,"stijl":11972,"vende":11973,"pte":11974,"osynthetische":11975,"Ġdarmgeluiden":11976,"oriseerd":11977,"Ġgeleidings":11978,"gery":11979,"Ġpercentages":11980,"Ġvoorlopige":11981,"ĠEerste":11982,"Ġventilatie":11983,"ontwerp":11984,"Ġdiuretica":11985,"KK":11986,"Ġpent":11987,"Ġselectiviteit":11988,"ORY":11989,"ĠCardioloog":11990,"Ġbetrouwbaarheidsinterval":11991,"Ġhiervoor":11992,"Ġbasislijn":11993,"bil":11994,"ĠFEN":11995,"volging":11996,"Ġverkennen":11997,"Coronairlijden":11998,"maakte":11999,"virussen":12000,"ationeel":12001,"enoco":12002,"Ġonline":12003,"ĠpariÃ«tale":12004,"ales":12005,"ck":12006,"idingen":12007,"flow":12008,"Behandelplan":12009,"Ġcann":12010,"atatie":12011,"Ġrijst":12012,"cr":12013,"Ġapicaal":12014,"kkage":12015,"Ġalpha":12016,"Ġserine":12017,"Ġepid":12018,"breed":12019,"Ġcutane":12020,"Ġatt":12021,"ĠLUNGS":12022,"lapp":12023,"Ġreageert":12024,"orptie":12025,"Ġrecidiverende":12026,"nes":12027,"Ġrugpijn":12028,"Ġvoedingsstoffen":12029,"Ġ(-)":12030,"VAS":12031,"Ġfylogenetische":12032,"uting":12033,"NN":12034,"istisch":12035,"Ġkation":12036,"Ġconfiguratie":12037,"Ġpostnatale":12038,"ĠCt":12039,"oning":12040,"Ġroutinematige":12041,"ĠcoÃ¶rdinatie":12042,"Ġdigitale":12043,"elementen":12044,"acute":12045,"Ġzijde":12046,"ĠUitgebre":12047,"Ġneuropathie":12048,"ironolacton":12049,"ĠExtended":12050,"Ġgelabelde":12051,"abap":12052,"LT":12053,"infil":12054,"ĠETT":12055,"ĠHY":12056,"seffecten":12057,"opsis":12058,"Ġbenauw":12059,"maken":12060,"array":12061,"ocus":12062,"Ġligament":12063,"Ġeiland":12064,"Ġverwant":12065,"gewrichten":12066,"Ġcontinueren":12067,"gebeurtenissen":12068,"Ġdraa":12069,"Ġtranscriptiefactor":12070,"Ġanticon":12071,"rosophila":12072,"Tc":12073,"sneden":12074,"Ġhepatocyten":12075,"ĠNog":12076,"Ġhab":12077,"idt":12078,"TropnT":12079,"ĠGLUCOSE":12080,"Ġimmunologische":12081,"Ġverstor":12082,"Ġgebruikers":12083,"Ġreplic":12084,"Ġpropofol":12085,"LET":12086,"Ġstable":12087,"ĠGTP":12088,"ebrile":12089,"aange":12090,"ĠSulf":12091,"enocoumarol":12092,"ĠSW":12093,"Ġklaring":12094,"ĠTLR":12095,"defecten":12096,"Ġtap":12097,"electie":12098,"loer":12099,"CF":12100,"ĠMultip":12101,"quin":12102,"streerd":12103,"Ġgedifferentieerde":12104,"ĠbeÃ«in":12105,"script":12106,"elings":12107,"arach":12108,"Ġantibiotic":12109,"Ġwis":12110,"inyl":12111,"Ġdiscrete":12112,"Ġgedra":12113,"Ġautofagie":12114,"ĠVas":12115,"plat":12116,"ÎºB":12117,"ĠDergelijke":12118,"patho":12119,"Ġfull":12120,"Ġbladeren":12121,"Ġ(>":12122,"Ġtom":12123,"Ġgemak":12124,"Diameter":12125,"ĠWaarschijnlijk":12126,"Ġgekwantificeerd":12127,"Ġdiurese":12128,"ĠBr":12129,"Ġimpliceert":12130,"Ġanter":12131,"Ġcomputertomografie":12132,"ĠSen":12133,"ĠStap":12134,"Ġinternationale":12135,"ĠMel":12136,"uffer":12137,"bis":12138,"Ġclassific":12139,"farine":12140,"ĠâĢĶ":12141,"ĠNormal":12142,"Ġuitlijning":12143,"Ġpijnstill":12144,"Ġreflux":12145,"Ġcorticoster":12146,"Ġsyncope":12147,"indopril":12148,"CE":12149,"ĠOnverander":12150,"ocytopenie":12151,"ocatie":12152,"Ġsituaties":12153,"AGE":12154,"ĠQPM":12155,"Ġgevoed":12156,"Ġdeelname":12157,"ĠImpression":12158,"drain":12159,"zine":12160,"hesen":12161,"vliezen":12162,"Ġ800":12163,"isa":12164,"spatroon":12165,"metastasen":12166,"Ġpolsen":12167,"Ġtumorg":12168,"Ġweerspiegelt":12169,"Ġalkalische":12170,"interventie":12171,"Ġns":12172,"Ġtraject":12173,"Guiding":12174,"Ġvoortdurende":12175,"riaal":12176,"bleem":12177,"ĠPAN":12178,"Ġhypothalamus":12179,"Ġlijst":12180,"Ġechtgen":12181,"ilt":12182,"ijen":12183,"Ġmill":12184,"udingen":12185,"isc":12186,"Ġinjecties":12187,"ules":12188,"ffusie":12189,"oners":12190,"ĠSpecial":12191,"fibrileren":12192,"Ġwanddikte":12193,"IUM":12194,"Ġhartziekten":12195,"ĠCSF":12196,"IDE":12197,"lagen":12198,"ĠSodium":12199,"Ġwork":12200,"tromb":12201,"ĠAfrik":12202,"ĠStudy":12203,"durale":12204,"chemie":12205,"Ġgezond":12206,"dieet":12207,"Ġhartinfarct":12208,"Ġhorizontale":12209,"Ġontst":12210,"Ġreageerde":12211,"Laboratorium":12212,"Ġvariantie":12213,"Ġverlenging":12214,"Ġherhalen":12215,"ĠEerder":12216,"Ġhelemaal":12217,"Ġlastname":12218,"Ġpyr":12219,"drachten":12220,"igenschappen":12221,"TM":12222,"Ġkatten":12223,"Ġgeprobeerd":12224,"/[":12225,"Ġplasmamembraan":12226,"sulin":12227,"Ġsterfgevallen":12228,"hed":12229,"oratoria":12230,"Ġclip":12231,"cancer":12232,"+]":12233,"Ġlus":12234,"Ġgetransp":12235,"Ġgar":12236,"Ġopgeloste":12237,"urc":12238,"Ġterugge":12239,"hier":12240,"ĠStable":12241,"Ġinsecten":12242,"ĠLat":12243,"Ġâī¥":12244,"Ġoplosmiddel":12245,"obacterium":12246,"ĠNew":12247,"105":12248,"Ġasymptomatische":12249,"Ġpremature":12250,"riv":12251,"merican":12252,"semble":12253,"Ġgradient":12254,"odgkin":12255,"ability":12256,"yster":12257,"ĠTEE":12258,"Ġlandbouw":12259,"wezige":12260,"Ġconstant":12261,"Ġanaly":12262,"ĠBloeddruk":12263,"RM":12264,"ĠHz":12265,"Ġderivaten":12266,"Ġverschilde":12267,"drempel":12268,"platine":12269,"ĠNeck":12270,"verbinding":12271,"Ġbedraagt":12272,"Ġaangevuld":12273,"ouders":12274,"alisering":12275,"Ġselecteren":12276,"Ġdiabet":12277,"arco":12278,"Se":12279,"Ġtiming":12280,"Ġsluiting":12281,"Ġsomat":12282,"ĠMG":12283,"ellect":12284,"gelab":12285,"etic":12286,"Ġdemping":12287,"ĠBA":12288,"ĠSVT":12289,"Ġwijzigen":12290,"HF":12291,"Ġinterageren":12292,"ĠAlleen":12293,"Ġgescre":12294,"ĠWh":12295,"ĠMit":12296,"Ġgeconstrueerd":12297,"tje":12298,"sterase":12299,"bor":12300,"subeenheid":12301,"Ġbewaking":12302,"date":12303,"oosheid":12304,"rough":12305,"Ġruis":12306,"Ġretentie":12307,"Ġzus":12308,"Ap":12309,"Ġpsor":12310,"Ġgevo":12311,"Ġvoorspelling":12312,"ĠFurosemide":12313,"pomp":12314,"ĠrRNA":12315,"ĠExamination":12316,"Ġfibrin":12317,"imen":12318,"Ġmaxillaire":12319,"Ġknaag":12320,"Ġfluorescerende":12321,"Ġalvleesklier":12322,"Ġverzwakte":12323,"ream":12324,"era":12325,"Ġchromosomale":12326,"Ġamp":12327,"accep":12328,"ĠProp":12329,"diceerd":12330,"Thuismedicatie":12331,"Ġepidemiologische":12332,"ĠgeÃ¯ncubeerd":12333,"Ġangiogenese":12334,"Or":12335,"ence":12336,"ibilisatie":12337,"ht":12338,"Ġtoegankelijk":12339,"ĠUS":12340,"Ġuitgescheiden":12341,"Ġceloppervlak":12342,"ĠScler":12343,"astolische":12344,"Atriumfibrileren":12345,"Ġoverwinnen":12346,"Ġbovendien":12347,"fibrillatie":12348,"NB":12349,"snede":12350,"klinisch":12351,"Ġfracties":12352,"Ġingebracht":12353,"ear":12354,"outine":12355,"ĠNeg":12356,"ĠBaso":12357,"ĠEM":12358,"ĠPertinente":12359,"Ġtarge":12360,"Ġprestatie":12361,"Ġpubl":12362,"othyro":12363,"(-)":12364,"ĠBio":12365,"TRACT":12366,"Ġcomfortabel":12367,"Ġredox":12368,"Ġmaligniteiten":12369,"Ġdaarbij":12370,"Ġcondition":12371,"Ġactuele":12372,"ĠBalance":12373,"Ġee":12374,"efficiÃ«ntie":12375,"ĠBelangrijk":12376,"Ġlob":12377,"droeg":12378,"ideren":12379,"Ġexogene":12380,"ocine":12381,"Ġextern":12382,"Ġantis":12383,"Ġserotonine":12384,"Ġdislocatie":12385,"Ġsteady":12386,"symptomen":12387,"Ġnauwe":12388,"ĠCell":12389,"ĠRESP":12390,"Ġnumerieke":12391,"old":12392,"tic":12393,"Im":12394,"TOR":12395,"antagonisten":12396,"geheugen":12397,"Ġdyst":12398,"Ġconsumptie":12399,"aract":12400,"Ġoedemen":12401,"LI":12402,"Ġprothese":12403,"Ġceltypen":12404,"Ġopgezwollen":12405,"Ġconstitutie":12406,"ĉč":12407,"ĠNV":12408,"itaal":12409,"Ġminimaliseren":12410,"ĠLongen":12411,"gi":12412,"Ġposities":12413,"ĠKortom":12414,"virale":12415,"gent":12416,"Ġtechnique":12417,"lec":12418,"Ġafbeeldingen":12419,"Ġrobuuste":12420,"Ġantivirale":12421,"Ġevt":12422,"uitwisseling":12423,"Ġplotselinge":12424,"Ġsynthet":12425,"ĠME":12426,"Ãī":12427,"ĠBC":12428,"Ġcasus":12429,"ĠKan":12430,"ĠDrosophila":12431,"Intellectueel":12432,"iliseren":12433,"ired":12434,"was":12435,"Ġtranscripties":12436,"elektrof":12437,"omyelitis":12438,"Ġreticulum":12439,"Ġrustig":12440,"ĠVancomycine":12441,"arning":12442,"ĠTIA":12443,"Ġparameter":12444,"plasie":12445,"ĠAFGE":12446,"ns":12447,"TNF":12448,"Ġendocriene":12449,"ĠSystem":12450,"oson":12451,"ĠPKC":12452,"agent":12453,"Ġboom":12454,"Ġsynerge":12455,"Ġradicale":12456,"Ġverticale":12457,"ĠOngeveer":12458,"kwadrant":12459,"Ġpermeabiliteit":12460,"Ġ2007":12461,"Ġbody":12462,"ĠBra":12463,"Ġmetaboliet":12464,"lid":12465,"Ġchromosomen":12466,"Ġjaarlijkse":12467,"Ġneurotransm":12468,"stren":12469,"Ġrunder":12470,"Ġzet":12471,"Ġvrien":12472,"Ġtwijf":12473,"Ġimplantaat":12474,"iac":12475,"slijm":12476,"oedeisende":12477,"planten":12478,"Ġboog":12479,"fragmenten":12480,"methy":12481,"Ġcava":12482,"Ġregulator":12483,"Ġplatform":12484,"athy":12485,"Ġeicellen":12486,"kap":12487,"Ġafzonderlijk":12488,"Ġtreatment":12489,"Ġindruk":12490,"Ġdonoren":12491,"WA":12492,"Ġcoun":12493,"uin":12494,"Ġinnov":12495,"Ġomringende":12496,"Ġwens":12497,"EPI":12498,"feren":12499,"Ġperioden":12500,"ĠCAT":12501,"Ġproximal":12502,"iazide":12503,"Ġpressure":12504,"beoor":12505,"Ġhelpt":12506,"ĠLYMP":12507,"ilatie":12508,"ulator":12509,"zak":12510,"Ġslagen":12511,"Ġtachy":12512,"ĠMaar":12513,"Ġrechternier":12514,"Ġaortaklepstenose":12515,"Ġvoorloper":12516,"reductie":12517,"Ġfron":12518,"ĠDisease":12519,"rachte":12520,"logie":12521,"acerb":12522,"verwante":12523,"Ġrobuust":12524,"tember":12525,"prim":12526,"Ġspp":12527,"wen":12528,"ĠBAT":12529,"Ġgemat":12530,"onse":12531,"ĠAsc":12532,"Ġneu":12533,"transport":12534,"Ġproduceerden":12535,"Ġpyl":12536,"ogeniciteit":12537,"PREHTX":12538,"Ġstenosen":12539,"Ġmodellering":12540,"obut":12541,"Ġbijlage":12542,"Ġkwantificering":12543,"Ġcycli":12544,"oef":12545,"Ġbezocht":12546,"toxiciteit":12547,"Gene":12548,"Ġoefening":12549,"Ġnicotine":12550,"Ġfeeds":12551,"ĠBAL":12552,"Ġgevestigde":12553,"ĠPAR":12554,"ĠIndependent":12555,"plasm":12556,"Ġlept":12557,"terminal":12558,"Tromb":12559,"illa":12560,"Ġlytische":12561,"Ġruwe":12562,"Ġopmerkelijke":12563,"Ġke":12564,"vige":12565,"ĠVEGF":12566,"Ġmobiele":12567,"Finding":12568,"Operatieverslag":12569,"Ġlongziekte":12570,"Ġmonitor":12571,"taling":12572,"Ġgewervelde":12573,"Ġterugkeer":12574,"Ġsarc":12575,"UV":12576,"Ġrandom":12577,"abole":12578,"âĢħ":12579,"Ġsteriele":12580,"ely":12581,"wijd":12582,"Ġmultidisciplin":12583,"ustus":12584,"111":12585,"otoxiciteit":12586,"Ġantrum":12587,"Ġaanbeveling":12588,"]).":12589,"calcium":12590,"Ġanion":12591,"Ġextrahepatische":12592,"ducerende":12593,"-)":12594,"UCT":12595,"ledige":12596,"Ġunit":12597,"Ġcerebell":12598,"Ġacetylcholine":12599,"Ġcoc":12600,"mities":12601,"poly":12602,"ĠlidocaÃ¯ne":12603,"Ġetn":12604,"vertra":12605,"ĠPB":12606,"rotische":12607,"ĠFer":12608,"ABSTRACT":12609,"Ġsystolisch":12610,"lationele":12611,"onc":12612,"Ġcombinaties":12613,"fron":12614,"Ġvertegenwoordig":12615,"Ġverwachting":12616,"Ġacadem":12617,"Ġontstekingsremmende":12618,"ĠTwo":12619,"Ġinte":12620,"OORDEN":12621,"ĠcTropnT":12622,"Ġnmol":12623,"ĠLa":12624,"Ġcerebro":12625,"Ġvoltooid":12626,"Ġverplaatsing":12627,"Ġstudy":12628,"Ġgeografische":12629,"zone":12630,"Lin":12631,"ĠLIMA":12632,"astinale":12633,"://":12634,"folders":12635,"ĠIntellectueel":12636,"lon":12637,"Ġaqu":12638,"abases":12639,"Ġbos":12640,"Ġglobale":12641,"iprofloxacine":12642,"Ġhetzij":12643,"inesc":12644,"Ġclinici":12645,"ofluorescentie":12646,"entwintig":12647,"Ġvoeden":12648,"doet":12649,"Ġvolum":12650,"TES":12651,"2121":12652,"ĠAFGEK":12653,"ĠSignificante":12654,"unning":12655,"link":12656,"Ġ112":12657,"Ġdeed":12658,"Ġsignaaltrans":12659,"BNP":12660,"Ġverkalkte":12661,"Ġzwaarlij":12662,"steen":12663,"ĠOpt":12664,"Ġcircu":12665,"continentie":12666,"Ġoppervlakteactieve":12667,"lamide":12668,"Ġvissen":12669,"verbruik":12670,"osan":12671,"Ġconnect":12672,"Ġlop":12673,"rays":12674,"schouder":12675,"ĠWOORDEN":12676,"Ġendothel":12677,"Ġhydr":12678,"Ġuren":12679,"Ġroodheid":12680,"Ġingedeeld":12681,"Ġregistratie":12682,"ĠVent":12683,"Ġaller":12684,"Ġfit":12685,"Bespreking":12686,"Ġbreiden":12687,"ĠProcess":12688,"Ġvoelde":12689,"Ġontwikkelt":12690,"ĠTID":12691,"Par":12692,"Ġoccip":12693,"ĠSubstance":12694,"sup":12695,"format":12696,"ĠSARS":12697,"ĠUA":12698,"Ġexon":12699,"Ġsigmoid":12700,"Ġongebruik":12701,".||":12702,"Known":12703,"Ġ109":12704,"pleegkundige":12705,"Ġrs":12706,"ministr":12707,"ĠRam":12708,"ĠgeÃ¯ndiceerd":12709,"ramine":12710,"Ġbaarmoederhals":12711,"ĠproteÃ¯nekinase":12712,"Ġoptie":12713,"Ġhemodialyse":12714,"Ġcatheter":12715,"Ġcortisol":12716,"Ġoptimalisatie":12717,"Ġopsporing":12718,"Ġwaarschijnlijkheid":12719,"ĠVO":12720,"Ġnader":12721,"Ġeetlust":12722,"Ġbroer":12723,"Nier":12724,"vember":12725,"Ġsclerotische":12726,"Ġalveolaire":12727,"Ġkwesties":12728,"digend":12729,"go":12730,"ionine":12731,"Soort":12732,"Ġbulk":12733,"Ġvoorschrift":12734,"Ġpsychische":12735,"Ġledemaat":12736,"Ġdenken":12737,"minuut":12738,"Ġabdomin":12739,"lastiek":12740,"Ġcoumadin":12741,"Ġtrends":12742,"Laatst":12743,"vement":12744,"schalige":12745,"ĠCKD":12746,"Ġverspreide":12747,"Ġenorme":12748,"ĠRCX":12749,"Ġgebruikend":12750,"Ġlute":12751,"stolerantie":12752,"reigende":12753,"aÃ¯":12754,"Ġhematoom":12755,"Ġlymfklier":12756,"grote":12757,"102":12758,"ofib":12759,"Ġresulterend":12760,"Ġecologische":12761,"voorz":12762,"domeinen":12763,"itoren":12764,"Ġsubjectieve":12765,"ĠAdem":12766,"edantie":12767,"ĠTABPO":12768,"Ġplanning":12769,"ĠRoutine":12770,"Ġwerkelijke":12771,"ĠNI":12772,"ullaire":12773,"Domin":12774,"ysis":12775,"Ġvoorbereiding":12776,"Ġgelokaliseerde":12777,"ogenen":12778,"WP":12779,"Ġfentanyl":12780,"Heeft":12781,"Ġmodific":12782,"Ġstimuleert":12783,"bundel":12784,"signalen":12785,"Ġlongvelden":12786,"Ġspij":12787,"ĠLBTB":12788,"Ġherstelde":12789,"controleerde":12790,"pine":12791,"ĠWT":12792,"Ġsuperoxide":12793,"Ġbeeldvormings":12794,"Ġgespecialiseerde":12795,"Ġoxy":12796,"stoename":12797,"Ġgering":12798,"ĠTCHNIQUE":12799,"Ġmondelinge":12800,"ĠRel":12801,"Ġbloeduit":12802,"dienings":12803,"Ġ-))":12804,"Ġparasieten":12805,"ĠMDCT":12806,"Ġweergave":12807,"Ġbeoordelingen":12808,"Ġreproductieve":12809,"abine":12810,"oping":12811,"ĠdiÃ«ten":12812,"Ġind":12813,"ĠBeg":12814,"ĠAustral":12815,"ĠamyloÃ¯de":12816,"Ġkwaliteits":12817,"Ġhardware":12818,"verzorg":12819,"Ġregist":12820,"profen":12821,"galact":12822,"delta":12823,"ĠAVR":12824,"Ġvergroting":12825,"obobobob":12826,"Ġintroduceren":12827,"ondersteuning":12828,"Ġheldere":12829,"houdingen":12830,"Ġhypodens":12831,"Ġpathofysiologie":12832,"Ger":12833,"Ġevolu":12834,"ucleaire":12835,"Ġbevolkings":12836,"berg":12837,"egen":12838,"Ġverlichting":12839,"ĠPEG":12840,"ĠNad":12841,"ates":12842,"zeen":12843,"Ġcontract":12844,"antische":12845,"Ġarmen":12846,"CRP":12847,"cursor":12848,"ĠgecoÃ¶rd":12849,"Bloeddruk":12850,"**]]":12851,"++:":12852,"Ġnov":12853,"RF":12854,"maten":12855,"ontane":12856,"ĠLever":12857,"oxetine":12858,"GI":12859,"ida":12860,"Ġwebs":12861,"ĠOxycodone":12862,"constructie":12863,"Ġintegriteit":12864,"Ġontwikkelende":12865,"amelijke":12866,"ĠSlechts":12867,"Ġintr":12868,"ĠAdmitting":12869,"Ġendoscopische":12870,"Ġaanged":12871,"Ġspoed":12872,"yclische":12873,"Ġaggregatie":12874,"Ġvoorzicht":12875,"ĠStool":12876,"VALUE":12877,"Ġfecale":12878,"ĠAcquis":12879,"Ġgemedieerde":12880,"Ġplasticiteit":12881,"Ġmicroscopie":12882,"%-":12883,"2007":12884,"ĠAanvullende":12885,"Ġprostagland":12886,"iotische":12887,"rocardi":12888,"esultaten":12889,"ograft":12890,"aryngeale":12891,"atien":12892,"Ġtrial":12893,"Ġparallelle":12894,"Ġtherap":12895,"Ġvoeten":12896,"Ġvijfde":12897,"iciden":12898,"raf":12899,"ĠNatrium":12900,"Ġonderhuid":12901,"Ġatoom":12902,"Ġpor":12903,"amens":12904,"split":12905,"omateuze":12906,"Ġopties":12907,"ext":12908,"ĠgeÃ¯mpl":12909,"Ġvirulentie":12910,"ĠCx":12911,"ĠLinkse":12912,"verla":12913,"synthase":12914,"Ġmigraine":12915,"overeen":12916,"Ġnale":12917,"head":12918,"LDL":12919,"Ġbasen":12920,"chtse":12921,"URE":12922,"Ġdetecteerbaar":12923,"liotheek":12924,"Ġcil":12925,"Ġjongere":12926,"Ġgoedgekeurd":12927,"ATION":12928,"Ġvoortvloe":12929,"Ġdatabase":12930,"Meest":12931,"Ġvoedingsmiddelen":12932,"Ġlongvolumes":12933,"Ġakoest":12934,"Ġprenatale":12935,"Ġsterftec":12936,"Ġinnemen":12937,"Ġureum":12938,"ĠBloedproducten":12939,"ouch":12940,"EX":12941,"Ġbronchiale":12942,"Fax":12943,"icaliÃ«n":12944,"ips":12945,"Ġsubeenheden":12946,"algie":12947,"loe":12948,"ĠArab":12949,"Ġchromosofie":12950,"icylzuur":12951,"ĠExtremities":12952,"Ġcholecyst":12953,"Ġkomende":12954,"Ġopening":12955,"Ġaanwijzing":12956,"Ġschijf":12957,"Ġreactief":12958,"oskelet":12959,"init":12960,"ilevel":12961,"ĠLines":12962,"zam":12963,"Ġdichte":12964,"axiale":12965,"Ġincis":12966,"Ġborstfoto":12967,"zingen":12968,"Ġillustreren":12969,"ulse":12970,"laudid":12971,"SAID":12972,"Â·":12973,"Ġhormonen":12974,"spunt":12975,"spar":12976,"ctu":12977,"kels":12978,"ĠRadiology":12979,"Ġtegenover":12980,"Ġprior":12981,"Ġmultivariate":12982,"brief":12983,"Ġtoegest":12984,"Ġcytokinen":12985,"Extre":12986,"Ġtrekken":12987,"Ġadnex":12988,"riÃ¨res":12989,"104":12990,"Ġtoenam":12991,"Ġaromatische":12992,"avir":12993,"Ġonopge":12994,"Ġbalans":12995,"Ġcumul":12996,"Ġmest":12997,"ĠCHEST":12998,"Ġversnel":12999,"fra":13000,"adhesie":13001,"aretten":13002,"Ġperceptie":13003,"stratie":13004,"Ġbreedte":13005,"Ġindicatoren":13006,"GM":13007,"Ġafger":13008,"ocor":13009,"Ġthromb":13010,"PK":13011,"Tot":13012,"Ġhaalbaarheid":13013,"FF":13014,"Ġ__":13015,"Ġdergelijk":13016,"LY":13017,"uccesvol":13018,"Ġvoorwaarde":13019,"elektroforese":13020,"Ġverlichten":13021,"plex":13022,"Ġgouden":13023,"Ġonderwand":13024,"Ġetc":13025,"ĠRVF":13026,"Ġtenzij":13027,"Ġtraumatische":13028,"Ġagonist":13029,"Ġverre":13030,"Ġgewrichten":13031,"Ġplastic":13032,"atibiliteit":13033,"oct":13034,"Ġ(()))":13035,"Extr":13036,"ĠFib":13037,"barriÃ¨re":13038,"ossa":13039,"Ġverte":13040,"Ġvlie":13041,"Ġcx":13042,"Ġtrain":13043,"wond":13044,"Inst":13045,"asie":13046,"Ġkruising":13047,"ĠIgA":13048,"ĠPREHTX":13049,"matrix":13050,"Ġvelden":13051,"infusie":13052,"Ġgescreend":13053,"ĠOmeprazol":13054,"ĠPijn":13055,"Ur":13056,"Ġlith":13057,"Ġprincipe":13058,"Ġplate":13059,"eleinden":13060,"illingen":13061,"kosten":13062,"ĠEP":13063,"oscopy":13064,"Ġroutinematig":13065,"Ġ[*":13066,"Ġzodan":13067,"ĠHoofdkla":13068,"Ġoperatief":13069,"Ġkortademig":13070,"Ġnitraat":13071,"veneuze":13072,"osociale":13073,"Ġuitputting":13074,"ĠgeÃ¯ntegreerde":13075,"Ġsubtie":13076,"Ġindustrie":13077,"Ġurinaire":13078,"ĠproteÃ¯n":13079,"angt":13080,"ekent":13081,"Chronische":13082,"uraal":13083,"Ġfarmaceutische":13084,"albumine":13085,"Ġverwerkt":13086,"Ġdekking":13087,"Ġperiv":13088,"Ġcardiomedi":13089,"Ġverminderden":13090,"Poliklin":13091,"Ġgedateerd":13092,"Ġdoord":13093,"Ġopgele":13094,"Ġverpak":13095,"Am":13096,"ĠVAL":13097,"Ġmultic":13098,"Ġextreem":13099,"seen":13100,"Ġgetoond":13101,"ĠMellitus":13102,"ĠHoge":13103,"Ġ#<":13104,"ISTORY":13105,"netwerk":13106,"portable":13107,"ĠMonos":13108,"ĠThorax":13109,"tussen":13110,"Ġassess":13111,"ĠResponse":13112,"ester":13113,"Ġscheiden":13114,"Ġpasgeborenen":13115,"ypering":13116,"hetische":13117,"Ġsubcutaan":13118,"Ġdyspnea":13119,"Ġcf":13120,"ĠgeÃ¯mple":13121,"Ġrecombinatie":13122,"Ġkenmerkend":13123,"ĠenquÃªte":13124,"Ġruggengraat":13125,".\"":13126,"gestuurde":13127,"ASE":13128,"ĠPulmon":13129,"Ġonderte":13130,"behandeld":13131,"barst":13132,"Ġhemorrag":13133,"Ġincident":13134,"seling":13135,"Ġmoderne":13136,"Ġgeaccep":13137,"ĠAN":13138,"ĠGlu":13139,"Ġantineoplastische":13140,"Ġgefosfory":13141,"gemiddeld":13142,"oting":13143,"Ġcompatibel":13144,"meng":13145,"migratie":13146,"Ġportaal":13147,"ĠZacht":13148,"romide":13149,"ĠLeuk":13150,"ĠgeoriÃ«nteerd":13151,"Ġsubeenheid":13152,"cine":13153,"express":13154,"Ġkleurstof":13155,"Ġglucocortic":13156,"Ġmonol":13157,"005":13158,"ĠCAP":13159,"Ġpolymorfisme":13160,"Ġgevolge":13161,"inib":13162,"ĠNi":13163,"itol":13164,"geneesm":13165,"idend":13166,"verbetering":13167,"Ġcate":13168,"Ġau":13169,"ulitis":13170,"ADE":13171,"Ġberekende":13172,"IM":13173,"Ġwen":13174,"othyroxine":13175,"ionaal":13176,"mutanten":13177,"Ġterugval":13178,"Ġherkend":13179,"Ġexpectatief":13180,"quenced":13181,"ithi":13182,"ĠScreening":13183,"ogrammen":13184,"ĠPb":13185,"Ġmor":13186,"ĠLT":13187,"Ġontle":13188,"Ġdoelstellingen":13189,"Ġrevers":13190,"Ġhomeostase":13191,"Ġkalk":13192,"ants":13193,"Ġonwaarschijnlijk":13194,"Ġopnames":13195,"opolym":13196,"Ġgesprek":13197,"ĠCal":13198,"auz":13199,"opten":13200,"Ġparenchymale":13201,"Ġarterie":13202,"iety":13203,"iderende":13204,"ĠAcetaminofen":13205,"Ġcavia":13206,"Ġsubgroep":13207,"horacale":13208,"Ġflutter":13209,"derings":13210,"lose":13211,"Ġhierbij":13212,"Ġimmuunresponsen":13213,"Ġvetweefsel":13214,"Ġeerstelijns":13215,"slagaders":13216,"Ġallergische":13217,"Ġstreng":13218,"ĠVragen":13219,"Ġherhal":13220,"Ġwt":13221,"Ġresistente":13222,"Ġsensatie":13223,"Ġbetekent":13224,"Ġprecisie":13225,"snelheden":13226,"Ġeliminatie":13227,"afhankelijkheid":13228,"Ġtalrijke":13229,"Ġinfiltraat":13230,"Ġreformaties":13231,"Ġ106":13232,"Ġcafe":13233,"APP":13234,"omerase":13235,"ĠSalmonella":13236,"Ġinterface":13237,"Ġjejun":13238,"Ġseptember":13239,"ĠADmission":13240,"Ġforse":13241,"Ġdressing":13242,"ĠFre":13243,"aem":13244,"Ġinsert":13245,"cyc":13246,"aged":13247,"Ġgevangen":13248,"ayed":13249,"Ġklaar":13250,"ĠPerif":13251,"iclo":13252,"Ġhierna":13253,"accumulatie":13254,"Ġaa":13255,"Ġstimulerende":13256,"ĠSa":13257,"Ã«nten":13258,"ĠBNP":13259,"Ġspijsver":13260,"Ġgeacht":13261,"bewegings":13262,"ĠHPI":13263,"tekort":13264,"Ġregelmatige":13265,"ĠZelf":13266,"Ġconver":13267,"Ġcomputationele":13268,"Ġniertransplantatie":13269,"oassay":13270,"atm":13271,"Ġtricuspid":13272,"Ġindividueel":13273,"Ġaangeb":13274,"Ġfungeren":13275,"Ġinhalatie":13276,"CKD":13277,"Ġschro":13278,"positief":13279,"Ġante":13280,"Ġacc":13281,"ervatie":13282,"-->":13283,"Ġcorreleerde":13284,"ÃīÃī":13285,"Ġtrem":13286,"ĠFentanyl":13287,"Ġactivatie":13288,"ĠAtorvastatine":13289,"bro":13290,"temp":13291,"Ġbespreking":13292,"ditive":13293,"Ġrichtingen":13294,"Ġpassieve":13295,"Ġcircum":13296,"ota":13297,"ĠKw":13298,"ĠPantoprazol":13299,"lijsten":13300,"ĠSerum":13301,"Ġdoorgaans":13302,"Ġeros":13303,"Ġknooppunten":13304,"Ġrehab":13305,"Ġfoci":13306,"Ġ2006":13307,"Ġjongeren":13308,"Ġpalpatie":13309,"Ġbouw":13310,"ana":13311,"Ġindicator":13312,"Ġidentificeerde":13313,"Ġautologe":13314,"Ġsympathische":13315,"Ġverenigbaar":13316,"ĠInsulin":13317,"ĠPle":13318,"Ġfenyl":13319,"Ġzoon":13320,"strueren":13321,"ĠStrept":13322,"ĠPr":13323,"ĠrÃ¶ntgenfoto":13324,"regime":13325,"Ġsteen":13326,"Ġmagnesium":13327,"Ã«robe":13328,"EFT":13329,"Ġgespeend":13330,"ĠReactions":13331,"+-":13332,"ieft":13333,"Ġvastgehouden":13334,"ĠPort":13335,"odes":13336,"treden":13337,"Ġexcit":13338,"Ġoktober":13339,"ĠMHC":13340,"Ġingebed":13341,"ofielen":13342,"Ġinflammatie":13343,"Ġvlakke":13344,"Ġduid":13345,"acteriÃ«le":13346,"ĠAtrium":13347,"preteerd":13348,"Ġbeslissingen":13349,"LED":13350,"constante":13351,"Ġspecialist":13352,"Ġuterus":13353,"Ġimmunohistochemie":13354,"Ġanastomose":13355,"ĠASD":13356,"Ġtent":13357,"ablokker":13358,"Ġsament":13359,"formeerd":13360,"Ġroze":13361,"ĠVoorgeschiedenis":13362,"Ġtoevoegen":13363,"Ġplaques":13364,"ELL":13365,"ĠCyt":13366,"Ġgeautomatiseerde":13367,"atoir":13368,"Ġdexamethason":13369,"Ġapo":13370,"Ġbloeduitst":13371,"Ġbloedvaten":13372,"raagbare":13373,"urgen":13374,"Ġabnormaliteit":13375,"Ġsnelheden":13376,"Ġpolypeptide":13377,"RIUM":13378,"bloedingen":13379,"()()":13380,"Ġdoub":13381,"ological":13382,"Ġelast":13383,"Ġgewenste":13384,"ĠinsufficiÃ«ntie":13385,"Ġoverlapp":13386,"Ġpept":13387,"geerd":13388,"Ġademhalingsproblemen":13389,"Ġgevoeliger":13390,"reeks":13391,"ypsine":13392,"ĠExamen":13393,"oratory":13394,"Ġautonome":13395,"aatregelen":13396,"Ġhypercholesterolemie":13397,"Ġlisinopril":13398,"ĠLisinopril":13399,"Ġcirculatie":13400,"aid":13401,"acetamol":13402,"Ġverrijkt":13403,"Radiologie":13404,"Ġpathologisch":13405,"Ġingenomen":13406,"ientific":13407,"Ġverhoudingen":13408,"ĠEvenzo":13409,"Ġconsequent":13410,"Ġcorreleren":13411,"Ġ(%":13412,"Ġtransfusie":13413,"lifer":13414,"Ġpraktijken":13415,"Ġproeven":13416,"Ġdiverticulitis":13417,"ĠSten":13418,"Ġverlengde":13419,"ranium":13420,"ĠAlbuterol":13421,"Ġorig":13422,"Ġfiets":13423,"Ġpaper":13424,"Ġfamiliale":13425,"ĠLAT":13426,"Ġdaarentegen":13427,"Ġbevestiging":13428,"ĠâĢŀ":13429,"Ġvoorspellers":13430,"ĠRIG":13431,"tend":13432,"ĠNOS":13433,"gevonden":13434,"orphine":13435,"Ġantide":13436,"class":13437,"ĠIndex":13438,"riÃ«le":13439,"Ġpijnbestrijding":13440,"macro":13441,"schaft":13442,"ĠDenies":13443,"atomen":13444,"ĠgeÃ¯nterpreteerd":13445,"Ġchromatografie":13446,"abin":13447,"ĠgeÃ¯mplementeerd":13448,"Ġmga":13449,"Ġstranding":13450,"verschijn":13451,"achy":13452,"Ġcardiomegalie":13453,"tam":13454,"ĠHydro":13455,"ĠVersie":13456,"Ġhistamine":13457,"naar":13458,"fusies":13459,"ony":13460,"oblasten":13461,"ĠControleer":13462,"Ġlangdurig":13463,"taste":13464,"toestand":13465,"Ġplasmaconcentr":13466,"Ġoplossen":13467,"Ġsap":13468,"Ġdeletie":13469,"optimale":13470,"illair":13471,"Ġverdovende":13472,"Ġfijne":13473,"bepaling":13474,"ries":13475,"Ġfx":13476,"Ġspectra":13477,"energie":13478,"Ġverbre":13479,"vloeden":13480,"lastische":13481,"compressie":13482,"imin":13483,"Ġkeren":13484,"heup":13485,"Ġdodelijke":13486,"Ġmu":13487,"ineresistentie":13488,"missie":13489,"stitutie":13490,"Ġzodanig":13491,"plos":13492,"ĠBlanco":13493,"Ġinfuus":13494,"trofie":13495,"nium":13496,"VF":13497,"Ġepidurale":13498,"Ġverzorging":13499,"Ġstu":13500,"ĠOpname":13501,"ylaat":13502,"hoogte":13503,"lange":13504,"revalidatie":13505,"Ġkou":13506,"Ġcaps":13507,"arison":13508,"Ġraad":13509,"Ġzijk":13510,"orub":13511,"Ġelleb":13512,"Ã¶per":13513,"atiek":13514,"peroxide":13515,"ĠhypothyreoÃ¯die":13516,"SF":13517,"Ġhangt":13518,"ĠInfusies":13519,"rane":13520,"Ġfemor":13521,"Ġpaarden":13522,"itonale":13523,"Ġneutro":13524,"Ġprominent":13525,"grens":13526,"ĠRSBI":13527,"uwing":13528,"herkenning":13529,"artritis":13530,"Ġair":13531,"ĠCro":13532,"menteerde":13533,"stemperatuur":13534,"Ġ138":13535,"ĠERK":13536,"organ":13537,"Ġleeftijdsgebonden":13538,"Ġdose":13539,"Ġson":13540,"Ġorth":13541,"Ġ+/":13542,"procedures":13543,"ĠEndot":13544,"Ġbad":13545,"eertig":13546,"aminerge":13547,"Ġoperatieverslag":13548,"Ġvruchtbaarheid":13549,"Ġhomozyg":13550,"Ġmean":13551,"Dyslipidemie":13552,"Ġgestimuleerde":13553,"elatonine":13554,"Ġzwem":13555,"Ġdissociatie":13556,"(((":13557,"encefal":13558,"Ġvoortplantings":13559,"verhoging":13560,"inosa":13561,"Ġmicrosc":13562,"ongeveer":13563,"bruari":13564,"Ġzuurstofsoorten":13565,"ĠOperatieverslag":13566,"Ġempirische":13567,"Extremiteiten":13568,"zapine":13569,"hylococcus":13570,"Ġeenmal":13571,"Ġ108":13572,"Ġhomologe":13573,"Head":13574,"LM":13575,"Ġpenet":13576,"ĠAdditive":13577,"cardioloog":13578,"Ġtwijfel":13579,"Ġimpro":13580,"atieven":13581,"Ġopleiding":13582,"Ġeieren":13583,"Ġgeorganis":13584,"Ġdatasets":13585,"rarood":13586,"Ġsmaak":13587,"ĠtechnologieÃ«n":13588,"upus":13589,"modus":13590,"ĠLaboratorium":13591,"Ġlaparoscopische":13592,"\")":13593,"ĠRCT":13594,"Ġtrap":13595,"Ġanth":13596,"Ġantihyper":13597,"Ġ137":13598,"ĠCent":13599,"ĠMICU":13600,"ited":13601,"gn":13602,"Ġpermanente":13603,"Ġtunnel":13604,"lac":13605,"Ġbeslissing":13606,"omotorische":13607,"Ġstedelijke":13608,"Ġwaarschijnlijke":13609,"Ġchromosof":13610,"oseptaal":13611,"Ġinitiatie":13612,"Pulmon":13613,"+/":13614,"cipitatie":13615,"ĠlymfoÃ¯de":13616,"emming":13617,"halen":13618,"ible":13619,"ĠGM":13620,"arr":13621,"esis":13622,"Ġglucos":13623,"Ġembolie":13624,"ĠRVSP":13625,"Ġverf":13626,"ĠbarriÃ¨re":13627,"hi":13628,"Ġbezoeken":13629,"aaf":13630,"straat":13631,"conf":13632,"vascularisatie":13633,"allen":13634,"site":13635,"alog":13636,"Ġchemisch":13637,"ĠEnter":13638,"Ġamlodipine":13639,"ĠCE":13640,"2006":13641,"ESS":13642,"okine":13643,"Ġcisplatine":13644,"rea":13645,"Ġwaardevolle":13646,"Ġsequent":13647,"ĠQID":13648,"ĠChole":13649,"Ġgyr":13650,"106":13651,"Ġlag":13652,"romycine":13653,"home":13654,"rid":13655,"oplastiek":13656,"Ġmonitoren":13657,"nemende":13658,"idaties":13659,"Overweging":13660,"ampon":13661,"Ġafvalwater":13662,"Baso":13663,"Ġvoorspellingen":13664,"Ġdefinitie":13665,"Ġreces":13666,"blootstelling":13667,"terings":13668,"Ġoverheersende":13669,"veil":13670,"Ġgedaald":13671,"rafie":13672,"erolateraal":13673,"Ġvrijgegeven":13674,"Ġ2005":13675,"lussen":13676,"Ġvoorhoofd":13677,"screening":13678,"gewoon":13679,"opress":13680,"algoritme":13681,"Ġrekru":13682,"Ġpur":13683,"Ġopgeslagen":13684,"Ġvisualisatie":13685,"Ġbloedst":13686,"ĠPU":13687,"Ġdiagnostisch":13688,"Events":13689,"Ġureth":13690,"lad":13691,"Ġhistory":13692,"Ġneed":13693,"ĠForm":13694,"Ġascal":13695,"kop":13696,"ycline":13697,"Ġdataset":13698,"Ġprotein":13699,"Ġexamination":13700,"Ġgemengd":13701,"kDa":13702,"Ġgestandaardiseerde":13703,"ropium":13704,"ĠMRA":13705,"Ġkoeien":13706,"ĠZiekenhuis":13707,"Ġaangepaste":13708,"ĠRechter":13709,"dracht":13710,"Ġvervaardigd":13711,"Ġmacrofaag":13712,"fem":13713,"Ġondersteunende":13714,"ĠAG":13715,"waardeerd":13716,"Ġcholecyste":13717,"Ġbeetje":13718,"Ġreanimatie":13719,"ages":13720,"Ġrespectieve":13721,"ĠZal":13722,"ĠRo":13723,"ationaal":13724,"ĠLet":13725,")),":13726,"centreerd":13727,"ĠGastro":13728,"Ġcry":13729,"Ġ145":13730,"ĠgeÃ¯ntegreerd":13731,"control":13732,"Ġonverw":13733,"INR":13734,"Ġhabit":13735,"rent":13736,"conto":13737,"Cont":13738,"Ġneurodegeneratieve":13739,"lum":13740,"Ġbases":13741,"Object":13742,"Ġ].":13743,"Ġpolymeren":13744,"Ġkortere":13745,"Ġplaatsvinden":13746,"umm":13747,"'-'-":13748,"vag":13749,"Acet":13750,"(#)":13751,"ĠSER":13752,"ĠinitiÃ«ren":13753,"eens":13754,"ĠHerh":13755,"Ġmoduleert":13756,"ĠAmerican":13757,"arbonaat":13758,"Ġlieten":13759,"eptoren":13760,"Ġassessmented":13761,"ruggen":13762,"morgen":13763,"elijks":13764,"ĠVIE":13765,"iÃ«rarch":13766,"ofys":13767,"Ġdoden":13768,"ocal":13769,"Glu":13770,"oform":13771,"ketens":13772,"Ġdaalden":13773,"ĠDeelnemers":13774,"Ġalles":13775,"Ġergometrie":13776,"fragment":13777,"INK":13778,"ĠAdenosine":13779,"zoa":13780,"ĠHPLC":13781,"mutant":13782,"Ġeierstokken":13783,"Ġhalsslagaders":13784,"ĠAssoc":13785,"volutie":13786,"Ġborstvoeding":13787,"aseremmer":13788,"ĠICA":13789,"Ġlek":13790,"Ġtoxine":13791,"daan":13792,"ĠDoorgaan":13793,"Ġ])":13794,"ĠHeldere":13795,"Ġvaliditeit":13796,"Ġlinkerkamer":13797,"Ġepigenetische":13798,"Ġpersisterend":13799,"ĠLo":13800,"Ġimmunohistochemische":13801,"coderende":13802,"Ġtweedimensionale":13803,"kettingreactie":13804,"Ġnormen":13805,"silhouet":13806,"Ġgezocht":13807,"stoel":13808,"strij":13809,"Ġbelangen":13810,"ĠUreum":13811,"Ġpak":13812,"ĠCentr":13813,"Ġscanning":13814,"Ġidentieke":13815,"ility":13816,"Ġruimtelijk":13817,"Ġmnd":13818,"ĠVerwervingssequentie":13819,"Ġpolyc":13820,"Ġnucleair":13821,"ĠEL":13822,"Ġpast":13823,"SCLC":13824,"Ġleverden":13825,"Ġonderv":13826,"paren":13827,"Ġvals":13828,"Ġuitda":13829,"ots":13830,"sprocessen":13831,"Ġherhaald":13832,"Left":13833,"Ġberoep":13834,"Ġrestrictie":13835,
[...]
