{
  "version": "1.0",
  "truncation": null,
  "padding": null,
  "added_tokens": [
    {
      "id": 0,
      "content": "[PAD]",
      "single_word": false,
      "lstrip": false,
      "rstrip": false,
      "normalized": false,
      "special": true
    },
    {
      "id": 1,
      "content": "[UNK]",
      "single_word": false,
      "lstrip": false,
      "rstrip": false,
      "normalized": false,
      "special": true
    },
    {
      "id": 2,
      "content": "[CLS]",
      "single_word": false,
      "lstrip": false,
      "rstrip": false,
      "normalized": false,
      "special": true
    },
    {
      "id": 3,
      "content": "[SEP]",
      "single_word": false,
      "lstrip": false,
      "rstrip": false,
      "normalized": false,
      "special": true
    },
    {
      "id": 4,
      "content": "[MASK]",
      "single_word": false,
      "lstrip": false,
      "rstrip": false,
      "normalized": false,
      "special": true
    }
  ],
  "normalizer": {
    "type": "BertNormalizer",
    "clean_text": true,
    "handle_chinese_chars": true,
    "strip_accents": null,
    "lowercase": true
  },
  "pre_tokenizer": {
    "type": "BertPreTokenizer"
  },
  "post_processor": {
    "type": "BertProcessing",
    "sep": [
      "[SEP]",
      3
    ],
    "cls": [
      "[CLS]",
      2
    ]
  },
  "decoder": {
    "type": "WordPiece",
    "prefix": "##",
    "cleanup": true
  },
  "model": {
    "type": "WordPiece",
    "unk_token": "[UNK]",
    "continuing_subword_prefix": "##",
    "max_input_chars_per_word": 100,
    "vocab": {
      "[PAD]": 0,
      "[UNK]": 1,
      "[CLS]": 2,
      "[SEP]": 3,
      "[MASK]": 4,
      "[EX0]": 5,
      "[EX1]": 6,
      "[EX2]": 7,
      "[EX3]": 8,
      "[EX4]": 9,
      "[EX5]": 10,
      "[EX6]": 11,
      "[EX7]": 12,
      "[EX8]": 13,
      "[EX9]": 14,
      "[EX10]": 15,
      "[EX11]": 16,
      "[EX12]": 17,
      "[EX13]": 18,
      "[EX14]": 19,
      "[EX15]": 20,
      "[EX16]": 21,
      "[EX17]": 22,
      "[EX18]": 23,
      "[EX19]": 24,
      "[EX20]": 25,
      "[EX21]": 26,
      "[EX22]": 27,
      "[EX23]": 28,
      "[EX24]": 29,
      "[EX25]": 30,
      "[EX26]": 31,
      "[EX27]": 32,
      "[EX28]": 33,
      "[EX29]": 34,
      "[EX30]": 35,
      "[EX31]": 36,
      "[EX32]": 37,
      "[EX33]": 38,
      "[EX34]": 39,
      "[EX35]": 40,
      "[EX36]": 41,
      "[EX37]": 42,
      "[EX38]": 43,
      "[EX39]": 44,
      "[EX40]": 45,
      "[EX41]": 46,
      "[EX42]": 47,
      "[EX43]": 48,
      "[EX44]": 49,
      "[EX45]": 50,
      "[EX46]": 51,
      "[EX47]": 52,
      "[EX48]": 53,
      "[EX49]": 54,
      "!": 55,
      "\"": 56,
      "#": 57,
      "$": 58,
      "%": 59,
      "&": 60,
      "'": 61,
      "(": 62,
      ")": 63,
      "*": 64,
      "+": 65,
      ",": 66,
      "-": 67,
      ".": 68,
      "/": 69,
      "0": 70,
      "1": 71,
      "2": 72,
      "3": 73,
      "4": 74,
      "5": 75,
      "6": 76,
      "7": 77,
      "8": 78,
      "9": 79,
      ":": 80,
      ";": 81,
      "<": 82,
      "=": 83,
      ">": 84,
      "?": 85,
      "@": 86,
      "A": 87,
      "B": 88,
      "C": 89,
      "D": 90,
      "E": 91,
      "F": 92,
      "G": 93,
      "H": 94,
      "I": 95,
      "J": 96,
      "K": 97,
      "L": 98,
      "M": 99,
      "N": 100,
      "O": 101,
      "P": 102,
      "Q": 103,
      "R": 104,
      "S": 105,
      "T": 106,
      "U": 107,
      "V": 108,
      "W": 109,
      "X": 110,
      "Y": 111,
      "Z": 112,
      "[": 113,
      "\\": 114,
      "]": 115,
      "^": 116,
      "_": 117,
      "`": 118,
      "a": 119,
      "b": 120,
      "c": 121,
      "d": 122,
      "e": 123,
      "f": 124,
      "g": 125,
      "h": 126,
      "i": 127,
      "j": 128,
      "k": 129,
      "l": 130,
      "m": 131,
      "n": 132,
      "o": 133,
      "p": 134,
      "q": 135,
      "r": 136,
      "s": 137,
      "t": 138,
      "u": 139,
      "v": 140,
      "w": 141,
      "x": 142,
      "y": 143,
      "z": 144,
      "{": 145,
      "|": 146,
      "}": 147,
      "~": 148,
      "¡": 149,
      "¢": 150,
      "£": 151,
      "¤": 152,
      "¥": 153,
      "¦": 154,
      "§": 155,
      "¨": 156,
      "©": 157,
      "ª": 158,
      "«": 159,
      "¬": 160,
      "®": 161,
      "¯": 162,
      "°": 163,
      "±": 164,
      "²": 165,
      "³": 166,
      "´": 167,
      "µ": 168,
      "¶": 169,
      "·": 170,
      "¸": 171,
      "¹": 172,
      "º": 173,
      "»": 174,
      "¼": 175,
      "½": 176,
      "¾": 177,
      "¿": 178,
      "À": 179,
      "Á": 180,
      "Â": 181,
      "Ã": 182,
      "Ä": 183,
      "Å": 184,
      "Æ": 185,
      "Ç": 186,
      "È": 187,
      "É": 188,
      "Ê": 189,
      "Ë": 190,
      "Ì": 191,
      "Í": 192,
      "Î": 193,
      "Ï": 194,
      "Ð": 195,
      "Ñ": 196,
      "Ò": 197,
      "Ó": 198,
      "Ô": 199,
      "Õ": 200,
      "Ö": 201,
      "×": 202,
      "Ø": 203,
      "Ù": 204,
      "Ú": 205,
      "Û": 206,
      "Ü": 207,
      "Ý": 208,
      "Þ": 209,
      "ß": 210,
      "à": 211,
      "á": 212,
      "â": 213,
      "ã": 214,
      "ä": 215,
      "å": 216,
      "æ": 217,
      "ç": 218,
      "è": 219,
      "é": 220,
      "ê": 221,
      "ë": 222,
      "ì": 223,
      "í": 224,
      "î": 225,
      "ï": 226,
      "ð": 227,
      "ñ": 228,
      "ò": 229,
      "ó": 230,
      "ô": 231,
      "õ": 232,
      "ö": 233,
      "÷": 234,
      "ø": 235,
      "ù": 236,
      "ú": 237,
      "û": 238,
      "ü": 239,
      "ý": 240,
      "þ": 241,
      "ÿ": 242,
      "Ā": 243,
      "ā": 244,
      "ă": 245,
      "ą": 246,
      "Ć": 247,
      "ć": 248,
      "ĉ": 249,
      "Č": 250,
      "č": 251,
      "ď": 252,
      "Đ": 253,
      "đ": 254,
      "Ē": 255,
      "ē": 256,
      "ė": 257,
      "ę": 258,
      "ě": 259,
      "ĝ": 260,
      "ğ": 261,
      "Ġ": 262,
      "ġ": 263,
      "Ĥ": 264,
      "ĥ": 265,
      "Ħ": 266,
      "ħ": 267,
      "ĩ": 268,
      "Ī": 269,
      "ī": 270,
      "İ": 271,
      "ı": 272,
      "Ĳ": 273,
      "ĳ": 274,
      "ĵ": 275,
      "ķ": 276,
      "ĸ": 277,
      "ļ": 278,
      "ľ": 279,
      "Ł": 280,
      "ł": 281,
      "Ń": 282,
      "ń": 283,
      "ņ": 284,
      "ň": 285,
      "ŋ": 286,
      "Ō": 287,
      "ō": 288,
      "Ő": 289,
      "ő": 290,
      "Œ": 291,
      "œ": 292,
      "Ř": 293,
      "ř": 294,
      "Ś": 295,
      "ś": 296,
      "Ŝ": 297,
      "Ş": 298,
      "ş": 299,
      "Š": 300,
      "š": 301,
      "ţ": 302,
      "ť": 303,
      "ū": 304,
      "ŭ": 305,
      "ů": 306,
      "ű": 307,
      "Ų": 308,
      "ų": 309,
      "Ÿ": 310,
      "ź": 311,
      "Ż": 312,
      "ż": 313,
      "Ž": 314,
      "ž": 315,
      "Ƃ": 316,
      "ƃ": 317,
      "Ə": 318,
      "Ɛ": 319,
      "ƒ": 320,
      "Ɣ": 321,
      "ƙ": 322,
      "ƞ": 323,
      "ƴ": 324,
      "ǁ": 325,
      "ǂ": 326,
      "ǎ": 327,
      "ǔ": 328,
      "ȁ": 329,
      "ȗ": 330,
      "ș": 331,
      "Ț": 332,
      "ț": 333,
      "Ȧ": 334,
      "ȳ": 335,
      "ɑ": 336,
      "ɔ": 337,
      "ɕ": 338,
      "ə": 339,
      "ɛ": 340,
      "ɡ": 341,
      "ɣ": 342,
      "ɤ": 343,
      "ɨ": 344,
      "ɪ": 345,
      "ɯ": 346,
      "ɸ": 347,
      "ʌ": 348,
      "ʹ": 349,
      "ʻ": 350,
      "ʾ": 351,
      "ʿ": 352,
      "˂": 353,
      "˃": 354,
      "ˆ": 355,
      "ˈ": 356,
      "ˉ": 357,
      "ː": 358,
      "˙": 359,
      "˚": 360,
      "˜": 361,
      "˥": 362,
      "˿": 363,
      "̀": 364,
      "́": 365,
      "̂": 366,
      "̄": 367,
      "̅": 368,
      "̆": 369,
      "̇": 370,
      "̈": 371,
      "̊": 372,
      "̋": 373,
      "̌": 374,
      "̧": 375,
      "̶": 376,
      "Ͳ": 377,
      "ͳ": 378,
      ";": 379,
      "΅": 380,
      "Ά": 381,
      "·": 382,
      "Α": 383,
      "Β": 384,
      "Γ": 385,
      "Δ": 386,
      "Ε": 387,
      "Η": 388,
      "Θ": 389,
      "Ι": 390,
      "Κ": 391,
      "Λ": 392,
      "Μ": 393,
      "Ν": 394,
      "Ξ": 395,
      "Ο": 396,
      "Π": 397,
      "Ρ": 398,
      "Σ": 399,
      "Τ": 400,
      "Υ": 401,
      "Φ": 402,
      "Χ": 403,
      "Ψ": 404,
      "Ω": 405,
      "ά": 406,
      "έ": 407,
      "ή": 408,
      "ί": 409,
      "α": 410,
      "β": 411,
      "γ": 412,
      "δ": 413,
      "ε": 414,
      "ζ": 415,
      "η": 416,
      "θ": 417,
      "ι": 418,
      "κ": 419,
      "λ": 420,
      "μ": 421,
      "ν": 422,
      "ξ": 423,
      "ο": 424,
      "π": 425,
      "ρ": 426,
      "ς": 427,
      "σ": 428,
      "τ": 429,
      "υ": 430,
      "φ": 431,
      "χ": 432,
      "ψ": 433,
      "ω": 434,
      "ϊ": 435,
      "ό": 436,
      "ύ": 437,
      "ώ": 438,
      "Ϗ": 439,
      "ϒ": 440,
      "ϕ": 441,
      "Ϯ": 442,
      "ϱ": 443,
      "ϵ": 444,
      "Є": 445,
      "І": 446,
      "Ј": 447,
      "А": 448,
      "Б": 449,
      "В": 450,
      "Г": 451,
      "Д": 452,
      "Е": 453,
      "Ж": 454,
      "З": 455,
      "И": 456,
      "Й": 457,
      "К": 458,
      "Л": 459,
      "М": 460,
      "Н": 461,
      "О": 462,
      "П": 463,
      "Р": 464,
      "С": 465,
      "Т": 466,
      "У": 467,
      "Ф": 468,
      "Х": 469,
      "Ц": 470,
      "Ш": 471,
      "Ъ": 472,
      "Ю": 473,
      "Я": 474,
      "а": 475,
      "б": 476,
      "в": 477,
      "г": 478,
      "д": 479,
      "е": 480,
      "ж": 481,
      "з": 482,
      "и": 483,
      "й": 484,
      "к": 485,
      "л": 486,
      "м": 487,
      "н": 488,
      "о": 489,
      "п": 490,
      "р": 491,
      "с": 492,
      "т": 493,
      "у": 494,
      "ф": 495,
      "х": 496,
      "ц": 497,
      "ч": 498,
      "ш": 499,
      "щ": 500,
      "ъ": 501,
      "ы": 502,
      "ь": 503,
      "э": 504,
      "ю": 505,
      "я": 506,
      "ё": 507,
      "і": 508,
      "ї": 509,
      "֯": 510,
      "ְ": 511,
      "ִ": 512,
      "ֹ": 513,
      "ּ": 514,
      "־": 515,
      "א": 516,
      "ב": 517,
      "ד": 518,
      "ה": 519,
      "ו": 520,
      "ז": 521,
      "ח": 522,
      "י": 523,
      "ל": 524,
      "ם": 525,
      "מ": 526,
      "ן": 527,
      "נ": 528,
      "ס": 529,
      "ע": 530,
      "פ": 531,
      "ר": 532,
      "ש": 533,
      "ת": 534,
      "׳": 535,
      "״": 536,
      "،": 537,
      "أ": 538,
      "ا": 539,
      "ب": 540,
      "ة": 541,
      "ت": 542,
      "ث": 543,
      "ج": 544,
      "ح": 545,
      "خ": 546,
      "د": 547,
      "ذ": 548,
      "ر": 549,
      "ز": 550,
      "س": 551,
      "ش": 552,
      "ص": 553,
      "ض": 554,
      "ط": 555,
      "ظ": 556,
      "ع": 557,
      "ـ": 558,
      "ق": 559,
      "ك": 560,
      "ل": 561,
      "م": 562,
      "ن": 563,
      "ه": 564,
      "و": 565,
      "ي": 566,
      "٠": 567,
      "١": 568,
      "پ": 569,
      "ۛ": 570,
      "ं": 571,
      "आ": 572,
      "क": 573,
      "ग": 574,
      "ज": 575,
      "ड": 576,
      "ण": 577,
      "त": 578,
      "न": 579,
      "प": 580,
      "फ": 581,
      "ब": 582,
      "म": 583,
      "य": 584,
      "र": 585,
      "व": 586,
      "श": 587,
      "स": 588,
      "़": 589,
      "ा": 590,
      "ी": 591,
      "्": 592,
      "স": 593,
      "্": 594,
      "௠": 595,
      "ಟ": 596,
      "ಲ": 597,
      "ಶ": 598,
      "ಿ": 599,
      "ೆ": 600,
      "್": 601,
      "ก": 602,
      "ค": 603,
      "ง": 604,
      "ต": 605,
      "บ": 606,
      "ฟ": 607,
      "ม": 608,
      "ร": 609,
      "ล": 610,
      "ห": 611,
      "อ": 612,
      "า": 613,
      "แ": 614,
      "โ": 615,
      "ใ": 616,
      "่": 617,
      "้": 618,
      "་": 619,
      "ག": 620,
      "ད": 621,
      "ན": 622,
      "བ": 623,
      "འ": 624,
      "ར": 625,
      "ུ": 626,
      "ྩ": 627,
      "ྭ": 628,
      "ྱ": 629,
      "ᅟ": 630,
      "ᎏ": 631,
      "Ḍ": 632,
      "ḍ": 633,
      "ḗ": 634,
      "Ḡ": 635,
      "Ḥ": 636,
      "ḥ": 637,
      "ṅ": 638,
      "ṇ": 639,
      "ṛ": 640,
      "ṣ": 641,
      "ṭ": 642,
      "ả": 643,
      "ế": 644,
      "ệ": 645,
      "ổ": 646,
      "ữ": 647,
      "ἀ": 648,
      "ἄ": 649,
      "ἅ": 650,
      "ἐ": 651,
      "ἔ": 652,
      "ἠ": 653,
      "ἡ": 654,
      "ἰ": 655,
      "ἱ": 656,
      "ἴ": 657,
      "ἷ": 658,
      "Ἱ": 659,
      "ὀ": 660,
      "ὁ": 661,
      "ὄ": 662,
      "ὐ": 663,
      "ὑ": 664,
      "ὔ": 665,
      "ὕ": 666,
      "ὖ": 667,
      "ὠ": 668,
      "ὤ": 669,
      "ὲ": 670,
      "ὶ": 671,
      "ὸ": 672,
      "ό": 673,
      "ᾰ": 674,
      "᾽": 675,
      "ῆ": 676,
      "ῖ": 677,
      "ῥ": 678,
      "ῦ": 679,
      "ῶ": 680,
      "ῷ": 681,
      "‐": 682,
      "‑": 683,
      "‒": 684,
      "–": 685,
      "—": 686,
      "―": 687,
      "‖": 688,
      "‗": 689,
      "‘": 690,
      "’": 691,
      "‚": 692,
      "“": 693,
      "”": 694,
      "„": 695,
      "‟": 696,
      "†": 697,
      "‡": 698,
      "•": 699,
      "…": 700,
      "‰": 701,
      "′": 702,
      "″": 703,
      "‹": 704,
      "›": 705,
      "※": 706,
      "⁄": 707,
      "⁎": 708,
      "⁰": 709,
      "⁴": 710,
      "⁵": 711,
      "⁶": 712,
      "⁸": 713,
      "⁹": 714,
      "⁺": 715,
      "⁻": 716,
      "₀": 717,
      "₁": 718,
      "₂": 719,
      "₃": 720,
      "₄": 721,
      "₅": 722,
      "₆": 723,
      "€": 724,
      "₹": 725,
      "℃": 726,
      "ℓ": 727,
      "ℕ": 728,
      "№": 729,
      "ℜ": 730,
      "™": 731,
      "Ω": 732,
      "⅓": 733,
      "⅔": 734,
      "⅛": 735,
      "⅜": 736,
      "Ⅰ": 737,
      "Ⅱ": 738,
      "Ⅲ": 739,
      "ⅹ": 740,
      "←": 741,
      "↑": 742,
      "→": 743,
      "↓": 744,
      "↔": 745,
      "↕": 746,
      "↗": 747,
      "↙": 748,
      "↦": 749,
      "↲": 750,
      "↷": 751,
      "⇀": 752,
      "⇄": 753,
      "⇆": 754,
      "⇋": 755,
      "⇌": 756,
      "⇐": 757,
      "⇑": 758,
      "⇒": 759,
      "⇓": 760,
      "⇔": 761,
      "⇝": 762,
      "⇨": 763,
      "∂": 764,
      "∆": 765,
      "∇": 766,
      "∈": 767,
      "∊": 768,
      "∏": 769,
      "∑": 770,
      "−": 771,
      "∕": 772,
      "∗": 773,
      "∘": 774,
      "∙": 775,
      "√": 776,
      "∝": 777,
      "∞": 778,
      "∠": 779,
      "∣": 780,
      "∥": 781,
      "∧": 782,
      "∩": 783,
      "∪": 784,
      "∫": 785,
      "∶": 786,
      "∼": 787,
      "≃": 788,
      "≅": 789,
      "≈": 790,
      "≍": 791,
      "≒": 792,
      "≠": 793,
      "≡": 794,
      "≤": 795,
      "≥": 796,
      "≦": 797,
      "≧": 798,
      "≪": 799,
      "≫": 800,
      "≲": 801,
      "⊂": 802,
      "⊕": 803,
      "⊖": 804,
      "⊗": 805,
      "⊙": 806,
      "⊝": 807,
      "⊥": 808,
      "⋅": 809,
      "⋠": 810,
      "⋮": 811,
      "⋯": 812,
      "⌣": 813,
      "⎡": 814,
      "⎢": 815,
      "⎣": 816,
      "⎤": 817,
      "⎥": 818,
      "⎦": 819,
      "⏐": 820,
      "␤": 821,
      "①": 822,
      "②": 823,
      "③": 824,
      "④": 825,
      "⑤": 826,
      "⑥": 827,
      "⑦": 828,
      "⑧": 829,
      "⑨": 830,
      "Ⓡ": 831,
      "─": 832,
      "│": 833,
      "┤": 834,
      "┬": 835,
      "┴": 836,
      "═": 837,
      "║": 838,
      "╪": 839,
      "░": 840,
      "▒": 841,
      "▓": 842,
      "■": 843,
      "□": 844,
      "▪": 845,
      "▫": 846,
      "▲": 847,
      "△": 848,
      "▴": 849,
      "▵": 850,
      "▶": 851,
      "▷": 852,
      "▸": 853,
      "►": 854,
      "▼": 855,
      "▽": 856,
      "▾": 857,
      "◄": 858,
      "◆": 859,
      "◊": 860,
      "○": 861,
      "◎": 862,
      "●": 863,
      "◦": 864,
      "◯": 865,
      "◻": 866,
      "★": 867,
      "☆": 868,
      "☐": 869,
      "☑": 870,
      "☓": 871,
      "♀": 872,
      "♂": 873,
      "♦": 874,
      "♭": 875,
      "♯": 876,
      "⚪": 877,
      "⚫": 878,
      "✓": 879,
      "✔": 880,
      "✕": 881,
      "✠": 882,
      "✧": 883,
      "✴": 884,
      "✶": 885,
      "➔": 886,
      "➙": 887,
      "➝": 888,
      "➞": 889,
      "➡": 890,
      "➢": 891,
      "➤": 892,
      "⟂": 893,
      "⟦": 894,
      "⟧": 895,
      "⟨": 896,
      "⟩": 897,
      "⟶": 898,
      "⟷": 899,
      "⠀": 900,
      "⠺": 901,
      "⥠": 902,
      "⦁": 903,
      "⨁": 904,
      "⩽": 905,
      "⩾": 906,
      "⬜": 907,
      "⬠": 908,
      "⬰": 909,
      "⮚": 910,
      "ⱡ": 911,
      "⿬": 912,
      "⿿": 913,
      "、": 914,
      "。": 915,
      "〈": 916,
      "〉": 917,
      "》": 918,
      "「": 919,
      "」": 920,
      "【": 921,
      "】": 922,
      "〔": 923,
      "〕": 924,
      "〖": 925,
      "〗": 926,
      "〞": 927,
      "い": 928,
      "か": 929,
      "き": 930,
      "な": 931,
      "に": 932,
      "り": 933,
      "ん": 934,
      "ア": 935,
      "カ": 936,
      "ガ": 937,
      "コ": 938,
      "テ": 939,
      "ナ": 940,
      "ミ": 941,
      "メ": 942,
      "リ": 943,
      "ル": 944,
      "レ": 945,
      "・": 946,
      "ー": 947,
      "㠀": 948,
      "丁": 949,
      "中": 950,
      "乆": 951,
      "么": 952,
      "人": 953,
      "介": 954,
      "仙": 955,
      "会": 956,
      "佳": 957,
      "俣": 958,
      "冬": 959,
      "出": 960,
      "切": 961,
      "刮": 962,
      "呦": 963,
      "和": 964,
      "唇": 965,
      "国": 966,
      "夏": 967,
      "大": 968,
      "契": 969,
      "女": 970,
      "子": 971,
      "字": 972,
      "学": 973,
      "孫": 974,
      "富": 975,
      "対": 976,
      "導": 977,
      "山": 978,
      "崇": 979,
      "川": 980,
      "巫": 981,
      "帝": 982,
      "平": 983,
      "引": 984,
      "德": 985,
      "拝": 986,
      "救": 987,
      "文": 988,
      "斑": 989,
      "新": 990,
      "日": 991,
      "明": 992,
      "木": 993,
      "本": 994,
      "李": 995,
      "村": 996,
      "水": 997,
      "海": 998,
      "滑": 999,
      "病": 1000,
      "症": 1001,
      "白": 1002,
      "盲": 1003,
      "石": 1004,
      "神": 1005,
      "福": 1006,
      "第": 1007,
      "策": 1008,
      "缕": 1009,
      "肥": 1010,
      "腹": 1011,
      "花": 1012,
      "苶": 1013,
      "草": 1014,
      "蕲": 1015,
      "虫": 1016,
      "蛇": 1017,
      "蟲": 1018,
      "行": 1019,
      "西": 1020,
      "解": 1021,
      "象": 1022,
      "逸": 1023,
      "郎": 1024,
      "院": 1025,
      "青": 1026,
      "黃": 1027,
      "點": 1028,
      "꙱": 1029,
      "ꝉ": 1030,
      "ꭕ": 1031,
      "븅": 1032,
      "심": 1033,
      "장": 1034,
      "재": 1035,
      "활": 1036,
      "ﬀ": 1037,
      "ﬁ": 1038,
      "ﬂ": 1039,
      "️": 1040,
      "︵": 1041,
      "﹣": 1042,
      "）": 1043,
      "，": 1044,
      "－": 1045,
      "：": 1046,
      "～": 1047,
      "･": 1048,
      "ｵ": 1049,
      "ﾴ": 1050,
      "￼": 1051,
      "𝛽": 1052,
      "𝜏": 1053,
      "🩸": 1054,
      "##u": 1055,
      "##l": 1056,
      "##t": 1057,
      "##i": 1058,
      "##f": 1059,
      "##a": 1060,
      "##c": 1061,
      "##e": 1062,
      "##r": 1063,
      "##d": 1064,
      "##g": 1065,
      "##s": 1066,
      "##j": 1067,
      "##k": 1068,
      "##o": 1069,
      "##v": 1070,
      "##n": 1071,
      "##m": 1072,
      "##ï": 1073,
      "##U": 1074,
      "##C": 1075,
      "##V": 1076,
      "##S": 1077,
      "##p": 1078,
      "##O": 1079,
      "##P": 1080,
      "##R": 1081,
      "##1": 1082,
      "##0": 1083,
      "##I": 1084,
      "##A": 1085,
      "##B": 1086,
      "##T": 1087,
      "##E": 1088,
      "##H": 1089,
      "##2": 1090,
      "##D": 1091,
      "##ö": 1092,
      "##N": 1093,
      "##F": 1094,
      "##5": 1095,
      "##h": 1096,
      "##y": 1097,
      "##4": 1098,
      "##b": 1099,
      "##z": 1100,
      "##ë": 1101,
      "##8": 1102,
      "##q": 1103,
      "##G": 1104,
      "##W": 1105,
      "##J": 1106,
      "##w": 1107,
      "##x": 1108,
      "##6": 1109,
      "##K": 1110,
      "##M": 1111,
      "##7": 1112,
      "##3": 1113,
      "##L": 1114,
      "##9": 1115,
      "##è": 1116,
      "##π": 1117,
      "##Y": 1118,
      "##→": 1119,
      "##±": 1120,
      "##्": 1121,
      "##र": 1122,
      "##म": 1123,
      "##ण": 1124,
      "##₂": 1125,
      "##×": 1126,
      "##á": 1127,
      "##X": 1128,
      "##Q": 1129,
      "##ş": 1130,
      "##®": 1131,
      "##ἰ": 1132,
      "##τ": 1133,
      "##η": 1134,
      "##θ": 1135,
      "##ε": 1136,
      "##ὶ": 1137,
      "##ς": 1138,
      "##ê": 1139,
      "##í": 1140,
      "##æ": 1141,
      "##α": 1142,
      "##Ô": 1143,
      "##ñ": 1144,
      "##ä": 1145,
      "##°": 1146,
      "##é": 1147,
      "##õ": 1148,
      "##ā": 1149,
      "##κ": 1150,
      "##ü": 1151,
      "##²": 1152,
      "##Z": 1153,
      "##â": 1154,
      "##ō": 1155,
      "##Δ": 1156,
      "##−": 1157,
      "##ř": 1158,
      "##Ω": 1159,
      "##ã": 1160,
      "##ó": 1161,
      "##Â": 1162,
      "##ø": 1163,
      "##μ": 1164,
      "##γ": 1165,
      "##ò": 1166,
      "##İ": 1167,
      "##É": 1168,
      "##ί": 1169,
      "##ν": 1170,
      "##ι": 1171,
      "##β": 1172,
      "##î": 1173,
      "##≥": 1174,
      "##ı": 1175,
      "##ē": 1176,
      "##Ö": 1177,
      "##ß": 1178,
      "##─": 1179,
      "##Ä": 1180,
      "##λ": 1181,
      "##↔": 1182,
      "##Î": 1183,
      "##à": 1184,
      "##∙": 1185,
      "##г": 1186,
      "##р": 1187,
      "##а": 1188,
      "##д": 1189,
      "##⁄": 1190,
      "##™": 1191,
      "##≈": 1192,
      "##≠": 1193,
      "##σ": 1194,
      "##ú": 1195,
      "##Ë": 1196,
      "##´": 1197,
      "##ο": 1198,
      "##ύ": 1199,
      "##♭": 1200,
      "##ё": 1201,
      "##ç": 1202,
      "##♀": 1203,
      "##÷": 1204,
      "##ô": 1205,
      "##℃": 1206,
      "##ω": 1207,
      "##∞": 1208,
      "##š": 1209,
      "##═": 1210,
      "##↲": 1211,
      "##δ": 1212,
      "##ě": 1213,
      "##ù": 1214,
      "##ł": 1215,
      "##ą": 1216,
      "##е": 1217,
      "##≤": 1218,
      "##Ï": 1219,
      "##¨": 1220,
      "##χ": 1221,
      "##˜": 1222,
      "##∼": 1223,
      "##С": 1224,
      "##ů": 1225,
      "##↓": 1226,
      "##Á": 1227,
      "##Ã": 1228,
      "##©": 1229,
      "##ś": 1230,
      "##н": 1231,
      "##←": 1232,
      "##ζ": 1233,
      "##ń": 1234,
      "##ý": 1235,
      "##ć": 1236,
      "##ő": 1237,
      "##ğ": 1238,
      "##³": 1239,
      "##△": 1240,
      "##¢": 1241,
      "##ĳ": 1242,
      "##♂": 1243,
      "##č": 1244,
      "##å": 1245,
      "##↑": 1246,
      "##û": 1247,
      "##Ś": 1248,
      "##¯": 1249,
      "##ﬁ": 1250,
      "##т": 1251,
      "##В": 1252,
      "##ž": 1253,
      "##ƒ": 1254,
      "##µ": 1255,
      "##φ": 1256,
      "##º": 1257,
      "##¬": 1258,
      "##˚": 1259,
      "##Û": 1260,
      "##ę": 1261,
      "##И": 1262,
      "##œ": 1263,
      "##¥": 1264,
      "##Ž": 1265,
      "##À": 1266,
      "##Š": 1267,
      "##Å": 1268,
      "##ū": 1269,
      "##ξ": 1270,
      "##х": 1271,
      "##¦": 1272,
      "##Β": 1273,
      "##ῶ": 1274,
      "##υ": 1275,
      "##О": 1276,
      "##Ф": 1277,
      "##А": 1278,
      "##Р": 1279,
      "##М": 1280,
      "##١": 1281,
      "##€": 1282,
      "##ṣ": 1283,
      "##ṭ": 1284,
      "##№": 1285,
      "##Α": 1286,
      "##¹": 1287,
      "##ă": 1288,
      "##ì": 1289,
      "##Ø": 1290,
      "##▶": 1291,
      "##ب": 1292,
      "##ن": 1293,
      "##έ": 1294,
      "##ρ": 1295,
      "##с": 1296,
      "##┬": 1297,
      "##Ù": 1298,
      "##ї": 1299,
      "##и": 1300,
      "##ʹ": 1301,
      "##Σ": 1302,
      "##ț": 1303,
      "##ų": 1304,
      "##①": 1305,
      "##½": 1306,
      "##ъ": 1307,
      "##Е": 1308,
      "##●": 1309,
      "##Φ": 1310,
      "##ė": 1311,
      "##√": 1312,
      "##⇌": 1313,
      "##∫": 1314,
      "##о": 1315,
      "##в": 1316,
      "##Ü": 1317,
      "##ª": 1318,
      "##Γ": 1319,
      "##ż": 1320,
      "##ī": 1321,
      "##ﬂ": 1322,
      "##Π": 1323,
      "##ό": 1324,
      "##Í": 1325,
      "##Ι": 1326,
      "##≡": 1327,
      "##Þ": 1328,
      "##□": 1329,
      "##ή": 1330,
      "##ħ": 1331,
      "##מ": 1332,
      "##ע": 1333,
      "##ו": 1334,
      "##ן": 1335,
      "##̇": 1336,
      "##¤": 1337,
      "##⁸": 1338,
      "##∗": 1339,
      "##ţ": 1340,
      "##↦": 1341,
      "##ð": 1342,
      "##ώ": 1343,
      "##к": 1344,
      "##п": 1345,
      "##ṅ": 1346,
      "##Ρ": 1347,
      "##Μ": 1348,
      "##ŋ": 1349,
      "##£": 1350,
      "##↕": 1351,
      "##ˆ": 1352,
      "##⊙": 1353,
      "##Д": 1354,
      "##È": 1355,
      "##Ó": 1356,
      "##Ż": 1357,
      "##ť": 1358,
      "##л": 1359,
      "##й": 1360,
      "##м": 1361,
      "##ṛ": 1362,
      "##③": 1363,
      "##у": 1364,
      "##ǎ": 1365,
      "##ÿ": 1366,
      "##¼": 1367,
      "##Ê": 1368,
      "##⇔": 1369,
      "##メ": 1370,
      "##コ": 1371,
      "##ȁ": 1372,
      "##▵": 1373,
      "##̄": 1374,
      "##カ": 1375,
      "##テ": 1376,
      "##ー": 1377,
      "##ル": 1378,
      "##Λ": 1379,
      "##Ī": 1380,
      "##₁": 1381,
      "##∑": 1382,
      "##Ε": 1383,
      "##Κ": 1384,
      "##Œ": 1385,
      "##♦": 1386,
      "##đ": 1387,
      "##Ο": 1388,
      "##ņ": 1389,
      "##Ĳ": 1390,
      "##ي": 1391,
      "##Т": 1392,
      "##ག": 1393,
      "##ུ": 1394,
      "##ན": 1395,
      "##Ú": 1396,
      "##þ": 1397,
      "##⟶": 1398,
      "##リ": 1399,
      "##я": 1400,
      "##⬜": 1401,
      "##ʌ": 1402,
      "##ṇ": 1403,
      "##ά": 1404,
      "##Ç": 1405,
      "##Õ": 1406,
      "##ۛ": 1407,
      "##⊗": 1408,
      "##Ȧ": 1409,
      "##븅": 1410,
      "##б": 1411,
      "##̈": 1412,
      "##▪": 1413,
      "##і": 1414,
      "##ź": 1415,
      "##■": 1416,
      "##ы": 1417,
      "##↷": 1418,
      "##Ì": 1419,
      "##ϊ": 1420,
      "##ש": 1421,
      "##ה": 1422,
      "##ῖ": 1423,
      "##̅": 1424,
      "##י": 1425,
      "##▾": 1426,
      "##ɑ": 1427,
      "##П": 1428,
      "##➔": 1429,
      "##⋅": 1430,
      "##∶": 1431,
      "##Н": 1432,
      "##ᅟ": 1433,
      "##¾": 1434,
      "##ч": 1435,
      "##ज": 1436,
      "##ा": 1437,
      "##ل": 1438,
      "##س": 1439,
      "##ع": 1440,
      "##د": 1441,
      "##ا": 1442,
      "##و": 1443,
      "##ľ": 1444,
      "##Ò": 1445,
      "##に": 1446,
      "##な": 1447,
      "##ん": 1448,
      "##か": 1449,
      "##ĝ": 1450,
      "##░": 1451,
      "##Τ": 1452,
      "##Æ": 1453,
      "##○": 1454,
      "##ь": 1455,
      "##ش": 1456,
      "##Η": 1457,
      "##́": 1458,
      "##ц": 1459,
      "##ː": 1460,
      "##ə": 1461,
      "##ș": 1462,
      "##▼": 1463,
      "##ῆ": 1464,
      "##⁻": 1465,
      "##ϕ": 1466,
      "##Ĥ": 1467,
      "##ф": 1468,
      "##⇋": 1469,
      "##◦": 1470,
      "##¸": 1471,
      "##Ş": 1472,
      "##│": 1473,
      "##ح": 1474,
      "##ك": 1475,
      "##م": 1476,
      "##▸": 1477,
      "##˙": 1478,
      "##∩": 1479,
      "##з": 1480,
      "##∈": 1481,
      "##Ŝ": 1482,
      "##Ⅱ": 1483,
      "##ň": 1484,
      "##Г": 1485,
      "##ɔ": 1486,
      "##⇒": 1487,
      "##Ÿ": 1488,
      "##ナ": 1489,
      "##ミ": 1490,
      "##ア": 1491,
      "##⁺": 1492,
      "##К": 1493,
      "##ű": 1494,
      "##ʾ": 1495,
      "##ế": 1496,
      "##Ν": 1497,
      "##Č": 1498,
      "##௠": 1499,
      "##ɣ": 1500,
      "##ˈ": 1501,
      "##⨁": 1502,
      "##◯": 1503,
      "##ж": 1504,
      "##Υ": 1505,
      "##̂": 1506,
      "##►": 1507,
      "##ὲ": 1508,
      "##˂": 1509,
      "##Ϗ": 1510,
      "##▒": 1511,
      "##щ": 1512,
      "##∏": 1513,
      "##レ": 1514,
      "##ก": 1515,
      "##ใ": 1516,
      "##ต": 1517,
      "##้": 1518,
      "##บ": 1519,
      "##ד": 1520,
      "##ס": 1521,
      "##Χ": 1522,
      "##～": 1523,
      "##✠": 1524,
      "##₄": 1525,
      "##Ð": 1526,
      "##∆": 1527,
      "##ز": 1528,
      "##ر": 1529,
      "##⊕": 1530,
      "##⊝": 1531,
      "##ח": 1532,
      "##ל": 1533,
      "##️": 1534,
      "##⊂": 1535,
      "##⇄": 1536,
      "##⌣": 1537,
      "##ψ": 1538,
      "##┤": 1539,
      "##ְ": 1540,
      "##ּ": 1541,
      "##ר": 1542,
      "##ִ": 1543,
      "##ת": 1544,
      "##ﬀ": 1545,
      "##Ñ": 1546,
      "##∂": 1547,
      "##◊": 1548,
      "##ḍ": 1549,
      "##∝": 1550,
      "##ḥ": 1551,
      "##⊖": 1552,
      "##Ϯ": 1553,
      "##ｵ": 1554,
      "##Ł": 1555,
      "##ш": 1556,
      "##ᾰ": 1557,
      "##➢": 1558,
      "##≲": 1559,
      "##ɤ": 1560,
      "##ю": 1561,
      "##➝": 1562,
      "##⟷": 1563,
      "##≃": 1564,
      "##₅": 1565,
      "##₀": 1566,
      "##⇑": 1567,
      "##⇓": 1568,
      "##⇆": 1569,
      "##ֹ": 1570,
      "##◻": 1571,
      "##②": 1572,
      "##क": 1573,
      "##ी": 1574,
      "##▴": 1575,
      "##Л": 1576,
      "##Ⅰ": 1577,
      "##∕": 1578,
      "##⩽": 1579,
      "##ق": 1580,
      "##ت": 1581,
      "##⬰": 1582,
      "##Ъ": 1583,
      "##ं": 1584,
      "##┴": 1585,
      "##⿿": 1586,
      "##𝛽": 1587,
      "##ɛ": 1588,
      "##⋯": 1589,
      "##⁴": 1590,
      "##ͳ": 1591,
      "##⚫": 1592,
      "##ฟ": 1593,
      "##Ј": 1594,
      "##◎": 1595,
      "##̆": 1596,
      "##่": 1597,
      "##อ": 1598,
      "##ง": 1599,
      "##ℜ": 1600,
      "##ɨ": 1601,
      "##स": 1602,
      "##व": 1603,
      "##त": 1604,
      "##∧": 1605,
      "##ಿ": 1606,
      "##ಲ": 1607,
      "##್": 1608,
      "##╪": 1609,
      "##फ": 1610,
      "##נ": 1611,
      "##ז": 1612,
      "##ℓ": 1613,
      "##☆": 1614,
      "##І": 1615,
      "##ϒ": 1616,
      "##़": 1617,
      "##⿬": 1618,
      "##˿": 1619,
      "##˥": 1620,
      "##ả": 1621,
      "##ɸ": 1622,
      "##≦": 1623,
      "##∇": 1624,
      "##➤": 1625,
      "##Θ": 1626,
      "##ร": 1627,
      "##ม": 1628,
      "##্": 1629,
      "##ة": 1630,
      "##≫": 1631,
      "##∥": 1632,
      "##ه": 1633,
      "##⥠": 1634,
      "##Ψ": 1635,
      "##प": 1636,
      "##ड": 1637,
      "##ĉ": 1638,
      "##Ω": 1639,
      "##̌": 1640,
      "##Ā": 1641,
      "##ص": 1642,
      "##ⅹ": 1643,
      "##⬠": 1644,
      "##ῦ": 1645,
      "##★": 1646,
      "##э": 1647,
      "##ם": 1648,
      "##✕": 1649,
      "##ǔ": 1650,
      "##ὐ": 1651,
      "##Ά": 1652,
      "##≪": 1653,
      "##ـ": 1654,
      "##̀": 1655,
      "##∘": 1656,
      "##ἠ": 1657,
      "##➞": 1658,
      "##ķ": 1659,
      "##Ⓡ": 1660,
      "##ǁ": 1661,
      "##⊥": 1662,
      "##Б": 1663,
      "##ἷ": 1664,
      "##Ų": 1665,
      "##ɯ": 1666,
      "##ῷ": 1667,
      "##ὖ": 1668,
      "##∪": 1669,
      "##ग": 1670,
      "##न": 1671,
      "##ब": 1672,
      "##␤": 1673,
      "##བ": 1674,
      "##ྱ": 1675,
      "##ར": 1676,
      "##▓": 1677,
      "##↙": 1678,
      "##⠀": 1679,
      "##ೆ": 1680,
      "##ಟ": 1681,
      "##֯": 1682,
      "##⟂": 1683,
      "##➙": 1684,
      "##ȳ": 1685,
      "##⁵": 1686,
      "##⋠": 1687,
      "##Ц": 1688,
      "##ổ": 1689,
      "##￼": 1690,
      "##า": 1691,
      "##โ": 1692,
      "##ค": 1693,
      "##ล": 1694,
      "##˃": 1695,
      "##⇀": 1696,
      "##⁶": 1697,
      "##ḗ": 1698,
      "##ﾴ": 1699,
      "##Ɛ": 1700,
      "##ϵ": 1701,
      "##⩾": 1702,
      "##ὔ": 1703,
      "##ᎏ": 1704,
      "##ệ": 1705,
      "##⇝": 1706,
      "##✓": 1707,
      "##̧": 1708,
      "##ữ": 1709,
      "##ἴ": 1710,
      "##Ć": 1711,
      "##Ξ": 1712,
      "##ב": 1713,
      "##⁰": 1714,
      "##ĸ": 1715,
      "##⁹": 1716,
      "##ļ": 1717,
      "##श": 1718,
      "##א": 1719,
      "##ガ": 1720,
      "##▲": 1721,
      "##≧": 1722,
      "##☓": 1723,
      "##ŭ": 1724,
      "##ȗ": 1725,
      "##Х": 1726,
      "##Я": 1727,
      "##פ": 1728,
      "##ό": 1729,
      "##ྩ": 1730,
      "##ྭ": 1731,
      "##ɡ": 1732,
      "##Ō": 1733,
      "##║": 1734,
      "##✶": 1735,
      "##ἐ": 1736,
      "##ĩ": 1737,
      "##ď": 1738,
      "##✴": 1739,
      "##₃": 1740,
      "##ὸ": 1741,
      "##ج": 1742,
      "##ɕ": 1743,
      "##Ț": 1744,
      "##΅": 1745,
      "##장": 1746,
      "##재": 1747,
      "##활": 1748,
      "##₆": 1749,
      "##Đ": 1750,
      "##ὀ": 1751,
      "##ʿ": 1752,
      "##き": 1753,
      "##り": 1754,
      "##แ": 1755,
      "##Ш": 1756,
      "##en": 1757,
      "##er": 1758,
      "##an": 1759,
      "##ie": 1760,
      "##in": 1761,
      "##el": 1762,
      "##or": 1763,
      "##at": 1764,
      "##et": 1765,
      "de": 1766,
      "##ij": 1767,
      "##ch": 1768,
      "van": 1769,
      "##st": 1770,
      "##al": 1771,
      "##on": 1772,
      "##ar": 1773,
      "##ing": 1774,
      "en": 1775,
      "##de": 1776,
      "##it": 1777,
      "ge": 1778,
      "##is": 1779,
      "in": 1780,
      "##ro": 1781,
      "##oor": 1782,
      "##den": 1783,
      "##ge": 1784,
      "##ol": 1785,
      "##re": 1786,
      "##ct": 1787,
      "ver": 1788,
      "##der": 1789,
      "een": 1790,
      "met": 1791,
      "##le": 1792,
      "be": 1793,
      "##om": 1794,
      "het": 1795,
      "##te": 1796,
      "##atie": 1797,
      "##id": 1798,
      "##oe": 1799,
      "##as": 1800,
      "##aar": 1801,
      "op": 1802,
      "##ijk": 1803,
      "##ra": 1804,
      "##ul": 1805,
      "##ig": 1806,
      "##isch": 1807,
      "##ic": 1808,
      "##ten": 1809,
      "##es": 1810,
      "##og": 1811,
      "voor": 1812,
      "on": 1813,
      "##erd": 1814,
      "##am": 1815,
      "##cht": 1816,
      "##ot": 1817,
      "##ent": 1818,
      "##ur": 1819,
      "##ale": 1820,
      "##il": 1821,
      "##us": 1822,
      "##ische": 1823,
      "te": 1824,
      "##gen": 1825,
      "aan": 1826,
      "##ijn": 1827,
      "##ken": 1828,
      "st": 1829,
      "##em": 1830,
      "is": 1831,
      "##ver": 1832,
      "##os": 1833,
      "##sch": 1834,
      "##elijk": 1835,
      "##di": 1836,
      "##la": 1837,
      "##un": 1838,
      "##um": 1839,
      "De": 1840,
      "##eer": 1841,
      "##op": 1842,
      "al": 1843,
      "re": 1844,
      "##ctie": 1845,
      "##ven": 1846,
      "##ee": 1847,
      "##ine": 1848,
      "##he": 1849,
      "##ik": 1850,
      "##del": 1851,
      "bij": 1852,
      "##len": 1853,
      "##ag": 1854,
      "##ati": 1855,
      "##ve": 1856,
      "##ru": 1857,
      "om": 1858,
      "die": 1859,
      "an": 1860,
      "wor": 1861,
      "##eren": 1862,
      "##ingen": 1863,
      "##ele": 1864,
      "dat": 1865,
      "zijn": 1866,
      "of": 1867,
      "##ze": 1868,
      "onder": 1869,
      "##aal": 1870,
      "##ën": 1871,
      "##if": 1872,
      "##ste": 1873,
      "##oc": 1874,
      "door": 1875,
      "##sp": 1876,
      "##orm": 1877,
      "##im": 1878,
      "##iet": 1879,
      "##ab": 1880,
      "##sen": 1881,
      "##ap": 1882,
      "uit": 1883,
      "con": 1884,
      "##ak": 1885,
      "pro": 1886,
      "##ed": 1887,
      "##ter": 1888,
      "##heid": 1889,
      "werd": 1890,
      "wer": 1891,
      "##ep": 1892,
      "##ite": 1893,
      "geen": 1894,
      "##se": 1895,
      "niet": 1896,
      "##ut": 1897,
      "##ai": 1898,
      "##eg": 1899,
      "##and": 1900,
      "waar": 1901,
      "##iek": 1902,
      "##per": 1903,
      "geb": 1904,
      "af": 1905,
      "als": 1906,
      "##ss": 1907,
      "##iteit": 1908,
      "##oed": 1909,
      "##atiën": 1910,
      "##uw": 1911,
      "tot": 1912,
      "##ang": 1913,
      "##eld": 1914,
      "##ist": 1915,
      "##ige": 1916,
      "##olog": 1917,
      "20": 1918,
      "##ant": 1919,
      "##ult": 1920,
      "##ect": 1921,
      "beh": 1922,
      "over": 1923,
      "##aat": 1924,
      "##ff": 1925,
      "##ft": 1926,
      "##ad": 1927,
      "##dt": 1928,
      "##ri": 1929,
      "##ec": 1930,
      "##ok": 1931,
      "sp": 1932,
      "##ers": 1933,
      "patiën": 1934,
      "na": 1935,
      "##omen": 1936,
      "In": 1937,
      "worden": 1938,
      "##ac": 1939,
      "##act": 1940,
      "##ho": 1941,
      "##een": 1942,
      "##ud": 1943,
      "##eerd": 1944,
      "werden": 1945,
      "ont": 1946,
      "##aire": 1947,
      "##ion": 1948,
      "10": 1949,
      "##ies": 1950,
      "##ier": 1951,
      "was": 1952,
      "er": 1953,
      "##od": 1954,
      "wordt": 1955,
      "##ast": 1956,
      "##icht": 1957,
      "##wij": 1958,
      "onderz": 1959,
      "per": 1960,
      "##nen": 1961,
      "res": 1962,
      "##ich": 1963,
      "##ide": 1964,
      "##art": 1965,
      "##val": 1966,
      "gro": 1967,
      "##uur": 1968,
      "##AT": 1969,
      "bl": 1970,
      "##uc": 1971,
      "##of": 1972,
      "##elijke": 1973,
      "##aan": 1974,
      "ex": 1975,
      "##iv": 1976,
      "##eerde": 1977,
      "##ran": 1978,
      "##men": 1979,
      "di": 1980,
      "##ker": 1981,
      "deze": 1982,
      "##oon": 1983,
      "##oek": 1984,
      "##vol": 1985,
      "gen": 1986,
      "zo": 1987,
      "##andel": 1988,
      "##ort": 1989,
      "##ub": 1990,
      "##yp": 1991,
      "##tro": 1992,
      "le": 1993,
      "##aten": 1994,
      "##ijd": 1995,
      "##ellen": 1996,
      "##ell": 1997,
      "##ere": 1998,
      "##ific": 1999,
      "kan": 2000,
      "##ym": 2001,
      "##ress": 2002,
      "##ind": 2003,
      "##ardi": 2004,
      "##ruik": 2005,
      "##ir": 2006,
      "##ien": 2007,
      "##ings": 2008,
      "##ose": 2009,
      "##dere": 2010,
      "we": 2011,
      "##chter": 2012,
      "##ron": 2013,
      "##vo": 2014,
      "##cl": 2015,
      "##ER": 2016,
      "Con": 2017,
      "##tra": 2018,
      "##ectie": 2019,
      "##aties": 2020,
      "##we": 2021,
      "##kt": 2022,
      "##ON": 2023,
      "##inder": 2024,
      "##omp": 2025,
      "mg": 2026,
      "##onder": 2027,
      "ch": 2028,
      "he": 2029,
      "##ame": 2030,
      "gem": 2031,
      "##ase": 2032,
      "Het": 2033,
      "##be": 2034,
      "toe": 2035,
      "##ologie": 2036,
      "vol": 2037,
      "##eeft": 2038,
      "eff": 2039,
      "versch": 2040,
      "Er": 2041,
      "ho": 2042,
      "##iddel": 2043,
      "gebruik": 2044,
      "##ende": 2045,
      "##ost": 2046,
      "##ne": 2047,
      "##ass": 2048,
      "##wee": 2049,
      "##rij": 2050,
      "##entie": 2051,
      "behandel": 2052,
      "##aren": 2053,
      "##ys": 2054,
      "##lin": 2055,
      "naar": 2056,
      "##ip": 2057,
      "##aak": 2058,
      "ne": 2059,
      "##lo": 2060,
      "##lijk": 2061,
      "##ib": 2062,
      "patiënten": 2063,
      "inf": 2064,
      "##uid": 2065,
      "##me": 2066,
      "ant": 2067,
      "##illen": 2068,
      "##sie": 2069,
      "##ond": 2070,
      "##ign": 2071,
      "##ater": 2072,
      "##ben": 2073,
      "##erde": 2074,
      "stud": 2075,
      "##geven": 2076,
      "##ia": 2077,
      "inter": 2078,
      "##her": 2079,
      "##yn": 2080,
      "##UM": 2081,
      "##pen": 2082,
      "sch": 2083,
      "onderzoek": 2084,
      "maar": 2085,
      "##ussen": 2086,
      "##af": 2087,
      "##king": 2088,
      "verb": 2089,
      "##yl": 2090,
      "##ug": 2091,
      "im": 2092,
      "lin": 2093,
      "##oren": 2094,
      "dan": 2095,
      "##age": 2096,
      "bet": 2097,
      "norm": 2098,
      "##lag": 2099,
      "##ke": 2100,
      "##usie": 2101,
      "heb": 2102,
      "ook": 2103,
      "##mer": 2104,
      "DAT": 2105,
      "ter": 2106,
      "##ath": 2107,
      "##entr": 2108,
      "##qu": 2109,
      "##als": 2110,
      "ged": 2111,
      "verg": 2112,
      "her": 2113,
      "##iden": 2114,
      "##ox": 2115,
      "hebben": 2116,
      "12": 2117,
      "##ept": 2118,
      "##ogen": 2119,
      "##sel": 2120,
      "geï": 2121,
      "##con": 2122,
      "ar": 2123,
      "verm": 2124,
      "##00": 2125,
      "##amen": 2126,
      "Geen": 2127,
      "eer": 2128,
      "mo": 2129,
      "##ander": 2130,
      "##ering": 2131,
      "##ure": 2132,
      "pre": 2133,
      "bel": 2134,
      "sign": 2135,
      "##zen": 2136,
      "verschillen": 2137,
      "gez": 2138,
      "##baar": 2139,
      "##pt": 2140,
      "##ulaire": 2141,
      "##SO": 2142,
      "##ressie": 2143,
      "##uis": 2144,
      "DATUM": 2145,
      "kun": 2146,
      "##ië": 2147,
      "An": 2148,
      "##onen": 2149,
      "##gel": 2150,
      "##oen": 2151,
      "##ijden": 2152,
      "##kel": 2153,
      "##rie": 2154,
      "uitge": 2155,
      "min": 2156,
      "PER": 2157,
      "tussen": 2158,
      "##laat": 2159,
      "##ese": 2160,
      "201": 2161,
      "heeft": 2162,
      "##NA": 2163,
      "##actie": 2164,
      "waren": 2165,
      "##pl": 2166,
      "##oven": 2167,
      "##SOON": 2168,
      "PERSOON": 2169,
      "meer": 2170,
      "##alis": 2171,
      "##rom": 2172,
      "##eel": 2173,
      "##iviteit": 2174,
      "besch": 2175,
      "ontw": 2176,
      "act": 2177,
      "##atieve": 2178,
      "##pro": 2179,
      "dag": 2180,
      "##unctie": 2181,
      "##ive": 2182,
      "hy": 2183,
      "kunnen": 2184,
      "##chten": 2185,
      "##wel": 2186,
      "effect": 2187,
      "Al": 2188,
      "##yse": 2189,
      "dit": 2190,
      "patiënt": 2191,
      "##reven": 2192,
      "##ieden": 2193,
      "##AR": 2194,
      "##itie": 2195,
      "bloed": 2196,
      "comp": 2197,
      "##ren": 2198,
      "##zig": 2199,
      "##trole": 2200,
      "##sult": 2201,
      "alle": 2202,
      "##yt": 2203,
      "##lu": 2204,
      "##ann": 2205,
      "##kken": 2206,
      "##are": 2207,
      "me": 2208,
      "##rans": 2209,
      "##ium": 2210,
      "##dien": 2211,
      "##ation": 2212,
      "##du": 2213,
      "##gevens": 2214,
      "##ieuw": 2215,
      "twee": 2216,
      "##oel": 2217,
      "Een": 2218,
      "uur": 2219,
      "Deze": 2220,
      "##ank": 2221,
      "11": 2222,
      "bev": 2223,
      "result": 2224,
      "##genomen": 2225,
      "ma": 2226,
      "ac": 2227,
      "##aam": 2228,
      "##wit": 2229,
      "rec": 2230,
      "CT": 2231,
      "##io": 2232,
      "##ens": 2233,
      "##ong": 2234,
      "##rijk": 2235,
      "##th": 2236,
      "ger": 2237,
      "##agn": 2238,
      "belang": 2239,
      "##alen": 2240,
      "Cardi": 2241,
      "Ver": 2242,
      "##ma": 2243,
      "behandeling": 2244,
      "cellen": 2245,
      "##ulp": 2246,
      "We": 2247,
      "##ger": 2248,
      "studie": 2249,
      "verander": 2250,
      "pol": 2251,
      "verschillende": 2252,
      "or": 2253,
      "verho": 2254,
      "##yst": 2255,
      "##IN": 2256,
      "##dige": 2257,
      "##ute": 2258,
      "##ces": 2259,
      "##wer": 2260,
      "##arm": 2261,
      "##ment": 2262,
      "linker": 2263,
      "##alyse": 2264,
      "vergelijk": 2265,
      "##iwit": 2266,
      "kle": 2267,
      "wat": 2268,
      "##EN": 2269,
      "ontwik": 2270,
      "##ate": 2271,
      "15": 2272,
      "On": 2273,
      "##yc": 2274,
      "sub": 2275,
      "ze": 2276,
      "##igen": 2277,
      "signific": 2278,
      "best": 2279,
      "21": 2280,
      "##onden": 2281,
      "am": 2282,
      "##herap": 2283,
      "19": 2284,
      "##duc": 2285,
      "##ill": 2286,
      "mm": 2287,
      "##est": 2288,
      "##ieke": 2289,
      "##schap": 2290,
      "reg": 2291,
      "##ante": 2292,
      "bas": 2293,
      "##ram": 2294,
      "##iële": 2295,
      "##oom": 2296,
      "pl": 2297,
      "hart": 2298,
      "had": 2299,
      "##org": 2300,
      "##eten": 2301,
      "at": 2302,
      "##ijdens": 2303,
      "##oord": 2304,
      "##ving": 2305,
      "##icatie": 2306,
      "verhoog": 2307,
      "##itis": 2308,
      "##name": 2309,
      "##ek": 2310,
      "andere": 2311,
      "eiwit": 2312,
      "##clusie": 2313,
      "cor": 2314,
      "resultaten": 2315,
      "##icro": 2316,
      "##ef": 2317,
      "vro": 2318,
      "mog": 2319,
      "##pressie": 2320,
      "##dro": 2321,
      "th": 2322,
      "verk": 2323,
      "pijn": 2324,
      "##ert": 2325,
      "##ente": 2326,
      "##erg": 2327,
      "rechter": 2328,
      "goed": 2329,
      "gebruikt": 2330,
      "##gest": 2331,
      "##eleid": 2332,
      "##ivea": 2333,
      "verminder": 2334,
      "##volg": 2335,
      "zonder": 2336,
      "##ologische": 2337,
      "##ader": 2338,
      "##dem": 2339,
      "zoals": 2340,
      "##let": 2341,
      "##elf": 2342,
      "##geb": 2343,
      "##acht": 2344,
      "##IE": 2345,
      "geïn": 2346,
      "jaar": 2347,
      "##middel": 2348,
      "ziek": 2349,
      "sc": 2350,
      "##vl": 2351,
      "belangrijk": 2352,
      "##ruk": 2353,
      "13": 2354,
      "verbet": 2355,
      "ab": 2356,
      "med": 2357,
      "##eu": 2358,
      "hoe": 2359,
      "##sc": 2360,
      "##anc": 2361,
      "col": 2362,
      "nieuw": 2363,
      "##adi": 2364,
      "14": 2365,
      "##ype": 2366,
      "St": 2367,
      "##ard": 2368,
      "hun": 2369,
      "##uden": 2370,
      "ontwikkel": 2371,
      "man": 2372,
      "Cardiologie": 2373,
      "zich": 2374,
      "##ob": 2375,
      "el": 2376,
      "klin": 2377,
      "##atum": 2378,
      "##ui": 2379,
      "##chts": 2380,
      "tijdens": 2381,
      "##slag": 2382,
      "##heden": 2383,
      "Om": 2384,
      "co": 2385,
      "##aag": 2386,
      "##orst": 2387,
      "vert": 2388,
      "##ruct": 2389,
      "##wezig": 2390,
      "trans": 2391,
      "##erende": 2392,
      "ml": 2393,
      "##aakt": 2394,
      "##fie": 2395,
      "behulp": 2396,
      "kw": 2397,
      "mee": 2398,
      "tijd": 2399,
      "##elling": 2400,
      "nu": 2401,
      "##iale": 2402,
      "##air": 2403,
      "spec": 2404,
      "##iedenis": 2405,
      "bin": 2406,
      "##vat": 2407,
      "##eter": 2408,
      "30": 2409,
      "##hal": 2410,
      "controle": 2411,
      "##dent": 2412,
      "##agen": 2413,
      "##IS": 2414,
      "##ule": 2415,
      "##valu": 2416,
      "##bare": 2417,
      "##ting": 2418,
      "##atief": 2419,
      "##tie": 2420,
      "##kend": 2421,
      "resp": 2422,
      "##nel": 2423,
      "activiteit": 2424,
      "##zien": 2425,
      "toon": 2426,
      "##uren": 2427,
      "##ulatie": 2428,
      "##gesch": 2429,
      "wee": 2430,
      "25": 2431,
      "##woord": 2432,
      "##iën": 2433,
      "##vallen": 2434,
      "beg": 2435,
      "##igheid": 2436,
      "##anis": 2437,
      "##uit": 2438,
      "##vorm": 2439,
      "mon": 2440,
      "##ogra": 2441,
      "gew": 2442,
      "##lex": 2443,
      "long": 2444,
      "##stand": 2445,
      "gegevens": 2446,
      "gl": 2447,
      "par": 2448,
      "lever": 2449,
      "bi": 2450,
      "imm": 2451,
      "##gro": 2452,
      "beoor": 2453,
      "##racht": 2454,
      "##ari": 2455,
      "Dit": 2456,
      "huid": 2457,
      "onge": 2458,
      "micro": 2459,
      "##fer": 2460,
      "art": 2461,
      "normale": 2462,
      "##ablet": 2463,
      "##isic": 2464,
      "##ood": 2465,
      "functie": 2466,
      "groep": 2467,
      "##ositie": 2468,
      "##ced": 2469,
      "mogelijk": 2470,
      "##voerd": 2471,
      "##ocht": 2472,
      "##laats": 2473,
      "Conclusie": 2474,
      "##gens": 2475,
      "ap": 2476,
      "Pro": 2477,
      "rem": 2478,
      "##elt": 2479,
      "ele": 2480,
      "##van": 2481,
      "bep": 2482,
      "##nis": 2483,
      "test": 2484,
      "##ction": 2485,
      "Bij": 2486,
      "##etische": 2487,
      "16": 2488,
      "##voor": 2489,
      "ster": 2490,
      "bere": 2491,
      "##uro": 2492,
      "##ax": 2493,
      "Sp": 2494,
      "hyper": 2495,
      "##met": 2496,
      "##oten": 2497,
      "##aard": 2498,
      "##bij": 2499,
      "50": 2500,
      "##herapie": 2501,
      "##oorz": 2502,
      "##elen": 2503,
      "##IC": 2504,
      "uitgevoerd": 2505,
      "##hank": 2506,
      "##ateg": 2507,
      "##eert": 2508,
      "##ator": 2509,
      "cardi": 2510,
      "##centr": 2511,
      "##AD": 2512,
      "##olec": 2513,
      "##yste": 2514,
      "borst": 2515,
      "normaal": 2516,
      "zw": 2517,
      "Consult": 2518,
      "hyp": 2519,
      "aanwezig": 2520,
      "##dentific": 2521,
      "##cedure": 2522,
      "##TE": 2523,
      "toen": 2524,
      "##vul": 2525,
      "ste": 2526,
      "Re": 2527,
      "vorm": 2528,
      "syn": 2529,
      "nieuwe": 2530,
      "##dra": 2531,
      "##ster": 2532,
      "200": 2533,
      "com": 2534,
      "##omst": 2535,
      "aant": 2536,
      "basis": 2537,
      "##kte": 2538,
      "##und": 2539,
      "ben": 2540,
      "hem": 2541,
      "post": 2542,
      "##deling": 2543,
      "##lachten": 2544,
      "100": 2545,
      "##deren": 2546,
      "##mat": 2547,
      "##ees": 2548,
      "nivea": 2549,
      "##assen": 2550,
      "tra": 2551,
      "##last": 2552,
      "24": 2553,
      "eerste": 2554,
      "##rit": 2555,
      "##rim": 2556,
      "##wijk": 2557,
      "18": 2558,
      "echter": 2559,
      "##indingen": 2560,
      "vrouw": 2561,
      "intra": 2562,
      "waargenomen": 2563,
      "Be": 2564,
      "ziekte": 2565,
      "tegen": 2566,
      "##jes": 2567,
      "wij": 2568,
      "##gende": 2569,
      "##ugger": 2570,
      "##ieken": 2571,
      "##ieerd": 2572,
      "Aan": 2573,
      "##get": 2574,
      "##ach": 2575,
      "ep": 2576,
      "##emie": 2577,
      "verwij": 2578,
      "CO": 2579,
      "##up": 2580,
      "cel": 2581,
      "##ductie": 2582,
      "Ge": 2583,
      "##mon": 2584,
      "40": 2585,
      "##regen": 2586,
      "risic": 2587,
      "##och": 2588,
      "##ust": 2589,
      "##eratie": 2590,
      "dos": 2591,
      "gest": 2592,
      "##emen": 2593,
      "ad": 2594,
      "nog": 2595,
      "##AL": 2596,
      "Op": 2597,
      "Datum": 2598,
      "##nst": 2599,
      "##ire": 2600,
      "gep": 2601,
      "##els": 2602,
      "##oeken": 2603,
      "##stelling": 2604,
      "Met": 2605,
      "##yten": 2606,
      "##CH": 2607,
      "lich": 2608,
      "##raal": 2609,
      "##atten": 2610,
      "##ov": 2611,
      "##asc": 2612,
      "klinische": 2613,
      "hoog": 2614,
      "Th": 2615,
      "cont": 2616,
      "##schreven": 2617,
      "veel": 2618,
      "##voel": 2619,
      "nod": 2620,
      "##spro": 2621,
      "##cin": 2622,
      "Voor": 2623,
      "positie": 2624,
      "##fsel": 2625,
      "##atuur": 2626,
      "binnen": 2627,
      "##AM": 2628,
      "Over": 2629,
      "##cellen": 2630,
      "CAR": 2631,
      "lang": 2632,
      "##hy": 2633,
      "reactie": 2634,
      "##weg": 2635,
      "##co": 2636,
      "##ude": 2637,
      "##rek": 2638,
      "##ofd": 2639,
      "ble": 2640,
      "Ch": 2641,
      "diagn": 2642,
      "##oede": 2643,
      "omschreven": 2644,
      "syst": 2645,
      "##schijn": 2646,
      "##chn": 2647,
      "##one": 2648,
      "sugger": 2649,
      "veroorz": 2650,
      "II": 2651,
      "##rium": 2652,
      "stab": 2653,
      "middel": 2654,
      "##bre": 2655,
      "hoge": 2656,
      "##orie": 2657,
      "betro": 2658,
      "tum": 2659,
      "zowel": 2660,
      "Na": 2661,
      "##wijs": 2662,
      "werk": 2663,
      "veranderingen": 2664,
      "samen": 2665,
      "end": 2666,
      "dis": 2667,
      "neg": 2668,
      "##ING": 2669,
      "##wijl": 2670,
      "##bin": 2671,
      "geass": 2672,
      "##inale": 2673,
      "ten": 2674,
      "##atus": 2675,
      "cm": 2676,
      "specif": 2677,
      "##app": 2678,
      "##urende": 2679,
      "##lijke": 2680,
      "and": 2681,
      "##ymf": 2682,
      "dagen": 2683,
      "##ont": 2684,
      "##gem": 2685,
      "##form": 2686,
      "##open": 2687,
      "PC": 2688,
      "drie": 2689,
      "##amil": 2690,
      "boven": 2691,
      "vertoon": 2692,
      "metho": 2693,
      "rol": 2694,
      "##emb": 2695,
      "##atische": 2696,
      "studies": 2697,
      "analyse": 2698,
      "deel": 2699,
      "17": 2700,
      "via": 2701,
      "gev": 2702,
      "##rag": 2703,
      "rel": 2704,
      "##oort": 2705,
      "##komen": 2706,
      "##dat": 2707,
      "##gaan": 2708,
      "##osf": 2709,
      "##geschiedenis": 2710,
      "model": 2711,
      "##iver": 2712,
      "doel": 2713,
      "##ema": 2714,
      "00": 2715,
      "geassoc": 2716,
      "##ica": 2717,
      "##IL": 2718,
      "ges": 2719,
      "verhoogde": 2720,
      "sym": 2721,
      "##urs": 2722,
      "int": 2723,
      "vergelijking": 2724,
      "ser": 2725,
      "significant": 2726,
      "##unction": 2727,
      "gevolg": 2728,
      "infectie": 2729,
      "evalu": 2730,
      "ernst": 2731,
      "expressie": 2732,
      "##all": 2733,
      "Ex": 2734,
      "groot": 2735,
      "##uk": 2736,
      "##raag": 2737,
      "struct": 2738,
      "aantal": 2739,
      "plaats": 2740,
      "nodig": 2741,
      "##amn": 2742,
      "snel": 2743,
      "##ble": 2744,
      "##rine": 2745,
      "##ijnen": 2746,
      "sle": 2747,
      "gesch": 2748,
      "##oï": 2749,
      "##schijnlijk": 2750,
      "aort": 2751,
      "##ple": 2752,
      "##kende": 2753,
      "LV": 2754,
      "ro": 2755,
      "IN": 2756,
      "##vel": 2757,
      "##ziek": 2758,
      "##druk": 2759,
      "##ks": 2760,
      "##amnese": 2761,
      "meest": 2762,
      "##ysteem": 2763,
      "terwijl": 2764,
      "type": 2765,
      "##emische": 2766,
      "##oog": 2767,
      "effecten": 2768,
      "haar": 2769,
      "##iel": 2770,
      "hij": 2771,
      "aanget": 2772,
      "geh": 2773,
      "Ant": 2774,
      "##ied": 2775,
      "##opt": 2776,
      "onderste": 2777,
      "##ikel": 2778,
      "waarbij": 2779,
      "##quentie": 2780,
      "##ransp": 2781,
      "##ID": 2782,
      "ob": 2783,
      "IC": 2784,
      "mil": 2785,
      "Boven": 2786,
      "##low": 2787,
      "##ders": 2788,
      "##eeftijd": 2789,
      "gek": 2790,
      "##mg": 2791,
      "##gesteld": 2792,
      "##gang": 2793,
      "##CT": 2794,
      "beper": 2795,
      "wel": 2796,
      "dif": 2797,
      "##zet": 2798,
      "##AS": 2799,
      "kl": 2800,
      "##alc": 2801,
      "neuro": 2802,
      "##ome": 2803,
      "##groep": 2804,
      "##middelen": 2805,
      "##ES": 2806,
      "afwijk": 2807,
      "##ming": 2808,
      "##lic": 2809,
      "##ets": 2810,
      "##inding": 2811,
      "ken": 2812,
      "moe": 2813,
      "significante": 2814,
      "gezien": 2815,
      "##aliteit": 2816,
      "##ED": 2817,
      "##RI": 2818,
      "##uizen": 2819,
      "##na": 2820,
      "##ou": 2821,
      "##EG": 2822,
      "##ith": 2823,
      "daar": 2824,
      "##waar": 2825,
      "##iciën": 2826,
      "minder": 2827,
      "alleen": 2828,
      "mech": 2829,
      "IV": 2830,
      "##xim": 2831,
      "lymf": 2832,
      "gevoel": 2833,
      "bre": 2834,
      "##urg": 2835,
      "##elde": 2836,
      "gra": 2837,
      "ass": 2838,
      "hog": 2839,
      "##atige": 2840,
      "##zuur": 2841,
      "radi": 2842,
      "gedurende": 2843,
      "##MP": 2844,
      "hel": 2845,
      "##keur": 2846,
      "##ondheid": 2847,
      "##iss": 2848,
      "onderzoeken": 2849,
      "##do": 2850,
      "##oot": 2851,
      "##rop": 2852,
      "##cent": 2853,
      "bewijs": 2854,
      "##ijst": 2855,
      "duid": 2856,
      "##ane": 2857,
      "##ore": 2858,
      "##aterale": 2859,
      "Med": 2860,
      "verz": 2861,
      "kg": 2862,
      "##AP": 2863,
      "bil": 2864,
      "weken": 2865,
      "get": 2866,
      "prog": 2867,
      "##elden": 2868,
      "##los": 2869,
      "##vloed": 2870,
      "##kan": 2871,
      "##acter": 2872,
      "up": 2873,
      "##oond": 2874,
      "##ycl": 2875,
      "##duct": 2876,
      "##isatie": 2877,
      "##ocyten": 2878,
      "kleine": 2879,
      "##én": 2880,
      "opt": 2881,
      "blij": 2882,
      "geassocieerd": 2883,
      "##rin": 2884,
      "##ctieve": 2885,
      "leeftijd": 2886,
      "##actoren": 2887,
      "##iaal": 2888,
      "##perv": 2889,
      "immun": 2890,
      "gemiddel": 2891,
      "##spre": 2892,
      "mens": 2893,
      "##ucle": 2894,
      "men": 2895,
      "zorg": 2896,
      "##ons": 2897,
      "sec": 2898,
      "genees": 2899,
      "##min": 2900,
      "Bovendien": 2901,
      "molec": 2902,
      "##ATIE": 2903,
      "##stof": 2904,
      "gede": 2905,
      "##erv": 2906,
      "##tensie": 2907,
      "##amelijk": 2908,
      "##uele": 2909,
      "ech": 2910,
      "weer": 2911,
      "##end": 2912,
      "vast": 2913,
      "##alys": 2914,
      "extra": 2915,
      "##rel": 2916,
      "vrij": 2917,
      "weefsel": 2918,
      "##functie": 2919,
      "PO": 2920,
      "risico": 2921,
      "##rijving": 2922,
      "##aanden": 2923,
      "EC": 2924,
      "##comp": 2925,
      "grote": 2926,
      "aange": 2927,
      "22": 2928,
      "##eratieve": 2929,
      "##raak": 2930,
      "##ategorie": 2931,
      "toege": 2932,
      "opname": 2933,
      "se": 2934,
      "##anneer": 2935,
      "maanden": 2936,
      "##iding": 2937,
      "zelf": 2938,
      "for": 2939,
      "##ess": 2940,
      "Vers": 2941,
      "##perim": 2942,
      "##uik": 2943,
      "ontwikkeling": 2944,
      "waarschijnlijk": 2945,
      "##ïn": 2946,
      "klachten": 2947,
      "##stru": 2948,
      "sl": 2949,
      "##handel": 2950,
      "60": 2951,
      "##actor": 2952,
      "##amine": 2953,
      "vari": 2954,
      "recept": 2955,
      "##ieren": 2956,
      "nier": 2957,
      "betrokken": 2958,
      "##vent": 2959,
      "##zel": 2960,
      "##anden": 2961,
      "DNA": 2962,
      "##ronische": 2963,
      "onderzocht": 2964,
      "##EF": 2965,
      "to": 2966,
      "##rol": 2967,
      "##ografie": 2968,
      "verkregen": 2969,
      "##orte": 2970,
      "##fin": 2971,
      "em": 2972,
      "##iot": 2973,
      "beschreven": 2974,
      "##LO": 2975,
      "##kingen": 2976,
      "gel": 2977,
      "##leg": 2978,
      "##ijkt": 2979,
      "acute": 2980,
      "##huis": 2981,
      "##ret": 2982,
      "cons": 2983,
      "##vullen": 2984,
      "groe": 2985,
      "oor": 2986,
      "##pervla": 2987,
      "concentr": 2988,
      "specifieke": 2989,
      "volle": 2990,
      "org": 2991,
      "##ijf": 2992,
      "##str": 2993,
      "poten": 2994,
      "eigen": 2995,
      "##gegevens": 2996,
      "aand": 2997,
      "##ET": 2998,
      "##ouw": 2999,
      "cyt": 3000,
      "proces": 3001,
      "##ffen": 3002,
      "##ucht": 3003,
      "eerder": 3004,
      "leven": 3005,
      "vit": 3006,
      "##room": 3007,
      "anti": 3008,
      "my": 3009,
      "##opie": 3010,
      "##par": 3011,
      "hersen": 3012,
      "zeer": 3013,
      "##rische": 3014,
      "CD": 3015,
      "##baarheid": 3016,
      "##komst": 3017,
      "##zicht": 3018,
      "aangetoond": 3019,
      "et": 3020,
      "##kl": 3021,
      "##BC": 3022,
      "##ool": 3023,
      "kinder": 3024,
      "##verd": 3025,
      "##kun": 3026,
      "lab": 3027,
      "##sent": 3028,
      "hier": 3029,
      "belangrijke": 3030,
      "05": 3031,
      "##aald": 3032,
      "pers": 3033,
      "rechts": 3034,
      "Hij": 3035,
      "la": 3036,
      "##opath": 3037,
      "##delen": 3038,
      "##iliteit": 3039,
      "##omie": 3040,
      "dosis": 3041,
      "sympt": 3042,
      "##veer": 3043,
      "##ging": 3044,
      "##ph": 3045,
      "##ical": 3046,
      "##AIL": 3047,
      "hoofd": 3048,
      "gecon": 3049,
      "##AB": 3050,
      "lage": 3051,
      "bevindingen": 3052,
      "beeld": 3053,
      "tumor": 3054,
      "prim": 3055,
      "##wijz": 3056,
      "##ergie": 3057,
      "procedure": 3058,
      "voed": 3059,
      "##amin": 3060,
      "ventr": 3061,
      "80": 3062,
      "gezondheid": 3063,
      "##dig": 3064,
      "##schrijving": 3065,
      "##assa": 3066,
      "##zoek": 3067,
      "huidige": 3068,
      "ple": 3069,
      "ang": 3070,
      "##wege": 3071,
      "##OR": 3072,
      "uw": 3073,
      "##anten": 3074,
      "huis": 3075,
      "##sy": 3076,
      "##abol": 3077,
      "##aatste": 3078,
      "geïnduc": 3079,
      "beide": 3080,
      "##iklin": 3081,
      "complex": 3082,
      "PR": 3083,
      "##neum": 3084,
      "car": 3085,
      "function": 3086,
      "ret": 3087,
      "kn": 3088,
      "mult": 3089,
      "Omschrijving": 3090,
      "##sten": 3091,
      "##oornis": 3092,
      "mid": 3093,
      "##iekenhuis": 3094,
      "cell": 3095,
      "contra": 3096,
      "##ex": 3097,
      "##hankelijk": 3098,
      "##stig": 3099,
      "##ity": 3100,
      "som": 3101,
      "##ins": 3102,
      "##amilie": 3103,
      "Po": 3104,
      "##lep": 3105,
      "Anamnese": 3106,
      "##oth": 3107,
      "##ode": 3108,
      "un": 3109,
      "medi": 3110,
      "Categorie": 3111,
      "techn": 3112,
      "##vorming": 3113,
      "één": 3114,
      "##antie": 3115,
      "##versie": 3116,
      "##orf": 3117,
      "muizen": 3118,
      "gevallen": 3119,
      "vers": 3120,
      "fol": 3121,
      "the": 3122,
      "23": 3123,
      "darm": 3124,
      "##cept": 3125,
      "hadden": 3126,
      "##RNA": 3127,
      "Antwoord": 3128,
      "##deeld": 3129,
      "Pl": 3130,
      "experim": 3131,
      "Thema": 3132,
      "##aken": 3133,
      "voorgeschiedenis": 3134,
      "Ne": 3135,
      "##elat": 3136,
      "even": 3137,
      "terug": 3138,
      "sten": 3139,
      "202": 3140,
      "voorkomen": 3141,
      "moet": 3142,
      "vir": 3143,
      "ongeveer": 3144,
      "aut": 3145,
      "Di": 3146,
      "pat": 3147,
      "##mo": 3148,
      "RR": 3149,
      "Ab": 3150,
      "zou": 3151,
      "det": 3152,
      "verw": 3153,
      "toename": 3154,
      "##ïne": 3155,
      "gemiddelde": 3156,
      "##av": 3157,
      "elk": 3158,
      "Dis": 3159,
      "##ratie": 3160,
      "##rect": 3161,
      "##pass": 3162,
      "Verslag": 3163,
      "##opp": 3164,
      "oraal": 3165,
      "##inds": 3166,
      "##ript": 3167,
      "##kele": 3168,
      "##ce": 3169,
      "##vang": 3170,
      "##oorten": 3171,
      "##schappen": 3172,
      "##sters": 3173,
      "Tablet": 3174,
      "##az": 3175,
      "as": 3176,
      "##aling": 3177,
      "aanzien": 3178,
      "##press": 3179,
      "##ition": 3180,
      "wil": 3181,
      "##unt": 3182,
      "neur": 3183,
      "verminderde": 3184,
      "##orax": 3185,
      "licht": 3186,
      "##OS": 3187,
      "kenmer": 3188,
      "gebied": 3189,
      "##etten": 3190,
      "diagnose": 3191,
      "verhoogd": 3192,
      "tonen": 3193,
      "no": 3194,
      "##10": 3195,
      "##irurg": 3196,
      "##bel": 3197,
      "stim": 3198,
      "tablet": 3199,
      "mut": 3200,
      "##ogene": 3201,
      "lucht": 3202,
      "respectie": 3203,
      "inform": 3204,
      "##omy": 3205,
      "##romb": 3206,
      "##rem": 3207,
      "##esie": 3208,
      "hydro": 3209,
      "##reat": 3210,
      "path": 3211,
      "90": 3212,
      "enz": 3213,
      "##houden": 3214,
      "Ze": 3215,
      "##iatie": 3216,
      "##sproken": 3217,
      "dra": 3218,
      "water": 3219,
      "##beeld": 3220,
      "wanneer": 3221,
      "##ief": 3222,
      "waaronder": 3223,
      "##jectie": 3224,
      "Daar": 3225,
      "Pol": 3226,
      "enkele": 3227,
      "identific": 3228,
      "zal": 3229,
      "verl": 3230,
      "##sych": 3231,
      "voorsp": 3232,
      "##ix": 3233,
      "Patiën": 3234,
      "##AC": 3235,
      "mechanis": 3236,
      "Beleid": 3237,
      "Norm": 3238,
      "##MM": 3239,
      "##ject": 3240,
      "vo": 3241,
      "28": 3242,
      "##AG": 3243,
      "##zelf": 3244,
      "proble": 3245,
      "pul": 3246,
      "fys": 3247,
      "dist": 3248,
      "afg": 3249,
      "onze": 3250,
      "mit": 3251,
      "richt": 3252,
      "toonde": 3253,
      "PT": 3254,
      "zien": 3255,
      "opn": 3256,
      "respectiev": 3257,
      "##eft": 3258,
      "aanwezigheid": 3259,
      "##volgens": 3260,
      "ernstige": 3261,
      "##ichte": 3262,
      "laag": 3263,
      "ziekenhuis": 3264,
      "##aalde": 3265,
      "##analyse": 3266,
      "##fect": 3267,
      "opge": 3268,
      "links": 3269,
      "ST": 3270,
      "PM": 3271,
      "beïn": 3272,
      "goede": 3273,
      "##ilat": 3274,
      "##door": 3275,
      "interactie": 3276,
      "##ail": 3277,
      "##enten": 3278,
      "zij": 3279,
      "##onde": 3280,
      "##ynam": 3281,
      "Ad": 3282,
      "respectievelijk": 3283,
      "niveau": 3284,
      "lig": 3285,
      "iets": 3286,
      "elke": 3287,
      "##pijn": 3288,
      "tem": 3289,
      "##teerd": 3290,
      "##ow": 3291,
      "niveaus": 3292,
      "asp": 3293,
      "lag": 3294,
      "01": 3295,
      "##rekking": 3296,
      "##OC": 3297,
      "combin": 3298,
      "26": 3299,
      "chronische": 3300,
      "bloot": 3301,
      "behandeld": 3302,
      "35": 3303,
      "##igheden": 3304,
      "pneum": 3305,
      "methode": 3306,
      "##eut": 3307,
      "vl": 3308,
      "ratten": 3309,
      "afwijkingen": 3310,
      "##ieerde": 3311,
      "##omet": 3312,
      "##nem": 3313,
      "##geen": 3314,
      "No": 3315,
      "##cript": 3316,
      "##je": 3317,
      "bekend": 3318,
      "str": 3319,
      "##hol": 3320,
      "##iele": 3321,
      "##requentie": 3322,
      "##anning": 3323,
      "adem": 3324,
      "jar": 3325,
      "fosf": 3326,
      "##ede": 3327,
      "##sul": 3328,
      "##lacht": 3329,
      "##asculaire": 3330,
      "verder": 3331,
      "gec": 3332,
      "##gt": 3333,
      "CV": 3334,
      "##br": 3335,
      "staat": 3336,
      "oppervla": 3337,
      "##tern": 3338,
      "##eleken": 3339,
      "vis": 3340,
      "menselijke": 3341,
      "overeen": 3342,
      "Nee": 3343,
      "lichaam": 3344,
      "doc": 3345,
      "45": 3346,
      "##eds": 3347,
      "Af": 3348,
      "vanwege": 3349,
      "kinderen": 3350,
      "omdat": 3351,
      "omge": 3352,
      "symptomen": 3353,
      "##inus": 3354,
      "Hoe": 3355,
      "beve": 3356,
      "En": 3357,
      "##las": 3358,
      "nauw": 3359,
      "##hankelijke": 3360,
      "genen": 3361,
      "vier": 3362,
      "32": 3363,
      "##oloog": 3364,
      "Tijd": 3365,
      "##ade": 3366,
      "##gemeen": 3367,
      "gebas": 3368,
      "verd": 3369,
      "##wassen": 3370,
      "bleek": 3371,
      "##PM": 3372,
      "##dru": 3373,
      "vaak": 3374,
      "##ktro": 3375,
      "inc": 3376,
      "all": 3377,
      "##veel": 3378,
      "##arts": 3379,
      "##CA": 3380,
      "geïdentific": 3381,
      "ou": 3382,
      "##gemen": 3383,
      "STE": 3384,
      "##O2": 3385,
      "aorta": 3386,
      "bereik": 3387,
      "coron": 3388,
      "##merkt": 3389,
      "jarige": 3390,
      "BLO": 3391,
      "hep": 3392,
      "##iz": 3393,
      "##EL": 3394,
      "##kelijk": 3395,
      "##Hg": 3396,
      "##kanker": 3397,
      "meerdere": 3398,
      "##iken": 3399,
      "##ay": 3400,
      "kanker": 3401,
      "##consult": 3402,
      "##osc": 3403,
      "##gemene": 3404,
      "plas": 3405,
      "95": 3406,
      "gevonden": 3407,
      "pla": 3408,
      "suggereren": 3409,
      "isch": 3410,
      "70": 3411,
      "totale": 3412,
      "waardoor": 3413,
      "29": 3414,
      "eiwitten": 3415,
      "stam": 3416,
      "geven": 3417,
      "##ack": 3418,
      "ox": 3419,
      "##stel": 3420,
      "##wicht": 3421,
      "verband": 3422,
      "hand": 3423,
      "lip": 3424,
      "geë": 3425,
      "##mm": 3426,
      "##kers": 3427,
      "##opathie": 3428,
      "waarvoor": 3429,
      "##hyl": 3430,
      "Hier": 3431,
      "At": 3432,
      "##reg": 3433,
      "##vatting": 3434,
      "##ferent": 3435,
      "ECG": 3436,
      "##elect": 3437,
      "##eur": 3438,
      "##luit": 3439,
      "##ialis": 3440,
      "##lig": 3441,
      "beschik": 3442,
      "##AN": 3443,
      "gele": 3444,
      "omvat": 3445,
      "##dragen": 3446,
      "##cell": 3447,
      "##olische": 3448,
      "vervolg": 3449,
      "geneesmiddelen": 3450,
      "evaluatie": 3451,
      "##iging": 3452,
      "##alcium": 3453,
      "oplos": 3454,
      "with": 3455,
      "iv": 3456,
      "##ulair": 3457,
      "lt": 3458,
      "groter": 3459,
      "stabiel": 3460,
      "##IT": 3461,
      "status": 3462,
      "AL": 3463,
      "bestaan": 3464,
      "indi": 3465,
      "27": 3466,
      "Res": 3467,
      "week": 3468,
      "##antatie": 3469,
      "##erol": 3470,
      "MD": 3471,
      "##sing": 3472,
      "informatie": 3473,
      "##omt": 3474,
      "##inf": 3475,
      "##rof": 3476,
      "##ziekten": 3477,
      "##ranspl": 3478,
      "veroorzaakt": 3479,
      "rapp": 3480,
      "##ursus": 3481,
      "zetten": 3482,
      "##abet": 3483,
      "Niet": 3484,
      "operatie": 3485,
      "impl": 3486,
      "##zorg": 3487,
      "AS": 3488,
      "CR": 3489,
      "verwijder": 3490,
      "##structie": 3491,
      "##oop": 3492,
      "abd": 3493,
      "bot": 3494,
      "prote": 3495,
      "##GF": 3496,
      "##ventie": 3497,
      "buik": 3498,
      "insp": 3499,
      "val": 3500,
      "geïnduceerde": 3501,
      "##activiteit": 3502,
      "AT": 3503,
      "Am": 3504,
      "75": 3505,
      "lijkt": 3506,
      "Gen": 3507,
      "##zelfde": 3508,
      "soorten": 3509,
      "##iode": 3510,
      "betrekking": 3511,
      "Spec": 3512,
      "gemeten": 3513,
      "##euze": 3514,
      "cl": 3515,
      "##itu": 3516,
      "##YY": 3517,
      "conversie": 3518,
      "Samen": 3519,
      "##vid": 3520,
      "##luor": 3521,
      "voort": 3522,
      "##heel": 3523,
      "maken": 3524,
      "verh": 3525,
      "##offen": 3526,
      "tr": 3527,
      "##ibr": 3528,
      "positieve": 3529,
      "##icale": 3530,
      "##amet": 3531,
      "##oeden": 3532,
      "nucle": 3533,
      "##ans": 3534,
      "Tot": 3535,
      "##iter": 3536,
      "vrouwen": 3537,
      "ondersteun": 3538,
      "HC": 3539,
      "duidelijk": 3540,
      "geval": 3541,
      "##fa": 3542,
      "##kenen": 3543,
      "##eiden": 3544,
      "MRI": 3545,
      "##behandel": 3546,
      "##oire": 3547,
      "regul": 3548,
      "##lijn": 3549,
      "volwassen": 3550,
      "##aden": 3551,
      "pt": 3552,
      "ve": 3553,
      "fen": 3554,
      "aandoen": 3555,
      "##zonder": 3556,
      "bacter": 3557,
      "bron": 3558,
      "##lob": 3559,
      "kenmerken": 3560,
      "##ines": 3561,
      "geïdentificeerd": 3562,
      "##lagen": 3563,
      "##achte": 3564,
      "##amer": 3565,
      "belangrijkste": 3566,
      "##eks": 3567,
      "var": 3568,
      "contact": 3569,
      "##ial": 3570,
      "##uun": 3571,
      "Keu": 3572,
      "##zelijst": 3573,
      "Keuzelijst": 3574,
      "##eerden": 3575,
      "##oorts": 3576,
      "##osp": 3577,
      "hoeveel": 3578,
      "AP": 3579,
      "##inu": 3580,
      "##utie": 3581,
      "chrom": 3582,
      "##uim": 3583,
      "Bl": 3584,
      "groepen": 3585,
      "02": 3586,
      "gast": 3587,
      "##ange": 3588,
      "##int": 3589,
      "##cler": 3590,
      "ag": 3591,
      "##maal": 3592,
      "##arct": 3593,
      "opgenomen": 3594,
      "##embra": 3595,
      "##pleeg": 3596,
      "##sol": 3597,
      "31": 3598,
      "Ac": 3599,
      "therapie": 3600,
      "elekt": 3601,
      "druk": 3602,
      "aanwijz": 3603,
      "##uff": 3604,
      "medische": 3605,
      "36": 3606,
      "mmol": 3607,
      "##iciëntie": 3608,
      "##ilich": 3609,
      "##zaam": 3610,
      "##ragen": 3611,
      "moeten": 3612,
      "##herapeut": 3613,
      "##test": 3614,
      "##droom": 3615,
      "analys": 3616,
      "metabol": 3617,
      "##atine": 3618,
      "laatste": 3619,
      "AD": 3620,
      "##houd": 3621,
      "blijft": 3622,
      "##verander": 3623,
      "vooraf": 3624,
      "Van": 3625,
      "##these": 3626,
      "##ograf": 3627,
      "##ucose": 3628,
      "CH": 3629,
      "achter": 3630,
      "##iseerd": 3631,
      "##tens": 3632,
      "Le": 3633,
      "Hoewel": 3634,
      "##ling": 3635,
      "gedrag": 3636,
      "##abetes": 3637,
      "systeem": 3638,
      "##quent": 3639,
      "hypertensie": 3640,
      "lok": 3641,
      "##ucces": 3642,
      "negatief": 3643,
      "Ca": 3644,
      "bla": 3645,
      "effectie": 3646,
      "##iciteit": 3647,
      "correl": 3648,
      "##rose": 3649,
      "##kw": 3650,
      "##iegel": 3651,
      "##stoornis": 3652,
      "line": 3653,
      "##reen": 3654,
      "receptor": 3655,
      "onth": 3656,
      "##atient": 3657,
      "verst": 3658,
      "overle": 3659,
      "contrast": 3660,
      "immuun": 3661,
      "##ocardi": 3662,
      "aanzienlijk": 3663,
      "IL": 3664,
      "conversiegegevens": 3665,
      "Klin": 3666,
      "##fusie": 3667,
      "##vullend": 3668,
      "##KEN": 3669,
      "nee": 3670,
      "##oïde": 3671,
      "##UIS": 3672,
      "medic": 3673,
      "beoordeeld": 3674,
      "##UR": 3675,
      "net": 3676,
      "##vas": 3677,
      "fase": 3678,
      "##eng": 3679,
      "Uit": 3680,
      "gelijk": 3681,
      "##rip": 3682,
      "direct": 3683,
      "Hy": 3684,
      "minim": 3685,
      "##TI": 3686,
      "37": 3687,
      "combinatie": 3688,
      "transcript": 3689,
      "psych": 3690,
      "kre": 3691,
      "##atheter": 3692,
      "##teg": 3693,
      "##ologisch": 3694,
      "##wijzig": 3695,
      "##MMING": 3696,
      "Onder": 3697,
      "uitgebre": 3698,
      "##ated": 3699,
      "primaire": 3700,
      "##rief": 3701,
      "minu": 3702,
      "vloe": 3703,
      "##ronen": 3704,
      "eerdere": 3705,
      "##eling": 3706,
      "##LE": 3707,
      "##istent": 3708,
      "##onale": 3709,
      "dus": 3710,
      "leid": 3711,
      "HR": 3712,
      "##erden": 3713,
      "eigenschappen": 3714,
      "Name": 3715,
      "##voe": 3716,
      "##inig": 3717,
      "##gd": 3718,
      "antilich": 3719,
      "alfa": 3720,
      "stress": 3721,
      "##tijd": 3722,
      "##tr": 3723,
      "verbeteren": 3724,
      "##centage": 3725,
      "RV": 3726,
      "vere": 3727,
      "##OD": 3728,
      "##mie": 3729,
      "mat": 3730,
      "##sor": 3731,
      "mar": 3732,
      "##otor": 3733,
      "bevestig": 3734,
      "nan": 3735,
      "bepalen": 3736,
      "gemaakt": 3737,
      "##isme": 3738,
      "elektro": 3739,
      "ZIE": 3740,
      "##MI": 3741,
      "hist": 3742,
      "toepass": 3743,
      "##otische": 3744,
      "mmHg": 3745,
      "loc": 3746,
      "##uze": 3747,
      "verandering": 3748,
      "chirurg": 3749,
      "##igh": 3750,
      "##ular": 3751,
      "gal": 3752,
      "RA": 3753,
      "kreeg": 3754,
      "massa": 3755,
      "medicatie": 3756,
      "##12": 3757,
      "##raat": 3758,
      "MC": 3759,
      "Gl": 3760,
      "AF": 3761,
      "gerelat": 3762,
      "su": 3763,
      "DAIL": 3764,
      "stand": 3765,
      "familie": 3766,
      "##weging": 3767,
      "##HUIS": 3768,
      "##vers": 3769,
      "hogere": 3770,
      "##KENHUIS": 3771,
      "vervolgens": 3772,
      "ZIEKENHUIS": 3773,
      "dL": 3774,
      "HT": 3775,
      "##richt": 3776,
      "dagelijk": 3777,
      "individ": 3778,
      "bes": 3779,
      "foc": 3780,
      "aanwijzingen": 3781,
      "vergeleken": 3782,
      "ons": 3783,
      "##illig": 3784,
      "dec": 3785,
      "##loten": 3786,
      "activer": 3787,
      "##aad": 3788,
      "koorts": 3789,
      "##deel": 3790,
      "pop": 3791,
      "##lagader": 3792,
      "33": 3793,
      "##aps": 3794,
      "##cinoom": 3795,
      "199": 3796,
      "sinds": 3797,
      "DAILY": 3798,
      "##ikliniek": 3799,
      "##ibiot": 3800,
      "##iculaire": 3801,
      "##laag": 3802,
      "open": 3803,
      "Pre": 3804,
      "ond": 3805,
      "##erend": 3806,
      "##orator": 3807,
      "grootte": 3808,
      "steeds": 3809,
      "##rug": 3810,
      "moleculaire": 3811,
      "urine": 3812,
      "tromb": 3813,
      "ul": 3814,
      "respons": 3815,
      "Pt": 3816,
      "cir": 3817,
      "STEMMING": 3818,
      "##kunde": 3819,
      "Patiënt": 3820,
      "follow": 3821,
      "##standigheden": 3822,
      "Lab": 3823,
      "##ary": 3824,
      "ind": 3825,
      "##ysp": 3826,
      "##oz": 3827,
      "onthul": 3828,
      "##ider": 3829,
      "verschil": 3830,
      "oede": 3831,
      "maxim": 3832,
      "enzym": 3833,
      "##urale": 3834,
      "centr": 3835,
      "kort": 3836,
      "chem": 3837,
      "mogelijke": 3838,
      "##adem": 3839,
      "##ument": 3840,
      "##embraan": 3841,
      "naam": 3842,
      "gaat": 3843,
      "##itme": 3844,
      "##idatie": 3845,
      "matige": 3846,
      "opnieuw": 3847,
      "##regel": 3848,
      "##struct": 3849,
      "##spraak": 3850,
      "cent": 3851,
      "##ital": 3852,
      "##ialisme": 3853,
      "hoger": 3854,
      "##oma": 3855,
      "##IV": 3856,
      "##esc": 3857,
      "gewicht": 3858,
      "verte": 3859,
      "##mige": 3860,
      "volgens": 3861,
      "different": 3862,
      "do": 3863,
      "tweede": 3864,
      "##opro": 3865,
      "Als": 3866,
      "##itieve": 3867,
      "negatieve": 3868,
      "suggereert": 3869,
      "03": 3870,
      "tekenen": 3871,
      "present": 3872,
      "AC": 3873,
      "begin": 3874,
      "bepaald": 3875,
      "recente": 3876,
      "stop": 3877,
      "ademhal": 3878,
      "MCH": 3879,
      "##rijven": 3880,
      "besproken": 3881,
      "##ior": 3882,
      "##orgen": 3883,
      "vertoonden": 3884,
      "##otte": 3885,
      "algemene": 3886,
      "gegeven": 3887,
      "55": 3888,
      "kon": 3889,
      "##inden": 3890,
      "##otherapie": 3891,
      "klein": 3892,
      "He": 3893,
      "volledig": 3894,
      "algemeen": 3895,
      "atrium": 3896,
      "##ziekte": 3897,
      "##ding": 3898,
      "##model": 3899,
      "non": 3900,
      "Ph": 3901,
      "hulp": 3902,
      "##oper": 3903,
      "##kin": 3904,
      "##dag": 3905,
      "ID": 3906,
      "regel": 3907,
      "BP": 3908,
      "factoren": 3909,
      "polym": 3910,
      "gehad": 3911,
      "##odi": 3912,
      "nood": 3913,
      "##ionele": 3914,
      "zuur": 3915,
      "##ime": 3916,
      "##gl": 3917,
      "benader": 3918,
      "vervolgconsult": 3919,
      "##asen": 3920,
      "rust": 3921,
      "arts": 3922,
      "afhankelijk": 3923,
      "vertoonde": 3924,
      "##ijken": 3925,
      "##atrium": 3926,
      "##peratuur": 3927,
      "##chte": 3928,
      "##roon": 3929,
      "##pers": 3930,
      "##ract": 3931,
      "ruim": 3932,
      "##teerde": 3933,
      "vergelijkbaar": 3934,
      "ivm": 3935,
      "dd": 3936,
      "prot": 3937,
      "RNA": 3938,
      "hal": 3939,
      "##lam": 3940,
      "zwang": 3941,
      "oog": 3942,
      "##iteiten": 3943,
      "toonden": 3944,
      "artikel": 3945,
      "gemeen": 3946,
      "##schapp": 3947,
      "##ps": 3948,
      "##rond": 3949,
      "ker": 3950,
      "maag": 3951,
      "sterk": 3952,
      "term": 3953,
      "##pre": 3954,
      "volgende": 3955,
      "serum": 3956,
      "Samenvatting": 3957,
      "productie": 3958,
      "##ocyt": 3959,
      "aanbe": 3960,
      "cycl": 3961,
      "actieve": 3962,
      "amin": 3963,
      "bew": 3964,
      "ven": 3965,
      "fl": 3966,
      "##wegen": 3967,
      "geleid": 3968,
      "slechts": 3969,
      "##rakt": 3970,
      "##ycine": 3971,
      "mater": 3972,
      "verbetering": 3973,
      "48": 3974,
      "RD": 3975,
      "##aand": 3976,
      "Per": 3977,
      "##ura": 3978,
      "mal": 3979,
      "beter": 3980,
      "##UL": 3981,
      "hemat": 3982,
      "structuur": 3983,
      "waarde": 3984,
      "##menten": 3985,
      "##genwoord": 3986,
      "fib": 3987,
      "##bi": 3988,
      "Specialisme": 3989,
      "##bl": 3990,
      "##laatst": 3991,
      "progressie": 3992,
      "vastgesteld": 3993,
      "name": 3994,
      "gezondheids": 3995,
      "invloed": 3996,
      "##oment": 3997,
      "##trol": 3998,
      "vormen": 3999,
      "laten": 4000,
      "mod": 4001,
      "##tieel": 4002,
      "##iew": 4003,
      "##ance": 4004,
      "34": 4005,
      "##falen": 4006,
      "Onze": 4007,
      "##ongen": 4008,
      "##ibrill": 4009,
      "##ild": 4010,
      "##alisatie": 4011,
      "##umat": 4012,
      "##arak": 4013,
      "##onie": 4014,
      "panc": 4015,
      "lichte": 4016,
      "Aanvullend": 4017,
      "AB": 4018,
      "sla": 4019,
      "echo": 4020,
      "datum": 4021,
      "##dd": 4022,
      "Ges": 4023,
      "zicht": 4024,
      "inst": 4025,
      "sele": 4026,
      "MS": 4027,
      "##order": 4028,
      "##past": 4029,
      "##arakter": 4030,
      "##gaande": 4031,
      "##ategie": 4032,
      "vitro": 4033,
      "verkl": 4034,
      "##ueel": 4035,
      "chol": 4036,
      "liter": 4037,
      "##esies": 4038,
      "evenals": 4039,
      "Lich": 4040,
      "ervan": 4041,
      "Alle": 4042,
      "antibiot": 4043,
      "##doende": 4044,
      "regio": 4045,
      "##pel": 4046,
      "hoewel": 4047,
      "bespre": 4048,
      "##ift": 4049,
      "Dr": 4050,
      "arter": 4051,
      "sh": 4052,
      "##EM": 4053,
      "gedet": 4054,
      "bilaterale": 4055,
      "potent": 4056,
      "PA": 4057,
      "##ieve": 4058,
      "Sig": 4059,
      "succes": 4060,
      "vet": 4061,
      "oedeem": 4062,
      "Zo": 4063,
      "##cc": 4064,
      "##omein": 4065,
      "meeste": 4066,
      "LE": 4067,
      "functionele": 4068,
      "##aker": 4069,
      "rest": 4070,
      "##cohol": 4071,
      "##oef": 4072,
      "bed": 4073,
      "moment": 4074,
      "Procedure": 4075,
      "##ice": 4076,
      "##ume": 4077,
      "concentratie": 4078,
      "##illigram": 4079,
      "organis": 4080,
      "bloeddruk": 4081,
      "500": 4082,
      "ext": 4083,
      "stimul": 4084,
      "verzam": 4085,
      "milligram": 4086,
      "04": 4087,
      "##elev": 4088,
      "therapeut": 4089,
      "##ina": 4090,
      "Sc": 4091,
      "##SA": 4092,
      "##ichten": 4093,
      "##ociale": 4094,
      "waarden": 4095,
      "geschiedenis": 4096,
      "##iseerde": 4097,
      "##aring": 4098,
      "minuten": 4099,
      "##aste": 4100,
      "##ocard": 4101,
      "09": 4102,
      "Reden": 4103,
      "##stem": 4104,
      "signaal": 4105,
      "LOC": 4106,
      "Un": 4107,
      "##pression": 4108,
      "##licaties": 4109,
      "##ellingen": 4110,
      "##nemers": 4111,
      "##emat": 4112,
      "##uderen": 4113,
      "totaal": 4114,
      "beperkt": 4115,
      "continu": 4116,
      "bijn": 4117,
      "##ameters": 4118,
      "##verl": 4119,
      "beoordeling": 4120,
      "Normale": 4121,
      "LAD": 4122,
      "beoordelen": 4123,
      "000": 4124,
      "##keld": 4125,
      "38": 4126,
      "##gra": 4127,
      "##ocol": 4128,
      "98": 4129,
      "Cor": 4130,
      "leiden": 4131,
      "Hart": 4132,
      "##oplas": 4133,
      "toont": 4134,
      "experiment": 4135,
      "nauwkeur": 4136,
      "gebru": 4137,
      "spier": 4138,
      "gevolgd": 4139,
      "08": 4140,
      "##gram": 4141,
      "##istof": 4142,
      "sup": 4143,
      "vermogen": 4144,
      "gevoeligheid": 4145,
      "verdere": 4146,
      "All": 4147,
      "periode": 4148,
      "resul": 4149,
      "hum": 4150,
      "##wijzigd": 4151,
      "##reden": 4152,
      "oste": 4153,
      "##omische": 4154,
      "hom": 4155,
      "LOCATIE": 4156,
      "kwant": 4157,
      "binding": 4158,
      "##land": 4159,
      "dezelfde": 4160,
      "##ackage": 4161,
      "poly": 4162,
      "wand": 4163,
      "##itor": 4164,
      "fluor": 4165,
      "nut": 4166,
      "Cl": 4167,
      "oorz": 4168,
      "##TR": 4169,
      "##ating": 4170,
      "##oem": 4171,
      "##orac": 4172,
      "fot": 4173,
      "##ritis": 4174,
      "pept": 4175,
      "##accin": 4176,
      "intact": 4177,
      "blootstelling": 4178,
      "##engte": 4179,
      "midden": 4180,
      "diagnost": 4181,
      "voorn": 4182,
      "##ros": 4183,
      "##ain": 4184,
      "pulmon": 4185,
      "Lichamelijk": 4186,
      "zen": 4187,
      "insul": 4188,
      "vertegenwoord": 4189,
      "bra": 4190,
      "beïnvloed": 4191,
      "kin": 4192,
      "kwaliteit": 4193,
      "99": 4194,
      "##ege": 4195,
      "##vou": 4196,
      "groei": 4197,
      "65": 4198,
      "##voudige": 4199,
      "colleg": 4200,
      "##PO": 4201,
      "##ril": 4202,
      "##eltjes": 4203,
      "ja": 4204,
      "mensen": 4205,
      "##anische": 4206,
      "mis": 4207,
      "kracht": 4208,
      "levens": 4209,
      "problemen": 4210,
      "Hyper": 4211,
      "tub": 4212,
      "ontste": 4213,
      "geëvalu": 4214,
      "form": 4215,
      "Ig": 4216,
      "Co": 4217,
      "##ICATIE": 4218,
      "relatie": 4219,
      "duur": 4220,
      "frequentie": 4221,
      "rapport": 4222,
      "##udeerd": 4223,
      "##uiten": 4224,
      "DD": 4225,
      "vocht": 4226,
      "##oratorium": 4227,
      "gericht": 4228,
      "thuis": 4229,
      "gereg": 4230,
      "##ificatie": 4231,
      "PCI": 4232,
      "Disp": 4233,
      "Ar": 4234,
      "gt": 4235,
      "BLOED": 4236,
      "##IP": 4237,
      "##ateraal": 4238,
      "zwanger": 4239,
      "dysp": 4240,
      "genetische": 4241,
      "AM": 4242,
      "##car": 4243,
      "##afhankelijke": 4244,
      "##lor": 4245,
      "Ech": 4246,
      "bieden": 4247,
      "##diening": 4248,
      "actie": 4249,
      "houden": 4250,
      "super": 4251,
      "inge": 4252,
      "##gelopen": 4253,
      "##iologische": 4254,
      "syndroom": 4255,
      "##ycard": 4256,
      "mechanismen": 4257,
      "dicht": 4258,
      "##bla": 4259,
      "vrije": 4260,
      "##wezen": 4261,
      "##ory": 4262,
      "##BP": 4263,
      "##ptie": 4264,
      "##operatieve": 4265,
      "secund": 4266,
      "##emt": 4267,
      "##pak": 4268,
      "sommige": 4269,
      "ICD": 4270,
      "Vol": 4271,
      "##ogenese": 4272,
      "##norm": 4273,
      "##amp": 4274,
      "##11": 4275,
      "hoeveelheid": 4276,
      "##ock": 4277,
      "##isie": 4278,
      "dien": 4279,
      "##rijgen": 4280,
      "##over": 4281,
      "##esterol": 4282,
      "virus": 4283,
      "zenuw": 4284,
      "keer": 4285,
      "weinig": 4286,
      "##anks": 4287,
      "ontwikkeld": 4288,
      "##idine": 4289,
      "snelheid": 4290,
      "##behandeling": 4291,
      "geëvalueerd": 4292,
      "##orb": 4293,
      "##ducten": 4294,
      "##laire": 4295,
      "##tex": 4296,
      "verminderen": 4297,
      "CK": 4298,
      "acht": 4299,
      "viv": 4300,
      "##uleerd": 4301,
      "06": 4302,
      "komen": 4303,
      "##achting": 4304,
      "perif": 4305,
      "mac": 4306,
      "##itte": 4307,
      "factor": 4308,
      "verminderd": 4309,
      "aden": 4310,
      "##aakte": 4311,
      "last": 4312,
      "waarvan": 4313,
      "##ero": 4314,
      "42": 4315,
      "##rale": 4316,
      "##ENT": 4317,
      "hepat": 4318,
      "gemed": 4319,
      "stroom": 4320,
      "Plan": 4321,
      "morf": 4322,
      "versus": 4323,
      "mate": 4324,
      "Neu": 4325,
      "##zij": 4326,
      "bio": 4327,
      "potentieel": 4328,
      "variab": 4329,
      "dim": 4330,
      "##teel": 4331,
      "##cellulaire": 4332,
      "ontde": 4333,
      "enkel": 4334,
      "##èt": 4335,
      "##verlies": 4336,
      "SP": 4337,
      "bijwer": 4338,
      "##olom": 4339,
      "bekende": 4340,
      "##issie": 4341,
      "##halte": 4342,
      "##inine": 4343,
      "dieren": 4344,
      "opz": 4345,
      "##lif": 4346,
      "standaard": 4347,
      "prest": 4348,
      "positief": 4349,
      "vijf": 4350,
      "optim": 4351,
      "O2": 4352,
      "monsters": 4353,
      "##urele": 4354,
      "kal": 4355,
      "gebruiken": 4356,
      "der": 4357,
      "##fus": 4358,
      "##apt": 4359,
      "##daag": 4360,
      "##ae": 4361,
      "vragen": 4362,
      "##ytische": 4363,
      "stellen": 4364,
      "##armac": 4365,
      "##atist": 4366,
      "##dnis": 4367,
      "sinus": 4368,
      "bekken": 4369,
      "concentraties": 4370,
      "ischemie": 4371,
      "route": 4372,
      "##ractie": 4373,
      "##cus": 4374,
      "LD": 4375,
      "MR": 4376,
      "##cel": 4377,
      "identificeren": 4378,
      "97": 4379,
      "spect": 4380,
      "##ile": 4381,
      "IND": 4382,
      "##klep": 4383,
      "inflam": 4384,
      "##kings": 4385,
      "middelen": 4386,
      "##fibrill": 4387,
      "##istentie": 4388,
      "##dex": 4389,
      "##erp": 4390,
      "##nivea": 4391,
      "##ors": 4392,
      "##staan": 4393,
      "produc": 4394,
      "##ameter": 4395,
      "vivo": 4396,
      "CP": 4397,
      "seg": 4398,
      "Inter": 4399,
      "volledige": 4400,
      "##view": 4401,
      "##omin": 4402,
      "##quenties": 4403,
      "blijven": 4404,
      "calcium": 4405,
      "##uiden": 4406,
      "rond": 4407,
      "control": 4408,
      "aanv": 4409,
      "lijn": 4410,
      "CS": 4411,
      "diabetes": 4412,
      "ax": 4413,
      "degen": 4414,
      "assoc": 4415,
      "41": 4416,
      "Com": 4417,
      "##uut": 4418,
      "##mun": 4419,
      "Ont": 4420,
      "lagere": 4421,
      "tox": 4422,
      "gecontrole": 4423,
      "##volle": 4424,
      "##stoornissen": 4425,
      "afge": 4426,
      "##ace": 4427,
      "mond": 4428,
      "Overige": 4429,
      "##spron": 4430,
      "mRNA": 4431,
      "##agnose": 4432,
      "rug": 4433,
      "spra": 4434,
      "waarin": 4435,
      "##sm": 4436,
      "hersenen": 4437,
      "##akkelijk": 4438,
      "##drukt": 4439,
      "injectie": 4440,
      "chromos": 4441,
      "##itale": 4442,
      "activering": 4443,
      "klinisch": 4444,
      "proef": 4445,
      "07": 4446,
      "centrale": 4447,
      "##klier": 4448,
      "##aart": 4449,
      "kat": 4450,
      "150": 4451,
      "##onderzoek": 4452,
      "##rib": 4453,
      "##spec": 4454,
      "Medicatie": 4455,
      "consult": 4456,
      "bèt": 4457,
      "verbeterde": 4458,
      "indien": 4459,
      "##ritme": 4460,
      "reacties": 4461,
      "RE": 4462,
      "bescher": 4463,
      "##ullen": 4464,
      "isol": 4465,
      "##ouwd": 4466,
      "ventrikel": 4467,
      "##oler": 4468,
      "prakt": 4469,
      "vorming": 4470,
      "eind": 4471,
      "##datum": 4472,
      "pH": 4473,
      "recht": 4474,
      "screen": 4475,
      "##own": 4476,
      "Package": 4477,
      "INDICATIE": 4478,
      "thorax": 4479,
      "fe": 4480,
      "verster": 4481,
      "##ifte": 4482,
      "##vangen": 4483,
      "overd": 4484,
      "cardiale": 4485,
      "##ogram": 4486,
      "PD": 4487,
      "effusie": 4488,
      "Rec": 4489,
      "mann": 4490,
      "vroege": 4491,
      "##por": 4492,
      "snelle": 4493,
      "glyc": 4494,
      "meestal": 4495,
      "##ulaties": 4496,
      "##reerd": 4497,
      "##II": 4498,
      "beelden": 4499,
      "##ochten": 4500,
      "herh": 4501,
      "##orr": 4502,
      "geïsol": 4503,
      "relev": 4504,
      "##klachten": 4505,
      "duidelijke": 4506,
      "methoden": 4507,
      "biologische": 4508,
      "##SC": 4509,
      "##oden": 4510,
      "##bere": 4511,
      "43": 4512,
      "gepre": 4513,
      "bevatten": 4514,
      "AR": 4515,
      "##kn": 4516,
      "##opische": 4517,
      "##EH": 4518,
      "Ho": 4519,
      "##gestelde": 4520,
      "SR": 4521,
      "2016": 4522,
      "III": 4523,
      "WBC": 4524,
      "omstandigheden": 4525,
      "##edi": 4526,
      "cult": 4527,
      "fil": 4528,
      "##ly": 4529,
      "##au": 4530,
      "proxim": 4531,
      "voornamelijk": 4532,
      "laesies": 4533,
      "energie": 4534,
      "Te": 4535,
      "Door": 4536,
      "opzichte": 4537,
      "##PD": 4538,
      "##ning": 4539,
      "vereist": 4540,
      "##ilijk": 4541,
      "gedeelt": 4542,
      "potentiële": 4543,
      "DM": 4544,
      "##cul": 4545,
      "gemeld": 4546,
      "maakt": 4547,
      "##unten": 4548,
      "fo": 4549,
      "##ergelijke": 4550,
      "##asp": 4551,
      "##kundige": 4552,
      "gaan": 4553,
      "##oekomst": 4554,
      "##50": 4555,
      "afgelopen": 4556,
      "TC": 4557,
      "vor": 4558,
      "systolische": 4559,
      "##ycardie": 4560,
      "huisarts": 4561,
      "verwijderd": 4562,
      "pac": 4563,
      "##tale": 4564,
      "evalueren": 4565,
      "alcohol": 4566,
      "erv": 4567,
      "##put": 4568,
      "invas": 4569,
      "RDW": 4570,
      "beschikbaar": 4571,
      "##ografische": 4572,
      "use": 4573,
      "vooral": 4574,
      "mel": 4575,
      "red": 4576,
      "AV": 4577,
      "zwangerschap": 4578,
      "leidt": 4579,
      "start": 4580,
      "plan": 4581,
      "##concentr": 4582,
      "##Eq": 4583,
      "code": 4584,
      "##gre": 4585,
      "##oeder": 4586,
      "impression": 4587,
      "##otype": 4588,
      "##sloten": 4589,
      "##gebruik": 4590,
      "39": 4591,
      "zuurstof": 4592,
      "##sche": 4593,
      "blok": 4594,
      "OR": 4595,
      "bevat": 4596,
      "zie": 4597,
      "##ieure": 4598,
      "##been": 4599,
      "2015": 4600,
      "Bloed": 4601,
      "##leden": 4602,
      "ref": 4603,
      "passen": 4604,
      "##wand": 4605,
      "##NP": 4606,
      "##issel": 4607,
      "beho": 4608,
      "membraan": 4609,
      "vergro": 4610,
      "##heer": 4611,
      "##IR": 4612,
      "mEq": 4613,
      "##schappelijke": 4614,
      "Dec": 4615,
      "SC": 4616,
      "##ransplantatie": 4617,
      "##eek": 4618,
      "##oprol": 4619,
      "verspre": 4620,
      "##ulf": 4621,
      "sens": 4622,
      "cellulaire": 4623,
      "##ombin": 4624,
      "##anen": 4625,
      "##kening": 4626,
      "##aven": 4627,
      "ziekten": 4628,
      "geplaatst": 4629,
      "gebieden": 4630,
      "bestaande": 4631,
      "gepresen": 4632,
      "##JD": 4633,
      "##OP": 4634,
      "##cip": 4635,
      "##issen": 4636,
      "Polikliniek": 4637,
      "gedi": 4638,
      "##US": 4639,
      "imp": 4640,
      "##to": 4641,
      "##oordeling": 4642,
      "mes": 4643,
      "oorspron": 4644,
      "##onist": 4645,
      "plaat": 4646,
      "cort": 4647,
      "beleid": 4648,
      "geken": 4649,
      "stenose": 4650,
      "eth": 4651,
      "##rist": 4652,
      "##vloeden": 4653,
      "nemen": 4654,
      "S1": 4655,
      "##stemming": 4656,
      "##pe": 4657,
      "##ight": 4658,
      "wervel": 4659,
      "manier": 4660,
      "gebaseerd": 4661,
      "gekenmerkt": 4662,
      "gepro": 4663,
      "##slagen": 4664,
      "##waarden": 4665,
      "UR": 4666,
      "peric": 4667,
      "noodz": 4668,
      "patient": 4669,
      "##scopie": 4670,
      "toediening": 4671,
      "graden": 4672,
      "literatuur": 4673,
      "been": 4674,
      "NE": 4675,
      "buiten": 4676,
      "##uig": 4677,
      "korte": 4678,
      "2017": 4679,
      "score": 4680,
      "##osten": 4681,
      "ED": 4682,
      "inciden": 4683,
      "scan": 4684,
      "##14": 4685,
      "##inter": 4686,
      "##geschreven": 4687,
      "dagelijks": 4688,
      "statist": 4689,
      "functies": 4690,
      "##ieten": 4691,
      "Abd": 4692,
      "##imeter": 4693,
      "leuk": 4694,
      "##raz": 4695,
      "##irus": 4696,
      "##riale": 4697,
      "recid": 4698,
      "controles": 4699,
      "cere": 4700,
      "distale": 4701,
      "complicaties": 4702,
      "plasm": 4703,
      "##che": 4704,
      "let": 4705,
      "##hydro": 4706,
      "CC": 4707,
      "prof": 4708,
      "Comp": 4709,
      "Long": 4710,
      "##ionale": 4711,
      "anal": 4712,
      "##pol": 4713,
      "HIV": 4714,
      "mechanisme": 4715,
      "##rik": 4716,
      "consistent": 4717,
      "##cum": 4718,
      "96": 4719,
      "##bol": 4720,
      "##eria": 4721,
      "antibiotica": 4722,
      "44": 4723,
      "##omenteel": 4724,
      "weten": 4725,
      "Resp": 4726,
      "verpleeg": 4727,
      "mannen": 4728,
      "##serv": 4729,
      "##iologie": 4730,
      "##osis": 4731,
      "NEG": 4732,
      "##uen": 4733,
      "therapeutische": 4734,
      "domein": 4735,
      "gestart": 4736,
      "##reactie": 4737,
      "geeft": 4738,
      "acet": 4739,
      "##diend": 4740,
      "veil": 4741,
      "##ospital": 4742,
      "Tele": 4743,
      "subst": 4744,
      "gedetect": 4745,
      "##ogn": 4746,
      "moeilijk": 4747,
      "##arine": 4748,
      "pal": 4749,
      "##teert": 4750,
      "tri": 4751,
      "herst": 4752,
      "##atio": 4753,
      "##umb": 4754,
      "##13": 4755,
      "Im": 4756,
      "fem": 4757,
      "pancre": 4758,
      "##OM": 4759,
      "PV": 4760,
      "Brief": 4761,
      "tach": 4762,
      "Hg": 4763,
      "2018": 4764,
      "gebaseerde": 4765,
      "chemische": 4766,
      "##groepen": 4767,
      "integ": 4768,
      "heter": 4769,
      "##matige": 4770,
      "##igd": 4771,
      "jaren": 4772,
      "uitgebreide": 4773,
      "##weest": 4774,
      "pleura": 4775,
      "induc": 4776,
      "##etisch": 4777,
      "Hist": 4778,
      "karakter": 4779,
      "##oph": 4780,
      "##ral": 4781,
      "onbe": 4782,
      "vandaag": 4783,
      "##analyseerd": 4784,
      "##ynamische": 4785,
      "oude": 4786,
      "##iat": 4787,
      "##indt": 4788,
      "situ": 4789,
      "lange": 4790,
      "geanalyseerd": 4791,
      "##aliseerde": 4792,
      "moeder": 4793,
      "##les": 4794,
      "omvatten": 4795,
      "##plaat": 4796,
      "##abel": 4797,
      "geweest": 4798,
      "dub": 4799,
      "##asis": 4800,
      "defin": 4801,
      "Sch": 4802,
      "remmen": 4803,
      "##voorbeeld": 4804,
      "##otyp": 4805,
      "##ric": 4806,
      "afwezig": 4807,
      "##expressie": 4808,
      "vasculaire": 4809,
      "##otox": 4810,
      "##UE": 4811,
      "specifiek": 4812,
      "##miss": 4813,
      "toekomst": 4814,
      "##werking": 4815,
      "kleur": 4816,
      "##antwoord": 4817,
      "##apsule": 4818,
      "Ten": 4819,
      "komt": 4820,
      "binden": 4821,
      "LEEF": 4822,
      "gener": 4823,
      "MT": 4824,
      "##olf": 4825,
      "PRN": 4826,
      "##fic": 4827,
      "##TIJD": 4828,
      "toepassing": 4829,
      "neut": 4830,
      "depressie": 4831,
      "laesie": 4832,
      "afname": 4833,
      "##rengen": 4834,
      "ER": 4835,
      "##iëren": 4836,
      "sim": 4837,
      "systemen": 4838,
      "veroorzaken": 4839,
      "link": 4840,
      "LEEFTIJD": 4841,
      "appar": 4842,
      "##omat": 4843,
      "const": 4844,
      "##zame": 4845,
      "methyl": 4846,
      "mi": 4847,
      "inspanning": 4848,
      "Overzicht": 4849,
      "out": 4850,
      "##aklep": 4851,
      "vaccin": 4852,
      "##werk": 4853,
      "geschik": 4854,
      "##aanse": 4855,
      "##nn": 4856,
      "Lin": 4857,
      "gerelateerd": 4858,
      "##lijden": 4859,
      "##oscopie": 4860,
      "ess": 4861,
      "##ili": 4862,
      "mG": 4863,
      "dys": 4864,
      "##SH": 4865,
      "##elijkheid": 4866,
      "dieet": 4867,
      "remming": 4868,
      "gren": 4869,
      "##eringe": 4870,
      "vanaf": 4871,
      "Daarom": 4872,
      "##uleerde": 4873,
      "zichtbaar": 4874,
      "gedetecteerd": 4875,
      "##mers": 4876,
      "apopt": 4877,
      "##ts": 4878,
      "sprake": 4879,
      "dro": 4880,
      "ontwikkelen": 4881,
      "46": 4882,
      "##ucos": 4883,
      "##metho": 4884,
      "##EP": 4885,
      "##mol": 4886,
      "transp": 4887,
      "2019": 4888,
      "sn": 4889,
      "##res": 4890,
      "##oplast": 4891,
      "##tem": 4892,
      "beheer": 4893,
      "vertonen": 4894,
      "##oprote": 4895,
      "##matig": 4896,
      "52": 4897,
      "drain": 4898,
      "so": 4899,
      "##plaats": 4900,
      "Her": 4901,
      "COMP": 4902,
      "##uter": 4903,
      "##ergieën": 4904,
      "##resp": 4905,
      "##onent": 4906,
      "NI": 4907,
      "temperatuur": 4908,
      "##oprolol": 4909,
      "56": 4910,
      "verbeterd": 4911,
      "correlatie": 4912,
      "detectie": 4913,
      "##ry": 4914,
      "oppervlakte": 4915,
      "wv": 4916,
      "stadi": 4917,
      "SV": 4918,
      "retro": 4919,
      "##oeding": 4920,
      "##personen": 4921,
      "##staat": 4922,
      "##ralis": 4923,
      "##stud": 4924,
      "abnorm": 4925,
      "##weefsel": 4926,
      "##spectie": 4927,
      "insuline": 4928,
      "##ree": 4929,
      "soort": 4930,
      "asc": 4931,
      "##dition": 4932,
      "##oxide": 4933,
      "aspect": 4934,
      "##eed": 4935,
      "120": 4936,
      "dergelijke": 4937,
      "##able": 4938,
      "##itatie": 4939,
      "##uus": 4940,
      "##pm": 4941,
      "##INE": 4942,
      "##agnost": 4943,
      "##eeskunde": 4944,
      "maand": 4945,
      "Zij": 4946,
      "Decursus": 4947,
      "verlies": 4948,
      "##osine": 4949,
      "toestand": 4950,
      "##iedt": 4951,
      "##sluit": 4952,
      "TR": 4953,
      "ik": 4954,
      "aandoeningen": 4955,
      "ast": 4956,
      "##gele": 4957,
      "##tig": 4958,
      "maat": 4959,
      "gepresenteerd": 4960,
      "##line": 4961,
      "##azol": 4962,
      "experimentele": 4963,
      "##aliseerd": 4964,
      "milde": 4965,
      "weefsels": 4966,
      "##yla": 4967,
      "##vullende": 4968,
      "##ARIS": 4969,
      "Hospital": 4970,
      "acuut": 4971,
      "gedilat": 4972,
      "afgifte": 4973,
      "zes": 4974,
      "HD": 4975,
      "deelnemers": 4976,
      "hele": 4977,
      "Ass": 4978,
      "BS": 4979,
      "activiteiten": 4980,
      "angi": 4981,
      "##afhankelijk": 4982,
      "BID": 4983,
      "72": 4984,
      "vertra": 4985,
      "katheter": 4986,
      "delen": 4987,
      "activ": 4988,
      "exp": 4989,
      "lokale": 4990,
      "##li": 4991,
      "beeldvorming": 4992,
      "vaat": 4993,
      "bèta": 4994,
      "##pp": 4995,
      "Mon": 4996,
      "biedt": 4997,
      "##ochond": 4998,
      "ca": 4999,
      "kool": 5000,
      "##oster": 5001,
      "vorige": 5002,
      "mGy": 5003,
      "colon": 5004,
      "overge": 5005,
      "##lav": 5006,
      "##log": 5007,
      "##ulen": 5008,
      "##ijm": 5009,
      "COMPARIS": 5010,
      "percentage": 5011,
      "natuur": 5012,
      "beïnvloeden": 5013,
      "enige": 5014,
      "##stroom": 5015,
      "##chol": 5016,
      "neuronen": 5017,
      "thorac": 5018,
      "##tel": 5019,
      "sept": 5020,
      "structuren": 5021,
      "47": 5022,
      "##afwijk": 5023,
      "ritme": 5024,
      "##ichting": 5025,
      "##uiv": 5026,
      "EF": 5027,
      "Twee": 5028,
      "modellen": 5029,
      "##kant": 5030,
      "##zing": 5031,
      "49": 5032,
      "##man": 5033,
      "##trans": 5034,
      "##liggende": 5035,
      "metast": 5036,
      "##reft": 5037,
      "##gebracht": 5038,
      "##ION": 5039,
      "##naam": 5040,
      "laterale": 5041,
      "grond": 5042,
      "##yr": 5043,
      "toegediend": 5044,
      "##lect": 5045,
      "bepaalde": 5046,
      "aute": 5047,
      "DET": 5048,
      "tumoren": 5049,
      "bleef": 5050,
      "##osition": 5051,
      "afb": 5052,
      "##LP": 5053,
      "##mission": 5054,
      "##DI": 5055,
      "centimeter": 5056,
      "COMPARISON": 5057,
      "##orpen": 5058,
      "##icul": 5059,
      "##kund": 5060,
      "##ung": 5061,
      "Radi": 5062,
      "interne": 5063,
      "gebeur": 5064,
      "Wij": 5065,
      "dik": 5066,
      "73": 5067,
      "##othorax": 5068,
      "grotere": 5069,
      "##lang": 5070,
      "part": 5071,
      "overleving": 5072,
      "##sis": 5073,
      "toegepast": 5074,
      "Par": 5075,
      "Status": 5076,
      "bronch": 5077,
      "##igde": 5078,
      "parameters": 5079,
      "betrouw": 5080,
      "Qu": 5081,
      "DETAIL": 5082,
      "##asse": 5083,
      "oppervlak": 5084,
      "##reng": 5085,
      "##LA": 5086,
      "begon": 5087,
      "##bo": 5088,
      "##xy": 5089,
      "##ouder": 5090,
      "##YYYY": 5091,
      "qu": 5092,
      "wijzen": 5093,
      "2014": 5094,
      "personen": 5095,
      "later": 5096,
      "strategie": 5097,
      "volume": 5098,
      "aandoening": 5099,
      "ij": 5100,
      "##dur": 5101,
      "##formatie": 5102,
      "don": 5103,
      "bereikt": 5104,
      "##osit": 5105,
      "##productie": 5106,
      "magn": 5107,
      "gewri": 5108,
      "voorkomende": 5109,
      "zwak": 5110,
      "##duceerd": 5111,
      "MI": 5112,
      "Kinder": 5113,
      "NS": 5114,
      "##spiegel": 5115,
      "spelen": 5116,
      "##20": 5117,
      "longen": 5118,
      "vroeg": 5119,
      "##riteria": 5120,
      "54": 5121,
      "##fibrilleren": 5122,
      "bestudeerd": 5123,
      "interventie": 5124,
      "gezicht": 5125,
      "herstel": 5126,
      "TI": 5127,
      "stap": 5128,
      "stof": 5129,
      "Fol": 5130,
      "wereld": 5131,
      "aortaklep": 5132,
      "PE": 5133,
      "cap": 5134,
      "##kking": 5135,
      "##oging": 5136,
      "TN": 5137,
      "verdi": 5138,
      "##atale": 5139,
      "##OT": 5140,
      "##bes": 5141,
      "##amma": 5142,
      "slechte": 5143,
      "colla": 5144,
      "INR": 5145,
      "onderzochten": 5146,
      "detect": 5147,
      "PCR": 5148,
      "bovenste": 5149,
      "Reg": 5150,
      "CI": 5151,
      "##gelijk": 5152,
      "Eer": 5153,
      "cru": 5154,
      "dun": 5155,
      "58": 5156,
      "85": 5157,
      "effectief": 5158,
      "##iep": 5159,
      "bijvoorbeeld": 5160,
      "bevestigd": 5161,
      "##activ": 5162,
      "zeld": 5163,
      "##herm": 5164,
      "lager": 5165,
      "##dnison": 5166,
      "##zer": 5167,
      "abdomen": 5168,
      "##arge": 5169,
      "voedings": 5170,
      "##inen": 5171,
      "##liferatie": 5172,
      "Pul": 5173,
      "Naam": 5174,
      "69": 5175,
      "PS": 5176,
      "LVEF": 5177,
      "inflammat": 5178,
      "glucose": 5179,
      "##iseren": 5180,
      "protocol": 5181,
      "##ous": 5182,
      "adv": 5183,
      "##vallend": 5184,
      "onop": 5185,
      "focale": 5186,
      "pancreas": 5187,
      "##olon": 5188,
      "##oi": 5189,
      "prestaties": 5190,
      "##opsie": 5191,
      "##cer": 5192,
      "intraven": 5193,
      "##ferentie": 5194,
      "53": 5195,
      "volgt": 5196,
      "##oglob": 5197,
      "##asting": 5198,
      "Me": 5199,
      "lengte": 5200,
      "uite": 5201,
      "bijna": 5202,
      "##ology": 5203,
      "##merg": 5204,
      "daarom": 5205,
      "##inde": 5206,
      "Cont": 5207,
      "Hct": 5208,
      "##CC": 5209,
      "Act": 5210,
      "bloeding": 5211,
      "##kolom": 5212,
      "##ór": 5213,
      "experimenten": 5214,
      "afspraak": 5215,
      "ec": 5216,
      "toel": 5217,
      "vraag": 5218,
      "##infarct": 5219,
      "57": 5220,
      "##óór": 5221,
      "##uiste": 5222,
      "gedefin": 5223,
      "zullen": 5224,
      "Ind": 5225,
      "ontslag": 5226,
      "blaas": 5227,
      "vergelijkbare": 5228,
      "verhogen": 5229,
      "##indings": 5230,
      "verbindingen": 5231,
      "##LC": 5232,
      "Andere": 5233,
      "voeding": 5234,
      "relatief": 5235,
      "##reatinine": 5236,
      "##ofactoren": 5237,
      "stabiele": 5238,
      "##cut": 5239,
      "epis": 5240,
      "tests": 5241,
      "Ter": 5242,
      "##nelheid": 5243,
      "progn": 5244,
      "##essment": 5245,
      "##usies": 5246,
      "aandacht": 5247,
      "structurele": 5248,
      "##elingen": 5249,
      "##MA": 5250,
      "techniek": 5251,
      "speel": 5252,
      "##ars": 5253,
      "beta": 5254,
      "reeks": 5255,
      "##cycl": 5256,
      "##escentie": 5257,
      "64": 5258,
      "pols": 5259,
      "##ody": 5260,
      "knie": 5261,
      "sche": 5262,
      "Ook": 5263,
      "##zaamheid": 5264,
      "##sorptie": 5265,
      "SD": 5266,
      "PP": 5267,
      "##gor": 5268,
      "beschouwd": 5269,
      "##ventr": 5270,
      "##bul": 5271,
      "Tijdens": 5272,
      "dr": 5273,
      "Car": 5274,
      "log": 5275,
      "max": 5276,
      "##lop": 5277,
      "spont": 5278,
      "ATP": 5279,
      "##onenten": 5280,
      "VS": 5281,
      "##emaker": 5282,
      "zelfs": 5283,
      "bijzonder": 5284,
      "patiënte": 5285,
      "##tub": 5286,
      "##tende": 5287,
      "paar": 5288,
      "##gener": 5289,
      "dem": 5290,
      "##stre": 5291,
      "2020": 5292,
      "antilichamen": 5293,
      "##gaand": 5294,
      "kern": 5295,
      "sociale": 5296,
      "pneumonie": 5297,
      "##latie": 5298,
      "hartfalen": 5299,
      "eerst": 5300,
      "Gro": 5301,
      "##mit": 5302,
      "##uidelijk": 5303,
      "pneumothorax": 5304,
      "##zw": 5305,
      "maximale": 5306,
      "##icus": 5307,
      "2013": 5308,
      "Controle": 5309,
      "##bruik": 5310,
      "##onine": 5311,
      "CAB": 5312,
      "plasma": 5313,
      "##itatieve": 5314,
      "##path": 5315,
      "breed": 5316,
      "probleem": 5317,
      "schaal": 5318,
      "##houdende": 5319,
      "cogn": 5320,
      "Klinische": 5321,
      "voorspellen": 5322,
      "##atoren": 5323,
      "planten": 5324,
      "##lijnen": 5325,
      "##arc": 5326,
      "##zijn": 5327,
      "##fen": 5328,
      "infarct": 5329,
      "kregen": 5330,
      "bo": 5331,
      "DATE": 5332,
      "farmac": 5333,
      "init": 5334,
      "AN": 5335,
      "uitkomst": 5336,
      "##ymen": 5337,
      "81": 5338,
      "typ": 5339,
      "##pat": 5340,
      "##gde": 5341,
      "antilichaam": 5342,
      "gist": 5343,
      "uitgedrukt": 5344,
      "ko": 5345,
      "laboratorium": 5346,
      "altern": 5347,
      "proefpersonen": 5348,
      "##ilt": 5349,
      "HP": 5350,
      "opgemerkt": 5351,
      "gezonde": 5352,
      "CABG": 5353,
      "receptoren": 5354,
      "##oïden": 5355,
      "infer": 5356,
      "vermindering": 5357,
      "inflammatoire": 5358,
      "cruc": 5359,
      "oper": 5360,
      "##ement": 5361,
      "genomen": 5362,
      "##iceerd": 5363,
      "##vast": 5364,
      "fre": 5365,
      "##schillen": 5366,
      "selectie": 5367,
      "##volen": 5368,
      "##ogeen": 5369,
      "##rum": 5370,
      "individuele": 5371,
      "voldoende": 5372,
      "##itus": 5373,
      "##kwab": 5374,
      "stoffen": 5375,
      "59": 5376,
      "afhankelijke": 5377,
      "##cur": 5378,
      "eenheden": 5379,
      "##OL": 5380,
      "sat": 5381,
      "##kal": 5382,
      "verantwoord": 5383,
      "vóór": 5384,
      "klep": 5385,
      "onthulde": 5386,
      "##zijd": 5387,
      "bestaat": 5388,
      "perifere": 5389,
      "NP": 5390,
      "natrium": 5391,
      "screening": 5392,
      "##icaties": 5393,
      "chirurgische": 5394,
      "anter": 5395,
      "mitochond": 5396,
      "lichaams": 5397,
      "hol": 5398,
      "##lijst": 5399,
      "HS": 5400,
      "##medi": 5401,
      "Sub": 5402,
      "##rijpen": 5403,
      "##MC": 5404,
      "top": 5405,
      "##nauw": 5406,
      "##ene": 5407,
      "##fiel": 5408,
      "ev": 5409,
      "myocard": 5410,
      "##mentatie": 5411,
      "evol": 5412,
      "RCA": 5413,
      "##vocht": 5414,
      "##ilatatie": 5415,
      "medicijnen": 5416,
      "##rot": 5417,
      "benadering": 5418,
      "beschrijven": 5419,
      "verlaag": 5420,
      "matig": 5421,
      "##ynth": 5422,
      "oorzaak": 5423,
      "analyses": 5424,
      "populatie": 5425,
      "##orten": 5426,
      "vloeistof": 5427,
      "scler": 5428,
      "Diagnose": 5429,
      "biom": 5430,
      "##ënt": 5431,
      "secret": 5432,
      "Behandel": 5433,
      "helpen": 5434,
      "##bep": 5435,
      "sm": 5436,
      "voedsel": 5437,
      "##gezet": 5438,
      "##angen": 5439,
      "bilateraal": 5440,
      "set": 5441,
      "##boven": 5442,
      "bijwerkingen": 5443,
      "GI": 5444,
      "67": 5445,
      "sequentie": 5446,
      "##fosf": 5447,
      "tek": 5448,
      "poster": 5449,
      "warm": 5450,
      "onverander": 5451,
      "##bet": 5452,
      "##our": 5453,
      "##aliseren": 5454,
      "##gewicht": 5455,
      "##orale": 5456,
      "198": 5457,
      "neus": 5458,
      "anders": 5459,
      "One": 5460,
      "##inatie": 5461,
      "gemedieerde": 5462,
      "getest": 5463,
      "Sinds": 5464,
      "##RS": 5465,
      "##bum": 5466,
      "document": 5467,
      "slecht": 5468,
      "wervelkolom": 5469,
      "Laatste": 5470,
      "51": 5471,
      "##sslagader": 5472,
      "juiste": 5473,
      "##ffect": 5474,
      "##for": 5475,
      "##rouw": 5476,
      "pleurale": 5477,
      "las": 5478,
      "##TER": 5479,
      "aanbevolen": 5480,
      "##igt": 5481,
      "langdur": 5482,
      "88": 5483,
      "erg": 5484,
      "##kelet": 5485,
      "##emaal": 5486,
      "milt": 5487,
      "##uding": 5488,
      "##ankelijk": 5489,
      "aspir": 5490,
      "gesp": 5491,
      "processen": 5492,
      "helder": 5493,
      "##ijdige": 5494,
      "rib": 5495,
      "mannelijke": 5496,
      "neurolog": 5497,
      "oplossing": 5498,
      "##istente": 5499,
      "mass": 5500,
      "RBC": 5501,
      "controleren": 5502,
      "##ylering": 5503,
      "richtlijn": 5504,
      "Or": 5505,
      "##ysma": 5506,
      "##langs": 5507,
      "##oh": 5508,
      "disc": 5509,
      "complexe": 5510,
      "##ummer": 5511,
      "##acet": 5512,
      "##ugen": 5513,
      "##med": 5514,
      "##vings": 5515,
      "epit": 5516,
      "kennis": 5517,
      "Heeft": 5518,
      "mitralis": 5519,
      "ernstig": 5520,
      "persoon": 5521,
      "Ref": 5522,
      "##aardige": 5523,
      "Ja": 5524,
      "##vlies": 5525,
      "##micro": 5526,
      "amino": 5527,
      "Date": 5528,
      "Is": 5529,
      "directe": 5530,
      "##noe": 5531,
      "bez": 5532,
      "##ialen": 5533,
      "doen": 5534,
      "##lip": 5535,
      "##cg": 5536,
      "##nia": 5537,
      "twe": 5538,
      "stoornis": 5539,
      "##amide": 5540,
      "##geluiden": 5541,
      "mer": 5542,
      "speelt": 5543,
      "Sinus": 5544,
      "aanpak": 5545,
      "differentiatie": 5546,
      "BLOOD": 5547,
      "##40": 5548,
      "gehele": 5549,
      "inclusie": 5550,
      "voel": 5551,
      "MCV": 5552,
      "linkse": 5553,
      "##bry": 5554,
      "collegiale": 5555,
      "##que": 5556,
      "gebeurten": 5557,
      "##razol": 5558,
      "uitvo": 5559,
      "##LL": 5560,
      "incidentie": 5561,
      "pulmonale": 5562,
      "##oscler": 5563,
      "##gebied": 5564,
      "##ransplant": 5565,
      "synth": 5566,
      "##sf": 5567,
      "2012": 5568,
      "##ometrie": 5569,
      "gecontroleerd": 5570,
      "signal": 5571,
      "volwassenen": 5572,
      "lact": 5573,
      "anamnese": 5574,
      "diver": 5575,
      "##UN": 5576,
      "ademhalings": 5577,
      "prec": 5578,
      "##volgende": 5579,
      "##ubatie": 5580,
      "wijten": 5581,
      "momenteel": 5582,
      "Mg": 5583,
      "Allergieën": 5584,
      "##liceerd": 5585,
      "blijkt": 5586,
      "beperkte": 5587,
      "##omycine": 5588,
      "##loc": 5589,
      "##insuff": 5590,
      "Beoordeling": 5591,
      "ather": 5592,
      "##niveau": 5593,
      "##hesie": 5594,
      "##rolog": 5595,
      "letsel": 5596,
      "veroorzaakte": 5597,
      "##uratie": 5598,
      "##erte": 5599,
      "los": 5600,
      "##quen": 5601,
      "68": 5602,
      "vertoont": 5603,
      "Bel": 5604,
      "92": 5605,
      "gedaan": 5606,
      "gecorr": 5607,
      "##geboren": 5608,
      "angst": 5609,
      "stij": 5610,
      "##ifieke": 5611,
      "##uken": 5612,
      "##udig": 5613,
      "meet": 5614,
      "##komt": 5615,
      "##uma": 5616,
      "NO": 5617,
      "001": 5618,
      "cyst": 5619,
      "gastro": 5620,
      "##iod": 5621,
      "interval": 5622,
      "62": 5623,
      "##ites": 5624,
      "gevol": 5625,
      "uitdag": 5626,
      "klasse": 5627,
      "slaap": 5628,
      "synthese": 5629,
      "kosten": 5630,
      "##kens": 5631,
      "Hypertensie": 5632,
      "##kelijke": 5633,
      "##cult": 5634,
      "bespreken": 5635,
      "##plan": 5636,
      "resultaat": 5637,
      "##NI": 5638,
      "slagader": 5639,
      "krit": 5640,
      "cc": 5641,
      "maal": 5642,
      "intens": 5643,
      "behandelings": 5644,
      "Ik": 5645,
      "##PS": 5646,
      "langs": 5647,
      "##systeem": 5648,
      "CX": 5649,
      "##vrij": 5650,
      "Amer": 5651,
      "##chym": 5652,
      "afwezigheid": 5653,
      "aard": 5654,
      "implantatie": 5655,
      "ondersteunen": 5656,
      "##lit": 5657,
      "bijdragen": 5658,
      "auteurs": 5659,
      "400": 5660,
      "segment": 5661,
      "derde": 5662,
      "geleden": 5663,
      "prop": 5664,
      "omgeving": 5665,
      "palp": 5666,
      "##waarde": 5667,
      "Echo": 5668,
      "schade": 5669,
      "interacties": 5670,
      "ondersteuning": 5671,
      "prom": 5672,
      "Ext": 5673,
      "rect": 5674,
      "drug": 5675,
      "begrijpen": 5676,
      "##verm": 5677,
      "class": 5678,
      "##keningen": 5679,
      "##scheiden": 5680,
      "##ST": 5681,
      "gedeeltelijk": 5682,
      "94": 5683,
      "orale": 5684,
      "63": 5685,
      "behoef": 5686,
      "inb": 5687,
      "grenzen": 5688,
      "kans": 5689,
      "loop": 5690,
      "toelating": 5691,
      "lijken": 5692,
      "stimulatie": 5693,
      "breuk": 5694,
      "du": 5695,
      "benad": 5696,
      "associatie": 5697,
      "##proces": 5698,
      "##arch": 5699,
      "preventie": 5700,
      "verzameld": 5701,
      "fysieke": 5702,
      "C5": 5703,
      "##cluderen": 5704,
      "Type": 5705,
      "metingen": 5706,
      "peptide": 5707,
      "66": 5708,
      "frag": 5709,
      "TE": 5710,
      "cholesterol": 5711,
      "index": 5712,
      "##blemen": 5713,
      "voorgesteld": 5714,
      "bereiken": 5715,
      "overdracht": 5716,
      "hals": 5717,
      "eenmaal": 5718,
      "omvang": 5719,
      "##enen": 5720,
      "volgen": 5721,
      "##illaire": 5722,
      "oxid": 5723,
      "##chanis": 5724,
      "kamer": 5725,
      "doses": 5726,
      "##enter": 5727,
      "El": 5728,
      "kru": 5729,
      "##infectie": 5730,
      "CAG": 5731,
      "ondergaan": 5732,
      "zachte": 5733,
      "stammen": 5734,
      "Mult": 5735,
      "##ESS": 5736,
      "##oid": 5737,
      "zod": 5738,
      "geïsoleerd": 5739,
      "geslacht": 5740,
      "voorafgaande": 5741,
      "##gehalte": 5742,
      "ventriculaire": 5743,
      "gebracht": 5744,
      "##ici": 5745,
      "##valentie": 5746,
      "##innen": 5747,
      "##structuur": 5748,
      "##emd": 5749,
      "nit": 5750,
      "##16": 5751,
      "##ystemen": 5752,
      "##uitgang": 5753,
      "BM": 5754,
      "episode": 5755,
      "Col": 5756,
      "##amm": 5757,
      "meten": 5758,
      "##stit": 5759,
      "meth": 5760,
      "nacht": 5761,
      "##kamer": 5762,
      "Hep": 5763,
      "minimale": 5764,
      "Medic": 5765,
      "93": 5766,
      "werking": 5767,
      "gran": 5768,
      "##vastatine": 5769,
      "miss": 5770,
      "program": 5771,
      "##ovasculaire": 5772,
      "embry": 5773,
      "regulatie": 5774,
      "sterke": 5775,
      "CM": 5776,
      "##VT": 5777,
      "##geneeskunde": 5778,
      "Calcium": 5779,
      "NM": 5780,
      "##idem": 5781,
      "begrip": 5782,
      "geïnfect": 5783,
      "##OB": 5784,
      "##nt": 5785,
      "Onderzoek": 5786,
      "##pret": 5787,
      "##frequentie": 5788,
      "diar": 5789,
      "arteriële": 5790,
      "##erings": 5791,
      "##vraag": 5792,
      "##oppl": 5793,
      "ademhaling": 5794,
      "x10": 5795,
      "krijgen": 5796,
      "##wak": 5797,
      "##hoog": 5798,
      "diast": 5799,
      "geselect": 5800,
      "##wegingen": 5801,
      "materiaal": 5802,
      "##ize": 5803,
      "Verder": 5804,
      "TF": 5805,
      "140": 5806,
      "sterf": 5807,
      "efficiën": 5808,
      "aneur": 5809,
      "76": 5810,
      "onveranderd": 5811,
      "behouden": 5812,
      "hartslag": 5813,
      "##ores": 5814,
      "exc": 5815,
      "dichtheid": 5816,
      "Meer": 5817,
      "overw": 5818,
      "effectieve": 5819,
      "coronair": 5820,
      "78": 5821,
      "##rix": 5822,
      "##dr": 5823,
      "2011": 5824,
      "motor": 5825,
      "##anol": 5826,
      "wond": 5827,
      "##ution": 5828,
      "zouden": 5829,
      "ICU": 5830,
      "graad": 5831,
      "mig": 5832,
      "hoogachting": 5833,
      "relatieve": 5834,
      "cre": 5835,
      "termijn": 5836,
      "Disch": 5837,
      "patroon": 5838,
      "Hoofd": 5839,
      "##otensie": 5840,
      "endot": 5841,
      "metabole": 5842,
      "##controle": 5843,
      "coronaire": 5844,
      "##aciteit": 5845,
      "##oxy": 5846,
      "toevoe": 5847,
      "land": 5848,
      "##uli": 5849,
      "##risch": 5850,
      "presen": 5851,
      "asym": 5852,
      "##agonist": 5853,
      "##ïde": 5854,
      "##ms": 5855,
      "##omer": 5856,
      "behandelde": 5857,
      "des": 5858,
      "##seud": 5859,
      "##ivers": 5860,
      "Urine": 5861,
      "Bi": 5862,
      "##oto": 5863,
      "uiteind": 5864,
      "##53": 5865,
      "apoptose": 5866,
      "##pine": 5867,
      "Reumat": 5868,
      "den": 5869,
      "##week": 5870,
      "prednison": 5871,
      "##drukken": 5872,
      "auto": 5873,
      "OP": 5874,
      "##water": 5875,
      "weg": 5876,
      "Daarna": 5877,
      "##tijdige": 5878,
      "##ei": 5879,
      "kortadem": 5880,
      "review": 5881,
      "aanvullende": 5882,
      "artritis": 5883,
      "Voorgeschiedenis": 5884,
      "piek": 5885,
      "ins": 5886,
      "praktijk": 5887,
      "resulteerde": 5888,
      "nef": 5889,
      "bevol": 5890,
      "##oorte": 5891,
      "MED": 5892,
      "##carcinoom": 5893,
      "zout": 5894,
      "##SD": 5895,
      "hoogte": 5896,
      "dunne": 5897,
      "Geslacht": 5898,
      "300": 5899,
      "tit": 5900,
      "voorste": 5901,
      "verlen": 5902,
      "actief": 5903,
      "ruimte": 5904,
      "##leiding": 5905,
      "veneuze": 5906,
      "74": 5907,
      "nuttig": 5908,
      "87": 5909,
      "Glucose": 5910,
      "welke": 5911,
      "def": 5912,
      "afwijking": 5913,
      "HTX": 5914,
      "77": 5915,
      "250": 5916,
      "cytok": 5917,
      "product": 5918,
      "hoest": 5919,
      "##oppler": 5920,
      "##ness": 5921,
      "ol": 5922,
      "MCHC": 5923,
      "Hem": 5924,
      "86": 5925,
      "##structies": 5926,
      "2021": 5927,
      "intern": 5928,
      "##ament": 5929,
      "##heugen": 5930,
      "monster": 5931,
      "1000": 5932,
      "##alie": 5933,
      "##dis": 5934,
      "##igeen": 5935,
      "inductie": 5936,
      "prob": 5937,
      "##zetting": 5938,
      "##17": 5939,
      "##ue": 5940,
      "##emende": 5941,
      "##loop": 5942,
      "##akelijk": 5943,
      "pap": 5944,
      "##vens": 5945,
      "mutaties": 5946,
      "##alve": 5947,
      "Fig": 5948,
      "##fielen": 5949,
      "grootste": 5950,
      "84": 5951,
      "##ector": 5952,
      "##iner": 5953,
      "lineaire": 5954,
      "##out": 5955,
      "vent": 5956,
      "daag": 5957,
      "leveren": 5958,
      "##urie": 5959,
      "##vis": 5960,
      "##kten": 5961,
      "glut": 5962,
      "COPD": 5963,
      "neurale": 5964,
      "optreden": 5965,
      "##onisch": 5966,
      "voorafgaand": 5967,
      "##ber": 5968,
      "2010": 5969,
      "gevoelig": 5970,
      "##iditeit": 5971,
      "Hb": 5972,
      "##uiver": 5973,
      "indicatie": 5974,
      "domin": 5975,
      "##itone": 5976,
      "##ics": 5977,
      "LA": 5978,
      "postoperatieve": 5979,
      "##imm": 5980,
      "ph": 5981,
      "##entale": 5982,
      "##ectomie": 5983,
      "nam": 5984,
      "horm": 5985,
      "##ote": 5986,
      "cerv": 5987,
      "circ": 5988,
      "presenteren": 5989,
      "port": 5990,
      "kant": 5991,
      "##ctomie": 5992,
      "meld": 5993,
      "gamma": 5994,
      "##oorden": 5995,
      "##19": 5996,
      "##rd": 5997,
      "##oïd": 5998,
      "secundaire": 5999,
      "##GFR": 6000,
      "##apporte": 6001,
      "##otide": 6002,
      "82": 6003,
      "Mil": 6004,
      "##iezen": 6005,
      "golf": 6006,
      "infecties": 6007,
      "ade": 6008,
      "verkal": 6009,
      "toegang": 6010,
      "##arb": 6011,
      "NF": 6012,
      "IF": 6013,
      "intrac": 6014,
      "Post": 6015,
      "gekopp": 6016,
      "continue": 6017,
      "myel": 6018,
      "nad": 6019,
      "naast": 6020,
      "thoracale": 6021,
      "verantwoordelijk": 6022,
      "History": 6023,
      "therm": 6024,
      "vernauw": 6025,
      "recent": 6026,
      "veld": 6027,
      "##regelen": 6028,
      "##ildklier": 6029,
      "##lyc": 6030,
      "uitgesloten": 6031,
      "kind": 6032,
      "##ediat": 6033,
      "##blast": 6034,
      "Kliniek": 6035,
      "##gez": 6036,
      "Cardiale": 6037,
      "##gene": 6038,
      "##orderen": 6039,
      "##kanaal": 6040,
      "Plt": 6041,
      "##38": 6042,
      "##arten": 6043,
      "mot": 6044,
      "vinden": 6045,
      "Normaal": 6046,
      "Veren": 6047,
      "ontwikkelde": 6048,
      "eenvoudige": 6049,
      "##bine": 6050,
      "hypoth": 6051,
      "tele": 6052,
      "benadru": 6053,
      "NC": 6054,
      "Lever": 6055,
      "Familie": 6056,
      "presentatie": 6057,
      "##yle": 6058,
      "##mechanis": 6059,
      "kwab": 6060,
      "##ationele": 6061,
      "##roc": 6062,
      "vs": 6063,
      "gediagnost": 6064,
      "##onge": 6065,
      "Examin": 6066,
      "diagnostische": 6067,
      "del": 6068,
      "##stellingen": 6069,
      "##mee": 6070,
      "betrokkenheid": 6071,
      "foet": 6072,
      "ES": 6073,
      "IMP": 6074,
      "TH": 6075,
      "carb": 6076,
      "##syn": 6077,
      "cognitieve": 6078,
      "##aily": 6079,
      "afgeleid": 6080,
      "fysiologische": 6081,
      "gerelateerde": 6082,
      "##sper": 6083,
      "##irat": 6084,
      "onafhankelijk": 6085,
      "onderliggende": 6086,
      "##ikkel": 6087,
      "tet": 6088,
      "proximale": 6089,
      "observ": 6090,
      "inclusief": 6091,
      "pan": 6092,
      "vrouwelijke": 6093,
      "##ds": 6094,
      "punt": 6095,
      "bevorderen": 6096,
      "##producten": 6097,
      "geïnduceerd": 6098,
      "Discharge": 6099,
      "##EGEG": 6100,
      "mogelijkheid": 6101,
      "##telijke": 6102,
      "mag": 6103,
      "slijm": 6104,
      "##po": 6105,
      "werkzaamheid": 6106,
      "83": 6107,
      "fosfor": 6108,
      "ontsteking": 6109,
      "##oppervla": 6110,
      "##aby": 6111,
      "reden": 6112,
      "Ond": 6113,
      "clu": 6114,
      "##aryn": 6115,
      "overzicht": 6116,
      "kader": 6117,
      "##score": 6118,
      "Fe": 6119,
      "natuurlijke": 6120,
      "toenemende": 6121,
      "##TS": 6122,
      "bacteriën": 6123,
      "elkaar": 6124,
      "CON": 6125,
      "##stam": 6126,
      "ongewijzigd": 6127,
      "pathologische": 6128,
      "##oit": 6129,
      "stent": 6130,
      "##ational": 6131,
      "gemeenschappelijke": 6132,
      "##FR": 6133,
      "DR": 6134,
      "sluit": 6135,
      "Function": 6136,
      "mutatie": 6137,
      "##BS": 6138,
      "##atiënten": 6139,
      "visuele": 6140,
      "##ations": 6141,
      "geassocieerde": 6142,
      "anat": 6143,
      "basale": 6144,
      "##dens": 6145,
      "deeltjes": 6146,
      "##ominale": 6147,
      "relevante": 6148,
      "lo": 6149,
      "invasieve": 6150,
      "##achtige": 6151,
      "aanbevel": 6152,
      "oc": 6153,
      "##okken": 6154,
      "geschat": 6155,
      "CRP": 6156,
      "##kle": 6157,
      "PG": 6158,
      "110": 6159,
      "##PR": 6160,
      "aanhoudende": 6161,
      "Ble": 6162,
      "milie": 6163,
      "##abiliteit": 6164,
      "commun": 6165,
      "soms": 6166,
      "##18": 6167,
      "##istische": 6168,
      "chemotherapie": 6169,
      "defect": 6170,
      "##PA": 6171,
      "diff": 6172,
      "89": 6173,
      "##ancer": 6174,
      "intest": 6175,
      "prevalentie": 6176,
      "##beh": 6177,
      "##embran": 6178,
      "130": 6179,
      "##CR": 6180,
      "ijzer": 6181,
      "Zijn": 6182,
      "##lux": 6183,
      "vaste": 6184,
      "testen": 6185,
      "##actieve": 6186,
      "##punt": 6187,
      "##ner": 6188,
      "##grootte": 6189,
      "risicofactoren": 6190,
      "prostaat": 6191,
      "##kent": 6192,
      "##ventionele": 6193,
      "geco": 6194,
      "##attern": 6195,
      "laat": 6196,
      "##oemde": 6197,
      "##H2": 6198,
      "impact": 6199,
      "##umor": 6200,
      "ber": 6201,
      "seks": 6202,
      "verwijdering": 6203,
      "behandelingen": 6204,
      "sep": 6205,
      "Gezien": 6206,
      "##ella": 6207,
      "##ull": 6208,
      "##akken": 6209,
      "componenten": 6210,
      "Indicatie": 6211,
      "enzymen": 6212,
      "##lekeur": 6213,
      "uitgebreid": 6214,
      "##osom": 6215,
      "witte": 6216,
      "bol": 6217,
      "ondanks": 6218,
      "Admission": 6219,
      "##roffen": 6220,
      "NG": 6221,
      "mob": 6222,
      "geproduceerd": 6223,
      "Actie": 6224,
      "not": 6225,
      "##status": 6226,
      "##lage": 6227,
      "minste": 6228,
      "bijdra": 6229,
      "diameter": 6230,
      "overeenstemming": 6231,
      "identificatie": 6232,
      "Trans": 6233,
      "##ining": 6234,
      "##andom": 6235,
      "remmer": 6236,
      "recidief": 6237,
      "genoom": 6238,
      "##deerd": 6239,
      "ouder": 6240,
      "krist": 6241,
      "ET": 6242,
      "dier": 6243,
      "##text": 6244,
      "##andid": 6245,
      "##15": 6246,
      "##keerd": 6247,
      "##ylax": 6248,
      "langdurige": 6249,
      "essentie": 6250,
      "Reumatologie": 6251,
      "terugk": 6252,
      "poliklin": 6253,
      "CN": 6254,
      "EN": 6255,
      "pacemaker": 6256,
      "##neu": 6257,
      "CA": 6258,
      "bacteriële": 6259,
      "ledem": 6260,
      "##EV": 6261,
      "##vari": 6262,
      "beweging": 6263,
      "abnormale": 6264,
      "flow": 6265,
      "##vaard": 6266,
      "oudere": 6267,
      "##gerelat": 6268,
      "##opname": 6269,
      "bpm": 6270,
      "onmiddel": 6271,
      "CTA": 6272,
      "sil": 6273,
      "79": 6274,
      "##gegeven": 6275,
      "##trofie": 6276,
      "##its": 6277,
      "##DNA": 6278,
      "##VID": 6279,
      "##wissel": 6280,
      "geschikt": 6281,
      "Total": 6282,
      "ontwerp": 6283,
      "##ha": 6284,
      "##vloe": 6285,
      "reag": 6286,
      "po": 6287,
      "##BD": 6288,
      "coh": 6289,
      "##ïnen": 6290,
      "##genen": 6291,
      "stadium": 6292,
      "##heem": 6293,
      "##dieren": 6294,
      "vle": 6295,
      "overleg": 6296,
      "systemische": 6297,
      "##eerbare": 6298,
      "resid": 6299,
      "atheroscler": 6300,
      "##bele": 6301,
      "sequenties": 6302,
      "gewrichten": 6303,
      "Patient": 6304,
      "gef": 6305,
      "CAD": 6306,
      "Cr": 6307,
      "##uleren": 6308,
      "tegenstelling": 6309,
      "Haar": 6310,
      "atriumfibrilleren": 6311,
      "HA": 6312,
      "Kle": 6313,
      "plat": 6314,
      "##electase": 6315,
      "famil": 6316,
      "plaatsen": 6317,
      "hypox": 6318,
      "##astin": 6319,
      "##SS": 6320,
      "voorgeschreven": 6321,
      "##AST": 6322,
      "##komstig": 6323,
      "toler": 6324,
      "##ative": 6325,
      "afgele": 6326,
      "##ket": 6327,
      "##ju": 6328,
      "##lok": 6329,
      "Wanneer": 6330,
      "Echter": 6331,
      "##hou": 6332,
      "sig": 6333,
      "##var": 6334,
      "geringe": 6335,
      "##omyopathie": 6336,
      "multip": 6337,
      "proliferatie": 6338,
      "##uurd": 6339,
      "##gren": 6340,
      "gestopt": 6341,
      "opmer": 6342,
      "##bri": 6343,
      "vat": 6344,
      "##rekken": 6345,
      "##oring": 6346,
      "extrem": 6347,
      "m2": 6348,
      "##isen": 6349,
      "##cont": 6350,
      "konden": 6351,
      "komst": 6352,
      "##afwijkingen": 6353,
      "##ave": 6354,
      "##olaire": 6355,
      "Inf": 6356,
      "##rac": 6357,
      "respon": 6358,
      "cyste": 6359,
      "Assessment": 6360,
      "##ouwen": 6361,
      "##utum": 6362,
      "##alth": 6363,
      "tachycardie": 6364,
      "afdeling": 6365,
      "technieken": 6366,
      "av": 6367,
      "##istratie": 6368,
      "T2": 6369,
      "neemt": 6370,
      "bestuderen": 6371,
      "##wijzing": 6372,
      "##yan": 6373,
      "##werken": 6374,
      "##ardiale": 6375,
      "diarree": 6376,
      "mechanische": 6377,
      "##darm": 6378,
      "##oxid": 6379,
      "Nu": 6380,
      "COVID": 6381,
      "##vice": 6382,
      "willekeur": 6383,
      "##ouff": 6384,
      "verdragen": 6385,
      "macrof": 6386,
      "tand": 6387,
      "Prote": 6388,
      "dl": 6389,
      "berekend": 6390,
      "gerapporte": 6391,
      "gedefinieerd": 6392,
      "cur": 6393,
      "aanzienlijke": 6394,
      "monitor": 6395,
      "borstkanker": 6396,
      "voet": 6397,
      "IgG": 6398,
      "Hel": 6399,
      "event": 6400,
      "diep": 6401,
      "veronder": 6402,
      "EM": 6403,
      "##ffer": 6404,
      "conform": 6405,
      "symmet": 6406,
      "##ink": 6407,
      "programma": 6408,
      "consol": 6409,
      "##monsters": 6410,
      "gezondheidszorg": 6411,
      "arm": 6412,
      "DC": 6413,
      "Imm": 6414,
      "criteria": 6415,
      "perfusie": 6416,
      "##ografisch": 6417,
      "wijst": 6418,
      "##efal": 6419,
      "PL": 6420,
      "degeneratieve": 6421,
      "gegener": 6422,
      "nucleaire": 6423,
      "##oge": 6424,
      "##lak": 6425,
      "pub": 6426,
      "achtige": 6427,
      "selectieve": 6428,
      "apparaat": 6429,
      "nieren": 6430,
      "ogen": 6431,
      "##bolie": 6432,
      "ontworpen": 6433,
      "##ditie": 6434,
      "aneurysma": 6435,
      "DP": 6436,
      "NT": 6437,
      "toepassingen": 6438,
      "drainage": 6439,
      "##QUE": 6440,
      "zeldzame": 6441,
      "##EC": 6442,
      "vertegenwoordigen": 6443,
      "onderzoeks": 6444,
      "moleculen": 6445,
      "Sh": 6446,
      "zit": 6447,
      "##oglobine": 6448,
      "coli": 6449,
      "Result": 6450,
      "conf": 6451,
      "mild": 6452,
      "##binding": 6453,
      "##zijds": 6454,
      "##ytro": 6455,
      "##eggen": 6456,
      "virale": 6457,
      "##voer": 6458,
      "onopvallend": 6459,
      "125": 6460,
      "##plaatjes": 6461,
      "##kk": 6462,
      "onc": 6463,
      "ablatie": 6464,
      "souff": 6465,
      "stabiliteit": 6466,
      "tempor": 6467,
      "##techn": 6468,
      "bro": 6469,
      "rekening": 6470,
      "##gew": 6471,
      "termin": 6472,
      "##vanging": 6473,
      "##ilisatie": 6474,
      "gekwee": 6475,
      "##örd": 6476,
      "intervent": 6477,
      "Ao": 6478,
      "Milde": 6479,
      "##missie": 6480,
      "##ipatie": 6481,
      "##etie": 6482,
      "overgang": 6483,
      "gebruikten": 6484,
      "gun": 6485,
      "##zem": 6486,
      "melan": 6487,
      "opgel": 6488,
      "voordelen": 6489,
      "liggen": 6490,
      "team": 6491,
      "##okin": 6492,
      "##30": 6493,
      "MB": 6494,
      "wijzig": 6495,
      "##gin": 6496,
      "soft": 6497,
      "dagelijkse": 6498,
      "Ag": 6499,
      "##uline": 6500,
      "##achten": 6501,
      "fron": 6502,
      "##oplos": 6503,
      "schat": 6504,
      "ren": 6505,
      "kopp": 6506,
      "beperkingen": 6507,
      "##yth": 6508,
      "orth": 6509,
      "Asp": 6510,
      "##nemen": 6511,
      "cal": 6512,
      "specific": 6513,
      "VT": 6514,
      "Ontslag": 6515,
      "pediat": 6516,
      "brengen": 6517,
      "##istoffen": 6518,
      "recombin": 6519,
      "ident": 6520,
      "NAD": 6521,
      "##cten": 6522,
      "##aging": 6523,
      "mic": 6524,
      "enig": 6525,
      "verhouding": 6526,
      "gebrek": 6527,
      "vitamine": 6528,
      "Tem": 6529,
      "HE": 6530,
      "wereldwij": 6531,
      "dru": 6532,
      "daarna": 6533,
      "secundair": 6534,
      "##aa": 6535,
      "##isering": 6536,
      "nr": 6537,
      "##ey": 6538,
      "ann": 6539,
      "##stenose": 6540,
      "gla": 6541,
      "rapporteren": 6542,
      "elektronen": 6543,
      "##ellitus": 6544,
      "Coron": 6545,
      "##bumine": 6546,
      "##standen": 6547,
      "Phys": 6548,
      "##zels": 6549,
      "locatie": 6550,
      "sol": 6551,
      "##ylaxe": 6552,
      "site": 6553,
      "##aarm": 6554,
      "##entegen": 6555,
      "Daily": 6556,
      "veranderd": 6557,
      "##dheid": 6558,
      "differentiële": 6559,
      "Verschillen": 6560,
      "exter": 6561,
      "Vervolgens": 6562,
      "gemakkelijk": 6563,
      "schildklier": 6564,
      "gastheer": 6565,
      "##fys": 6566,
      "##UC": 6567,
      "lopen": 6568,
      "##24": 6569,
      "gang": 6570,
      "##gramma": 6571,
      "toegenomen": 6572,
      "dyspnoe": 6573,
      "sonde": 6574,
      "bero": 6575,
      "Bes": 6576,
      "##ping": 6577,
      "##ound": 6578,
      "##ases": 6579,
      "##leng": 6580,
      "herzien": 6581,
      "1dd": 6582,
      "verslag": 6583,
      "gedilateerd": 6584,
      "##idemie": 6585,
      "behalve": 6586,
      "component": 6587,
      "enter": 6588,
      "gecomp": 6589,
      "zacht": 6590,
      "DLP": 6591,
      "Amerik": 6592,
      "remmers": 6593,
      "eenheid": 6594,
      "antigeen": 6595,
      "##eline": 6596,
      "termen": 6597,
      "##NIQUE": 6598,
      "onbekend": 6599,
      "##ross": 6600,
      "verdw": 6601,
      "##uwen": 6602,
      "epitheel": 6603,
      "##loor": 6604,
      "My": 6605,
      "HF": 6606,
      "jong": 6607,
      "##methode": 6608,
      "nab": 6609,
      "transcriptie": 6610,
      "##ll": 6611,
      "repl": 6612,
      "##ister": 6613,
      "PH": 6614,
      "abdominale": 6615,
      "##gevoel": 6616,
      "Ondanks": 6617,
      "poli": 6618,
      "##oedeem": 6619,
      "behandelen": 6620,
      "##cess": 6621,
      "dood": 6622,
      "##agement": 6623,
      "instr": 6624,
      "End": 6625,
      "##bs": 6626,
      "##osyn": 6627,
      "verdeling": 6628,
      "NH": 6629,
      "bindende": 6630,
      "gaf": 6631,
      "ile": 6632,
      "##dering": 6633,
      "vanuit": 6634,
      "##ual": 6635,
      "gewijzigd": 6636,
      "##ring": 6637,
      "##werp": 6638,
      "##omatische": 6639,
      "##eptide": 6640,
      "91": 6641,
      "oud": 6642,
      "inname": 6643,
      "tweemaal": 6644,
      "lymfocyten": 6645,
      "cr": 6646,
      "pr": 6647,
      "veiligheid": 6648,
      "##port": 6649,
      "ontstekings": 6650,
      "variatie": 6651,
      "Hemat": 6652,
      "##tering": 6653,
      "muis": 6654,
      "2009": 6655,
      "71": 6656,
      "oct": 6657,
      "##uul": 6658,
      "##brale": 6659,
      "conventionele": 6660,
      "antigen": 6661,
      "noodzakelijk": 6662,
      "produceren": 6663,
      "onafhankelijke": 6664,
      "##ities": 6665,
      "##lox": 6666,
      "lymfaden": 6667,
      "besmet": 6668,
      "##onucle": 6669,
      "calc": 6670,
      "beste": 6671,
      "##mens": 6672,
      "afstand": 6673,
      "spiegel": 6674,
      "mcg": 6675,
      "##fonisch": 6676,
      "gevolgen": 6677,
      "##haling": 6678,
      "zorgen": 6679,
      "##opril": 6680,
      "##umab": 6681,
      "chron": 6682,
      "astma": 6683,
      "ms": 6684,
      "##veren": 6685,
      "Maag": 6686,
      "##usc": 6687,
      "##modellen": 6688,
      "kwaad": 6689,
      "##tingen": 6690,
      "granul": 6691,
      "mitralisklep": 6692,
      "flex": 6693,
      "##rand": 6694,
      "##gezien": 6695,
      "kunt": 6696,
      "hypotensie": 6697,
      "##acine": 6698,
      "malign": 6699,
      "Neuro": 6700,
      "##TU": 6701,
      "Gewicht": 6702,
      "kwantitatieve": 6703,
      "##proef": 6704,
      "resulteert": 6705,
      "gediagnosticeerd": 6706,
      "substraat": 6707,
      "##gerelateerde": 6708,
      "##oeid": 6709,
      "hoofdpijn": 6710,
      "##obacter": 6711,
      "##olip": 6712,
      "olig": 6713,
      "geneesmiddel": 6714,
      "humane": 6715,
      "ander": 6716,
      "beschermen": 6717,
      "steek": 6718,
      "RT": 6719,
      "##scheid": 6720,
      "optimale": 6721,
      "##S2": 6722,
      "PTT": 6723,
      "##bron": 6724,
      "dynam": 6725,
      "##cm": 6726,
      "MV": 6727,
      "geheugen": 6728,
      "##studies": 6729,
      "terminale": 6730,
      "##olen": 6731,
      "##voegd": 6732,
      "vertraag": 6733,
      "##ata": 6734,
      "leeftijds": 6735,
      "chromosoom": 6736,
      "##gingen": 6737,
      "context": 6738,
      "dilatatie": 6739,
      "##tes": 6740,
      "##concentratie": 6741,
      "resol": 6742,
      "stre": 6743,
      "braken": 6744,
      "##ERK": 6745,
      "benaderingen": 6746,
      "##etrie": 6747,
      "essentieel": 6748,
      "gebonden": 6749,
      "bevorder": 6750,
      "vergelijken": 6751,
      "##ills": 6752,
      "regressie": 6753,
      "Toe": 6754,
      "61": 6755,
      "##gemakkelijk": 6756,
      "vergemakkelijk": 6757,
      "##drukking": 6758,
      "T1": 6759,
      "geregist": 6760,
      "##onische": 6761,
      "accum": 6762,
      "##gebonden": 6763,
      "dig": 6764,
      "##rift": 6765,
      "##RESS": 6766,
      "Soc": 6767,
      "adequ": 6768,
      "##aze": 6769,
      "gebeurtenissen": 6770,
      "3D": 6771,
      "echocardi": 6772,
      "##chlor": 6773,
      "hoogste": 6774,
      "bloedplaatjes": 6775,
      "##foto": 6776,
      "##NE": 6777,
      "ging": 6778,
      "rechtse": 6779,
      "##spect": 6780,
      "S2": 6781,
      "Hgb": 6782,
      "##oses": 6783,
      "atelectase": 6784,
      "afzonder": 6785,
      "VC": 6786,
      "gene": 6787,
      "##ted": 6788,
      "nauwkeurigheid": 6789,
      "##gelaten": 6790,
      "##DER": 6791,
      "##ray": 6792,
      "##pop": 6793,
      "werken": 6794,
      "netwerk": 6795,
      "##complex": 6796,
      "pass": 6797,
      "##oplasma": 6798,
      "dop": 6799,
      "oorsprong": 6800,
      "##pha": 6801,
      "SEH": 6802,
      "je": 6803,
      "gevorm": 6804,
      "##cutane": 6805,
      "bib": 6806,
      "##ctor": 6807,
      "##illine": 6808,
      "roken": 6809,
      "beroerte": 6810,
      "lumb": 6811,
      "##alans": 6812,
      "aminozuur": 6813,
      "kanaal": 6814,
      "##lasting": 6815,
      "RF": 6816,
      "intracellulaire": 6817,
      "##beweging": 6818,
      "##eus": 6819,
      "transport": 6820,
      "Longgeneeskunde": 6821,
      "##GG": 6822,
      "##orische": 6823,
      "##CHNIQUE": 6824,
      "py": 6825,
      "##concentraties": 6826,
      "zwelling": 6827,
      "tar": 6828,
      "##vingen": 6829,
      "voorkeur": 6830,
      "baby": 6831,
      "CD4": 6832,
      "Abdomen": 6833,
      "##voeding": 6834,
      "##active": 6835,
      "Diabetes": 6836,
      "jonge": 6837,
      "##chemische": 6838,
      "##stellen": 6839,
      "Findings": 6840,
      "uitsluit": 6841,
      "##omeg": 6842,
      "##ntgen": 6843,
      "voorbere": 6844,
      "Drie": 6845,
      "##emide": 6846,
      "externe": 6847,
      "TNF": 6848,
      "polikliniek": 6849,
      "afgeleide": 6850,
      "afbraak": 6851,
      "Gesch": 6852,
      "##ofen": 6853,
      "brief": 6854,
      "verkrijgen": 6855,
      "hoeveelheden": 6856,
      "genexpressie": 6857,
      "Se": 6858,
      "ontstaan": 6859,
      "##beper": 6860,
      "gemiddeld": 6861,
      "sem": 6862,
      "gere": 6863,
      "1x": 6864,
      "paras": 6865,
      "##respons": 6866,
      "##ser": 6867,
      "buis": 6868,
      "onlangs": 6869,
      "operatieve": 6870,
      "Vraag": 6871,
      "concept": 6872,
      "##ions": 6873,
      "ofwel": 6874,
      "signalering": 6875,
      "vermoed": 6876,
      "OS": 6877,
      "uitbre": 6878,
      "daags": 6879,
      "cardioloog": 6880,
      "prognose": 6881,
      "SpO2": 6882,
      "bar": 6883,
      "time": 6884,
      "##vermogen": 6885,
      "ouders": 6886,
      "##elease": 6887,
      "##specifieke": 6888,
      "glob": 6889,
      "vererg": 6890,
      "##osa": 6891,
      "AA": 6892,
      "##kundigen": 6893,
      "prin": 6894,
      "geïnfecteerde": 6895,
      "onvol": 6896,
      "##olling": 6897,
      "##result": 6898,
      "bete": 6899,
      "erop": 6900,
      "plaatsing": 6901,
      "MA": 6902,
      "##odel": 6903,
      "##TP": 6904,
      "##kracht": 6905,
      "richting": 6906,
      "minimaal": 6907,
      "kortademigheid": 6908,
      "Care": 6909,
      "##iform": 6910,
      "gepub": 6911,
      "toxiciteit": 6912,
      "##uizel": 6913,
      "Verg": 6914,
      "##reed": 6915,
      "rh": 6916,
      "##slagader": 6917,
      "stoornissen": 6918,
      "##YP": 6919,
      "##operatief": 6920,
      "proteïne": 6921,
      "##ikstof": 6922,
      "pas": 6923,
      "reumat": 6924,
      "##riet": 6925,
      "namen": 6926,
      "affin": 6927,
      "ket": 6928,
      "aanvankelijk": 6929,
      "##alt": 6930,
      "lymfadenopathie": 6931,
      "onderscheiden": 6932,
      "sterfte": 6933,
      "##egrip": 6934,
      "blootgesteld": 6935,
      "LC": 6936,
      "##abil": 6937,
      "gehouden": 6938,
      "##prote": 6939,
      "##vormige": 6940,
      "betere": 6941,
      "CF": 6942,
      "place": 6943,
      "hip": 6944,
      "obstructie": 6945,
      "bevindt": 6946,
      "neutro": 6947,
      "mM": 6948,
      "cervicale": 6949,
      "##voudig": 6950,
      "bleken": 6951,
      "##22": 6952,
      "##rooi": 6953,
      "infil": 6954,
      "lys": 6955,
      "##lan": 6956,
      "##liceerde": 6957,
      "afw": 6958,
      "DVT": 6959,
      "intraveneuze": 6960,
      "hypot": 6961,
      "##denking": 6962,
      "IMPRESS": 6963,
      "overeenkomst": 6964,
      "##Pattern": 6965,
      "##recept": 6966,
      "bewust": 6967,
      "onduidelijk": 6968,
      "sin": 6969,
      "ng": 6970,
      "Doppler": 6971,
      "##ococ": 6972,
      "slotte": 6973,
      "##IA": 6974,
      "##wegings": 6975,
      "##insufficiëntie": 6976,
      "Opt": 6977,
      "##heids": 6978,
      "herhaalde": 6979,
      "##uleert": 6980,
      "##beelden": 6981,
      "HB": 6982,
      "##ypt": 6983,
      "Totaal": 6984,
      "subt": 6985,
      "##itude": 6986,
      "puls": 6987,
      "system": 6988,
      "kruis": 6989,
      "##keerde": 6990,
      "##orden": 6991,
      "gebruikte": 6992,
      "Cre": 6993,
      "##utter": 6994,
      "IR": 6995,
      "Daarnaast": 6996,
      "RX": 6997,
      "toekomstige": 6998,
      "elektrische": 6999,
      "##ala": 7000,
      "##onaat": 7001,
      "MM": 7002,
      "collega": 7003,
      "hen": 7004,
      "##ices": 7005,
      "endotheel": 7006,
      "##EK": 7007,
      "emot": 7008,
      "Verschillende": 7009,
      "oest": 7010,
      "gepaard": 7011,
      "##oca": 7012,
      "##fuse": 7013,
      "vernauwing": 7014,
      "Ro": 7015,
      "verwijderen": 7016,
      "##sectie": 7017,
      "##grond": 7018,
      "##cing": 7019,
      "##stest": 7020,
      "fer": 7021,
      "veranderen": 7022,
      "Present": 7023,
      "##veranderingen": 7024,
      "##ikels": 7025,
      "hetzelfde": 7026,
      "##eerbaar": 7027,
      "soc": 7028,
      "##öntgen": 7029,
      "vonden": 7030,
      "altijd": 7031,
      "##DA": 7032,
      "LF": 7033,
      "algor": 7034,
      "Neder": 7035,
      "##ord": 7036,
      "betreft": 7037,
      "Disposition": 7038,
      "stoppen": 7039,
      "vasc": 7040,
      "##stoffen": 7041,
      "Vergeleken": 7042,
      "producten": 7043,
      "lipide": 7044,
      "##O3": 7045,
      "Body": 7046,
      "##leerde": 7047,
      "##plaatsing": 7048,
      "##borst": 7049,
      "MIC": 7050,
      "aanpass": 7051,
      "polymer": 7052,
      "##IG": 7053,
      "interpret": 7054,
      "zeven": 7055,
      "ontslagen": 7056,
      "Wat": 7057,
      "vermeld": 7058,
      "Zie": 7059,
      "Bet": 7060,
      "behoefte": 7061,
      "##orter": 7062,
      "fosfat": 7063,
      "einde": 7064,
      "SS": 7065,
      "Algemene": 7066,
      "daarop": 7067,
      "##sels": 7068,
      "artsen": 7069,
      "##activeerde": 7070,
      "##duur": 7071,
      "GR": 7072,
      "##drag": 7073,
      "Dif": 7074,
      "uiter": 7075,
      "##iste": 7076,
      "reage": 7077,
      "reguleren": 7078,
      "##licatie": 7079,
      "vas": 7080,
      "##auw": 7081,
      "##ieel": 7082,
      "TTE": 7083,
      "ABG": 7084,
      "nierfunctie": 7085,
      "EP": 7086,
      "##lear": 7087,
      "kinase": 7088,
      "procent": 7089,
      "down": 7090,
      "##openie": 7091,
      "pen": 7092,
      "##tras": 7093,
      "organismen": 7094,
      "maximaal": 7095,
      "bloeden": 7096,
      "ontdekten": 7097,
      "##ise": 7098,
      "##greg": 7099,
      "##fort": 7100,
      "##atory": 7101,
      "Ap": 7102,
      "fin": 7103,
      "##hn": 7104,
      "##Cl": 7105,
      "Ser": 7106,
      "Comment": 7107,
      "Immun": 7108,
      "reson": 7109,
      "gemeenschap": 7110,
      "ratio": 7111,
      "ischemische": 7112,
      "##eleerd": 7113,
      "PI": 7114,
      "##kere": 7115,
      "Hyp": 7116,
      "##25": 7117,
      "Euro": 7118,
      "staan": 7119,
      "Nederland": 7120,
      "##even": 7121,
      "toevoeging": 7122,
      "ty": 7123,
      "PIC": 7124,
      "##char": 7125,
      "schimm": 7126,
      "Health": 7127,
      "aanvallen": 7128,
      "variabelen": 7129,
      "##cy": 7130,
      "voorgestelde": 7131,
      "##uurt": 7132,
      "Omdat": 7133,
      "neurologische": 7134,
      "ur": 7135,
      "##intig": 7136,
      "##iaire": 7137,
      "Refills": 7138,
      "##strategie": 7139,
      "##TA": 7140,
      "wild": 7141,
      "ulcer": 7142,
      "160": 7143,
      "richtlijnen": 7144,
      "##romat": 7145,
      "hypothese": 7146,
      "fract": 7147,
      "##ian": 7148,
      "rad": 7149,
      "Kal": 7150,
      "##irale": 7151,
      "cardiovasculaire": 7152,
      "miR": 7153,
      "Kn": 7154,
      "overwegen": 7155,
      "Darm": 7156,
      "Vit": 7157,
      "TA": 7158,
      "statistisch": 7159,
      "##biële": 7160,
      "##STE": 7161,
      "stoel": 7162,
      "##organis": 7163,
      "ontvangen": 7164,
      "Tr": 7165,
      "##yg": 7166,
      "luchtweg": 7167,
      "gemen": 7168,
      "gecorreleerd": 7169,
      "spre": 7170,
      "CXR": 7171,
      "cortex": 7172,
      "decursus": 7173,
      "PF": 7174,
      "HCT": 7175,
      "dw": 7176,
      "##iderzijds": 7177,
      "lymfek": 7178,
      "intro": 7179,
      "veranderde": 7180,
      "##imer": 7181,
      "##sieve": 7182,
      "gluc": 7183,
      "signalen": 7184,
      "AG": 7185,
      "ingre": 7186,
      "metoprolol": 7187,
      "matrix": 7188,
      "rij": 7189,
      "##ake": 7190,
      "herken": 7191,
      "inbegrip": 7192,
      "##iratoire": 7193,
      "rob": 7194,
      "##ometrische": 7195,
      "volto": 7196,
      "pseud": 7197,
      "onderging": 7198,
      "pathologie": 7199,
      "detail": 7200,
      "##iger": 7201,
      "Capsule": 7202,
      "##oscopische": 7203,
      "##arkers": 7204,
      "gehalte": 7205,
      "ide": 7206,
      "Gaat": 7207,
      "markers": 7208,
      "resistentie": 7209,
      "##genoemde": 7210,
      "uiteindelijk": 7211,
      "Atten": 7212,
      "mort": 7213,
      "Goede": 7214,
      "##BI": 7215,
      "az": 7216,
      "intestinale": 7217,
      "##etica": 7218,
      "##odynamische": 7219,
      "##inn": 7220,
      "##uiving": 7221,
      "morgen": 7222,
      "mitochondriale": 7223,
      "##male": 7224,
      "rood": 7225,
      "##verslag": 7226,
      "gezichts": 7227,
      "intracran": 7228,
      "cross": 7229,
      "##rijft": 7230,
      "computer": 7231,
      "repar": 7232,
      "Som": 7233,
      "medicijn": 7234,
      "##icine": 7235,
      "verlaagd": 7236,
      "##itas": 7237,
      "##dicht": 7238,
      "##ays": 7239,
      "##verlen": 7240,
      "regionale": 7241,
      "##ocar": 7242,
      "fluorescentie": 7243,
      "mediastin": 7244,
      "2022": 7245,
      "oxidatieve": 7246,
      "Ma": 7247,
      "ledematen": 7248,
      "weerspiegel": 7249,
      "biopsie": 7250,
      "##zijde": 7251,
      "voordat": 7252,
      "aug": 7253,
      "strategieën": 7254,
      "##spectief": 7255,
      "##toe": 7256,
      "##eth": 7257,
      "gram": 7258,
      "BI": 7259,
      "resolutie": 7260,
      "CL": 7261,
      "##annings": 7262,
      "tube": 7263,
      "##validatie": 7264,
      "##gebieden": 7265,
      "##wikkel": 7266,
      "geregistreerd": 7267,
      "ontwikkelings": 7268,
      "bodem": 7269,
      "ruimtelijke": 7270,
      "verscheiden": 7271,
      "##70": 7272,
      "axiale": 7273,
      "band": 7274,
      "##arisatie": 7275,
      "Unit": 7276,
      "##stelsel": 7277,
      "rode": 7278,
      "daling": 7279,
      "tel": 7280,
      "milieu": 7281,
      "Toel": 7282,
      "##umenten": 7283,
      "groeif": 7284,
      "##molec": 7285,
      "216": 7286,
      "##umer": 7287,
      "##enz": 7288,
      "studen": 7289,
      "Bas": 7290,
      "Serv": 7291,
      "##CL": 7292,
      "2008": 7293,
      "dubbele": 7294,
      "halsslagader": 7295,
      "extracellulaire": 7296,
      "##uros": 7297,
      "tren": 7298,
      "##arenchym": 7299,
      "mL": 7300,
      "promotor": 7301,
      "complexen": 7302,
      "ruggen": 7303,
      "##beloven": 7304,
      "drin": 7305,
      "nec": 7306,
      "leidde": 7307,
      "Sinusritme": 7308,
      "tal": 7309,
      "##gezondheid": 7310,
      "MDL": 7311,
      "verwijst": 7312,
      "##oriën": 7313,
      "##opy": 7314,
      "oef": 7315,
      "recon": 7316,
      "##MER": 7317,
      "CVA": 7318,
      "interventies": 7319,
      "##ware": 7320,
      "medium": 7321,
      "gekregen": 7322,
      "Stud": 7323,
      "afgenomen": 7324,
      "##max": 7325,
      "gevoelige": 7326,
      "meting": 7327,
      "##RA": 7328,
      "veelbeloven": 7329,
      "sulf": 7330,
      "Ox": 7331,
      "beschikbare": 7332,
      "URINE": 7333,
      "##EA": 7334,
      "##cyclus": 7335,
      "##medicatie": 7336,
      "aanbevelingen": 7337,
      "rout": 7338,
      "##cefal": 7339,
      "Abs": 7340,
      "2000": 7341,
      "progressieve": 7342,
      "affiniteit": 7343,
      "mening": 7344,
      "fibro": 7345,
      "##LAR": 7346,
      "gekoppeld": 7347,
      "skelet": 7348,
      "##nnnn": 7349,
      "feit": 7350,
      "vloeib": 7351,
      "Tra": 7352,
      "advies": 7353,
      "Examinering": 7354,
      "##INGEN": 7355,
      "Aangezien": 7356,
      "##ificeerd": 7357,
      "acetyl": 7358,
      "##ethyl": 7359,
      "##urosemide": 7360,
      "cytotox": 7361,
      "##artsen": 7362,
      "##oplasmat": 7363,
      "##maat": 7364,
      "##pland": 7365,
      "infuus": 7366,
      "afkomstig": 7367,
      "efficiëntie": 7368,
      "##optim": 7369,
      "##ateriaal": 7370,
      "##positie": 7371,
      "femorale": 7372,
      "##riè": 7373,
      "ving": 7374,
      "##ember": 7375,
      "cruciaal": 7376,
      "rat": 7377,
      "gevormd": 7378,
      "Linker": 7379,
      "ALT": 7380,
      "ontlasting": 7381,
      "##ease": 7382,
      "##aarmoeder": 7383,
      "soe": 7384,
      "buikpijn": 7385,
      "jan": 7386,
      "2x": 7387,
      "geboorte": 7388,
      "ontbre": 7389,
      "Huid": 7390,
      "slok": 7391,
      "##mal": 7392,
      "##rokken": 7393,
      "##atisch": 7394,
      "Ca2": 7395,
      "betrouwbaarheid": 7396,
      "dubbel": 7397,
      "koolstof": 7398,
      "duizel": 7399,
      "##richting": 7400,
      "bevolking": 7401,
      "datab": 7402,
      "##icusp": 7403,
      "##werkt": 7404,
      "sper": 7405,
      "beenmerg": 7406,
      "##bouw": 7407,
      "reductie": 7408,
      "late": 7409,
      "##acchar": 7410,
      "allel": 7411,
      "ampl": 7412,
      "Achter": 7413,
      "daalde": 7414,
      "aspecten": 7415,
      "modi": 7416,
      "Follow": 7417,
      "QT": 7418,
      "Che": 7419,
      "verzwak": 7420,
      "##trast": 7421,
      "passend": 7422,
      "##ationale": 7423,
      "verklaren": 7424,
      "subeen": 7425,
      "onver": 7426,
      "##massa": 7427,
      "##oll": 7428,
      "##resultaten": 7429,
      "cultuur": 7430,
      "##dimens": 7431,
      "overwogen": 7432,
      "##locatie": 7433,
      "capsule": 7434,
      "##roep": 7435,
      "gerichte": 7436,
      "##zetten": 7437,
      "gas": 7438,
      "vooruitgang": 7439,
      "orde": 7440,
      "##ames": 7441,
      "##vuld": 7442,
      "PET": 7443,
      "geble": 7444,
      "carcinoom": 7445,
      "stikstof": 7446,
      "##staande": 7447,
      "EX": 7448,
      "##alol": 7449,
      "##raken": 7450,
      "magnetische": 7451,
      "aangeeft": 7452,
      "##rucht": 7453,
      "##route": 7454,
      "##rempel": 7455,
      "TP": 7456,
      "organ": 7457,
      "procedures": 7458,
      "plast": 7459,
      "##besch": 7460,
      "baarmoeder": 7461,
      "optische": 7462,
      "##anyl": 7463,
      "##IF": 7464,
      "samenstelling": 7465,
      "remmende": 7466,
      "effectiviteit": 7467,
      "##vle": 7468,
      "fractie": 7469,
      "##oide": 7470,
      "Neurolog": 7471,
      "##orende": 7472,
      "##eringen": 7473,
      "corticale": 7474,
      "promin": 7475,
      "OH": 7476,
      "verwacht": 7477,
      "vervangen": 7478,
      "##embranen": 7479,
      "##ïd": 7480,
      "##NUM": 7481,
      "101": 7482,
      "gr": 7483,
      "PVC": 7484,
      "heup": 7485,
      "unieke": 7486,
      "##aris": 7487,
      "##atiente": 7488,
      "Physical": 7489,
      "##rijke": 7490,
      "zoog": 7491,
      "spontane": 7492,
      "##aars": 7493,
      "##tekeningen": 7494,
      "##iol": 7495,
      "##oemd": 7496,
      "verspreiding": 7497,
      "##iva": 7498,
      "Micro": 7499,
      "gestim": 7500,
      "##hand": 7501,
      "neuronale": 7502,
      "##jun": 7503,
      "vaker": 7504,
      "RS": 7505,
      "lid": 7506,
      "Borst": 7507,
      "QRS": 7508,
      "Indien": 7509,
      "leren": 7510,
      "OK": 7511,
      "##otomie": 7512,
      "populaties": 7513,
      "chirurgie": 7514,
      "##omstandigheden": 7515,
      "LDL": 7516,
      "referentie": 7517,
      "subc": 7518,
      "verleden": 7519,
      "##sver": 7520,
      "beteken": 7521,
      "##estion": 7522,
      "##osin": 7523,
      "gereguleerd": 7524,
      "##lement": 7525,
      "bereid": 7526,
      "pericard": 7527,
      "steekproef": 7528,
      "dynamische": 7529,
      "##OSE": 7530,
      "Onge": 7531,
      "ligand": 7532,
      "toegelaten": 7533,
      "##patiënten": 7534,
      "gu": 7535,
      "##tal": 7536,
      "regelmatig": 7537,
      "##hel": 7538,
      "##ml": 7539,
      "##orph": 7540,
      "ong": 7541,
      "##ason": 7542,
      "##27": 7543,
      "##sens": 7544,
      "gradi": 7545,
      "WH": 7546,
      "focus": 7547,
      "gaven": 7548,
      "Cro": 7549,
      "geactiveerde": 7550,
      "ligt": 7551,
      "noodzaak": 7552,
      "lat": 7553,
      "analyseren": 7554,
      "##lucht": 7555,
      "##oplossing": 7556,
      "##apar": 7557,
      "##YYYYYYYY": 7558,
      "motorische": 7559,
      "##fficiën": 7560,
      "voeren": 7561,
      "select": 7562,
      "MTX": 7563,
      "care": 7564,
      "toch": 7565,
      "##isten": 7566,
      "specificiteit": 7567,
      "Tromb": 7568,
      "knob": 7569,
      "toegevoegd": 7570,
      "mortaliteit": 7571,
      "genereren": 7572,
      "AST": 7573,
      "vag": 7574,
      "Opmer": 7575,
      "bezoek": 7576,
      "variëren": 7577,
      "Ep": 7578,
      "##HA": 7579,
      "trop": 7580,
      "verbinding": 7581,
      "##RD": 7582,
      "IVF": 7583,
      "zodat": 7584,
      "##oproteïne": 7585,
      "isolaten": 7586,
      "ON": 7587,
      "##angi": 7588,
      "bru": 7589,
      "lead": 7590,
      "##glyc": 7591,
      "214": 7592,
      "divers": 7593,
      "##ymb": 7594,
      "##cep": 7595,
      "elementen": 7596,
      "##mod": 7597,
      "##HS": 7598,
      "Waar": 7599,
      "Algemeen": 7600,
      "##ditionele": 7601,
      "##NUMMER": 7602,
      "mellitus": 7603,
      "disfunctie": 7604,
      "vader": 7605,
      "##aut": 7606,
      "##DE": 7607,
      "run": 7608,
      "MAP": 7609,
      "trache": 7610,
      "##sproces": 7611,
      "Patiënten": 7612,
      "##rectie": 7613,
      "amss": 7614,
      "langer": 7615,
      "nooit": 7616,
      "radioloog": 7617,
      "##lap": 7618,
      "heparine": 7619,
      "##geh": 7620,
      "detecteren": 7621,
      "controlegroep": 7622,
      "##oppervlak": 7623,
      "##ded": 7624,
      "##hyper": 7625,
      "Extrem": 7626,
      "##activer": 7627,
      "##ferase": 7628,
      "##niveaus": 7629,
      "orgaan": 7630,
      "##cter": 7631,
      "NamePattern": 7632,
      "organische": 7633,
      "ionen": 7634,
      "beginnen": 7635,
      "plot": 7636,
      "betekenis": 7637,
      "##zins": 7638,
      "landen": 7639,
      "##aptische": 7640,
      "colitis": 7641,
      "##vindingen": 7642,
      "hydroxy": 7643,
      "Nieuw": 7644,
      "bepaling": 7645,
      "##soorz": 7646,
      "vermoeid": 7647,
      "Invas": 7648,
      "routes": 7649,
      "Verpleeg": 7650,
      "transplant": 7651,
      "##fractie": 7652,
      "##ERKLAR": 7653,
      "onvoldoende": 7654,
      "menselijk": 7655,
      "##CP": 7656,
      "technologie": 7657,
      "besl": 7658,
      "transplantatie": 7659,
      "##sequentie": 7660,
      "ochten": 7661,
      "##RT": 7662,
      "feed": 7663,
      "dient": 7664,
      "Daarentegen": 7665,
      "##curr": 7666,
      "breuken": 7667,
      "blokk": 7668,
      "##ulus": 7669,
      "half": 7670,
      "##ributie": 7671,
      "patronen": 7672,
      "peptiden": 7673,
      "ir": 7674,
      "##transplantatie": 7675,
      "H2": 7676,
      "relaties": 7677,
      "##ynthet": 7678,
      "kwam": 7679,
      "lumbale": 7680,
      "slokdarm": 7681,
      "Lengte": 7682,
      "intensiteit": 7683,
      "##BL": 7684,
      "Last": 7685,
      "DE": 7686,
      "Leu": 7687,
      "assay": 7688,
      "schijn": 7689,
      "Pac": 7690,
      "##olol": 7691,
      "posterior": 7692,
      "begonnen": 7693,
      "benen": 7694,
      "##spanning": 7695,
      "Gene": 7696,
      "consolidatie": 7697,
      "##houding": 7698,
      "dors": 7699,
      "##MG": 7700,
      "rapporte": 7701,
      "eviden": 7702,
      "vele": 7703,
      "IFN": 7704,
      "MEDIC": 7705,
      "gestaakt": 7706,
      "Question": 7707,
      "beiderzijds": 7708,
      "foto": 7709,
      "##tijdig": 7710,
      "bijge": 7711,
      "##ocytose": 7712,
      "Alert": 7713,
      "##rijgt": 7714,
      "##doeld": 7715,
      "TEL": 7716,
      "##H2O": 7717,
      "##sb": 7718,
      "210": 7719,
      "mn": 7720,
      "##reum": 7721,
      "bedoeld": 7722,
      "##chi": 7723,
      "##ila": 7724,
      "stimuli": 7725,
      "##ventrikel": 7726,
      "##analys": 7727,
      "Phos": 7728,
      "molecuul": 7729,
      "verschijn": 7730,
      "IP": 7731,
      "Drug": 7732,
      "uL": 7733,
      "aangepast": 7734,
      "afbeeld": 7735,
      "monitoring": 7736,
      "morb": 7737,
      "hyd": 7738,
      "home": 7739,
      "split": 7740,
      "##iber": 7741,
      "gelijktijdige": 7742,
      "##ofag": 7743,
      "mentale": 7744,
      "Leverziekten": 7745,
      "##TUUR": 7746,
      "Crohn": 7747,
      "218": 7748,
      "##abolisme": 7749,
      "##HD": 7750,
      "verricht": 7751,
      "##ECT": 7752,
      "##gedrag": 7753,
      "macrofagen": 7754,
      "vermindert": 7755,
      "BMI": 7756,
      "##geving": 7757,
      "##ope": 7758,
      "inzicht": 7759,
      "Ill": 7760,
      "buurt": 7761,
      "opeen": 7762,
      "##tendeels": 7763,
      "aangeboren": 7764,
      "wissel": 7765,
      "scores": 7766,
      "decomp": 7767,
      "nm": 7768,
      "lum": 7769,
      "go": 7770,
      "kwantific": 7771,
      "##ongem": 7772,
      "VAL": 7773,
      "##selen": 7774,
      "echt": 7775,
      "##21": 7776,
      "leukemie": 7777,
      "noch": 7778,
      "cohort": 7779,
      "Cell": 7780,
      "##poc": 7781,
      "mediastinum": 7782,
      "##ylase": 7783,
      "high": 7784,
      "succesvolle": 7785,
      "##kinase": 7786,
      "training": 7787,
      "ervaring": 7788,
      "##structuren": 7789,
      "hepatitis": 7790,
      "##hep": 7791,
      "antic": 7792,
      "nov": 7793,
      "##bed": 7794,
      "verhoogt": 7795,
      "gemedieerd": 7796,
      "dosering": 7797,
      "fund": 7798,
      "onderdeel": 7799,
      "verhoging": 7800,
      "evenwicht": 7801,
      "##ACT": 7802,
      "##ifest": 7803,
      "##odynam": 7804,
      "gelab": 7805,
      "Toelichting": 7806,
      "metabolisme": 7807,
      "##oblast": 7808,
      "##ART": 7809,
      "MP": 7810,
      "PK": 7811,
      "##vrije": 7812,
      "SBP": 7813,
      "180": 7814,
      "sur": 7815,
      "##inal": 7816,
      "sputum": 7817,
      "hernia": 7818,
      "gb": 7819,
      "vaatziekten": 7820,
      "Geschiedenis": 7821,
      "shock": 7822,
      "##osomen": 7823,
      "5mg": 7824,
      "presenteert": 7825,
      "Syst": 7826,
      "##cholesterol": 7827,
      "Do": 7828,
      "##ylo": 7829,
      "##otrop": 7830,
      "anest": 7831,
      "misselijkheid": 7832,
      "##omatisch": 7833,
      "##anningen": 7834,
      "AI": 7835,
      "Service": 7836,
      "materialen": 7837,
      "samenvatting": 7838,
      "fusie": 7839,
      "studenten": 7840,
      "wegens": 7841,
      "gecontroleerde": 7842,
      "heel": 7843,
      "verscheidenheid": 7844,
      "##BT": 7845,
      "##ontre": 7846,
      "hecht": 7847,
      "Univers": 7848,
      "##uring": 7849,
      "Lung": 7850,
      "##anco": 7851,
      "SH": 7852,
      "zwaar": 7853,
      "mei": 7854,
      "alternatieve": 7855,
      "anemie": 7856,
      "##amol": 7857,
      "etiologie": 7858,
      "##lipidemie": 7859,
      "wonden": 7860,
      "##ogingen": 7861,
      "##factor": 7862,
      "geïsoleerde": 7863,
      "genoemd": 7864,
      "##itaties": 7865,
      "##breng": 7866,
      "Blo": 7867,
      "##punten": 7868,
      "oorspronkelijke": 7869,
      "##26": 7870,
      "dienen": 7871,
      "##roscopie": 7872,
      "vertegenwoordigt": 7873,
      "Metoprolol": 7874,
      "##ilis": 7875,
      "##eller": 7876,
      "grotendeels": 7877,
      "Vis": 7878,
      "##soorzaak": 7879,
      "schedel": 7880,
      "remissie": 7881,
      "##ingle": 7882,
      "##DS": 7883,
      "##aseerde": 7884,
      "##matie": 7885,
      "Attending": 7886,
      "##plant": 7887,
      "UV": 7888,
      "fenotype": 7889,
      "Kalium": 7890,
      "voorkomt": 7891,
      "wie": 7892,
      "heden": 7893,
      "##erb": 7894,
      "##activeerd": 7895,
      "jun": 7896,
      "IMPRESSION": 7897,
      "plant": 7898,
      "mol": 7899,
      "##dz": 7900,
      "melden": 7901,
      "##seling": 7902,
      "##iende": 7903,
      "##quente": 7904,
      "frontale": 7905,
      "##loxacine": 7906,
      "getrans": 7907,
      "droog": 7908,
      "zuig": 7909,
      "##ULTUUR": 7910,
      "##band": 7911,
      "gelok": 7912,
      "regulering": 7913,
      "##ally": 7914,
      "obes": 7915,
      "##reedt": 7916,
      "Hol": 7917,
      "redelijk": 7918,
      "##pletie": 7919,
      "##leerd": 7920,
      "##hr": 7921,
      "##OON": 7922,
      "##jor": 7923,
      "vergroot": 7924,
      "concluderen": 7925,
      "myocardinfarct": 7926,
      "erytro": 7927,
      "classificatie": 7928,
      "fosforylering": 7929,
      "daaropvolgende": 7930,
      "strom": 7931,
      "uitste": 7932,
      "##agit": 7933,
      "gewichts": 7934,
      "rot": 7935,
      "geremd": 7936,
      "statistische": 7937,
      "##SP": 7938,
      "Mat": 7939,
      "##groei": 7940,
      "##oeg": 7941,
      "##icaal": 7942,
      "2007": 7943,
      "antagonist": 7944,
      "voorlop": 7945,
      "##hepatische": 7946,
      "geleiding": 7947,
      "residuen": 7948,
      "##outen": 7949,
      "##oxine": 7950,
      "##uigen": 7951,
      "##ollen": 7952,
      "Sex": 7953,
      "600": 7954,
      "##present": 7955,
      "glucos": 7956,
      "##cap": 7957,
      "econ": 7958,
      "##akker": 7959,
      "metaal": 7960,
      "##uwe": 7961,
      "Eén": 7962,
      "##stige": 7963,
      "kran": 7964,
      "##asie": 7965,
      "accumulatie": 7966,
      "hypo": 7967,
      "##olyse": 7968,
      "##zende": 7969,
      "bespreking": 7970,
      "cav": 7971,
      "##arte": 7972,
      "imple": 7973,
      "dex": 7974,
      "##ijft": 7975,
      "evolutie": 7976,
      "Laboratorium": 7977,
      "##singen": 7978,
      "##heen": 7979,
      "resectie": 7980,
      "##tre": 7981,
      "kristal": 7982,
      "dienst": 7983,
      "##wonden": 7984,
      "##waarschijnlijk": 7985,
      "ople": 7986,
      "PAC": 7987,
      "sed": 7988,
      "implant": 7989,
      "Geachte": 7990,
      "Bloeddruk": 7991,
      "GL": 7992,
      "versle": 7993,
      "Min": 7994,
      "RC": 7995,
      "atyp": 7996,
      "##elte": 7997,
      "##tubeerd": 7998,
      "Voornaam": 7999,
      "##rox": 8000,
      "cmH2O": 8001,
      "inhal": 8002,
      "Natrium": 8003,
      "zon": 8004,
      "röntgen": 8005,
      "##azine": 8006,
      "microgram": 8007,
      "uitdaging": 8008,
      "peri": 8009,
      "##ISCH": 8010,
      "locaties": 8011,
      "Vanwege": 8012,
      "Toen": 8013,
      "##VI": 8014,
      "##pocamp": 8015,
      "##steun": 8016,
      "fra": 8017,
      "Behandeling": 8018,
      "amp": 8019,
      "Veel": 8020,
      "verdenking": 8021,
      "microM": 8022,
      "eier": 8023,
      "##itoneale": 8024,
      "##cyt": 8025,
      "trombose": 8026,
      "Int": 8027,
      "##operatie": 8028,
      "219": 8029,
      "Rep": 8030,
      "##gehele": 8031,
      "ventil": 8032,
      "cut": 8033,
      "che": 8034,
      "##iaties": 8035,
      "project": 8036,
      "allemaal": 8037,
      "##oft": 8038,
      "Kleine": 8039,
      "##repen": 8040,
      "##NAL": 8041,
      "vertraagde": 8042,
      "medisch": 8043,
      "##metingen": 8044,
      "##adiging": 8045,
      "opac": 8046,
      "Kort": 8047,
      "##agt": 8048,
      "##ula": 8049,
      "##hen": 8050,
      "reeds": 8051,
      "##rex": 8052,
      "kandid": 8053,
      "humaan": 8054,
      "##gangs": 8055,
      "##weeg": 8056,
      "GC": 8057,
      "##naire": 8058,
      "Afspraak": 8059,
      "eens": 8060,
      "morfologie": 8061,
      "##iO2": 8062,
      "##asale": 8063,
      "Code": 8064,
      "abces": 8065,
      "gemet": 8066,
      "##ogeniteit": 8067,
      "insuff": 8068,
      "verdeeld": 8069,
      "TELEF": 8070,
      "##OX": 8071,
      "hulpmiddel": 8072,
      "trauma": 8073,
      "Dag": 8074,
      "Creatinine": 8075,
      "obesitas": 8076,
      "inhoud": 8077,
      "##abetische": 8078,
      "ultra": 8079,
      "L5": 8080,
      "Pijn": 8081,
      "##aline": 8082,
      "##OF": 8083,
      "intermedi": 8084,
      "##ules": 8085,
      "Intel": 8086,
      "TELEFOON": 8087,
      "##pam": 8088,
      "fac": 8089,
      "##HH": 8090,
      "Ang": 8091,
      "##scheiding": 8092,
      "TELEFOONNUMMER": 8093,
      "veronderst": 8094,
      "Uitslag": 8095,
      "##microscopie": 8096,
      "##stigen": 8097,
      "aspiratie": 8098,
      "##ekt": 8099,
      "##ohist": 8100,
      "aangetroffen": 8101,
      "gewricht": 8102,
      "verbetert": 8103,
      "Rh": 8104,
      "Fl": 8105,
      "##eden": 8106,
      "honden": 8107,
      "##va": 8108,
      "plus": 8109,
      "##ureel": 8110,
      "hormoon": 8111,
      "ball": 8112,
      "Intellect": 8113,
      "secretie": 8114,
      "##23": 8115,
      "bijdrage": 8116,
      "##mut": 8117,
      "##ofil": 8118,
      "overgebracht": 8119,
      "##virus": 8120,
      "##zo": 8121,
      "dikke": 8122,
      "voorsch": 8123,
      "Gra": 8124,
      "verbonden": 8125,
      "iso": 8126,
      "##olerantie": 8127,
      "episodes": 8128,
      "ML": 8129,
      "hydrox": 8130,
      "##volume": 8131,
      "polymorf": 8132,
      "##hoofd": 8133,
      "oorzaken": 8134,
      "##ikelen": 8135,
      "diepe": 8136,
      "Clip": 8137,
      "##ercul": 8138,
      "Q6": 8139,
      "##oezem": 8140,
      "##YS": 8141,
      "occlusie": 8142,
      "eet": 8143,
      "bent": 8144,
      "##cyten": 8145,
      "krachtige": 8146,
      "##blaas": 8147,
      "##GA": 8148,
      "inz": 8149,
      "psychiat": 8150,
      "##ombineerde": 8151,
      "ion": 8152,
      "##consultatie": 8153,
      "interfer": 8154,
      "beschrijft": 8155,
      "SM": 8156,
      "##endens": 8157,
      "##foon": 8158,
      "Geringe": 8159,
      "afzonderlijke": 8160,
      "##sth": 8161,
      "pathogenese": 8162,
      "##igne": 8163,
      "Release": 8164,
      "bdz": 8165,
      "##entanyl": 8166,
      "gedeeltelijke": 8167,
      "gedilateerde": 8168,
      "this": 8169,
      "tab": 8170,
      "belasting": 8171,
      "spieren": 8172,
      "aangegeven": 8173,
      "GU": 8174,
      "##sproblemen": 8175,
      "##OOR": 8176,
      "##stra": 8177,
      "kwe": 8178,
      "resonantie": 8179,
      "Matige": 8180,
      "nadat": 8181,
      "doelen": 8182,
      "individuen": 8183,
      "##reerde": 8184,
      "Mild": 8185,
      "fenotyp": 8186,
      "vlak": 8187,
      "bevestigen": 8188,
      "antist": 8189,
      "##iene": 8190,
      "opgelost": 8191,
      "cardiologie": 8192,
      "off": 8193,
      "##elta": 8194,
      "HCO3": 8195,
      "varie": 8196,
      "by": 8197,
      "TM": 8198,
      "tricusp": 8199,
      "##dichtheid": 8200,
      "Creat": 8201,
      "zoek": 8202,
      "Prof": 8203,
      "##belasting": 8204,
      "##zuren": 8205,
      "##iasis": 8206,
      "endoc": 8207,
      "artro": 8208,
      "Bleood": 8209,
      "Molec": 8210,
      "kwaadaardige": 8211,
      "VAS": 8212,
      "kaart": 8213,
      "ect": 8214,
      "diastolische": 8215,
      "##otalol": 8216,
      "maatregelen": 8217,
      "##etiek": 8218,
      "Teleconsultatie": 8219,
      "handen": 8220,
      "##rins": 8221,
      "bestr": 8222,
      "vitale": 8223,
      "##methoden": 8224,
      "method": 8225,
      "Opname": 8226,
      "lymfoom": 8227,
      "spontaan": 8228,
      "##bar": 8229,
      "werkgroep": 8230,
      "richten": 8231,
      "express": 8232,
      "##use": 8233,
      "os": 8234,
      "Cu": 8235,
      "##ieven": 8236,
      "°C": 8237,
      "##ii": 8238,
      "hou": 8239,
      "##centie": 8240,
      "werkt": 8241,
      "##ëfficiën": 8242,
      "##nier": 8243,
      "Ernst": 8244,
      "verrijk": 8245,
      "varianten": 8246,
      "adren": 8247,
      "##kundig": 8248,
      "lipiden": 8249,
      "fist": 8250,
      "##odific": 8251,
      "collageen": 8252,
      "Beide": 8253,
      "PAT": 8254,
      "##ijding": 8255,
      "Sec": 8256,
      "nauwkeurig": 8257,
      "##omegalie": 8258,
      "##entiële": 8259,
      "Wer": 8260,
      "behoud": 8261,
      "2D": 8262,
      "radio": 8263,
      "effusies": 8264,
      "taak": 8265,
      "waarop": 8266,
      "kliniek": 8267,
      "beadem": 8268,
      "Verhoog": 8269,
      "Az": 8270,
      "reactieve": 8271,
      "##steking": 8272,
      "krijgt": 8273,
      "##atin": 8274,
      "BC": 8275,
      "##ids": 8276,
      "Sociale": 8277,
      "agressie": 8278,
      "##poten": 8279,
      "##abiele": 8280,
      "2003": 8281,
      "Europ": 8282,
      "inferieure": 8283,
      "sinusritme": 8284,
      "##ocardiocardi": 8285,
      "atriale": 8286,
      "gegenereerd": 8287,
      "##ITAL": 8288,
      "##stim": 8289,
      "Medical": 8290,
      "hoogst": 8291,
      "incisie": 8292,
      "gepland": 8293,
      "##ithel": 8294,
      "daarvan": 8295,
      "reparatie": 8296,
      "geselecteerde": 8297,
      "Aort": 8298,
      "meng": 8299,
      "gesynthet": 8300,
      "##inst": 8301,
      "organen": 8302,
      "##atroon": 8303,
      "##iodar": 8304,
      "CB": 8305,
      "weerstand": 8306,
      "##holte": 8307,
      "##lust": 8308,
      "alert": 8309,
      "waarnem": 8310,
      "il": 8311,
      "##bro": 8312,
      "tabel": 8313,
      "leden": 8314,
      "hippocamp": 8315,
      "diffuus": 8316,
      "##olisch": 8317,
      "105": 8318,
      "starten": 8319,
      "gesugger": 8320,
      "gedrags": 8321,
      "gisteren": 8322,
      "onmiddellijk": 8323,
      "integr": 8324,
      "##iculair": 8325,
      "IS": 8326,
      "##econ": 8327,
      "geneeskunde": 8328,
      "##aspect": 8329,
      "chlor": 8330,
      "##vulling": 8331,
      "versterkt": 8332,
      "##80": 8333,
      "datas": 8334,
      "verspreid": 8335,
      "aantekeningen": 8336,
      "vond": 8337,
      "##irine": 8338,
      "##meld": 8339,
      "##adr": 8340,
      "bestude": 8341,
      "willen": 8342,
      "##brid": 8343,
      "Illness": 8344,
      "verwijd": 8345,
      "stem": 8346,
      "2006": 8347,
      "beneden": 8348,
      "manifest": 8349,
      "##mis": 8350,
      "hard": 8351,
      "Atrium": 8352,
      "##34": 8353,
      "ovar": 8354,
      "##schappelijk": 8355,
      "gesuggereerd": 8356,
      "polyp": 8357,
      "##oorde": 8358,
      "Zowel": 8359,
      "placebo": 8360,
      "##OH": 8361,
      "isolatie": 8362,
      "##olytische": 8363,
      "interf": 8364,
      "cardio": 8365,
      "##class": 8366,
      "##kwaliteit": 8367,
      "##chirurg": 8368,
      "##aringen": 8369,
      "##isu": 8370,
      "##ongembolie": 8371,
      "##pathie": 8372,
      "voortgezet": 8373,
      "onderhoud": 8374,
      "polymerase": 8375,
      "##cludeerd": 8376,
      "gerandom": 8377,
      "##wikkeling": 8378,
      "Contrast": 8379,
      "##oepen": 8380,
      "##opten": 8381,
      "plaatsv": 8382,
      "pleuravocht": 8383,
      "##dimensionale": 8384,
      "straling": 8385,
      "image": 8386,
      "nachts": 8387,
      "from": 8388,
      "geschikte": 8389,
      "##odium": 8390,
      "##gelegd": 8391,
      "##delingen": 8392,
      "##ton": 8393,
      "##ologen": 8394,
      "sporen": 8395,
      "##A1": 8396,
      "bis": 8397,
      "##oest": 8398,
      "migratie": 8399,
      "##ohistoch": 8400,
      "##basis": 8401,
      "##ozuren": 8402,
      "Ger": 8403,
      "##iltratie": 8404,
      "adol": 8405,
      "kweek": 8406,
      "##lering": 8407,
      "sequen": 8408,
      "Adem": 8409,
      "gevisu": 8410,
      "##icum": 8411,
      "financ": 8412,
      "lev": 8413,
      "##undel": 8414,
      "fosfaat": 8415,
      "ervaren": 8416,
      "diffuse": 8417,
      "aantoon": 8418,
      "NA": 8419,
      "##doen": 8420,
      "can": 8421,
      "maligniteit": 8422,
      "gecombineerde": 8423,
      "##mechanisme": 8424,
      "waterstof": 8425,
      "Amerikaanse": 8426,
      "##iveaus": 8427,
      "gedetail": 8428,
      "ME": 8429,
      "comfort": 8430,
      "##allel": 8431,
      "angio": 8432,
      "##studie": 8433,
      "##spectieve": 8434,
      "dragen": 8435,
      "theorie": 8436,
      "215": 8437,
      "schad": 8438,
      "ontkent": 8439,
      "zenuwstelsel": 8440,
      "##isk": 8441,
      "PICC": 8442,
      "Achternaam": 8443,
      "##derd": 8444,
      "##rosine": 8445,
      "##spercentage": 8446,
      "##isico": 8447,
      "ascites": 8448,
      "verwerking": 8449,
      "##amente": 8450,
      "##aking": 8451,
      "patho": 8452,
      "##mmHg": 8453,
      "besliss": 8454,
      "Geb": 8455,
      "##ochte": 8456,
      "Tel": 8457,
      "marker": 8458,
      "ori": 8459,
      "absorptie": 8460,
      "103": 8461,
      "##leuk": 8462,
      "cardiomyopathie": 8463,
      "pri": 8464,
      "##ypass": 8465,
      "tetra": 8466,
      "##paste": 8467,
      "melk": 8468,
      "##omografie": 8469,
      "##reacties": 8470,
      "##ciplin": 8471,
      "ontvang": 8472,
      "tekort": 8473,
      "celt": 8474,
      "##ificaties": 8475,
      "graag": 8476,
      "labs": 8477,
      "posit": 8478,
      "overexpressie": 8479,
      "SA": 8480,
      "kunst": 8481,
      "##ertin": 8482,
      "##60": 8483,
      "bloedingen": 8484,
      "draag": 8485,
      "bijbeh": 8486,
      "helft": 8487,
      "197": 8488,
      "wijze": 8489,
      "droge": 8490,
      "##genase": 8491,
      "##icilline": 8492,
      "varkens": 8493,
      "##oppingen": 8494,
      "Zoals": 8495,
      "ader": 8496,
      "doelwit": 8497,
      "eierst": 8498,
      "onderwijs": 8499,
      "tumorcellen": 8500,
      "reageren": 8501,
      "benadrukt": 8502,
      "fig": 8503,
      "##ivaten": 8504,
      "##HC": 8505,
      "persist": 8506,
      "##tests": 8507,
      "geld": 8508,
      "##osteron": 8509,
      "pericardiale": 8510,
      "##ocaïne": 8511,
      "orthop": 8512,
      "##periode": 8513,
      "oes": 8514,
      "##buis": 8515,
      "##NO": 8516,
      "resterende": 8517,
      "##katheter": 8518,
      "avond": 8519,
      "sepsis": 8520,
      "beschikbaarheid": 8521,
      "gestuurd": 8522,
      "mutant": 8523,
      "theor": 8524,
      "##ters": 8525,
      "verdo": 8526,
      "instelling": 8527,
      "Oper": 8528,
      "domeinen": 8529,
      "indic": 8530,
      "104": 8531,
      "##OSP": 8532,
      "agonist": 8533,
      "serie": 8534,
      "prov": 8535,
      "Ged": 8536,
      "##verdeling": 8537,
      "vloeibare": 8538,
      "functioneren": 8539,
      "traditionele": 8540,
      "##amb": 8541,
      "##scopische": 8542,
      "Echocardi": 8543,
      "GP": 8544,
      "communicatie": 8545,
      "mijn": 8546,
      "geleidelijk": 8547,
      "##GT": 8548,
      "##tt": 8549,
      "bijbehorende": 8550,
      "##schik": 8551,
      "real": 8552,
      "obv": 8553,
      "nauwkeurige": 8554,
      "Loc": 8555,
      "kalium": 8556,
      "longoedeem": 8557,
      "##nummer": 8558,
      "Hum": 8559,
      "##derheid": 8560,
      "tw": 8561,
      "ochtend": 8562,
      "SN": 8563,
      "##gg": 8564,
      "Product": 8565,
      "levensvat": 8566,
      "asympt": 8567,
      "vervanging": 8568,
      "##ieur": 8569,
      "##perat": 8570,
      "##ococcus": 8571,
      "##esearch": 8572,
      "Meerdere": 8573,
      "##ivari": 8574,
      "Resultaten": 8575,
      "algehele": 8576,
      "zuiver": 8577,
      "EG": 8578,
      "capaciteit": 8579,
      "zeggen": 8580,
      "artikelen": 8581,
      "##emblage": 8582,
      "cruciale": 8583,
      "tib": 8584,
      "Vergelijk": 8585,
      "oestro": 8586,
      "overgedragen": 8587,
      "Wel": 8588,
      "Not": 8589,
      "fiet": 8590,
      "##ycod": 8591,
      "##acerb": 8592,
      "##structieve": 8593,
      "##iem": 8594,
      "herhaling": 8595,
      "systematische": 8596,
      "distributie": 8597,
      "degenen": 8598,
      "vragenlijst": 8599,
      "kD": 8600,
      "Research": 8601,
      "CVD": 8602,
      "##oss": 8603,
      "verbl": 8604,
      "Pertin": 8605,
      "##blok": 8606,
      "onderzoekers": 8607,
      "nek": 8608,
      "NEUR": 8609,
      "onthulden": 8610,
      "##materiaal": 8611,
      "##nea": 8612,
      "pediatrie": 8613,
      "##rat": 8614,
      "##ruim": 8615,
      "uitvoeren": 8616,
      "drugs": 8617,
      "inh": 8618,
      "equ": 8619,
      "stuk": 8620,
      "echografie": 8621,
      "aanvang": 8622,
      "102": 8623,
      "toegeschreven": 8624,
      "prik": 8625,
      "aanpassing": 8626,
      "overig": 8627,
      "##oprazol": 8628,
      "remde": 8629,
      "##ient": 8630,
      "##iae": 8631,
      "Clin": 8632,
      "nucleotide": 8633,
      "##therapie": 8634,
      "klass": 8635,
      "efficiënte": 8636,
      "situatie": 8637,
      "2005": 8638,
      "vezels": 8639,
      "uitdagingen": 8640,
      "gemodific": 8641,
      "mediale": 8642,
      "wortel": 8643,
      "brede": 8644,
      "##emisch": 8645,
      "##ontsteking": 8646,
      "Ob": 8647,
      "keten": 8648,
      "clin": 8649,
      "collaps": 8650,
      "aminozuren": 8651,
      "Acet": 8652,
      "replicatie": 8653,
      "trig": 8654,
      "##alytische": 8655,
      "Techn": 8656,
      "mediane": 8657,
      "##clusies": 8658,
      "uitslag": 8659,
      "bezorg": 8660,
      "arch": 8661,
      "geactiveerd": 8662,
      "anatomische": 8663,
      "intraveneus": 8664,
      "ziekenhuisopname": 8665,
      "##fact": 8666,
      "stadia": 8667,
      "##bindingen": 8668,
      "li": 8669,
      "haal": 8670,
      "##ogenetische": 8671,
      "aangezien": 8672,
      "##han": 8673,
      "wakker": 8674,
      "##aatst": 8675,
      "geworden": 8676,
      "carcin": 8677,
      "##vormen": 8678,
      "Alk": 8679,
      "luchtwegen": 8680,
      "##riene": 8681,
      "mesenter": 8682,
      "##oos": 8683,
      "##luenz": 8684,
      "verschillend": 8685,
      "##opol": 8686,
      "Trop": 8687,
      "##iverende": 8688,
      "verpleegkundigen": 8689,
      "synthetische": 8690,
      "dermat": 8691,
      "##defect": 8692,
      "thym": 8693,
      "##ilar": 8694,
      "essentiële": 8695,
      "Ele": 8696,
      "OF": 8697,
      "encefal": 8698,
      "Inc": 8699,
      "##oneel": 8700,
      "CULTUUR": 8701,
      "lymfekl": 8702,
      "right": 8703,
      "##ffecten": 8704,
      "bestand": 8705,
      "##ticul": 8706,
      "Poliklin": 8707,
      "langzaam": 8708,
      "bewegings": 8709,
      "##inol": 8710,
      "##uil": 8711,
      "vormt": 8712,
      "onregel": 8713,
      "houdt": 8714,
      "##isol": 8715,
      "verwijzing": 8716,
      "##ogelijk": 8717,
      "Test": 8718,
      "versie": 8719,
      "##iers": 8720,
      "Zn": 8721,
      "##ria": 8722,
      "##000": 8723,
      "Pulmon": 8724,
      "schouder": 8725,
      "##UT": 8726,
      "##EST": 8727,
      "##omon": 8728,
      "##cologie": 8729,
      "##orrel": 8730,
      "IM": 8731,
      "##ippen": 8732,
      "diabetische": 8733,
      "koude": 8734,
      "bescherming": 8735,
      "codeert": 8736,
      "Dood": 8737,
      "karakteriseren": 8738,
      "##ash": 8739,
      "vul": 8740,
      "groeifactor": 8741,
      "geïntubeerd": 8742,
      "gete": 8743,
      "##STELL": 8744,
      "##kloppingen": 8745,
      "variabele": 8746,
      "##merken": 8747,
      "##sl": 8748,
      "##rig": 8749,
      "implicaties": 8750,
      "wilde": 8751,
      "##aec": 8752,
      "##inc": 8753,
      "Rechts": 8754,
      "##chloride": 8755,
      "##gie": 8756,
      "eenvoudig": 8757,
      "culturen": 8758,
      "formul": 8759,
      "##leb": 8760,
      "##fase": 8761,
      "vergemakkelijken": 8762,
      "waarmee": 8763,
      "voordeel": 8764,
      "geest": 8765,
      "Sup": 8766,
      "generatie": 8767,
      "##ofie": 8768,
      "##diagnose": 8769,
      "cortic": 8770,
      "##mar": 8771,
      "Evalu": 8772,
      "gewoon": 8773,
      "vertro": 8774,
      "amssymb": 8775,
      "color": 8776,
      "##hoek": 8777,
      "##klin": 8778,
      "##STELLING": 8779,
      "ingreep": 8780,
      "gemengde": 8781,
      "Vraagstelling": 8782,
      "Chir": 8783,
      "cerebrale": 8784,
      "##itect": 8785,
      "variant": 8786,
      "##iraal": 8787,
      "LI": 8788,
      "endomet": 8789,
      "litte": 8790,
      "Lact": 8791,
      "scala": 8792,
      "cellijnen": 8793,
      "cholec": 8794,
      "##eleiding": 8795,
      "RDWSD": 8796,
      "accept": 8797,
      "##36": 8798,
      "##FP": 8799,
      "perifeer": 8800,
      "##blad": 8801,
      "##arynx": 8802,
      "LDH": 8803,
      "Buik": 8804,
      "biochemische": 8805,
      "antim": 8806,
      "Lip": 8807,
      "verzorg": 8808,
      "uter": 8809,
      "robu": 8810,
      "##asten": 8811,
      "DA": 8812,
      "multi": 8813,
      "EB": 8814,
      "##zijdige": 8815,
      "spin": 8816,
      "##bloed": 8817,
      "definitieve": 8818,
      "uitzonder": 8819,
      "geselecteerd": 8820,
      "Nederlandse": 8821,
      "intracraniële": 8822,
      "urin": 8823,
      "case": 8824,
      "Man": 8825,
      "##stijd": 8826,
      "##tho": 8827,
      "##want": 8828,
      "steun": 8829,
      "##kru": 8830,
      "##overd": 8831,
      "uitbreiding": 8832,
      "##ichaam": 8833,
      "voelt": 8834,
      "China": 8835,
      "cat": 8836,
      "Doodsoorzaak": 8837,
      "Psych": 8838,
      "geïm": 8839,
      "stimuleren": 8840,
      "instrument": 8841,
      "asymmet": 8842,
      "overt": 8843,
      "##LR": 8844,
      "##umente": 8845,
      "regulerende": 8846,
      "Coronair": 8847,
      "ethanol": 8848,
      "occ": 8849,
      "##90": 8850,
      "ondergingen": 8851,
      "Intra": 8852,
      "##bereik": 8853,
      "but": 8854,
      "infusie": 8855,
      "wit": 8856,
      "gekweekt": 8857,
      "epidem": 8858,
      "geëx": 8859,
      "##ozen": 8860,
      "chronisch": 8861,
      "juni": 8862,
      "endogene": 8863,
      "##SE": 8864,
      "diversiteit": 8865,
      "##venen": 8866,
      "##afd": 8867,
      "##patroon": 8868,
      "spinale": 8869,
      "Opties": 8870,
      "oph": 8871,
      "Org": 8872,
      "Flow": 8873,
      "based": 8874,
      "media": 8875,
      "##28": 8876,
      "##ized": 8877,
      "##acties": 8878,
      "##urend": 8879,
      "##trof": 8880,
      "##procedure": 8881,
      "dal": 8882,
      "okt": 8883,
      "##vasc": 8884,
      "opeenvolgende": 8885,
      "##arde": 8886,
      "hoor": 8887,
      "zeker": 8888,
      "mamm": 8889,
      "##ozyg": 8890,
      "begrepen": 8891,
      "217": 8892,
      "##anine": 8893,
      "Terwijl": 8894,
      "##wisseling": 8895,
      "lasix": 8896,
      "onderzochte": 8897,
      "intacte": 8898,
      "verschuiving": 8899,
      "##aardig": 8900,
      "angiografie": 8901,
      "##AMP": 8902,
      "Major": 8903,
      "##ertijd": 8904,
      "concurr": 8905,
      "##ijfers": 8906,
      "##erem": 8907,
      "grondslag": 8908,
      "vezel": 8909,
      "Chronische": 8910,
      "bypass": 8911,
      "Kan": 8912,
      "RRR": 8913,
      "miRNA": 8914,
      "Sal": 8915,
      "##mitt": 8916,
      "##ional": 8917,
      "##tocol": 8918,
      "Volgens": 8919,
      "rechterkant": 8920,
      "nat": 8921,
      "Aut": 8922,
      "Adv": 8923,
      "octrooi": 8924,
      "##icot": 8925,
      "##umatische": 8926,
      "therapieën": 8927,
      "Las": 8928,
      "##sulf": 8929,
      "Nog": 8930,
      "infiltr": 8931,
      "##riend": 8932,
      "gtt": 8933,
      "Labs": 8934,
      "##arin": 8935,
      "bul": 8936,
      "##ceptie": 8937,
      "dimens": 8938,
      "Leeftijd": 8939,
      "sclerose": 8940,
      "diagnostiek": 8941,
      "##ineerd": 8942,
      "cis": 8943,
      "##uste": 8944,
      "p53": 8945,
      "##szins": 8946,
      "eGFR": 8947,
      "relevant": 8948,
      "##idose": 8949,
      "longembolie": 8950,
      "tev": 8951,
      "FiO2": 8952,
      "##ymph": 8953,
      "Recente": 8954,
      "##zoeken": 8955,
      "schatten": 8956,
      "BR": 8957,
      "##des": 8958,
      "sluiten": 8959,
      "##isin": 8960,
      "neon": 8961,
      "Finding": 8962,
      "##ologe": 8963,
      "proximaal": 8964,
      "##37": 8965,
      "##dip": 8966,
      "LM": 8967,
      "katalys": 8968,
      "coörd": 8969,
      "##rial": 8970,
      "##tent": 8971,
      "##geruis": 8972,
      "geïnject": 8973,
      "2004": 8974,
      "##afwijking": 8975,
      "HLA": 8976,
      "tien": 8977,
      "HDL": 8978,
      "Del": 8979,
      "embryo": 8980,
      "##percentage": 8981,
      "resistente": 8982,
      "##schaal": 8983,
      "morfologische": 8984,
      "donor": 8985,
      "lapar": 8986,
      "##plaatst": 8987,
      "##IND": 8988,
      "Invasive": 8989,
      "##ierd": 8990,
      "brad": 8991,
      "war": 8992,
      "Thuis": 8993,
      "##lete": 8994,
      "##ilaterale": 8995,
      "lokalisatie": 8996,
      "registratie": 8997,
      "lad": 8998,
      "##stij": 8999,
      "stro": 9000,
      "Betreft": 9001,
      "gespec": 9002,
      "object": 9003,
      "##rekt": 9004,
      "##werpen": 9005,
      "gerapporteerd": 9006,
      "integratie": 9007,
      "CO2": 9008,
      "represent": 9009,
      "verpleegkundige": 9010,
      "Q6H": 9011,
      "punten": 9012,
      "##TX": 9013,
      "complement": 9014,
      "AK": 9015,
      "##emet": 9016,
      "cordis": 9017,
      "segmenten": 9018,
      "bp": 9019,
      "##LD": 9020,
      "##ius": 9021,
      "##sterkte": 9022,
      "##verwij": 9023,
      "dialyse": 9024,
      "Succes": 9025,
      "cytos": 9026,
      "foetale": 9027,
      "handh": 9028,
      "##drachten": 9029,
      "beïnvloedt": 9030,
      "##wort": 9031,
      "ruggenmerg": 9032,
      "##cholesterolemie": 9033,
      "rectum": 9034,
      "princip": 9035,
      "feb": 9036,
      "gecom": 9037,
      "Pulm": 9038,
      "##ogenen": 9039,
      "##ility": 9040,
      "##idase": 9041,
      "oss": 9042,
      "Start": 9043,
      "voorbij": 9044,
      "mutanten": 9045,
      "zware": 9046,
      "##ick": 9047,
      "##klieren": 9048,
      "sagit": 9049,
      "verwezen": 9050,
      "##erge": 9051,
      "##beerd": 9052,
      "##polarisatie": 9053,
      "##ocriet": 9054,
      "##ateerd": 9055,
      "##oside": 9056,
      "##bride": 9057,
      "verklaring": 9058,
      "Indi": 9059,
      "single": 9060,
      "spiegels": 9061,
      "HENT": 9062,
      "##35": 9063,
      "hartkloppingen": 9064,
      "aangren": 9065,
      "Heart": 9066,
      "##ck": 9067,
      "management": 9068,
      "categorie": 9069,
      "basaal": 9070,
      "kwal": 9071,
      "tubercul": 9072,
      "Verm": 9073,
      "school": 9074,
      "##vir": 9075,
      "flexib": 9076,
      "minuut": 9077,
      "pain": 9078,
      "uiterlijk": 9079,
      "ongew": 9080,
      "CPAP": 9081,
      "CTDI": 9082,
      "Chirg": 9083,
      "##aria": 9084,
      "##cardi": 9085,
      "voorspelde": 9086,
      "mur": 9087,
      "##ugh": 9088,
      "##scher": 9089,
      "remt": 9090,
      "##cluderend": 9091,
      "##rijf": 9092,
      "Concluderend": 9093,
      "##red": 9094,
      "##iere": 9095,
      "brand": 9096,
      "aanval": 9097,
      "##appa": 9098,
      "##ensie": 9099,
      "##eterm": 9100,
      "arg": 9101,
      "Q4": 9102,
      "##activering": 9103,
      "gecompliceerd": 9104,
      "MO": 9105,
      "##aas": 9106,
      "cyan": 9107,
      "morbiditeit": 9108,
      "TAB": 9109,
      "Sle": 9110,
      "CSF": 9111,
      "##ontwikkeling": 9112,
      "Aspirine": 9113,
      "##EGEGEGEG": 9114,
      "gesla": 9115,
      "##dust": 9116,
      "hydrol": 9117,
      "Jap": 9118,
      "opsp": 9119,
      "##ures": 9120,
      "mucos": 9121,
      "##eprazol": 9122,
      "##ivity": 9123,
      "routin": 9124,
      "taal": 9125,
      "stappen": 9126,
      "##huizen": 9127,
      "gedeelte": 9128,
      "##part": 9129,
      "##IST": 9130,
      "Chirurg": 9131,
      "verdachte": 9132,
      "##ostase": 9133,
      "##vestig": 9134,
      "algoritme": 9135,
      "emp": 9136,
      "Sign": 9137,
      "NEURO": 9138,
      "##eeee": 9139,
      "vaccinatie": 9140,
      "##ocort": 9141,
      "Exam": 9142,
      "vanc": 9143,
      "##fusies": 9144,
      "TGF": 9145,
      "##reoïd": 9146,
      "details": 9147,
      "schimmel": 9148,
      "##aakten": 9149,
      "##ats": 9150,
      "gezamen": 9151,
      "vallen": 9152,
      "metalen": 9153,
      "oefen": 9154,
      "##atter": 9155,
      "##uari": 9156,
      "seksuele": 9157,
      "C3": 9158,
      "functioneel": 9159,
      "souffle": 9160,
      "gehand": 9161,
      "hoek": 9162,
      "element": 9163,
      "##rad": 9164,
      "Lymf": 9165,
      "leer": 9166,
      "##straten": 9167,
      "##gekeur": 9168,
      "Cancer": 9169,
      "wetenschappelijke": 9170,
      "##moid": 9171,
      "Gast": 9172,
      "##nale": 9173,
      "##generatieve": 9174,
      "325": 9175,
      "##otis": 9176,
      "dochter": 9177,
      "##bineerd": 9178,
      "mast": 9179,
      "gelijktijdig": 9180,
      "poliklinisch": 9181,
      "lagen": 9182,
      "mechan": 9183,
      "##anth": 9184,
      "para": 9185,
      "discus": 9186,
      "##umad": 9187,
      "lichaamsgewicht": 9188,
      "Acute": 9189,
      "##ocarcinoom": 9190,
      "cran": 9191,
      "##ssysteem": 9192,
      "hypoxie": 9193,
      "aggreg": 9194,
      "profylaxe": 9195,
      "Sym": 9196,
      "##sne": 9197,
      "##apen": 9198,
      "##vasculaire": 9199,
      "##hals": 9200,
      "##merc": 9201,
      "cyclus": 9202,
      "##regul": 9203,
      "##rometrie": 9204,
      "##antoprazol": 9205,
      "Continu": 9206,
      "Disc": 9207,
      "##ulose": 9208,
      "meerderheid": 9209,
      "Bili": 9210,
      "neiging": 9211,
      "##ocon": 9212,
      "alkal": 9213,
      "totdat": 9214,
      "thermische": 9215,
      "VAD": 9216,
      "##etermin": 9217,
      "visu": 9218,
      "##araat": 9219,
      "##illa": 9220,
      "diverse": 9221,
      "DI": 9222,
      "##bestr": 9223,
      "septum": 9224,
      "##isinopril": 9225,
      "106": 9226,
      "##iceren": 9227,
      "inheem": 9228,
      "onbekende": 9229,
      "duizeligheid": 9230,
      "creatinine": 9231,
      "Mo": 9232,
      "bijv": 9233,
      "microg": 9234,
      "besluit": 9235,
      "Verander": 9236,
      "##istr": 9237,
      "kDa": 9238,
      "Rechter": 9239,
      "CKD": 9240,
      "##culturen": 9241,
      "bronnen": 9242,
      "goedgekeur": 9243,
      "succesvol": 9244,
      "##opor": 9245,
      "elim": 9246,
      "##enn": 9247,
      "##jectieve": 9248,
      "fibroblast": 9249,
      "cDNA": 9250,
      "CTDIvol": 9251,
      "##uiker": 9252,
      "Insul": 9253,
      "##fib": 9254,
      "National": 9255,
      "Tevens": 9256,
      "myc": 9257,
      "##produc": 9258,
      "##ijne": 9259,
      "sug": 9260,
      "zorgverlen": 9261,
      "##ecept": 9262,
      "##urgitatie": 9263,
      "ECV": 9264,
      "##GS": 9265,
      "uitgesproken": 9266,
      "lijnen": 9267,
      "sedatie": 9268,
      "LPS": 9269,
      "##osomale": 9270,
      "##hydr": 9271,
      "toestemming": 9272,
      "Naast": 9273,
      "upgre": 9274,
      "loz": 9275,
      "diffusie": 9276,
      "##itaire": 9277,
      "bindt": 9278,
      "ultras": 9279,
      "sal": 9280,
      "bestond": 9281,
      "##itm": 9282,
      "##esium": 9283,
      "##ficatie": 9284,
      "kanalen": 9285,
      "soepel": 9286,
      "##enteel": 9287,
      "##HT": 9288,
      "dominante": 9289,
      "Pat": 9290,
      "##gevallen": 9291,
      "indirect": 9292,
      "Cd": 9293,
      "##hang": 9294,
      "##letsel": 9295,
      "neer": 9296,
      "beroe": 9297,
      "##lim": 9298,
      "##fil": 9299,
      "veelbelovende": 9300,
      "##inezuur": 9301,
      "##izoen": 9302,
      "##azepam": 9303,
      "##beoordeling": 9304,
      "enigszins": 9305,
      "##ulitis": 9306,
      "##membraan": 9307,
      "##rière": 9308,
      "parox": 9309,
      "##rab": 9310,
      "patiente": 9311,
      "langere": 9312,
      "Blood": 9313,
      "Gebruik": 9314,
      "opnemen": 9315,
      "##lengte": 9316,
      "Staten": 9317,
      "##ofosf": 9318,
      "##iket": 9319,
      "ambul": 9320,
      "##woorden": 9321,
      "elektron": 9322,
      "##factoren": 9323,
      "gescheiden": 9324,
      "μg": 9325,
      "Verenigde": 9326,
      "initiële": 9327,
      "##breuk": 9328,
      "achtergrond": 9329,
      "hiel": 9330,
      "kaliber": 9331,
      "gesteld": 9332,
      "CMV": 9333,
      "IGF": 9334,
      "DS": 9335,
      "Hospital1": 9336,
      "DO": 9337,
      "##plic": 9338,
      "##otiden": 9339,
      "##veld": 9340,
      "metastase": 9341,
      "rijk": 9342,
      "lu": 9343,
      "melanoom": 9344,
      "induceren": 9345,
      "LVF": 9346,
      "##elfunctie": 9347,
      "##net": 9348,
      "##MS": 9349,
      "extractie": 9350,
      "immunos": 9351,
      "ontwikkelden": 9352,
      "parallel": 9353,
      "Operatie": 9354,
      "pancreat": 9355,
      "maart": 9356,
      "##orad": 9357,
[...]
