{
  "version": "1.0",
  "truncation": null,
  "padding": null,
  "added_tokens": [
    {
      "id": 0,
      "content": "[PAD]",
      "single_word": false,
      "lstrip": false,
      "rstrip": false,
      "normalized": false,
      "special": true
    },
    {
      "id": 1,
      "content": "[UNK]",
      "single_word": false,
      "lstrip": false,
      "rstrip": false,
      "normalized": false,
      "special": true
    },
    {
      "id": 2,
      "content": "[CLS]",
      "single_word": false,
      "lstrip": false,
      "rstrip": false,
      "normalized": false,
      "special": true
    },
    {
      "id": 3,
      "content": "[SEP]",
      "single_word": false,
      "lstrip": false,
      "rstrip": false,
      "normalized": false,
      "special": true
    },
    {
      "id": 4,
      "content": "[MASK]",
      "single_word": false,
      "lstrip": false,
      "rstrip": false,
      "normalized": false,
      "special": true
    }
  ],
  "normalizer": {
    "type": "BertNormalizer",
    "clean_text": true,
    "handle_chinese_chars": true,
    "strip_accents": null,
    "lowercase": true
  },
  "pre_tokenizer": {
    "type": "BertPreTokenizer"
  },
  "post_processor": {
    "type": "BertProcessing",
    "sep": [
      "[SEP]",
      3
    ],
    "cls": [
      "[CLS]",
      2
    ]
  },
  "decoder": {
    "type": "WordPiece",
    "prefix": "##",
    "cleanup": true
  },
  "model": {
    "type": "WordPiece",
    "unk_token": "[UNK]",
    "continuing_subword_prefix": "##",
    "max_input_chars_per_word": 100,
    "vocab": {
      "[PAD]": 0,
      "[UNK]": 1,
      "[CLS]": 2,
      "[SEP]": 3,
      "[MASK]": 4,
      "!": 5,
      "\"": 6,
      "#": 7,
      "$": 8,
      "%": 9,
      "&": 10,
      "'": 11,
      "(": 12,
      ")": 13,
      "*": 14,
      "+": 15,
      ",": 16,
      "-": 17,
      ".": 18,
      "/": 19,
      "0": 20,
      "1": 21,
      "2": 22,
      "3": 23,
      "4": 24,
      "5": 25,
      "6": 26,
      "7": 27,
      "8": 28,
      "9": 29,
      ":": 30,
      ";": 31,
      "<": 32,
      "=": 33,
      ">": 34,
      "?": 35,
      "@": 36,
      "A": 37,
      "B": 38,
      "C": 39,
      "D": 40,
      "E": 41,
      "F": 42,
      "G": 43,
      "H": 44,
      "I": 45,
      "J": 46,
      "K": 47,
      "L": 48,
      "M": 49,
      "N": 50,
      "O": 51,
      "P": 52,
      "Q": 53,
      "R": 54,
      "S": 55,
      "T": 56,
      "U": 57,
      "V": 58,
      "W": 59,
      "X": 60,
      "Y": 61,
      "Z": 62,
      "[": 63,
      "\\": 64,
      "]": 65,
      "^": 66,
      "_": 67,
      "`": 68,
      "a": 69,
      "b": 70,
      "c": 71,
      "d": 72,
      "e": 73,
      "f": 74,
      "g": 75,
      "h": 76,
      "i": 77,
      "j": 78,
      "k": 79,
      "l": 80,
      "m": 81,
      "n": 82,
      "o": 83,
      "p": 84,
      "q": 85,
      "r": 86,
      "s": 87,
      "t": 88,
      "u": 89,
      "v": 90,
      "w": 91,
      "x": 92,
      "y": 93,
      "z": 94,
      "{": 95,
      "|": 96,
      "}": 97,
      "~": 98,
      "¡": 99,
      "¢": 100,
      "£": 101,
      "¥": 102,
      "§": 103,
      "¨": 104,
      "©": 105,
      "«": 106,
      "¬": 107,
      "®": 108,
      "¯": 109,
      "°": 110,
      "±": 111,
      "²": 112,
      "³": 113,
      "´": 114,
      "µ": 115,
      "¶": 116,
      "·": 117,
      "¹": 118,
      "º": 119,
      "»": 120,
      "¼": 121,
      "½": 122,
      "¾": 123,
      "¿": 124,
      "À": 125,
      "Á": 126,
      "Â": 127,
      "Ã": 128,
      "Ä": 129,
      "Å": 130,
      "Æ": 131,
      "Ç": 132,
      "È": 133,
      "É": 134,
      "Ê": 135,
      "Ë": 136,
      "Í": 137,
      "Î": 138,
      "Ï": 139,
      "Ð": 140,
      "Ñ": 141,
      "Ó": 142,
      "Õ": 143,
      "Ö": 144,
      "×": 145,
      "Ø": 146,
      "Ú": 147,
      "Ü": 148,
      "ß": 149,
      "à": 150,
      "á": 151,
      "â": 152,
      "ã": 153,
      "ä": 154,
      "å": 155,
      "æ": 156,
      "ç": 157,
      "è": 158,
      "é": 159,
      "ê": 160,
      "ë": 161,
      "ì": 162,
      "í": 163,
      "î": 164,
      "ï": 165,
      "ñ": 166,
      "ò": 167,
      "ó": 168,
      "ô": 169,
      "õ": 170,
      "ö": 171,
      "÷": 172,
      "ø": 173,
      "ù": 174,
      "ú": 175,
      "û": 176,
      "ü": 177,
      "ý": 178,
      "ā": 179,
      "ă": 180,
      "ą": 181,
      "ć": 182,
      "Č": 183,
      "č": 184,
      "Đ": 185,
      "đ": 186,
      "ē": 187,
      "ė": 188,
      "ę": 189,
      "ě": 190,
      "ĝ": 191,
      "ğ": 192,
      "ħ": 193,
      "ī": 194,
      "İ": 195,
      "ı": 196,
      "ļ": 197,
      "Ł": 198,
      "ł": 199,
      "ń": 200,
      "ņ": 201,
      "ň": 202,
      "Ō": 203,
      "ō": 204,
      "ő": 205,
      "œ": 206,
      "ř": 207,
      "Ś": 208,
      "ś": 209,
      "Ş": 210,
      "ş": 211,
      "Š": 212,
      "š": 213,
      "ţ": 214,
      "ū": 215,
      "ů": 216,
      "Ų": 217,
      "ź": 218,
      "ż": 219,
      "Ž": 220,
      "ž": 221,
      "ƒ": 222,
      "ǀ": 223,
      "ș": 224,
      "ț": 225,
      "ə": 226,
      "˂": 227,
      "ː": 228,
      "˚": 229,
      "˜": 230,
      "́": 231,
      "̄": 232,
      "̊": 233,
      "̶": 234,
      "Α": 235,
      "Β": 236,
      "Γ": 237,
      "Δ": 238,
      "Ε": 239,
      "Η": 240,
      "Ι": 241,
      "Κ": 242,
      "Λ": 243,
      "Μ": 244,
      "Π": 245,
      "Σ": 246,
      "Τ": 247,
      "Φ": 248,
      "Ω": 249,
      "ί": 250,
      "α": 251,
      "β": 252,
      "γ": 253,
      "δ": 254,
      "ε": 255,
      "ζ": 256,
      "η": 257,
      "θ": 258,
      "ι": 259,
      "κ": 260,
      "λ": 261,
      "μ": 262,
      "ν": 263,
      "ο": 264,
      "π": 265,
      "ρ": 266,
      "ς": 267,
      "σ": 268,
      "τ": 269,
      "υ": 270,
      "φ": 271,
      "χ": 272,
      "ω": 273,
      "ϊ": 274,
      "ό": 275,
      "А": 276,
      "В": 277,
      "И": 278,
      "М": 279,
      "О": 280,
      "П": 281,
      "Р": 282,
      "С": 283,
      "Т": 284,
      "Ф": 285,
      "а": 286,
      "к": 287,
      "о": 288,
      "р": 289,
      "с": 290,
      "ф": 291,
      "ё": 292,
      "ї": 293,
      "қ": 294,
      "א": 295,
      "׳": 296,
      "ᅟ": 297,
      "ṣ": 298,
      "ệ": 299,
      "ῖ": 300,
      "‐": 301,
      "‑": 302,
      "‒": 303,
      "–": 304,
      "—": 305,
      "‘": 306,
      "’": 307,
      "‚": 308,
      "“": 309,
      "”": 310,
      "„": 311,
      "†": 312,
      "‡": 313,
      "•": 314,
      "…": 315,
      "‰": 316,
      "′": 317,
      "″": 318,
      "⁄": 319,
      "₂": 320,
      "₤": 321,
      "€": 322,
      "℃": 323,
      "™": 324,
      "←": 325,
      "↑": 326,
      "→": 327,
      "↓": 328,
      "↔": 329,
      "⇄": 330,
      "⇌": 331,
      "⇔": 332,
      "∆": 333,
      "−": 334,
      "∙": 335,
      "√": 336,
      "∞": 337,
      "≈": 338,
      "≠": 339,
      "≤": 340,
      "≥": 341,
      "⊂": 342,
      "⋅": 343,
      "①": 344,
      "②": 345,
      "③": 346,
      "─": 347,
      "┴": 348,
      "═": 349,
      "║": 350,
      "╪": 351,
      "■": 352,
      "□": 353,
      "▪": 354,
      "△": 355,
      "▵": 356,
      "▶": 357,
      "▷": 358,
      "▸": 359,
      "►": 360,
      "●": 361,
      "◦": 362,
      "◻": 363,
      "★": 364,
      "♀": 365,
      "♂": 366,
      "♦": 367,
      "✓": 368,
      "➔": 369,
      "➡": 370,
      "➢": 371,
      "➤": 372,
      "⟨": 373,
      "⟩": 374,
      "、": 375,
      "。": 376,
      "〈": 377,
      "〉": 378,
      "〞": 379,
      "・": 380,
      "ﬁ": 381,
      "️": 382,
      "🔴": 383,
      "😁": 384,
      "𠆀": 385,
      "##u": 386,
      "##b": 387,
      "##c": 388,
      "##o": 389,
      "##m": 390,
      "##i": 391,
      "##s": 392,
      "##r": 393,
      "##a": 394,
      "##l": 395,
      "##1": 396,
      "##0": 397,
      "##y": 398,
      "##f": 399,
      "##t": 400,
      "##e": 401,
      "##n": 402,
      "##g": 403,
      "##p": 404,
      "##x": 405,
      "##k": 406,
      "##O": 407,
      "##C": 408,
      "##h": 409,
      "##v": 410,
      "##d": 411,
      "##z": 412,
      "##j": 413,
      "##è": 414,
      "##A": 415,
      "##P": 416,
      "##3": 417,
      "##K": 418,
      "##w": 419,
      "##L": 420,
      "##E": 421,
      "##S": 422,
      "##I": 423,
      "##ß": 424,
      "##N": 425,
      "##G": 426,
      "##D": 427,
      "##B": 428,
      "##W": 429,
      "##9": 430,
      "##2": 431,
      "##7": 432,
      "##6": 433,
      "##8": 434,
      "##F": 435,
      "##4": 436,
      "##5": 437,
      "##ë": 438,
      "##ï": 439,
      "##H": 440,
      "##T": 441,
      "##X": 442,
      "##V": 443,
      "##M": 444,
      "##R": 445,
      "##U": 446,
      "##Y": 447,
      "##º": 448,
      "##q": 449,
      "##é": 450,
      "##Δ": 451,
      "##α": 452,
      "##Z": 453,
      "##Q": 454,
      "##±": 455,
      "##ö": 456,
      "##β": 457,
      "##°": 458,
      "##®": 459,
      "##J": 460,
      "##ó": 461,
      "##μ": 462,
      "##ü": 463,
      "##á": 464,
      "##ê": 465,
      "##Å": 466,
      "##µ": 467,
      "##™": 468,
      "##©": 469,
      "##ä": 470,
      "##ό": 471,
      "##→": 472,
      "##ё": 473,
      "##κ": 474,
      "##ł": 475,
      "##Ë": 476,
      "##℃": 477,
      "##×": 478,
      "##∞": 479,
      "##³": 480,
      "##¹": 481,
      "##Ε": 482,
      "##Ι": 483,
      "##ç": 484,
      "##≥": 485,
      "##í": 486,
      "##π": 487,
      "##χ": 488,
      "##γ": 489,
      "##φ": 490,
      "##ú": 491,
      "##Ü": 492,
      "##î": 493,
      "##æ": 494,
      "##≤": 495,
      "##õ": 496,
      "##ą": 497,
      "##₂": 498,
      "##ø": 499,
      "##Ï": 500,
      "##ã": 501,
      "##═": 502,
      "##ś": 503,
      "##ô": 504,
      "##²": 505,
      "##¯": 506,
      "##λ": 507,
      "##ù": 508,
      "##â": 509,
      "##ϊ": 510,
      "##ć": 511,
      "##ò": 512,
      "##δ": 513,
      "##−": 514,
      "##ā": 515,
      "##↔": 516,
      "##½": 517,
      "##ý": 518,
      "##ν": 519,
      "##Í": 520,
      "##♂": 521,
      "##ę": 522,
      "##τ": 523,
      "##ω": 524,
      "##σ": 525,
      "##ι": 526,
      "##ς": 527,
      "##ş": 528,
      "##Ω": 529,
      "##①": 530,
      "##É": 531,
      "##ğ": 532,
      "##√": 533,
      "##à": 534,
      "##▶": 535,
      "##△": 536,
      "##≈": 537,
      "##å": 538,
      "##ñ": 539,
      "##─": 540,
      "##ń": 541,
      "##η": 542,
      "##ε": 543,
      "##Μ": 544,
      "##Β": 545,
      "##Α": 546,
      "##✓": 547,
      "##Ö": 548,
      "##ї": 549,
      "##č": 550,
      "##⁄": 551,
      "##Σ": 552,
      "##˚": 553,
      "##≠": 554,
      "##Λ": 555,
      "##Φ": 556,
      "##ō": 557,
      "##⋅": 558,
      "##▪": 559,
      "##∙": 560,
      "##đ": 561,
      "##↓": 562,
      "##Κ": 563,
      "##ż": 564,
      "##ř": 565,
      "##о": 566,
      "##θ": 567,
      "##È": 568,
      "##ṣ": 569,
      "##ș": 570,
      "##↑": 571,
      "##ů": 572,
      "##Á": 573,
      "##š": 574,
      "##←": 575,
      "##ρ": 576,
      "##ː": 577,
      "##ě": 578,
      "##➔": 579,
      "##Ä": 580,
      "##ﬁ": 581,
      "##Ó": 582,
      "##М": 583,
      "##¬": 584,
      "##ı": 585,
      "##⇌": 586,
      "##û": 587,
      "##ì": 588,
      "##с": 589,
      "##к": 590,
      "##а": 591,
      "##ī": 592,
      "##ᅟ": 593,
      "##ț": 594,
      "##③": 595,
      "##ē": 596,
      "##ă": 597,
      "##⊂": 598,
      "##˜": 599,
      "##Τ": 600,
      "##ο": 601,
      "##÷": 602,
      "##Ф": 603,
      "##ž": 604,
      "##ζ": 605,
      "##ƒ": 606,
      "##♀": 607,
      "##ħ": 608,
      "##ί": 609,
      "##ő": 610,
      "##▵": 611,
      "##Γ": 612,
      "##ū": 613,
      "##ź": 614,
      "##╪": 615,
      "##ə": 616,
      "##Ø": 617,
      "##С": 618,
      "##И": 619,
      "##̄": 620,
      "##İ": 621,
      "##В": 622,
      "##ň": 623,
      "##ļ": 624,
      "##ņ": 625,
      "##А": 626,
      "##О": 627,
      "##¼": 628,
      "##ė": 629,
      "##️": 630,
      "##ῖ": 631,
      "##Ê": 632,
      "##œ": 633,
      "##£": 634,
      "##Î": 635,
      "##ţ": 636,
      "##€": 637,
      "##◦": 638,
      "##́": 639,
      "##┴": 640,
      "##´": 641,
      "##Т": 642,
      "##ĝ": 643,
      "##Р": 644,
      "##ệ": 645,
      "##en": 646,
      "##er": 647,
      "##an": 648,
      "##ie": 649,
      "##el": 650,
      "##in": 651,
      "##at": 652,
      "##or": 653,
      "##et": 654,
      "de": 655,
      "##ij": 656,
      "van": 657,
      "##ch": 658,
      "##st": 659,
      "##al": 660,
      "##ing": 661,
      "##ar": 662,
      "en": 663,
      "##de": 664,
      "##on": 665,
      "in": 666,
      "##it": 667,
      "ge": 668,
      "##is": 669,
      "##oor": 670,
      "##ro": 671,
      "##den": 672,
      "een": 673,
      "##der": 674,
      "##ge": 675,
      "ver": 676,
      "##ct": 677,
      "##re": 678,
      "het": 679,
      "##ol": 680,
      "be": 681,
      "met": 682,
      "##oe": 683,
      "##le": 684,
      "##aar": 685,
      "##om": 686,
      "##te": 687,
      "##ijk": 688,
      "##atie": 689,
      "##id": 690,
      "##as": 691,
      "##ten": 692,
      "op": 693,
      "on": 694,
      "##gen": 695,
      "##isch": 696,
      "voor": 697,
      "##eer": 698,
      "##ul": 699,
      "##am": 700,
      "##ic": 701,
      "te": 702,
      "##ig": 703,
      "##es": 704,
      "aan": 705,
      "##ot": 706,
      "##ra": 707,
      "##ur": 708,
      "##ische": 709,
      "##ken": 710,
      "##cht": 711,
      "##og": 712,
      "##ijn": 713,
      "st": 714,
      "##ver": 715,
      "##elijk": 716,
      "##ent": 717,
      "is": 718,
      "wer": 719,
      "##il": 720,
      "##ië": 721,
      "##un": 722,
      "##sch": 723,
      "##us": 724,
      "De": 725,
      "bij": 726,
      "al": 727,
      "##os": 728,
      "dat": 729,
      "##ale": 730,
      "##em": 731,
      "##del": 732,
      "##um": 733,
      "##ctie": 734,
      "wor": 735,
      "##he": 736,
      "##di": 737,
      "##len": 738,
      "##op": 739,
      "##ag": 740,
      "die": 741,
      "##ik": 742,
      "##ven": 743,
      "##ze": 744,
      "##iën": 745,
      "##ee": 746,
      "##eren": 747,
      "om": 748,
      "onder": 749,
      "##ve": 750,
      "##la": 751,
      "##ru": 752,
      "##ine": 753,
      "re": 754,
      "##ingen": 755,
      "zijn": 756,
      "pat": 757,
      "door": 758,
      "##sen": 759,
      "an": 760,
      "uit": 761,
      "##ste": 762,
      "nie": 763,
      "##ele": 764,
      "##if": 765,
      "##ap": 766,
      "patiën": 767,
      "##sp": 768,
      "##ak": 769,
      "##oc": 770,
      "of": 771,
      "##heid": 772,
      "##ep": 773,
      "##im": 774,
      "##ite": 775,
      "werd": 776,
      "##ter": 777,
      "##aal": 778,
      "niet": 779,
      "##and": 780,
      "pro": 781,
      "##iek": 782,
      "##eld": 783,
      "beh": 784,
      "##orm": 785,
      "##iteit": 786,
      "##ang": 787,
      "over": 788,
      "tot": 789,
      "geb": 790,
      "worden": 791,
      "##oed": 792,
      "##ab": 793,
      "##uw": 794,
      "##ige": 795,
      "waar": 796,
      "##eerd": 797,
      "af": 798,
      "con": 799,
      "##ut": 800,
      "##ok": 801,
      "##se": 802,
      "##ist": 803,
      "##per": 804,
      "als": 805,
      "##ire": 806,
      "##dt": 807,
      "##fe": 808,
      "deze": 809,
      "ont": 810,
      "patiënten": 811,
      "##ho": 812,
      "##aat": 813,
      "##omen": 814,
      "onderz": 815,
      "##ier": 816,
      "##ad": 817,
      "##ant": 818,
      "was": 819,
      "##ed": 820,
      "##eg": 821,
      "##ss": 822,
      "zo": 823,
      "##ft": 824,
      "werden": 825,
      "gro": 826,
      "sp": 827,
      "##ud": 828,
      "In": 829,
      "na": 830,
      "##nen": 831,
      "##ers": 832,
      "##erd": 833,
      "res": 834,
      "##aan": 835,
      "er": 836,
      "##ir": 837,
      "gev": 838,
      "kan": 839,
      "##act": 840,
      "##andel": 841,
      "##uur": 842,
      "bl": 843,
      "wordt": 844,
      "##ec": 845,
      "##oek": 846,
      "##of": 847,
      "##elijke": 848,
      "di": 849,
      "##aire": 850,
      "##eerde": 851,
      "##iv": 852,
      "##ere": 853,
      "##ich": 854,
      "##du": 855,
      "##ies": 856,
      "##aten": 857,
      "##ond": 858,
      "le": 859,
      "##ast": 860,
      "##icht": 861,
      "##inder": 862,
      "##ide": 863,
      "Het": 864,
      "10": 865,
      "gen": 866,
      "##kt": 867,
      "##ion": 868,
      "##men": 869,
      "versch": 870,
      "behandel": 871,
      "##ac": 872,
      "##ien": 873,
      "##be": 874,
      "##ult": 875,
      "we": 876,
      "toe": 877,
      "##ings": 878,
      "##ellen": 879,
      "##dere": 880,
      "##olog": 881,
      "##aren": 882,
      "ex": 883,
      "geen": 884,
      "##ip": 885,
      "##ran": 886,
      "##ruik": 887,
      "##ijd": 888,
      "##od": 889,
      "##aties": 890,
      "per": 891,
      "gem": 892,
      "##yp": 893,
      "to": 894,
      "su": 895,
      "##ell": 896,
      "##ific": 897,
      "##aak": 898,
      "##ame": 899,
      "##ress": 900,
      "##we": 901,
      "##lu": 902,
      "##ost": 903,
      "##iddel": 904,
      "ef": 905,
      "he": 906,
      "##ind": 907,
      "dan": 908,
      "com": 909,
      "##wij": 910,
      "##oren": 911,
      "ch": 912,
      "##onder": 913,
      "vol": 914,
      "##ïn": 915,
      "##fect": 916,
      "##ose": 917,
      "verschil": 918,
      "sy": 919,
      "onderzoek": 920,
      "##wee": 921,
      "##ker": 922,
      "##entie": 923,
      "gebruik": 924,
      "##bb": 925,
      "##ende": 926,
      "##val": 927,
      "ho": 928,
      "##ort": 929,
      "##ussen": 930,
      "##art": 931,
      "##onden": 932,
      "##eeft": 933,
      "naar": 934,
      "ook": 935,
      "##lijk": 936,
      "##een": 937,
      "##erde": 938,
      "##ont": 939,
      "maar": 940,
      "ant": 941,
      "##gev": 942,
      "##rij": 943,
      "##00": 944,
      "ne": 945,
      "##chter": 946,
      "##onen": 947,
      "##ase": 948,
      "bel": 949,
      "##ass": 950,
      "stud": 951,
      "bet": 952,
      "##her": 953,
      "##lo": 954,
      "verb": 955,
      "##iden": 956,
      "##erk": 957,
      "##pen": 958,
      "mo": 959,
      "sch": 960,
      "##ys": 961,
      "kun": 962,
      "##mp": 963,
      "##tra": 964,
      "waren": 965,
      "verm": 966,
      "##bben": 967,
      "##oel": 968,
      "verschillen": 969,
      "##ign": 970,
      "##sel": 971,
      "##ib": 972,
      "##zen": 973,
      "##ia": 974,
      "hebben": 975,
      "inter": 976,
      "tussen": 977,
      "##uid": 978,
      "kunnen": 979,
      "##als": 980,
      "##af": 981,
      "dit": 982,
      "verg": 983,
      "ter": 984,
      "##io": 985,
      "##eel": 986,
      "##ikk": 987,
      "alle": 988,
      "##yl": 989,
      "##ressie": 990,
      "##tie": 991,
      "eer": 992,
      "##NA": 993,
      "##vol": 994,
      "##geven": 995,
      "effect": 996,
      "ged": 997,
      "her": 998,
      "meer": 999,
      "##uis": 1000,
      "##actie": 1001,
      "##lin": 1002,
      "ei": 1003,
      "##cent": 1004,
      "##ander": 1005,
      "ar": 1006,
      "gez": 1007,
      "##agn": 1008,
      "belang": 1009,
      "##amen": 1010,
      "##wel": 1011,
      "##ron": 1012,
      "##baar": 1013,
      "pre": 1014,
      "##tro": 1015,
      "##ulaire": 1016,
      "behandeling": 1017,
      "besch": 1018,
      "##laat": 1019,
      "##mer": 1020,
      "Een": 1021,
      "##age": 1022,
      "ontw": 1023,
      "##ater": 1024,
      "##rijk": 1025,
      "##ect": 1026,
      "##iviteit": 1027,
      "Deze": 1028,
      "ger": 1029,
      "##ijden": 1030,
      "best": 1031,
      "##gel": 1032,
      "##yc": 1033,
      "vro": 1034,
      "men": 1035,
      "jaar": 1036,
      "sign": 1037,
      "##TA": 1038,
      "##itie": 1039,
      "patiënt": 1040,
      "##dien": 1041,
      "##pro": 1042,
      "##qu": 1043,
      "##mm": 1044,
      "result": 1045,
      "##iële": 1046,
      "##me": 1047,
      "##ke": 1048,
      "##ectie": 1049,
      "##geb": 1050,
      "bloed": 1051,
      "19": 1052,
      "12": 1053,
      "##ium": 1054,
      "mg": 1055,
      "##sie": 1056,
      "##ank": 1057,
      "##ger": 1058,
      "##ann": 1059,
      "verho": 1060,
      "had": 1061,
      "##fectie": 1062,
      "##AT": 1063,
      "##atieve": 1064,
      "##yt": 1065,
      "##herap": 1066,
      "##org": 1067,
      "verschillende": 1068,
      "me": 1069,
      "twee": 1070,
      "Er": 1071,
      "comp": 1072,
      "##ren": 1073,
      "##are": 1074,
      "ziek": 1075,
      "We": 1076,
      "act": 1077,
      "##ox": 1078,
      "##ept": 1079,
      "##eten": 1080,
      "##schap": 1081,
      "heeft": 1082,
      "##alen": 1083,
      "##rans": 1084,
      "##king": 1085,
      "bev": 1086,
      "ontwikk": 1087,
      "studie": 1088,
      "##ma": 1089,
      "20": 1090,
      "##wit": 1091,
      "##oven": 1092,
      "##igheid": 1093,
      "mog": 1094,
      "Bij": 1095,
      "##kken": 1096,
      "andere": 1097,
      "datum": 1098,
      "##dige": 1099,
      "##ering": 1100,
      "##genomen": 1101,
      "##ogen": 1102,
      "##ub": 1103,
      "##ulp": 1104,
      "##duc": 1105,
      "hy": 1106,
      "hun": 1107,
      "belangrijk": 1108,
      "geïn": 1109,
      "resultaten": 1110,
      "##ym": 1111,
      "##pressie": 1112,
      "##ute": 1113,
      "##elf": 1114,
      "ac": 1115,
      "##ui": 1116,
      "cellen": 1117,
      "rec": 1118,
      "zoals": 1119,
      "vergelijk": 1120,
      "##oom": 1121,
      "##yse": 1122,
      "##ive": 1123,
      "groep": 1124,
      "##ijdens": 1125,
      "##rom": 1126,
      "uur": 1127,
      "##ologische": 1128,
      "##do": 1129,
      "##acht": 1130,
      "##rie": 1131,
      "##ieke": 1132,
      "verander": 1133,
      "mee": 1134,
      "##van": 1135,
      "verminder": 1136,
      "aant": 1137,
      "ma": 1138,
      "##yn": 1139,
      "min": 1140,
      "##uden": 1141,
      "verhoog": 1142,
      "##chten": 1143,
      "man": 1144,
      "ze": 1145,
      "gegeven": 1146,
      "pl": 1147,
      "##dro": 1148,
      "##vl": 1149,
      "eiwit": 1150,
      "klin": 1151,
      "##erg": 1152,
      "zich": 1153,
      "##uro": 1154,
      "##ef": 1155,
      "##icro": 1156,
      "gec": 1157,
      "11": 1158,
      "Al": 1159,
      "signific": 1160,
      "ontwikkel": 1161,
      "fun": 1162,
      "##aam": 1163,
      "##est": 1164,
      "##dem": 1165,
      "inf": 1166,
      "##th": 1167,
      "med": 1168,
      "##alis": 1169,
      "##gest": 1170,
      "##lic": 1171,
      "##isic": 1172,
      "bas": 1173,
      "nieuw": 1174,
      "15": 1175,
      "##aard": 1176,
      "##ate": 1177,
      "##ologie": 1178,
      "reg": 1179,
      "beoor": 1180,
      "##hal": 1181,
      "resp": 1182,
      "hoe": 1183,
      "##ne": 1184,
      "anal": 1185,
      "##wez": 1186,
      "or": 1187,
      "##ese": 1188,
      "vrouw": 1189,
      "tijdens": 1190,
      "##ert": 1191,
      "kle": 1192,
      "diagn": 1193,
      "##vo": 1194,
      "##ek": 1195,
      "verbet": 1196,
      "verk": 1197,
      "##herapie": 1198,
      "##gro": 1199,
      "On": 1200,
      "ziekte": 1201,
      "kw": 1202,
      "##dat": 1203,
      "##middel": 1204,
      "##ulatie": 1205,
      "##ivea": 1206,
      "contro": 1207,
      "imm": 1208,
      "##zien": 1209,
      "Dit": 1210,
      "spec": 1211,
      "##dra": 1212,
      "mogelijk": 1213,
      "##onde": 1214,
      "echter": 1215,
      "##ieken": 1216,
      "##adi": 1217,
      "##arm": 1218,
      "##ure": 1219,
      "##erende": 1220,
      "dag": 1221,
      "##ON": 1222,
      "##ces": 1223,
      "aantal": 1224,
      "##heden": 1225,
      "##ieden": 1226,
      "##stand": 1227,
      "##bare": 1228,
      "Ne": 1229,
      "##gens": 1230,
      "##uit": 1231,
      "risic": 1232,
      "AM": 1233,
      "##aakt": 1234,
      "bep": 1235,
      "##fer": 1236,
      "tegen": 1237,
      "gebruikt": 1238,
      "##atten": 1239,
      "##ST": 1240,
      "sub": 1241,
      "sc": 1242,
      "##EN": 1243,
      "geval": 1244,
      "trans": 1245,
      "beg": 1246,
      "##bij": 1247,
      "behulp": 1248,
      "##ositie": 1249,
      "gevol": 1250,
      "##nel": 1251,
      "##ug": 1252,
      "norm": 1253,
      "##ente": 1254,
      "##agen": 1255,
      "##ath": 1256,
      "vorm": 1257,
      "##kend": 1258,
      "##anis": 1259,
      "##deling": 1260,
      "mon": 1261,
      "##itis": 1262,
      "##ment": 1263,
      "pol": 1264,
      "bin": 1265,
      "14": 1266,
      "veel": 1267,
      "huid": 1268,
      "13": 1269,
      "##sten": 1270,
      "art": 1271,
      "##cin": 1272,
      "mL": 1273,
      "plaat": 1274,
      "##elling": 1275,
      "##OR": 1276,
      "##ruk": 1277,
      "##deren": 1278,
      "##atief": 1279,
      "##sy": 1280,
      "wat": 1281,
      "##centr": 1282,
      "zw": 1283,
      "##ari": 1284,
      "##ante": 1285,
      "##fie": 1286,
      "bere": 1287,
      "ste": 1288,
      "##to": 1289,
      "##oten": 1290,
      "##aag": 1291,
      "Ver": 1292,
      "##uren": 1293,
      "activiteit": 1294,
      "##dent": 1295,
      "##gende": 1296,
      "##mat": 1297,
      "goed": 1298,
      "eerste": 1299,
      "ble": 1300,
      "##eert": 1301,
      "##stem": 1302,
      "onderzo": 1303,
      "##ype": 1304,
      "gep": 1305,
      "toen": 1306,
      "controle": 1307,
      "##ën": 1308,
      "micro": 1309,
      "##bin": 1310,
      "##hank": 1311,
      "##ong": 1312,
      "##stig": 1313,
      "##elen": 1314,
      "aanwez": 1315,
      "nu": 1316,
      "##etische": 1317,
      "tum": 1318,
      "pr": 1319,
      "zonder": 1320,
      "car": 1321,
      "co": 1322,
      "##IC": 1323,
      "30": 1324,
      "nieuwe": 1325,
      "kinder": 1326,
      "##oorz": 1327,
      "##komen": 1328,
      "##ruct": 1329,
      "nog": 1330,
      "wij": 1331,
      "##ER": 1332,
      "##kom": 1333,
      "##oeken": 1334,
      "24": 1335,
      "gegevens": 1336,
      "##iale": 1337,
      "lever": 1338,
      "el": 1339,
      "##fic": 1340,
      "##valu": 1341,
      "##atuur": 1342,
      "##IL": 1343,
      "##iet": 1344,
      "##ram": 1345,
      "rem": 1346,
      "##ionele": 1347,
      "deel": 1348,
      "tijd": 1349,
      "##fen": 1350,
      "daar": 1351,
      "##get": 1352,
      "##sc": 1353,
      "cor": 1354,
      "##str": 1355,
      "##lex": 1356,
      "cel": 1357,
      "lin": 1358,
      "##ijnen": 1359,
      "basis": 1360,
      "sug": 1361,
      "bi": 1362,
      "25": 1363,
      "##sl": 1364,
      "##min": 1365,
      "gew": 1366,
      "syn": 1367,
      "##ob": 1368,
      "##name": 1369,
      "klinische": 1370,
      "infectie": 1371,
      "sle": 1372,
      "dos": 1373,
      "##nis": 1374,
      "ern": 1375,
      "##deel": 1376,
      "hyp": 1377,
      "##ogra": 1378,
      "##assen": 1379,
      "##ductie": 1380,
      "##IN": 1381,
      "##werk": 1382,
      "rol": 1383,
      "##ator": 1384,
      "##rek": 1385,
      "tra": 1386,
      "par": 1387,
      "sugger": 1388,
      "ele": 1389,
      "##huis": 1390,
      "veroorz": 1391,
      "betro": 1392,
      "##chn": 1393,
      "##app": 1394,
      "zowel": 1395,
      "ep": 1396,
      "gevolg": 1397,
      "##atiën": 1398,
      "leeft": 1399,
      "doel": 1400,
      "rel": 1401,
      "##eratie": 1402,
      "##ader": 1403,
      "##ATE": 1404,
      "ben": 1405,
      "PM": 1406,
      "alleen": 1407,
      "##ood": 1408,
      "plaats": 1409,
      "lang": 1410,
      "16": 1411,
      "ten": 1412,
      "##wijl": 1413,
      "Name": 1414,
      "positie": 1415,
      "##usie": 1416,
      "ou": 1417,
      "##dentific": 1418,
      "##rit": 1419,
      "hier": 1420,
      "ser": 1421,
      "meest": 1422,
      "hoge": 1423,
      "gene": 1424,
      "##stige": 1425,
      "samen": 1426,
      "Op": 1427,
      "metho": 1428,
      "##ons": 1429,
      "##vorm": 1430,
      "##land": 1431,
      "##uizen": 1432,
      "leeftijd": 1433,
      "##regen": 1434,
      "werk": 1435,
      "##groep": 1436,
      "##gevo": 1437,
      "DE": 1438,
      "ab": 1439,
      "nivea": 1440,
      "risico": 1441,
      "##ondheid": 1442,
      "##entr": 1443,
      "blij": 1444,
      "minder": 1445,
      "##olec": 1446,
      "50": 1447,
      "##ieerd": 1448,
      "##AL": 1449,
      "hem": 1450,
      "18": 1451,
      "##stelling": 1452,
      "##iding": 1453,
      "##iver": 1454,
      "##wijk": 1455,
      "##AM": 1456,
      "St": 1457,
      "lich": 1458,
      "ad": 1459,
      "hart": 1460,
      "##SP": 1461,
      "##met": 1462,
      "groot": 1463,
      "##urg": 1464,
      "expressie": 1465,
      "##aliteit": 1466,
      "inc": 1467,
      "hyper": 1468,
      "##oï": 1469,
      "significant": 1470,
      "##gevoerd": 1471,
      "##indingen": 1472,
      "ap": 1473,
      "##ard": 1474,
      "middel": 1475,
      "##chts": 1476,
      "kinderen": 1477,
      "##ble": 1478,
      "Re": 1479,
      "100": 1480,
      "wee": 1481,
      "studies": 1482,
      "binnen": 1483,
      "##chte": 1484,
      "##oord": 1485,
      "##hy": 1486,
      "##fsel": 1487,
      "effecten": 1488,
      "DATE": 1489,
      "hog": 1490,
      "##air": 1491,
      "geï": 1492,
      "##asc": 1493,
      "get": 1494,
      "zorg": 1495,
      "pijn": 1496,
      "terwijl": 1497,
      "##ill": 1498,
      "##én": 1499,
      "##ransp": 1500,
      "gemiddel": 1501,
      "##urende": 1502,
      "voed": 1503,
      "##reven": 1504,
      "##tr": 1505,
      "##anneer": 1506,
      "specif": 1507,
      "waargenomen": 1508,
      "verhoogde": 1509,
      "leven": 1510,
      "ges": 1511,
      "Geen": 1512,
      "snel": 1513,
      "##ijkt": 1514,
      "##anc": 1515,
      "##lijke": 1516,
      "##cellen": 1517,
      "gest": 1518,
      "##gem": 1519,
      "##vloed": 1520,
      "##racht": 1521,
      "uitgevoerd": 1522,
      "##ica": 1523,
      "##voor": 1524,
      "reactie": 1525,
      "neuro": 1526,
      "##uze": 1527,
      "##jes": 1528,
      "hadden": 1529,
      "##gaan": 1530,
      "##let": 1531,
      "opt": 1532,
      "##ule": 1533,
      "wel": 1534,
      "##steun": 1535,
      "##elat": 1536,
      "##ens": 1537,
      "verw": 1538,
      "##rag": 1539,
      "hoog": 1540,
      "##spro": 1541,
      "##odig": 1542,
      "onderzoeken": 1543,
      "aanget": 1544,
      "##schijn": 1545,
      "zelf": 1546,
      "An": 1547,
      "ro": 1548,
      "zal": 1549,
      "Na": 1550,
      "col": 1551,
      "immun": 1552,
      "##och": 1553,
      "duid": 1554,
      "##orst": 1555,
      "stat": 1556,
      "##actoren": 1557,
      "##ovendien": 1558,
      "##rip": 1559,
      "doc": 1560,
      "##last": 1561,
      "##omp": 1562,
      "enk": 1563,
      "end": 1564,
      "model": 1565,
      "Om": 1566,
      "vrouwen": 1567,
      "##mon": 1568,
      "##atr": 1569,
      "geass": 1570,
      "##lant": 1571,
      "##ficiën": 1572,
      "##ilie": 1573,
      "##aling": 1574,
      "linker": 1575,
      "diagnose": 1576,
      "moe": 1577,
      "medic": 1578,
      "##elde": 1579,
      "grote": 1580,
      "mech": 1581,
      "oor": 1582,
      "ken": 1583,
      "intra": 1584,
      "##ster": 1585,
      "17": 1586,
      "##con": 1587,
      "##eter": 1588,
      "vergelijking": 1589,
      "200": 1590,
      "##atische": 1591,
      "##ting": 1592,
      "##stof": 1593,
      "gesch": 1594,
      "##yten": 1595,
      "analyse": 1596,
      "gek": 1597,
      "##steem": 1598,
      "##kan": 1599,
      "beper": 1600,
      "##weg": 1601,
      "dagen": 1602,
      "vaak": 1603,
      "test": 1604,
      "##ane": 1605,
      "40": 1606,
      "##mpt": 1607,
      "##zuur": 1608,
      "geassoc": 1609,
      "zieken": 1610,
      "Ge": 1611,
      "waarbij": 1612,
      "long": 1613,
      "gel": 1614,
      "DETA": 1615,
      "##open": 1616,
      "nodig": 1617,
      "DETAIL": 1618,
      "##osf": 1619,
      "post": 1620,
      "belangrijke": 1621,
      "##oot": 1622,
      "##ation": 1623,
      "drie": 1624,
      "##rop": 1625,
      "Be": 1626,
      "##keur": 1627,
      "##waar": 1628,
      "##erv": 1629,
      "##emb": 1630,
      "##oon": 1631,
      "Voor": 1632,
      "verto": 1633,
      "mm": 1634,
      "onderzocht": 1635,
      "gl": 1636,
      "##nem": 1637,
      "elekt": 1638,
      "mens": 1639,
      "##ders": 1640,
      "dL": 1641,
      "veranderingen": 1642,
      "##uele": 1643,
      "##rel": 1644,
      "##middelen": 1645,
      "ob": 1646,
      "##uk": 1647,
      "stab": 1648,
      "##acter": 1649,
      "##lan": 1650,
      "##irurg": 1651,
      "##gesteld": 1652,
      "##O2": 1653,
      "##kende": 1654,
      "##deeld": 1655,
      "##emie": 1656,
      "gevallen": 1657,
      "RE": 1658,
      "##ied": 1659,
      "Bovendien": 1660,
      "sterk": 1661,
      "toege": 1662,
      "zou": 1663,
      "moet": 1664,
      "##rof": 1665,
      "##los": 1666,
      "Met": 1667,
      "verz": 1668,
      "##wijs": 1669,
      "##vent": 1670,
      "##aanden": 1671,
      "Daar": 1672,
      "voorkomen": 1673,
      "ontwikkeling": 1674,
      "##TI": 1675,
      "prog": 1676,
      "Pt": 1677,
      "00": 1678,
      "##iel": 1679,
      "neg": 1680,
      "bepaal": 1681,
      "gevonden": 1682,
      "gedurende": 1683,
      "ster": 1684,
      "groe": 1685,
      "IV": 1686,
      "kg": 1687,
      "afwijk": 1688,
      "tumor": 1689,
      "##oond": 1690,
      "evalu": 1691,
      "##ieën": 1692,
      "maanden": 1693,
      "##els": 1694,
      "type": 1695,
      "##actor": 1696,
      "gele": 1697,
      "struct": 1698,
      "hel": 1699,
      "borst": 1700,
      "##gew": 1701,
      "##doen": 1702,
      "pers": 1703,
      "##ormatie": 1704,
      "##beh": 1705,
      "HO": 1706,
      "##sych": 1707,
      "huidige": 1708,
      "##schijnlijk": 1709,
      "##ming": 1710,
      "##ED": 1711,
      "via": 1712,
      "imp": 1713,
      "##las": 1714,
      "zeer": 1715,
      "vrij": 1716,
      "aanzien": 1717,
      "Neder": 1718,
      "##orte": 1719,
      "##kun": 1720,
      "##luc": 1721,
      "##rine": 1722,
      "##oort": 1723,
      "##isatie": 1724,
      "sl": 1725,
      "##druk": 1726,
      "CT": 1727,
      "##ret": 1728,
      "beide": 1729,
      "Patiën": 1730,
      "gezondheid": 1731,
      "##perim": 1732,
      "één": 1733,
      "Van": 1734,
      "##oper": 1735,
      "##baarheid": 1736,
      "functie": 1737,
      "even": 1738,
      "cont": 1739,
      "##ofd": 1740,
      "21": 1741,
      "##lak": 1742,
      "som": 1743,
      "PO": 1744,
      "##ziek": 1745,
      "##gang": 1746,
      "vit": 1747,
      "Hier": 1748,
      "##elden": 1749,
      "##omie": 1750,
      "vari": 1751,
      "ondersteun": 1752,
      "Nederland": 1753,
      "##oede": 1754,
      "genees": 1755,
      "dis": 1756,
      "PT": 1757,
      "##anal": 1758,
      "zij": 1759,
      "##zoek": 1760,
      "aange": 1761,
      "vast": 1762,
      "##anden": 1763,
      "##up": 1764,
      "##iot": 1765,
      "molec": 1766,
      "DNA": 1767,
      "betrokken": 1768,
      "techn": 1769,
      "aangetoond": 1770,
      "##istof": 1771,
      "##AP": 1772,
      "##aken": 1773,
      "concentr": 1774,
      "vers": 1775,
      "dif": 1776,
      "##delen": 1777,
      "geïnduc": 1778,
      "wanneer": 1779,
      "##unctie": 1780,
      "##dig": 1781,
      "##ouw": 1782,
      "gevoel": 1783,
      "##emische": 1784,
      "##ks": 1785,
      "IN": 1786,
      "##ullen": 1787,
      "##oen": 1788,
      "##br": 1789,
      "##ijf": 1790,
      "##ving": 1791,
      "poten": 1792,
      "##AR": 1793,
      "actie": 1794,
      "##iaal": 1795,
      "overle": 1796,
      "cyt": 1797,
      "eigen": 1798,
      "II": 1799,
      "##hankelijk": 1800,
      "##inale": 1801,
      "##sul": 1802,
      "geassocieerd": 1803,
      "##loe": 1804,
      "##opt": 1805,
      "extra": 1806,
      "acute": 1807,
      "##slag": 1808,
      "respectie": 1809,
      "bleek": 1810,
      "22": 1811,
      "tr": 1812,
      "##SPI": 1813,
      "##ov": 1814,
      "vra": 1815,
      "weken": 1816,
      "##ging": 1817,
      "##fin": 1818,
      "##geveer": 1819,
      "##uc": 1820,
      "##oornis": 1821,
      "##spre": 1822,
      "##iliteit": 1823,
      "##ix": 1824,
      "##inding": 1825,
      "vir": 1826,
      "##iode": 1827,
      "specifieke": 1828,
      "##TAL": 1829,
      "##gesch": 1830,
      "##beeld": 1831,
      "##zelf": 1832,
      "adem": 1833,
      "hersen": 1834,
      "volle": 1835,
      "org": 1836,
      "IC": 1837,
      "huis": 1838,
      "gemiddelde": 1839,
      "therapie": 1840,
      "##one": 1841,
      "sympt": 1842,
      "##zet": 1843,
      "##ikel": 1844,
      "wil": 1845,
      "##ografie": 1846,
      "##requ": 1847,
      "##ust": 1848,
      "##duct": 1849,
      "am": 1850,
      "vo": 1851,
      "lage": 1852,
      "##amine": 1853,
      "combin": 1854,
      "omdat": 1855,
      "nier": 1856,
      "60": 1857,
      "funct": 1858,
      "behandeld": 1859,
      "proble": 1860,
      "rechter": 1861,
      "##amelijk": 1862,
      "##velijk": 1863,
      "##perv": 1864,
      "prim": 1865,
      "gezien": 1866,
      "dosis": 1867,
      "chron": 1868,
      "CO": 1869,
      "##imale": 1870,
      "Sp": 1871,
      "lag": 1872,
      "moeten": 1873,
      "mut": 1874,
      "respectievelijk": 1875,
      "##co": 1876,
      "et": 1877,
      "##lachten": 1878,
      "enkele": 1879,
      "sec": 1880,
      "##kl": 1881,
      "##geen": 1882,
      "geven": 1883,
      "##abol": 1884,
      "fam": 1885,
      "##door": 1886,
      "pul": 1887,
      "staat": 1888,
      "##ool": 1889,
      "muizen": 1890,
      "ass": 1891,
      "##na": 1892,
      "at": 1893,
      "recept": 1894,
      "onze": 1895,
      "##end": 1896,
      "##ventie": 1897,
      "verminderde": 1898,
      "##sing": 1899,
      "toename": 1900,
      "hij": 1901,
      "##pass": 1902,
      "##ïne": 1903,
      "aandoen": 1904,
      "beïn": 1905,
      "system": 1906,
      "ongeveer": 1907,
      "HOSPI": 1908,
      "laat": 1909,
      "HOSPITAL": 1910,
      "##igen": 1911,
      "23": 1912,
      "se": 1913,
      "verwij": 1914,
      "##ocyten": 1915,
      "##enten": 1916,
      "##schappen": 1917,
      "haar": 1918,
      "normale": 1919,
      "##all": 1920,
      "##houden": 1921,
      "##AS": 1922,
      "significante": 1923,
      "##ID": 1924,
      "Cont": 1925,
      "weefsel": 1926,
      "int": 1927,
      "Hoe": 1928,
      "bevindingen": 1929,
      "##sters": 1930,
      "kleine": 1931,
      "aut": 1932,
      "str": 1933,
      "terug": 1934,
      "ernstige": 1935,
      "voorsp": 1936,
      "mechanis": 1937,
      "experim": 1938,
      "##par": 1939,
      "##itu": 1940,
      "zwang": 1941,
      "##LE": 1942,
      "boven": 1943,
      "##fte": 1944,
      "##woord": 1945,
      "enz": 1946,
      "mult": 1947,
      "blijft": 1948,
      "psych": 1949,
      "##ynam": 1950,
      "verkregen": 1951,
      "ziekenhuis": 1952,
      "verl": 1953,
      "aanv": 1954,
      "##iedenis": 1955,
      "lym": 1956,
      "chirurg": 1957,
      "waarschijnlijk": 1958,
      "zien": 1959,
      "##gele": 1960,
      "em": 1961,
      "weer": 1962,
      "##ax": 1963,
      "##iging": 1964,
      "##ikt": 1965,
      "##anten": 1966,
      "my": 1967,
      "##stru": 1968,
      "cm": 1969,
      "th": 1970,
      "##IS": 1971,
      "##opp": 1972,
      "det": 1973,
      "##oorten": 1974,
      "##ple": 1975,
      "Cl": 1976,
      "cons": 1977,
      "95": 1978,
      "aanwezigheid": 1979,
      "ontst": 1980,
      "gra": 1981,
      "methode": 1982,
      "##ome": 1983,
      "##room": 1984,
      "##orf": 1985,
      "##eerden": 1986,
      "tonen": 1987,
      "##ateg": 1988,
      "Aan": 1989,
      "##low": 1990,
      "verst": 1991,
      "##ieren": 1992,
      "##res": 1993,
      "##CT": 1994,
      "05": 1995,
      "verhoogd": 1996,
      "ademhal": 1997,
      "##zorg": 1998,
      "##wassen": 1999,
      "nauw": 2000,
      "bewijs": 2001,
      "##ucht": 2002,
      "##vallen": 2003,
      "identific": 2004,
      "toonde": 2005,
      "##RNA": 2006,
      "eerder": 2007,
      "##licaties": 2008,
      "##RE": 2009,
      "ang": 2010,
      "##cl": 2011,
      "##veel": 2012,
      "beoordeeld": 2013,
      "##antie": 2014,
      "stim": 2015,
      "groter": 2016,
      "groepen": 2017,
      "##kanker": 2018,
      "medi": 2019,
      "##stel": 2020,
      "##wege": 2021,
      "##bre": 2022,
      "menselijke": 2023,
      "##ellulaire": 2024,
      "dra": 2025,
      "lt": 2026,
      "##centage": 2027,
      "##ycl": 2028,
      "lig": 2029,
      "lab": 2030,
      "plas": 2031,
      "diagnost": 2032,
      "bestaan": 2033,
      "complex": 2034,
      "199": 2035,
      "un": 2036,
      "##irect": 2037,
      "radi": 2038,
      "bloot": 2039,
      "duidelijk": 2040,
      "##ans": 2041,
      "26": 2042,
      "PC": 2043,
      "effectie": 2044,
      "cardi": 2045,
      "aanwezig": 2046,
      "35": 2047,
      "##ransplant": 2048,
      "##tern": 2049,
      "##dic": 2050,
      "bekend": 2051,
      "pt": 2052,
      "##eut": 2053,
      "##functie": 2054,
      "ratten": 2055,
      "Ch": 2056,
      "##raal": 2057,
      "##zelfde": 2058,
      "##pervlak": 2059,
      "verband": 2060,
      "bre": 2061,
      "##role": 2062,
      "##richt": 2063,
      "uitge": 2064,
      "water": 2065,
      "dus": 2066,
      "beschreven": 2067,
      "suggereren": 2068,
      "jar": 2069,
      "slechts": 2070,
      "veroorzaakt": 2071,
      "##zaam": 2072,
      "##asculaire": 2073,
      "##luit": 2074,
      "##iatie": 2075,
      "##IV": 2076,
      "##ologisch": 2077,
      "beeld": 2078,
      "CD": 2079,
      "##etr": 2080,
      "elk": 2081,
      "eiwitten": 2082,
      "##tijd": 2083,
      "kanker": 2084,
      "fys": 2085,
      "##sche": 2086,
      "28": 2087,
      "##merken": 2088,
      "##und": 2089,
      "neur": 2090,
      "##ines": 2091,
      "##rekking": 2092,
      "##oog": 2093,
      "##eft": 2094,
      "##ins": 2095,
      "var": 2096,
      "gebas": 2097,
      "overeen": 2098,
      "##gt": 2099,
      "##heel": 2100,
      "##ced": 2101,
      "##mo": 2102,
      "stam": 2103,
      "##teerd": 2104,
      "geh": 2105,
      "##opie": 2106,
      "leid": 2107,
      "vloe": 2108,
      "omv": 2109,
      "##zicht": 2110,
      "totale": 2111,
      "##az": 2112,
      "niveaus": 2113,
      "##eds": 2114,
      "maken": 2115,
      "##urs": 2116,
      "richt": 2117,
      "##rakt": 2118,
      "Hoewel": 2119,
      "##iter": 2120,
      "##ade": 2121,
      "gebied": 2122,
      "beve": 2123,
      "kl": 2124,
      "laag": 2125,
      "##reden": 2126,
      "##iken": 2127,
      "##RI": 2128,
      "hoofd": 2129,
      "CH": 2130,
      "jarige": 2131,
      "##eleken": 2132,
      "belangrijkste": 2133,
      "##igheden": 2134,
      "fol": 2135,
      "lijkt": 2136,
      "normaal": 2137,
      "mil": 2138,
      "##ieerde": 2139,
      "bestu": 2140,
      "licht": 2141,
      "##erden": 2142,
      "bacter": 2143,
      "geïnduceerde": 2144,
      "##rin": 2145,
      "direct": 2146,
      "hep": 2147,
      "chronische": 2148,
      "volwassen": 2149,
      "ret": 2150,
      "##uim": 2151,
      "27": 2152,
      "AB": 2153,
      "##ou": 2154,
      "proces": 2155,
      "combinatie": 2156,
      "##ferent": 2157,
      "##volgens": 2158,
      "up": 2159,
      "informatie": 2160,
      "80": 2161,
      "lok": 2162,
      "interactie": 2163,
      "##ore": 2164,
      "##itor": 2165,
      "##rond": 2166,
      "indi": 2167,
      "beschik": 2168,
      "ve": 2169,
      "##ilich": 2170,
      "##vorming": 2171,
      "##reg": 2172,
      "ons": 2173,
      "##hankelijke": 2174,
      "##vid": 2175,
      "##accin": 2176,
      "##ode": 2177,
      "##droom": 2178,
      "aanzienlijk": 2179,
      "waardoor": 2180,
      "##uik": 2181,
      "symptomen": 2182,
      "positieve": 2183,
      "##iseerd": 2184,
      "pla": 2185,
      "steeds": 2186,
      "oorz": 2187,
      "##romb": 2188,
      "##plaat": 2189,
      "familie": 2190,
      "##abel": 2191,
      "##over": 2192,
      "waaronder": 2193,
      "##alc": 2194,
      "rapp": 2195,
      "90": 2196,
      "stand": 2197,
      "diab": 2198,
      "operatie": 2199,
      "##orator": 2200,
      "##ontrole": 2201,
      "vooral": 2202,
      "hydro": 2203,
      "##nie": 2204,
      "##inig": 2205,
      "lip": 2206,
      "##AME": 2207,
      "##gemeen": 2208,
      "fen": 2209,
      "lichaam": 2210,
      "Vol": 2211,
      "##wer": 2212,
      "32": 2213,
      "##ichte": 2214,
      "artikel": 2215,
      "gedrag": 2216,
      "##cedure": 2217,
      "hoger": 2218,
      "ml": 2219,
      "##inds": 2220,
      "##ce": 2221,
      "##utie": 2222,
      "##merkt": 2223,
      "##dru": 2224,
      "##unt": 2225,
      "gluc": 2226,
      "##AST": 2227,
      "lymf": 2228,
      "periode": 2229,
      "##onderzoek": 2230,
      "##AC": 2231,
      "##cc": 2232,
      "mensen": 2233,
      "factoren": 2234,
      "##euze": 2235,
      "##herapeut": 2236,
      "##crip": 2237,
      "bot": 2238,
      "darm": 2239,
      "Ook": 2240,
      "RR": 2241,
      "hoeveel": 2242,
      "zwanger": 2243,
      "##orb": 2244,
      "vere": 2245,
      "Plan": 2246,
      "##av": 2247,
      "mis": 2248,
      "lucht": 2249,
      "##ess": 2250,
      "voort": 2251,
      "medische": 2252,
      "##tensie": 2253,
      "##ijken": 2254,
      "sele": 2255,
      "komen": 2256,
      "##BC": 2257,
      "##jectie": 2258,
      "##wijz": 2259,
      "##eur": 2260,
      "##rijven": 2261,
      "geë": 2262,
      "insul": 2263,
      "gelijk": 2264,
      "##merk": 2265,
      "antilich": 2266,
      "sla": 2267,
      "##ficiëntie": 2268,
      "hand": 2269,
      "45": 2270,
      "niveau": 2271,
      "goede": 2272,
      "##behandel": 2273,
      "##inu": 2274,
      "jaren": 2275,
      "waarde": 2276,
      "frequ": 2277,
      "##cinoom": 2278,
      "##ores": 2279,
      "##asie": 2280,
      "##GF": 2281,
      "##rol": 2282,
      "onth": 2283,
      "HR": 2284,
      "##AN": 2285,
      "PE": 2286,
      "anti": 2287,
      "Ze": 2288,
      "##oop": 2289,
      "afwijkingen": 2290,
      "##ardi": 2291,
      "##oeden": 2292,
      "70": 2293,
      "huisart": 2294,
      "serum": 2295,
      "##gd": 2296,
      "CV": 2297,
      "fosf": 2298,
      "##kelijk": 2299,
      "bron": 2300,
      "01": 2301,
      "##AD": 2302,
      "29": 2303,
      "##eling": 2304,
      "##opath": 2305,
      "##IE": 2306,
      "##iz": 2307,
      "##otherapie": 2308,
      "##ichten": 2309,
      "##verander": 2310,
      "meerdere": 2311,
      "vormen": 2312,
      "hogere": 2313,
      "vergeleken": 2314,
      "asp": 2315,
      "##form": 2316,
      "##clu": 2317,
      "oplos": 2318,
      "##osc": 2319,
      "##pers": 2320,
      "##hyl": 2321,
      "bil": 2322,
      "##komst": 2323,
      "##inden": 2324,
      "du": 2325,
      "nood": 2326,
      "achter": 2327,
      "genen": 2328,
      "kon": 2329,
      "klachten": 2330,
      "invloed": 2331,
      "cir": 2332,
      "antib": 2333,
      "##uun": 2334,
      "##iegel": 2335,
      "vis": 2336,
      "##aterale": 2337,
      "meeste": 2338,
      "IL": 2339,
      "##oth": 2340,
      "##activiteit": 2341,
      "##lig": 2342,
      "opge": 2343,
      "soorten": 2344,
      "verbeteren": 2345,
      "CON": 2346,
      "metabol": 2347,
      "verder": 2348,
      "##doende": 2349,
      "fib": 2350,
      "begin": 2351,
      "ox": 2352,
      "kans": 2353,
      "##deerd": 2354,
      "##sol": 2355,
      "primaire": 2356,
      "31": 2357,
      "##ial": 2358,
      "BP": 2359,
      "mE": 2360,
      "##test": 2361,
      "geneesmiddelen": 2362,
      "##cept": 2363,
      "##iciteit": 2364,
      "##IT": 2365,
      "Af": 2366,
      "algemeen": 2367,
      "##ivering": 2368,
      "##osten": 2369,
      "##diening": 2370,
      "##raak": 2371,
      "toepass": 2372,
      "Patiënt": 2373,
      "##structie": 2374,
      "mEq": 2375,
      "stellen": 2376,
      "mannen": 2377,
      "geïdentific": 2378,
      "##isme": 2379,
      "En": 2380,
      "vier": 2381,
      "##digen": 2382,
      "##gebre": 2383,
      "37": 2384,
      "Clip": 2385,
      "immuun": 2386,
      "##sproken": 2387,
      "Over": 2388,
      "bepaald": 2389,
      "201": 2390,
      "##ogene": 2391,
      "##hol": 2392,
      "bepalen": 2393,
      "##elt": 2394,
      "mit": 2395,
      "##aad": 2396,
      "betrekking": 2397,
      "##kers": 2398,
      "02": 2399,
      "36": 2400,
      "kenmerken": 2401,
      "mogelijke": 2402,
      "gemeten": 2403,
      "pop": 2404,
      "status": 2405,
      "gt": 2406,
      "##otte": 2407,
      "tweede": 2408,
      "gast": 2409,
      "##ratie": 2410,
      "poly": 2411,
      "##uleren": 2412,
      "hist": 2413,
      "##ENT": 2414,
      "vertoonden": 2415,
      "laatste": 2416,
      "Bl": 2417,
      "vanwege": 2418,
      "##oornissen": 2419,
      "##asen": 2420,
      "##gene": 2421,
      "##cle": 2422,
      "val": 2423,
      "##fa": 2424,
      "ag": 2425,
      "chem": 2426,
      "##reen": 2427,
      "sequ": 2428,
      "beoordeling": 2429,
      "##etes": 2430,
      "##iseerde": 2431,
      "gezondheids": 2432,
      "opgenomen": 2433,
      "##igd": 2434,
      "max": 2435,
      "##kte": 2436,
      "toonden": 2437,
      "vert": 2438,
      "##oire": 2439,
      "kwaliteit": 2440,
      "##ler": 2441,
      "suggereert": 2442,
      "prakt": 2443,
      "Res": 2444,
      "##past": 2445,
      "##gegeven": 2446,
      "ST": 2447,
      "##voer": 2448,
      "suc": 2449,
      "do": 2450,
      "ruim": 2451,
      "##ulte": 2452,
      "##spectie": 2453,
      "##rijgen": 2454,
      "stabiel": 2455,
      "nucle": 2456,
      "##zonder": 2457,
      "##mis": 2458,
      "verkl": 2459,
      "systeem": 2460,
      "open": 2461,
      "waarin": 2462,
      "druk": 2463,
      "tromb": 2464,
      "leiden": 2465,
      "##ets": 2466,
      "Tot": 2467,
      "##embra": 2468,
      "urine": 2469,
      "uitgebre": 2470,
      "afhankelijk": 2471,
      "individ": 2472,
      "laborator": 2473,
      "##houd": 2474,
      "mate": 2475,
      "levens": 2476,
      "meestal": 2477,
      "##onale": 2478,
      "fase": 2479,
      "##ief": 2480,
      "oppervlak": 2481,
      "liter": 2482,
      "antibiot": 2483,
      "mal": 2484,
      "198": 2485,
      "##arak": 2486,
      "Niet": 2487,
      "bevestig": 2488,
      "##SS": 2489,
      "eigenschappen": 2490,
      "zwangerschap": 2491,
      "respons": 2492,
      "##arakter": 2493,
      "##vie": 2494,
      "net": 2495,
      "##oïde": 2496,
      "##these": 2497,
      "transcrip": 2498,
      "##mige": 2499,
      "derg": 2500,
      "flu": 2501,
      "correl": 2502,
      "bew": 2503,
      "##peratuur": 2504,
      "inciden": 2505,
      "##pp": 2506,
      "vloeistof": 2507,
      "weinig": 2508,
      "##oem": 2509,
      "##ocyt": 2510,
      "##teg": 2511,
      "##pleeg": 2512,
      "##ach": 2513,
      "regel": 2514,
      "mar": 2515,
      "NAME": 2516,
      "##inen": 2517,
      "##schapp": 2518,
      "33": 2519,
      "Als": 2520,
      "##fus": 2521,
      "bed": 2522,
      "##ract": 2523,
      "000": 2524,
      "##ablet": 2525,
      "ber": 2526,
      "Onze": 2527,
      "gerelat": 2528,
      "##amp": 2529,
      "##tens": 2530,
      "analys": 2531,
      "##orp": 2532,
      "##ege": 2533,
      "03": 2534,
      "##ombin": 2535,
      "Door": 2536,
      "ervan": 2537,
      "laten": 2538,
      "##standigheden": 2539,
      "##tieel": 2540,
      "contra": 2541,
      "geïdentificeerd": 2542,
      "##rote": 2543,
      "##ject": 2544,
      "##model": 2545,
      "Ca": 2546,
      "PR": 2547,
      "##aring": 2548,
      "##oordeling": 2549,
      "##otor": 2550,
      "34": 2551,
      "##assa": 2552,
      "prote": 2553,
      "##ulair": 2554,
      "##neum": 2555,
      "##lyc": 2556,
      "##ziekte": 2557,
      "##pijn": 2558,
      "enzym": 2559,
      "##itieve": 2560,
      "vitro": 2561,
      "##uiten": 2562,
      "blijven": 2563,
      "##dag": 2564,
      "alge": 2565,
      "aort": 2566,
      "04": 2567,
      "alfa": 2568,
      "hal": 2569,
      "##vel": 2570,
      "keer": 2571,
      "therapeut": 2572,
      "##log": 2573,
      "##sent": 2574,
      "nan": 2575,
      "klinisch": 2576,
      "##tig": 2577,
      "soc": 2578,
      "toediening": 2579,
      "benader": 2580,
      "gedet": 2581,
      "##ór": 2582,
      "indic": 2583,
      "##eed": 2584,
      "##óór": 2585,
      "##sluit": 2586,
      "##dragen": 2587,
      "##OD": 2588,
      "standaard": 2589,
      "##rose": 2590,
      "##mene": 2591,
      "jon": 2592,
      "klein": 2593,
      "AT": 2594,
      "##amet": 2595,
      "##osis": 2596,
      "patho": 2597,
      "##iologische": 2598,
      "##dering": 2599,
      "receptor": 2600,
      "##ber": 2601,
      "elke": 2602,
      "ech": 2603,
      "##genen": 2604,
      "##wezen": 2605,
      "voeding": 2606,
      "vervolgens": 2607,
      "kom": 2608,
      "stress": 2609,
      "##istentie": 2610,
      "gaan": 2611,
      "##raat": 2612,
      "ul": 2613,
      "zuur": 2614,
      "##erol": 2615,
      "##SC": 2616,
      "inv": 2617,
      "bla": 2618,
      "houden": 2619,
      "centr": 2620,
      "concentratie": 2621,
      "##SA": 2622,
      "moleculaire": 2623,
      "##derd": 2624,
      "##fusie": 2625,
      "diabetes": 2626,
      "vragen": 2627,
      "medicijnen": 2628,
      "complicaties": 2629,
      "##regel": 2630,
      "##vers": 2631,
      "##ange": 2632,
      "##car": 2633,
      "##iele": 2634,
      "beïnvloed": 2635,
      "succes": 2636,
      "##deelt": 2637,
      "resulte": 2638,
      "##ransplantatie": 2639,
      "erv": 2640,
      "bieden": 2641,
      "loc": 2642,
      "evenals": 2643,
      "negatieve": 2644,
      "##bel": 2645,
      "vergelijkbaar": 2646,
      "##laag": 2647,
      "totaal": 2648,
      "syndroom": 2649,
      "ontste": 2650,
      "##emen": 2651,
      "##oler": 2652,
      "##odi": 2653,
      "versus": 2654,
      "##mie": 2655,
      "AP": 2656,
      "hulp": 2657,
      "##aalde": 2658,
      "dien": 2659,
      "name": 2660,
      "onge": 2661,
      "##entil": 2662,
      "##ING": 2663,
      "##ga": 2664,
      "productie": 2665,
      "nut": 2666,
      "##pak": 2667,
      "vaccin": 2668,
      "Com": 2669,
      "##bl": 2670,
      "volledig": 2671,
      "##uf": 2672,
      "blijkt": 2673,
      "vroege": 2674,
      "##tre": 2675,
      "Hij": 2676,
      "Zo": 2677,
      "inst": 2678,
      "##je": 2679,
      "problemen": 2680,
      "##DI": 2681,
      "##anks": 2682,
      "dezelfde": 2683,
      "##ha": 2684,
      "Uit": 2685,
      "##nemers": 2686,
      "##ograf": 2687,
      "##gif": 2688,
      "##weging": 2689,
      "##oorts": 2690,
      "vóór": 2691,
      "ontstaan": 2692,
      "beoordelen": 2693,
      "omgev": 2694,
      "functionele": 2695,
      "circ": 2696,
      "eerdere": 2697,
      "relatie": 2698,
      "##verl": 2699,
      "selectie": 2700,
      "ple": 2701,
      "##concentr": 2702,
      "##analys": 2703,
      "amin": 2704,
      "##gebruik": 2705,
      "##icale": 2706,
      "##ile": 2707,
      "##ergie": 2708,
      "##embraan": 2709,
      "55": 2710,
      "mid": 2711,
      "##duid": 2712,
      "middelen": 2713,
      "ICU": 2714,
      "##roon": 2715,
      "prof": 2716,
      "buik": 2717,
      "##view": 2718,
      "ventr": 2719,
      "##wegen": 2720,
      "FI": 2721,
      "##ducten": 2722,
      "##nieuw": 2723,
      "opname": 2724,
      "38": 2725,
      "sterfte": 2726,
      "##oment": 2727,
      "##lob": 2728,
      "48": 2729,
      "bestaat": 2730,
      "voorn": 2731,
      "##MP": 2732,
      "##falen": 2733,
      "rapport": 2734,
      "##eiden": 2735,
      "##reat": 2736,
      "gaat": 2737,
      "75": 2738,
      "all": 2739,
      "##udige": 2740,
      "procedure": 2741,
      "gemaakt": 2742,
      "##teel": 2743,
      "##pt": 2744,
      "literatuur": 2745,
      "##klier": 2746,
      "onthul": 2747,
      "##anning": 2748,
      "##aby": 2749,
      "##mun": 2750,
      "insp": 2751,
      "##daag": 2752,
      "##ree": 2753,
      "bescher": 2754,
      "Onder": 2755,
      "##ling": 2756,
      "spier": 2757,
      "##alisatie": 2758,
      "duur": 2759,
      "fo": 2760,
      "##aden": 2761,
      "chrom": 2762,
      "dergelijke": 2763,
      "NP": 2764,
      "rep": 2765,
      "gebru": 2766,
      "insuline": 2767,
      "organis": 2768,
      "komt": 2769,
      "personen": 2770,
      "Last": 2771,
      "stof": 2772,
      "volgens": 2773,
      "gericht": 2774,
      "##iguur": 2775,
      "##voorbeeld": 2776,
      "Alle": 2777,
      "##omische": 2778,
      "tox": 2779,
      "Radi": 2780,
      "noodz": 2781,
      "AR": 2782,
      "gemeld": 2783,
      "gemeen": 2784,
      "vet": 2785,
      "bijn": 2786,
      "negatief": 2787,
      "##ilijk": 2788,
      "beschouw": 2789,
      "verandering": 2790,
      "##BP": 2791,
      "different": 2792,
      "##illen": 2793,
      "##activ": 2794,
      "AC": 2795,
      "genetische": 2796,
      "moment": 2797,
      "blootstelling": 2798,
      "percentage": 2799,
      "##aanse": 2800,
      "##oeding": 2801,
      "mechanismen": 2802,
      "mater": 2803,
      "lijn": 2804,
      "nauwkeur": 2805,
      "beter": 2806,
      "viv": 2807,
      "potentieel": 2808,
      "weten": 2809,
      "proef": 2810,
      "grond": 2811,
      "##loten": 2812,
      "wie": 2813,
      "chol": 2814,
      "present": 2815,
      "groei": 2816,
      "NI": 2817,
      "##ume": 2818,
      "##uten": 2819,
      "HIV": 2820,
      "vermogen": 2821,
      "verminderen": 2822,
      "leidt": 2823,
      "##halte": 2824,
      "##gener": 2825,
      "waarvan": 2826,
      "##vang": 2827,
      "maag": 2828,
      "kosten": 2829,
      "##mee": 2830,
      "positief": 2831,
      "incidentie": 2832,
      "hoewel": 2833,
      "##kenen": 2834,
      "##danks": 2835,
      "factor": 2836,
      "##ORT": 2837,
      "regio": 2838,
      "##entele": 2839,
      "dru": 2840,
      "##ramma": 2841,
      "the": 2842,
      "kwant": 2843,
      "vereist": 2844,
      "##igde": 2845,
      "mat": 2846,
      "##akkelijk": 2847,
      "actieve": 2848,
      "exp": 2849,
      "verminderd": 2850,
      "bijvoorbeeld": 2851,
      "figuur": 2852,
      "##enties": 2853,
      "##gewicht": 2854,
      "verd": 2855,
      "beperkt": 2856,
      "gereg": 2857,
      "bloeding": 2858,
      "O2": 2859,
      "##ellingen": 2860,
      "##lagen": 2861,
      "sommige": 2862,
      "##aakte": 2863,
      "activering": 2864,
      "CP": 2865,
      "potent": 2866,
      "aandoeningen": 2867,
      "##ex": 2868,
      "moeilijk": 2869,
      "AD": 2870,
      "zelfs": 2871,
      "##lor": 2872,
      "Ab": 2873,
      "bio": 2874,
      "voornamelijk": 2875,
      "RNA": 2876,
      "der": 2877,
      "ventil": 2878,
      "gevolgd": 2879,
      "Ex": 2880,
      "recente": 2881,
      "vivo": 2882,
      "##lacht": 2883,
      "##esie": 2884,
      "evalueren": 2885,
      "##ferentie": 2886,
      "cl": 2887,
      "##analyse": 2888,
      "##ay": 2889,
      "##iëren": 2890,
      "verbetering": 2891,
      "##aste": 2892,
      "afgele": 2893,
      "mel": 2894,
      "tem": 2895,
      "cult": 2896,
      "tumoren": 2897,
      "##anische": 2898,
      "methoden": 2899,
      "virus": 2900,
      "relatief": 2901,
      "##armac": 2902,
      "##tub": 2903,
      "hepat": 2904,
      "##bi": 2905,
      "HC": 2906,
      "##ziekten": 2907,
      "##inue": 2908,
      "##otische": 2909,
      "dr": 2910,
      "##iculaire": 2911,
      "Reactie": 2912,
      "##behandeling": 2913,
      "##comp": 2914,
      "##au": 2915,
      "##LO": 2916,
      "##elect": 2917,
      "statist": 2918,
      "ziekten": 2919,
      "##sis": 2920,
      "gewicht": 2921,
      "buiten": 2922,
      "vanaf": 2923,
      "##opische": 2924,
      "oorzaak": 2925,
      "veil": 2926,
      "hypertensie": 2927,
      "bloeddruk": 2928,
      "##cus": 2929,
      "isol": 2930,
      "vroeg": 2931,
      "##atale": 2932,
      "besproken": 2933,
      "aand": 2934,
      "stadi": 2935,
      "grootte": 2936,
      "vraag": 2937,
      "LAST": 2938,
      "##etrie": 2939,
      "kre": 2940,
      "toegepast": 2941,
      "ker": 2942,
      "##werking": 2943,
      "##dur": 2944,
      "##orgen": 2945,
      "verzam": 2946,
      "##issen": 2947,
      "gevoeligheid": 2948,
      "dagelijk": 2949,
      "Ig": 2950,
      "later": 2951,
      "##arct": 2952,
      "ontde": 2953,
      "Ten": 2954,
      "overleving": 2955,
      "##UM": 2956,
      "MD": 2957,
      "##amin": 2958,
      "##afhankelijke": 2959,
      "kracht": 2960,
      "##aker": 2961,
      "rele": 2962,
      "ademhalings": 2963,
      "acht": 2964,
      "arter": 2965,
      "ontwikkeld": 2966,
      "hom": 2967,
      "##inus": 2968,
      "follow": 2969,
      "##yst": 2970,
      "manier": 2971,
      "zullen": 2972,
      "kind": 2973,
      "##TION": 2974,
      "MC": 2975,
      "verbeterde": 2976,
      "screen": 2977,
      "mac": 2978,
      "##bla": 2979,
      "bevor": 2980,
      "sens": 2981,
      "Di": 2982,
      "##ynamische": 2983,
      "##cip": 2984,
      "##ronen": 2985,
      "##voudige": 2986,
      "##kings": 2987,
      "la": 2988,
      "65": 2989,
      "##ta": 2990,
      "kregen": 2991,
      "##gifte": 2992,
      "##imaal": 2993,
      "kn": 2994,
      "optreden": 2995,
      "##cel": 2996,
      "##ime": 2997,
      "verpleeg": 2998,
      "##oekom": 2999,
      "##icatie": 3000,
      "##idatie": 3001,
      "##geschiedenis": 3002,
      "waarden": 3003,
      "aandoening": 3004,
      "BM": 3005,
      "dist": 3006,
      "structuur": 3007,
      "cap": 3008,
      "pept": 3009,
      "kreeg": 3010,
      "geïsol": 3011,
      "kort": 3012,
      "part": 3013,
      "ME": 3014,
      "gebruiken": 3015,
      "monitor": 3016,
      "koorts": 3017,
      "##eks": 3018,
      "Med": 3019,
      "##diagn": 3020,
      "invasie": 3021,
      "AL": 3022,
      "kin": 3023,
      "##valentie": 3024,
      "##erend": 3025,
      "ondersche": 3026,
      "##mijn": 3027,
      "Andere": 3028,
      "##weefsel": 3029,
      "buis": 3030,
      "geeft": 3031,
      "chirurgische": 3032,
      "calc": 3033,
      "Le": 3034,
      "verdere": 3035,
      "depressie": 3036,
      "gede": 3037,
      "Tablet": 3038,
      "concentraties": 3039,
      "99": 3040,
      "##operatieve": 3041,
      "vastgesteld": 3042,
      "identificeren": 3043,
      "##amer": 3044,
      "gemed": 3045,
      "prest": 3046,
      "##ulaties": 3047,
      "NO": 3048,
      "##adem": 3049,
      "zen": 3050,
      "function": 3051,
      "lager": 3052,
      "effectief": 3053,
      "pneum": 3054,
      "oog": 3055,
      "lagere": 3056,
      "zeld": 3057,
      "##EM": 3058,
      "##groepen": 3059,
      "glyc": 3060,
      "##spec": 3061,
      "Actie": 3062,
      "##omenteel": 3063,
      "##esch": 3064,
      "verte": 3065,
      "leuk": 3066,
      "maat": 3067,
      "##gestelde": 3068,
      "progn": 3069,
      "wereld": 3070,
      "recid": 3071,
      "tabel": 3072,
      "##osit": 3073,
      "spelen": 3074,
      "opnieuw": 3075,
      "progressie": 3076,
      "PA": 3077,
      "##lif": 3078,
      "##10": 3079,
      "verricht": 3080,
      "antibiotica": 3081,
      "##kingen": 3082,
      "algemene": 3083,
      "toestand": 3084,
      "aandacht": 3085,
      "week": 3086,
      "let": 3087,
      "produc": 3088,
      "##menten": 3089,
      "bè": 3090,
      "vandaag": 3091,
      "##cohol": 3092,
      "richtl": 3093,
      "bez": 3094,
      "##personen": 3095,
      "contact": 3096,
      "Pro": 3097,
      "##cellulaire": 3098,
      "##inf": 3099,
      "98": 3100,
      "voedings": 3101,
      "dec": 3102,
      "volgende": 3103,
      "##iditeit": 3104,
      "karakter": 3105,
      "##ameters": 3106,
      "dieren": 3107,
      "##inter": 3108,
      "gedetect": 3109,
      "fot": 3110,
      "TO": 3111,
      "##vloeden": 3112,
      "snelheid": 3113,
      "42": 3114,
      "secund": 3115,
      "bespre": 3116,
      "mod": 3117,
      "bereik": 3118,
      "##ild": 3119,
      "##aald": 3120,
      "evaluatie": 3121,
      "08": 3122,
      "gal": 3123,
      "biologische": 3124,
      "Neuro": 3125,
      "mRNA": 3126,
      "##monale": 3127,
      "##verlies": 3128,
      "hoeveelheid": 3129,
      "##gelopen": 3130,
      "bevol": 3131,
      "zenuw": 3132,
      "##ith": 3133,
      "##oz": 3134,
      "stij": 3135,
      "##iedt": 3136,
      "##riter": 3137,
      "morf": 3138,
      "voorkomende": 3139,
      "therapeutische": 3140,
      "lange": 3141,
      "##orrel": 3142,
      "minuten": 3143,
      "##arine": 3144,
      "##drukt": 3145,
      "hemat": 3146,
      "##urele": 3147,
      "artsen": 3148,
      "cell": 3149,
      "##isten": 3150,
      "afname": 3151,
      "##struct": 3152,
      "##metho": 3153,
      "##ning": 3154,
      "##ail": 3155,
      "##eleid": 3156,
      "##antwoord": 3157,
      "##emt": 3158,
      "##UL": 3159,
      "heter": 3160,
      "nemen": 3161,
      "daarom": 3162,
      "##isp": 3163,
      "TF": 3164,
      "##nt": 3165,
      "##licatie": 3166,
      "spect": 3167,
      "##zame": 3168,
      "omstandigheden": 3169,
      "39": 3170,
      "binding": 3171,
      "maakt": 3172,
      "aanbe": 3173,
      "##AB": 3174,
      "gecontrole": 3175,
      "oste": 3176,
      "##ificatie": 3177,
      "onderzochten": 3178,
      "volledige": 3179,
      "route": 3180,
      "mann": 3181,
      "##stud": 3182,
      "##nivea": 3183,
      "##ift": 3184,
      "lichaams": 3185,
      "betre": 3186,
      "##ogn": 3187,
      "##elijkheid": 3188,
      "situ": 3189,
      "##atiënten": 3190,
      "toekom": 3191,
      "06": 3192,
      "snelle": 3193,
      "sten": 3194,
      "plan": 3195,
      "Radiologie": 3196,
      "##EST": 3197,
      "duidelijke": 3198,
      "prot": 3199,
      "##irus": 3200,
      "##EP": 3201,
      "fe": 3202,
      "prevalentie": 3203,
      "##gra": 3204,
      "induc": 3205,
      "don": 3206,
      "krijgen": 3207,
      "Am": 3208,
      "##otox": 3209,
      "##been": 3210,
      "gedetecteerd": 3211,
      "##ijdige": 3212,
      "##gek": 3213,
      "##otype": 3214,
      "##lij": 3215,
      "##werkingen": 3216,
      "##12": 3217,
      "##vangen": 3218,
      "bevatten": 3219,
      "rond": 3220,
      "Ac": 3221,
      "##oïden": 3222,
      "SC": 3223,
      "##oster": 3224,
      "mechanisme": 3225,
      "praktijk": 3226,
      "plasm": 3227,
      "onbe": 3228,
      "##ina": 3229,
      "##gte": 3230,
      "TH": 3231,
      "##aliseerde": 3232,
      "opz": 3233,
      "##etisch": 3234,
      "hen": 3235,
      "##vul": 3236,
      "cere": 3237,
      "##uiden": 3238,
      "##idine": 3239,
      "hum": 3240,
      "systemen": 3241,
      "stap": 3242,
      "##dex": 3243,
      "oper": 3244,
      "##oden": 3245,
      "##olische": 3246,
      "biedt": 3247,
      "vooraf": 3248,
      "##kening": 3249,
      "antilichamen": 3250,
      "##itte": 3251,
      "gebieden": 3252,
      "ing": 3253,
      "##andom": 3254,
      "zacht": 3255,
      "##ueel": 3256,
      "path": 3257,
      "stroom": 3258,
      "gebaseerd": 3259,
      "sinds": 3260,
      "07": 3261,
      "MED": 3262,
      "##tex": 3263,
      "toepassing": 3264,
      "##ultaten": 3265,
      "variab": 3266,
      "##orptie": 3267,
      "reacties": 3268,
      "Con": 3269,
      "##ATI": 3270,
      "##mende": 3271,
      "bepaalde": 3272,
      "betrouw": 3273,
      "##rengen": 3274,
      "gebaseerde": 3275,
      "##zondheid": 3276,
      "enige": 3277,
      "assoc": 3278,
      "##oplas": 3279,
      "secret": 3280,
      "beschikbaar": 3281,
      "44": 3282,
      "korte": 3283,
      "aute": 3284,
      "geanalys": 3285,
      "##spron": 3286,
      "natuur": 3287,
      "##asp": 3288,
      "vertoonde": 3289,
      "indien": 3290,
      "DA": 3291,
      "##stre": 3292,
      "potentiële": 3293,
      "##ytische": 3294,
      "##bo": 3295,
      "geleid": 3296,
      "GI": 3297,
      "grotere": 3298,
      "##geboren": 3299,
      "ontwikkelen": 3300,
      "afwez": 3301,
      "##dende": 3302,
      "##dracht": 3303,
      "perif": 3304,
      "gezonde": 3305,
      "##urale": 3306,
      "lokale": 3307,
      "coron": 3308,
      "##SH": 3309,
      "Gen": 3310,
      "veroorzaken": 3311,
      "isch": 3312,
      "bes": 3313,
      "Beoordeling": 3314,
      "##rim": 3315,
      "verh": 3316,
      "##ractie": 3317,
      "##lam": 3318,
      "ess": 3319,
      "ventilatie": 3320,
      "150": 3321,
      "pH": 3322,
      "bereikt": 3323,
      "strateg": 3324,
      "dubb": 3325,
      "##centie": 3326,
      "ernstig": 3327,
      "geplaat": 3328,
      "techniek": 3329,
      "Dat": 3330,
      "infecties": 3331,
      "line": 3332,
      "reden": 3333,
      "centrale": 3334,
      "43": 3335,
      "Daarom": 3336,
      "##resp": 3337,
      "Co": 3338,
      "land": 3339,
      "gebeur": 3340,
      "geëvalu": 3341,
      "bestaande": 3342,
      "afgelopen": 3343,
      "huisarts": 3344,
      "##atal": 3345,
      "##Hg": 3346,
      "gemiddeld": 3347,
      "##istent": 3348,
      "##aliseerd": 3349,
      "##ocol": 3350,
      "##anen": 3351,
      "opzichte": 3352,
      "##atisch": 3353,
      "##etrische": 3354,
      "uite": 3355,
      "beïnvloeden": 3356,
      "bijna": 3357,
      "Amer": 3358,
      "##elet": 3359,
      "probleem": 3360,
      "specifiek": 3361,
      "##ES": 3362,
      "monsters": 3363,
      "##otyp": 3364,
      "##itale": 3365,
      "cycl": 3366,
      "##lang": 3367,
      "gecon": 3368,
      "##kunde": 3369,
      "##schappelijke": 3370,
      "REP": 3371,
      "gepro": 3372,
      "##iteiten": 3373,
      "bra": 3374,
      "##opathie": 3375,
      "##uleerd": 3376,
      "##atheter": 3377,
      "fil": 3378,
      "##oeder": 3379,
      "vorming": 3380,
      "ven": 3381,
      "SP": 3382,
      "preventie": 3383,
      "##ede": 3384,
      "##gaande": 3385,
      "toont": 3386,
      "alcohol": 3387,
      "verschijn": 3388,
      "farmac": 3389,
      "##ts": 3390,
      "##rist": 3391,
      "NE": 3392,
      "voorspellen": 3393,
      "cort": 3394,
      "remming": 3395,
      "herh": 3396,
      "##RA": 3397,
      "frequentie": 3398,
      "geplaatst": 3399,
      "##atus": 3400,
      "##put": 3401,
      "herstel": 3402,
      "eth": 3403,
      "MS": 3404,
      "beschrijven": 3405,
      "kleur": 3406,
      "##urop": 3407,
      "##gegevens": 3408,
      "geëvalueerd": 3409,
      "##scopie": 3410,
      "langdur": 3411,
      "##II": 3412,
      "beho": 3413,
      "##esterol": 3414,
      "hersenen": 3415,
      "##ulerende": 3416,
      "arts": 3417,
      "beschouwd": 3418,
      "bijwerkingen": 3419,
      "##ycine": 3420,
      "##orie": 3421,
      "dieet": 3422,
      "##önt": 3423,
      "ademhaling": 3424,
      "##rale": 3425,
      "Bloed": 3426,
      "vaat": 3427,
      "ondersteunen": 3428,
      "##öntgen": 3429,
      "##che": 3430,
      "incl": 3431,
      "##afhankelijk": 3432,
      "##oïd": 3433,
      "cellulaire": 3434,
      "energie": 3435,
      "vaker": 3436,
      "pub": 3437,
      "behoe": 3438,
      "97": 3439,
      "risicof": 3440,
      "##ri": 3441,
      "signaal": 3442,
      "500": 3443,
      "##stemming": 3444,
      "##ografische": 3445,
      "mmHg": 3446,
      "##vat": 3447,
      "zuurstof": 3448,
      "##stit": 3449,
      "gepre": 3450,
      "geanalyseerd": 3451,
      "pas": 3452,
      "polym": 3453,
      "vijf": 3454,
      "##matig": 3455,
      "detectie": 3456,
      "##reactie": 3457,
      "##iologie": 3458,
      "41": 3459,
      "##stellen": 3460,
      "eind": 3461,
      "Nederlandse": 3462,
      "voldoende": 3463,
      "ondersteuning": 3464,
      "##ors": 3465,
      "##issel": 3466,
      "##iss": 3467,
      "##atrium": 3468,
      "bekende": 3469,
      "##H2": 3470,
      "##erc": 3471,
      "OR": 3472,
      "##ulen": 3473,
      "bete": 3474,
      "##olf": 3475,
      "##sequ": 3476,
      "inclusie": 3477,
      "Ar": 3478,
      "##mers": 3479,
      "onvol": 3480,
      "##ros": 3481,
      "dome": 3482,
      "sh": 3483,
      "VAL": 3484,
      "##maal": 3485,
      "gener": 3486,
      "##kundige": 3487,
      "tub": 3488,
      "hele": 3489,
      "##ICAL": 3490,
      "diagnostische": 3491,
      "BS": 3492,
      "bestudeerd": 3493,
      "zouden": 3494,
      "genoem": 3495,
      "##cluderen": 3496,
      "##oprote": 3497,
      "##itatie": 3498,
      "bèta": 3499,
      "96": 3500,
      "Resp": 3501,
      "##stoornissen": 3502,
      "EC": 3503,
      "plasma": 3504,
      "##diend": 3505,
      "AN": 3506,
      "werkzaam": 3507,
      "verspre": 3508,
      "moeder": 3509,
      "##iegels": 3510,
      "##matige": 3511,
      "temperatuur": 3512,
      "No": 3513,
      "orale": 3514,
      "toenem": 3515,
      "kennis": 3516,
      "defin": 3517,
      "##straling": 3518,
      "gun": 3519,
      "##uter": 3520,
      "altern": 3521,
      "NG": 3522,
      "PD": 3523,
      "##RO": 3524,
      "##wn": 3525,
      "cogn": 3526,
      "##UE": 3527,
      "oorspron": 3528,
      "onderzoekers": 3529,
      "acet": 3530,
      "panc": 3531,
      "##riteria": 3532,
      "eerst": 3533,
      "vertegen": 3534,
      "CK": 3535,
      "##ema": 3536,
      "gedeelt": 3537,
      "controles": 3538,
      "##chtheid": 3539,
      "##hydro": 3540,
      "##uen": 3541,
      "##atine": 3542,
      "puls": 3543,
      "##waarde": 3544,
      "EX": 3545,
      "super": 3546,
      "Num": 3547,
      "##ider": 3548,
      "rat": 3549,
      "tekenen": 3550,
      "##huizen": 3551,
      "##ae": 3552,
      "transcriptie": 3553,
      "integ": 3554,
      "experimentele": 3555,
      "##ps": 3556,
      "##langs": 3557,
      "##zing": 3558,
      "##lop": 3559,
      "##uig": 3560,
      "##ulf": 3561,
      "PP": 3562,
      "prost": 3563,
      "##NAL": 3564,
      "##ctomie": 3565,
      "##aart": 3566,
      "aanpak": 3567,
      "##kw": 3568,
      "individuele": 3569,
      "proefpersonen": 3570,
      "interventie": 3571,
      "geschiedenis": 3572,
      "##duur": 3573,
      "init": 3574,
      "deelnemers": 3575,
      "##duidelijk": 3576,
      "ER": 3577,
      "verantwoord": 3578,
      "##osp": 3579,
      "56": 3580,
      "##rijpen": 3581,
      "apopt": 3582,
      "##20": 3583,
      "##han": 3584,
      "46": 3585,
      "PS": 3586,
      "toelat": 3587,
      "CR": 3588,
      "uitkomst": 3589,
      "patiënte": 3590,
      "populatie": 3591,
      "##waarden": 3592,
      "##uiver": 3593,
      "##akelijk": 3594,
      "CC": 3595,
      "##unten": 3596,
      "##ogeen": 3597,
      "auteurs": 3598,
      "momenteel": 3599,
      "gepresen": 3600,
      "Wanneer": 3601,
      "##atte": 3602,
      "MRI": 3603,
      "RA": 3604,
      "ID": 3605,
      "##vis": 3606,
      "##leiding": 3607,
      "##udig": 3608,
      "no": 3609,
      "47": 3610,
      "##atrische": 3611,
      "vertra": 3612,
      "##heer": 3613,
      "MR": 3614,
      "##gebracht": 3615,
      "##ionale": 3616,
      "##IP": 3617,
      "##trans": 3618,
      "##indt": 3619,
      "Hct": 3620,
      "##erp": 3621,
      "injectie": 3622,
      "behandelde": 3623,
      "##gde": 3624,
      "laboratorium": 3625,
      "elektro": 3626,
      "##uiv": 3627,
      "REPORT": 3628,
      "WBC": 3629,
      "Mon": 3630,
      "##achte": 3631,
      "##reng": 3632,
      "termin": 3633,
      "gerelateerd": 3634,
      "gedaan": 3635,
      "HP": 3636,
      "##ucle": 3637,
      "##naast": 3638,
      "##orax": 3639,
      "geïnfect": 3640,
      "pulmonale": 3641,
      "malign": 3642,
      "##raag": 3643,
      "##liggende": 3644,
      "methyl": 3645,
      "##ieten": 3646,
      "##OS": 3647,
      "volgen": 3648,
      "detect": 3649,
      "schaal": 3650,
      "##reerd": 3651,
      "kool": 3652,
      "##azol": 3653,
      "glucose": 3654,
      "aanwijz": 3655,
      "toelating": 3656,
      "##okk": 3657,
      "ouder": 3658,
      "##ormale": 3659,
      "ast": 3660,
      "speel": 3661,
      "##bere": 3662,
      "##sm": 3663,
      "##herm": 3664,
      "##inine": 3665,
      "volwassenen": 3666,
      "aden": 3667,
      "##elingen": 3668,
      "##systeem": 3669,
      "dient": 3670,
      "geken": 3671,
      "##selen": 3672,
      "Twee": 3673,
      "##uleerde": 3674,
      "##agon": 3675,
      "gekenmerkt": 3676,
      "##TE": 3677,
      "##okken": 3678,
      "transp": 3679,
      "sociale": 3680,
      "diep": 3681,
      "gepaard": 3682,
      "AF": 3683,
      "vergelijkbare": 3684,
      "##duceerd": 3685,
      "slecht": 3686,
      "cru": 3687,
      "##tenissen": 3688,
      "zie": 3689,
      "##esies": 3690,
      "PL": 3691,
      "53": 3692,
      "ca": 3693,
      "##aliseren": 3694,
      "oude": 3695,
      "##genese": 3696,
      "##serv": 3697,
      "actief": 3698,
      "##ical": 3699,
      "##emat": 3700,
      "membraan": 3701,
      "##oorte": 3702,
      "dim": 3703,
      "vermindering": 3704,
      "49": 3705,
      "##atoren": 3706,
      "diagnostiek": 3707,
      "##cer": 3708,
      "52": 3709,
      "##nelheid": 3710,
      "contrast": 3711,
      "voedsel": 3712,
      "##oging": 3713,
      "stadium": 3714,
      "amp": 3715,
      "HD": 3716,
      "foet": 3717,
      "##diagnost": 3718,
      "##woor": 3719,
      "##apt": 3720,
      "correlatie": 3721,
      "begon": 3722,
      "rad": 3723,
      "##gevoel": 3724,
      "been": 3725,
      "spont": 3726,
      "##orbiditeit": 3727,
      "calcium": 3728,
      "mmol": 3729,
      "je": 3730,
      "##TR": 3731,
      "behandelings": 3732,
      "intact": 3733,
      "##ei": 3734,
      "toegediend": 3735,
      "mi": 3736,
      "rest": 3737,
      "09": 3738,
      "LD": 3739,
      "##apporte": 3740,
      "##asting": 3741,
      "screening": 3742,
      "BI": 3743,
      "aorta": 3744,
      "vinden": 3745,
      "gesteld": 3746,
      "##arc": 3747,
      "verlaag": 3748,
      "Sig": 3749,
      "##voe": 3750,
      "neuronen": 3751,
      "Ph": 3752,
      "##oph": 3753,
      "vasculaire": 3754,
      "activiteiten": 3755,
      "##uli": 3756,
      "##laire": 3757,
      "directe": 3758,
      "form": 3759,
      "##rot": 3760,
      "and": 3761,
      "##infectie": 3762,
      "ouders": 3763,
      "54": 3764,
      "temp": 3765,
      "beheer": 3766,
      "schade": 3767,
      "III": 3768,
      "##sorptie": 3769,
      "##UN": 3770,
      "CHEST": 3771,
      "diver": 3772,
      "zin": 3773,
      "intern": 3774,
      "DO": 3775,
      "code": 3776,
      "##ochond": 3777,
      "magn": 3778,
      "##rat": 3779,
      "sim": 3780,
      "##onenten": 3781,
      "PCR": 3782,
      "##ril": 3783,
      "ontlast": 3784,
      "neurolog": 3785,
      "uitgebreide": 3786,
      "SD": 3787,
      "Wij": 3788,
      "lon": 3789,
      "uiteind": 3790,
      "##onie": 3791,
      "##ankelijk": 3792,
      "bevestigd": 3793,
      "den": 3794,
      "oede": 3795,
      "Amerik": 3796,
      "##cep": 3797,
      "beteken": 3798,
      "##volgende": 3799,
      "horm": 3800,
      "001": 3801,
      "modellen": 3802,
      "rug": 3803,
      "Omdat": 3804,
      "Number": 3805,
      "oud": 3806,
      "oppervlakte": 3807,
      "cy": 3808,
      "##osom": 3809,
      "welke": 3810,
      "##lement": 3811,
      "retro": 3812,
      "vonden": 3813,
      "typ": 3814,
      "bleef": 3815,
      "soms": 3816,
      "passen": 3817,
      "letsel": 3818,
      "##igeen": 3819,
      "##ock": 3820,
      "##leden": 3821,
      "##ding": 3822,
      "58": 3823,
      "signal": 3824,
      "gerandom": 3825,
      "##carcinoom": 3826,
      "##ument": 3827,
      "verlies": 3828,
      "Patiënten": 3829,
      "##roep": 3830,
      "##regelen": 3831,
      "verbindingen": 3832,
      "onthulde": 3833,
      "##ity": 3834,
      "monitoring": 3835,
      "verhogen": 3836,
      "ledem": 3837,
      "##schillen": 3838,
      "##agt": 3839,
      "ABG": 3840,
      "Europ": 3841,
      "##omy": 3842,
      "neut": 3843,
      "##ivers": 3844,
      "omgeving": 3845,
      "##ikte": 3846,
      "vrije": 3847,
      "functies": 3848,
      "##concentratie": 3849,
      "##orpen": 3850,
      "##icul": 3851,
      "nam": 3852,
      "##alve": 3853,
      "##cum": 3854,
      "altijd": 3855,
      "FOR": 3856,
      "omvatten": 3857,
      "##oxide": 3858,
      "seks": 3859,
      "He": 3860,
      "##ili": 3861,
      "##liferatie": 3862,
      "##istische": 3863,
      "abd": 3864,
      "##municatie": 3865,
      "CONDI": 3866,
      "PH": 3867,
      "benad": 3868,
      "baby": 3869,
      "sterke": 3870,
      "perifere": 3871,
      "##NF": 3872,
      "##ameter": 3873,
      "Per": 3874,
      "##GE": 3875,
      "##50": 3876,
      "effectieve": 3877,
      "##alans": 3878,
      "verbeterd": 3879,
      "interacties": 3880,
      "myoc": 3881,
      "place": 3882,
      "prestaties": 3883,
      "doen": 3884,
      "##gehalte": 3885,
      "ree": 3886,
      "dro": 3887,
      "Sinds": 3888,
      "Abd": 3889,
      "MEDICAL": 3890,
      "57": 3891,
      "ij": 3892,
      "cruc": 3893,
      "51": 3894,
      "jonge": 3895,
      "planten": 3896,
      "ref": 3897,
      "Rec": 3898,
      "las": 3899,
      "##agader": 3900,
      "##igh": 3901,
      "##weest": 3902,
      "getest": 3903,
      "mutaties": 3904,
      "##producten": 3905,
      "lact": 3906,
      "endot": 3907,
      "##verm": 3908,
      "geactiv": 3909,
      "##bol": 3910,
      "##alp": 3911,
      "vor": 3912,
      "##yr": 3913,
      "##aciteit": 3914,
      "##yle": 3915,
      "64": 3916,
      "##ochondr": 3917,
      "##sper": 3918,
      "##unct": 3919,
      "##pm": 3920,
      "biom": 3921,
      "onderzoeks": 3922,
      "milde": 3923,
      "bleken": 3924,
      "Cr": 3925,
      "##amma": 3926,
      "##gebied": 3927,
      "##liceerd": 3928,
      "##iene": 3929,
      "##missie": 3930,
      "geweest": 3931,
      "Pl": 3932,
      "derde": 3933,
      "verlen": 3934,
      "voorkeur": 3935,
      "##enz": 3936,
      "##uitgang": 3937,
      "uitstraling": 3938,
      "elkaar": 3939,
      "slechte": 3940,
      "benadering": 3941,
      "59": 3942,
      "##gor": 3943,
      "##iënt": 3944,
      "oudere": 3945,
      "Eer": 3946,
      "##bum": 3947,
      "##man": 3948,
      "lee": 3949,
      "##achten": 3950,
      "vertonen": 3951,
      "enkel": 3952,
      "##ritis": 3953,
      "subst": 3954,
      "metast": 3955,
      "##ance": 3956,
      "##otensie": 3957,
      "noodzakelijk": 3958,
      "aard": 3959,
      "ingre": 3960,
      "vergro": 3961,
      "wijzen": 3962,
      "experimenten": 3963,
      "soort": 3964,
      "invasieve": 3965,
      "##braak": 3966,
      "chemische": 3967,
      "HT": 3968,
      "inclusief": 3969,
      "intraven": 3970,
      "Hy": 3971,
      "stimulatie": 3972,
      "##kking": 3973,
      "##even": 3974,
      "##iseren": 3975,
      "onverander": 3976,
      "##itus": 3977,
      "67": 3978,
      "##vante": 3979,
      "evol": 3980,
      "##spectief": 3981,
      "konden": 3982,
      "spra": 3983,
      "##patiënten": 3984,
      "##kin": 3985,
      "##itatieve": 3986,
      "presenteren": 3987,
      "##istente": 3988,
      "aanwijzingen": 3989,
      "##syn": 3990,
      "##uding": 3991,
      "Lab": 3992,
      "##11": 3993,
      "sep": 3994,
      "weefsels": 3995,
      "uitdag": 3996,
      "##bet": 3997,
      "meld": 3998,
      "toenemende": 3999,
      "Daarnaast": 4000,
      "##zer": 4001,
      "aanvullen": 4002,
      "cent": 4003,
      "##komsten": 4004,
      "uitgedrukt": 4005,
      "##H2O": 4006,
      "##US": 4007,
      "bereiken": 4008,
      "angst": 4009,
      "antilichaam": 4010,
      "##itme": 4011,
      "processen": 4012,
      "120": 4013,
      "##vrij": 4014,
      "##alyse": 4015,
      "gevolgen": 4016,
      "##yla": 4017,
      "72": 4018,
      "overw": 4019,
      "stammen": 4020,
      "##line": 4021,
      "krit": 4022,
      "veronder": 4023,
      "len": 4024,
      "gerapporte": 4025,
      "##inde": 4026,
      "##wak": 4027,
      "##rische": 4028,
      "##ister": 4029,
      "##ylering": 4030,
      "##ymen": 4031,
      "event": 4032,
      "##EC": 4033,
      "structurele": 4034,
      "gepresenteerd": 4035,
      "lijken": 4036,
      "##uut": 4037,
      "inflam": 4038,
      "speelt": 4039,
      "TC": 4040,
      "##ysteem": 4041,
      "dem": 4042,
      "landen": 4043,
      "##hesie": 4044,
      "foc": 4045,
      "midden": 4046,
      "tek": 4047,
      "zes": 4048,
      "mannelijke": 4049,
      "##cell": 4050,
      "Hep": 4051,
      "receptoren": 4052,
      "HE": 4053,
      "gezondheidszorg": 4054,
      "##ior": 4055,
      "85": 4056,
      "mes": 4057,
      "ga": 4058,
      "röntgen": 4059,
      "maal": 4060,
      "##fecten": 4061,
      "traum": 4062,
      "begrip": 4063,
      "breed": 4064,
      "DM": 4065,
      "microg": 4066,
      "##chanis": 4067,
      "opgemerkt": 4068,
      "ernst": 4069,
      "helpen": 4070,
      "mogelijkheid": 4071,
      "resultaat": 4072,
      "gedefin": 4073,
      "ontlasting": 4074,
      "gemedieerde": 4075,
      "genomen": 4076,
      "gecombin": 4077,
      "##dit": 4078,
      "cmH2O": 4079,
      "##bry": 4080,
      "begrijpen": 4081,
      "complexe": 4082,
      "##oloog": 4083,
      "thuis": 4084,
      "termijn": 4085,
      "verwacht": 4086,
      "sn": 4087,
      "##cult": 4088,
      "geïsoleerd": 4089,
      "statistisch": 4090,
      "##gingen": 4091,
      "gef": 4092,
      "bo": 4093,
      "afgifte": 4094,
      "atr": 4095,
      "##atoire": 4096,
      "reeks": 4097,
      "##pre": 4098,
      "bespreken": 4099,
      "massa": 4100,
      "cholesterol": 4101,
      "parameters": 4102,
      "auto": 4103,
      "##ary": 4104,
      "##oma": 4105,
      "technieken": 4106,
      "toegenomen": 4107,
      "##eggen": 4108,
      "fluores": 4109,
      "Eén": 4110,
      "##uwen": 4111,
      "##OP": 4112,
      "beleid": 4113,
      "##oto": 4114,
      "##lasse": 4115,
      "structuren": 4116,
      "benadru": 4117,
      "ec": 4118,
      "recht": 4119,
      "##vaard": 4120,
      "mitochondr": 4121,
      "##ifieke": 4122,
      "sequentie": 4123,
      "Sch": 4124,
      "for": 4125,
      "gebruikte": 4126,
      "##ICU": 4127,
      "##orten": 4128,
      "behalve": 4129,
      "behandelingen": 4130,
      "##tjes": 4131,
      "ziekenhuizen": 4132,
      "tests": 4133,
      "##oring": 4134,
      "CM": 4135,
      "##licht": 4136,
      "resulteerde": 4137,
      "##tem": 4138,
      "##ovasculaire": 4139,
      "prognose": 4140,
      "dood": 4141,
      "volume": 4142,
      "##uiste": 4143,
      "mig": 4144,
      "##idem": 4145,
      "Zij": 4146,
      "##infarct": 4147,
      "Tijdens": 4148,
      "eenheden": 4149,
      "##FT": 4150,
      "efficiën": 4151,
      "##gerelat": 4152,
      "afwezigheid": 4153,
      "afhankelijke": 4154,
      "borstkanker": 4155,
      "##water": 4156,
      "mass": 4157,
      "Lun": 4158,
      "SO": 4159,
      "##xy": 4160,
      "appar": 4161,
      "TR": 4162,
      "##aand": 4163,
      "##ubatie": 4164,
      "##zijn": 4165,
      "CI": 4166,
      "##omin": 4167,
      "naam": 4168,
      "natrium": 4169,
      "##afwijk": 4170,
      "##iltr": 4171,
      "medicatie": 4172,
      "bijdra": 4173,
      "ander": 4174,
      "bevolking": 4175,
      "##gezet": 4176,
      "##osoom": 4177,
      "##prog": 4178,
      "overzicht": 4179,
      "hypoth": 4180,
      "##sloten": 4181,
      "##CC": 4182,
      "observ": 4183,
      "betere": 4184,
      "onveranderd": 4185,
      "Bel": 4186,
      "uL": 4187,
      "vitamine": 4188,
      "vermeld": 4189,
      "##oscopie": 4190,
      "gehouden": 4191,
      "aspect": 4192,
      "##inatie": 4193,
      "as": 4194,
      "##ugen": 4195,
      "cognitieve": 4196,
      "Diagn": 4197,
      "##gezondheid": 4198,
      "##erkt": 4199,
      "nad": 4200,
      "geslacht": 4201,
      "kal": 4202,
      "loop": 4203,
      "##itheel": 4204,
      "63": 4205,
      "bijdragen": 4206,
      "embry": 4207,
      "persoon": 4208,
      "76": 4209,
      "##cycl": 4210,
      "##attern": 4211,
      "##angen": 4212,
      "##volle": 4213,
      "##komt": 4214,
      "ET": 4215,
      "##PS": 4216,
      "##formatie": 4217,
      "##slagen": 4218,
      "gezicht": 4219,
      "bijzonder": 4220,
      "##toe": 4221,
      "bronch": 4222,
      "##VT": 4223,
      "chemotherapie": 4224,
      "##cur": 4225,
      "##LA": 4226,
      "naast": 4227,
      "##iger": 4228,
      "LE": 4229,
      "##houdende": 4230,
      "werkzaamheid": 4231,
      "##odynamische": 4232,
      "dier": 4233,
      "INR": 4234,
      "##eeds": 4235,
      "##EL": 4236,
      "##osyn": 4237,
      "##entegen": 4238,
      "##ergieën": 4239,
      "##bruik": 4240,
      "##lucose": 4241,
      "ledematen": 4242,
      "relatieve": 4243,
      "##ialen": 4244,
      "62": 4245,
      "##irst": 4246,
      "##kle": 4247,
      "##zij": 4248,
      "verwijderd": 4249,
      "##dequ": 4250,
      "##mit": 4251,
      "##stroom": 4252,
      "verzameld": 4253,
      "zwak": 4254,
      "langdurige": 4255,
      "BLO": 4256,
      "##bep": 4257,
      "nuttig": 4258,
      "CX": 4259,
      "maximale": 4260,
      "##iner": 4261,
      "Ad": 4262,
      "##lav": 4263,
      "geboorte": 4264,
      "brengen": 4265,
      "geselect": 4266,
      "IVF": 4267,
      "gtt": 4268,
      "##blemen": 4269,
      "des": 4270,
      "geïnduceerd": 4271,
      "MA": 4272,
      "##uiving": 4273,
      "##merg": 4274,
      "ging": 4275,
      "risicofactoren": 4276,
      "cr": 4277,
      "##com": 4278,
      "intens": 4279,
      "secundaire": 4280,
      "eenvoudige": 4281,
      "veroorzaakte": 4282,
      "psychi": 4283,
      "abn": 4284,
      "synth": 4285,
      "##amm": 4286,
      "amino": 4287,
      "impact": 4288,
      "arteriële": 4289,
      "kern": 4290,
      "stop": 4291,
      "prop": 4292,
      "##mechanis": 4293,
      "laboratoria": 4294,
      "aanzienlijke": 4295,
      "out": 4296,
      "68": 4297,
      "##li": 4298,
      "##lit": 4299,
      "Her": 4300,
      "BLOOD": 4301,
      "cur": 4302,
      "gepub": 4303,
      "NS": 4304,
      "wegens": 4305,
      "66": 4306,
      "##micro": 4307,
      "##isie": 4308,
      "##handel": 4309,
      "##ventionele": 4310,
      "uiter": 4311,
      "drug": 4312,
      "doses": 4313,
      "grootste": 4314,
      "uitgebreid": 4315,
      "##clusie": 4316,
      "##ds": 4317,
      "gegener": 4318,
      "##yth": 4319,
      "##MA": 4320,
      "##orter": 4321,
      "##dif": 4322,
      "effectiviteit": 4323,
      "##productie": 4324,
      "oxid": 4325,
      "stoornissen": 4326,
      "##stemen": 4327,
      "##pret": 4328,
      "##chol": 4329,
      "##NP": 4330,
      "bacteriële": 4331,
      "bewust": 4332,
      "##CA": 4333,
      "beperkte": 4334,
      "mutatie": 4335,
      "differentiatie": 4336,
      "red": 4337,
      "fysiologische": 4338,
      "bilaterale": 4339,
      "##abiliteit": 4340,
      "##proces": 4341,
      "78": 4342,
      "##utane": 4343,
      "lichte": 4344,
      "so": 4345,
      "huisartsen": 4346,
      "metabole": 4347,
      "ondanks": 4348,
      "prob": 4349,
      "stoffen": 4350,
      "cytok": 4351,
      "##schr": 4352,
      "metingen": 4353,
      "##PD": 4354,
      "gaf": 4355,
      "##orale": 4356,
      "lo": 4357,
      "antigeen": 4358,
      "verantwoordelijk": 4359,
      "motor": 4360,
      "##enen": 4361,
      "chirurgie": 4362,
      "gemakkelijk": 4363,
      "zeldzame": 4364,
      "punt": 4365,
      "##lever": 4366,
      "##ated": 4367,
      "scan": 4368,
      "gecontroleerd": 4369,
      "##olom": 4370,
      "voorgesteld": 4371,
      "laesies": 4372,
      "controlegroep": 4373,
      "CS": 4374,
      "score": 4375,
      "Veren": 4376,
      "continue": 4377,
      "##ritme": 4378,
      "regulatie": 4379,
      "control": 4380,
      "73": 4381,
      "gebruikten": 4382,
      "ontstekings": 4383,
      "First": 4384,
      "##ular": 4385,
      "Ho": 4386,
      "##loop": 4387,
      "staan": 4388,
      "slaap": 4389,
      "94": 4390,
      "Dr": 4391,
      "onderscheiden": 4392,
      "ED": 4393,
      "##techn": 4394,
      "natuurlijke": 4395,
      "geschikt": 4396,
      "##ylo": 4397,
      "##ining": 4398,
      "##sver": 4399,
      "pan": 4400,
      "bovenste": 4401,
      "##kelet": 4402,
      "mort": 4403,
      "##atroon": 4404,
      "MEAS": 4405,
      "veld": 4406,
      "##opsie": 4407,
      "index": 4408,
      "##entieel": 4409,
      "testen": 4410,
      "##utum": 4411,
      "criteria": 4412,
      "apoptose": 4413,
      "betreft": 4414,
      "##grootte": 4415,
      "77": 4416,
      "##omer": 4417,
      "syst": 4418,
      "Mg": 4419,
      "sat": 4420,
      "fract": 4421,
      "VALUE": 4422,
      "inflammat": 4423,
      "tegenstelling": 4424,
      "##ly": 4425,
      "graden": 4426,
      "Ant": 4427,
      "onafhankelijk": 4428,
      "delen": 4429,
      "melan": 4430,
      "##amide": 4431,
      "werking": 4432,
      "associatie": 4433,
      "##niveau": 4434,
      "##gerelateerde": 4435,
      "prec": 4436,
      "zicht": 4437,
      "##zijd": 4438,
      "Inter": 4439,
      "mening": 4440,
      "synthese": 4441,
      "beta": 4442,
      "Hem": 4443,
      "##rect": 4444,
      "bacteriën": 4445,
      "neus": 4446,
      "IF": 4447,
      "DP": 4448,
      "##vlies": 4449,
      "virale": 4450,
      "ondergaan": 4451,
      "##Pattern": 4452,
      "weg": 4453,
      "paar": 4454,
      "##gezien": 4455,
      "##drag": 4456,
      "NamePattern": 4457,
      "inductie": 4458,
      "##innen": 4459,
      "##tijdige": 4460,
      "##kten": 4461,
      "bevorderen": 4462,
      "##YP": 4463,
      "##verlen": 4464,
      "opmerk": 4465,
      "therm": 4466,
      "##kens": 4467,
      "gist": 4468,
      "ontbre": 4469,
      "tach": 4470,
      "ax": 4471,
      "onvoldoende": 4472,
      "kwam": 4473,
      "##monsters": 4474,
      "juiste": 4475,
      "##ulose": 4476,
      "##voudig": 4477,
      "93": 4478,
      "##ctor": 4479,
      "##emd": 4480,
      "##LC": 4481,
      "##heugen": 4482,
      "rechts": 4483,
      "##aardige": 4484,
      "##teerde": 4485,
      "##oh": 4486,
      "mortaliteit": 4487,
      "richtlijnen": 4488,
      "##actieve": 4489,
      "peptide": 4490,
      "gerelateerde": 4491,
      "prom": 4492,
      "##asis": 4493,
      "Hart": 4494,
      "toevoe": 4495,
      "69": 4496,
      "dagelijkse": 4497,
      "##int": 4498,
      "92": 4499,
      "Th": 4500,
      "nit": 4501,
      "review": 4502,
      "katal": 4503,
      "##onent": 4504,
      "Un": 4505,
      "COV": 4506,
      "recidief": 4507,
      "EN": 4508,
      "SR": 4509,
      "gediagnost": 4510,
      "##wacht": 4511,
      "schild": 4512,
      "SpO2": 4513,
      "specific": 4514,
      "##oer": 4515,
      "##ating": 4516,
      "##igt": 4517,
      "61": 4518,
      "seg": 4519,
      "gedeeltelijk": 4520,
      "geregist": 4521,
      "sprake": 4522,
      "analyses": 4523,
      "##TAB": 4524,
      "gekwee": 4525,
      "##nam": 4526,
      "gere": 4527,
      "##imm": 4528,
      "exc": 4529,
      "Ass": 4530,
      "##dieren": 4531,
      "resistentie": 4532,
      "protocol": 4533,
      "##VE": 4534,
      "##ufficiëntie": 4535,
      "gebracht": 4536,
      "im": 4537,
      "vrouwelijke": 4538,
      "##factor": 4539,
      "##structuur": 4540,
      "hypox": 4541,
      "Disp": 4542,
      "NM": 4543,
      "oplossing": 4544,
      "resid": 4545,
      "meten": 4546,
      "88": 4547,
      "Comment": 4548,
      "##etten": 4549,
      "geld": 4550,
      "besmet": 4551,
      "minste": 4552,
      "##cg": 4553,
      "rij": 4554,
      "##efal": 4555,
      "mede": 4556,
      "bestuderen": 4557,
      "##nemen": 4558,
      "ontsteking": 4559,
      "##isen": 4560,
      "Totaal": 4561,
      "##roffen": 4562,
      "aspir": 4563,
      "milie": 4564,
      "behandelen": 4565,
      "##lijn": 4566,
      "##ace": 4567,
      "daalde": 4568,
      "bevat": 4569,
      "dun": 4570,
      "schat": 4571,
      "klasse": 4572,
      "qu": 4573,
      "##komstig": 4574,
      "tre": 4575,
      "vez": 4576,
      "##inst": 4577,
      "##gevoe": 4578,
      "##foto": 4579,
      "##wissel": 4580,
      "uitvo": 4581,
      "postoperatieve": 4582,
      "helft": 4583,
      "##kundigen": 4584,
      "##OM": 4585,
      "Do": 4586,
      "namelijk": 4587,
      "links": 4588,
      "##venties": 4589,
      "##eline": 4590,
      "##bumine": 4591,
      "Verg": 4592,
      "Verder": 4593,
      "##ysp": 4594,
      "gastheer": 4595,
      "##icus": 4596,
      "##53": 4597,
      "herken": 4598,
      "81": 4599,
      "sche": 4600,
      "COVID": 4601,
      "##IST": 4602,
      "beschrij": 4603,
      "##ijm": 4604,
      "84": 4605,
      "##les": 4606,
      "hoeveelheden": 4607,
      "inflammatoire": 4608,
      "beeldvorming": 4609,
      "rapporteren": 4610,
      "mechanische": 4611,
      "leeftijds": 4612,
      "##INE": 4613,
      "interval": 4614,
      "##raz": 4615,
      "74": 4616,
      "matige": 4617,
      "jong": 4618,
      "team": 4619,
      "##rd": 4620,
      "##iO2": 4621,
      "pap": 4622,
      "pleurale": 4623,
      "uitsluit": 4624,
      "fl": 4625,
      "daling": 4626,
      "glut": 4627,
      "##ilisatie": 4628,
      "##rum": 4629,
      "non": 4630,
      "behouden": 4631,
      "El": 4632,
      "##methode": 4633,
      "transcript": 4634,
      "##xpressie": 4635,
      "maand": 4636,
      "ontwikkelde": 4637,
      "neurologische": 4638,
      "400": 4639,
      "sm": 4640,
      "##ieure": 4641,
      "ON": 4642,
      "##voeding": 4643,
      "##olaire": 4644,
      "##studies": 4645,
      "onderliggende": 4646,
      "besl": 4647,
      "rekening": 4648,
      "systemische": 4649,
      "lengte": 4650,
      "Sc": 4651,
      "golf": 4652,
      "class": 4653,
      "enzymen": 4654,
      "##respons": 4655,
      "##edi": 4656,
      "##leg": 4657,
      "Tr": 4658,
      "##seud": 4659,
      "##gelijk": 4660,
      "subc": 4661,
      "vele": 4662,
      "##testinale": 4663,
      "##bed": 4664,
      "##reedt": 4665,
      "langer": 4666,
      "domein": 4667,
      "essentieel": 4668,
      "katheter": 4669,
      "dikk": 4670,
      "gren": 4671,
      "##enter": 4672,
      "conventionele": 4673,
      "spre": 4674,
      "##OL": 4675,
      "overdracht": 4676,
      "oedeem": 4677,
      "##oxy": 4678,
      "##max": 4679,
      "piek": 4680,
      "##rofie": 4681,
      "stabiele": 4682,
      "onduidelijk": 4683,
      "neemt": 4684,
      "##lijden": 4685,
      "##ïde": 4686,
      "werken": 4687,
      "##telijke": 4688,
      "gastro": 4689,
      "zorgen": 4690,
      "afgeleid": 4691,
      "inname": 4692,
      "wond": 4693,
      "antic": 4694,
      "concluderen": 4695,
      "ogen": 4696,
      "rust": 4697,
      "gamma": 4698,
      "##oscopische": 4699,
      "gekopp": 4700,
      "##erings": 4701,
      "beste": 4702,
      "##oglob": 4703,
      "placebo": 4704,
      "##ationele": 4705,
      "##vloe": 4706,
      "krist": 4707,
      "recent": 4708,
      "fosfor": 4709,
      "coronaire": 4710,
      "transplantatie": 4711,
      "dienen": 4712,
      "veiligheid": 4713,
      "CONDITION": 4714,
      "overeenstemming": 4715,
      "WIT": 4716,
      "componenten": 4717,
      "macrof": 4718,
      "DVT": 4719,
      "anders": 4720,
      "zout": 4721,
      "mot": 4722,
      "reage": 4723,
      "##oll": 4724,
      "kant": 4725,
      "gecorrel": 4726,
      "onlangs": 4727,
      "PTT": 4728,
      "endotheel": 4729,
      "##andid": 4730,
      "coh": 4731,
      "ochten": 4732,
      "resulteert": 4733,
      "veneuze": 4734,
      "vorige": 4735,
      "toepassingen": 4736,
      "hoogte": 4737,
      "##udenten": 4738,
      "bestond": 4739,
      "##eringen": 4740,
      "##apar": 4741,
      "gediagnostic": 4742,
      "##rik": 4743,
      "bol": 4744,
      "lum": 4745,
      "herst": 4746,
      "Ondanks": 4747,
      "elektronen": 4748,
      "##linische": 4749,
      "AS": 4750,
      "##uld": 4751,
      "longen": 4752,
      "oest": 4753,
      "Reden": 4754,
      "Par": 4755,
      "coli": 4756,
      "hypotensie": 4757,
      "##gaand": 4758,
      "Lin": 4759,
      "Ont": 4760,
      "genoemd": 4761,
      "##aps": 4762,
      "86": 4763,
      "##uwe": 4764,
      "##pol": 4765,
      "recombin": 4766,
      "zodat": 4767,
      "uitbre": 4768,
      "optimale": 4769,
      "interne": 4770,
      "oorzaken": 4771,
      "feit": 4772,
      "##aars": 4773,
      "variëren": 4774,
      "indicatie": 4775,
      "behoefte": 4776,
      "##iratoire": 4777,
      "##iol": 4778,
      "zeker": 4779,
      "patroon": 4780,
      "voordelen": 4781,
      "##besch": 4782,
      "lichamelijk": 4783,
      "83": 4784,
      "ervaring": 4785,
      "79": 4786,
      "medisch": 4787,
      "roken": 4788,
      "TNF": 4789,
      "gestart": 4790,
      "onver": 4791,
      "inzicht": 4792,
      "prostaat": 4793,
      "gaven": 4794,
      "kru": 4795,
      "##otide": 4796,
      "##ella": 4797,
      "##lastische": 4798,
      "##ogram": 4799,
      "sluit": 4800,
      "##ees": 4801,
      "plaatsing": 4802,
      "nab": 4803,
      "ov": 4804,
      "##controle": 4805,
      "dikke": 4806,
      "implant": 4807,
      "const": 4808,
      "carb": 4809,
      "##tubeerd": 4810,
      "##ontste": 4811,
      "steek": 4812,
      "ijzer": 4813,
      "##olon": 4814,
      "##bouw": 4815,
      "##volen": 4816,
      "morbiditeit": 4817,
      "dubbel": 4818,
      "##ront": 4819,
      "gebrek": 4820,
      "peri": 4821,
      "slotte": 4822,
      "##uist": 4823,
      "FINAL": 4824,
      "##rill": 4825,
      "##RT": 4826,
      "gering": 4827,
      "moleculen": 4828,
      "##punt": 4829,
      "verschuiving": 4830,
      "verstre": 4831,
      "helder": 4832,
      "disc": 4833,
      "gesp": 4834,
      "##ars": 4835,
      "##rectie": 4836,
      "Toe": 4837,
      "myocard": 4838,
      "##delingen": 4839,
      "##spiegel": 4840,
      "71": 4841,
      "##stoornis": 4842,
      "89": 4843,
      "onbekend": 4844,
      "tren": 4845,
      "##ageren": 4846,
      "##itone": 4847,
      "##ationale": 4848,
      "140": 4849,
      "geïnfecteerde": 4850,
      "frag": 4851,
      "plaatsv": 4852,
      "##adiging": 4853,
      "variatie": 4854,
      "##osomen": 4855,
      "bestr": 4856,
      "##drukken": 4857,
      "regressie": 4858,
      "CA": 4859,
      "kopp": 4860,
      "##wicht": 4861,
      "FiO2": 4862,
      "intr": 4863,
      "ligt": 4864,
      "hiervan": 4865,
      "##sens": 4866,
      "##oit": 4867,
      "ident": 4868,
      "##press": 4869,
      "##appar": 4870,
      "##eerbare": 4871,
      "##werp": 4872,
      "##zetting": 4873,
      "uiteindelijk": 4874,
      "##omatische": 4875,
      "vergelijken": 4876,
      "82": 4877,
      "lymfocyten": 4878,
      "tet": 4879,
      "##fusies": 4880,
      "##fib": 4881,
      "leidde": 4882,
      "asy": 4883,
      "regul": 4884,
      "bindende": 4885,
      "sinus": 4886,
      "beperkingen": 4887,
      "remmer": 4888,
      "##brale": 4889,
      "##arb": 4890,
      "signalering": 4891,
      "Care": 4892,
      "##wegingen": 4893,
      "hepatitis": 4894,
      "remmers": 4895,
      "clu": 4896,
      "verwijdering": 4897,
      "##etting": 4898,
      "##amn": 4899,
      "##pop": 4900,
      "epidem": 4901,
      "##DS": 4902,
      "veranderde": 4903,
      "deeltjes": 4904,
      "materiaal": 4905,
      "blaas": 4906,
      "##dr": 4907,
      "adequ": 4908,
      "specificiteit": 4909,
      "Verschillen": 4910,
      "kie": 4911,
      "##uul": 4912,
      "##olerantie": 4913,
      "Laat": 4914,
      "##ital": 4915,
      "ouderen": 4916,
      "VS": 4917,
      "##ondersteun": 4918,
      "gecorreleerd": 4919,
      "##letsel": 4920,
      "dagelijks": 4921,
      "heup": 4922,
      "hoogste": 4923,
      "ren": 4924,
      "Amerikaanse": 4925,
      "diverse": 4926,
      "##loc": 4927,
      "##plaatjes": 4928,
      "ontwikkelings": 4929,
      "geproduceerd": 4930,
      "aanvankelijk": 4931,
      "gran": 4932,
      "##wand": 4933,
      "##ff": 4934,
      "berekend": 4935,
      "toegang": 4936,
      "cardiovasculaire": 4937,
      "genoom": 4938,
      "verster": 4939,
      "WITH": 4940,
      "##week": 4941,
      "hybr": 4942,
      "87": 4943,
      "extre": 4944,
      "vermoed": 4945,
      "vooruitgang": 4946,
      "programma": 4947,
      "CB": 4948,
      "hypothese": 4949,
      "##itas": 4950,
      "liggen": 4951,
      "inge": 4952,
      "cc": 4953,
      "##itoren": 4954,
      "##tingen": 4955,
      "##boven": 4956,
      "##rib": 4957,
      "##usc": 4958,
      "po": 4959,
      "aanbevolen": 4960,
      "RS": 4961,
      "##lekeur": 4962,
      "##fosf": 4963,
      "tel": 4964,
      "##fort": 4965,
      "Comp": 4966,
      "91": 4967,
      "##TABLE": 4968,
      "##ontsteking": 4969,
      "##icine": 4970,
      "accum": 4971,
      "consistent": 4972,
      "##akken": 4973,
      "Verander": 4974,
      "PER": 4975,
      "enter": 4976,
      "197": 4977,
      "##ONE": 4978,
      "##ids": 4979,
      "reeds": 4980,
      "gedefinieerd": 4981,
      "##orac": 4982,
      "##osa": 4983,
      "##afwijkingen": 4984,
      "hetzelfde": 4985,
      "##ole": 4986,
      "##spectieve": 4987,
      "##ET": 4988,
      "##chemische": 4989,
      "##sectie": 4990,
      "vaccinatie": 4991,
      "##pens": 4992,
      "toxiciteit": 4993,
      "##cefal": 4994,
      "remmen": 4995,
      "##ogenese": 4996,
      "TP": 4997,
      "##liceerde": 4998,
      "##BI": 4999,
      "proliferatie": 5000,
      "Huid": 5001,
      "##ellitus": 5002,
      "##rucht": 5003,
      "tele": 5004,
      "contex": 5005,
      "netwerk": 5006,
      "afwijking": 5007,
      "mic": 5008,
      "anest": 5009,
      "##kelijke": 5010,
      "NH": 5011,
      "##orische": 5012,
      "##recept": 5013,
      "selectieve": 5014,
      "intro": 5015,
      "steekpro": 5016,
      "ie": 5017,
      "##IG": 5018,
      "##entan": 5019,
      "##scheiding": 5020,
      "Code": 5021,
      "##orr": 5022,
      "omvat": 5023,
      "Rh": 5024,
      "##örd": 5025,
      "300": 5026,
      "beelden": 5027,
      "lineaire": 5028,
      "##modellen": 5029,
      "plaatsen": 5030,
      "##rokken": 5031,
      "##gedrag": 5032,
      "##veranderingen": 5033,
      "##esitas": 5034,
      "emot": 5035,
      "##bron": 5036,
      "##IA": 5037,
      "schildklier": 5038,
      "opgel": 5039,
      "Laatste": 5040,
      "afstand": 5041,
      "##oplos": 5042,
      "ik": 5043,
      "uitslag": 5044,
      "waarmee": 5045,
      "##biële": 5046,
      "##nia": 5047,
      "Gegeven": 5048,
      "##staan": 5049,
      "##cyten": 5050,
      "ochtend": 5051,
      "##vari": 5052,
      "##aging": 5053,
      "angio": 5054,
      "STA": 5055,
      "monitoren": 5056,
      "medicijn": 5057,
      "##erkte": 5058,
      "bedro": 5059,
      "dw": 5060,
      "afdeling": 5061,
      "##organis": 5062,
      "benaderingen": 5063,
      "colle": 5064,
      "##achtige": 5065,
      "dys": 5066,
      "All": 5067,
      "geregistreerd": 5068,
      "geble": 5069,
      "##beloven": 5070,
      "nacht": 5071,
      "polik": 5072,
      "##ocht": 5073,
      "alk": 5074,
      "##concentraties": 5075,
      "##glyc": 5076,
      "mellitus": 5077,
      "epitheel": 5078,
      "obstructie": 5079,
      "myel": 5080,
      "angi": 5081,
      "pen": 5082,
      "##TIE": 5083,
      "Ter": 5084,
      "##ioneel": 5085,
      "##werken": 5086,
      "gang": 5087,
      "Sinus": 5088,
      "py": 5089,
      "##iva": 5090,
      "resectie": 5091,
      "NC": 5092,
      "identificatie": 5093,
      "SBP": 5094,
      "systolische": 5095,
      "veronderst": 5096,
      "verdw": 5097,
      "##lijst": 5098,
      "reguleren": 5099,
      "130": 5100,
      "mond": 5101,
      "veranderd": 5102,
      "minimale": 5103,
      "presen": 5104,
      "veelbeloven": 5105,
      "willekeur": 5106,
      "gevorm": 5107,
      "tuberc": 5108,
      "omgek": 5109,
      "CXR": 5110,
      "ment": 5111,
      "verkrijgen": 5112,
      "##grond": 5113,
      "Plt": 5114,
      "##ement": 5115,
      "##uline": 5116,
      "##TP": 5117,
      "dop": 5118,
      "geassocieerde": 5119,
      "Continue": 5120,
      "ontvangen": 5121,
      "##mens": 5122,
      "##too": 5123,
      "fysieke": 5124,
      "##ATION": 5125,
      "termen": 5126,
      "OP": 5127,
      "##cy": 5128,
      "dichtheid": 5129,
      "produceren": 5130,
      "iets": 5131,
      "##specifieke": 5132,
      "matr": 5133,
      "interventies": 5134,
      "##aarm": 5135,
      "epile": 5136,
      "bloedplaatjes": 5137,
      "##bul": 5138,
      "cas": 5139,
      "los": 5140,
      "ruimte": 5141,
      "##dheid": 5142,
      "##sterd": 5143,
      "##UR": 5144,
      "aanvullende": 5145,
      "sepsis": 5146,
      "##ytro": 5147,
      "leveren": 5148,
      "daarop": 5149,
      "wijten": 5150,
      "vertegenwoord": 5151,
      "##frequ": 5152,
      "##omat": 5153,
      "eens": 5154,
      "aanvallen": 5155,
      "##gemakkelijk": 5156,
      "##factoren": 5157,
      "##heet": 5158,
      "##30": 5159,
      "pancre": 5160,
      "keuze": 5161,
      "HS": 5162,
      "##ben": 5163,
      "##opname": 5164,
      "##transplantatie": 5165,
      "ondergingen": 5166,
      "stabiliteit": 5167,
      "##iep": 5168,
      "##idase": 5169,
      "witte": 5170,
      "muis": 5171,
      "zogen": 5172,
      "##derde": 5173,
      "mediane": 5174,
      "##ometrie": 5175,
      "verhouding": 5176,
      "##vies": 5177,
      "sed": 5178,
      "beweging": 5179,
      "milj": 5180,
      "kader": 5181,
      "overwogen": 5182,
      "##ross": 5183,
      "##ice": 5184,
      "aspecten": 5185,
      "verschijnselen": 5186,
      "##DNA": 5187,
      "##yg": 5188,
      "cultuur": 5189,
      "aanhoudende": 5190,
      "slagader": 5191,
      "IgG": 5192,
      "##cten": 5193,
      "CD4": 5194,
      "##tijdig": 5195,
      "pass": 5196,
      "Gezien": 5197,
      "bru": 5198,
      "##osine": 5199,
      "IFN": 5200,
      "betrouwbaarheid": 5201,
      "toegevoe": 5202,
      "isolaten": 5203,
      "fem": 5204,
      "##ijfers": 5205,
      "##finiteit": 5206,
      "onafhankelijke": 5207,
      "ATP": 5208,
      "##ipp": 5209,
      "##oppervlak": 5210,
      "gevoelig": 5211,
      "afgeleide": 5212,
      "Aangezien": 5213,
      "diameter": 5214,
      "##ijding": 5215,
      "gebeurtenissen": 5216,
      "toekomstige": 5217,
      "anat": 5218,
      "##dis": 5219,
      "110": 5220,
      "##LL": 5221,
      "acetyl": 5222,
      "sper": 5223,
      "##heids": 5224,
      "##ekt": 5225,
      "respon": 5226,
      "##stoffen": 5227,
      "uitkomsten": 5228,
      "##onine": 5229,
      "multip": 5230,
      "Baby": 5231,
      "OF": 5232,
      "geneesmiddel": 5233,
      "onderzochte": 5234,
      "keten": 5235,
      "geheugen": 5236,
      "##cludeerd": 5237,
      "dynam": 5238,
      "##orden": 5239,
      "log": 5240,
      "tar": 5241,
      "epis": 5242,
      "Som": 5243,
      "##oerte": 5244,
      "##ull": 5245,
      "geïntubeerd": 5246,
      "computer": 5247,
      "##lees": 5248,
      "##icum": 5249,
      "stre": 5250,
      "##ote": 5251,
      "veranderen": 5252,
      "neurale": 5253,
      "ty": 5254,
      "##HC": 5255,
      "nucleaire": 5256,
      "##ifest": 5257,
      "late": 5258,
      "##arcinoom": 5259,
      "achtige": 5260,
      "##binding": 5261,
      "geluiden": 5262,
      "##issie": 5263,
      "neurop": 5264,
      "intracellulaire": 5265,
      "##vermogen": 5266,
      "##ring": 5267,
      "##OC": 5268,
      "obesitas": 5269,
      "echografie": 5270,
      "site": 5271,
      "kwamen": 5272,
      "kwantitatieve": 5273,
      "##stelsel": 5274,
      "beroe": 5275,
      "activ": 5276,
      "mur": 5277,
      "studenten": 5278,
      "beschikbare": 5279,
      "HB": 5280,
      "terugk": 5281,
      "blokk": 5282,
      "voeren": 5283,
      "intestinale": 5284,
      "##cler": 5285,
      "##riè": 5286,
      "hypot": 5287,
      "ulcer": 5288,
      "##fiel": 5289,
      "blootgesteld": 5290,
      "nec": 5291,
      "MAP": 5292,
      "afbraak": 5293,
      "##udt": 5294,
      "substraat": 5295,
      "##loor": 5296,
      "1000": 5297,
      "##stam": 5298,
      "##urie": 5299,
      "##obacter": 5300,
      "##raken": 5301,
      "##beelden": 5302,
      "##olip": 5303,
      "At": 5304,
      "endoc": 5305,
      "##pl": 5306,
      "##PM": 5307,
      "interpret": 5308,
      "milieu": 5309,
      "Echter": 5310,
      "ontdekten": 5311,
      "enig": 5312,
      "zeggen": 5313,
      "locatie": 5314,
      "##greg": 5315,
      "betrokkenheid": 5316,
      "##strateg": 5317,
      "##uigen": 5318,
      "vaste": 5319,
      "gla": 5320,
      "olig": 5321,
      "##inn": 5322,
      "il": 5323,
      "vanuit": 5324,
      "##athie": 5325,
      "pathogenese": 5326,
      "infiltr": 5327,
      "##gren": 5328,
      "kamer": 5329,
      "##ursus": 5330,
      "##volume": 5331,
      "##ozen": 5332,
      "onderscheid": 5333,
      "ontworpen": 5334,
      "##flu": 5335,
      "ventriculaire": 5336,
      "colon": 5337,
      "mob": 5338,
      "maatregelen": 5339,
      "organismen": 5340,
      "Soc": 5341,
      "waarop": 5342,
      "gediagnosticeerd": 5343,
      "strategieën": 5344,
      "##illine": 5345,
      "##istoffen": 5346,
      "##IF": 5347,
      "heparine": 5348,
      "relevante": 5349,
      "erytro": 5350,
      "vond": 5351,
      "wijze": 5352,
      "##geschreven": 5353,
      "##URE": 5354,
      "##cyt": 5355,
      "VAP": 5356,
      "##ocytose": 5357,
      "##ala": 5358,
      "lys": 5359,
      "vergemakkelijk": 5360,
      "hol": 5361,
      "context": 5362,
      "colla": 5363,
      "##kracht": 5364,
      "##oriën": 5365,
      "##kanaal": 5366,
      "##16": 5367,
      "##isico": 5368,
      "Cardi": 5369,
      "##orende": 5370,
      "meth": 5371,
      "functioneren": 5372,
      "aminozuur": 5373,
      "##GA": 5374,
      "gerandomiseerde": 5375,
      "BC": 5376,
      "gebonden": 5377,
      "cardiale": 5378,
      "ide": 5379,
      "ingreep": 5380,
      "erop": 5381,
      "##inanc": 5382,
      "rect": 5383,
      "##entiële": 5384,
      "oorsprong": 5385,
      "##ctieve": 5386,
      "beroerte": 5387,
      "gerichte": 5388,
      "##ummer": 5389,
      "nm": 5390,
      "gewricht": 5391,
      "##otomie": 5392,
      "##ser": 5393,
      "##lucht": 5394,
      "##resultaten": 5395,
      "visuele": 5396,
      "overgang": 5397,
      "richtlijn": 5398,
      "Hyper": 5399,
      "resol": 5400,
      "##13": 5401,
      "ng": 5402,
      "rib": 5403,
      "##romat": 5404,
      "referentie": 5405,
      "down": 5406,
      "schimm": 5407,
      "Vervolgens": 5408,
      "##handeling": 5409,
      "pathologische": 5410,
      "##agement": 5411,
      "##tel": 5412,
      "wervel": 5413,
      "##ju": 5414,
      "Glucose": 5415,
      "##HT": 5416,
      "regist": 5417,
      "##darm": 5418,
      "afkomstig": 5419,
      "vas": 5420,
      "##acine": 5421,
      "Ik": 5422,
      "##MC": 5423,
      "##olyse": 5424,
      "Pre": 5425,
      "##entanyl": 5426,
      "rout": 5427,
      "##insufficiëntie": 5428,
      "top": 5429,
      "##chirurg": 5430,
      "dysp": 5431,
      "##ites": 5432,
      "ischemie": 5433,
      "bpm": 5434,
      "onc": 5435,
      "##versie": 5436,
      "bedroeg": 5437,
      "##ificeerd": 5438,
      "Pul": 5439,
      "verdeling": 5440,
      "##eus": 5441,
      "##itle": 5442,
      "##beoordeling": 5443,
      "chromosoom": 5444,
      "carcinoom": 5445,
      "Tem": 5446,
      "namen": 5447,
      "##uurd": 5448,
      "Daarentegen": 5449,
      "voorlop": 5450,
      "##ifactor": 5451,
      "lipide": 5452,
      "populaties": 5453,
      "ABD": 5454,
      "toch": 5455,
      "infusie": 5456,
      "##gebonden": 5457,
      "Verschillende": 5458,
      "##ulus": 5459,
      "oxidatieve": 5460,
      "neon": 5461,
      "detecteren": 5462,
      "lapar": 5463,
      "##ector": 5464,
      "strategie": 5465,
      "hartfalen": 5466,
      "##UC": 5467,
      "##iekenhuis": 5468,
      "##aringen": 5469,
      "##ube": 5470,
      "##oppler": 5471,
      "lopen": 5472,
      "##FI": 5473,
      "verklaren": 5474,
      "##schappelijk": 5475,
      "Hg": 5476,
      "GU": 5477,
      "##allen": 5478,
      "uitgesloten": 5479,
      "##oles": 5480,
      "gunstig": 5481,
      "ol": 5482,
      "Rechte": 5483,
      "voorgeschiedenis": 5484,
      "betekenis": 5485,
      "vrijwel": 5486,
      "warm": 5487,
      "##embran": 5488,
      "dosering": 5489,
      "##eller": 5490,
      "##medi": 5491,
      "sept": 5492,
      "ontwerp": 5493,
      "##arree": 5494,
      "##ATIENT": 5495,
      "astma": 5496,
      "##ilat": 5497,
      "wijst": 5498,
      "PEEP": 5499,
      "##oeg": 5500,
      "sup": 5501,
      "polymer": 5502,
      "##anol": 5503,
      "##ember": 5504,
      "##char": 5505,
      "Men": 5506,
      "##ton": 5507,
      "##rijke": 5508,
      "##expressie": 5509,
      "laterale": 5510,
      "relev": 5511,
      "gehalte": 5512,
      "transport": 5513,
      "dunne": 5514,
      "Meer": 5515,
      "Volgens": 5516,
      "##ieven": 5517,
      "terminale": 5518,
      "situatie": 5519,
      "##onucle": 5520,
      "prox": 5521,
      "##ksgezondheid": 5522,
      "ervaren": 5523,
      "gemeenschap": 5524,
      "toevoeging": 5525,
      "regelmatig": 5526,
      "omvang": 5527,
      "##reatinine": 5528,
      "THIS": 5529,
      "##balans": 5530,
      "##ethyl": 5531,
      "##schreven": 5532,
      "spontane": 5533,
      "Dif": 5534,
      "##umenten": 5535,
      "cerv": 5536,
      "##eurys": 5537,
      "##zeker": 5538,
      "richting": 5539,
      "procent": 5540,
      "drain": 5541,
      "zuig": 5542,
      "##hang": 5543,
      "##ner": 5544,
      "theor": 5545,
      "mogelijkheden": 5546,
      "ion": 5547,
      "##ectomie": 5548,
      "wijz": 5549,
      "sequenties": 5550,
      "##umor": 5551,
      "producten": 5552,
      "genexpressie": 5553,
      "acuut": 5554,
      "overlijden": 5555,
      "CONTR": 5556,
      "voordat": 5557,
      "##iende": 5558,
      "categ": 5559,
      "gehad": 5560,
      "##ue": 5561,
      "voorgestelde": 5562,
      "sol": 5563,
      "bijdrage": 5564,
      "##onin": 5565,
      "controleren": 5566,
      "##complex": 5567,
      "##hoog": 5568,
      "lichaamsgewicht": 5569,
      "##UT": 5570,
      "domin": 5571,
      "##ofag": 5572,
      "gea": 5573,
      "##oplasmat": 5574,
      "bepaling": 5575,
      "Tra": 5576,
      "##rand": 5577,
      "##ikstof": 5578,
      "Gro": 5579,
      "begele": 5580,
      "##aryn": 5581,
      "aneurys": 5582,
      "##othorax": 5583,
      "##richten": 5584,
      "Fe": 5585,
      "plat": 5586,
      "250": 5587,
      "##standen": 5588,
      "##fys": 5589,
      "##15": 5590,
      "cohort": 5591,
      "##ici": 5592,
      "##generatie": 5593,
      "voordeel": 5594,
      "##essment": 5595,
      "geactiveerde": 5596,
      "cruciaal": 5597,
      "glucos": 5598,
      "geleden": 5599,
      "reductie": 5600,
      "Waar": 5601,
      "bar": 5602,
      "basale": 5603,
      "dre": 5604,
      "##18": 5605,
      "DC": 5606,
      "##ori": 5607,
      "klass": 5608,
      "nauwkeurigheid": 5609,
      "CONTRAST": 5610,
      "##groei": 5611,
      "variabelen": 5612,
      "tand": 5613,
      "vormt": 5614,
      "##oge": 5615,
      "onderdruk": 5616,
      "exter": 5617,
      "Me": 5618,
      "##ational": 5619,
      "cytotox": 5620,
      "Commentaar": 5621,
      "##deels": 5622,
      "alternatieve": 5623,
      "intraveneuze": 5624,
      "CPAP": 5625,
      "##periode": 5626,
      "handel": 5627,
      "POR": 5628,
      "Fys": 5629,
      "##olen": 5630,
      "##beweging": 5631,
      "intrac": 5632,
      "lat": 5633,
      "##eth": 5634,
      "minimaal": 5635,
      "##eek": 5636,
      "##ijft": 5637,
      "oraal": 5638,
      "##14": 5639,
      "RT": 5640,
      "Univers": 5641,
      "manifest": 5642,
      "versle": 5643,
      "sputum": 5644,
      "carcin": 5645,
      "afgenomen": 5646,
      "half": 5647,
      "##tering": 5648,
      "##our": 5649,
      "##ichting": 5650,
      "##kant": 5651,
      "afzonder": 5652,
      "gemeenschappelijke": 5653,
      "PIC": 5654,
      "stoel": 5655,
      "tekort": 5656,
      "gestim": 5657,
      "##arten": 5658,
      "twe": 5659,
      "onderdeel": 5660,
      "optische": 5661,
      "##gevallen": 5662,
      "voltoo": 5663,
      "lymfe": 5664,
      "##igers": 5665,
      "steekproef": 5666,
      "melden": 5667,
      "##vrije": 5668,
      "daarvan": 5669,
      "Drie": 5670,
      "vag": 5671,
      "Ly": 5672,
      "econ": 5673,
      "##TER": 5674,
      "##wijd": 5675,
      "degenen": 5676,
      "Neurolog": 5677,
      "foetale": 5678,
      "Zowel": 5679,
      "verscheiden": 5680,
      "ather": 5681,
      "##ack": 5682,
      "##dam": 5683,
      "hoest": 5684,
      "cross": 5685,
      "reson": 5686,
      "##arkers": 5687,
      "##spect": 5688,
      "##pg": 5689,
      "last": 5690,
      "vertraag": 5691,
      "Labs": 5692,
      "##aria": 5693,
      "signalen": 5694,
      "tit": 5695,
      "beloop": 5696,
      "##apparaat": 5697,
      "##ieel": 5698,
      "##ogelijk": 5699,
      "##opisch": 5700,
      "pasgeboren": 5701,
      "voorafgaand": 5702,
      "PATIENT": 5703,
      "##pine": 5704,
      "##loride": 5705,
      "##atronen": 5706,
      "##methoden": 5707,
      "##uff": 5708,
      "cal": 5709,
      "graad": 5710,
      "onmiddel": 5711,
      "ES": 5712,
      "gelok": 5713,
      "conf": 5714,
      "cortic": 5715,
      "PORTABLE": 5716,
      "##ikelen": 5717,
      "LF": 5718,
      "##acchar": 5719,
      "##ilis": 5720,
      "liet": 5721,
      "##deerde": 5722,
      "##maat": 5723,
      "##ms": 5724,
      "eenvoudig": 5725,
      "##klachten": 5726,
      "mitochondriale": 5727,
      "aanpass": 5728,
      "gevormd": 5729,
      "##ord": 5730,
      "##aa": 5731,
      "groten": 5732,
      "voet": 5733,
      "toekomst": 5734,
      "zeldzaam": 5735,
      "psychiatrische": 5736,
      "flex": 5737,
      "##resent": 5738,
      "##vens": 5739,
      "##sproces": 5740,
      "vs": 5741,
      "##BER": 5742,
      "select": 5743,
      "##wikk": 5744,
      "subt": 5745,
      "##lip": 5746,
      "Vloe": 5747,
      "##raagd": 5748,
      "Vanwege": 5749,
      "grotendeels": 5750,
      "analyseren": 5751,
      "melk": 5752,
      "125": 5753,
      "sil": 5754,
      "##iste": 5755,
      "##amnese": 5756,
      "LC": 5757,
      "richten": 5758,
      "sulf": 5759,
      "##ïd": 5760,
      "##MS": 5761,
      "matrix": 5762,
      "##ardie": 5763,
      "##repen": 5764,
      "FA": 5765,
      "herhaalde": 5766,
      "IR": 5767,
      "noch": 5768,
      "##ondersteuning": 5769,
      "##ics": 5770,
      "##chym": 5771,
      "special": 5772,
      "ontvang": 5773,
      "extracellulaire": 5774,
      "zelden": 5775,
      "affiniteit": 5776,
      "elektron": 5777,
      "donor": 5778,
      "##uratie": 5779,
      "Veel": 5780,
      "peric": 5781,
      "##dimens": 5782,
      "##route": 5783,
      "Doctor": 5784,
      "efficiëntie": 5785,
      "oestro": 5786,
      "##orme": 5787,
      "antigen": 5788,
      "##uil": 5789,
      "Normale": 5790,
      "ontstaat": 5791,
      "##percentage": 5792,
      "##out": 5793,
      "##irale": 5794,
      "verwezen": 5795,
      "verlaagd": 5796,
      "motorische": 5797,
      "product": 5798,
      "##RESS": 5799,
      "miljoen": 5800,
      "##oorden": 5801,
      "noodzaak": 5802,
      "##isering": 5803,
      "##ogingen": 5804,
      "bereid": 5805,
      "gevoelige": 5806,
      "vervangen": 5807,
      "rob": 5808,
      "##iox": 5809,
      "##operatief": 5810,
      "Samen": 5811,
      "anter": 5812,
      "overge": 5813,
      "Opmerk": 5814,
      "nef": 5815,
      "##iwit": 5816,
      "##acet": 5817,
      "##rac": 5818,
      "luchtwegen": 5819,
      "Diagnosis": 5820,
      "##breng": 5821,
      "binden": 5822,
      "Vanc": 5823,
      "Tmax": 5824,
      "uitste": 5825,
      "IND": 5826,
      "##oproteïne": 5827,
      "ruimtelijke": 5828,
      "zoog": 5829,
      "##ontre": 5830,
      "hormoon": 5831,
      "##illaire": 5832,
      "##gebieden": 5833,
      "NF": 5834,
      "101": 5835,
      "##verd": 5836,
      "##status": 5837,
      "genereren": 5838,
      "##arts": 5839,
      "arm": 5840,
      "magnetische": 5841,
      "remmende": 5842,
      "technologie": 5843,
      "##PC": 5844,
      "prin": 5845,
      "##jaar": 5846,
      "onderste": 5847,
      "##ziening": 5848,
      "gedrags": 5849,
      "rh": 5850,
      "End": 5851,
      "##vings": 5852,
      "kunst": 5853,
      "##geluiden": 5854,
      "NT": 5855,
      "prikk": 5856,
      "pred": 5857,
      "diarree": 5858,
      "##therapie": 5859,
      "uitbreiding": 5860,
      "externe": 5861,
      "##okokken": 5862,
      "geëx": 5863,
      "fluorescentie": 5864,
      "gerapporteerd": 5865,
      "accumulatie": 5866,
      "segment": 5867,
      "sedatie": 5868,
      "geworden": 5869,
      "opeen": 5870,
      "unieke": 5871,
      "instr": 5872,
      "##zijds": 5873,
      "##IR": 5874,
      "sig": 5875,
      "arg": 5876,
      "##alth": 5877,
      "promotor": 5878,
      "##usies": 5879,
      "##VC": 5880,
      "opsp": 5881,
      "##ump": 5882,
      "inform": 5883,
      "geïsoleerde": 5884,
      "taak": 5885,
      "SS": 5886,
      "DAAT": 5887,
      "leren": 5888,
      "varie": 5889,
      "training": 5890,
      "Pa": 5891,
      "overwegen": 5892,
      "advies": 5893,
      "adoles": 5894,
      "##BS": 5895,
      "##HD": 5896,
      "langere": 5897,
      "##amilie": 5898,
      "AA": 5899,
      "Hyp": 5900,
      "macrofagen": 5901,
      "neuronale": 5902,
      "##spercentage": 5903,
      "TE": 5904,
      "##reerde": 5905,
      "voorkomt": 5906,
      "repar": 5907,
      "##letie": 5908,
      "##ceptie": 5909,
      "Ca2": 5910,
      "uitdaging": 5911,
      "##ometr": 5912,
      "zeven": 5913,
      "chronisch": 5914,
      "##osomale": 5915,
      "cre": 5916,
      "##ometrische": 5917,
      "##ynth": 5918,
      "##niveaus": 5919,
      "verspreiding": 5920,
      "##ph": 5921,
      "##klieren": 5922,
      "##ococ": 5923,
      "##prote": 5924,
      "klep": 5925,
      "scler": 5926,
      "molecuul": 5927,
      "##aser": 5928,
      "nano": 5929,
      "interfer": 5930,
      "activer": 5931,
      "##ditionele": 5932,
      "miR": 5933,
      "##ledige": 5934,
      "SE": 5935,
      "##virus": 5936,
      "##ologen": 5937,
      "gecomp": 5938,
      "##genees": 5939,
      "volgt": 5940,
      "resolutie": 5941,
      "##rouw": 5942,
      "divers": 5943,
      "daaropvolgende": 5944,
      "Te": 5945,
      "dubbele": 5946,
      "zogenaam": 5947,
      "HCT": 5948,
      "##ventr": 5949,
      "posit": 5950,
      "Evalu": 5951,
      "##akker": 5952,
      "LV": 5953,
      "herhal": 5954,
      "Resultaten": 5955,
      "##curr": 5956,
      "##abolisme": 5957,
      "SH": 5958,
      "trauma": 5959,
      "##eerbaar": 5960,
      "##geving": 5961,
      "##zuren": 5962,
      "halve": 5963,
      "markers": 5964,
      "##ominale": 5965,
      "##ylase": 5966,
      "distale": 5967,
      "optim": 5968,
      "verzwak": 5969,
      "matig": 5970,
      "##ylax": 5971,
      "##arch": 5972,
      "pseud": 5973,
      "##des": 5974,
      "tal": 5975,
      "ratio": 5976,
      "av": 5977,
      "##ii": 5978,
      "##oscler": 5979,
      "Reg": 5980,
      "##idemie": 5981,
      "doelen": 5982,
      "##wachting": 5983,
      "langs": 5984,
      "longontsteking": 5985,
      "nooit": 5986,
      "slijm": 5987,
      "COPD": 5988,
      "verhoging": 5989,
      "##neu": 5990,
      "fractie": 5991,
      "erg": 5992,
      "sem": 5993,
      "maximaal": 5994,
      "S1": 5995,
      "##aseerde": 5996,
      "Trop": 5997,
      "media": 5998,
      "##beur": 5999,
      "##PA": 6000,
      "secundair": 6001,
      "gecontroleerde": 6002,
      "DR": 6003,
      "##sterdam": 6004,
      "##opress": 6005,
      "Trans": 6006,
      "inspanning": 6007,
      "aangeboren": 6008,
      "##ciplin": 6009,
      "princip": 6010,
      "benz": 6011,
      "Amsterdam": 6012,
      "##mut": 6013,
      "AV": 6014,
      "##outen": 6015,
      "##cyclus": 6016,
      "ritme": 6017,
      "##stest": 6018,
      "mcg": 6019,
      "pac": 6020,
      "stikstof": 6021,
      "geneeskunde": 6022,
      "##ften": 6023,
      "verbinding": 6024,
      "agressie": 6025,
      "gezuiver": 6026,
      "##sheet": 6027,
      "kwantific": 6028,
      "influ": 6029,
      "##inc": 6030,
      "bekken": 6031,
      "Mult": 6032,
      "Beide": 6033,
      "verbetert": 6034,
      "begonnen": 6035,
      "NUM": 6036,
      "PHONE": 6037,
      "kinase": 6038,
      "##002": 6039,
      "Communicatie": 6040,
      "bro": 6041,
      "##lox": 6042,
      "##aakten": 6043,
      "oc": 6044,
      "secretie": 6045,
      "##ise": 6046,
      "assay": 6047,
      "granul": 6048,
      "radiotherapie": 6049,
      "##odel": 6050,
      "##velingen": 6051,
      "##etica": 6052,
      "gecombineerde": 6053,
      "##molec": 6054,
      "ontslag": 6055,
      "##24": 6056,
      "cortex": 6057,
      "PICC": 6058,
      "##odynam": 6059,
      "##programma": 6060,
      "patronen": 6061,
      "comfort": 6062,
      "subeen": 6063,
      "vertoont": 6064,
      "antagon": 6065,
      "milt": 6066,
      "##oprol": 6067,
      "##atum": 6068,
      "gepubliceerd": 6069,
      "##EG": 6070,
      "##bs": 6071,
      "PK": 6072,
      "dementie": 6073,
      "##verandering": 6074,
      "##woordigen": 6075,
      "koolstof": 6076,
      "gelab": 6077,
      "NUMBER": 6078,
      "cerebrale": 6079,
      "vertegenwoordigen": 6080,
      "##erm": 6081,
      "ischemische": 6082,
      "Naast": 6083,
      "schijn": 6084,
      "meet": 6085,
      "##ortic": 6086,
      "Gegevens": 6087,
      "ongew": 6088,
      "##imer": 6089,
      "ionen": 6090,
      "gekoppeld": 6091,
      "reageren": 6092,
      "##mmun": 6093,
      "Doppler": 6094,
      "##uken": 6095,
      "symm": 6096,
      "flow": 6097,
      "Wel": 6098,
      "NPO": 6099,
      "##wijzigd": 6100,
      "opgelost": 6101,
      "##stip": 6102,
      "knie": 6103,
      "##okl": 6104,
      "stijging": 6105,
      "##aec": 6106,
      "##anningen": 6107,
      "algor": 6108,
      "##kolom": 6109,
      "##gsel": 6110,
      "##fuse": 6111,
      "##studie": 6112,
      "leukemie": 6113,
      "ontbreken": 6114,
      "Or": 6115,
      "fenotype": 6116,
      "discus": 6117,
      "aangegeven": 6118,
      "rot": 6119,
      "##osteron": 6120,
      "gemedieerd": 6121,
      "elektrische": 6122,
      "##microscopie": 6123,
      "INDIC": 6124,
      "famil": 6125,
      "Sy": 6126,
      "##19": 6127,
      "##uleert": 6128,
      "##houding": 6129,
      "##stellingen": 6130,
      "bevest": 6131,
      "culturen": 6132,
      "##sproblemen": 6133,
      "Indien": 6134,
      "honden": 6135,
      "Allergieën": 6136,
      "implement": 6137,
      "afge": 6138,
      "##waard": 6139,
      "dynamische": 6140,
      "ins": 6141,
      "aanmerk": 6142,
      "humaan": 6143,
      "##rug": 6144,
      "besluit": 6145,
      "AND": 6146,
      "lijnen": 6147,
      "stelt": 6148,
      "voel": 6149,
      "geboren": 6150,
      "geest": 6151,
      "verzorg": 6152,
      "geheel": 6153,
      "##win": 6154,
      "vindt": 6155,
      "metabolisme": 6156,
      "concept": 6157,
      "meis": 6158,
      "waarvoor": 6159,
      "toegevoegd": 6160,
      "skelet": 6161,
      "##igende": 6162,
      "fibro": 6163,
      "presentatie": 6164,
      "verdeeld": 6165,
      "##alige": 6166,
      "gelijktijdige": 6167,
      "krachtige": 6168,
      "##omycine": 6169,
      "ph": 6170,
      "weerspiegel": 6171,
      "dragen": 6172,
      "overige": 6173,
      "klassieke": 6174,
      "mentale": 6175,
      "getrans": 6176,
      "##vallend": 6177,
      "peptiden": 6178,
      "influenz": 6179,
      "##aarmoeder": 6180,
      "ofwel": 6181,
      "humane": 6182,
      "##ienivea": 6183,
      "vloeib": 6184,
      "aangeeft": 6185,
      "beginnen": 6186,
      "tev": 6187,
      "##enc": 6188,
      "willen": 6189,
      "cyste": 6190,
      "##otypen": 6191,
      "##male": 6192,
      "Assessment": 6193,
      "jaarlijk": 6194,
      "nadat": 6195,
      "bilater": 6196,
      "hierboven": 6197,
      "Au": 6198,
      "##ARS": 6199,
      "zenuwstelsel": 6200,
      "fosforylering": 6201,
      "nek": 6202,
      "gunstige": 6203,
      "##zins": 6204,
      "oef": 6205,
      "Ser": 6206,
      "##omstandigheden": 6207,
      "##quê": 6208,
      "decen": 6209,
      "samenstelling": 6210,
      "stoornis": 6211,
      "109": 6212,
      "geremd": 6213,
      "kwaad": 6214,
      "##ocy": 6215,
      "MEDICALE": 6216,
      "Aanv": 6217,
      "Respir": 6218,
      "ect": 6219,
      "##singen": 6220,
      "verwijderen": 6221,
      "overleden": 6222,
      "eventuele": 6223,
      "del": 6224,
      "##gl": 6225,
      "datab": 6226,
      "metaal": 6227,
      "lokalisatie": 6228,
      "bodem": 6229,
      "alert": 6230,
      "##bro": 6231,
      "hoofdpijn": 6232,
      "evolutie": 6233,
      "##mater": 6234,
      "2000": 6235,
      "##odific": 6236,
      "schad": 6237,
      "voorbere": 6238,
      "eenheid": 6239,
      "pneumothorax": 6240,
      "supp": 6241,
      "pancreas": 6242,
      "##cultuur": 6243,
      "##17": 6244,
      "##embranen": 6245,
      "leer": 6246,
      "##ura": 6247,
      "##ogroep": 6248,
      "bevinding": 6249,
      "##won": 6250,
      "##artsen": 6251,
      "##olytische": 6252,
      "etiologie": 6253,
      "zwelling": 6254,
      "infarct": 6255,
      "component": 6256,
      "onderwijs": 6257,
      "gas": 6258,
      "##erking": 6259,
      "gon": 6260,
      "dicht": 6261,
      "ligand": 6262,
      "bescherming": 6263,
      "gegenereerd": 6264,
      "emp": 6265,
      "mag": 6266,
      "elementen": 6267,
      "prognost": 6268,
      "##mechanisme": 6269,
      "jpg": 6270,
      "##ohist": 6271,
      "beenmerg": 6272,
      "miss": 6273,
      "baarmoeder": 6274,
      "antiox": 6275,
      "##OB": 6276,
      "grondslag": 6277,
      "##aspect": 6278,
      "Maar": 6279,
      "Glyc": 6280,
      "##stitutie": 6281,
      "slok": 6282,
      "p53": 6283,
      "##derheid": 6284,
      "relaties": 6285,
      "locaties": 6286,
      "overgebracht": 6287,
      "thorac": 6288,
      "uitzonder": 6289,
      "abnormale": 6290,
      "##aille": 6291,
      "##schrift": 6292,
      "MT": 6293,
      "einde": 6294,
      "DS": 6295,
      "therapieën": 6296,
      "##band": 6297,
      "##HO": 6298,
      "scores": 6299,
      "kandid": 6300,
      "##itoneale": 6301,
      "gemen": 6302,
      "zichtbaar": 6303,
      "detail": 6304,
      "##itten": 6305,
      "vaatziekten": 6306,
      "vermindert": 6307,
      "embol": 6308,
      "##sef": 6309,
      "##cont": 6310,
      "##ry": 6311,
      "kanaal": 6312,
      "zogenaamde": 6313,
      "voorbij": 6314,
      "Col": 6315,
      "Bloedproducten": 6316,
      "indicaties": 6317,
      "##tieve": 6318,
      "baseline": 6319,
      "##rem": 6320,
      "intubatie": 6321,
      "weerstand": 6322,
      "murm": 6323,
      "drugs": 6324,
      "##ases": 6325,
      "##lengte": 6326,
      "##hel": 6327,
      "fluor": 6328,
      "collageen": 6329,
      "Prof": 6330,
      "progressieve": 6331,
      "##ypt": 6332,
      "melanoom": 6333,
      "##ragen": 6334,
      "ir": 6335,
      "daarbij": 6336,
      "complicatie": 6337,
      "kD": 6338,
      "##heem": 6339,
      "benadrukt": 6340,
      "ovar": 6341,
      "##vormige": 6342,
      "CF": 6343,
      "CAR": 6344,
      "Wat": 6345,
      "ruggen": 6346,
      "kwe": 6347,
      "##vanging": 6348,
      "CN": 6349,
      "bevestigen": 6350,
      "real": 6351,
      "trombose": 6352,
      "residuen": 6353,
      "dig": 6354,
      "##ieve": 6355,
      "PRN": 6356,
      "muc": 6357,
      "nauwkeurige": 6358,
      "Nie": 6359,
      "##keningen": 6360,
      "gemet": 6361,
      "materialen": 6362,
      "##kere": 6363,
      "luchtweg": 6364,
      "organische": 6365,
      "Heparine": 6366,
      "##quête": 6367,
      "hydroxy": 6368,
      "##gevoeligheid": 6369,
      "atrium": 6370,
      "##ippoc": 6371,
      "verbonden": 6372,
      "160": 6373,
      "wild": 6374,
      "EF": 6375,
      "##Cl": 6376,
      "beïnvloedt": 6377,
      "##oneel": 6378,
      "AST": 6379,
      "verdi": 6380,
      "##icilline": 6381,
      "Ag": 6382,
      "geselecteerde": 6383,
      "plus": 6384,
      "##belasting": 6385,
      "overt": 6386,
      "episode": 6387,
      "mamm": 6388,
      "##for": 6389,
      "nierfunctie": 6390,
      "##aandoen": 6391,
      "##fractie": 6392,
      "uter": 6393,
      "fac": 6394,
      "##orrige": 6395,
      "##kenmerken": 6396,
      "##fficiën": 6397,
      "vocht": 6398,
      "wetenschappelijke": 6399,
      "recon": 6400,
      "ALT": 6401,
      "orgaan": 6402,
      "##ason": 6403,
      "##ïnen": 6404,
      "LDH": 6405,
      "##namen": 6406,
      "iso": 6407,
      "regionale": 6408,
      "##igingen": 6409,
      "initiële": 6410,
      "gecons": 6411,
      "procedures": 6412,
      "##21": 6413,
      "verplaat": 6414,
      "##horm": 6415,
      "hierbij": 6416,
      "##schat": 6417,
      "FEN": 6418,
      "##iae": 6419,
      "mol": 6420,
      "Kle": 6421,
      "geldt": 6422,
      "##mpel": 6423,
      "##ococcus": 6424,
      "radio": 6425,
      "anderen": 6426,
      "aneurysma": 6427,
      "##ous": 6428,
      "##stij": 6429,
      "##ugger": 6430,
      "GH": 6431,
      "geschat": 6432,
      "Hartritme": 6433,
      "Europese": 6434,
      "beschrijft": 6435,
      "H2": 6436,
      "##bev": 6437,
      "##aïne": 6438,
      "afvoer": 6439,
      "spontaan": 6440,
      "onthulden": 6441,
      "gereguleerd": 6442,
      "encefal": 6443,
      "##openie": 6444,
      "Monitor": 6445,
      "##dific": 6446,
      "drainage": 6447,
      "##etermijn": 6448,
      "nas": 6449,
      "gekweekt": 6450,
      "ong": 6451,
      "##frequentie": 6452,
      "sonde": 6453,
      "##aze": 6454,
      "Afvoer": 6455,
      "##dert": 6456,
      "wet": 6457,
      "##eptide": 6458,
      "Onderzoek": 6459,
      "##vasculaire": 6460,
      "capaciteit": 6461,
      "Hb": 6462,
      "veilig": 6463,
      "##fielen": 6464,
      "##ila": 6465,
      "schatten": 6466,
      "##oorde": 6467,
      "proximale": 6468,
      "##ight": 6469,
      "vat": 6470,
      "intensiteit": 6471,
      "STitle": 6472,
      "lev": 6473,
      "inhoud": 6474,
      "##ippocamp": 6475,
      "waarnem": 6476,
      "##rijf": 6477,
      "thorax": 6478,
      "##abele": 6479,
      "##oest": 6480,
      "meerderheid": 6481,
      "krij": 6482,
      "verklaard": 6483,
      "Vloeistof": 6484,
      "##ifer": 6485,
      "##eens": 6486,
      "##splaat": 6487,
      "##jectieve": 6488,
      "##genase": 6489,
      "bijbeh": 6490,
      "##ografisch": 6491,
      "go": 6492,
      "##dichtheid": 6493,
      "overexpressie": 6494,
      "antim": 6495,
      "zwaar": 6496,
      "LS": 6497,
      "##reoïd": 6498,
      "PG": 6499,
      "seksuele": 6500,
      "reparatie": 6501,
      "##trek": 6502,
      "##fase": 6503,
      "##enteel": 6504,
      "geïmp": 6505,
      "##orieën": 6506,
      "##stim": 6507,
      "##inase": 6508,
      "##seling": 6509,
      "polymorf": 6510,
      "belasting": 6511,
      "stoppen": 6512,
      "verscheidenheid": 6513,
      "##oplasma": 6514,
      "EM": 6515,
      "nieren": 6516,
      "##deeltjes": 6517,
      "##will": 6518,
      "artritis": 6519,
      "continu": 6520,
      "##roscopie": 6521,
      "##anine": 6522,
      "nauwkeurig": 6523,
      "spieren": 6524,
      "##asculair": 6525,
      "implicaties": 6526,
      "beschikbaarheid": 6527,
      "##ivari": 6528,
      "Spont": 6529,
      "##lage": 6530,
      "transplant": 6531,
      "juist": 6532,
      "gemat": 6533,
      "##oefen": 6534,
      "asc": 6535,
      "leukocyten": 6536,
      "aanleiding": 6537,
      "##oxine": 6538,
      "Micro": 6539,
      "Act": 6540,
      "classificatie": 6541,
      "##metast": 6542,
      "verschillend": 6543,
      "consult": 6544,
      "##infecties": 6545,
      "sociaal": 6546,
      "gram": 6547,
      "ambul": 6548,
      "##lering": 6549,
      "aangetroffen": 6550,
      "##ocardi": 6551,
      "Lung": 6552,
      "aanmerking": 6553,
      "verklaring": 6554,
      "fer": 6555,
      "start": 6556,
      "alternatief": 6557,
      "##oi": 6558,
      "##ays": 6559,
      "##aris": 6560,
      "kaart": 6561,
      "indu": 6562,
      "Sle": 6563,
      "##tom": 6564,
      "##OT": 6565,
      "SM": 6566,
      "Alk": 6567,
      "Hemodynamische": 6568,
      "zwangerschaps": 6569,
      "##anu": 6570,
      "generatie": 6571,
      "##weeg": 6572,
      "gehand": 6573,
      "##ohistoch": 6574,
      "##OH": 6575,
      "##eden": 6576,
      "##IM": 6577,
      "Prop": 6578,
      "redenen": 6579,
      "Verenigde": 6580,
      "bloedingen": 6581,
      "##ww": 6582,
      "##ditie": 6583,
      "##econ": 6584,
      "illu": 6585,
      "verhoogt": 6586,
      "##leving": 6587,
      "##ëfficiën": 6588,
      "reactieve": 6589,
      "Infusies": 6590,
      "REC": 6591,
      "##ynthet": 6592,
      "diabetische": 6593,
      "drupp": 6594,
      "##cap": 6595,
      "voorgeschreven": 6596,
      "##umoren": 6597,
      "collega": 6598,
      "##etiek": 6599,
      "UV": 6600,
      "toegeschreven": 6601,
      "aanbevelingen": 6602,
      "##po": 6603,
      "orde": 6604,
      "##wikkeling": 6605,
      "##deerden": 6606,
      "inz": 6607,
      "behoud": 6608,
      "##elijks": 6609,
      "anesthesie": 6610,
      "PO4": 6611,
      "##mod": 6612,
      "##bar": 6613,
      "allemaal": 6614,
      "coc": 6615,
      "##trofie": 6616,
      "##ozuren": 6617,
      "braken": 6618,
      "##cheale": 6619,
      "cursus": 6620,
      "integr": 6621,
      "differentiële": 6622,
      "essentiële": 6623,
      "##lakken": 6624,
      "##ertijd": 6625,
      "distrib": 6626,
      "induceren": 6627,
      "presente": 6628,
      "##plant": 6629,
      "medicamen": 6630,
      "##emaal": 6631,
      "heden": 6632,
      "##riene": 6633,
      "##positie": 6634,
      "3D": 6635,
      "##leuk": 6636,
      "dienst": 6637,
      "kruis": 6638,
      "oplever": 6639,
      "polymerase": 6640,
      "Veranderingen": 6641,
      "gezichts": 6642,
      "##wisseling": 6643,
      "houdt": 6644,
      "##ene": 6645,
      "##kent": 6646,
      "##iaz": 6647,
      "##ingsapparaat": 6648,
      "##rière": 6649,
      "##ric": 6650,
      "HA": 6651,
      "##halam": 6652,
      "poliklin": 6653,
      "resonantie": 6654,
      "GC": 6655,
      "##ution": 6656,
      "method": 6657,
      "##aptische": 6658,
      "secreties": 6659,
      "bestraling": 6660,
      "intensie": 6661,
      "##weer": 6662,
      "##beg": 6663,
      "benadrukken": 6664,
      "optreedt": 6665,
      "VE": 6666,
      "meting": 6667,
      "gesugger": 6668,
      "Spontane": 6669,
      "monster": 6670,
      "erf": 6671,
      "disfunctie": 6672,
      "102": 6673,
      "laesie": 6674,
      "##beurtenissen": 6675,
      "##ille": 6676,
      "CAD": 6677,
      "##wek": 6678,
      "uw": 6679,
      "##iere": 6680,
      "##esp": 6681,
      "genoemde": 6682,
      "stadia": 6683,
      "paras": 6684,
      "trend": 6685,
      "##ament": 6686,
      "##sinter": 6687,
      "wand": 6688,
      "biochemische": 6689,
      "slokdarm": 6690,
      "vlak": 6691,
      "beval": 6692,
      "fosfat": 6693,
      "monokl": 6694,
      "wereldwijd": 6695,
      "run": 6696,
      "corticale": 6697,
      "bijbehorende": 6698,
      "fout": 6699,
      "pancreat": 6700,
      "buikpijn": 6701,
      "##oplossing": 6702,
      "voorspellende": 6703,
      "zuiver": 6704,
      "Cu": 6705,
      "##buis": 6706,
      "rapporte": 6707,
      "Afrik": 6708,
      "gesuggereerd": 6709,
      "trach": 6710,
      "myocardinfarct": 6711,
      "misselijkheid": 6712,
      "##ray": 6713,
      "communicatie": 6714,
      "hippocamp": 6715,
      "##ffen": 6716,
      "##ouder": 6717,
      "vrucht": 6718,
      "drin": 6719,
      "Staten": 6720,
      "band": 6721,
      "##oriënteerd": 6722,
      "HLA": 6723,
      "zachte": 6724,
      "absorptie": 6725,
      "hulpmiddel": 6726,
      "sing": 6727,
      "transmissie": 6728,
      "##stra": 6729,
      "##wijde": 6730,
      "##gelegd": 6731,
      "plant": 6732,
      "Stress": 6733,
      "##validatie": 6734,
      "##middels": 6735,
      "agon": 6736,
      "migratie": 6737,
      "##aardoor": 6738,
      "Post": 6739,
      "##ystemen": 6740,
      "##oeid": 6741,
      "scala": 6742,
      "LH": 6743,
      "##ibele": 6744,
      "verpleegkundigen": 6745,
      "##paste": 6746,
      "geleidelijk": 6747,
      "diepe": 6748,
      "Voeding": 6749,
      "experiment": 6750,
      "individuen": 6751,
      "CSF": 6752,
      "CAB": 6753,
      "geschikte": 6754,
      "artikelen": 6755,
      "ultra": 6756,
      "organen": 6757,
      "reum": 6758,
      "##wijf": 6759,
      "Opmerkingen": 6760,
      "##egal": 6761,
      "MP": 6762,
      "verrijk": 6763,
      "##aktie": 6764,
      "##halve": 6765,
      "hiel": 6766,
      "efficiënte": 6767,
      "haal": 6768,
      "MM": 6769,
      "www": 6770,
      "bovendien": 6771,
      "care": 6772,
      "##avirus": 6773,
      "aangezien": 6774,
      "vragenlijst": 6775,
      "##generatieve": 6776,
      "gelegen": 6777,
      "gisteren": 6778,
      "maligniteit": 6779,
      "stimuleren": 6780,
      "defect": 6781,
      "cellijnen": 6782,
      "gemodific": 6783,
      "daag": 6784,
      "prn": 6785,
      "hypof": 6786,
      "janu": 6787,
      "evenwicht": 6788,
      "##fract": 6789,
      "##lap": 6790,
      "symp": 6791,
      "tevens": 6792,
      "radiële": 6793,
      "adequate": 6794,
      "januari": 6795,
      "##hele": 6796,
      "apparaat": 6797,
      "##idazol": 6798,
      "##heen": 6799,
      "##structies": 6800,
      "##itaire": 6801,
      "tablet": 6802,
      "remde": 6803,
      "##sieve": 6804,
      "m2": 6805,
      "Zuid": 6806,
      "hetgeen": 6807,
      "waterstof": 6808,
      "##emmer": 6809,
      "Ziekenhuis": 6810,
      "##igens": 6811,
      "##ozyg": 6812,
      "##vaten": 6813,
      "verwerking": 6814,
      "tri": 6815,
      "leden": 6816,
      "indirect": 6817,
      "gesynthet": 6818,
      "##DA": 6819,
      "kweek": 6820,
      "##ofol": 6821,
      "CHF": 6822,
      "uitdagingen": 6823,
      "gevolge": 6824,
      "immunos": 6825,
      "##stri": 6826,
      "##scopische": 6827,
      "##ylaxe": 6828,
      "aminozuren": 6829,
      "RESP": 6830,
      "straling": 6831,
      "histologische": 6832,
      "levensvat": 6833,
      "rode": 6834,
      "ampl": 6835,
      "hieronder": 6836,
      "##allel": 6837,
      "split": 6838,
      "##ycardie": 6839,
      "verstrekt": 6840,
      "betekent": 6841,
      "beschermen": 6842,
      "##dimensionale": 6843,
      "##ilaktie": 6844,
      "az": 6845,
      "##inemat": 6846,
      "##elta": 6847,
      "plast": 6848,
      "front": 6849,
      "wakker": 6850,
      "##emisch": 6851,
      "proteïn": 6852,
      "traditionele": 6853,
      "##hyper": 6854,
      "bili": 6855,
      "Neurologisch": 6856,
      "DN": 6857,
      "absol": 6858,
      "varkens": 6859,
      "omgevings": 6860,
      "##abil": 6861,
      "##unds": 6862,
      "opeenvolgende": 6863,
      "adolesc": 6864,
      "mM": 6865,
      "iedere": 6866,
      "##behoe": 6867,
      "##lasie": 6868,
      "zuigelingen": 6869,
      "varianten": 6870,
      "stent": 6871,
      "##rast": 6872,
      "##agul": 6873,
      "vertro": 6874,
      "##ferase": 6875,
      "MB": 6876,
      "##zetten": 6877,
      "##ivaten": 6878,
      "##NALE": 6879,
      "##encing": 6880,
      "hecht": 6881,
      "depressieve": 6882,
      "##ick": 6883,
      "prognostische": 6884,
      "medium": 6885,
      "##undel": 6886,
      "Dag": 6887,
      "##isol": 6888,
      "schatting": 6889,
      "gecombineerd": 6890,
      "##draagt": 6891,
      "tab": 6892,
      "##LD": 6893,
      "##ördin": 6894,
      "##idis": 6895,
      "atheroscler": 6896,
      "krijgt": 6897,
      "meta": 6898,
      "PN": 6899,
      "wervelkolom": 6900,
      "##ogeniteit": 6901,
      "##arte": 6902,
      "spiegels": 6903,
      "##locatie": 6904,
      "##activering": 6905,
      "##gelaten": 6906,
      "##odium": 6907,
      "uitvoeren": 6908,
      "resistente": 6909,
      "Concluderen": 6910,
      "Concluderend": 6911,
      "sporen": 6912,
      "ur": 6913,
      "enquête": 6914,
      "gekarakter": 6915,
      "gebleken": 6916,
      "Vergelijk": 6917,
      "##orele": 6918,
      "##perat": 6919,
      "correctie": 6920,
      "microM": 6921,
      "IGF": 6922,
      "gehele": 6923,
      "wilde": 6924,
      "##gin": 6925,
      "##umptie": 6926,
      "##komende": 6927,
      "##iezen": 6928,
      "Dispositie": 6929,
      "eveneens": 6930,
      "##aline": 6931,
      "stem": 6932,
      "lipiden": 6933,
      "kDa": 6934,
      "hydrox": 6935,
      "##sequenties": 6936,
      "Eerste": 6937,
      "##plan": 6938,
      "vermoeden": 6939,
      "cruciale": 6940,
      "microgram": 6941,
      "CABG": 6942,
      "frequent": 6943,
      "Phos": 6944,
      "focale": 6945,
      "complexen": 6946,
      "gerandomiseerd": 6947,
      "##veren": 6948,
      "##ibiliteit": 6949,
      "endogene": 6950,
      "gerapporteerde": 6951,
      "ald": 6952,
      "routes": 6953,
      "RV": 6954,
      "zoek": 6955,
      "uitsluitend": 6956,
      "##ofren": 6957,
      "gewichts": 6958,
      "Volledige": 6959,
      "##stoe": 6960,
      "CVP": 6961,
      "algehele": 6962,
      "IS": 6963,
      "droog": 6964,
      "neonatale": 6965,
      "instellingen": 6966,
      "##omyc": 6967,
      "##reoïdie": 6968,
      "BR": 6969,
      "##oemde": 6970,
      "antistoffen": 6971,
      "##mentatie": 6972,
      "statistische": 6973,
      "laser": 6974,
      "Brit": 6975,
      "##aarde": 6976,
      "##vormen": 6977,
      "ile": 6978,
      "examen": 6979,
      "ontwikkelden": 6980,
      "##blaas": 6981,
      "##rijp": 6982,
      "afwijkende": 6983,
      "##gemaakt": 6984,
      "veelbelovende": 6985,
      "gelijktijdig": 6986,
      "##ecept": 6987,
      "observatie": 6988,
      "Centr": 6989,
      "##ats": 6990,
      "varieerde": 6991,
      "##punten": 6992,
      "ARDS": 6993,
      "##spiegels": 6994,
      "##onaat": 6995,
      "Lact": 6996,
      "ziektever": 6997,
      "Se": 6998,
      "marker": 6999,
      "hypoxie": 7000,
      "##LR": 7001,
      "##osin": 7002,
      "geactiveerd": 7003,
      "##raad": 7004,
      "##sed": 7005,
      "vergroten": 7006,
      "Hierbij": 7007,
      "organisatie": 7008,
      "##bloed": 7009,
      "##scher": 7010,
      "##spanning": 7011,
      "organ": 7012,
      "diast": 7013,
      "hypo": 7014,
      "##orven": 7015,
      "##annings": 7016,
      "publ": 7017,
      "ps": 7018,
      "gecorrige": 7019,
      "##razol": 7020,
      "LPS": 7021,
      "PF": 7022,
      "overlevings": 7023,
      "##mg": 7024,
      "menselijk": 7025,
      "financ": 7026,
      "begrepen": 7027,
      "vle": 7028,
      "##RH": 7029,
      "Ep": 7030,
      "glob": 7031,
      "complement": 7032,
      "##woorden": 7033,
      "Stud": 7034,
      "document": 7035,
      "Health": 7036,
      "paren": 7037,
      "diversiteit": 7038,
      "##nacht": 7039,
      "beperken": 7040,
      "doordat": 7041,
      "output": 7042,
      "vloeibare": 7043,
      "##zoeken": 7044,
      "resterende": 7045,
      "nl": 7046,
      "systematische": 7047,
      "bewezen": 7048,
      "geringe": 7049,
      "elim": 7050,
      "##mitt": 7051,
      "opmerkelijk": 7052,
      "##orect": 7053,
      "minim": 7054,
      "IU": 7055,
      "##ident": 7056,
      "succesvolle": 7057,
      "ving": 7058,
      "##ostomie": 7059,
      "##beheer": 7060,
      "wereldwijde": 7061,
      "uitgesch": 7062,
      "gesla": 7063,
      "##reacties": 7064,
      "##strie": 7065,
      "##obe": 7066,
      "zon": 7067,
      "tien": 7068,
      "oorspronkelijke": 7069,
      "gekozen": 7070,
      "stimuli": 7071,
      "schiz": 7072,
      "pulsen": 7073,
      "##dema": 7074,
      "##ikels": 7075,
      "instelling": 7076,
      "Zijn": 7077,
      "oes": 7078,
      "brede": 7079,
      "The": 7080,
      "implic": 7081,
      "Norm": 7082,
      "VAN": 7083,
      "vul": 7084,
      "familiegeschiedenis": 7085,
      "maligne": 7086,
      "Sub": 7087,
      "vertraagde": 7088,
      "theorie": 7089,
      "sur": 7090,
      "levert": 7091,
      "voortd": 7092,
      "zwangere": 7093,
      "wezen": 7094,
      "##blast": 7095,
      "bezoek": 7096,
      "##oglobine": 7097,
      "##vende": 7098,
      "##raniële": 7099,
      "##zijde": 7100,
      "##massa": 7101,
      "##GT": 7102,
      "##dier": 7103,
      "cyc": 7104,
      "bolus": 7105,
      "Ged": 7106,
      "vl": 7107,
      "ket": 7108,
      "##iologisch": 7109,
      "##ain": 7110,
      "orth": 7111,
      "##ark": 7112,
      "##ssl": 7113,
      "diffuse": 7114,
      "schimmel": 7115,
      "##wijzen": 7116,
      "##emblage": 7117,
      "##artim": 7118,
      "schrijven": 7119,
      "FINALE": 7120,
      "Genees": 7121,
      "aer": 7122,
      "hals": 7123,
      "ethanol": 7124,
      "##oprolol": 7125,
      "assays": 7126,
      "##CTOR": 7127,
      "600": 7128,
      "##membraan": 7129,
      "Alge": 7130,
      "blad": 7131,
      "##iers": 7132,
      "##ioden": 7133,
      "vrijwill": 7134,
      "Flow": 7135,
      "##spraak": 7136,
      "vezels": 7137,
      "bleven": 7138,
      "##metingen": 7139,
      "ke": 7140,
      "##werkers": 7141,
      "pathofys": 7142,
      "variërend": 7143,
      "##loxacine": 7144,
      "morgen": 7145,
      "##systemen": 7146,
      "##stijd": 7147,
      "PMH": 7148,
      "Urin": 7149,
      "gedetaille": 7150,
      "atelect": 7151,
      "school": 7152,
      "discussie": 7153,
      "geselecteerd": 7154,
      "##regulatie": 7155,
      "EEG": 7156,
      "domeinen": 7157,
      "##oepen": 7158,
      "routinemat": 7159,
      "##A1": 7160,
      "perc": 7161,
      "##UB": 7162,
      "bek": 7163,
      "##rometrie": 7164,
      "polyp": 7165,
      "Nier": 7166,
      "##jecten": 7167,
      "gevraagd": 7168,
      "tetra": 7169,
      "##produc": 7170,
      "Gezondheid": 7171,
      "##omeen": 7172,
      "##poten": 7173,
      "##vez": 7174,
      "##ters": 7175,
      "##apen": 7176,
      "ademhalingsfalen": 7177,
      "blok": 7178,
      "Bili": 7179,
      "punten": 7180,
      "stappen": 7181,
      "economische": 7182,
      "alkal": 7183,
      "antioxid": 7184,
      "##oplast": 7185,
      "genoeg": 7186,
      "##ferentiële": 7187,
      "voorbeeld": 7188,
      "datas": 7189,
      "##dos": 7190,
      "NK": 7191,
      "bilateral": 7192,
      "virussen": 7193,
      "thym": 7194,
      "EP": 7195,
      "##kenning": 7196,
      "anamnese": 7197,
      "##ology": 7198,
      "korter": 7199,
      "Hoofd": 7200,
      "##23": 7201,
      "technische": 7202,
      "RSBI": 7203,
      "myc": 7204,
      "##ian": 7205,
      "HTN": 7206,
      "achtergrond": 7207,
      "emotionele": 7208,
      "interpretatie": 7209,
      "##onische": 7210,
      "##otrop": 7211,
      "##populatie": 7212,
      "##ontwikkeling": 7213,
      "bronnen": 7214,
      "##soorten": 7215,
      "##vanc": 7216,
      "##iëmie": 7217,
      "palp": 7218,
      "port": 7219,
      "accept": 7220,
      "negen": 7221,
      "##este": 7222,
      "onbekende": 7223,
      "daarmee": 7224,
      "##DE": 7225,
      "geestelijke": 7226,
      "##vast": 7227,
      "##mph": 7228,
      "##ATIE": 7229,
      "##lante": 7230,
      "Verm": 7231,
      "regulerende": 7232,
      "steeg": 7233,
      "geper": 7234,
      "MI": 7235,
      "stamcellen": 7236,
      "antigenen": 7237,
      "##receptor": 7238,
      "opsporing": 7239,
      "deter": 7240,
      "gedacht": 7241,
      "##merc": 7242,
      "Behandeling": 7243,
      "groeifactor": 7244,
      "##lim": 7245,
      "rood": 7246,
      "shock": 7247,
      "##chirurgie": 7248,
      "daarna": 7249,
      "CMV": 7250,
      "##40": 7251,
      "MICU": 7252,
      "##staande": 7253,
      "Acute": 7254,
      "##verleners": 7255,
      "SA": 7256,
      "zagen": 7257,
      "verlaagde": 7258,
      "Fysiek": 7259,
      "Patiënte": 7260,
      "PB": 7261,
      "rijk": 7262,
      "Onlangs": 7263,
      "##kins": 7264,
      "zorgvul": 7265,
      "SB": 7266,
      "##sensus": 7267,
      "cyst": 7268,
      "therapeutisch": 7269,
      "##opol": 7270,
      "dermat": 7271,
      "focus": 7272,
      "tegelijk": 7273,
      "uitst": 7274,
      "doelwit": 7275,
      "profess": 7276,
      "##sulf": 7277,
      "abdominale": 7278,
      "Lungen": 7279,
      "##vlees": 7280,
      "werkt": 7281,
      "##loos": 7282,
      "verontre": 7283,
      "##doeld": 7284,
      "pathologie": 7285,
      "deficiëntie": 7286,
      "##ionering": 7287,
      "tuberculose": 7288,
      "gevaar": 7289,
      "##38": 7290,
      "prednis": 7291,
      "CTA": 7292,
      "bedoeld": 7293,
      "##lete": 7294,
      "##25": 7295,
      "##alingen": 7296,
      "doorgaan": 7297,
      "##hyle": 7298,
      "##umente": 7299,
      "##moe": 7300,
      "##daan": 7301,
      "morfologische": 7302,
      "Vro": 7303,
      "##bindingen": 7304,
      "DOCTOR": 7305,
      "##risico": 7306,
      "antit": 7307,
      "onzeker": 7308,
      "dialyse": 7309,
      "zichzelf": 7310,
      "Algemene": 7311,
      "uitgang": 7312,
      "kra": 7313,
      "nadel": 7314,
      "image": 7315,
      "lokaal": 7316,
      "mutant": 7317,
      "immuniteit": 7318,
      "holte": 7319,
      "genetisch": 7320,
      "Belang": 7321,
      "##iend": 7322,
      "CE": 7323,
      "##fil": 7324,
      "embryo": 7325,
      "leverde": 7326,
      "asympt": 7327,
      "##schade": 7328,
      "##sequentie": 7329,
      "high": 7330,
      "##groe": 7331,
      "voerden": 7332,
      "herhaald": 7333,
      "geslachts": 7334,
      "##szins": 7335,
      "massaspect": 7336,
      "EGF": 7337,
      "succesvol": 7338,
      "CO2": 7339,
      "HIST": 7340,
      "intraveneus": 7341,
      "replicatie": 7342,
      "gekregen": 7343,
      "kwets": 7344,
      "denken": 7345,
      "##lyk": 7346,
      "robu": 7347,
      "tumorcellen": 7348,
      "ontwikkelingen": 7349,
      "##essant": 7350,
      "##gering": 7351,
      "##kk": 7352,
      "##erge": 7353,
      "onderwerp": 7354,
      "##gaat": 7355,
      "OH": 7356,
      "sarc": 7357,
      "##iaties": 7358,
      "gespec": 7359,
      "##komstige": 7360,
      "eventueel": 7361,
      "aanpassing": 7362,
      "CYP": 7363,
      "kristal": 7364,
      "experimenteel": 7365,
      "PI": 7366,
      "voren": 7367,
      "105": 7368,
      "beroeps": 7369,
      "express": 7370,
      "adren": 7371,
      "functioneel": 7372,
      "##nale": 7373,
      "multi": 7374,
      "##patroon": 7375,
      "grenzen": 7376,
      "handha": 7377,
      "kleiner": 7378,
      "buur": 7379,
      "lid": 7380,
      "##ffende": 7381,
      "biopsie": 7382,
      "HISTOR": 7383,
      "##arisatie": 7384,
      "##oos": 7385,
      "##chloride": 7386,
      "verleden": 7387,
      "circa": 7388,
      "rok": 7389,
      "centra": 7390,
      "vlo": 7391,
      "Pol": 7392,
      "maakte": 7393,
      "geco": 7394,
      "taal": 7395,
      "trop": 7396,
      "vereisen": 7397,
      "##respon": 7398,
      "##teuze": 7399,
      "##datum": 7400,
      "sluiten": 7401,
      "##ijns": 7402,
      "karakteriseren": 7403,
      "aggreg": 7404,
      "Toel": 7405,
      "afbeeld": 7406,
      "##ostase": 7407,
      "nucleotide": 7408,
      "##FA": 7409,
      "##mechanismen": 7410,
      "aangenomen": 7411,
      "breuk": 7412,
      "##itatief": 7413,
      "##dule": 7414,
      "aangepast": 7415,
      "fusie": 7416,
      "distributie": 7417,
      "leek": 7418,
      "##iër": 7419,
      "Sommige": 7420,
      "cervicale": 7421,
      "##NATION": 7422,
      "plot": 7423,
      "PPI": 7424,
      "PV": 7425,
      "spectrum": 7426,
      "Bal": 7427,
      "##ula": 7428,
      "toep": 7429,
      "metabolieten": 7430,
      "aspiratie": 7431,
      "##ow": 7432,
      "fosfaat": 7433,
      "pericard": 7434,
      "NA": 7435,
      "dors": 7436,
      "neiging": 7437,
      "onderging": 7438,
      "arbe": 7439,
      "##IDS": 7440,
      "vergemakkelijken": 7441,
      "Las": 7442,
      "geoper": 7443,
      "##etrisch": 7444,
      "gead": 7445,
      "anemie": 7446,
      "##rosine": 7447,
      "brad": 7448,
      "bevestigde": 7449,
      "Is": 7450,
      "Verhoog": 7451,
      "pandem": 7452,
      "##straten": 7453,
      "equ": 7454,
      "##procedure": 7455,
      "trig": 7456,
      "Az": 7457,
      "Gesch": 7458,
      "MRSA": 7459,
      "NAD": 7460,
      "Zn": 7461,
      "##esen": 7462,
      "falen": 7463,
      "verspreid": 7464,
      "##ivariate": 7465,
      "kwaadaardige": 7466,
      "cytos": 7467,
      "##dip": 7468,
      "##materiaal": 7469,
      "##hec": 7470,
      "aantallen": 7471,
      "abnorm": 7472,
      "Sh": 7473,
      "variant": 7474,
      "retin": 7475,
      "atelectase": 7476,
      "##vir": 7477,
      "Fran": 7478,
      "lu": 7479,
      "versterkt": 7480,
      "casus": 7481,
      "##iqu": 7482,
      "voorste": 7483,
      "gelokaliseerd": 7484,
      "ETT": 7485,
      "##brengst": 7486,
      "kwal": 7487,
      "##27": 7488,
      "isolatie": 7489,
      "##vingen": 7490,
      "gestuurd": 7491,
      "bevalling": 7492,
      "Lip": 7493,
      "heel": 7494,
      "definitie": 7495,
      "Immun": 7496,
      "##sorb": 7497,
      "##derende": 7498,
      "langzaam": 7499,
      "SARS": 7500,
      "bewustzijn": 7501,
      "Name8": 7502,
      "sterf": 7503,
      "clin": 7504,
      "104": 7505,
      "rijp": 7506,
      "röntgenfoto": 7507,
      "ev": 7508,
      "centrum": 7509,
      "##ypen": 7510,
      "EXAM": 7511,
      "telef": 7512,
      "##kru": 7513,
      "modific": 7514,
      "##deelde": 7515,
      "conserv": 7516,
      "univers": 7517,
      "Hoog": 7518,
      "##plaats": 7519,
      "##clusies": 7520,
      "wissel": 7521,
      "interview": 7522,
      "##streng": 7523,
      "zieke": 7524,
      "hiervoor": 7525,
      "##hoofd": 7526,
      "induceert": 7527,
      "Cd": 7528,
      "Vt": 7529,
      "neutrofie": 7530,
      "aanvang": 7531,
      "Haar": 7532,
      "Profilaktie": 7533,
      "##gramma": 7534,
      "nauwelijks": 7535,
      "operatieve": 7536,
      "onderhoud": 7537,
      "##ichia": 7538,
      "##tras": 7539,
      "bescherm": 7540,
      "hr": 7541,
      "zware": 7542,
      "SV": 7543,
      "##angi": 7544,
      "neer": 7545,
      "hypog": 7546,
      "##uring": 7547,
      "extractie": 7548,
      "moeders": 7549,
      "beschermende": 7550,
      "CL": 7551,
      "bp": 7552,
      "##paraten": 7553,
      "karakterisering": 7554,
      "presenteert": 7555,
      "relevant": 7556,
      "commerc": 7557,
      "TGF": 7558,
      "FE": 7559,
      "mutanten": 7560,
      "NamePattern1": 7561,
      "##ypass": 7562,
      "blijken": 7563,
      "##60": 7564,
      "##verdeling": 7565,
      "single": 7566,
      "opleiding": 7567,
      "##opo": 7568,
      "immunohistoch": 7569,
      "##ata": 7570,
      "variabele": 7571,
      "behoren": 7572,
      "hoek": 7573,
      "##gevuld": 7574,
      "schizofren": 7575,
      "miRNA": 7576,
      "lasix": 7577,
      "##iose": 7578,
      "##DING": 7579,
      "lymfoom": 7580,
      "gehoor": 7581,
      "##iland": 7582,
      "bijv": 7583,
      "onmiddellijk": 7584,
      "##latie": 7585,
      "##ocortic": 7586,
      "respiratoire": 7587,
      "RN": 7588,
      "##LV": 7589,
      "case": 7590,
      "Asp": 7591,
      "##analyses": 7592,
      "##oley": 7593,
      "morfine": 7594,
      "verondersteld": 7595,
      "##auge": 7596,
      "leg": 7597,
      "Jap": 7598,
      "mengsel": 7599,
      "synthetische": 7600,
      "##omatisch": 7601,
      "##blasten": 7602,
      "##chi": 7603,
      "interf": 7604,
      "gesc": 7605,
      "longkanker": 7606,
      "steun": 7607,
      "##iverende": 7608,
      "stro": 7609,
      "##afd": 7610,
      "##ices": 7611,
      "ongeacht": 7612,
      "mechan": 7613,
      "Foley": 7614,
      "Nut": 7615,
      "##zon": 7616,
      "##omegal": 7617,
      "typische": 7618,
      "vaard": 7619,
      "geïnter": 7620,
      "##mol": 7621,
      "diff": 7622,
      "IP": 7623,
      "celd": 7624,
      "prov": 7625,
      "bis": 7626,
      "afzonderlijke": 7627,
      "##kel": 7628,
      "nabij": 7629,
      "diensten": 7630,
      "consensus": 7631,
      "##differentie": 7632,
      "gu": 7633,
      "##strategieën": 7634,
      "gewen": 7635,
      "##ruim": 7636,
      "Neut": 7637,
      "Recente": 7638,
      "106": 7639,
      "trad": 7640,
      "##AG": 7641,
      "nadruk": 7642,
      "verou": 7643,
      "##opor": 7644,
      "fenomeen": 7645,
      "##names": 7646,
      "geavanc": 7647,
      "pedi": 7648,
      "lad": 7649,
      "##tenis": 7650,
      "identificeerden": 7651,
      "latere": 7652,
      "##uste": 7653,
      "##ynaec": 7654,
      "personeel": 7655,
      "GE": 7656,
      "##veld": 7657,
      "thermische": 7658,
      "##ung": 7659,
      "vertegenwoordigt": 7660,
      "##actief": 7661,
      "##zende": 7662,
      "##YS": 7663,
      "wortel": 7664,
      "endometr": 7665,
      "gedeeltelijke": 7666,
      "vloeistoffen": 7667,
      "##graad": 7668,
      "Abdomen": 7669,
      "##ENTI": 7670,
      "bevolkings": 7671,
      "##metabolisme": 7672,
      "verv": 7673,
      "##hyro": 7674,
      "##heimer": 7675,
      "metastasen": 7676,
      "##inezuur": 7677,
      "##eliale": 7678,
      "##RL": 7679,
      "103": 7680,
      "EXAME": 7681,
      "##streren": 7682,
      "parallel": 7683,
      "time": 7684,
      "##diënt": 7685,
      "inch": 7686,
      "trim": 7687,
      "##gent": 7688,
      "efficiënt": 7689,
      "fist": 7690,
      "introductie": 7691,
      "brand": 7692,
      "##tal": 7693,
      "##mming": 7694,
      "##sk": 7695,
      "Kort": 7696,
      "keel": 7697,
      "overeenkomstige": 7698,
      "##son": 7699,
      "represent": 7700,
      "inheem": 7701,
      "samenwerking": 7702,
      "prospectieve": 7703,
      "home": 7704,
      "##operatie": 7705,
      "diure": 7706,
      "##stitu": 7707,
      "mediast": 7708,
      "MV": 7709,
      "##22": 7710,
      "##dosis": 7711,
      "##amelijke": 7712,
      "Engel": 7713,
      "omgekeerde": 7714,
      "vasc": 7715,
      "willekeurig": 7716,
      "##GD": 7717,
      "geïntro": 7718,
      "glomer": 7719,
      "centraal": 7720,
      "vezel": 7721,
      "dopamine": 7722,
      "##beschadiging": 7723,
      "primair": 7724,
      "doet": 7725,
      "Alz": 7726,
      "infer": 7727,
      "CoV": 7728,
      "Flowsheet": 7729,
      "##kinson": 7730,
      "Set": 7731,
      "ervaringen": 7732,
      "enigszins": 7733,
      "##ocon": 7734,
      "##wintig": 7735,
      "##mand": 7736,
      "kalium": 7737,
      "eic": 7738,
      "betrouwbare": 7739,
      "ent": 7740,
      "##ergische": 7741,
      "Moeder": 7742,
      "gol": 7743,
      "speciale": 7744,
      "Car": 7745,
      "##leid": 7746,
      "##mb": 7747,
      "verloop": 7748,
      "##acties": 7749,
      "##okin": 7750,
      "##diceerd": 7751,
      "Lymph": 7752,
      "Lasix": 7753,
      "kleuring": 7754,
      "##sies": 7755,
      "LDL": 7756,
      "daardoor": 7757,
      "aller": 7758,
      "besteld": 7759,
      "Tijd": 7760,
      "##achtig": 7761,
      "##sslagader": 7762,
      "vermoeid": 7763,
      "gepubliceerde": 7764,
      "eier": 7765,
      "##ureus": 7766,
      "tro": 7767,
      "blot": 7768,
      "uitzondering": 7769,
      "##racheale": 7770,
      "albumine": 7771,
      "element": 7772,
      "##mate": 7773,
      "##trekking": 7774,
      "##evens": 7775,
      "##atier": 7776,
      "##stherapie": 7777,
      "Toch": 7778,
      "##alpha": 7779,
      "geïnfecteerd": 7780,
      "##vestig": 7781,
      "##derdaad": 7782,
      "##standaard": 7783,
      "ECG": 7784,
      "##idyl": 7785,
      "beperking": 7786,
      "gemetast": 7787,
      "##nog": 7788,
      "fenotyp": 7789,
      "##benader": 7790,
      "##leukine": 7791,
      "Gezondheids": 7792,
      "farmacologische": 7793,
      "##diagnose": 7794,
      "morfologie": 7795,
      "##omon": 7796,
      "##lux": 7797,
      "##iëntatie": 7798,
      "cijfers": 7799,
      "geïnteg": 7800,
      "foto": 7801,
      "vergroot": 7802,
      "Tevens": 7803,
      "geel": 7804,
      "renale": 7805,
      "RBC": 7806,
      "##brengen": 7807,
      "macro": 7808,
      "Indi": 7809,
      "##wijze": 7810,
      "verlengd": 7811,
      "dynamiek": 7812,
      "beeldvorm": 7813,
      "creatinine": 7814,
      "onthullen": 7815,
      "Duit": 7816,
      "##sem": 7817,
      "amylo": 7818,
      "echt": 7819,
      "Escher": 7820,
      "verwachten": 7821,
      "##overdracht": 7822,
      "adolescenten": 7823,
      "opger": 7824,
      "celt": 7825,
      "weergegeven": 7826,
      "tijdstip": 7827,
      "##ules": 7828,
      "anatomische": 7829,
      "spin": 7830,
      "bypass": 7831,
      "transformatie": 7832,
      "##oet": 7833,
      "##MB": 7834,
      "implementatie": 7835,
      "beheersen": 7836,
      "placent": 7837,
      "ARF": 7838,
      "##elekt": 7839,
      "##verz": 7840,
      "Overige": 7841,
      "##CP": 7842,
      "##want": 7843,
      "uitstekende": 7844,
      "determin": 7845,
      "conclusie": 7846,
      "##lifer": 7847,
      "##cal": 7848,
      "overvloed": 7849,
      "Europa": 7850,
      "Escherichia": 7851,
      "Fl": 7852,
      "Alzheimer": 7853,
      "##riet": 7854,
      "toon": 7855,
      "rollen": 7856,
      "genomische": 7857,
      "##ioom": 7858,
      "##osen": 7859,
      "##nauw": 7860,
      "variabiliteit": 7861,
      "Toelating": 7862,
      "ko": 7863,
      "toler": 7864,
      "##hr": 7865,
      "bede": 7866,
      "bemon": 7867,
      "##ademisch": 7868,
      "endo": 7869,
      "gent": 7870,
      "cyclus": 7871,
      "TCO2": 7872,
      "vloer": 7873,
      "##CH": 7874,
      "ring": 7875,
      "pakken": 7876,
      "##heren": 7877,
      "##IGHT": 7878,
      "algoritme": 7879,
      "##osteroïden": 7880,
      "antimicro": 7881,
      "dex": 7882,
      "epider": 7883,
      "##iket": 7884,
      "##itude": 7885,
      "nov": 7886,
      "gesynthetiseerd": 7887,
      "##bereik": 7888,
      "HF": 7889,
      "beslis": 7890,
      "Glu": 7891,
      "##anker": 7892,
      "##ash": 7893,
      "##illus": 7894,
      "AK": 7895,
      "not": 7896,
      "##orad": 7897,
      "management": 7898,
      "Review": 7899,
      "##rofor": 7900,
      "##icot": 7901,
      "##aas": 7902,
      "##oside": 7903,
      "##gevol": 7904,
      "##psie": 7905,
      "##zw": 7906,
      "##yndroom": 7907,
      "##carb": 7908,
      "##ai": 7909,
      "waarna": 7910,
      "Terwijl": 7911,
      "lichamelijke": 7912,
      "lagen": 7913,
      "##MO": 7914,
      "##aliteiten": 7915,
      "##zijdige": 7916,
      "##ureel": 7917,
      "##alings": 7918,
      "##cter": 7919,
      "sneller": 7920,
      "##lykemie": 7921,
      "HCV": 7922,
      "incubatie": 7923,
      "##tests": 7924,
      "hypofyse": 7925,
      "##oont": 7926,
      "eryth": 7927,
      "voorbijgaande": 7928,
      "od": 7929,
      "remt": 7930,
      "getrokken": 7931,
      "##sn": 7932,
      "handen": 7933,
      "##staties": 7934,
      "##omeren": 7935,
      "##snelheid": 7936,
      "toestemming": 7937,
      "langetermijn": 7938,
      "##ellicht": 7939,
      "kritische": 7940,
      "##azine": 7941,
      "##LP": 7942,
      "off": 7943,
      "##stadi": 7944,
      "##onaal": 7945,
      "##rep": 7946,
      "psychische": 7947,
      "daal": 7948,
      "##artic": 7949,
      "##bale": 7950,
      "μg": 7951,
      "onderv": 7952,
      "psychologische": 7953,
      "seksueel": 7954,
      "Hist": 7955,
      "##RESSIE": 7956,
      "##oelen": 7957,
      "Zoals": 7958,
      "##appa": 7959,
      "wacht": 7960,
      "compressie": 7961,
      "advis": 7962,
      "nierfalen": 7963,
      "cDNA": 7964,
      "##kamer": 7965,
      "betrouwbaarheidsinter": 7966,
      "oestrogeen": 7967,
      "families": 7968,
      "feed": 7969,
      "inheemse": 7970,
      "##werpen": 7971,
      "##waarschijnlijk": 7972,
      "intermitt": 7973,
      "glutam": 7974,
      "Troponin": 7975,
      "gescheiden": 7976,
      "geconserv": 7977,
      "verduidelijk": 7978,
      "##26": 7979,
      "##70": 7980,
      "##rengt": 7981,
      "##ient": 7982,
      "##eeksel": 7983,
      "Japan": 7984,
      "bezorg": 7985,
      "##schaal": 7986,
      "##schijnlijke": 7987,
      "aanval": 7988,
      "pancreatitis": 7989,
      "knock": 7990,
      "##GR": 7991,
      "gehandha": 7992,
      "kandidaat": 7993,
      "jun": 7994,
      "zoeken": 7995,
      "gesloten": 7996,
      "##ficiënte": 7997,
      "##osyl": 7998,
      "Fib": 7999,
      "BMI": 8000,
      "VALVE": 8001,
      "Toen": 8002,
      "rook": 8003,
      "NPN": 8004,
      "epilept": 8005,
      "##insieke": 8006,
      "gekarakteriseerd": 8007,
      "registratie": 8008,
      "inzichten": 8009,
      "##ities": 8010,
      "gevor": 8011,
      "familieleden": 8012,
      "celdood": 8013,
      "starten": 8014,
      "##28": 8015,
      "frequente": 8016,
      "gehandhaafd": 8017,
      "sectie": 8018,
      "zijde": 8019,
      "spraak": 8020,
      "EK": 8021,
      "selectief": 8022,
      "##romatografie": 8023,
      "data": 8024,
      "##drachten": 8025,
      "180": 8026,
      "intram": 8027,
      "##pel": 8028,
      "afwachting": 8029,
      "##NT": 8030,
      "##iënten": 8031,
      "antip": 8032,
      "gevalide": 8033,
      "##itiviteit": 8034,
      "verschilden": 8035,
      "uiteindelijke": 8036,
      "##rillatie": 8037,
      "eet": 8038,
      "##sprogramma": 8039,
      "Fentanyl": 8040,
      "vader": 8041,
      "trache": 8042,
      "caps": 8043,
      "##mogelijk": 8044,
      "Best": 8045,
      "num": 8046,
      "##oflu": 8047,
      "##kinase": 8048,
      "##bes": 8049,
      "##B1": 8050,
      "plasmac": 8051,
      "gekweekte": 8052,
      "creë": 8053,
      "##sne": 8054,
      "##chron": 8055,
      "##dan": 8056,
      "coderen": 8057,
      "allo": 8058,
      "##iaanse": 8059,
      "##ouwen": 8060,
      "##olling": 8061,
      "##rijs": 8062,
      "##centrum": 8063,
      "dd": 8064,
      "##aardig": 8065,
      "herstellen": 8066,
      "atyp": 8067,
      "IDENTI": 8068,
      "##proliferatie": 8069,
      "##nec": 8070,
      "##bru": 8071,
      "##schien": 8072,
      "Gauge": 8073,
      "Vitale": 8074,
      "PUL": 8075,
      "proteïne": 8076,
      "##peraturen": 8077,
      "##responsen": 8078,
      "adju": 8079,
      "verpleegkundige": 8080,
      "aantonen": 8081,
      "Eos": 8082,
      "##loot": 8083,
      "chlor": 8084,
      "urin": 8085,
      "image002": 8086,
      "##niet": 8087,
      "verrichten": 8088,
      "##problemen": 8089,
      "##spier": 8090,
      "Vier": 8091,
      "##osoc": 8092,
      "internationale": 8093,
      "##fuseerd": 8094,
      "glad": 8095,
      "##TS": 8096,
      "idee": 8097,
      "gemengde": 8098,
      "cx": 8099,
      "##stap": 8100,
      "Oor": 8101,
      "volksgezondheid": 8102,
      "oxidatie": 8103,
      "valt": 8104,
      "revalidatie": 8105,
      "##stering": 8106,
      "hard": 8107,
      "HEENT": 8108,
      "bib": 8109,
      "##tool": 8110,
      "langdurig": 8111,
      "##off": 8112,
      "##ush": 8113,
      "Hun": 8114,
      "vereiste": 8115,
      "##ologe": 8116,
      "##tocol": 8117,
      "occ": 8118,
      "##ionen": 8119,
      "##AMP": 8120,
      "##lass": 8121,
      "nierinsufficiëntie": 8122,
      "risicofactor": 8123,
      "##kort": 8124,
      "##eron": 8125,
      "##red": 8126,
      "##ofosf": 8127,
      "absolute": 8128,
      "##ineres": 8129,
      "pall": 8130,
      "##eph": 8131,
      "netwerken": 8132,
      "##stechn": 8133,
      "##oses": 8134,
      "geïndiceerd": 8135,
      "Type": 8136,
      "fec": 8137,
      "integratie": 8138,
      "##itm": 8139,
      "besloten": 8140,
      "##frine": 8141,
      "twijf": 8142,
      "eenmaal": 8143,
      "Experim": 8144,
      "levende": 8145,
      "kenmerk": 8146,
      "symptoom": 8147,
      "Of": 8148,
      "##coëfficiën": 8149,
      "afval": 8150,
      "IDENTIFI": 8151,
      "cla": 8152,
      "fibrose": 8153,
      "##structuren": 8154,
      "echocardi": 8155,
      "##tomografie": 8156,
      "##90": 8157,
      "##ocumente": 8158,
      "IDENTIFIER": 8159,
      "##uron": 8160,
      "##ssysteem": 8161,
      "##ikken": 8162,
      "hemodynam": 8163,
      "##ibel": 8164,
      "geïnject": 8165,
      "trial": 8166,
      "##avond": 8167,
      "dominante": 8168,
      "beweg": 8169,
      "jonger": 8170,
      "operaties": 8171,
      "##kennen": 8172,
      "bespreekt": 8173,
      "##hormoon": 8174,
      "gecompliceerd": 8175,
      "##erpen": 8176,
      "Rhyth": 8177,
      "genezing": 8178,
      "##ISS": 8179,
      "veelal": 8180,
      "##schijnselen": 8181,
      "##emmers": 8182,
      "##anth": 8183,
      "empir": 8184,
      "voldoen": 8185,
      "##cons": 8186,
      "Evaluatie": 8187,
      "Intern": 8188,
      "promin": 8189,
      "Slechts": 8190,
      "AIDS": 8191,
      "##uppressie": 8192,
      "1990": 8193,
      "stenose": 8194,
      "##akeld": 8195,
      "antico": 8196,
      "aureus": 8197,
      "remissie": 8198,
      "nanop": 8199,
      "geteste": 8200,
      "tegelijkertijd": 8201,
      "##bestr": 8202,
      "state": 8203,
      "Centrum": 8204,
      "##80": 8205,
      "kwest": 8206,
      "cum": 8207,
      "##itud": 8208,
      "##emet": 8209,
      "buurt": 8210,
      "hippocampus": 8211,
      "MAE": 8212,
      "online": 8213,
      "geconcludeerd": 8214,
      "##lear": 8215,
      "colorect": 8216,
      "##annen": 8217,
      "EV": 8218,
      "metastase": 8219,
      "vallen": 8220,
      "##omisch": 8221,
      "oplosbare": 8222,
      "reproduc": 8223,
      "##omeer": 8224,
      "embryonale": 8225,
      "gestopt": 8226,
      "##bladen": 8227,
      "##suline": 8228,
      "congen": 8229,
      "allel": 8230,
      "Noord": 8231,
      "##waart": 8232,
      "biof": 8233,
      "onderdrukking": 8234,
      "##inname": 8235,
      "##pervlakken": 8236,
      "kanalen": 8237,
      "AG": 8238,
      "##osens": 8239,
      "katalys": 8240,
      "kolon": 8241,
      "##iten": 8242,
      "##adig": 8243,
      "vervol": 8244,
      "sensorische": 8245,
      "S2": 8246,
      "versn": 8247,
      "wetenschappelijk": 8248,
      "##feren": 8249,
      "##RS": 8250,
      "##otter": 8251,
      "##57": 8252,
      "definitieve": 8253,
      "##olol": 8254,
      "##gevat": 8255,
      "december": 8256,
      "onderdrukt": 8257,
      "formul": 8258,
      "intacte": 8259,
      "minister": 8260,
      "voorspelde": 8261,
      "##O3": 8262,
      "##stoestand": 8263,
      "adip": 8264,
      "##uma": 8265,
      "##ardia": 8266,
      "kleinere": 8267,
      "##syndroom": 8268,
      "##rab": 8269,
      "dikte": 8270,
      "##hals": 8271,
      "##dehy": 8272,
      "bemiddel": 8273,
      "Del": 8274,
      "commun": 8275,
      "hartslag": 8276,
      "lar": 8277,
      "sequencing": 8278,
      "betreffende": 8279,
      "acid": 8280,
      "HPV": 8281,
      "gedocumente": 8282,
      "ontdekt": 8283,
      "vertraging": 8284,
      "##metastasen": 8285,
      "##huid": 8286,
      "##FP": 8287,
      "PRE": 8288,
      "cav": 8289,
      "gemute": 8290,
      "kliniek": 8291,
      "ervoor": 8292,
      "fractuur": 8293,
      "##woordig": 8294,
      "##hoek": 8295,
      "substraten": 8296,
      "##kwaliteit": 8297,
      "avond": 8298,
      "afwezig": 8299,
      "fix": 8300,
      "lij": 8301,
      "##oder": 8302,
      "FL": 8303,
      "Min": 8304,
      "metalen": 8305,
      "geïntroduceerd": 8306,
      "kop": 8307,
      "##bra": 8308,
      "##patronen": 8309,
      "##orine": 8310,
      "inhal": 8311,
      "##capaciteit": 8312,
      "##BD": 8313,
      "##athische": 8314,
      "##ocarcinoom": 8315,
      "set": 8316,
      "somatische": 8317,
      "overgewicht": 8318,
      "verstoring": 8319,
      "codeert": 8320,
      "rokers": 8321,
      "sleut": 8322,
      "##alcium": 8323,
      "praktische": 8324,
      "##ions": 8325,
      "STAT": 8326,
      "##adigde": 8327,
      "getoler": 8328,
      "seiz": 8329,
      "##34": 8330,
      "##ymf": 8331,
      "Medisch": 8332,
      "bezoeken": 8333,
      "hybrid": 8334,
      "polikliniek": 8335,
      "moduleren": 8336,
      "##cement": 8337,
      "karakterist": 8338,
      "##waartse": 8339,
      "serie": 8340,
      "Ve": 8341,
      "waarschijnlijke": 8342,
      "verwond": 8343,
      "poster": 8344,
      "##ciplinaire": 8345,
      "##aandoeningen": 8346,
      "kat": 8347,
      "intracraniële": 8348,
      "inn": 8349,
      "conform": 8350,
      "Cor": 8351,
      "##hed": 8352,
      "##rapp": 8353,
      "onderdrukken": 8354,
      "onbehandel": 8355,
      "interleukine": 8356,
      "##ilatatie": 8357,
      "prospectief": 8358,
      "T2": 8359,
      "bacterie": 8360,
      "teken": 8361,
      "pren": 8362,
      "compet": 8363,
      "herkenning": 8364,
      "tijdschrift": 8365,
      "Differentiële": 8366,
      "SW": 8367,
      "##verhouding": 8368,
      "vaccins": 8369,
      "##ageert": 8370,
      "klim": 8371,
      "##athion": 8372,
      "hiv": 8373,
      "##imes": 8374,
      "ru": 8375,
      "getroffen": 8376,
      "plaqu": 8377,
      "Bi": 8378,
      "ee": 8379,
      "verwante": 8380,
      "ventrikel": 8381,
      "pandemie": 8382,
      "schizofrenie": 8383,
      "##ylogen": 8384,
      "Even": 8385,
      "Urine": 8386,
      "infectieuze": 8387,
      "percentages": 8388,
      "kostenef": 8389,
      "Vergeleken": 8390,
      "##ocomp": 8391,
      "vetzuren": 8392,
      "##biopsie": 8393,
      "epilepsie": 8394,
      "##retie": 8395,
      "pasgeborenen": 8396,
      "transfusie": 8397,
      "ras": 8398,
      "##its": 8399,
      "##oïne": 8400,
      "genotype": 8401,
      "##azep": 8402,
      "gebruikelijke": 8403,
      "##alic": 8404,
      "EB": 8405,
      "hydrol": 8406,
      "VEGF": 8407,
      "##stat": 8408,
      "uitvoer": 8409,
      "variaties": 8410,
      "droge": 8411,
      "##elk": 8412,
      "verworven": 8413,
      "verbl": 8414,
      "##gave": 8415,
      "theoretische": 8416,
      "##versch": 8417,
      "natuurlijk": 8418,
      "herhaling": 8419,
      "##urgitatie": 8420,
      "Glycemische": 8421,
      "##esium": 8422,
      "zetten": 8423,
      "2D": 8424,
      "betrof": 8425,
      "toegelaten": 8426,
      "chloor": 8427,
      "zwakke": 8428,
      "##URO": 8429,
      "oplossingen": 8430,
      "PIP": 8431,
      "##ope": 8432,
      "##gorde": 8433,
      "voudig": 8434,
      "gebeurtenis": 8435,
      "verlagen": 8436,
      "associaties": 8437,
      "wetenschap": 8438,
      "nitro": 8439,
      "eierst": 8440,
      "##gewerkt": 8441,
      "microbiële": 8442,
      "zoogdieren": 8443,
      "uitgest": 8444,
      "toxische": 8445,
      "NMR": 8446,
      "activeren": 8447,
      "GR": 8448,
      "##rex": 8449,
      "hoogst": 8450,
      "cytokine": 8451,
      "overigens": 8452,
      "##eende": 8453,
      "pols": 8454,
      "dergelijk": 8455,
      "gemodificeerde": 8456,
      "gewoon": 8457,
      "proberen": 8458,
      "cath": 8459,
      "extub": 8460,
      "##wekken": 8461,
      "SK": 8462,
      "principe": 8463,
      "medicamenteuze": 8464,
      "beadem": 8465,
      "##ontin": 8466,
      "uitgesproken": 8467,
      "raad": 8468,
      "voorlopig": 8469,
      "membranen": 8470,
      "##zo": 8471,
      "steroïden": 8472,
      "etn": 8473,
      "##ructure": 8474,
      "roze": 8475,
      "wijd": 8476,
      "verdwenen": 8477,
      "pyl": 8478,
      "symptomatische": 8479,
      "Links": 8480,
      "biomarkers": 8481,
      "treedt": 8482,
      "vr": 8483,
      "Total": 8484,
      "NEG": 8485,
      "##net": 8486,
      "Momenteel": 8487,
      "inmiddels": 8488,
      "afst": 8489,
      "georiënteerd": 8490,
      "grens": 8491,
      "hoor": 8492,
      "perfusie": 8493,
      "tyrosine": 8494,
      "onderw": 8495,
      "##LY": 8496,
      "kno": 8497,
      "fracturen": 8498,
      "mer": 8499,
      "##vig": 8500,
      "houding": 8501,
      "TM": 8502,
      "apparaten": 8503,
      "Linke": 8504,
      "suik": 8505,
      "vitale": 8506,
      "Mono": 8507,
      "107": 8508,
      "antimicrobiële": 8509,
      "bevatte": 8510,
      "2005": 8511,
      "Verhoogde": 8512,
      "China": 8513,
      "##acu": 8514,
      "Hosp": 8515,
      "Kinder": 8516,
      "begeleiding": 8517,
      "setting": 8518,
      "merk": 8519,
      "2007": 8520,
      "##iforme": 8521,
      "ultras": 8522,
      "##back": 8523,
      "endotheelcellen": 8524,
      "##osynthese": 8525,
      "TB": 8526,
      "##iasis": 8527,
      "bijnier": 8528,
      "ondersteund": 8529,
      "poging": 8530,
      "##vaccin": 8531,
      "##verse": 8532,
      "celcyclus": 8533,
      "##ransport": 8534,
      "circulatie": 8535,
      "##vaardigd": 8536,
      "waarom": 8537,
      "EKG": 8538,
      "onderzoekt": 8539,
      "##oglyc": 8540,
      "prolifer": 8541,
      "details": 8542,
      "##uz": 8543,
      "verdragen": 8544,
      "##urt": 8545,
      "opslag": 8546,
      "##kundig": 8547,
      "polymeer": 8548,
      "##draag": 8549,
      "abces": 8550,
      "plaatsvinden": 8551,
      "##spatroon": 8552,
      "katalytische": 8553,
      "moest": 8554,
      "TA": 8555,
      "pil": 8556,
      "reconstructie": 8557,
      "leggen": 8558,
      "gebruikers": 8559,
      "omgekeerd": 8560,
      "##feïne": 8561,
      "Stool": 8562,
      "ontslagen": 8563,
      "Doorgaan": 8564,
      "EXAMENATION": 8565,
      "diurese": 8566,
      "Sur": 8567,
      "Gem": 8568,
      "gynaec": 8569,
      "##asker": 8570,
      "hersteld": 8571,
      "Balance": 8572,
      "tol": 8573,
      "Blijf": 8574,
      "besliss": 8575,
      "erytrocyten": 8576,
      "echte": 8577,
      "toeg": 8578,
      "decennia": 8579,
      "elektrol": 8580,
      "GAB": 8581,
      "##DM": 8582,
      "heb": 8583,
      "##eemt": 8584,
      "##vatting": 8585,
      "industrie": 8586,
      "histopath": 8587,
      "elektronische": 8588,
      "##ellings": 8589,
      "diffusie": 8590,
      "koppeling": 8591,
      "vermoeidheid": 8592,
      "hulpmiddelen": 8593,
      "##antagon": 8594,
      "cholec": 8595,
      "asymm": 8596,
      "Waarschijnlijk": 8597,
      "trac": 8598,
      "Init": 8599,
      "betrouwbaar": 8600,
      "##atin": 8601,
      "compartim": 8602,
      "tube": 8603,
      "groeiende": 8604,
      "bundel": 8605,
      "ventrik": 8606,
      "##bronnen": 8607,
      "toeneemt": 8608,
      "druppel": 8609,
      "##pletie": 8610,
      "Spec": 8611,
      "ziekenhuisopname": 8612,
      "assemblage": 8613,
      "tib": 8614,
      "##tige": 8615,
      "##alys": 8616,
      "##atio": 8617,
      "spi": 8618,
      "PSV": 8619,
      "bevindt": 8620,
      "concurr": 8621,
      "voedingsmiddelen": 8622,
      "veroudering": 8623,
      "##tes": 8624,
      "echo": 8625,
      "manieren": 8626,
      "serot": 8627,
      "moleculair": 8628,
      "OSH": 8629,
      "##sterkte": 8630,
      "preoperatieve": 8631,
      "##III": 8632,
      "grof": 8633,
      "benen": 8634,
      "LA": 8635,
      "##K1": 8636,
      "omvatte": 8637,
      "onderworpen": 8638,
      "2003": 8639,
      "Aut": 8640,
      "hybride": 8641,
      "##osinof": 8642,
      "gekomen": 8643,
      "##nelheden": 8644,
      "maart": 8645,
      "toegewezen": 8646,
      "tegenover": 8647,
      "dod": 8648,
      "Status": 8649,
      "##orescentie": 8650,
      "##paraat": 8651,
      "erfelijke": 8652,
      "spanning": 8653,
      "CONT": 8654,
      "analyseerden": 8655,
      "##othe": 8656,
      "108": 8657,
      "verslechter": 8658,
      "Borst": 8659,
      "inspanningen": 8660,
      "##lichting": 8661,
      "geladen": 8662,
      "resulterende": 8663,
      "artro": 8664,
      "monoklonale": 8665,
      "##inese": 8666,
      "##acte": 8667,
      "Ons": 8668,
      "##adin": 8669,
      "##gevoelige": 8670,
      "pediatrische": 8671,
      "drempel": 8672,
      "inse": 8673,
      "adap": 8674,
      "##ork": 8675,
      "##lax": 8676,
      "afgesch": 8677,
      "cardiomy": 8678,
      "##iserende": 8679,
      "##ctus": 8680,
      "osteopor": 8681,
      "##lijsten": 8682,
      "uiterlijk": 8683,
      "Flu": 8684,
      "dar": 8685,
      "bloedstroom": 8686,
      "##stral": 8687,
      "anticon": 8688,
      "willekeurige": 8689,
      "waarnemingen": 8690,
      "dend": 8691,
      "##acer": 8692,
      "Lever": 8693,
      "##opril": 8694,
      "zeg": 8695,
      "evolution": 8696,
      "Des": 8697,
      "vererg": 8698,
      "##krijk": 8699,
      "voorafgaande": 8700,
      "resulteren": 8701,
      "2004": 8702,
      "naarmate": 8703,
      "bul": 8704,
      "nadelige": 8705,
      "Ob": 8706,
      "vermeende": 8707,
      "Hel": 8708,
      "##tische": 8709,
      "overnacht": 8710,
      "##speriode": 8711,
      "silic": 8712,
      "bind": 8713,
      "isot": 8714,
      "Geschiedenis": 8715,
      "##elcel": 8716,
      "##°C": 8717,
      "endocriene": 8718,
      "##ara": 8719,
      "histologisch": 8720,
      "##weefsels": 8721,
      "infiltratie": 8722,
      "project": 8723,
      "##ober": 8724,
      "lood": 8725,
      "immuunrespons": 8726,
      "herkennen": 8727,
      "Buik": 8728,
      "##beta": 8729,
      "##oplasmatische": 8730,
      "interferon": 8731,
      "gewijzigd": 8732,
      "Daarbij": 8733,
      "preventieve": 8734,
      "##opressor": 8735,
      "##osomaal": 8736,
      "manip": 8737,
      "simulaties": 8738,
      "IMP": 8739,
      "##lijnen": 8740,
      "##asten": 8741,
      "schadelijke": 8742,
      "##ringen": 8743,
      "behoeften": 8744,
      "Binnen": 8745,
      "moder": 8746,
      "heterogeniteit": 8747,
      "##ollings": 8748,
      "biologisch": 8749,
      "neu": 8750,
      "fouten": 8751,
      "##iod": 8752,
      "profylaxe": 8753,
      "tabak": 8754,
      "cat": 8755,
      "##kn": 8756,
      "vaardigheden": 8757,
      "##gend": 8758,
      "gedifferentie": 8759,
      "elders": 8760,
      "steroïde": 8761,
      "retrospectieve": 8762,
      "antide": 8763,
      "sensitiviteit": 8764,
      "prostaatkanker": 8765,
      "2001": 8766,
      "exper": 8767,
      "##ware": 8768,
      "verschijning": 8769,
      "Full": 8770,
      "##dagen": 8771,
      "Verminder": 8772,
      "fenyl": 8773,
      "##GS": 8774,
      "bindt": 8775,
      "konijnen": 8776,
      "massaspectrometrie": 8777,
      "comorbiditeit": 8778,
      "##roken": 8779,
      "delet": 8780,
      "andro": 8781,
      "introduc": 8782,
      "##iften": 8783,
      "##telijk": 8784,
      "strom": 8785,
      "##ylzuur": 8786,
      "RD": 8787,
      "NGT": 8788,
      "jongeren": 8789,
      "verwachte": 8790,
      "definiëren": 8791,
      "VENT": 8792,
      "##xine": 8793,
      "2010": 8794,
      "Alleen": 8795,
      "bevordert": 8796,
      "resistent": 8797,
      "gecode": 8798,
      "##OUN": 8799,
      "gr": 8800,
      "My": 8801,
      "kappa": 8802,
      "##amb": 8803,
      "Lang": 8804,
      "2002": 8805,
      "##inet": 8806,
      "##inaal": 8807,
      "2008": 8808,
      "achterste": 8809,
      "middag": 8810,
      "##verzorg": 8811,
      "National": 8812,
      "partner": 8813,
      "Ox": 8814,
      "##hen": 8815,
      "##angt": 8816,
      "arch": 8817,
      "Ele": 8818,
      "transgene": 8819,
      "##urgen": 8820,
      "gezuiverd": 8821,
      "##cir": 8822,
      "##lycer": 8823,
      "Vloeistofbalans": 8824,
      "handhaven": 8825,
      "aanvaard": 8826,
      "##keten": 8827,
      "##loze": 8828,
      "ruggenmerg": 8829,
      "##lopen": 8830,
      "##VER": 8831,
      "Afgifte": 8832,
      "Can": 8833,
      "##raakbeen": 8834,
      "##CL": 8835,
      "##bestrijding": 8836,
      "##ilaterale": 8837,
      "longitud": 8838,
      "Parkinson": 8839,
      "gestimuleerde": 8840,
      "aud": 8841,
      "april": 8842,
      "##diol": 8843,
      "##oped": 8844,
      "doods": 8845,
      "##amil": 8846,
      "deed": 8847,
      "gestandaard": 8848,
      "verandert": 8849,
      "##ijen": 8850,
      "Qu": 8851,
      "New": 8852,
      "##ikking": 8853,
      "nul": 8854,
      "ingrepen": 8855,
      "##organisatie": 8856,
      "gestimuleerd": 8857,
      "##ket": 8858,
      "##ratio": 8859,
      "##ateuze": 8860,
      "afwijkend": 8861,
      "2006": 8862,
      "##inol": 8863,
      "vervanging": 8864,
      "geëxtra": 8865,
      "slapen": 8866,
      "maxim": 8867,
      "nationale": 8868,
      "##idende": 8869,
      "immunore": 8870,
      "NEURO": 8871,
      "fragment": 8872,
      "plannen": 8873,
      "geschatte": 8874,
      "astro": 8875,
      "reumat": 8876,
      "micros": 8877,
      "##ysacchar": 8878,
      "##techniek": 8879,
      "splitsing": 8880,
      "voorsch": 8881,
      "visu": 8882,
      "Utre": 8883,
      "##ycardia": 8884,
      "Lev": 8885,
      "waaruit": 8886,
      "daarentegen": 8887,
      "##egen": 8888,
      "##ilt": 8889,
      "NR": 8890,
      "progest": 8891,
      "schema": 8892,
      "app": 8893,
      "##opten": 8894,
      "misschien": 8895,
      "meisjes": 8896,
      "##danig": 8897,
      "lijden": 8898,
      "oct": 8899,
      "oefen": 8900,
      "##36": 8901,
      "pathogene": 8902,
      "Die": 8903,
      "##PP": 8904,
      "##MG": 8905,
      "##lenol": 8906,
      "##schema": 8907,
      "PNA": 8908,
      "angiotens": 8909,
      "tevreden": 8910,
      "speeksel": 8911,
      "krachtig": 8912,
      "okt": 8913,
      "##orro": 8914,
      "##otherapeut": 8915,
      "cluster": 8916,
      "instrument": 8917,
      "NSR": 8918,
      "opvallend": 8919,
      "rapporten": 8920,
      "epid": 8921,
      "CD8": 8922,
      "maternale": 8923,
      "pericardiële": 8924,
      "fasen": 8925,
      "microm": 8926,
      "beë": 8927,
      "##activatie": 8928,
      "war": 8929,
      "database": 8930,
      "##ties": 8931,
      "##alende": 8932,
      "196": 8933,
      "verblijf": 8934,
      "##ario": 8935,
      "##stitiële": 8936,
      "perioden": 8937,
      "##hes": 8938,
      "Ref": 8939,
      "##ocale": 8940,
      "ACE": 8941,
      "Utrecht": 8942,
      "##ijne": 8943,
      "vermoedelijk": 8944,
      "comfortabel": 8945,
      "##urend": 8946,
      "instantie": 8947,
      "cyan": 8948,
      "##lict": 8949,
      "slijmvlies": 8950,
      "sterfgevallen": 8951,
      "Albumine": 8952,
      "liganden": 8953,
      "hernia": 8954,
      "overleven": 8955,
      "##kosten": 8956,
      "##vloeistof": 8957,
      "subeenheid": 8958,
      "plotseling": 8959,
      "##iepen": 8960,
      "##keken": 8961,
      "gewichtsverlies": 8962,
      "tolerantie": 8963,
      "##antia": 8964,
      "ontwerpen": 8965,
      "hemoglobine": 8966,
      "gedetailleerde": 8967,
      "##paren": 8968,
      "bedre": 8969,
      "Mar": 8970,
      "wester": 8971,
      "systematisch": 8972,
      "nat": 8973,
      "abort": 8974,
      "##ovirus": 8975,
      "Rotter": 8976,
      "##yk": 8977,
      "perin": 8978,
      "persoonlijk": 8979,
      "FS": 8980,
      "##irurgen": 8981,
      "toenemen": 8982,
      "##omonas": 8983,
      "oktober": 8984,
      "auton": 8985,
      "bedrijf": 8986,
      "getolereerd": 8987,
      "stier": 8988,
      "pal": 8989,
      "##illa": 8990,
      "##orting": 8991,
      "##product": 8992,
      "synaptische": 8993,
      "stimulus": 8994,
      "schedel": 8995,
      "fab": 8996,
      "Contrast": 8997,
      "verzeker": 8998,
      "##onat": 8999,
      "Herziening": 9000,
      "##populaties": 9001,
      "beslissing": 9002,
      "##nummer": 9003,
      "Rotterdam": 9004,
      "oxy": 9005,
      "sect": 9006,
      "##lad": 9007,
      "correct": 9008,
      "##ieur": 9009,
      "##itine": 9010,
      "voorspeld": 9011,
      "koolhy": 9012,
      "##aant": 9013,
      "##ïc": 9014,
      "##illin": 9015,
      "##ypes": 9016,
      "levensduur": 9017,
      "regurgitatie": 9018,
      "conj": 9019,
      "situaties": 9020,
      "ondersteunt": 9021,
      "juni": 9022,
      "bewegings": 9023,
      "responden": 9024,
      "nuttige": 9025,
      "sleutel": 9026,
      "##rig": 9027,
      "sats": 9028,
      "bloedg": 9029,
      "draag": 9030,
      "Nu": 9031,
      "klonen": 9032,
      "Nieuwe": 9033,
      "##umadin": 9034,
      "glucocortic": 9035,
      "##choline": 9036,
      "##isende": 9037,
      "Austral": 9038,
      "geac": 9039,
      "pneumonie": 9040,
      "EXT": 9041,
      "##aking": 9042,
      "##itect": 9043,
      "fluoresc": 9044,
      "versie": 9045,
      "Gebeurtenissen": 9046,
      "##streeks": 9047,
      "##ofen": 9048,
      "##omegalie": 9049,
      "##ette": 9050,
      "intensieve": 9051,
      "odds": 9052,
      "T1": 9053,
      "Universiteit": 9054,
      "Ros": 9055,
      "toezicht": 9056,
      "gladde": 9057,
      "##TH": 9058,
      "bloedverlies": 9059,
      "persist": 9060,
      "Blijft": 9061,
      "##weegt": 9062,
      "Ang": 9063,
      "GABA": 9064,
      "Intra": 9065,
[...]
