[PAD]
[UNK]
[CLS]
[SEP]
[MASK]
[EX0]
[EX1]
[EX2]
[EX3]
[EX4]
[EX5]
[EX6]
[EX7]
[EX8]
[EX9]
[EX10]
[EX11]
[EX12]
[EX13]
[EX14]
[EX15]
[EX16]
[EX17]
[EX18]
[EX19]
[EX20]
[EX21]
[EX22]
[EX23]
[EX24]
[EX25]
[EX26]
[EX27]
[EX28]
[EX29]
[EX30]
[EX31]
[EX32]
[EX33]
[EX34]
[EX35]
[EX36]
[EX37]
[EX38]
[EX39]
[EX40]
[EX41]
[EX42]
[EX43]
[EX44]
[EX45]
[EX46]
[EX47]
[EX48]
[EX49]
!
"
#
$
%
&
'
(
)
*
+
,
-
.
/
0
1
2
3
4
5
6
7
8
9
:
;
<
=
>
?
@
A
B
C
D
E
F
G
H
I
J
K
L
M
N
O
P
Q
R
S
T
U
V
W
X
Y
Z
[
\
]
^
_
`
a
b
c
d
e
f
g
h
i
j
k
l
m
n
o
p
q
r
s
t
u
v
w
x
y
z
{
|
}
~
¡
¢
£
¤
¥
¦
§
¨
©
ª
«
¬
®
¯
°
±
²
³
´
µ
¶
·
¸
¹
º
»
¼
½
¾
¿
À
Á
Â
Ã
Ä
Å
Æ
Ç
È
É
Ê
Ë
Ì
Í
Î
Ï
Ð
Ñ
Ò
Ó
Ô
Õ
Ö
×
Ø
Ù
Ú
Û
Ü
Ý
Þ
ß
à
á
â
ã
ä
å
æ
ç
è
é
ê
ë
ì
í
î
ï
ð
ñ
ò
ó
ô
õ
ö
÷
ø
ù
ú
û
ü
ý
þ
ÿ
Ā
ā
ă
ą
Ć
ć
ĉ
Č
č
ď
Đ
đ
Ē
ē
ė
ę
ě
ĝ
ğ
Ġ
ġ
Ĥ
ĥ
Ħ
ħ
ĩ
Ī
ī
İ
ı
Ĳ
ĳ
ĵ
ķ
ĸ
ļ
ľ
Ł
ł
Ń
ń
ņ
ň
ŋ
Ō
ō
Ő
ő
Œ
œ
Ř
ř
Ś
ś
Ŝ
Ş
ş
Š
š
ţ
ť
ū
ŭ
ů
ű
Ų
ų
Ÿ
ź
Ż
ż
Ž
ž
Ƃ
ƃ
Ə
Ɛ
ƒ
Ɣ
ƙ
ƞ
ƴ
ǁ
ǂ
ǎ
ǔ
ȁ
ȗ
ș
Ț
ț
Ȧ
ȳ
ɑ
ɔ
ɕ
ə
ɛ
ɡ
ɣ
ɤ
ɨ
ɪ
ɯ
ɸ
ʌ
ʹ
ʻ
ʾ
ʿ
˂
˃
ˆ
ˈ
ˉ
ː
˙
˚
˜
˥
˿
̀
́
̂
̄
̅
̆
̇
̈
̊
̋
̌
̧
̶
Ͳ
ͳ
;
΅
Ά
·
Α
Β
Γ
Δ
Ε
Η
Θ
Ι
Κ
Λ
Μ
Ν
Ξ
Ο
Π
Ρ
Σ
Τ
Υ
Φ
Χ
Ψ
Ω
ά
έ
ή
ί
α
β
γ
δ
ε
ζ
η
θ
ι
κ
λ
μ
ν
ξ
ο
π
ρ
ς
σ
τ
υ
φ
χ
ψ
ω
ϊ
ό
ύ
ώ
Ϗ
ϒ
ϕ
Ϯ
ϱ
ϵ
Є
І
Ј
А
Б
В
Г
Д
Е
Ж
З
И
Й
К
Л
М
Н
О
П
Р
С
Т
У
Ф
Х
Ц
Ш
Ъ
Ю
Я
а
б
в
г
д
е
ж
з
и
й
к
л
м
н
о
п
р
с
т
у
ф
х
ц
ч
ш
щ
ъ
ы
ь
э
ю
я
ё
і
ї
֯
ְ
ִ
ֹ
ּ
־
א
ב
ד
ה
ו
ז
ח
י
ל
ם
מ
ן
נ
ס
ע
פ
ר
ש
ת
׳
״
،
أ
ا
ب
ة
ت
ث
ج
ح
خ
د
ذ
ر
ز
س
ش
ص
ض
ط
ظ
ع
ـ
ق
ك
ل
م
ن
ه
و
ي
٠
١
پ
ۛ
ं
आ
क
ग
ज
ड
ण
त
न
प
फ
ब
म
य
र
व
श
स
़
ा
ी
्
স
্
௠
ಟ
ಲ
ಶ
ಿ
ೆ
್
ก
ค
ง
ต
บ
ฟ
ม
ร
ล
ห
อ
า
แ
โ
ใ
่
้
་
ག
ད
ན
བ
འ
ར
ུ
ྩ
ྭ
ྱ
ᅟ
ᎏ
Ḍ
ḍ
ḗ
Ḡ
Ḥ
ḥ
ṅ
ṇ
ṛ
ṣ
ṭ
ả
ế
ệ
ổ
ữ
ἀ
ἄ
ἅ
ἐ
ἔ
ἠ
ἡ
ἰ
ἱ
ἴ
ἷ
Ἱ
ὀ
ὁ
ὄ
ὐ
ὑ
ὔ
ὕ
ὖ
ὠ
ὤ
ὲ
ὶ
ὸ
ό
ᾰ
᾽
ῆ
ῖ
ῥ
ῦ
ῶ
ῷ
‐
‑
‒
–
—
―
‖
‗
‘
’
‚
“
”
„
‟
†
‡
•
…
‰
′
″
‹
›
※
⁄
⁎
⁰
⁴
⁵
⁶
⁸
⁹
⁺
⁻
₀
₁
₂
₃
₄
₅
₆
€
₹
℃
ℓ
ℕ
№
ℜ
™
Ω
⅓
⅔
⅛
⅜
Ⅰ
Ⅱ
Ⅲ
ⅹ
←
↑
→
↓
↔
↕
↗
↙
↦
↲
↷
⇀
⇄
⇆
⇋
⇌
⇐
⇑
⇒
⇓
⇔
⇝
⇨
∂
∆
∇
∈
∊
∏
∑
−
∕
∗
∘
∙
√
∝
∞
∠
∣
∥
∧
∩
∪
∫
∶
∼
≃
≅
≈
≍
≒
≠
≡
≤
≥
≦
≧
≪
≫
≲
⊂
⊕
⊖
⊗
⊙
⊝
⊥
⋅
⋠
⋮
⋯
⌣
⎡
⎢
⎣
⎤
⎥
⎦
⏐
␤
①
②
③
④
⑤
⑥
⑦
⑧
⑨
Ⓡ
─
│
┤
┬
┴
═
║
╪
░
▒
▓
■
□
▪
▫
▲
△
▴
▵
▶
▷
▸
►
▼
▽
▾
◄
◆
◊
○
◎
●
◦
◯
◻
★
☆
☐
☑
☓
♀
♂
♦
♭
♯
⚪
⚫
✓
✔
✕
✠
✧
✴
✶
➔
➙
➝
➞
➡
➢
➤
⟂
⟦
⟧
⟨
⟩
⟶
⟷
⠀
⠺
⥠
⦁
⨁
⩽
⩾
⬜
⬠
⬰
⮚
ⱡ
⿬
⿿
、
。
〈
〉
》
「
」
【
】
〔
〕
〖
〗
〞
い
か
き
な
に
り
ん
ア
カ
ガ
コ
テ
ナ
ミ
メ
リ
ル
レ
・
ー
㠀
丁
中
乆
么
人
介
仙
会
佳
俣
冬
出
切
刮
呦
和
唇
国
夏
大
契
女
子
字
学
孫
富
対
導
山
崇
川
巫
帝
平
引
德
拝
救
文
斑
新
日
明
木
本
李
村
水
海
滑
病
症
白
盲
石
神
福
第
策
缕
肥
腹
花
苶
草
蕲
虫
蛇
蟲
行
西
解
象
逸
郎
院
青
黃
點
꙱
ꝉ
ꭕ
븅
심
장
재
활
ﬀ
ﬁ
ﬂ
️
︵
﹣
）
，
－
：
～
･
ｵ
ﾴ
￼
𝛽
𝜏
🩸
##u
##l
##t
##i
##f
##a
##c
##e
##r
##d
##g
##s
##j
##k
##o
##v
##n
##m
##ï
##U
##C
##V
##S
##p
##O
##P
##R
##1
##0
##I
##A
##B
##T
##E
##H
##2
##D
##ö
##N
##F
##5
##h
##y
##4
##b
##z
##ë
##8
##q
##G
##W
##J
##w
##x
##6
##K
##M
##7
##3
##L
##9
##è
##π
##Y
##→
##±
##्
##र
##म
##ण
##₂
##×
##á
##X
##Q
##ş
##®
##ἰ
##τ
##η
##θ
##ε
##ὶ
##ς
##ê
##í
##æ
##α
##Ô
##ñ
##ä
##°
##é
##õ
##ā
##κ
##ü
##²
##Z
##â
##ō
##Δ
##−
##ř
##Ω
##ã
##ó
##Â
##ø
##μ
##γ
##ò
##İ
##É
##ί
##ν
##ι
##β
##î
##≥
##ı
##ē
##Ö
##ß
##─
##Ä
##λ
##↔
##Î
##à
##∙
##г
##р
##а
##д
##⁄
##™
##≈
##≠
##σ
##ú
##Ë
##´
##ο
##ύ
##♭
##ё
##ç
##♀
##÷
##ô
##℃
##ω
##∞
##š
##═
##↲
##δ
##ě
##ù
##ł
##ą
##е
##≤
##Ï
##¨
##χ
##˜
##∼
##С
##ů
##↓
##Á
##Ã
##©
##ś
##н
##←
##ζ
##ń
##ý
##ć
##ő
##ğ
##³
##△
##¢
##ĳ
##♂
##č
##å
##↑
##û
##Ś
##¯
##ﬁ
##т
##В
##ž
##ƒ
##µ
##φ
##º
##¬
##˚
##Û
##ę
##И
##œ
##¥
##Ž
##À
##Š
##Å
##ū
##ξ
##х
##¦
##Β
##ῶ
##υ
##О
##Ф
##А
##Р
##М
##١
##€
##ṣ
##ṭ
##№
##Α
##¹
##ă
##ì
##Ø
##▶
##ب
##ن
##έ
##ρ
##с
##┬
##Ù
##ї
##и
##ʹ
##Σ
##ț
##ų
##①
##½
##ъ
##Е
##●
##Φ
##ė
##√
##⇌
##∫
##о
##в
##Ü
##ª
##Γ
##ż
##ī
##ﬂ
##Π
##ό
##Í
##Ι
##≡
##Þ
##□
##ή
##ħ
##מ
##ע
##ו
##ן
##̇
##¤
##⁸
##∗
##ţ
##↦
##ð
##ώ
##к
##п
##ṅ
##Ρ
##Μ
##ŋ
##£
##↕
##ˆ
##⊙
##Д
##È
##Ó
##Ż
##ť
##л
##й
##м
##ṛ
##③
##у
##ǎ
##ÿ
##¼
##Ê
##⇔
##メ
##コ
##ȁ
##▵
##̄
##カ
##テ
##ー
##ル
##Λ
##Ī
##₁
##∑
##Ε
##Κ
##Œ
##♦
##đ
##Ο
##ņ
##Ĳ
##ي
##Т
##ག
##ུ
##ན
##Ú
##þ
##⟶
##リ
##я
##⬜
##ʌ
##ṇ
##ά
##Ç
##Õ
##ۛ
##⊗
##Ȧ
##븅
##б
##̈
##▪
##і
##ź
##■
##ы
##↷
##Ì
##ϊ
##ש
##ה
##ῖ
##̅
##י
##▾
##ɑ
##П
##➔
##⋅
##∶
##Н
##ᅟ
##¾
##ч
##ज
##ा
##ل
##س
##ع
##د
##ا
##و
##ľ
##Ò
##に
##な
##ん
##か
##ĝ
##░
##Τ
##Æ
##○
##ь
##ش
##Η
##́
##ц
##ː
##ə
##ș
##▼
##ῆ
##⁻
##ϕ
##Ĥ
##ф
##⇋
##◦
##¸
##Ş
##│
##ح
##ك
##م
##▸
##˙
##∩
##з
##∈
##Ŝ
##Ⅱ
##ň
##Г
##ɔ
##⇒
##Ÿ
##ナ
##ミ
##ア
##⁺
##К
##ű
##ʾ
##ế
##Ν
##Č
##௠
##ɣ
##ˈ
##⨁
##◯
##ж
##Υ
##̂
##►
##ὲ
##˂
##Ϗ
##▒
##щ
##∏
##レ
##ก
##ใ
##ต
##้
##บ
##ד
##ס
##Χ
##～
##✠
##₄
##Ð
##∆
##ز
##ر
##⊕
##⊝
##ח
##ל
##️
##⊂
##⇄
##⌣
##ψ
##┤
##ְ
##ּ
##ר
##ִ
##ת
##ﬀ
##Ñ
##∂
##◊
##ḍ
##∝
##ḥ
##⊖
##Ϯ
##ｵ
##Ł
##ш
##ᾰ
##➢
##≲
##ɤ
##ю
##➝
##⟷
##≃
##₅
##₀
##⇑
##⇓
##⇆
##ֹ
##◻
##②
##क
##ी
##▴
##Л
##Ⅰ
##∕
##⩽
##ق
##ت
##⬰
##Ъ
##ं
##┴
##⿿
##𝛽
##ɛ
##⋯
##⁴
##ͳ
##⚫
##ฟ
##Ј
##◎
##̆
##่
##อ
##ง
##ℜ
##ɨ
##स
##व
##त
##∧
##ಿ
##ಲ
##್
##╪
##फ
##נ
##ז
##ℓ
##☆
##І
##ϒ
##़
##⿬
##˿
##˥
##ả
##ɸ
##≦
##∇
##➤
##Θ
##ร
##ม
##্
##ة
##≫
##∥
##ه
##⥠
##Ψ
##प
##ड
##ĉ
##Ω
##̌
##Ā
##ص
##ⅹ
##⬠
##ῦ
##★
##э
##ם
##✕
##ǔ
##ὐ
##Ά
##≪
##ـ
##̀
##∘
##ἠ
##➞
##ķ
##Ⓡ
##ǁ
##⊥
##Б
##ἷ
##Ų
##ɯ
##ῷ
##ὖ
##∪
##ग
##न
##ब
##␤
##བ
##ྱ
##ར
##▓
##↙
##⠀
##ೆ
##ಟ
##֯
##⟂
##➙
##ȳ
##⁵
##⋠
##Ц
##ổ
##￼
##า
##โ
##ค
##ล
##˃
##⇀
##⁶
##ḗ
##ﾴ
##Ɛ
##ϵ
##⩾
##ὔ
##ᎏ
##ệ
##⇝
##✓
##̧
##ữ
##ἴ
##Ć
##Ξ
##ב
##⁰
##ĸ
##⁹
##ļ
##श
##א
##ガ
##▲
##≧
##☓
##ŭ
##ȗ
##Х
##Я
##פ
##ό
##ྩ
##ྭ
##ɡ
##Ō
##║
##✶
##ἐ
##ĩ
##ď
##✴
##₃
##ὸ
##ج
##ɕ
##Ț
##΅
##장
##재
##활
##₆
##Đ
##ὀ
##ʿ
##き
##り
##แ
##Ш
##en
##er
##an
##ie
##in
##el
##or
##at
##et
de
##ij
##ch
van
##st
##al
##on
##ar
##ing
en
##de
##it
ge
##is
in
##ro
##oor
##den
##ge
##ol
##re
##ct
ver
##der
een
met
##le
be
##om
het
##te
##atie
##id
##oe
##as
##aar
op
##ijk
##ra
##ul
##ig
##isch
##ic
##ten
##es
##og
voor
on
##erd
##am
##cht
##ot
##ent
##ur
##ale
##il
##us
##ische
te
##gen
aan
##ijn
##ken
st
##em
is
##ver
##os
##sch
##elijk
##di
##la
##un
##um
De
##eer
##op
al
re
##ctie
##ven
##ee
##ine
##he
##ik
##del
bij
##len
##ag
##ati
##ve
##ru
om
die
an
wor
##eren
##ingen
##ele
dat
zijn
of
##ze
onder
##aal
##ën
##if
##ste
##oc
door
##sp
##orm
##im
##iet
##ab
##sen
##ap
uit
con
##ak
pro
##ed
##ter
##heid
werd
wer
##ep
##ite
geen
##se
niet
##ut
##ai
##eg
##and
waar
##iek
##per
geb
af
als
##ss
##iteit
##oed
##atiën
##uw
tot
##ang
##eld
##ist
##ige
##olog
20
##ant
##ult
##ect
beh
over
##aat
##ff
##ft
##ad
##dt
##ri
##ec
##ok
sp
##ers
patiën
na
##omen
In
worden
##ac
##act
##ho
##een
##ud
##eerd
werden
ont
##aire
##ion
10
##ies
##ier
was
er
##od
wordt
##ast
##icht
##wij
onderz
per
##nen
res
##ich
##ide
##art
##val
gro
##uur
##AT
bl
##uc
##of
##elijke
##aan
ex
##iv
##eerde
##ran
##men
di
##ker
deze
##oon
##oek
##vol
gen
zo
##andel
##ort
##ub
##yp
##tro
le
##aten
##ijd
##ellen
##ell
##ere
##ific
kan
##ym
##ress
##ind
##ardi
##ruik
##ir
##ien
##ings
##ose
##dere
we
##chter
##ron
##vo
##cl
##ER
Con
##tra
##ectie
##aties
##we
##kt
##ON
##inder
##omp
mg
##onder
ch
he
##ame
gem
##ase
Het
##be
toe
##ologie
vol
##eeft
eff
versch
Er
ho
##iddel
gebruik
##ende
##ost
##ne
##ass
##wee
##rij
##entie
behandel
##aren
##ys
##lin
naar
##ip
##aak
ne
##lo
##lijk
##ib
patiënten
inf
##uid
##me
ant
##illen
##sie
##ond
##ign
##ater
##ben
##erde
stud
##geven
##ia
inter
##her
##yn
##UM
##pen
sch
onderzoek
maar
##ussen
##af
##king
verb
##yl
##ug
im
lin
##oren
dan
##age
bet
norm
##lag
##ke
##usie
heb
ook
##mer
DAT
ter
##ath
##entr
##qu
##als
ged
verg
her
##iden
##ox
hebben
12
##ept
##ogen
##sel
geï
##con
ar
verm
##00
##amen
Geen
eer
mo
##ander
##ering
##ure
pre
bel
sign
##zen
verschillen
gez
##baar
##pt
##ulaire
##SO
##ressie
##uis
DATUM
kun
##ië
An
##onen
##gel
##oen
##ijden
##kel
##rie
uitge
min
PER
tussen
##laat
##ese
201
heeft
##NA
##actie
waren
##pl
##oven
##SOON
PERSOON
meer
##alis
##rom
##eel
##iviteit
besch
ontw
act
##atieve
##pro
dag
##unctie
##ive
hy
kunnen
##chten
##wel
effect
Al
##yse
dit
patiënt
##reven
##ieden
##AR
##itie
bloed
comp
##ren
##zig
##trole
##sult
alle
##yt
##lu
##ann
##kken
##are
me
##rans
##ium
##dien
##ation
##du
##gevens
##ieuw
twee
##oel
Een
uur
Deze
##ank
11
bev
result
##genomen
ma
ac
##aam
##wit
rec
CT
##io
##ens
##ong
##rijk
##th
ger
##agn
belang
##alen
Cardi
Ver
##ma
behandeling
cellen
##ulp
We
##ger
studie
verander
pol
verschillende
or
verho
##yst
##IN
##dige
##ute
##ces
##wer
##arm
##ment
linker
##alyse
vergelijk
##iwit
kle
wat
##EN
ontwik
##ate
15
On
##yc
sub
ze
##igen
signific
best
21
##onden
am
##herap
19
##duc
##ill
mm
##est
##ieke
##schap
reg
##ante
bas
##ram
##iële
##oom
pl
hart
had
##org
##eten
at
##ijdens
##oord
##ving
##icatie
verhoog
##itis
##name
##ek
andere
eiwit
##clusie
cor
resultaten
##icro
##ef
vro
mog
##pressie
##dro
th
verk
pijn
##ert
##ente
##erg
rechter
goed
gebruikt
##gest
##eleid
##ivea
verminder
##volg
zonder
##ologische
##ader
##dem
zoals
##let
##elf
##geb
##acht
##IE
geïn
jaar
##middel
ziek
sc
##vl
belangrijk
##ruk
13
verbet
ab
med
##eu
hoe
##sc
##anc
col
nieuw
##adi
14
##ype
St
##ard
hun
##uden
ontwikkel
man
Cardiologie
zich
##ob
el
klin
##atum
##ui
##chts
tijdens
##slag
##heden
Om
co
##aag
##orst
vert
##ruct
##wezig
trans
##erende
ml
##aakt
##fie
behulp
kw
mee
tijd
##elling
nu
##iale
##air
spec
##iedenis
bin
##vat
##eter
30
##hal
controle
##dent
##agen
##IS
##ule
##valu
##bare
##ting
##atief
##tie
##kend
resp
##nel
activiteit
##zien
toon
##uren
##ulatie
##gesch
wee
25
##woord
##iën
##vallen
beg
##igheid
##anis
##uit
##vorm
mon
##ogra
gew
##lex
long
##stand
gegevens
gl
par
lever
bi
imm
##gro
beoor
##racht
##ari
Dit
huid
onge
micro
##fer
art
normale
##ablet
##isic
##ood
functie
groep
##ositie
##ced
mogelijk
##voerd
##ocht
##laats
Conclusie
##gens
ap
Pro
rem
##elt
ele
##van
bep
##nis
test
##ction
Bij
##etische
16
##voor
ster
bere
##uro
##ax
Sp
hyper
##met
##oten
##aard
##bij
50
##herapie
##oorz
##elen
##IC
uitgevoerd
##hank
##ateg
##eert
##ator
cardi
##centr
##AD
##olec
##yste
borst
normaal
zw
Consult
hyp
aanwezig
##dentific
##cedure
##TE
toen
##vul
ste
Re
vorm
syn
nieuwe
##dra
##ster
200
com
##omst
aant
basis
##kte
##und
ben
hem
post
##deling
##lachten
100
##deren
##mat
##ees
nivea
##assen
tra
##last
24
eerste
##rit
##rim
##wijk
18
echter
##indingen
vrouw
intra
waargenomen
Be
ziekte
tegen
##jes
wij
##gende
##ugger
##ieken
##ieerd
Aan
##get
##ach
ep
##emie
verwij
CO
##up
cel
##ductie
Ge
##mon
40
##regen
risic
##och
##ust
##eratie
dos
gest
##emen
ad
nog
##AL
Op
Datum
##nst
##ire
gep
##els
##oeken
##stelling
Met
##yten
##CH
lich
##raal
##atten
##ov
##asc
klinische
hoog
Th
cont
##schreven
veel
##voel
nod
##spro
##cin
Voor
positie
##fsel
##atuur
binnen
##AM
Over
##cellen
CAR
lang
##hy
reactie
##weg
##co
##ude
##rek
##ofd
ble
Ch
diagn
##oede
omschreven
syst
##schijn
##chn
##one
sugger
veroorz
II
##rium
stab
middel
##bre
hoge
##orie
betro
tum
zowel
Na
##wijs
werk
veranderingen
samen
end
dis
neg
##ING
##wijl
##bin
geass
##inale
ten
##atus
cm
specif
##app
##urende
##lijke
and
##ymf
dagen
##ont
##gem
##form
##open
PC
drie
##amil
boven
vertoon
metho
rol
##emb
##atische
studies
analyse
deel
17
via
gev
##rag
rel
##oort
##komen
##dat
##gaan
##osf
##geschiedenis
model
##iver
doel
##ema
00
geassoc
##ica
##IL
ges
verhoogde
sym
##urs
int
vergelijking
ser
significant
##unction
gevolg
infectie
evalu
ernst
expressie
##all
Ex
groot
##uk
##raag
struct
aantal
plaats
nodig
##amn
snel
##ble
##rine
##ijnen
sle
gesch
##oï
##schijnlijk
aort
##ple
##kende
LV
ro
IN
##vel
##ziek
##druk
##ks
##amnese
meest
##ysteem
terwijl
type
##emische
##oog
effecten
haar
##iel
hij
aanget
geh
Ant
##ied
##opt
onderste
##ikel
waarbij
##quentie
##ransp
##ID
ob
IC
mil
Boven
##low
##ders
##eeftijd
gek
##mg
##gesteld
##gang
##CT
beper
wel
dif
##zet
##AS
kl
##alc
neuro
##ome
##groep
##middelen
##ES
afwijk
##ming
##lic
##ets
##inding
ken
moe
significante
gezien
##aliteit
##ED
##RI
##uizen
##na
##ou
##EG
##ith
daar
##waar
##iciën
minder
alleen
mech
IV
##xim
lymf
gevoel
bre
##urg
##elde
gra
ass
hog
##atige
##zuur
radi
gedurende
##MP
hel
##keur
##ondheid
##iss
onderzoeken
##do
##oot
##rop
##cent
bewijs
##ijst
duid
##ane
##ore
##aterale
Med
verz
kg
##AP
bil
weken
get
prog
##elden
##los
##vloed
##kan
##acter
up
##oond
##ycl
##duct
##isatie
##ocyten
kleine
##én
opt
blij
geassocieerd
##rin
##ctieve
leeftijd
##actoren
##iaal
##perv
immun
gemiddel
##spre
mens
##ucle
men
zorg
##ons
sec
genees
##min
Bovendien
molec
##ATIE
##stof
gede
##erv
##tensie
##amelijk
##uele
ech
weer
##end
vast
##alys
extra
##rel
vrij
weefsel
##functie
PO
risico
##rijving
##aanden
EC
##comp
grote
aange
22
##eratieve
##raak
##ategorie
toege
opname
se
##anneer
maanden
##iding
zelf
for
##ess
Vers
##perim
##uik
ontwikkeling
waarschijnlijk
##ïn
klachten
##stru
sl
##handel
60
##actor
##amine
vari
recept
##ieren
nier
betrokken
##vent
##zel
##anden
DNA
##ronische
onderzocht
##EF
to
##rol
##ografie
verkregen
##orte
##fin
em
##iot
beschreven
##LO
##kingen
gel
##leg
##ijkt
acute
##huis
##ret
cons
##vullen
groe
oor
##pervla
concentr
specifieke
volle
org
##ijf
##str
poten
eigen
##gegevens
aand
##ET
##ouw
cyt
proces
##ffen
##ucht
eerder
leven
vit
##room
anti
my
##opie
##par
hersen
zeer
##rische
CD
##baarheid
##komst
##zicht
aangetoond
et
##kl
##BC
##ool
kinder
##verd
##kun
lab
##sent
hier
belangrijke
05
##aald
pers
rechts
Hij
la
##opath
##delen
##iliteit
##omie
dosis
sympt
##veer
##ging
##ph
##ical
##AIL
hoofd
gecon
##AB
lage
bevindingen
beeld
tumor
prim
##wijz
##ergie
procedure
voed
##amin
ventr
80
gezondheid
##dig
##schrijving
##assa
##zoek
huidige
ple
ang
##wege
##OR
uw
##anten
huis
##sy
##abol
##aatste
geïnduc
beide
##iklin
complex
PR
##neum
car
function
ret
kn
mult
Omschrijving
##sten
##oornis
mid
##iekenhuis
cell
contra
##ex
##hankelijk
##stig
##ity
som
##ins
##amilie
Po
##lep
Anamnese
##oth
##ode
un
medi
Categorie
techn
##vorming
één
##antie
##versie
##orf
muizen
gevallen
vers
fol
the
23
darm
##cept
hadden
##RNA
Antwoord
##deeld
Pl
experim
Thema
##aken
voorgeschiedenis
Ne
##elat
even
terug
sten
202
voorkomen
moet
vir
ongeveer
aut
Di
pat
##mo
RR
Ab
zou
det
verw
toename
##ïne
gemiddelde
##av
elk
Dis
##ratie
##rect
##pass
Verslag
##opp
oraal
##inds
##ript
##kele
##ce
##vang
##oorten
##schappen
##sters
Tablet
##az
as
##aling
aanzien
##press
##ition
wil
##unt
neur
verminderde
##orax
licht
##OS
kenmer
gebied
##etten
diagnose
verhoogd
tonen
no
##10
##irurg
##bel
stim
tablet
mut
##ogene
lucht
respectie
inform
##omy
##romb
##rem
##esie
hydro
##reat
path
90
enz
##houden
Ze
##iatie
##sproken
dra
water
##beeld
wanneer
##ief
waaronder
##jectie
Daar
Pol
enkele
identific
zal
verl
##sych
voorsp
##ix
Patiën
##AC
mechanis
Beleid
Norm
##MM
##ject
vo
28
##AG
##zelf
proble
pul
fys
dist
afg
onze
mit
richt
toonde
PT
zien
opn
respectiev
##eft
aanwezigheid
##volgens
ernstige
##ichte
laag
ziekenhuis
##aalde
##analyse
##fect
opge
links
ST
PM
beïn
goede
##ilat
##door
interactie
##ail
##enten
zij
##onde
##ynam
Ad
respectievelijk
niveau
lig
iets
elke
##pijn
tem
##teerd
##ow
niveaus
asp
lag
01
##rekking
##OC
combin
26
chronische
bloot
behandeld
35
##igheden
pneum
methode
##eut
vl
ratten
afwijkingen
##ieerde
##omet
##nem
##geen
No
##cript
##je
bekend
str
##hol
##iele
##requentie
##anning
adem
jar
fosf
##ede
##sul
##lacht
##asculaire
verder
gec
##gt
CV
##br
staat
oppervla
##tern
##eleken
vis
menselijke
overeen
Nee
lichaam
doc
45
##eds
Af
vanwege
kinderen
omdat
omge
symptomen
##inus
Hoe
beve
En
##las
nauw
##hankelijke
genen
vier
32
##oloog
Tijd
##ade
##gemeen
gebas
verd
##wassen
bleek
##PM
##dru
vaak
##ktro
inc
all
##veel
##arts
##CA
geïdentific
ou
##gemen
STE
##O2
aorta
bereik
coron
##merkt
jarige
BLO
hep
##iz
##EL
##kelijk
##Hg
##kanker
meerdere
##iken
##ay
kanker
##consult
##osc
##gemene
plas
95
gevonden
pla
suggereren
isch
70
totale
waardoor
29
eiwitten
stam
geven
##ack
ox
##stel
##wicht
verband
hand
lip
geë
##mm
##kers
##opathie
waarvoor
##hyl
Hier
At
##reg
##vatting
##ferent
ECG
##elect
##eur
##luit
##ialis
##lig
beschik
##AN
gele
omvat
##dragen
##cell
##olische
vervolg
geneesmiddelen
evaluatie
##iging
##alcium
oplos
with
iv
##ulair
lt
groter
stabiel
##IT
status
AL
bestaan
indi
27
Res
week
##antatie
##erol
MD
##sing
informatie
##omt
##inf
##rof
##ziekten
##ranspl
veroorzaakt
rapp
##ursus
zetten
##abet
Niet
operatie
impl
##zorg
AS
CR
verwijder
##structie
##oop
abd
bot
prote
##GF
##ventie
buik
insp
val
geïnduceerde
##activiteit
AT
Am
75
lijkt
Gen
##zelfde
soorten
##iode
betrekking
Spec
gemeten
##euze
cl
##itu
##YY
conversie
Samen
##vid
##luor
voort
##heel
maken
verh
##offen
tr
##ibr
positieve
##icale
##amet
##oeden
nucle
##ans
Tot
##iter
vrouwen
ondersteun
HC
duidelijk
geval
##fa
##kenen
##eiden
MRI
##behandel
##oire
regul
##lijn
volwassen
##aden
pt
ve
fen
aandoen
##zonder
bacter
bron
##lob
kenmerken
##ines
geïdentificeerd
##lagen
##achte
##amer
belangrijkste
##eks
var
contact
##ial
##uun
Keu
##zelijst
Keuzelijst
##eerden
##oorts
##osp
hoeveel
AP
##inu
##utie
chrom
##uim
Bl
groepen
02
gast
##ange
##int
##cler
ag
##maal
##arct
opgenomen
##embra
##pleeg
##sol
31
Ac
therapie
elekt
druk
aanwijz
##uff
medische
36
mmol
##iciëntie
##ilich
##zaam
##ragen
moeten
##herapeut
##test
##droom
analys
metabol
##atine
laatste
AD
##houd
blijft
##verander
vooraf
Van
##these
##ograf
##ucose
CH
achter
##iseerd
##tens
Le
Hoewel
##ling
gedrag
##abetes
systeem
##quent
hypertensie
lok
##ucces
negatief
Ca
bla
effectie
##iciteit
correl
##rose
##kw
##iegel
##stoornis
line
##reen
receptor
onth
##atient
verst
overle
contrast
immuun
##ocardi
aanzienlijk
IL
conversiegegevens
Klin
##fusie
##vullend
##KEN
nee
##oïde
##UIS
medic
beoordeeld
##UR
net
##vas
fase
##eng
Uit
gelijk
##rip
direct
Hy
minim
##TI
37
combinatie
transcript
psych
kre
##atheter
##teg
##ologisch
##wijzig
##MMING
Onder
uitgebre
##ated
primaire
##rief
minu
vloe
##ronen
eerdere
##eling
##LE
##istent
##onale
dus
leid
HR
##erden
eigenschappen
Name
##voe
##inig
##gd
antilich
alfa
stress
##tijd
##tr
verbeteren
##centage
RV
vere
##OD
##mie
mat
##sor
mar
##otor
bevestig
nan
bepalen
gemaakt
##isme
elektro
ZIE
##MI
hist
toepass
##otische
mmHg
loc
##uze
verandering
chirurg
##igh
##ular
gal
RA
kreeg
massa
medicatie
##12
##raat
MC
Gl
AF
gerelat
su
DAIL
stand
familie
##weging
##HUIS
##vers
hogere
##KENHUIS
vervolgens
ZIEKENHUIS
dL
HT
##richt
dagelijk
individ
bes
foc
aanwijzingen
vergeleken
ons
##illig
dec
##loten
activer
##aad
koorts
##deel
pop
##lagader
33
##aps
##cinoom
199
sinds
DAILY
##ikliniek
##ibiot
##iculaire
##laag
open
Pre
ond
##erend
##orator
grootte
steeds
##rug
moleculaire
urine
tromb
ul
respons
Pt
cir
STEMMING
##kunde
Patiënt
follow
##standigheden
Lab
##ary
ind
##ysp
##oz
onthul
##ider
verschil
oede
maxim
enzym
##urale
centr
kort
chem
mogelijke
##adem
##ument
##embraan
naam
gaat
##itme
##idatie
matige
opnieuw
##regel
##struct
##spraak
cent
##ital
##ialisme
hoger
##oma
##IV
##esc
gewicht
verte
##mige
volgens
different
do
tweede
##opro
Als
##itieve
negatieve
suggereert
03
tekenen
present
AC
begin
bepaald
recente
stop
ademhal
MCH
##rijven
besproken
##ior
##orgen
vertoonden
##otte
algemene
gegeven
55
kon
##inden
##otherapie
klein
He
volledig
algemeen
atrium
##ziekte
##ding
##model
non
Ph
hulp
##oper
##kin
##dag
ID
regel
BP
factoren
polym
gehad
##odi
nood
##ionele
zuur
##ime
##gl
benader
vervolgconsult
##asen
rust
arts
afhankelijk
vertoonde
##ijken
##atrium
##peratuur
##chte
##roon
##pers
##ract
ruim
##teerde
vergelijkbaar
ivm
dd
prot
RNA
hal
##lam
zwang
oog
##iteiten
toonden
artikel
gemeen
##schapp
##ps
##rond
ker
maag
sterk
term
##pre
volgende
serum
Samenvatting
productie
##ocyt
aanbe
cycl
actieve
amin
bew
ven
fl
##wegen
geleid
slechts
##rakt
##ycine
mater
verbetering
48
RD
##aand
Per
##ura
mal
beter
##UL
hemat
structuur
waarde
##menten
##genwoord
fib
##bi
Specialisme
##bl
##laatst
progressie
vastgesteld
name
gezondheids
invloed
##oment
##trol
vormen
laten
mod
##tieel
##iew
##ance
34
##falen
Onze
##ongen
##ibrill
##ild
##alisatie
##umat
##arak
##onie
panc
lichte
Aanvullend
AB
sla
echo
datum
##dd
Ges
zicht
inst
sele
MS
##order
##past
##arakter
##gaande
##ategie
vitro
verkl
##ueel
chol
liter
##esies
evenals
Lich
ervan
Alle
antibiot
##doende
regio
##pel
hoewel
bespre
##ift
Dr
arter
sh
##EM
gedet
bilaterale
potent
PA
##ieve
Sig
succes
vet
oedeem
Zo
##cc
##omein
meeste
LE
functionele
##aker
rest
##cohol
##oef
bed
moment
Procedure
##ice
##ume
concentratie
##illigram
organis
bloeddruk
500
ext
stimul
verzam
milligram
04
##elev
therapeut
##ina
Sc
##SA
##ichten
##ociale
waarden
geschiedenis
##iseerde
##aring
minuten
##aste
##ocard
09
Reden
##stem
signaal
LOC
Un
##pression
##licaties
##ellingen
##nemers
##emat
##uderen
totaal
beperkt
continu
bijn
##ameters
##verl
beoordeling
Normale
LAD
beoordelen
000
##keld
38
##gra
##ocol
98
Cor
leiden
Hart
##oplas
toont
experiment
nauwkeur
gebru
spier
gevolgd
08
##gram
##istof
sup
vermogen
gevoeligheid
verdere
All
periode
resul
hum
##wijzigd
##reden
oste
##omische
hom
LOCATIE
kwant
binding
##land
dezelfde
##ackage
poly
wand
##itor
fluor
nut
Cl
oorz
##TR
##ating
##oem
##orac
fot
##ritis
pept
##accin
intact
blootstelling
##engte
midden
diagnost
voorn
##ros
##ain
pulmon
Lichamelijk
zen
insul
vertegenwoord
bra
beïnvloed
kin
kwaliteit
99
##ege
##vou
groei
65
##voudige
colleg
##PO
##ril
##eltjes
ja
mensen
##anische
mis
kracht
levens
problemen
Hyper
tub
ontste
geëvalu
form
Ig
Co
##ICATIE
relatie
duur
frequentie
rapport
##udeerd
##uiten
DD
vocht
##oratorium
gericht
thuis
gereg
##ificatie
PCI
Disp
Ar
gt
BLOED
##IP
##ateraal
zwanger
dysp
genetische
AM
##car
##afhankelijke
##lor
Ech
bieden
##diening
actie
houden
super
inge
##gelopen
##iologische
syndroom
##ycard
mechanismen
dicht
##bla
vrije
##wezen
##ory
##BP
##ptie
##operatieve
secund
##emt
##pak
sommige
ICD
Vol
##ogenese
##norm
##amp
##11
hoeveelheid
##ock
##isie
dien
##rijgen
##over
##esterol
virus
zenuw
keer
weinig
##anks
ontwikkeld
##idine
snelheid
##behandeling
geëvalueerd
##orb
##ducten
##laire
##tex
verminderen
CK
acht
viv
##uleerd
06
komen
##achting
perif
mac
##itte
factor
verminderd
aden
##aakte
last
waarvan
##ero
42
##rale
##ENT
hepat
gemed
stroom
Plan
morf
versus
mate
Neu
##zij
bio
potentieel
variab
dim
##teel
##cellulaire
ontde
enkel
##èt
##verlies
SP
bijwer
##olom
bekende
##issie
##halte
##inine
dieren
opz
##lif
standaard
prest
positief
vijf
optim
O2
monsters
##urele
kal
gebruiken
der
##fus
##apt
##daag
##ae
vragen
##ytische
stellen
##armac
##atist
##dnis
sinus
bekken
concentraties
ischemie
route
##ractie
##cus
LD
MR
##cel
identificeren
97
spect
##ile
IND
##klep
inflam
##kings
middelen
##fibrill
##istentie
##dex
##erp
##nivea
##ors
##staan
produc
##ameter
vivo
CP
seg
Inter
volledige
##view
##omin
##quenties
blijven
calcium
##uiden
rond
control
aanv
lijn
CS
diabetes
ax
degen
assoc
41
Com
##uut
##mun
Ont
lagere
tox
gecontrole
##volle
##stoornissen
afge
##ace
mond
Overige
##spron
mRNA
##agnose
rug
spra
waarin
##sm
hersenen
##akkelijk
##drukt
injectie
chromos
##itale
activering
klinisch
proef
07
centrale
##klier
##aart
kat
150
##onderzoek
##rib
##spec
Medicatie
consult
bèt
verbeterde
indien
##ritme
reacties
RE
bescher
##ullen
isol
##ouwd
ventrikel
##oler
prakt
vorming
eind
##datum
pH
recht
screen
##own
Package
INDICATIE
thorax
fe
verster
##ifte
##vangen
overd
cardiale
##ogram
PD
effusie
Rec
mann
vroege
##por
snelle
glyc
meestal
##ulaties
##reerd
##II
beelden
##ochten
herh
##orr
geïsol
relev
##klachten
duidelijke
methoden
biologische
##SC
##oden
##bere
43
gepre
bevatten
AR
##kn
##opische
##EH
Ho
##gestelde
SR
2016
III
WBC
omstandigheden
##edi
cult
fil
##ly
##au
proxim
voornamelijk
laesies
energie
Te
Door
opzichte
##PD
##ning
vereist
##ilijk
gedeelt
potentiële
DM
##cul
gemeld
maakt
##unten
fo
##ergelijke
##asp
##kundige
gaan
##oekomst
##50
afgelopen
TC
vor
systolische
##ycardie
huisarts
verwijderd
pac
##tale
evalueren
alcohol
erv
##put
invas
RDW
beschikbaar
##ografische
use
vooral
mel
red
AV
zwangerschap
leidt
start
plan
##concentr
##Eq
code
##gre
##oeder
impression
##otype
##sloten
##gebruik
39
zuurstof
##sche
blok
OR
bevat
zie
##ieure
##been
2015
Bloed
##leden
ref
passen
##wand
##NP
##issel
beho
membraan
vergro
##heer
##IR
mEq
##schappelijke
Dec
SC
##ransplantatie
##eek
##oprol
verspre
##ulf
sens
cellulaire
##ombin
##anen
##kening
##aven
ziekten
geplaatst
gebieden
bestaande
gepresen
##JD
##OP
##cip
##issen
Polikliniek
gedi
##US
imp
##to
##oordeling
mes
oorspron
##onist
plaat
cort
beleid
geken
stenose
eth
##rist
##vloeden
nemen
S1
##stemming
##pe
##ight
wervel
manier
gebaseerd
gekenmerkt
gepro
##slagen
##waarden
UR
peric
noodz
patient
##scopie
toediening
graden
literatuur
been
NE
buiten
##uig
korte
2017
score
##osten
ED
inciden
scan
##14
##inter
##geschreven
dagelijks
statist
functies
##ieten
Abd
##imeter
leuk
##raz
##irus
##riale
recid
controles
cere
distale
complicaties
plasm
##che
let
##hydro
CC
prof
Comp
Long
##ionale
anal
##pol
HIV
mechanisme
##rik
consistent
##cum
96
##bol
##eria
antibiotica
44
##omenteel
weten
Resp
verpleeg
mannen
##serv
##iologie
##osis
NEG
##uen
therapeutische
domein
gestart
##reactie
geeft
acet
##diend
veil
##ospital
Tele
subst
gedetect
##ogn
moeilijk
##arine
pal
##teert
tri
herst
##atio
##umb
##13
Im
fem
pancre
##OM
PV
Brief
tach
Hg
2018
gebaseerde
chemische
##groepen
integ
heter
##matige
##igd
jaren
uitgebreide
##weest
pleura
induc
##etisch
Hist
karakter
##oph
##ral
onbe
vandaag
##analyseerd
##ynamische
oude
##iat
##indt
situ
lange
geanalyseerd
##aliseerde
moeder
##les
omvatten
##plaat
##abel
geweest
dub
##asis
defin
Sch
remmen
##voorbeeld
##otyp
##ric
afwezig
##expressie
vasculaire
##otox
##UE
specifiek
##miss
toekomst
##werking
kleur
##antwoord
##apsule
Ten
komt
binden
LEEF
gener
MT
##olf
PRN
##fic
##TIJD
toepassing
neut
depressie
laesie
afname
##rengen
ER
##iëren
sim
systemen
veroorzaken
link
LEEFTIJD
appar
##omat
const
##zame
methyl
mi
inspanning
Overzicht
out
##aklep
vaccin
##werk
geschik
##aanse
##nn
Lin
gerelateerd
##lijden
##oscopie
ess
##ili
mG
dys
##SH
##elijkheid
dieet
remming
gren
##eringe
vanaf
Daarom
##uleerde
zichtbaar
gedetecteerd
##mers
apopt
##ts
sprake
dro
ontwikkelen
46
##ucos
##metho
##EP
##mol
transp
2019
sn
##res
##oplast
##tem
beheer
vertonen
##oprote
##matig
52
drain
so
##plaats
Her
COMP
##uter
##ergieën
##resp
##onent
NI
temperatuur
##oprolol
56
verbeterd
correlatie
detectie
##ry
oppervlakte
wv
stadi
SV
retro
##oeding
##personen
##staat
##ralis
##stud
abnorm
##weefsel
##spectie
insuline
##ree
soort
asc
##dition
##oxide
aspect
##eed
120
dergelijke
##able
##itatie
##uus
##pm
##INE
##agnost
##eeskunde
maand
Zij
Decursus
verlies
##osine
toestand
##iedt
##sluit
TR
ik
aandoeningen
ast
##gele
##tig
maat
gepresenteerd
##line
##azol
experimentele
##aliseerd
milde
weefsels
##yla
##vullende
##ARIS
Hospital
acuut
gedilat
afgifte
zes
HD
deelnemers
hele
Ass
BS
activiteiten
angi
##afhankelijk
BID
72
vertra
katheter
delen
activ
exp
lokale
##li
beeldvorming
vaat
bèta
##pp
Mon
biedt
##ochond
ca
kool
##oster
vorige
mGy
colon
overge
##lav
##log
##ulen
##ijm
COMPARIS
percentage
natuur
beïnvloeden
enige
##stroom
##chol
neuronen
thorac
##tel
sept
structuren
47
##afwijk
ritme
##ichting
##uiv
EF
Twee
modellen
##kant
##zing
49
##man
##trans
##liggende
metast
##reft
##gebracht
##ION
##naam
laterale
grond
##yr
toegediend
##lect
bepaalde
aute
DET
tumoren
bleef
##osition
afb
##LP
##mission
##DI
centimeter
COMPARISON
##orpen
##icul
##kund
##ung
Radi
interne
gebeur
Wij
dik
73
##othorax
grotere
##lang
part
overleving
##sis
toegepast
Par
Status
bronch
##igde
parameters
betrouw
Qu
DETAIL
##asse
oppervlak
##reng
##LA
begon
##bo
##xy
##ouder
##YYYY
qu
wijzen
2014
personen
later
strategie
volume
aandoening
ij
##dur
##formatie
don
bereikt
##osit
##productie
magn
gewri
voorkomende
zwak
##duceerd
MI
Kinder
NS
##spiegel
spelen
##20
longen
vroeg
##riteria
54
##fibrilleren
bestudeerd
interventie
gezicht
herstel
TI
stap
stof
Fol
wereld
aortaklep
PE
cap
##kking
##oging
TN
verdi
##atale
##OT
##bes
##amma
slechte
colla
INR
onderzochten
detect
PCR
bovenste
Reg
CI
##gelijk
Eer
cru
dun
58
85
effectief
##iep
bijvoorbeeld
bevestigd
##activ
zeld
##herm
lager
##dnison
##zer
abdomen
##arge
voedings
##inen
##liferatie
Pul
Naam
69
PS
LVEF
inflammat
glucose
##iseren
protocol
##ous
adv
##vallend
onop
focale
pancreas
##olon
##oi
prestaties
##opsie
##cer
intraven
##ferentie
53
volgt
##oglob
##asting
Me
lengte
uite
bijna
##ology
##merg
daarom
##inde
Cont
Hct
##CC
Act
bloeding
##kolom
##ór
experimenten
afspraak
ec
toel
vraag
##infarct
57
##óór
##uiste
gedefin
zullen
Ind
ontslag
blaas
vergelijkbare
verhogen
##indings
verbindingen
##LC
Andere
voeding
relatief
##reatinine
##ofactoren
stabiele
##cut
epis
tests
Ter
##nelheid
progn
##essment
##usies
aandacht
structurele
##elingen
##MA
techniek
speel
##ars
beta
reeks
##cycl
##escentie
64
pols
##ody
knie
sche
Ook
##zaamheid
##sorptie
SD
PP
##gor
beschouwd
##ventr
##bul
Tijdens
dr
Car
log
max
##lop
spont
ATP
##onenten
VS
##emaker
zelfs
bijzonder
patiënte
##tub
##tende
paar
##gener
dem
##stre
2020
antilichamen
##gaand
kern
sociale
pneumonie
##latie
hartfalen
eerst
Gro
##mit
##uidelijk
pneumothorax
##zw
maximale
##icus
2013
Controle
##bruik
##onine
CAB
plasma
##itatieve
##path
breed
probleem
schaal
##houdende
cogn
Klinische
voorspellen
##atoren
planten
##lijnen
##arc
##zijn
##fen
infarct
kregen
bo
DATE
farmac
init
AN
uitkomst
##ymen
81
typ
##pat
##gde
antilichaam
gist
uitgedrukt
ko
laboratorium
altern
proefpersonen
##ilt
HP
opgemerkt
gezonde
CABG
receptoren
##oïden
infer
vermindering
inflammatoire
cruc
oper
##ement
genomen
##iceerd
##vast
fre
##schillen
selectie
##volen
##ogeen
##rum
individuele
voldoende
##itus
##kwab
stoffen
59
afhankelijke
##cur
eenheden
##OL
sat
##kal
verantwoord
vóór
klep
onthulde
##zijd
bestaat
perifere
NP
natrium
screening
##icaties
chirurgische
anter
mitochond
lichaams
hol
##lijst
HS
##medi
Sub
##rijpen
##MC
top
##nauw
##ene
##fiel
ev
myocard
##mentatie
evol
RCA
##vocht
##ilatatie
medicijnen
##rot
benadering
beschrijven
verlaag
matig
##ynth
oorzaak
analyses
populatie
##orten
vloeistof
scler
Diagnose
biom
##ënt
secret
Behandel
helpen
##bep
sm
voedsel
##gezet
##angen
bilateraal
set
##boven
bijwerkingen
GI
67
sequentie
##fosf
tek
poster
warm
onverander
##bet
##our
##aliseren
##gewicht
##orale
198
neus
anders
One
##inatie
gemedieerde
getest
Sinds
##RS
##bum
document
slecht
wervelkolom
Laatste
51
##sslagader
juiste
##ffect
##for
##rouw
pleurale
las
##TER
aanbevolen
##igt
langdur
88
erg
##kelet
##emaal
milt
##uding
##ankelijk
aspir
gesp
processen
helder
##ijdige
rib
mannelijke
neurolog
oplossing
##istente
mass
RBC
controleren
##ylering
richtlijn
Or
##ysma
##langs
##oh
disc
complexe
##ummer
##acet
##ugen
##med
##vings
epit
kennis
Heeft
mitralis
ernstig
persoon
Ref
##aardige
Ja
##vlies
##micro
amino
Date
Is
directe
##noe
bez
##ialen
doen
##lip
##cg
##nia
twe
stoornis
##amide
##geluiden
mer
speelt
Sinus
aanpak
differentiatie
BLOOD
##40
gehele
inclusie
voel
MCV
linkse
##bry
collegiale
##que
gebeurten
##razol
uitvo
##LL
incidentie
pulmonale
##oscler
##gebied
##ransplant
synth
##sf
2012
##ometrie
gecontroleerd
signal
volwassenen
lact
anamnese
diver
##UN
ademhalings
prec
##volgende
##ubatie
wijten
momenteel
Mg
Allergieën
##liceerd
blijkt
beperkte
##omycine
##loc
##insuff
Beoordeling
ather
##niveau
##hesie
##rolog
letsel
veroorzaakte
##uratie
##erte
los
##quen
68
vertoont
Bel
92
gedaan
gecorr
##geboren
angst
stij
##ifieke
##uken
##udig
meet
##komt
##uma
NO
001
cyst
gastro
##iod
interval
62
##ites
gevol
uitdag
klasse
slaap
synthese
kosten
##kens
Hypertensie
##kelijke
##cult
bespreken
##plan
resultaat
##NI
slagader
krit
cc
maal
intens
behandelings
Ik
##PS
langs
##systeem
CX
##vrij
Amer
##chym
afwezigheid
aard
implantatie
ondersteunen
##lit
bijdragen
auteurs
400
segment
derde
geleden
prop
omgeving
palp
##waarde
Echo
schade
interacties
ondersteuning
prom
Ext
rect
drug
begrijpen
##verm
class
##keningen
##scheiden
##ST
gedeeltelijk
94
orale
63
behoef
inb
grenzen
kans
loop
toelating
lijken
stimulatie
breuk
du
benad
associatie
##proces
##arch
preventie
verzameld
fysieke
C5
##cluderen
Type
metingen
peptide
66
frag
TE
cholesterol
index
##blemen
voorgesteld
bereiken
overdracht
hals
eenmaal
omvang
##enen
volgen
##illaire
oxid
##chanis
kamer
doses
##enter
El
kru
##infectie
CAG
ondergaan
zachte
stammen
Mult
##ESS
##oid
zod
geïsoleerd
geslacht
voorafgaande
##gehalte
ventriculaire
gebracht
##ici
##valentie
##innen
##structuur
##emd
nit
##16
##ystemen
##uitgang
BM
episode
Col
##amm
meten
##stit
meth
nacht
##kamer
Hep
minimale
Medic
93
werking
gran
##vastatine
miss
program
##ovasculaire
embry
regulatie
sterke
CM
##VT
##geneeskunde
Calcium
NM
##idem
begrip
geïnfect
##OB
##nt
Onderzoek
##pret
##frequentie
diar
arteriële
##erings
##vraag
##oppl
ademhaling
x10
krijgen
##wak
##hoog
diast
geselect
##wegingen
materiaal
##ize
Verder
TF
140
sterf
efficiën
aneur
76
onveranderd
behouden
hartslag
##ores
exc
dichtheid
Meer
overw
effectieve
coronair
78
##rix
##dr
2011
motor
##anol
wond
##ution
zouden
ICU
graad
mig
hoogachting
relatieve
cre
termijn
Disch
patroon
Hoofd
##otensie
endot
metabole
##controle
coronaire
##aciteit
##oxy
toevoe
land
##uli
##risch
presen
asym
##agonist
##ïde
##ms
##omer
behandelde
des
##seud
##ivers
Urine
Bi
##oto
uiteind
##53
apoptose
##pine
Reumat
den
##week
prednison
##drukken
auto
OP
##water
weg
Daarna
##tijdige
##ei
kortadem
review
aanvullende
artritis
Voorgeschiedenis
piek
ins
praktijk
resulteerde
nef
bevol
##oorte
MED
##carcinoom
zout
##SD
hoogte
dunne
Geslacht
300
tit
voorste
verlen
actief
ruimte
##leiding
veneuze
74
nuttig
87
Glucose
welke
def
afwijking
HTX
77
250
cytok
product
hoest
##oppler
##ness
ol
MCHC
Hem
86
##structies
2021
intern
##ament
##heugen
monster
1000
##alie
##dis
##igeen
inductie
prob
##zetting
##17
##ue
##emende
##loop
##akelijk
pap
##vens
mutaties
##alve
Fig
##fielen
grootste
84
##ector
##iner
lineaire
##out
vent
daag
leveren
##urie
##vis
##kten
glut
COPD
neurale
optreden
##onisch
voorafgaand
##ber
2010
gevoelig
##iditeit
Hb
##uiver
indicatie
domin
##itone
##ics
LA
postoperatieve
##imm
ph
##entale
##ectomie
nam
horm
##ote
cerv
circ
presenteren
port
kant
##ctomie
meld
gamma
##oorden
##19
##rd
##oïd
secundaire
##GFR
##apporte
##otide
82
Mil
##iezen
golf
infecties
ade
verkal
toegang
##arb
NF
IF
intrac
Post
gekopp
continue
myel
nad
naast
thoracale
verantwoordelijk
History
therm
vernauw
recent
veld
##regelen
##ildklier
##lyc
uitgesloten
kind
##ediat
##blast
Kliniek
##gez
Cardiale
##gene
##orderen
##kanaal
Plt
##38
##arten
mot
vinden
Normaal
Veren
ontwikkelde
eenvoudige
##bine
hypoth
tele
benadru
NC
Lever
Familie
presentatie
##yle
##mechanis
kwab
##ationele
##roc
vs
gediagnost
##onge
Examin
diagnostische
del
##stellingen
##mee
betrokkenheid
foet
ES
IMP
TH
carb
##syn
cognitieve
##aily
afgeleid
fysiologische
gerelateerde
##sper
##irat
onafhankelijk
onderliggende
##ikkel
tet
proximale
observ
inclusief
pan
vrouwelijke
##ds
punt
bevorderen
##producten
geïnduceerd
Discharge
##EGEG
mogelijkheid
##telijke
mag
slijm
##po
werkzaamheid
83
fosfor
ontsteking
##oppervla
##aby
reden
Ond
clu
##aryn
overzicht
kader
##score
Fe
natuurlijke
toenemende
##TS
bacteriën
elkaar
CON
##stam
ongewijzigd
pathologische
##oit
stent
##ational
gemeenschappelijke
##FR
DR
sluit
Function
mutatie
##BS
##atiënten
visuele
##ations
geassocieerde
anat
basale
##dens
deeltjes
##ominale
relevante
lo
invasieve
##achtige
aanbevel
oc
##okken
geschat
CRP
##kle
PG
110
##PR
aanhoudende
Ble
milie
##abiliteit
commun
soms
##18
##istische
chemotherapie
defect
##PA
diff
89
##ancer
intest
prevalentie
##beh
##embran
130
##CR
ijzer
Zijn
##lux
vaste
testen
##actieve
##punt
##ner
##grootte
risicofactoren
prostaat
##kent
##ventionele
geco
##attern
laat
##oemde
##H2
impact
##umor
ber
seks
verwijdering
behandelingen
sep
Gezien
##ella
##ull
##akken
componenten
Indicatie
enzymen
##lekeur
uitgebreid
##osom
witte
bol
ondanks
Admission
##roffen
NG
mob
geproduceerd
Actie
not
##status
##lage
minste
bijdra
diameter
overeenstemming
identificatie
Trans
##ining
##andom
remmer
recidief
genoom
##deerd
ouder
krist
ET
dier
##text
##andid
##15
##keerd
##ylax
langdurige
essentie
Reumatologie
terugk
poliklin
CN
EN
pacemaker
##neu
CA
bacteriële
ledem
##EV
##vari
beweging
abnormale
flow
##vaard
oudere
##gerelat
##opname
bpm
onmiddel
CTA
sil
79
##gegeven
##trofie
##its
##DNA
##VID
##wissel
geschikt
Total
ontwerp
##ha
##vloe
reag
po
##BD
coh
##ïnen
##genen
stadium
##heem
##dieren
vle
overleg
systemische
##eerbare
resid
atheroscler
##bele
sequenties
gewrichten
Patient
gef
CAD
Cr
##uleren
tegenstelling
Haar
atriumfibrilleren
HA
Kle
plat
##electase
famil
plaatsen
hypox
##astin
##SS
voorgeschreven
##AST
##komstig
toler
##ative
afgele
##ket
##ju
##lok
Wanneer
Echter
##hou
sig
##var
geringe
##omyopathie
multip
proliferatie
##uurd
##gren
gestopt
opmer
##bri
vat
##rekken
##oring
extrem
m2
##isen
##cont
konden
komst
##afwijkingen
##ave
##olaire
Inf
##rac
respon
cyste
Assessment
##ouwen
##utum
##alth
tachycardie
afdeling
technieken
av
##istratie
T2
neemt
bestuderen
##wijzing
##yan
##werken
##ardiale
diarree
mechanische
##darm
##oxid
Nu
COVID
##vice
willekeur
##ouff
verdragen
macrof
tand
Prote
dl
berekend
gerapporte
gedefinieerd
cur
aanzienlijke
monitor
borstkanker
voet
IgG
Hel
event
diep
veronder
EM
##ffer
conform
symmet
##ink
programma
consol
##monsters
gezondheidszorg
arm
DC
Imm
criteria
perfusie
##ografisch
wijst
##efal
PL
degeneratieve
gegener
nucleaire
##oge
##lak
pub
achtige
selectieve
apparaat
nieren
ogen
##bolie
ontworpen
##ditie
aneurysma
DP
NT
toepassingen
drainage
##QUE
zeldzame
##EC
vertegenwoordigen
onderzoeks
moleculen
Sh
zit
##oglobine
coli
Result
conf
mild
##binding
##zijds
##ytro
##eggen
virale
##voer
onopvallend
125
##plaatjes
##kk
onc
ablatie
souff
stabiliteit
tempor
##techn
bro
rekening
##gew
termin
##vanging
##ilisatie
gekwee
##örd
intervent
Ao
Milde
##missie
##ipatie
##etie
overgang
gebruikten
gun
##zem
melan
opgel
voordelen
liggen
team
##okin
##30
MB
wijzig
##gin
soft
dagelijkse
Ag
##uline
##achten
fron
##oplos
schat
ren
kopp
beperkingen
##yth
orth
Asp
##nemen
cal
specific
VT
Ontslag
pediat
brengen
##istoffen
recombin
ident
NAD
##cten
##aging
mic
enig
verhouding
gebrek
vitamine
Tem
HE
wereldwij
dru
daarna
secundair
##aa
##isering
nr
##ey
ann
##stenose
gla
rapporteren
elektronen
##ellitus
Coron
##bumine
##standen
Phys
##zels
locatie
sol
##ylaxe
site
##aarm
##entegen
Daily
veranderd
##dheid
differentiële
Verschillen
exter
Vervolgens
gemakkelijk
schildklier
gastheer
##fys
##UC
lopen
##24
gang
##gramma
toegenomen
dyspnoe
sonde
bero
Bes
##ping
##ound
##ases
##leng
herzien
1dd
verslag
gedilateerd
##idemie
behalve
component
enter
gecomp
zacht
DLP
Amerik
remmers
eenheid
antigeen
##eline
termen
##NIQUE
onbekend
##ross
verdw
##uwen
epitheel
##loor
My
HF
jong
##methode
nab
transcriptie
##ll
repl
##ister
PH
abdominale
##gevoel
Ondanks
poli
##oedeem
behandelen
##cess
dood
##agement
instr
End
##bs
##osyn
verdeling
NH
bindende
gaf
ile
##dering
vanuit
##ual
gewijzigd
##ring
##werp
##omatische
##eptide
91
oud
inname
tweemaal
lymfocyten
cr
pr
veiligheid
##port
ontstekings
variatie
Hemat
##tering
muis
2009
71
oct
##uul
##brale
conventionele
antigen
noodzakelijk
produceren
onafhankelijke
##ities
##lox
lymfaden
besmet
##onucle
calc
beste
##mens
afstand
spiegel
mcg
##fonisch
gevolgen
##haling
zorgen
##opril
##umab
chron
astma
ms
##veren
Maag
##usc
##modellen
kwaad
##tingen
granul
mitralisklep
flex
##rand
##gezien
kunt
hypotensie
##acine
malign
Neuro
##TU
Gewicht
kwantitatieve
##proef
resulteert
gediagnosticeerd
substraat
##gerelateerde
##oeid
hoofdpijn
##obacter
##olip
olig
geneesmiddel
humane
ander
beschermen
steek
RT
##scheid
optimale
##S2
PTT
##bron
dynam
##cm
MV
geheugen
##studies
terminale
##olen
##voegd
vertraag
##ata
leeftijds
chromosoom
##gingen
context
dilatatie
##tes
##concentratie
resol
stre
braken
##ERK
benaderingen
##etrie
essentieel
gebonden
bevorder
vergelijken
##ills
regressie
Toe
61
##gemakkelijk
vergemakkelijk
##drukking
T1
geregist
##onische
accum
##gebonden
dig
##rift
##RESS
Soc
adequ
##aze
gebeurtenissen
3D
echocardi
##chlor
hoogste
bloedplaatjes
##foto
##NE
ging
rechtse
##spect
S2
Hgb
##oses
atelectase
afzonder
VC
gene
##ted
nauwkeurigheid
##gelaten
##DER
##ray
##pop
werken
netwerk
##complex
pass
##oplasma
dop
oorsprong
##pha
SEH
je
gevorm
##cutane
bib
##ctor
##illine
roken
beroerte
lumb
##alans
aminozuur
kanaal
##lasting
RF
intracellulaire
##beweging
##eus
transport
Longgeneeskunde
##GG
##orische
##CHNIQUE
py
##concentraties
zwelling
tar
##vingen
voorkeur
baby
CD4
Abdomen
##voeding
##active
Diabetes
jonge
##chemische
##stellen
Findings
uitsluit
##omeg
##ntgen
voorbere
Drie
##emide
externe
TNF
polikliniek
afgeleide
afbraak
Gesch
##ofen
brief
verkrijgen
hoeveelheden
genexpressie
Se
ontstaan
##beper
gemiddeld
sem
gere
1x
paras
##respons
##ser
buis
onlangs
operatieve
Vraag
concept
##ions
ofwel
signalering
vermoed
OS
uitbre
daags
cardioloog
prognose
SpO2
bar
time
##vermogen
ouders
##elease
##specifieke
glob
vererg
##osa
AA
##kundigen
prin
geïnfecteerde
onvol
##olling
##result
bete
erop
plaatsing
MA
##odel
##TP
##kracht
richting
minimaal
kortademigheid
Care
##iform
gepub
toxiciteit
##uizel
Verg
##reed
rh
##slagader
stoornissen
##YP
##operatief
proteïne
##ikstof
pas
reumat
##riet
namen
affin
ket
aanvankelijk
##alt
lymfadenopathie
onderscheiden
sterfte
##egrip
blootgesteld
LC
##abil
gehouden
##prote
##vormige
betere
CF
place
hip
obstructie
bevindt
neutro
mM
cervicale
##voudig
bleken
##22
##rooi
infil
lys
##lan
##liceerde
afw
DVT
intraveneuze
hypot
##denking
IMPRESS
overeenkomst
##Pattern
##recept
bewust
onduidelijk
sin
ng
Doppler
##ococ
slotte
##IA
##wegings
##insufficiëntie
Opt
##heids
herhaalde
##uleert
##beelden
HB
##ypt
Totaal
subt
##itude
puls
system
kruis
##keerde
##orden
gebruikte
Cre
##utter
IR
Daarnaast
RX
toekomstige
elektrische
##ala
##onaat
MM
collega
hen
##ices
endotheel
##EK
emot
Verschillende
oest
gepaard
##oca
##fuse
vernauwing
Ro
verwijderen
##sectie
##grond
##cing
##stest
fer
veranderen
Present
##veranderingen
##ikels
hetzelfde
##eerbaar
soc
##öntgen
vonden
altijd
##DA
LF
algor
Neder
##ord
betreft
Disposition
stoppen
vasc
##stoffen
Vergeleken
producten
lipide
##O3
Body
##leerde
##plaatsing
##borst
MIC
aanpass
polymer
##IG
interpret
zeven
ontslagen
Wat
vermeld
Zie
Bet
behoefte
##orter
fosfat
einde
SS
Algemene
daarop
##sels
artsen
##activeerde
##duur
GR
##drag
Dif
uiter
##iste
reage
reguleren
##licatie
vas
##auw
##ieel
TTE
ABG
nierfunctie
EP
##lear
kinase
procent
down
##openie
pen
##tras
organismen
maximaal
bloeden
ontdekten
##ise
##greg
##fort
##atory
Ap
fin
##hn
##Cl
Ser
Comment
Immun
reson
gemeenschap
ratio
ischemische
##eleerd
PI
##kere
Hyp
##25
Euro
staan
Nederland
##even
toevoeging
ty
PIC
##char
schimm
Health
aanvallen
variabelen
##cy
voorgestelde
##uurt
Omdat
neurologische
ur
##intig
##iaire
Refills
##strategie
##TA
wild
ulcer
160
richtlijnen
##romat
hypothese
fract
##ian
rad
Kal
##irale
cardiovasculaire
miR
Kn
overwegen
Darm
Vit
TA
statistisch
##biële
##STE
stoel
##organis
ontvangen
Tr
##yg
luchtweg
gemen
gecorreleerd
spre
CXR
cortex
decursus
PF
HCT
dw
##iderzijds
lymfek
intro
veranderde
##imer
##sieve
gluc
signalen
AG
ingre
metoprolol
matrix
rij
##ake
herken
inbegrip
##iratoire
rob
##ometrische
volto
pseud
onderging
pathologie
detail
##iger
Capsule
##oscopische
##arkers
gehalte
ide
Gaat
markers
resistentie
##genoemde
uiteindelijk
Atten
mort
Goede
##BI
az
intestinale
##etica
##odynamische
##inn
##uiving
morgen
mitochondriale
##male
rood
##verslag
gezichts
intracran
cross
##rijft
computer
repar
Som
medicijn
##icine
verlaagd
##itas
##dicht
##ays
##verlen
regionale
##ocar
fluorescentie
mediastin
2022
oxidatieve
Ma
ledematen
weerspiegel
biopsie
##zijde
voordat
aug
strategieën
##spectief
##toe
##eth
gram
BI
resolutie
CL
##annings
tube
##validatie
##gebieden
##wikkel
geregistreerd
ontwikkelings
bodem
ruimtelijke
verscheiden
##70
axiale
band
##arisatie
Unit
##stelsel
rode
daling
tel
milieu
Toel
##umenten
groeif
##molec
216
##umer
##enz
studen
Bas
Serv
##CL
2008
dubbele
halsslagader
extracellulaire
##uros
tren
##arenchym
mL
promotor
complexen
ruggen
##beloven
drin
nec
leidde
Sinusritme
tal
##gezondheid
MDL
verwijst
##oriën
##opy
oef
recon
##MER
CVA
interventies
##ware
medium
gekregen
Stud
afgenomen
##max
gevoelige
meting
##RA
veelbeloven
sulf
Ox
beschikbare
URINE
##EA
##cyclus
##medicatie
aanbevelingen
rout
##cefal
Abs
2000
progressieve
affiniteit
mening
fibro
##LAR
gekoppeld
skelet
##nnnn
feit
vloeib
Tra
advies
Examinering
##INGEN
Aangezien
##ificeerd
acetyl
##ethyl
##urosemide
cytotox
##artsen
##oplasmat
##maat
##pland
infuus
afkomstig
efficiëntie
##optim
##ateriaal
##positie
femorale
##riè
ving
##ember
cruciaal
rat
gevormd
Linker
ALT
ontlasting
##ease
##aarmoeder
soe
buikpijn
jan
2x
geboorte
ontbre
Huid
slok
##mal
##rokken
##atisch
Ca2
betrouwbaarheid
dubbel
koolstof
duizel
##richting
bevolking
datab
##icusp
##werkt
sper
beenmerg
##bouw
reductie
late
##acchar
allel
ampl
Achter
daalde
aspecten
modi
Follow
QT
Che
verzwak
##trast
passend
##ationale
verklaren
subeen
onver
##massa
##oll
##resultaten
cultuur
##dimens
overwogen
##locatie
capsule
##roep
gerichte
##zetten
gas
vooruitgang
orde
##ames
##vuld
PET
geble
carcinoom
stikstof
##staande
EX
##alol
##raken
magnetische
aangeeft
##rucht
##route
##rempel
TP
organ
procedures
plast
##besch
baarmoeder
optische
##anyl
##IF
samenstelling
remmende
effectiviteit
##vle
fractie
##oide
Neurolog
##orende
##eringen
corticale
promin
OH
verwacht
vervangen
##embranen
##ïd
##NUM
101
gr
PVC
heup
unieke
##aris
##atiente
Physical
##rijke
zoog
spontane
##aars
##tekeningen
##iol
##oemd
verspreiding
##iva
Micro
gestim
##hand
neuronale
##jun
vaker
RS
lid
Borst
QRS
Indien
leren
OK
##otomie
populaties
chirurgie
##omstandigheden
LDL
referentie
subc
verleden
##sver
beteken
##estion
##osin
gereguleerd
##lement
bereid
pericard
steekproef
dynamische
##OSE
Onge
ligand
toegelaten
##patiënten
gu
##tal
regelmatig
##hel
##ml
##orph
ong
##ason
##27
##sens
gradi
WH
focus
gaven
Cro
geactiveerde
ligt
noodzaak
lat
analyseren
##lucht
##oplossing
##apar
##YYYYYYYY
motorische
##fficiën
voeren
select
MTX
care
toch
##isten
specificiteit
Tromb
knob
toegevoegd
mortaliteit
genereren
AST
vag
Opmer
bezoek
variëren
Ep
##HA
trop
verbinding
##RD
IVF
zodat
##oproteïne
isolaten
ON
##angi
bru
lead
##glyc
214
divers
##ymb
##cep
elementen
##mod
##HS
Waar
Algemeen
##ditionele
##NUMMER
mellitus
disfunctie
vader
##aut
##DE
run
MAP
trache
##sproces
Patiënten
##rectie
amss
langer
nooit
radioloog
##lap
heparine
##geh
detecteren
controlegroep
##oppervlak
##ded
##hyper
Extrem
##activer
##ferase
##niveaus
orgaan
##cter
NamePattern
organische
ionen
beginnen
plot
betekenis
##zins
landen
##aptische
colitis
##vindingen
hydroxy
Nieuw
bepaling
##soorz
vermoeid
Invas
routes
Verpleeg
transplant
##fractie
##ERKLAR
onvoldoende
menselijk
##CP
technologie
besl
transplantatie
##sequentie
ochten
##RT
feed
dient
Daarentegen
##curr
breuken
blokk
##ulus
half
##ributie
patronen
peptiden
ir
##transplantatie
H2
relaties
##ynthet
kwam
lumbale
slokdarm
Lengte
intensiteit
##BL
Last
DE
Leu
assay
schijn
Pac
##olol
posterior
begonnen
benen
##spanning
Gene
consolidatie
##houding
dors
##MG
rapporte
eviden
vele
IFN
MEDIC
gestaakt
Question
beiderzijds
foto
##tijdig
bijge
##ocytose
Alert
##rijgt
##doeld
TEL
##H2O
##sb
210
mn
##reum
bedoeld
##chi
##ila
stimuli
##ventrikel
##analys
Phos
molecuul
verschijn
IP
Drug
uL
aangepast
afbeeld
monitoring
morb
hyd
home
split
##iber
gelijktijdige
##ofag
mentale
Leverziekten
##TUUR
Crohn
218
##abolisme
##HD
verricht
##ECT
##gedrag
macrofagen
vermindert
BMI
##geving
##ope
inzicht
Ill
buurt
opeen
##tendeels
aangeboren
wissel
scores
decomp
nm
lum
go
kwantific
##ongem
VAL
##selen
echt
##21
leukemie
noch
cohort
Cell
##poc
mediastinum
##ylase
high
succesvolle
##kinase
training
ervaring
##structuren
hepatitis
##hep
antic
nov
##bed
verhoogt
gemedieerd
dosering
fund
onderdeel
verhoging
evenwicht
##ACT
##ifest
##odynam
gelab
Toelichting
metabolisme
##oblast
##ART
MP
PK
##vrije
SBP
180
sur
##inal
sputum
hernia
gb
vaatziekten
Geschiedenis
shock
##osomen
5mg
presenteert
Syst
##cholesterol
Do
##ylo
##otrop
anest
misselijkheid
##omatisch
##anningen
AI
Service
materialen
samenvatting
fusie
studenten
wegens
gecontroleerde
heel
verscheidenheid
##BT
##ontre
hecht
Univers
##uring
Lung
##anco
SH
zwaar
mei
alternatieve
anemie
##amol
etiologie
##lipidemie
wonden
##ogingen
##factor
geïsoleerde
genoemd
##itaties
##breng
Blo
##punten
oorspronkelijke
##26
dienen
##roscopie
vertegenwoordigt
Metoprolol
##ilis
##eller
grotendeels
Vis
##soorzaak
schedel
remissie
##ingle
##DS
##aseerde
##matie
Attending
##plant
UV
fenotype
Kalium
voorkomt
wie
heden
##erb
##activeerd
jun
IMPRESSION
plant
mol
##dz
melden
##seling
##iende
##quente
frontale
##loxacine
getrans
droog
zuig
##ULTUUR
##band
gelok
regulering
##ally
obes
##reedt
Hol
redelijk
##pletie
##leerd
##hr
##OON
##jor
vergroot
concluderen
myocardinfarct
erytro
classificatie
fosforylering
daaropvolgende
strom
uitste
##agit
gewichts
rot
geremd
statistische
##SP
Mat
##groei
##oeg
##icaal
2007
antagonist
voorlop
##hepatische
geleiding
residuen
##outen
##oxine
##uigen
##ollen
Sex
600
##present
glucos
##cap
econ
##akker
metaal
##uwe
Eén
##stige
kran
##asie
accumulatie
hypo
##olyse
##zende
bespreking
cav
##arte
imple
dex
##ijft
evolutie
Laboratorium
##singen
##heen
resectie
##tre
kristal
dienst
##wonden
##waarschijnlijk
ople
PAC
sed
implant
Geachte
Bloeddruk
GL
versle
Min
RC
atyp
##elte
##tubeerd
Voornaam
##rox
cmH2O
inhal
Natrium
zon
röntgen
##azine
microgram
uitdaging
peri
##ISCH
locaties
Vanwege
Toen
##VI
##pocamp
##steun
fra
Behandeling
amp
Veel
verdenking
microM
eier
##itoneale
##cyt
trombose
Int
##operatie
219
Rep
##gehele
ventil
cut
che
##iaties
project
allemaal
##oft
Kleine
##repen
##NAL
vertraagde
medisch
##metingen
##adiging
opac
Kort
##agt
##ula
##hen
reeds
##rex
kandid
humaan
##gangs
##weeg
GC
##naire
Afspraak
eens
morfologie
##iO2
##asale
Code
abces
gemet
##ogeniteit
insuff
verdeeld
TELEF
##OX
hulpmiddel
trauma
Dag
Creatinine
obesitas
inhoud
##abetische
ultra
L5
Pijn
##aline
##OF
intermedi
##ules
Intel
TELEFOON
##pam
fac
##HH
Ang
##scheiding
TELEFOONNUMMER
veronderst
Uitslag
##microscopie
##stigen
aspiratie
##ekt
##ohist
aangetroffen
gewricht
verbetert
Rh
Fl
##eden
honden
##va
plus
##ureel
hormoon
ball
Intellect
secretie
##23
bijdrage
##mut
##ofil
overgebracht
##virus
##zo
dikke
voorsch
Gra
verbonden
iso
##olerantie
episodes
ML
hydrox
##volume
polymorf
##hoofd
oorzaken
##ikelen
diepe
Clip
##ercul
Q6
##oezem
##YS
occlusie
eet
bent
##cyten
krachtige
##blaas
##GA
inz
psychiat
##ombineerde
ion
##consultatie
interfer
beschrijft
SM
##endens
##foon
Geringe
afzonderlijke
##sth
pathogenese
##igne
Release
bdz
##entanyl
gedeeltelijke
gedilateerde
this
tab
belasting
spieren
aangegeven
GU
##sproblemen
##OOR
##stra
kwe
resonantie
Matige
nadat
doelen
individuen
##reerde
Mild
fenotyp
vlak
bevestigen
antist
##iene
opgelost
cardiologie
off
##elta
HCO3
varie
by
TM
tricusp
##dichtheid
Creat
zoek
Prof
##belasting
##zuren
##iasis
endoc
artro
Bleood
Molec
kwaadaardige
VAS
kaart
ect
diastolische
##otalol
maatregelen
##etiek
Teleconsultatie
handen
##rins
bestr
vitale
##methoden
method
Opname
lymfoom
spontaan
##bar
werkgroep
richten
express
##use
os
Cu
##ieven
°C
##ii
hou
##centie
werkt
##ëfficiën
##nier
Ernst
verrijk
varianten
adren
##kundig
lipiden
fist
##odific
collageen
Beide
PAT
##ijding
Sec
nauwkeurig
##omegalie
##entiële
Wer
behoud
2D
radio
effusies
taak
waarop
kliniek
beadem
Verhoog
Az
reactieve
##steking
krijgt
##atin
BC
##ids
Sociale
agressie
##poten
##abiele
2003
Europ
inferieure
sinusritme
##ocardiocardi
atriale
gegenereerd
##ITAL
##stim
Medical
hoogst
incisie
gepland
##ithel
daarvan
reparatie
geselecteerde
Aort
meng
gesynthet
##inst
organen
##atroon
##iodar
CB
weerstand
##holte
##lust
alert
waarnem
il
##bro
tabel
leden
hippocamp
diffuus
##olisch
105
starten
gesugger
gedrags
gisteren
onmiddellijk
integr
##iculair
IS
##econ
geneeskunde
##aspect
chlor
##vulling
versterkt
##80
datas
verspreid
aantekeningen
vond
##irine
##meld
##adr
bestude
willen
##brid
Illness
verwijd
stem
2006
beneden
manifest
##mis
hard
Atrium
##34
ovar
##schappelijk
gesuggereerd
polyp
##oorde
Zowel
placebo
##OH
isolatie
##olytische
interf
cardio
##class
##kwaliteit
##chirurg
##aringen
##isu
##ongembolie
##pathie
voortgezet
onderhoud
polymerase
##cludeerd
gerandom
##wikkeling
Contrast
##oepen
##opten
plaatsv
pleuravocht
##dimensionale
straling
image
nachts
from
geschikte
##odium
##gelegd
##delingen
##ton
##ologen
sporen
##A1
bis
##oest
migratie
##ohistoch
##basis
##ozuren
Ger
##iltratie
adol
kweek
##lering
sequen
Adem
gevisu
##icum
financ
lev
##undel
fosfaat
ervaren
diffuse
aantoon
NA
##doen
can
maligniteit
gecombineerde
##mechanisme
waterstof
Amerikaanse
##iveaus
gedetail
ME
comfort
##allel
angio
##studie
##spectieve
dragen
theorie
215
schad
ontkent
zenuwstelsel
##isk
PICC
Achternaam
##derd
##rosine
##spercentage
##isico
ascites
verwerking
##amente
##aking
patho
##mmHg
besliss
Geb
##ochte
Tel
marker
ori
absorptie
103
##leuk
cardiomyopathie
pri
##ypass
tetra
##paste
melk
##omografie
##reacties
##ciplin
ontvang
tekort
celt
##ificaties
graag
labs
posit
overexpressie
SA
kunst
##ertin
##60
bloedingen
draag
bijbeh
helft
197
wijze
droge
##genase
##icilline
varkens
##oppingen
Zoals
ader
doelwit
eierst
onderwijs
tumorcellen
reageren
benadrukt
fig
##ivaten
##HC
persist
##tests
geld
##osteron
pericardiale
##ocaïne
orthop
##periode
oes
##buis
##NO
resterende
##katheter
avond
sepsis
beschikbaarheid
gestuurd
mutant
theor
##ters
verdo
instelling
Oper
domeinen
indic
104
##OSP
agonist
serie
prov
Ged
##verdeling
vloeibare
functioneren
traditionele
##amb
##scopische
Echocardi
GP
communicatie
mijn
geleidelijk
##GT
##tt
bijbehorende
##schik
real
obv
nauwkeurige
Loc
kalium
longoedeem
##nummer
Hum
##derheid
tw
ochtend
SN
##gg
Product
levensvat
asympt
vervanging
##ieur
##perat
##ococcus
##esearch
Meerdere
##ivari
Resultaten
algehele
zuiver
EG
capaciteit
zeggen
artikelen
##emblage
cruciale
tib
Vergelijk
oestro
overgedragen
Wel
Not
fiet
##ycod
##acerb
##structieve
##iem
herhaling
systematische
distributie
degenen
vragenlijst
kD
Research
CVD
##oss
verbl
Pertin
##blok
onderzoekers
nek
NEUR
onthulden
##materiaal
##nea
pediatrie
##rat
##ruim
uitvoeren
drugs
inh
equ
stuk
echografie
aanvang
102
toegeschreven
prik
aanpassing
overig
##oprazol
remde
##ient
##iae
Clin
nucleotide
##therapie
klass
efficiënte
situatie
2005
vezels
uitdagingen
gemodific
mediale
wortel
brede
##emisch
##ontsteking
Ob
keten
clin
collaps
aminozuren
Acet
replicatie
trig
##alytische
Techn
mediane
##clusies
uitslag
bezorg
arch
geactiveerd
anatomische
intraveneus
ziekenhuisopname
##fact
stadia
##bindingen
li
haal
##ogenetische
aangezien
##han
wakker
##aatst
geworden
carcin
##vormen
Alk
luchtwegen
##riene
mesenter
##oos
##luenz
verschillend
##opol
Trop
##iverende
verpleegkundigen
synthetische
dermat
##defect
thym
##ilar
essentiële
Ele
OF
encefal
Inc
##oneel
CULTUUR
lymfekl
right
##ffecten
bestand
##ticul
Poliklin
langzaam
bewegings
##inol
##uil
vormt
onregel
houdt
##isol
verwijzing
##ogelijk
Test
versie
##iers
Zn
##ria
##000
Pulmon
schouder
##UT
##EST
##omon
##cologie
##orrel
IM
##ippen
diabetische
koude
bescherming
codeert
Dood
karakteriseren
##ash
vul
groeifactor
geïntubeerd
gete
##STELL
##kloppingen
variabele
##merken
##sl
##rig
implicaties
wilde
##aec
##inc
Rechts
##chloride
##gie
eenvoudig
culturen
formul
##leb
##fase
vergemakkelijken
waarmee
voordeel
geest
Sup
generatie
##ofie
##diagnose
cortic
##mar
Evalu
gewoon
vertro
amssymb
color
##hoek
##klin
##STELLING
ingreep
gemengde
Vraagstelling
Chir
cerebrale
##itect
variant
##iraal
LI
endomet
litte
Lact
scala
cellijnen
cholec
##eleiding
RDWSD
accept
##36
##FP
perifeer
##blad
##arynx
LDH
Buik
biochemische
antim
Lip
verzorg
uter
robu
##asten
DA
multi
EB
##zijdige
spin
##bloed
definitieve
uitzonder
geselecteerd
Nederlandse
intracraniële
urin
case
Man
##stijd
##tho
##want
steun
##kru
##overd
uitbreiding
##ichaam
voelt
China
cat
Doodsoorzaak
Psych
geïm
stimuleren
instrument
asymmet
overt
##LR
##umente
regulerende
Coronair
ethanol
occ
##90
ondergingen
Intra
##bereik
but
infusie
wit
gekweekt
epidem
geëx
##ozen
chronisch
juni
endogene
##SE
diversiteit
##venen
##afd
##patroon
spinale
Opties
oph
Org
Flow
based
media
##28
##ized
##acties
##urend
##trof
##procedure
dal
okt
##vasc
opeenvolgende
##arde
hoor
zeker
mamm
##ozyg
begrepen
217
##anine
Terwijl
##wisseling
lasix
onderzochte
intacte
verschuiving
##aardig
angiografie
##AMP
Major
##ertijd
concurr
##ijfers
##erem
grondslag
vezel
Chronische
bypass
Kan
RRR
miRNA
Sal
##mitt
##ional
##tocol
Volgens
rechterkant
nat
Aut
Adv
octrooi
##icot
##umatische
therapieën
Las
##sulf
Nog
infiltr
##riend
gtt
Labs
##arin
bul
##ceptie
dimens
Leeftijd
sclerose
diagnostiek
##ineerd
cis
##uste
p53
##szins
eGFR
relevant
##idose
longembolie
tev
FiO2
##ymph
Recente
##zoeken
schatten
BR
##des
sluiten
##isin
neon
Finding
##ologe
proximaal
##37
##dip
LM
katalys
coörd
##rial
##tent
##geruis
geïnject
2004
##afwijking
HLA
tien
HDL
Del
embryo
##percentage
resistente
##schaal
morfologische
donor
lapar
##plaatst
##IND
Invasive
##ierd
brad
war
Thuis
##lete
##ilaterale
lokalisatie
registratie
lad
##stij
stro
Betreft
gespec
object
##rekt
##werpen
gerapporteerd
integratie
CO2
represent
verpleegkundige
Q6H
punten
##TX
complement
AK
##emet
cordis
segmenten
bp
##LD
##ius
##sterkte
##verwij
dialyse
Succes
cytos
foetale
handh
##drachten
beïnvloedt
##wort
ruggenmerg
##cholesterolemie
rectum
princip
feb
gecom
Pulm
##ogenen
##ility
##idase
oss
Start
voorbij
mutanten
zware
##ick
##klieren
sagit
verwezen
##erge
##beerd
##polarisatie
##ocriet
##ateerd
##oside
##bride
verklaring
Indi
single
spiegels
HENT
##35
hartkloppingen
aangren
Heart
##ck
management
categorie
basaal
kwal
tubercul
Verm
school
##vir
flexib
minuut
pain
uiterlijk
ongew
CPAP
CTDI
Chirg
##aria
##cardi
voorspelde
mur
##ugh
##scher
remt
##cluderend
##rijf
Concluderend
##red
##iere
brand
aanval
##appa
##ensie
##eterm
arg
Q4
##activering
gecompliceerd
MO
##aas
cyan
morbiditeit
TAB
Sle
CSF
##ontwikkeling
Aspirine
##EGEGEGEG
gesla
##dust
hydrol
Jap
opsp
##ures
mucos
##eprazol
##ivity
routin
taal
stappen
##huizen
gedeelte
##part
##IST
Chirurg
verdachte
##ostase
##vestig
algoritme
emp
Sign
NEURO
##eeee
vaccinatie
##ocort
Exam
vanc
##fusies
TGF
##reoïd
details
schimmel
##aakten
##ats
gezamen
vallen
metalen
oefen
##atter
##uari
seksuele
C3
functioneel
souffle
gehand
hoek
element
##rad
Lymf
leer
##straten
##gekeur
Cancer
wetenschappelijke
##moid
Gast
##nale
##generatieve
325
##otis
dochter
##bineerd
mast
gelijktijdig
poliklinisch
lagen
mechan
##anth
para
discus
##umad
lichaamsgewicht
Acute
##ocarcinoom
cran
##ssysteem
hypoxie
aggreg
profylaxe
Sym
##sne
##apen
##vasculaire
##hals
##merc
cyclus
##regul
##rometrie
##antoprazol
Continu
Disc
##ulose
meerderheid
Bili
neiging
##ocon
alkal
totdat
thermische
VAD
##etermin
visu
##araat
##illa
diverse
DI
##bestr
septum
##isinopril
106
##iceren
inheem
onbekende
duizeligheid
creatinine
Mo
bijv
microg
besluit
Verander
##istr
kDa
Rechter
CKD
##culturen
bronnen
goedgekeur
succesvol
##opor
elim
##enn
##jectieve
fibroblast
cDNA
CTDIvol
##uiker
Insul
##fib
National
Tevens
myc
##produc
##ijne
sug
zorgverlen
##ecept
##urgitatie
ECV
##GS
uitgesproken
lijnen
sedatie
LPS
##osomale
##hydr
toestemming
Naast
upgre
loz
diffusie
##itaire
bindt
ultras
sal
bestond
##itm
##esium
##ficatie
kanalen
soepel
##enteel
##HT
dominante
Pat
##gevallen
indirect
Cd
##hang
##letsel
neer
beroe
##lim
##fil
veelbelovende
##inezuur
##izoen
##azepam
##beoordeling
enigszins
##ulitis
##membraan
##rière
parox
##rab
patiente
langere
Blood
Gebruik
opnemen
##lengte
Staten
##ofosf
##iket
ambul
##woorden
elektron
##factoren
gescheiden
μg
Verenigde
initiële
##breuk
achtergrond
hiel
kaliber
gesteld
CMV
IGF
DS
Hospital1
DO
##plic
##otiden
##veld
metastase
rijk
lu
melanoom
induceren
LVF
##elfunctie
##net
##MS
extractie
immunos
ontwikkelden
parallel
Operatie
pancreat
maart
##orad
##reening
##yndroom
rustig
aankomst
##29
##oelen
##snelheid
vloeistoffen
structureel
conserv
CONTR
Leuk
benadrukken
ring
Gegevens
Lev
upgreek
##schat
optreedt
atherosclerose
april
##reoïdie
##okt
speciale
transcriptief
##oestand
aangrenzende
##problemen
##iodaron
##ringen
##oopp
sociaal
##fferentie
Protein
handel
##tend
Belang
Ernstige
gesynthetiseerd
antistolling
hulpmiddelen
pulmonaal
Telefonisch
atypische
omgekeerde
hypertrofie
##melding
##rache
interpretatie
Analyse
juli
##itatief
##kenning
diensten
toegewezen
ent
handhaven
rand
dynamiek
##ival
aer
##ocale
##axon
##fl
beperking
2dd
verdikt
VP
Respir
willekeurig
contractie
D1
organisatie
##aandoen
redelijke
rate
##osynthese
aspirine
##WI
##verandering
SK
##ged
##omeren
aanged
##FA
Comments
2023
##idog
opger
##eron
gecombineerd
##idis
##sk
##kering
gesproken
##okl
samenge
##oplastische
overvloed
##NT
yes
eten
leg
terugkerende
##houet
##DM
assays
LON
sac
laser
##ofiele
wereldwijde
##CHTER
Doc
glad
bijnier
Right
##amaat
##ulmon
antioxid
##eef
decompens
##wek
##ypes
##cement
##com
spectrum
massaspect
omgevings
FL
Sommige
bijzonderheden
fragment
##ADS
Japan
geïnteg
stamcellen
doorgaan
##KG
ondersteund
##genitale
##analyses
##yro
onderscheid
##ofren
3H
##mechanismen
PCP
inheemse
gehoor
adequate
##dende
bijwerken
vereisen
##ci
tijdelijk
##ameth
##illus
instructies
##olin
kritische
##kenmerken
gead
##dehy
##osyl
L4
antigenen
exacerb
Laatst
LAB
multif
##dier
##rif
bolus
##essant
40mg
blot
##receptor
##programma
Longen
##iveau
L1
Known
##col
vermoeidheid
extre
beval
Links
schema
##tage
namelijk
hybrid
hydron
Tw
Volle
keel
##strategieën
veren
##dikte
titel
verwond
##metast
##adig
##sinter
gekarakter
PEG
setting
omgezet
meta
kransslagader
##eest
schatting
kuur
##brengst
##gressie
gewrichts
##onaal
willekeurige
##bladen
commerc
intermitt
Radiologie
antit
Holter
ili
##VD
benz
##loog
verdwenen
genoeg
prognost
januari
verlagen
##durende
##lectie
##leet
##rië
##pan
CYP
##BB
radiale
keuze
metabolieten
##verw
suc
amplitude
radiotherapie
output
Chirgical
HCV
flutter
dementie
fosfatase
##acu
Scale
EEG
waarna
vrijw
##umes
werv
infect
##omale
overeenkomstige
##amus
hypof
profess
bif
Vanc
elast
trac
absol
##ontreinig
##quis
PUL
##da
atm
##gestie
##flex
Path
##ivariate
biologisch
Acid
##hyle
##ximab
##VE
Mar
##worpen
##gave
##acetamol
staken
nierfalen
Experim
##iop
Matig
indust
alternatief
desc
geheel
ervoor
##elijks
onzeker
HTN
gemetast
##raakbeen
oriënt
##56
tyrosine
mede
##ronic
typische
Questionnaire
##son
mogelijkheden
##riën
levende
##allen
##ondersteun
nummer
gon
veilig
adenosine
##mus
verklaard
##ended
FA
TSH
linkerventrikel
immunohistoch
bevestigde
epider
boezem
##ikken
##anceerde
aanvullend
##ioom
##rinsieke
NPO
##iologisch
ves
##icientie
klassieke
##schema
HOSP
##Gap
levert
##team
subs
hoesten
kandidaat
##artan
##passen
incubatie
##erm
The
anderen
IU
oxidatie
##opo
well
experimenteel
##kort
##regulatie
tevens
As
bemon
falen
ASA
meldt
correctie
gekozen
AnGap
atherosclerotische
##DR
##horm
##osoom
idee
HO
##aai
##reatment
##iepen
##komende
ing
##lasie
Patiënte
lozing
##overdracht
##omonas
DF
##opress
economische
sterkte
fix
virussen
##ofol
Bovengenoemde
##spieren
circul
##inaal
COM
celd
pakken
##ORM
##respon
observatie
Left
verblijf
flu
epi
##chron
Eerder
##orvastatine
HOSPITAL
Device
ontbreken
##ille
##kopp
dopamine
revalidatie
sen
tak
holte
##B1
##gentie
genetisch
##DEN
Reactie
##rid
##VA
##ionen
poliklinische
##entia
variabiliteit
verouder
Lasix
constipatie
elektronische
##populatie
##kweek
emotionele
Sim
##oien
##ves
Temp
##IUM
macro
diverticul
##itud
poging
cluster
Sm
##romatografie
CD8
##ilaire
##pert
##spier
gewogen
Momenteel
hierboven
##verse
##dipine
allerg
ero
##vaten
sequencing
##verz
NMR
##kkoord
##cultuur
celcyclus
weergegeven
beloop
VALUE
Nut
##can
Medisch
leukocyten
Poliklinische
verslechter
bewustzijn
NK
##enste
##gemaakt
voorspeld
##dds
rechterboven
##buter
##gas
trombus
##idyl
kleuring
SG
plaque
##juv
##seg
voeten
##ksgezondheid
Suc
belem
##avirus
Famil
##opa
PEL
therapeutisch
apparaten
##OG
mnd
Huis
##onchi
##ette
SI
longkanker
GE
##astom
epithel
##inese
stier
uitstekende
##biopsie
draad
elektrol
##adering
108
##usp
lactaat
##ISCHE
cancer
wereldwijd
##osen
zin
transformatie
##ops
##ique
##generatie
gedetailleerde
Afrik
invasie
geladen
##balans
verzoek
##buterol
adolesc
##plande
vaten
##aarde
intubatie
trend
##ental
kolon
clear
heer
selectief
rep
##irst
##artim
Art
##metabolisme
##omeer
amylo
efficiënt
herziening
activeren
Pain
##erpen
varieerde
##peraturen
Aanwijzing
Em
AMP
geïnter
##proliferatie
##ca
BL
creë
farmacologische
bleven
Eerdere
##YR
schiz
knock
rollen
Dra
##agul
gevorder
lies
bijgeluiden
##ichia
thal
zelden
VCI
ballon
milj
Stress
scherp
##iër
herstellen
Den
GH
Neg
associaties
influenz
overige
transmissie
Foley
orig
voorzien
Home
hematoma
##kins
karakterisering
interstit
kwamen
Pa
state
##esp
anesthesie
Trombocyten
##patronen
##iforme
450
107
special
##aalden
Opmerkingen
gewichtsverlies
respiratoire
Li
voorheen
change
170
dimensie
geaut
Neut
gerapporteerde
onderworpen
pijnklachten
netwerken
SNP
oplossingen
##uron
TB
##sil
disease
##product
135
baseline
##rap
##coëfficiën
negen
individu
##sequenties
drempel
hor
sleut
##alpha
implementatie
bevinding
##ident
lim
dend
immuniteit
zwakte
##kige
hiervan
renale
beoorde
beperken
personeel
##soorten
piep
##ureus
hippocampus
##led
gedefinieerde
##verhouding
##ikt
##itief
gol
##omedi
VAP
109
jaarlijk
zieken
bemiddel
gebruikelijke
inn
##vaat
Sur
##roe
figuur
spanning
Men
##opisch
beheersen
##VIS
georiën
##niet
Eerste
##ARS
##ovasc
geestelijke
fibrose
##frine
Head
##zhe
angina
OSH
woon
geslachts
pi
115
bestraling
##ocumente
FI
afval
geleverd
traject
##lycer
##vloeistof
Bevindingen
##oder
POD
substraten
Intern
film
calciumscore
##rest
morfine
Nieuwe
tijdst
##ori
Lang
800
vergroten
##tensieve
##leukine
gunstige
##cal
veg
##zon
beschermende
##icarb
gesc
RES
##ilept
ip
bescherm
loopt
##armen
tip
GAB
stelt
frequente
kappa
Zuid
monokl
diaf
infectieuze
gepubliceerd
retin
Monitor
geïnjecteerd
##stherapie
##oir
Neem
onthullen
##ioneel
None
adip
Ureum
wijd
warmte
CONTRAST
evt
##ved
##eende
clip
retroper
att
percentie
OM
##arcoom
geteste
mij
Vier
gecorrige
membranen
biomarkers
##spiegels
1999
##intens
interview
Bekend
onderwerp
##obob
sagittale
gelegen
aderen
conclusie
##anim
ALAT
##sub
BD
##002
erf
##stering
##ERKLARING
steroïden
vrucht
Figuur
kleiner
pector
metastasen
MMP
stimulus
NB
##richten
##vragen
zoogdieren
Nier
nabij
GT
##gevoeligheid
##fract
NR
##avond
sinussen
reproductie
plannen
##ovirus
##wijzigde
LS
kwest
zeldzaam
bevalling
imaging
genomische
verdikking
##ONE
##umptie
##graad
##gs
plotseling
bewegingen
##ATE
Activity
##zheimer
geschatte
##vrouw
##urt
odds
##INK
##opidog
##transferase
data
gent
##jug
##omeen
nl
tegelijk
##sniveau
technische
bezorgdheid
##urese
cysten
##rofie
ongeacht
zichzelf
uitzondering
mach
##rubine
resulterende
##ofage
##aalf
ACT
celdood
inhalatie
activatie
##heerd
goedgekeurd
vinger
EKG
onderdrukt
onderdrukking
synaptische
##uls
compressie
verduidelijk
REU
##velden
##schade
##kemie
##othy
complicatie
##traat
##gebre
VAG
##ransport
##vlees
iliac
##otrex
illu
lichamelijk
##erente
tijdelijke
PPI
##okokken
FR
extremiteiten
ascendens
PN
gedocumente
vindt
gehandha
Prop
##pg
wezen
##jectiefractie
verlaagde
##ada
prominente
uurs
glomer
##ateuze
ACS
cath
induceert
RP
bloedcellen
pijnlijke
opslag
souffles
proberen
percentiel
Goed
iom
htt
##adium
plasmac
##otypen
stijging
gesloten
gunstig
medicamente
head
veget
Sol
Vereniging
hemodynam
##osens
##abele
Ros
##uscul
##acte
##ellings
Gem
gehandhaafd
##werving
##cons
determin
##aserem
hartas
##mende
##ork
Bio
prognostische
leuc
vaard
ouderen
uitgangs
138
cla
##eeksel
bili
##schien
bloedstroom
elect
HCC
##rapp
Ret
pasgeboren
##elk
gepubliceerde
##dehyde
herhaald
uitsluitend
2002
nn
##tige
adap
##CK
nas
KL
##huid
Tri
##halingen
Aanvullende
prost
cytoch
verstoring
hemoglobine
inzichten
vermoedelijk
##ality
centraal
evolution
fluid
##choline
Escher
##vaardigd
##adrant
##opidogrel
access
Alzheimer
##bu
cirrose
##bronnen
##ocomp
Extremiteiten
ACE
subeenheid
##sfs
Pers
rapporten
##irc
vancomycine
##ole
##lodipine
##waart
PB
##ined
misselijk
gebleken
microbiële
##stechn
##but
intermediaire
##idingen
gelokaliseerd
##stap
Escherichia
geav
geïntro
NY
stopgezet
empir
delta
Su
##cor
##lopen
assessment
##iaz
lokaal
##kennen
bundel
fractuur
geplande
##oplastic
tanden
architect
waaruit
Magn
gevalide
knoopp
neu
Doorgaan
VEG
cytokine
##cub
omvatte
##umoren
wet
Clinical
trim
afgeb
##ablok
##capaciteit
##wn
##heet
##afdeling
simulaties
inspanningen
##carb
##athion
##aadpleeg
bloedverlies
##iaanse
##otrexaat
myocardi
coderen
##achtig
oestrogeen
PELVIS
##fo
Wh
Intellectueel
conditie
psychologische
dië
interstitiële
##fol
##systemen
reproduc
variërend
gebeld
telefonisch
onderdrukken
Onlangs
Concept
zone
chloor
##gels
LP
endometrium
##39
C4
##back
kleinere
epilept
zak
SLE
Prim
Line
##waartse
##celcarcinoom
space
fec
opmerkelijk
muc
DN
##annen
##long
gekweekte
put
akkoord
##strueerd
##etine
premat
gerandomiseerde
##oeien
toenemen
VI
therap
kernen
assemblage
Hoog
piepende
##off
##contin
##versch
##trop
kwets
µmol
compet
gecodeerd
##hersen
kenmerk
##lepsie
Doctor
##streng
136
##etje
genotype
Vl
##fibrillatie
##stijden
gemodificeerde
Val
vereiste
##onnen
##nam
geluid
embryonale
katalytische
MG
regurgitatie
pall
polymeer
kb
verv
pm
ontdekking
##uiverd
##IJ
Chinese
overleden
##standaard
##eral
##herent
CRT
WT
cT
##ico
##gend
##A2
sul
huisartsen
Gez
PIP
##responsen
beademing
profiel
##adigde
inse
symmetrische
##uitslag
slijmvlies
SB
##ectine
CHF
##diol
##stitu
hex
##wust
superieure
transplantaat
bewezen
longitud
meervoudige
##ario
##xt
zwakke
##cutaan
##WS
Gel
klonen
KNO
histologische
gedifferentie
##aalt
##lij
##accharide
##arco
introductie
weerspiegelen
heterogene
##uif
##preking
oplosbare
hypog
##ofactor
##way
persoonlijke
klaring
univers
Can
##sec
gevo
vertraging
##othel
low
##sprogramma
beschrijving
Hoofdk
nul
anterior
input
137
koppeling
hybride
nadruk
goedaardige
##umadin
Et
##frag
##artic
gezamenlijke
PMH
temporale
onmiddellijke
Interne
Poli
PREH
versn
PREHTX
##tieve
##VAL
##beta
139
instellingen
omgekeerd
betrouwbare
grij
##esen
fragmenten
##aban
##functies
inflammatie
nanop
blad
steroïde
##ocarditis
eierstok
##iëmie
PEEP
##component
##ural
Ster
voerden
kraakbeen
prolif
verwachte
sensorische
shift
Bacter
theoretische
sleutel
Glyc
##ectatief
middelste
konijnen
drukpijn
##WA
voorspellende
##icon
TO
nitro
eryth
identificeerden
hypofyse
hypoden
##rapport
heterogeniteit
##waard
##65
##oli
##beur
gradiënt
##halve
anastom
saturatie
HEM
adequaat
Verdere
##wortel
##ENS
pancreatitis
verwante
Chem
zwangerschaps
uret
bewegen
hersteld
##ife
klim
Kl
moduleren
bevordert
afwachting
##fysiologie
VER
10mg
##wijze
fyl
us
globale
GABA
SL
bespreekt
Bre
##dienst
overleven
##liot
gezuiverd
interleukine
ped
ras
Volledige
verontreinig
tim
schrijven
zieke
##temperatuur
##tings
ziekenhuizen
##RE
typisch
microm
splitsing
definiëren
cum
##ypen
ileum
##idazol
VF
INSTELLING
symmetrisch
Verhoogde
##aminofen
##ORT
##D1
sotalol
vrijwel
kolom
schijnbare
moest
##ontale
schizofren
Gest
Geneeskunde
##ther
fenomeen
##iserende
bevinden
gemute
##tended
##VP
sensor
bindingsp
Ziekenhuis
minst
parenchym
voortplant
systemat
Elke
gift
uitkomsten
lood
math
gestimuleerde
##amycine
##formeerde
PATI
Aanmelding
LH
Furosemide
##beheer
##achycardie
##kinson
##apamil
##nelheden
kankercellen
Operatieverslag
##quê
lar
staart
tender
recidiverende
##iders
##BTB
##ish
echte
psychiatrische
Tmax
deels
eic
femor
albumine
Skin
stoelgang
epid
##spraken
fluoresc
##ICU
proteïnen
##oosheid
tan
teken
##infecties
TEE
dysfunctie
organisme
verkalking
eosin
leek
tricuspid
##III
subclav
Eos
##weefsels
##eck
Overig
Dat
left
fosfolip
##halings
neutrofielen
##auge
pijnst
coronairlijden
wacht
##ras
LVAD
ortho
DOSE
rok
eval
scheiding
##isel
fistel
##orven
tegelijkertijd
antip
##uspen
##sensus
reactief
##argin
Stand
2001
doet
steeg
mas
Zeer
voudig
LY
##keken
resistent
transgene
LVH
deficiëntie
verandert
Syn
neonatale
##quit
QTc
##osering
dorsale
Roken
ontwerpen
##rictie
Pantoprazol
Vand
##criteria
Dien
verstrekt
herhalen
##beperking
##ALE
CAT
uitst
belangen
##fosfaat
hoorn
centrum
energ
OB
##zym
opvallend
Creatie
hepatische
Perif
##rank
##perfusie
ontdekt
##anamnese
insufficiëntie
##beurten
Des
Aden
december
gevraag
##plaatsen
dimensies
leggen
INF
hartziekte
verzamelen
##immun
##bestrijding
fenyl
vermeende
antimicro
##nnnnnnnn
stere
##oo
##ycodone
ondersteunt
gevisualiseerde
##chirurgie
##onat
FD
BA
Fax
Moeder
clusters
##amethason
alk
statine
lumen
wh
exacerbatie
Radiology
EL
bek
isot
olie
##onol
##vert
##wijzen
##fron
placent
##etermijn
aud
##ologic
device
item
##eph
kiem
##itraat
lamin
##K1
sites
lossen
kop
Ambul
##populaties
fouten
##som
##durend
geac
verzameling
gekarakteriseerd
Binnen
##roken
##laagde
##uits
##groe
##pus
##32
##loos
Ha
toeg
##laesies
##iland
verschijnen
##epro
manip
elleb
ademgeruis
knobb
Licht
fasen
onderzoekt
sedi
Ga
cip
##ober
##cope
Wil
zijde
mt
##deerde
University
Data
INTER
naald
GM
casp
redenen
##ifer
##NF
percutane
miljoen
Cel
dij
misschien
pak
##isende
spectroscopie
IT
software
##matische
Commun
gelabelde
##mid
Br
##ioden
##itmie
pomp
##icter
behoeften
patent
behoren
intrinsieke
diur
middels
afbeelding
aangebracht
gebeurtenis
zee
afle
voldoen
##uppressie
slagaders
Thorax
zink
pil
##ense
##itoren
overeenkomt
##ropath
ie
mu
zoeken
gangl
zitten
##uffer
##stenen
Uitgebre
MICU
##nex
112
waterige
Verrichting
##kg
ventrikels
bip
##index
##stisch
verdacht
volksgezondheid
Hematologie
Control
benauw
Bekende
Vitamine
period
oppervlakkige
nuttige
Warm
galblaas
dihydro
##ira
reconstructie
omk
HPV
cef
##hydrogenase
##otisch
##dit
West
##activatie
actine
geavanceerde
IBD
besloten
##urine
correlaties
Anders
aanb
Medications
##demie
bewaard
pacing
Hz
getroffen
geïntroduceerd
hap
posterieure
Overweging
##NOS
Mit
mengsel
fasc
hervat
zoutoplossing
meis
##sn
apoptotische
fout
##cubeerd
vide
nicot
taken
omgevingen
back
cardiaal
liet
diss
normal
patch
afhankelijkheid
vriend
##rimin
onderdruk
lijst
gevraagd
gevaar
Condition
##orting
temporele
##gaat
si
##calc
##ijns
Voort
intram
apex
##ineres
prepar
##istieke
zet
Ul
Hun
##veal
zover
prikkel
verondersteld
perman
Vancomycine
US
LT
postoperatief
Continue
Advies
##oprofiel
furosemide
##uss
geraadpleeg
pectoris
Chief
##nieuw
mobiliteit
##imale
verkalkingen
##54
paran
EGFR
Different
geconcludeerd
##edische
##syndroom
samengesteld
extract
##actief
tandheel
BSE
bevatte
##viseerd
wetenschap
##ARD
vergrote
##NAAM
duct
betrouwbaarheidsinter
Mac
VG
config
111
implic
##chromatografie
Event
voren
stri
QHS
##ructure
Hydro
Fys
##iak
##laatsen
##iteren
transform
bellen
T4
Dys
##ogels
identiteit
##ush
##bra
verloop
##alisklep
mono
regime
##31
FFR
##bb
BIL
seizoen
geboren
##telijk
voorl
immunore
##stern
##delings
ww
##odeeltjes
afgesloten
ziektever
partner
radiologie
##risico
geel
##ritische
adhesie
Cent
##AME
##ization
sneller
##lopende
hypokin
hydronef
dip
##vale
moeite
levensvatbaarheid
vr
##alings
E2
Heparine
extremiteit
verschilden
Waarschijnlijk
Bo
Guid
glutamaat
slapen
pyr
risk
Leukocyten
inferior
disp
Grote
##loze
##behandelde
##wervel
Allerg
Ct
Net
##igende
C6
3x
cyclische
##izumab
##modi
Gastro
##aff
##raf
deficiën
epilepsie
aureus
chromat
constante
rev
ald
drinken
Pertinent
cAMP
luchtcellen
##breuken
vetzuren
voorbijgaande
##pathische
##ectale
agressieve
##uscript
##nec
##iegels
##behoef
apicale
Vijf
telefoon
moleculair
##riminatie
BAL
Fac
Chest
geïncubeerd
gevestig
##aturatie
##witch
aangenomen
zorgvul
##oplasmatische
##datie
graf
OA
EO
beroeps
Ren
##streren
cellijn
##ieniveaus
ingedeeld
vierde
Family
##parenchym
geraadpleegd
spoed
moder
tekst
PQ
vergelijkingen
##itut
##fectie
vector
vullen
SE
pijnlijk
moeders
bovenstaande
dikte
liganden
##vig
##redig
support
versterken
grens
massaspectrometrie
Risic
versterking
opio
##wijf
voorschrift
##junct
zwangere
Init
bemiddelen
##valente
Soort
Alcohol
##ijven
cytotoxische
##agon
Tumor
obstructieve
##ijfheid
Meest
zuigelingen
enzymatische
Uw
##LS
bewaking
Amin
##gestief
##ruit
Ons
Thuismedicatie
##emic
introduc
IgM
amsb
##matigheden
##ISS
interactief
afgest
are
afst
temperaturen
Document
##voet
##dend
##bezoek
continueren
vre
hoogstwaarschijnlijk
##ism
semi
drukken
##opte
##vere
##opre
##rocyten
gebruikers
zaad
##rust
graft
##meting
complexiteit
Sl
optimaal
FT
eigenschap
spectrale
locus
dyspneu
diurese
FEV
neurop
##ryl
necrose
##parameters
##eper
DES
kristall
##alance
TIA
Asc
##derende
nM
creëren
echtgen
korter
veroudering
##velop
##ositeit
##erc
##verzorg
##hab
##YYYYYYYYYYYYYYYY
Sulf
Spir
##uwd
##raad
##atronen
persoonlijk
Hemoglobine
assistent
##ynaec
treatment
Beeld
ABD
symptomatische
Fib
Non
speeksel
##ageren
kwantificeren
praktische
vrijwillig
gestimuleerd
TECHNIQUE
##gev
depressieve
##verbindingen
Rem
Vitale
verslechtering
Pacemaker
image002
nationale
Chol
##inet
uiteindelijke
etiket
onvolle
##glut
instrumenten
preoperatieve
##ospor
##aarten
##rar
schoon
latere
##waarts
autor
Instit
gezichten
perme
gewoonlijk
ene
##iatrie
##itro
overheer
demon
hypothal
maakte
##herapeutische
Cal
Myocard
consensus
##verschillen
tabletten
manuscript
Myc
##eemt
eventueel
vaccins
##ronch
##oste
Voel
methodologie
##olie
operaties
cas
conformatie
##ience
##rete
adolescenten
##nect
auton
##aster
S1S2
Europese
##verspre
##stoestand
discussie
database
##omisch
##wekken
Aorta
krachtig
Interessant
echocardiogram
##egt
Ritme
##opulmon
hybridisatie
##lichaam
C2
Infectie
aanleiding
##ands
##omyc
Klacht
##oglobuline
longontsteking
##inname
UMC
afwijkend
##familie
celproliferatie
##domein
##ficiëntie
granulocyten
##oxidase
Bar
toeneemt
SARS
woorden
##dnisolon
Stre
geïdentificeerde
##imus
##ounds
ND
##teit
Bloedproducten
miner
paren
##braak
vaardigheden
CG
##atterij
L3
##67
Nutrit
0001
##forese
palpitaties
##ijfer
modulatie
amiodaron
obst
##AND
kopie
aanmer
Size
uro
##oporose
kankers
primair
forse
##oedeisende
complete
##essie
##heren
##const
Helder
LO
PATIENT
groene
##rachten
Vloe
overeenkomen
overlijden
blast
ovarium
linkerborst
##ott
lineair
endocriene
##luorescentie
##sorb
##aft
ruis
dissectie
pent
prostaatkanker
distaal
tre
Der
fren
grof
voorwaarden
##ubb
nadel
intrahepatische
Q8
hemor
##esse
##uiverde
jpg
variaties
georiënteerd
Diagnost
##umar
##mak
##aliteiten
##95
operatief
##47
Drains
lymfeklieren
MMM
##contact
nanodeeltjes
KAP
herp
voert
145
ok
2e
hydronefrose
examin
absolute
geëxtra
oriëntatie
##sende
##inderde
##enario
Familiegeschiedenis
Klinisch
toxische
##juvante
andro
frequent
##antal
endotheelcellen
RN
##onolact
glutathion
##akte
target
besmetting
press
##PH
zure
##oefen
##ppels
vroegtijdige
longslagader
voorbeeld
genezen
##staties
decompensatio
families
crep
##elektro
tol
geoptim
##entine
Recid
correct
##oeling
vena
tolerantie
horiz
##dagen
enquê
huiduitslag
##opathische
wk
Zorg
##wustzijn
embolie
##imet
Mn
##33
##volumes
cytochroom
compartim
oxy
Veranderingen
Aanvraag
rapporteerden
##itmen
platform
etn
CoV
neo
monitoren
bezit
##abl
1e
lateraal
##ulerende
##rotische
indicaties
##oxiciteit
##EHEH
presenteerde
aanmerking
##ankelijke
fab
eindigt
TNM
##onderzoeken
##amentele
uitstre
##ondersteuning
enorm
plasmam
##alisering
Studies
##straling
reflux
##alk
injecties
spraak
betrouwbaar
##otrans
##vezels
##dema
##tensine
groeiende
ervaringen
Overd
Nucle
Stabiele
waarom
reticul
##bewegingen
lijden
##idisciplin
SF
##enis
ray
NSTE
##tember
achteruitgang
SOB
##ious
Bespreking
##hod
##bleem
Cyt
##arning
dram
##ikend
darmgeluiden
pg
cystische
Multip
mesenterische
##ageert
numer
sarco
##oïne
##neemt
##ariteit
transfer
fit
longitudinale
##armoede
helemaal
zorgverleners
##iduen
tabak
twaalf
pup
##vervanging
Orale
##beschadiging
##sheet
CCU
pijnstill
Mer
samenwerking
litteken
diafrag
opleiding
mor
bevolkings
##VER
Dist
##ican
Kw
plave
spoor
System
galact
##aw
simulatie
##biot
intermitterende
tuberculose
contro
geadviseerd
waarnemingen
Ur
##lijning
##ffusie
Vent
##ouders
pediatrische
verenig
##nT
osc
weke
##hed
radiografie
mesen
bur
##ovir
##elin
Noord
##esis
##ete
gemetastaseerde
##activiteiten
Pseud
AH
polsen
Ni
##odon
recombinant
##55
118
Even
##zeker
##oyl
Mentale
MEDICE
POB
##ovasculair
overlevings
b0
##ëro
##werkers
##hyd
rijping
First
##ondition
##NL
autofag
tevreden
Tub
##iëtale
bood
Belangrijk
##iatief
afwijkende
##ear
##igenschappen
##formine
New
longfunctie
zichtbare
pericardvocht
VEGF
##complexen
laagste
gekoppelde
deelname
zwarte
oppervlakken
subcutaan
ongecomp
SW
varieerden
MET
gestandaard
schattingen
NaCl
##apping
##mate
passende
UC
ontwikkelingen
Red
Form
schadelijke
##idale
##ytheem
sectie
##ike
##organisatie
longarts
gezin
##UD
##unct
SEM
begeleiding
ga
##tefact
berekenen
##aly
tong
verwondingen
chond
20mg
opnames
overla
peritoneale
##ropathie
##ZO
perip
cursus
pad
##apparaat
ASAT
fundamentele
ureter
lob
Verslagdatum
hiervoor
##pend
opw
##ota
SVC
116
Aust
Neurologisch
##osynth
opgeroepen
ubi
zoon
##iation
##osol
##vinger
##idende
onregelmatige
##vallende
serot
##antagonist
endocarditis
lus
##gerichte
fibroblasten
geluiden
after
##ukary
cytotoxiciteit
##synthese
bevattende
basislijn
Profylaxe
##tjes
systematisch
shunt
leverde
spectra
##VC
antimicrobiële
anterieure
nierziekte
arteri
##draagt
##idemargin
##ales
BSA
##ellow
##knoop
ceft
werknemers
adsorptie
##ah
NAME
Stop
random
##48
##scheidingen
##Ob
##trom
subeenheden
orb
reveal
EPI
##abiel
biopten
##bound
stern
retinale
LR
Full
percentages
indruk
produceerde
ingeb
##airen
##BM
tun
alpha
geprobeerd
position
##iumzuur
excisie
gespecialis
pandemie
NSTEMI
gebleven
##etectie
cerebel
##intensiteit
CHest
pathogene
PNA
##routes
##ituatie
biliaire
ingesteld
compati
##centrum
derivaten
hypothy
hieronder
mV
geblok
optimaliseren
##iatieve
monocyten
novo
ejectiefractie
Gu
##BR
fixatie
##animatie
##ofageale
##oco
neuropathie
rechterborst
Mw
Vrouw
circulerende
berekeningen
bloedarmoede
Beg
##vic
Lo
##LEP
luc
gladde
afbouwen
plaatse
digitale
Onbe
verergering
TG
pe
##fysiologische
fysiot
sigmoid
##aaaa
##fferent
commerciële
alve
reflex
##aders
##ollings
##otrope
arbe
combineren
reumatoïde
TS
##erine
##ocell
##ouch
Fentanyl
cry
hypertensieve
##bumin
##eptiden
##pele
Plas
aanvaard
begele
##3K
levensduur
Ber
LIMA
manieren
##sulfaat
HCK
herstart
beeldvorm
pool
Version
hematoom
##leving
Centr
repolarisatie
73m
L2
superior
##schak
duoden
Signific
bevelen
gekomen
##plijden
french
femur
##veill
progest
Nutrition
##arynge
abnormaal
##tense
lieten
gar
##zwollen
proton
Fer
Mut
##athiop
Ken
kinetiek
##osfaat
zus
##jaar
gevolge
##moleculen
##entriculaire
##chan
114
##uld
katalyse
knobbel
geïmm
voorbereid
Blanco
zegt
NYHA
oscill
##bev
navel
##techniek
##apine
bezig
69pt
gezuiverde
vlucht
ontst
##anties
##75
bekkens
##schijnlijke
Elektro
Molecular
loci
dilat
neoplasma
##ustus
##Object
Pr
thi
premature
IH
kritieke
pren
vi
deficiënte
##oegen
AfspraakObject
PAR
UN
rs
onderwerpen
##hormoon
paroxys
Succesvolle
##phone
##oproteïnen
compens
botten
elektronenmicroscopie
00AM
Tract
klassen
##ners
##amenstelling
##ofielen
prothese
wijzigingen
Cursus
filter
volg
##bell
##icap
OC
fracturen
foley
carotis
afgesch
NamePattern1
splen
toestanden
evolutionaire
responsen
expectatief
verloren
bijdraagt
rugpijn
bijgedragen
##verst
##lact
datasets
B4
eetlust
maternale
placement
artrose
##mcg
IVC
T3
Special
##hydra
##fun
CRE
arterie
afbeeldingen
nefro
Neemt
##uz
bereikte
##ociatie
gevalideerd
erfelijke
artefact
##ventriculaire
uitdrukken
syndro
aangevuld
antistoffen
getrokken
comorb
https
##uurde
tro
werkings
suiker
feedback
##delijke
pos
Oste
Zw
dox
##T1
oktober
financiële
retard
##ekent
adenocarcinoom
##vraagd
vlekken
##01
##GE
pneumon
geper
analyseerden
##benadering
Abnorm
##verzorging
##YC
geste
##athioprine
activeert
sport
vertrouwen
schizofrenie
omzetting
voorbereiding
##raine
werkzaam
strept
FEN
##names
D2
comfortabel
jongeren
##biologie
suggereerden
vlees
##oncologie
##ochtend
dwars
##idae
CAP
##buik
demografische
gelabeld
erkend
streng
helpt
frequenties
##gifte
gedocumenteerd
ontstaat
valt
ronde
##nat
suppletie
##idon
caud
Si
##gorde
##leten
caspase
stralings
Au
##ziening
bede
verbeteringen
nader
geïnfecteerd
silic
erger
adaptieve
hilar
##lab
fentanyl
##ephal
erytheem
login
dod
##serveerde
Institute
AML
##rofloxacine
nanopartic
opbrengst
TLR
##ges
opdrachten
ETT
erytrocyten
verworven
##streeks
betekent
translocatie
roodheid
interferon
128
##wintig
##udingen
draagt
##illingen
Lymph
ingu
aangepaste
flav
cad
kunstmatige
Parkinson
##hex
gron
Austral
##ieg
koper
besteed
groeien
mitochondriën
##pas
houding
volgorde
propofol
##icteric
cumul
##otorische
klier
ATPase
instantie
armen
##roxine
perist
Congenitale
antib
infiltratie
##gangen
vermijden
##obil
##stil
resulteren
admin
familiegeschiedenis
plasmide
##tractie
##onregel
bibliot
NECK
Recent
##zak
epitheelcellen
recombinante
General
Best
MTP
##umber
μm
bovengenoemde
##waardige
##diensten
##insufficientie
amsm
lading
##leur
Genome
##igend
belast
ammon
hemodynamische
kritisch
Sociaal
134
farmacokin
gesprek
transfusie
P4
rebound
GS
Rel
##lenol
hydrofo
chromatine
familieleden
ju
Vo
##ler
##iratie
neurode
##YROM
ost
echocardiografie
vest
opkomende
welzijn
##Bili
biosynthese
##laesie
plaveisel
extracten
##fre
identiek
##angschik
bezocht
acties
slank
WE
AVR
Clear
EV
##aseerd
nak
daarbij
##umin
Bewustzijn
##PC
##arter
##tekening
113
supra
PULM
dekking
ara
##oorzicht
weder
##droeg
GA
Q4H
besluitvorming
##standig
ham
Soft
AoI
bestudeerden
anth
##ivan
fung
##pon
##kom
levering
bacterie
##TH
inspannings
mondeling
films
verstrekken
##ytisch
hechting
ACHTER
##eeuze
gedacht
bekijken
##racheale
117
##stadium
##vliezen
september
langzame
troponine
##aterialen
occip
Onbekend
##tomografie
abdomin
getoond
glas
##othe
##uidelijke
##plas
##antia
Heparin
riv
Blijft
kruk
neutrale
dwz
##osm
##rologie
##eff
osm
##grade
auditieve
##gevoelige
Wor
gemeenschappen
histopath
NV
zn
##necrose
##XX
##aamd
##Ph
##iwitten
vaginale
##dosis
Pneum
##ismen
preventieve
blaasjes
##atier
cf
sect
##ifiek
##vet
##ailure
classific
AZ
eenmal
hematopo
##ophila
##ementen
ana
C1
Note
infiltraat
Gol
seconden
dysplasie
Max
parac
##aandoeningen
##ots
Voeding
murm
##formaties
psor
1998
##hyp
VR
foetus
elektrolyten
Mr
##ibiliteit
##ifen
immuunrespons
online
P2
##roepen
risicofactor
##ature
##eerbaarheid
##itr
##plast
reageert
##assay
LUN
placenta
BNP
opsporing
##different
##yps
##RH
prospectieve
##uran
2L
##ductase
##auz
idi
gekwant
##osept
DL
vacu
TAVI
##aldehyde
Experiment
##wan
uniek
cardioversie
Ve
ha
##aph
aantallen
begint
reguleert
##amelijke
##romycine
auteur
##RM
subcutane
##menteerd
FS
produceert
##itaal
##ocardiocardiocardiocardi
##onregelmatigheden
Prednison
##temin
app
Zelf
gemat
verdoving
synerg
kwalitatieve
perspectief
##weken
##99
Pen
##inib
mesenchym
amsmath
immuunsysteem
141
##eutische
cytokines
##retie
durende
Extr
##sign
##asal
diepte
ubiquit
##etic
ALL
gekl
##bloeding
CS000
CTAB
virul
##processen
##igers
Respiratory
coronairen
##beurtenissen
Hoofdklacht
voortzetten
##stests
regelen
CoA
146
##anken
##44
Arter
##gebaseerde
zelfm
bijnieren
Gauge
##avir
##hout
Cardiomyopathie
CE
risicoprofiel
Peptide
##leren
Organis
naarmate
Lichte
gedaald
HG
pur
Gly
ulcerosa
##VALVAL
##isc
##omelingen
bradycardie
Study
letsels
defecten
##informatie
##ux
##oning
##betering
interface
##oglyc
TID
##RIUM
modificatie
degeneratie
##chemie
conclusies
kam
gemuteerde
draai
aantonen
TV
##zine
analytische
gynaec
betrouwbaarheidsinterval
gelijkenis
##tract
trach
Kinderoncologie
indirecte
body
evidence
DH
##componenten
tran
##acillus
##oxyl
eukary
doss
induceerde
Calciumscore
Amino
annu
##laging
NSC
pseudo
Numer
##inefrine
Mogelijk
schapen
Spont
alles
natuurlijk
HL
##etijd
verlenging
jaarlijkse
misbruik
antioxidant
fibrill
##ppel
AO
##aciale
##algie
##ME
eventuele
##potent
rechtstreeks
verhogingen
Medi
genorm
gewone
overmatige
##alp
Succ
fysiek
##icol
verschijnselen
##alige
##afname
intr
##AA
For
##ibele
##antische
##knie
CZ
slang
bestudeerde
##ematige
full
RSBI
##ocytopenie
methotrexaat
differentie
##spunten
NSA
OD
##foratie
Q8H
implantaten
TT
Arg
CARDI
Chirurgische
cytoplasma
##aminen
monoklonale
variantie
Troponine
nor
##icide
Gram
coll
##ïden
Alleen
Dysp
##UB
varieert
paranasale
##nog
##otrof
##rosies
werkelijke
Ou
alcoholgebruik
Conditie
www
amsbsy
maandag
terminal
polys
systolisch
##clude
##plasie
work
wandel
wanddikte
##omgeving
achterste
Omeprazol
##maken
##imes
verwer
##kkage
bloe
geleidingstijden
precurs
MCP
La
Verpleegkundige
##locaties
curve
antibiotic
transvers
EBV
##TEIT
##spatroon
##astinale
midline
##ocytaire
innemen
VOOR
dominant
hemodi
osseeuze
##oston
microtub
Maar
##prop
##kels
dataset
etc
##hyleen
samengestelde
##eters
hx
##ythm
punctie
trial
Disease
Ongeveer
Richt
##fiele
parameter
Overdracht
voorbehandeling
##eeded
EOMI
capillaire
##fibr
Nad
nakomelingen
131
##weer
##ularisatie
transm
##ineerde
##dist
##ruari
herkenning
integriteit
##ayed
##ellers
FYROM
Sten
incident
##bacter
comput
ke
##F1
MSC
reactiviteit
belt
Bilaterale
##spatronen
##ijmvlies
twijf
##INDINGEN
Screening
ruwe
allergische
projectie
kinetische
academ
Arab
μM
wens
##derdaad
wijziging
##zige
pulsen
nale
antiv
coherent
##ruimte
##differentiatie
##ët
IgA
base
dringen
comm
dimethyl
##0000
geslachten
linkerkant
240
exon
ASD
##romatische
corpus
Succeeded
##slijden
amf
vrijwilligers
yo
Ax
##ometer
Anti
voorspelling
instabiliteit
##ester
##oriseerd
tekorten
voorbeelden
protein
symptoom
analogen
cocaïne
126
niets
atoom
mediaan
somatische
##astrische
GLUC
onderte
##tijden
129
trad
##wervelde
indicatoren
sigar
Gew
silhouet
klimaat
publ
##veillance
voorzicht
##dib
komende
geacht
grijze
pyl
ADP
MHC
planning
RESP
aanwijzing
MRSA
por
##ye
##cellulair
linkerboven
##ALY
##losure
Fre
TD
##oners
133
##adigma
ACHTERNAAM
mislu
aritmie
##emde
diuretica
activity
##verwerking
hydrolyse
allergie
dosisafhankelijke
Gal
lot
verpak
##ëind
##ubl
UA
coördinatie
##omorf
internationale
aantrek
##odg
bovendien
Eth
creat
vergelijkende
verduidelijken
prestatie
gevorderde
bedrijf
bos
boog
thromb
spannings
##formeerd
##action
73m²
voornaam
Ben
asymmetrische
paden
cyclo
serine
ondoorzicht
Verleden
visueel
Poly
##otomy
##45
anatomie
revers
##rengt
kleplijden
eigenlijk
##progressie
conservatief
ADD
Tractus
A1
x3
Subst
optimalisatie
november
onbehandelde
##oracale
BUN
Geboorte
kindertijd
Atorvastatine
condition
SDS
##iteerd
##kleuring
augustus
##meel
gezond
Boston
Albumine
Complicaties
##imens
##ained
##CHO
AOR
emissie
pig
##formul
afger
chemot
Identific
##diale
1997
wandbeweging
posities
rondom
##ady
##anteerd
netvlies
coronale
##chloor
##arg
HM
##metastasen
##ocortic
##gn
Sputum
SOD
nadelige
##ques
sperma
gekwantificeerd
geleide
##onyl
crypt
verniet
Ple
Besch
syncope
##rsfs
##sluiting
waarschijnlijkheid
hierna
elleboog
##uronen
uitput
gezw
NSAID
PKC
Action
##GGGG
##rootte
x2
##geerde
ns
##STR
galwegen
uitleg
##ourn
wijdverspre
maligne
196
##cort
verde
veilige
stierf
overwegingen
##yte
broer
order
uitslagen
panel
membra
geclass
PO4
evalueerden
VAN
A2
Dus
190
ziekteverwek
geautomat
##IJK
HBV
verwijding
##ilaud
Cardioloog
webs
patint
ARDS
peristalt
RCT
##ocyst
ONDER
genaamd
##aract
verschilt
Sen
Ven
##oping
HER
routinematige
cardiopulmon
myeloïde
temp
##vit
zwaarlij
aanbeveling
congestie
percept
situaties
fyt
##T3
optie
synthet
omringen
Hypercholesterolemie
PAN
D3
bedre
##berg
stra
Imaging
homogene
##amenten
##plo
##oplasm
signalerings
lymfklieren
##ison
##osus
aandeel
vergemakkelijkt
innov
##ley
view
geduid
retentie
microsc
schak
##sion
aangetast
Vandaag
##uitst
seksueel
Pi
learning
eiland
GTP
Actuele
##artritis
##ASON
STAT
lichamelijke
##ward
anticon
sluiting
Insuline
123
kol
suggereerde
knobbeltjes
##ikte
lac
multiple
verzorging
##ympt
ak
LABS
BAT
verhoudingen
doorgaans
cerebellaire
##98
##percentages
Social
Ste
zelfmoord
genezing
##orderline
bind
Erytro
##arker
##elevante
extens
relevantie
driedimensionale
epigen
stimulerende
Mal
overb
##eens
colonoscopie
geografische
manifestaties
embol
##gradatie
nucleair
##protocol
takken
prn
onwaarschijnlijk
##pressor
kortademig
132
verwar
wort
FP
##elings
##speriode
blauwe
subgroep
heldere
##ozo
tap
##N1
##gelijke
EFO
langetermijn
bilater
##hes
vrijk
##otoxine
voltooid
##omyel
minimaliseren
##ability
##farine
rijst
anastomose
ziet
cTrop
FM
##afspraak
Enter
beetje
afscheidingen
dexamethason
anion
##eps
##prakt
##ssnelheid
##abine
##trofische
myocardiale
geconserveerde
Telephone
V1
##LOG
CVP
rook
ventrale
AKT
Link
tandheelkundige
boom
opgewe
##teren
DT
opgele
Scler
overlapp
epidermale
transcriptiefactor
##vaccin
intraper
##itutie
##ieet
schimmels
voorlopig
prior
##ilaudid
122
ii
Onverander
##odgkin
##iton
##receptoren
face
FU
pariëtale
unit
##vormingen
dev
Moleculaire
##ZOEK
geblokkeerd
##ennia
erosies
bezoeken
uitlijning
##stuk
00PM
Vro
ondersteunende
opties
amyloïde
##interacties
##voud
##coëfficiënt
##brile
Zal
##istisch
##uin
Lat
angiotensine
biologie
cytokinen
##baan
Doel
##ilatie
robuust
142
##afe
ingebracht
balans
mill
Ambulatory
##length
Lisinopril
##ads
influenza
500mg
langdurig
Ademhalings
HPLC
##morgen
paracetamol
heterozyg
cann
##helft
consumptie
ventilatie
landbouw
##ield
rRNA
asymptomatisch
##pendent
wervels
cytoplasmatische
##ikelfunctie
##ijen
##veerd
jejun
##oncentr
##optimale
##verg
opaciteiten
Oede
evidente
##pering
uitwisseling
coc
uren
PCA
verwaar
allelen
##potentieel
categorieën
wt
STEMI
##unit
decennia
##inase
##riaxon
osteoporose
osse
fraction
##lyceriden
BO
aortaklepstenose
gecorrigeerd
##AGE
axillaire
configuratie
trekken
##lever
##P1
##icalen
atrofie
chromosomen
Voelt
##persoon
FEV1
vak
leverziekte
proteïn
cholecyste
##yleen
uitgest
##iliseren
##weegt
belemm
extern
Dem
##ely
##rassen
##ograph
micron
klaar
roze
initiatie
##icyl
##bupro
longziekte
snelheids
micros
Ontslagg
##diging
pij
##otoxiciteit
corticoster
verf
##eend
##phy
fors
##gevende
##orn
##mering
reageerde
hetero
antrum
weerspiegelt
voorlopige
##R1
les
SPECT
Medische
Geboortedatum
denken
Verwer
synov
Bewustzijnsniveau
equival
Aanv
##herstel
##ylact
ee
##amens
##odes
##aatregelen
hetzij
Index
Sounds
tenzij
rub
oefening
##ientific
cutane
fibrin
127
##100
geleidings
incomp
reperfusie
##Phos
##itting
mobiele
voorspellingen
flag
##sA
longbasis
##angiografie
##bevindingen
veelbelovend
biofil
sterfgevallen
fracties
Huisarts
##lingen
##eta
elektrode
Hoge
Dig
Deel
TABL
industrie
Hierin
##eceptor
stenen
robuuste
##bil
##erum
samengevat
vlgs
elev
##spectrum
horizontale
Albuterol
##omm
differentieel
waardevolle
retrospectieve
longvelden
hemorrag
colorectale
ritmestoornissen
stable
beurt
##actions
##ffende
LINK
hydrofobe
connect
feeds
Laborator
Nov
##spercentages
##sequent
vetzuur
potentie
oversch
foll
##ïdose
gevoed
strand
##volgen
modific
American
##ijde
oedemen
##down
principe
##urk
IJ
intensive
gesim
##onolacton
rig
##technieken
GLUCOSE
Huidige
Ast
Onderzoekdatum
##anke
constant
binnenste
tert
coun
definitie
hierbij
banden
Time
##ysis
Port
verdun
ecologische
SER
vergroting
##fractuur
fag
intake
##ascade
##vende
infrar
lek
##otheek
##icil
immunoglobuline
beslissingen
##ferische
Q12
gescre
huidig
##gggg
##centreerd
##ologieën
CRC
##clust
##regio
selectiviteit
##voorsp
##irium
regelmatige
##drain
regulator
persisterende
Sens
##IDE
accessoire
coel
elders
Normal
Organisatie
setlength
nadien
testosteron
Herh
traumatische
slagen
herkennen
verle
bevestigden
##iety
past
multivariate
144
orof
herschik
##icarbonaat
cycli
##oudt
##tingreactie
hartfrequentie
##stress
geëxtraheerd
##ideren
VERKLARING
spir
x1
apicaal
##volging
driemaal
##duceerde
scenario
wetenschappelijk
verticale
Rv
##iazide
##omed
##cale
##keten
magnesium
onderdrukte
beëind
124
TotBili
##ïs
Risicofactoren
timing
##teerden
februari
mucosale
##onucleaire
Facility
##continentie
bronchiale
##eep
AlkPhos
ds
##klinische
verzwakt
uitvoering
pathogenen
geïnd
Hemodynamische
IE
tom
650
Vt
##abap
##vige
##illair
epidemiologische
xen
tachy
##umarol
oplosmiddel
Flowsheet
voelde
##celt
##roei
##°C
ureum
##natale
##aceae
dep
##gehouden
psychische
Extra
##raagbare
geïntegreerde
##ivaat
Assoc
fenotypische
##cyst
##HHHH
##ropium
peristaltiek
glycoproteïne
linkerzijde
eerstel
UP
##riep
bouw
tRNA
zorgt
wandonregelmatigheden
##flutter
nmol
##hier
geclassificeerd
##ulatuur
HCl
##alog
toevoegen
hab
bijlage
gezwollen
ROM
radicale
##klaring
scans
opgeslagen
inhib
kwantitatief
##isis
##otypes
##oename
arrest
##medium
##no
##iac
##proken
##itheel
##wezige
##ificeerde
REASON
ei
##ofloxacine
schrift
geïmpl
##schrift
1d
buffer
##osomaal
##oxidatie
##ecifieke
cTropnT
kippen
##ressing
##buprofen
##upus
Hematocriet
immunosuppressie
naleving
##iratoir
dose
##ta
##cellige
moeheid
Pb
##ileren
residu
##gestuurd
voeden
Zes
sera
actuele
enquête
Extended
##ection
Stap
geïnterpret
##cr
verlichting
specialist
cijfers
##hem
mondelinge
verwerkt
##monella
antis
##spar
##BAT
normen
##aaf
Ram
educ
##ïnezuur
selecteren
vou
gemak
analoog
##ips
##88
hematocriet
MRA
linkernier
versterkte
Admit
##ates
##stijl
##PT
voudige
blokkeren
##sies
catheter
##rolimus
##ondyl
##eeeeeeee
veroorzaakten
consistentie
buitenste
volum
##heek
spoedeisende
1996
##iderende
gegaan
donoren
Carb
##RO
nicotine
Exp
##omics
220
deed
Glu
##mend
Behandelplan
##middels
ontstekingsrem
gedifferentieerde
##hm
pred
MH
zenuwen
multidisciplin
golven
119
contract
infectieziekten
opacificatie
verwachting
algoritmen
verlengd
GEN
##ationaire
vogels
##zucht
##enoco
##ochemische
nauwe
immunologische
rotatie
gering
##graat
gestandaardiseerde
##utic
##ineren
1990
keren
praktijken
asymptomatische
ingenomen
SVT
geconju
Serum
geïnterpreteerd
Medicijnen
remodel
patients
gespecialiseerde
enh
apo
##omic
##iciden
##ELIJK
Hepat
holter
observaties
sap
Diameter
##iazem
1995
##monoxide
##77
##emon
##agland
merk
fun
##omyelitis
farmaceutische
##ulator
dendritische
##emia
##seffecten
##ora
hypercholesterolemie
Location
MAPK
migraine
ppm
histon
hr
opgezet
alkalische
Dros
only
##ivit
##EGEGEGEGEGEGEGEG
Mid
##omere
Western
##etra
doelstellingen
Hodgkin
concurrerende
verlopen
ethische
##my
tov
##ytes
fylogenetische
sarc
##anger
##amische
rijke
hartziekten
atriumfibrillatie
RM
##sh
Events
implantaat
cerebro
Coronairlijden
##cinaat
thy
internist
cava
##iltiazem
##iceerde
PU
verne
##asische
postnatale
##aid
reduc
AUC
Afrika
##oken
knooppunten
##ostomy
##dynam
metaboliet
spermat
verpl
BK
##stro
##methyl
##stimulatie
##profielen
##epackage
MN
Aand
opgeb
CNS
Dergelijke
##doet
trends
Verwervings
##hecht
##enocoumarol
fla
somat
##oringen
##gery
jongere
##erobe
pieken
##amne
precisie
dyst
##esult
diagnostisch
expl
##orrels
##omateuze
ligament
##bal
Pols
##igratie
amlodipine
Score
zoogdier
opget
##43
rokers
voortdurende
##HY
arginine
discrete
##ationeel
angiogenese
middag
##ositol
##rières
conc
one
##obut
aangem
arth
bedraagt
SU
FE
toxine
redox
numerieke
##APT
gevangen
##ofyl
cholecyst
modellering
HY
endoscopische
##gewricht
ESRD
hartinfarct
opmerkelijke
bovenkwab
WHO
Chlor
IVD
CZS
gereguleerde
acyl
train
switch
portaal
Ol
##lykemie
gemengd
twijfel
profielen
geconstrueerd
geïndiceerd
##beleid
100mg
##essies
##CO
##zenuw
##gekeerd
MEDICAL
endothel
gestructure
bladeren
Cef
##tak
rechterhand
USA
uterus
chromosomale
Depressie
Ti
aggregatie
##opsis
monol
##onderd
##mented
##JECT
progesteron
druppel
study
Echocardiogram
combinaties
indicator
##smaatregelen
epitheliale
terugkeer
50mg
##RL
##kanalen
NOS
##houdend
lam
cortisol
kaak
##anti
##LV
##CG
dich
verzwakte
ascal
Cx
##verte
moderne
aller
##matiek
Vragen
revisie
immuno
Diast
bevestiging
anicteric
sigaretten
scintig
ondoorzichtigheid
technologieën
##MB
Antibiot
25mg
sterftec
haalbaarheid
FDG
##ida
##eleinden
HV
##usculaire
##sneden
##anig
verdikte
overgeplaatst
Drosophila
palpatie
lytische
##obstructie
##57
gered
##idings
doorgemaakt
##ynchron
Stro
celm
##function
verplaatsing
##ioc
encefalopathie
##ofib
empirische
rekru
##escent
##reffende
##abole
##ectomy
EGF
Allergies
##fosfor
##aggreg
##sterse
121
##steen
##WP
gerecon
demping
incis
transl
schijf
verkennen
urineweg
opgeloste
deletie
inj
##lax
voorwaarde
Let
beoordeelden
interageren
##ALIS
dens
##derivaten
gecoörd
HN
##licht
steriele
##trecht
##pels
lymfklier
##usion
Infusies
gevestigde
interferentie
verspreide
##idi
##ston
Sa
wijzigen
HH
lith
##ctomy
dichte
alveolaire
vals
subgroepen
##tronic
##atien
kation
##ovende
voorloper
##ellect
##ological
##uwing
lisinopril
helix
VA
##prestaties
maligniteiten
XII
Hal
verrijkt
cave
oplossen
afzonderlijk
raad
##heorie
katten
reproductieve
vingers
DAG
infiltraten
Bleed
smal
ophogen
kwesties
##obacterium
##plicatie
voedingsstoffen
##42
##durale
##fosfory
Domin
portable
##zol
soepele
antine
Hartklep
##ikking
Oncologie
plotselinge
macrofaag
perioden
##ebrile
##eb
gouden
permeabiliteit
nanoparticles
##ationaal
individueel
##DP
Ra
Sympt
parasieten
BB
lastname
Examination
groet
##sted
antico
##resectie
ontwikkelt
reanimatie
berekening
Patiente
stedelijke
##mogelijk
##reigende
multic
##drempel
coumadin
straal
TIMI
##oordelen
B12
lezen
##stoename
verwant
rectaal
##ired
Part
cispl
immunode
##mark
##lus
bulk
wen
Acetaminofen
##ijdag
##olic
155
tricuspide
Guiding
publicatie
κB
##ants
computertomografie
##hydraat
inw
##ampon
antivirale
leverfunctie
VO
##indopril
##arach
Uitgebreide
##rog
mean
ICC
vatbaar
Pseudomonas
gradient
motief
##ycline
subjectieve
overwinnen
##urc
inkomen
knaag
vaststellen
LN
##glucose
##opende
slijmvliezen
Mod
NGT
talrijke
##stratie
##ATION
pijnbestrijding
Lungs
##xpressie
##idaties
LAT
verlengde
##segment
Du
siRNA
beslissing
verschilde
cyanose
##omyces
ERCP
omringende
Klachten
opening
##wijd
##kern
##ymp
##atose
##medic
aangeb
ONDERZOEK
akoest
insecten
hepatocyten
##kap
hemodynamisch
##rough
##inyl
##epsis
Significante
##osociale
##effect
##rens
velden
##oratoria
neurologisch
Medtronic
##uraties
Afdeling
ongebruik
subtype
sulci
gescreend
donker
##ibilisatie
autofagie
steen
gelokaliseerde
breiden
onthuld
##erbare
##zone
intellect
##spak
vijfde
reageerden
uitdrukking
AAN
karakteristieke
opgezwollen
plate
##zymen
refract
##opressor
##VL
voorspellers
##ocept
grootsch
cerebell
##osynthetische
Kon
mga
##oty
##chem
##snede
##kwadrant
##avel
autonome
machine
Stable
##profiel
##sal
Rout
Temperatuur
prenatale
Aantal
diagnoses
voedingsmiddelen
##etail
antwoord
V2
professionele
scanning
Controleer
trap
exogene
##othyroxine
autologe
neutropen
trem
dimeer
aqu
usepackage
##beeldvorming
##isteren
##icular
##atoire
centra
##geluid
plastic
lept
##afgifte
signaaltrans
dislocatie
mA
##K2
onthult
SKIN
compress
subtie
subtypes
slot
Ile
ot
##iotische
ed
##onse
basen
ondertekend
polymorfisme
Fluor
voer
##66
Telefoon
IgE
son
toezicht
PSA
Farmac
microar
Soms
##vr
OBJECT
##trekking
kloon
circum
weet
##ablokker
Perr
Sotalol
##abase
##bevel
##rachte
antihyper
enorme
Glob
##romide
Erg
##ara
tav
Strept
pp
pte
##anced
C7
COX
Hartklepafwijking
Pub
borstvoeding
mutagen
casus
verklaart
hypothalamus
BLE
tijdstip
##kosten
##vleesklier
##bewegings
gekleur
EGD
lute
Rest
rapporteerde
Endot
kwantificering
homologe
##riften
steady
##itol
##osph
##ematig
Oedeem
extub
Erytrocyten
tumorg
kijken
Gep
##ocompati
nierinsufficiëntie
##proeven
daagse
##TES
persisterend
Weer
Bay
etikettering
LYMP
fiets
Balance
##APP
plaques
GFP
##ranium
##icylzuur
protocollen
MIR
röntgenfoto
##uting
##proteïnen
Bro
##maag
##ogeniciteit
##defecten
gewenste
##weten
herstelde
Werk
erosieve
##grens
bloedst
insert
HEENT
##atatie
verlichten
molecuulgewicht
onderv
parallelle
QD
##voeligheid
##pressiva
UTI
neurom
extreem
##ofluorescentie
perceptie
visualisatie
Slechts
##gebeurtenissen
##riaal
maxillaire
##ASE
fecale
Lage
TOT
zwem
##orens
geautomatiseerde
##2A
##angt
superoxide
spi
TabletPO
##idt
neurotrans
##amnestisch
zodanig
Verd
uitdagen
gewassen
##deeltjes
##transplant
kalk
Rhythm
Namens
avonds
AORTA
##loer
HSV
Pe
FC
hematurie
interviews
##itter
##known
##aryngeale
Group
Atriumfibrilleren
##statische
##hypertrofie
##moe
ruimtelijk
isovormen
actin
brach
##aise
##97
pathofysiologie
bilirubine
##ana
##omalie
overweging
epig
##orde
onderling
##passing
VENT
crit
Bla
##ega
cx
SO
His
Koorts
##esultaten
hypothyreoïdie
Sodium
vermoedelijke
NSR
Dyslipidemie
##breed
bindings
blootgestelde
smaak
urineproductie
deoxy
msr
provinc
##ureau
mT
Kortom
TK
breedte
tunnel
##onazol
ontle
supple
##acar
vasculitis
mest
voortvloe
berekende
diverticulitis
hapl
tegenover
uitputting
Meet
##ORY
versnel
waarschijnlijke
lees
Hartslag
##ride
##best
geïntegreerd
##ocl
trypt
celoppervlak
vertaling
Tach
herpes
Zacht
143
fles
GFR
Ty
homeostase
fluorescerende
eieren
gp
stimuleert
website
pathologisch
spp
thyro
agonisten
##ACE
transporter
##isa
scheiden
##akelijke
BT
getra
mesenchymale
penet
##astenose
transcripties
evaluaties
Regel
RVF
overname
##AI
barrière
1dd1
##aardoor
Utrecht
##EPT
CHEST
##ullaire
ECM
video
Tit
kwantum
georganis
##BA
Vloeistof
consequent
##ipar
routinematig
EH
Impression
##spunt
microscopie
##USIE
uitgang
##KK
elektroden
hypodens
trombo
Q12H
lupus
eicellen
stenosen
eliminatie
acetylcholine
##maten
foci
rillingen
plaatsvinden
##golf
chor
bran
##reef
##oform
OBJECTID
Neoplastic
culturele
niertransplantatie
Baso
fijne
GSH
HPI
GAP
##onts
vect
##02
ruggengraat
daarentegen
inject
poeder
laparoscopische
##burg
##verwijdering
##prothese
India
Ide
##IM
kleurstof
VES
1994
##herapy
bouwen
oesofageale
sediment
halve
Mann
identieke
evolu
Dex
##ns
##namen
suspen
##kleur
##arachn
RCx
proteïnekinase
NSCLC
air
neurot
voelen
microgl
kenmerkend
toepas
##dracht
LUNGS
Mental
spij
##aamde
neurologie
##jectief
aa
##iërarch
pogingen
impliceert
##uine
hemodialyse
modus
##oline
verwijde
Seg
Anemie
permanente
kamerlucht
##ssystemen
##ellaire
##UCT
adjuvante
##integ
##ionaal
lidocaïne
##date
analysis
SY
ARF
##zingen
##agnetische
##rays
ulcus
objectieve
aanpassen
##68
LBTB
Europa
##ATO
tricuspidalisklep
leef
neuron
kwaliteits
Intellectual
##renaline
stijfheid
Verpleegkundig
MAE
##ampl
Aandacht
##eltje
##B2
homozyg
Neck
verre
##entin
VALUE1
restrictie
architectuur
palliatieve
dalende
##bindende
nag
##loot
##alan
overgewicht
adnex
routine
##voegde
scopie
##ERKLARINGEN
##INISCHE
doord
##quin
excitatie
##stolerantie
ontwikkelende
##voeging
voorke
hormonen
jeu
geaccep
##absorptie
proximal
diëten
passieve
exacte
##URE
Child
AFG
##pomp
1mg
plasticiteit
##ramine
expressieniveaus
Salmonella
items
##don
##ext
##gestaan
bad
##wond
##verh
##iering
##cepten
aanvulling
apotheek
clinici
##ergelijk
##ctu
herinn
##oplasmatisch
opleveren
oppervlakteactieve
nano
##öper
aromatische
ontvangers
introduceren
Fen
Spoor
Simvastatine
uitgescheiden
##ragers
750
kortere
CS0000
plasmamembraan
##oof
Volgende
##RP
##relatie
kiezen
aangeduid
GV
kruising
zogen
vlakke
nucleotiden
release
cate
Bcl
bestanddelen
afbre
rechternier
Prom
##EFT
blokkade
oncologie
ledemaat
ongemak
##bp
inferol
medicamenteus
vermoeden
##laps
Gebruikt
MF
Hierbij
intensieve
SQ
RCX
vene
##gevonden
amb
##ided
illustreren
##dependent
lymfeklier
WD
antide
endoscopie
##veil
klieren
##sterase
ov
chir
##04
reticulum
##stradiol
Lijnen
gefosfory
Set
periv
sj
verkalkte
M1
agent
vissen
PSV
prostagland
paper
CPK
ecos
bevestigt
richtingen
runder
pressure
donkere
beeldkwaliteit
principes
Admitting
##yclische
transcriptiefactoren
##andida
effort
circulatie
acid
pmol
schro
wekelijk
Totale
ECHO
QPM
extreme
obstipatie
##zers
weergave
alvleesklier
ureth
##tement
Adenosine
ethyl
dodelijke
##ënten
Ir
##riële
WNL
##ilus
##VAS
##epen
Diffuse
War
wisselend
##DC
sequent
##genees
azathioprine
30AM
##olar
plaatsvindt
Sla
inbrengen
voortplanting
seriële
EXAM
##oplastiek
Stool
##stilstand
Actieve
reagentia
onderkwab
##ekuur
reser
##work
##synaptische
precie
##atieven
HU
laatst
##behandelingen
lymfekn
assess
extrahepatische
muscul
Lucht
##ible
##lid
##rep
350
##amponade
gerecht
##erium
zorgvuldig
##ELL
explic
objecten
Mellitus
wandverd
##urgen
gewervelde
hematologische
ongel
hardware
005
##nemende
serotonine
Stent
##ogrammen
zat
Dienst
##oter
weekend
Lines
##etjes
##iatische
tijds
gemeenschaps
##zweer
gevisualiseerd
wegen
determinanten
geweld
##ORMATIE
##gress
dysurie
##riëmie
Ital
tent
verval
##atalys
QID
cafe
##agulatie
virulentie
eerstelijns
blauw
##CO2
##lec
hangt
obser
##vangende
##osan
##FF
Two
tau
Response
##biliteit
celtypen
correleren
hydr
nitraat
uitvoer
Heldere
##KEL
##middag
minimum
sclerotische
Hartfrequentie
##rati
##slijmvlies
##cine
Inform
##unds
##aans
##keuring
gese
reumatoloog
Gluc
##plantatie
wis
##oseptaal
baarmoederhals
Unknown
Wee
Process
Herhalingen
parasiet
##ograft
beweeg
transc
CHAD
sats
coloscopie
##07
vervaardigd
tax
trials
dergelijk
biomarker
##strueren
##IK
occipitale
##geerd
##entwintig
follic
voortdurend
ontstekingsremmende
partiële
Ontkent
familiale
afnemen
##ilet
##ërobe
contacten
compatibel
littekens
##hode
oesofag
##verbruik
beoordelingen
##eti
##inosa
gesub
Gedurende
##ented
##oepel
##hersenen
G1
ademhalingsproblemen
flap
##houdt
cardiomedi
##pk
##moed
##schijnselen
##edantie
##dienen
enkels
vetweefsel
uitoef
##fibrileren
jongen
bindend
fysiotherapie
antagonisten
ps
clopidogrel
##pakt
##trek
compos
##resistentie
terugval
##axel
vrijdag
Up
##ISC
vruchtbaarheid
##ream
KLEP
##oteerd
##vergelijk
700
##markers
sondes
neuroloog
alb
µg
sulfaat
Gr
Ori
##AAL
grove
Duits
##overeen
Had
metformine
HIST
##ieft
myeloom
Braz
regelt
benigne
phys
gevoeliger
##glycerine
agar
stromen
Magnesium
korrel
##erence
##aï
cysteïne
##type
##ankelijkheid
wortels
rhonchi
##ofys
resulterend
protease
##barst
lens
ICA
maakten
##loïde
caps
Nierfunctie
immunohistochemie
nauwelijks
##oskelet
zodra
intervallen
##cid
small
onvermogen
gewijzigde
radiologische
##tenolol
gelijke
gyr
##oscopy
##menteerde
Analys
bases
Pertinente
##oiden
narc
Lys
coöper
UL
##era
##loof
##riv
woord
##doel
history
benauwd
urinaire
fmol
##reeks
LFT
prominent
proliferatieve
##oson
recombinatie
##RON
##obobobob
blanco
aspart
##folders
##nes
##zinn
schouders
voorhoofd
mail
marg
##rh
Pla
assist
##1A
response
Tc
##verde
chemok
verwachten
impro
MDCT
##ieniveau
##stammen
##raan
cisplatine
hyster
GER
proeven
kolonie
Cat
parenchymale
Att
##fig
##ineresistentie
epidurale
##diende
tam
##gewijze
##ownst
malaria
##06
qua
Relevante
stat
Fran
longvolumes
voertuig
detecteerbaar
polypeptide
psoriasis
tur
Positie
biopt
geconst
septische
NamePattern4
Atriumfibrileren
maximum
larven
dynamisch
gestegen
##rien
##ised
acidose
polyc
##cond
##lat
aangeboden
technique
dyspnea
schriftelijke
Alkal
plasmaconcentr
##stechnieken
##DD
activator
RDP
Routine
##zeem
Extremities
lymfoïde
netto
kamertemperatuur
##ossa
##minste
##zijdig
dissociatie
onderhuid
soj
cataract
GO
hypoglykemie
RVSP
geïmple
Echocardiografie
stents
Trig
cumulatieve
##hart
##ADE
glucocortic
##egen
ingebed
uiteen
Herziening
Independent
stol
##benz
epigenetische
gemod
##rane
BMP
##58
dressing
Meth
##uplex
fruit
P450
Society
Cir
teen
Oxycodone
tandem
hypokinesie
##fibrose
retour
septale
epic
gestabil
Ane
##morf
##ustained
gezocht
212
cardiomegalie
Flowsheetgegevens
##hydrox
ABSTR
kil
produceerden
preparaten
habit
##ilevel
##orazepam
harde
academische
##arly
begeleiden
##rectomie
herkend
codering
##ones
verminderden
getransfect
examen
koeien
foliumzuur
Spontane
Staphyl
##orta
glycos
pijnstillers
waarneming
##maals
##umen
zijk
XL
onverw
##brand
level
Elisa
##rijg
##hangen
##orub
onderwand
##aderingen
Substance
chit
Elk
Senna
RIG
Allergie
##üm
polymeren
##anderen
jonger
LG
subset
downst
##barrière
##ocine
30PM
streef
##iniging
ABSTRACT
Sin
##ambda
Kore
ADL
Os
##orticale
consolidaties
##roblast
comment
melding
Minim
##hoden
##ritine
##OORDEN
cot
cm2
mode
toeval
contral
alkyl
ongun
vrijgegeven
##meth
through
Supple
##liximab
##ochrom
consistente
Science
ACh
CS00038
mindere
verliezen
##dienings
##anz
##dehydrogenase
##ht
flexibele
Linkse
vastgehouden
spijsver
##scan
##oting
vereisten
overtuig
##plannen
borstfoto
##uster
##EZ
Pacing
##kweken
metab
laboratoria
gewichtstoename
##ypsine
##ITR
gebruikend
AFGEK
Nan
wees
verenigbaar
##enties
##electie
CD3
pasgeborenen
tempo
verward
##oblasten
inch
elastische
sensatie
##CLUSIE
##traging
##prepar
weig
uitstraling
len
##chtere
Insulin
groen
##vigheid
WOORDEN
trif
ketens
beant
opgewekt
paradigma
mw
snelheden
##rent
##aseremmer
rechtvaard
##detectie
gebruikspak
doden
need
computationele
Ongewijzigd
##rong
##nemer
incontinentie
##ulin
fx
##zeen
chromatografie
day
Ald
##UK
vegetatie
onzekerheid
##neuro
Vader
##nr
fungeren
##icaliën
extubatie
##lofen
ABC
vermen
conjunct
astrocyten
##handeling
TCR
Conclusies
##dom
radicalen
##agent
Acquis
schede
##ony
hyperlipidemie
##oenen
Verwijz
tevoren
Los
han
##rijp
microscopische
gespeend
leeft
KLINISCHE
trombocytopenie
##41
sympathische
daardoor
minstens
##stemperatuur
BSN
OT
##gezondheids
Fin
overheersende
NL
array
##mot
##kinesie
Gec
##lot
oorspronkelijk
neurodegeneratieve
leeftijdsgebonden
beeldvormings
148
vanmorgen
overeenkomsten
##96
AIOS
oddsidemargin
bibliotheek
examination
##oep
International
connectiviteit
nachtelijke
deelnemen
1500
voorvallen
##ukken
EA
goedaardig
langz
vlie
vanavond
##anker
aids
spoel
##matrix
eisen
polymorfismen
dalen
aantoonbaar
##opolym
block
##omerase
##alsnog
##urm
gedateerd
Monos
Vrij
##tumor
CAL
TCO2
Py
##heup
westerse
##sup
opioïde
##mentin
Symmet
Japanse
malaise
cost
leken
kwart
broers
bic
##ko
##tender
paarden
##alende
bindingsplaatsen
##stein
##seen
chemisch
excit
Paracetamol
metall
##voerde
##stitueerde
##bewak
Laboratory
bloeduitst
ceftriaxon
##werkende
rehab
PPAR
lymfatische
correleerde
rectale
##amines
##L1
Bijvoorbeeld
CARDIAC
##nit
mathrsfs
Factor
##MV
Stage
gezins
STOP
amy
databases
arteria
zelfstandig
verwijzen
##CD
##ication
##gi
##cyste
want
handmatig
LAST
##ocor
##stellings
##ituximab
##iten
##spectroscopie
verapamil
##ision
##grote
##ancre
slacht
uitsluiten
precieze
##zondere
simvastatine
conjug
Clopidogrel
geïmplementeerd
bloedvaten
sament
chemo
TABPO
##uties
ritm
flank
##iveerd
ADHD
##sprocessen
##gradi
geg
##ubbel
aortastenose
medicamenteuze
trof
##dilatatie
##oïdale
etnische
##ysym
oligonucle
inval
Wereld
Sn
Verwij
Postoperatief
check
kwad
GG
conto
##omide
downstream
PLA
Bijzonder
TCHNIQUE
proth
immuunresponsen
##alingen
fysiologisch
progressief
formulering
##rea
HISTORY
geoper
Report
##coc
afvalwater
Één
Moe
##46
afgestemd
hct
geldigheid
##derings
globaal
##antiële
intron
##hom
##getrokken
hormonale
profylact
##ontwerp
leverden
kwij
##uivingen
Of
##lijkheid
##imulatie
winter
alhier
##etron
##paren
##ranten
toenemend
CHADS2
histamine
##mas
##imin
MDRD
##ibratie
neem
##iase
Vervolg
##orphine
FH
##verwante
##residuen
##ijkomen
Neven
kou
##hist
antibioticum
Duitsland
afspraken
goedk
AJ
##velopment
##bc
activiteits
Evenzo
##cellijnen
stromale
belangstelling
iem
##nacht
##omal
Cardiovasculaire
cavia
JA
NTG
##elatonine
##technologie
corticosteroïden
trage
darml
Geriatrie
##leggen
##zin
leverziekten
##gly
perforatie
1993
##apport
fs
##terings
##oplasie
mevrouw
stabilisatie
hiërarch
tachyp
levensbed
Secund
C57
onderhouden
bestanddeel
sporad
##effectie
Nadat
geman
tenminste
##atch
##valuatie
##aso
1992
Fc
Staphylococcus
misvorming
industriële
pest
cG
drager
##onal
garanderen
immunoreactiviteit
ontspanning
Lipase
CS000038
Blijf
opent
##ides
##iaten
afgesproken
##enyl
portale
##maatregelen
##biota
##bor
Calc
lysine
Beper
HbA1
PI3K
pylori
175
##hulp
noord
##oliose
##adol
box
##uginosa
uniforme
##polym
nt
opgetreden
malen
##oxetine
##rt
chromosofie
krachten
Dhr
pulmonaalvenen
Universiteit
Ht
hoornvlies
AoV
verstoren
LEFT
##opolys
##ribution
covalente
adrenerge
##katheterisatie
bereikten
triv
voorspeller
Aβ
verplaatst
##banden
##spray
ergometrie
jicht
##rafie
##astische
##ofilie
denkt
LVOT
regelgeving
##ISA
bedekt
Bed
psychosociale
gonad
reverse
missen
##vulde
##aseremmers
##eceptoren
##aminerge
Canada
##flu
Toch
borderline
reformaties
effectiever
Vergelijking
Mono
menstru
bloeds
warfarine
assessmented
##oonde
##opur
##79
##omotorische
##udi
diermodellen
geoptimaliseerd
colle
zuurstofsoorten
histologisch
##ditive
Dan
##bolische
##zwelling
##ionine
primers
##idia
##partum
Imp
##moleculaire
onderstre
##ARY
##59
##olaterale
##irect
cytoskelet
immunotherapie
tod
quad
##oprop
##ateerde
antineoplastische
goedkeuring
antibacter
Genetische
bemonstering
grootschalige
toenam
oogt
icc
Secret
amsf
Cip
##kam
verwarring
eluting
representatieve
extras
telling
##circ
schuif
osteoc
onderarm
##onus
Infectieziekten
label
##openem
Perifeer
precor
v8
volde
substantiële
V6
MK
identificeerde
NMDA
aeruginosa
Identification
##iclo
subarachn
respectieve
uitgel
mapping
cirkel
plaveiselcelcarcinoom
##oeker
trombocyten
BE
##yseem
gemelde
##ators
gepresenteerde
##rocyt
tac
gerandomiseerd
omzet
Zuur
##opauz
##oxicilline
TABLET
massale
##nd
infrarood
Vasc
##chond
hechtingen
##afel
Recept
Cardio
multid
ERK
sjabl
sw
tweedimensionale
stranding
##oiing
kar
Go
bekeken
##indering
poliep
##eertig
Progress
Lactaat
##pjes
caten
##ages
geregeld
immunohistochemische
##itonale
Denies
anomalie
geïnitie
verdovende
enkelvoudige
rhin
##76
##idopsis
##acetaat
##splaats
glijden
##ixaban
aortawortel
ADmission
##verwezen
calcificaties
Albumin
##fenyl
ALG
aanvankelijke
PRBC
gerust
##fronteerd
##ateren
palpabel
vulling
##stoel
gad
##oqu
decenn
MW
contouren
geïnformeerde
Bijzonderheden
##actrim
intub
corresp
##obb
JVP
##genezing
epileptische
modelleren
trainings
##ulum
uitscheiding
##lettend
##virale
##isp
bedroeg
##ymptomen
##onef
operatiekamer
Versie
##vergro
acetaat
##atings
amsfonts
TPN
sperm
Weten
subdurale
##opties
##anteerde
##LOR
##gesp
##illing
##atte
gekloond
Reactions
##apro
##uctie
##elliet
CONCLUSIE
ionische
NOD
##ortus
aff
manipulatie
plek
match
onduidelijke
##aandoening
Lymfocyten
##uiging
tool
2d
hydroxyl
Stabiel
##ography
wilt
Mel
##ÉÉ
Morgen
##arium
##bepaling
##ylaat
99m
Arabidopsis
##ARDI
Graad
vectoren
lipoproteïne
RI
multipele
oplosbaar
call
Pattern
bipolaire
CBD
linkerb
##orubicine
liep
cond
alf
spreken
masker
##ariaat
splic
spel
linkerventr
##paal
liggend
integreren
##vlak
Journ
tibiale
testis
##uf
module
failure
operatieverslag
##financ
##imod
ieder
##arison
##organen
griep
gedeeld
##ELING
decennium
##etro
##CE
marginale
##sterf
ASS
##ubbing
verpleegafdeling
tijdstippen
hartritme
##gramm
interd
daalden
expert
kwestie
N2
PULMON
bijwerking
ongewenste
blijk
Examen
Degeneratieve
##nnnnnnnnnnnnnnnn
##TEITEN
gedem
##conto
subtiele
##raking
openen
methylering
##krist
effector
vergez
165
heu
REG
boezemfibrilleren
Contact
##nc
descendens
##jecten
verbeterden
vatten
crac
##aarden
geelzucht
sucrose
lekkage
Succesvol
expan
inderdaad
elektronisch
PERRL
##mann
##salicylzuur
MDA
##partement
gewaar
opgeleverd
kath
Amerika
##ofosfamide
meisje
##behandeld
poort
##ationen
##iated
PIV
##arding
Woon
fietsen
toegestaan
Deelnemers
##ues
halsslagaders
orofarynx
immob
genormaliseerd
neoplastische
##gewoon
krans
wilden
##ameling
beïnvloedde
carina
##hoogte
haalbaar
Engel
barrières
FOL
##yne
afscheiding
##raction
achternaam
verbale
moduleert
Verdenking
##etamine
uitgesteld
wasysym
eveneens
ambulance
##entese
##sonde
PGE
diag
eeuw
taxon
crepitaties
acc
ganglion
##olinium
coderende
hervatten
pa
slikken
overlap
##onzuur
actu
##ima
##instr
##bescher
Isch
atro
nota
doub
osteo
RB
##recht
cerebellum
##wekkende
Hartritme
##itair
##revalidatie
beginnende
Oor
NHG
hond
INFORMATIE
BMD
Mot
secties
inguinale
PBS
##rassend
GD
meningitis
eenmalig
##C1
##py
enanti
Verwijzer
houd
aangedreven
soortgelijke
##biopten
##rager
plak
##rijs
prima
##ronidazol
aneurys
DDD
today
warme
faciliteit
Dermat
##orfine
linkerkamer
neuropsych
NIBP
rap
distended
##ulariteit
opvallende
dijbeen
validiteit
##schors
benige
SVG
subac
inmiddels
##benen
automatisch
vrijkomen
##gelegen
##curve
##cipitatie
##iete
wijdverspreide
Ki
afmetingen
initiëren
Additive
tamponade
##izer
##elijkse
##verbinding
woont
Coronaire
catechol
##vormende
Kinderen
ips
lambda
eierstokken
RG
VIE
Laboratoriumonderzoek
Neurologic
geconfronteerd
M0
informeren
Neuts
allo
remodellering
##osarcoom
gegeneraliseerde
kDA
##chet
tris
Colle
secretoire
naboot
kweken
kwabben
regeneratie
intestinaal
##gaven
chirurgisch
##braken
zekere
##ulfide
kr
good
NAS
geschreven
##cinomen
##blastoom
Oral
##ruggen
##sprocedure
Multi
PTH
stelde
functioneert
klacht
onvolledig
Enkele
##spannen
Association
Sat
circadi
Ademhaling
147
relax
##fundeerd
alcoholische
##osum
##sla
cycline
OSA
##tumoren
markt
tumornecrose
##inger
##bloedingen
multidisciplinaire
implement
##ostomie
##ometh
middelbare
##biopt
mTOR
Naar
Gn
opmerkingen
maten
uiteinde
##EMI
hepatocell
##AX
vragenlijsten
##oemen
toegankelijk
##NK
##iller
krom
##nings
Gelijk
##ulla
Regul
V3
VASC
Endoc
##ager
constructie
aanvraag
gesimuleerde
##geheugen
zogenaamde
winst
Verapamil
##adhesie
##GAN
##putatie
koppelen
##yleerde
##ifug
conver
##aca
geoxide
##URG
kopieën
daarmee
homologie
verlaging
##sex
spondyl
geconstateerd
##iven
pel
hours
infarcten
cafeïne
zussen
Mede
allogene
perin
##itt
synthase
voorwand
##win
gerechtvaardigd
##rylamide
akoestische
dramatisch
zomer
##gegaan
Beloop
formule
bac
sturen
lb
Melk
chromosof
##ycodon
##imumab
Alkalische
twaalfvinger
Mog
ulcera
staten
##behoefte
##otypische
##ocus
##atorische
Evaluatie
linkerhand
##har
Human
mug
gereduc
##dia
##regime
commissie
bruine
##mede
validatie
80mg
osteomyelitis
biv
CREAT
alom
Graag
##adigd
##ength
fluc
methanol
##herkenning
Hals
##ozoa
PACS
Overweeg
inactivatie
sequentiële
prolifer
MY
overwegend
##yf
##axis
Pan
##hydraten
intraoperatieve
porie
verslecht
##asilaire
Ta
Delayed
dragers
Jaar
ganglia
##ijp
##LAG
mix
prednisolon
##bereiding
##prik
antwoorden
##otica
beantwoorden
CBC
##pi
##ophag
voldoet
meisjes
##chrom
##oxaban
##rooiing
Air
update
vloeibaar
uiterst
Astma
ontdekken
##peroxide
##icag
drukpijnlijk
hersenstam
DMARD
MEAS
disper
2117
AGB
ANA
##agina
gezinnen
glutamine
statische
vertraagd
atorvastatine
##quenced
##51
Baby
incl
Fluid
Elect
URL
dierlijke
nefropathie
eiwitsynthese
verergerd
##oman
receptorantagonist
confli
##atase
##ALS
overdag
betreffende
Cox
sets
##iditeiten
aerosol
Gy
Ascal
##mutaties
handha
##raden
LL
##opnames
heterogeen
transcriptieve
##gemaakte
opgesteld
jeuk
##lastische
##schouder
##flow
IQ
spiraal
meldde
zaak
onderk
coördin
maïs
##oppen
Instellingen
voorgaande
diagnosticeren
geform
##bewaking
correleert
zones
ipv
##appar
##voir
##rf
Interval
schalen
##omenten
##iof
Acht
interesse
##49
hield
##artrose
##eve
atriumflutter
Pulmones
μl
H1
kuren
##amming
##amenteel
sounds
stikstofmonoxide
sterker
flux
##itoneum
bekle
leads
date
afgeschaft
snij
##NS
stopdatum
vriendelijke
##ono
beoordeel
Niettemin
typen
##WK
##oppervlakte
##constante
navelstreng
Aanvankelijk
periodieke
kristallen
lichaamsbeweging
##ification
wr
##78
##ivatie
##misbruik
##bec
metastatisch
##63
oneven
Chronic
sindsdien
##cet
SCT
##perimenten
geur
immunisatie
xyl
ART
katalysator
##CRE
beademings
openbaar
##valent
##ustachycardie
##vormig
caus
gevuld
Kwaliteit
##ugd
intramurale
antitumor
Bra
asymmetrie
##atiesnelheid
Wire
Vari
verdwijnen
kaarten
Numeric
Model
norad
cellulitis
verstoorde
H3
Organ
Oog
ta
##emetrie
Tric
##aryng
gerekru
SMA
card
anis
handicap
bijkomen
Inhal
##roscopische
partners
iii
Instructies
Uro
alanine
Glycemic
LINKER
idiopathische
##quired
wrijven
Perifere
mariene
gyrus
gemon
FSH
Kwant
Raman
Eosin
doordren
##ieën
obese
##gv
Hartfalen
eci
##overeenkomstig
FGF
##MT
cellulair
##pneum
##ENTI
tomografie
AAA
vasculair
gap
perox
distal
Cp
##icept
Communicatie
fluctu
brengt
gestructureerde
endotheliale
Richtlijnen
Recht
collectie
##oral
##igingen
POS
##kettingreactie
paroxysmaal
behoort
organisaties
viraal
##serveerd
##rijden
##passingen
homogeen
Mi
solide
##beperkingen
##RY
openbare
##cursus
##ït
Kennis
tracing
statistieken
bezitten
Integ
HbA1c
##acilline
gemeenschappelijk
PaO2
##liggend
##idol
##beoor
slechtere
discriminatie
##YT
instroom
##rachts
Vital
related
Verwervingssequentie
jr
uitsluiting
##abelen
##acyl
To
##ergrootte
wandbewegings
compartiment
elektrochemische
pic
herhalingen
toekomstig
stroming
bredere
screenen
##inerge
##arming
extrasyst
hemorragische
##redigende
##itutionele
Antist
kantoor
icter
herhaal
##att
Delta
##kig
##gesie
Fam
Oct
wanden
harten
##RIKEL
aantoont
##lymf
vergezeld
parod
proteas
goud
afleidingen
##plex
emiss
hiv
Edema
##varianten
nuchtere
##oint
ziekenhuisver
Urgentie
##ogroep
suggestief
##verbetering
neurotransmit
opkomst
geaccepteerd
BH
verdoofd
##verschijnselen
pathogeen
Math
maagkanker
Verhoogd
##ptuur
3e
opnamen
verfijn
blanke
genotypen
HIF
bevr
##aciteiten
##voeren
immunofluorescentie
fundamenteel
twaalfvingerige
Pur
blijkbaar
##MRI
RO
##lavix
fragmentatie
Tube
verlaten
Admin
VO2
##leeft
Onc
strak
mutante
fossa
5000
##instellingen
tumorm
vooruit
antibacteriële
knockdown
##antigeen
interess
opgehel
##iakie
1H
prospectief
draaien
##code
H2O
fosfatidyl
Aug
initiatief
degradatie
##brief
VENTRIKEL
voortzetting
##imen
Wordt
Zosyn
romp
##verschuiving
##ostrid
##neus
##ueerd
aangewezen
versnelde
PFO
analoge
Acquisition
##abapentine
aangevraagd
signaaltransductie
vloer
##boom
##OSC
EXTR
mitotische
Mc
segmentale
##actische
bewijsmateriaal
##edisch
hypertrofische
Orth
Pharmac
retrograde
fysiologie
ongunstige
##wite
contralaterale
##vt
afgebroken
##lange
polit
abnormaliteit
Hoogte
migr
merken
##opurinol
atomen
surveillance
darmen
##BNP
chemie
Afrikaanse
Ba
##ramadol
uniform
dacht
##hangende
##ithiase
tag
RAD
gebrachte
Amylase
##gr
Vragenlijst
overlappende
CVRM
##ularis
bov
apothe
##procedures
histologie
##euten
tumorigen
theoretisch
1991
##ratropium
##lite
##dertig
Segment
##coëfficiënten
apparatuur
nontender
kalf
wachten
sessie
##behoeften
##werkingen
PAF
##raclav
pip
B1
AFGEKAPT
oplosmiddelen
schuine
##embrane
koolhydraat
zuivering
cil
aanverwante
##tekort
bericht
entiteit
##ithiasis
Fem
##houdingen
AbsB
keratin
CLL
Verwijzing
aanpassingen
##silhouet
Tab
homoloog
geldt
##oplasmata
uteriene
Instruct
baat
microarray
JVD
##antigen
##itromycine
##dibulaire
opgehelderd
br
##ethyleen
HSP
##situatie
onverz
VSD
##tere
##izen
##actam
bovenzijde
##oleculen
duizelig
Locatie
koolhydraten
bifurc
MCA
displa
nauwlettend
SOC
gif
leeftijdsgroep
endem
##breedte
GRADE
sondevoeding
kandidaten
glycerol
cholecystitis
doorgegeven
terminus
##AF
korrels
clubbing
biofilm
VASc
##idend
FINAL
##iana
digoxine
aangepakt
Carcin
##ruchten
sho
##pool
methodologische
Maand
verhoogden
axonen
oxidase
##3A
EPD
##ativ
ondersteunde
NEU
replic
anorg
Spiral
iter
##ematische
valideren
##azepine
##uminium
##otransferase
uitbarst
viel
##chicine
bruto
aspartaat
##otic
wean
allergieën
verlicht
Drugs
onderhuidse
under
##lad
Recidief
zil
RECHTER
##cyl
##Ca
verko
##gestuurde
##IES
Standard
DNR
##iline
knieën
##x3
voordoen
baan
##ikende
tric
verwaarloos
onderbeen
Vor
subling
mengsels
##iereg
CTL
gerekruteerd
virt
bid
##endectomie
##ynthase
Visual
Was
##fac
fibr
##aliseert
Plavix
chloride
kenmerkende
m²
annulus
seizoens
nadelen
##achter
eiwite
fos
##elektroforese
##strengs
##schatting
sarcoïdose
articulaire
G2
verkrijg
##indelijk
polymerasekettingreactie
stamcel
bovenarm
##asme
Vertra
latente
actueel
##rosis
verschenen
##ionals
RIGHT
sleutelrol
deelcontact
##riek
Bijge
verpleegkundig
acquis
Bis
specialisme
12pt
Aziatische
168
##iërende
synchron
ouderlijke
##antel
##biv
ciprofloxacine
##atston
##ituut
tevredenheid
aangetaste
LLL
##ofde
##voering
vanochtend
pedis
reductase
eindpunt
pitting
monotherapie
bias
START
ia
win
##weet
lee
##tje
APC
gaten
Q24
Scientific
trek
##porter
biomassa
Ohm
##sorbeerd
Vitals
ongecompliceerd
S3
M2
duurzame
bestuur
Bronch
##ëtische
AE
Sclera
AbsBaso
Nitro
tegenhang
##ostoma
Colon
##peloosheid
boot
##yb
abx
##ogel
##fficiëntie
bloedsom
CEN
##din
albuterol
NPN
verkeerde
##ieuze
Intox
Rho
esc
productieve
SOF
Verminderde
concepten
##meter
ectopie
##ld
##aorta
adduct
##atica
glycine
intracraniale
##uan
hartsilhouet
##accum
bindweefsel
verstoord
16S
titels
Cardiovasculair
##iose
##asure
tenen
##utes
fenotypes
facet
MAC
##april
##uscult
gever
uitstrekt
158
Miss
Aute
##constructie
##ored
zwavel
invasief
responden
##ongens
geometrie
uitstekend
##medicijnen
##iency
##gineer
Regular
##lating
achtig
##dont
moeilijke
##ask
schaar
zag
Four
##irt
insulineresistentie
retrospectief
precursor
##dekking
zint
hyponat
regels
##PCR
minimal
##daan
HGB
triglyceriden
about
definitief
##lazen
##erwijs
landelijke
##69
anus
cerevis
GST
Cap
##iënt
gender
metastatische
##AY
antrop
Review
gestuwd
##epime
##52
detectielim
afsch
##ILL
550
km
sporten
Struct
superv
##controleerde
BON
##iatrische
oplosbaarheid
trombine
vaatlijden
KO
##ofaan
##isth
Tussen
meg
gadolinium
Amlodipine
Standaard
femoralis
##cysten
Diver
##N2
vd
gediagnosticeerde
##ussent
Konink
##chanische
BF
##ité
ontvanger
##famil
gedra
##opbrengst
##enst
VIII
tarieven
helderen
NamePattern2
##alering
VII
Dagelijks
##gekopp
##uct
concurrentie
##vrucht
stierven
Komt
##metastase
Bilirubine
mononucleaire
estradiol
##usea
stil
hiermee
vlek
gestabiliseerd
HEAD
nuchter
vakantie
Overleg
rijden
bijzondere
vrouwtjes
bloedsomloop
discrimin
ALGEM
##venties
Direct
geïl
cerevisiae
bewijzen
fenol
##cintig
##XA
##lekt
Agatston
Toekomst
##gemerkt
##cp
##anit
gevorderd
motieven
echtgenote
wisselende
##plat
overgezet
Hepatitis
Nek
Refer
##immel
##menopauz
Artsen
Perrl
Use
Mob
conservatieve
##rict
tijden
##NES
plex
heen
chirurgen
##vascularisatie
metabool
waardevol
afstanden
##romit
Candida
immunodeficiëntie
kolonisatie
Primaire
agitatie
##empl
##meng
##acchariden
##72
voorzichtig
sarcoom
Baseline
Nort
##siel
##leeftijd
##reactiviteit
geboden
Uite
cd
##pressies
Herhaalde
##afstand
##gebrek
3dd
##yme
##planten
elektrocardi
##cef
##agulantia
Final
##issue
extr
##geert
pneumoniae
##muizen
##YYYYYYYYYYYYYYYYYYYYYYYYYYYYYYYY
drank
observeren
##idin
din
Omgekeerd
Sr
elektroforese
levensbedreigende
##schaps
FINDINGEN
##diff
vestib
polaire
##ares
##akking
Tylenol
beweegt
eczeem
afweer
##match
##BATBAT
##ULAR
front
##compens
##ocicept
##iaale
Puls
Access
##fosforylering
fL
PDA
kauw
intell
Ventil
werkingsmechanisme
##proteïne
##cycline
##ido
##etrische
Oost
overvulling
Cycl
plateau
emph
Acetyl
Afwijk
gecorrigeerde
##reflex
stoma
zebra
Gemiddel
wervell
##ruvaat
##SCC
##GI
precies
steigers
##yreoïdie
230
RH
aggregaten
Coch
##DH
002
TAP
epidemie
Auto
geïmmobil
overlevenden
batterij
gingen
##isfunctie
##spectieven
Golgi
isth
corrig
##waardetijd
nasale
##akt
149
geopereerd
incons
melatonine
subunit
p38
buikwand
ontving
process
##edie
##ived
zagen
Helaas
lymfeknopen
elektrisch
feite
lamina
lithium
##assemblage
cer
groeifactoren
insect
cyclofosfamide
bindingsplaats
Multivit
Gisteren
Vertraag
##acy
##partment
##stitutie
##klasse
##remmers
gebruikelijk
##62
##orptie
bloedbeeld
gemodificeerd
yl
bestraal
signaalroutes
ACTH
number
##wisselings
neven
NADPH
Reageert
Vals
Later
categ
konijn
gov
glu
Tien
regressieanalyse
vasopress
##VERKLARING
derhalve
CKMB
##intense
Coronairangiografie
##avior
##ibel
##rempels
RL
##orroe
flexibiliteit
voorkant
Program
##itabine
Invasieve
##atic
gister
blijken
##uraal
##indige
glomerulaire
EXT
##ainide
voorz
erkenning
year
##EHEHEHEH
DAGELIJK
##TT
Houdt
##ump
syndrome
expansie
Engels
Iom
##idering
gall
##onidine
Familieanamnese
##cephal
##lustreerd
##ample
maagdarm
tumornecrosefactor
##otypering
##ostatine
that
ment
Detail
##abd
zwart
pericardi
knooppunt
##mes
responder
##PER
cellulose
1A
verze
##omk
Uranium
omeprazol
verspreiden
vatslijden
##vloedige
interageert
GnRH
gehol
##oxische
##glykemie
##ietrouw
##oet
voortplantings
Mogelijke
advis
##ussentijd
F1
transfectie
jur
Registratie
Intens
ongevoel
Common
getranspl
stijgen
Buikpijn
##IDS
geïllustreerd
##elena
Zeven
##oderm
houdend
geruis
Aanwezig
radialis
Codestatus
THOR
hersengebieden
Patch
geholpen
##hepat
##splan
##cositeit
erosie
genoemde
##azool
##daagse
alternatieven
##ssc
Open
elimineren
kappaB
##divers
bs
##dioxide
ubiquitine
##loïd
zoveel
vervorm
##brengsten
##ucoom
vernietiging
##idium
fysisch
oren
remden
##ham
pericarditis
IMPRESSIE
##jaren
Onveranderde
druppels
##istration
##named
##osities
##lem
sensoren
modificaties
Therapeutische
multifocale
##tussen
##NR
gemanip
onvolledige
vernevel
C57BL
NIE
verkeerd
opsporen
##oekt
Fiet
vervolgen
amplificatie
heupen
##diameter
androgeen
##algor
facil
agen
Mov
Rad
tremor
##ORG
histopathologische
instellen
terminaal
##rus
##gus
klaagde
rechtop
EtOH
CHA2
153
Pop
est
spiercellen
##WH
Var
##ineuze
clustering
subm
glijdende
##vious
gamm
apen
complementaire
##cytometrie
kap
scoliose
faec
##hydrol
##compressie
helling
##UP
OSAS
dic
opzet
tracking
Penicil
45AM
interpreteren
20AM
Ativan
appro
##vest
geverif
now
088
text
##alling
##strom
##ulfaat
oxide
##mutatie
verlenen
##seffect
ischemisch
hemis
hyperplasie
##ATH
voegen
##oleculaire
ELISA
veronderstelden
##ingsmiddelen
##afhankelijkheid
##Pro
galbul
##cir
Australië
hemopt
PLC
ultrasone
bescheiden
report
gezondheidstoestand
##ierdoor
Ker
##hern
ademhalingsfrequentie
1L
##inge
Bev
elevatie
pull
diafragma
AoS
##affin
second
gerangschik
##M1
gerep
cannab
##ocket
jug
##ulsen
afgerond
##iater
##formance
##yelin
kwalitatief
50AM
##illige
bindingen
waarsch
Aortaklep
selen
guan
celwand
viscer
tje
##arth
neutralis
##geleid
Mass
gecre
##illi
##laving
##regulated
microvasculaire
P1
ICP
belangrijker
##opolysaccharide
BONES
##KA
##keren
geconcentreerd
slapeloosheid
Coumadin
superieur
##zegd
##giën
Mes
publiek
geautoriseerd
PERIC
##alluc
omh
##ABLE
##ktronen
neutropenie
##ignalen
188
##roog
slik
volgde
pin
##embry
inferieur
Afib
documentclass
Teg
dalingen
##rome
refractaire
fatale
Monocyten
bilaterally
##angitis
tubulaire
Sed
stroomaf
CD34
endotracheale
Functionele
maaltijd
##englyc
benzo
hypoxische
kcal
range
ingezet
gezet
iemand
REC
gehoorverlies
vanmiddag
##eech
MDS
exper
verhinderde
tract
concentreren
lief
##DS2
THE
##lecainide
##ris
spray
Lok
##landen
tgv
900
##stent
polarisatie
##itische
##opter
tons
incisies
Jun
V4
##otub
##sorpt
ionisatie
Pap
insufficientie
##alm
inspanningstolerantie
##zuiver
Cogn
geïnitieerd
orbitale
##otoxische
incompati
meter
additie
##mediate
huishouden
brady
treedt
##cardiale
LEG
##roph
##ostridium
##neg
##ichamen
reflectie
slag
detecteerbare
##umatisch
Slechte
doeleinden
##wegende
aanbrengen
##fracturen
stroomop
fabrik
##variabelen
Well
jongens
isthmus
##klist
sessies
Uiteindelijk
##oes
sterkere
freq
celgroei
##sprakt
TLC
runderen
CTCA
fee
oxycodone
##ASS
electieve
carboxy
##akers
##italop
cholecystectomie
##aroxaban
##ucleaire
pract
suspensie
hoofdstuk
golflengte
152
##ocyan
DM2
WK
EMG
Hu
gefinanc
14C
gecondition
##G2
perine
eierstokkanker
circadiane
##netwerk
##vezel
thema
geïmplanteerd
Antibiotica
##centrische
subtot
jodium
galblad
overplaatsing
##APPORT
hypodense
Mam
stopzetting
opgaande
persistentie
##ulation
QS
##ABP
##itle
Mevrouw
aceton
compartimenten
catenine
##meden
overvloedige
CEA
koel
##UES
vreemde
##omod
compli
##ignaal
trigger
exempl
linkeratrium
Da
##ypische
myosine
##hoogd
##broken
depositie
duidt
Belangrijke
retinopathie
##ïteit
##IAL
Discrimin
formele
##inesp
merkt
##ellere
##monster
##ransporter
##regeling
##neem
gebroken
##iftiging
Vroege
JP
Auteur
LYMPH
ic
longknoop
##73
SAM
pigment
diastolisch
##oeld
voltooiing
radiografisch
thre
##overbelasting
bronchitis
##inescentie
##toestand
##viol
operationele
##behandelaar
##apopt
##ème
##asone
2111
frame
##isters
gero
ontvingen
Quality
resection
Out
vertegenwoordigd
CHA2DS2
##istar
##omplex
congen
##racheal
Enzym
Specialisten
4x
Found
##wanden
onomk
##azolam
toegepaste
lokaliseren
Terug
gebruikspakket
olfactor
bepaalt
##ARDE
ORI
##uikers
gecompliceerde
Press
##ontreiniging
echtgenoot
vereen
Inch
##aarmate
##albumine
PRO
##acc
Naarmate
without
##verkal
Groep
##obutamine
##etan
doordrenkt
##izers
Quant
afbouw
nucleus
recidieven
##englycol
##otropie
Secundaire
##adine
juist
geres
koud
##fluor
hoofdstam
##opus
##unctionele
gewichten
##itudes
ongecompliceerde
Ather
##ophed
##formulier
Hulp
historische
onderzoeker
bevroren
vooralsnog
##vag
visie
vraagt
##osfeer
scherpe
Aanbevel
CHD
##VASC
Controles
skeletspieren
##iche
old
Hersen
15AM
verschijnt
verstoringen
empirisch
bevredigende
MAL
##ofoor
afgebouwd
Technische
##hh
Rev
##yline
##frontale
##lamy
##ylin
machines
onverkl
gemoduleerd
##electieve
Opmerking
##igo
##straal
##point
alomte
Laag
focaal
dehydrogenase
Eiwit
heart
host
chi
slaapt
##ramide
dermatitis
oefeningen
plekken
##ba
CTCAE
kwadrant
FAC
registr
##injectie
Chirurgie
competitieve
156
Complex
Bru
versnellen
overweeg
targeting
neuroprote
bemiddelt
kerat
lap
IDENTI
microRNA
##ranolol
##idu
aluminium
Top
subcorticale
##effectiviteit
##molecuul
##umaf
Camp
##inon
staaf
##irection
Acuut
##ensis
levend
40AM
kwetsbaarheid
integrine
uitgelegd
##unc
PMN
tint
doppler
HYP
##ivering
Sj
##ries
antik
bovenbuik
##ommelingen
##vey
tussenliggende
MOD
posttrans
154
tussentijd
add
Genees
hetgeen
kleuren
##149
bloedculturen
bemonst
MCF
vermeden
##matisch
LCA
##conomische
blokker
##onefritis
DB
wal
Ox3
drinkt
##lakken
VALVE
stomp
Department
vee
Rechtse
##ijftig
dopaminerge
URNE
preklinische
##druppels
rustige
antistof
Bacillus
##ctine
##osporine
PRE
151
##oC
mastoide
afneemt
gastritis
huishoud
closure
passage
##uidt
amygd
regeling
NIH
gecodeerde
ammoniak
IDENTIF
lichamen
geab
dynamica
cadher
gecreë
new
##nauwkeur
Alg
vluchtige
enhanc
galstenen
duodenum
162
blootstellings
##ikkeld
##uigend
##kemische
##urn
georganiseerd
Nooit
Proton
penicilline
dysf
UREA
controlepersonen
danwel
macrom
kits
traag
opgehoogd
rituximab
pleister
mictie
##deficiëntie
##atars
Life
geschiktheid
snellere
verkeer
Trache
MIRADS
geboortegewicht
vreemd
##mium
vervorming
##constanten
naï
##onderdag
wervelslagader
bevorderde
lipase
##cortison
Gezamen
duurde
interessante
coronavirus
bevonden
##miner
pees
recor
##ogenes
Q24H
spreekuur
bereiding
AJCC
##aneur
##uitwisseling
v7
chim
hartteam
##81
##reductie
hers
RLL
wonen
DAGELIJKS
##sterfte
##relor
neerslag
##alcif
B2
##oreg
bevorderd
toepassen
arbeid
chec
Mex
Medication
schet
##spectra
CU
mus
referent
immuuncellen
reuma
transversale
moeiz
zintuig
##face
gedreven
stemming
variabel
MAG
veiligheids
Cerv
impressionion
synap
##ils
fistels
commentaar
Tyr
regen
##halen
cytosolische
1988
ACC
norep
Koninkrijk
slechter
zaden
##oculaire
hoogwaardige
##catheter
vastgestelde
Ip
##oxifen
za
rif
side
##volutie
cascade
Minimale
vormden
##aaaaaaaa
koort
##ortex
lymph
geleidbaarheid
##ocyste
##aemie
size
##radycardie
##omeostase
anamnestisch
##prec
zwaarlijvigheid
##LY
FF
supernat
##ymmet
fysische
Leuc
bijgewerkt
carcinomen
discrep
opin
##vlekken
dossier
GF
Center
##glucos
beschouwen
##tensiva
##plos
regimes
append
DIAG
##mach
AMI
##affen
penetratie
##schalen
stijgende
geleidelijke
##oedigd
##overleving
##onin
verse
bomen
##iair
TIP
handmatige
##oconst
lactam
stolling
ISS
##row
##ritor
hierin
reporter
Flutic
koolwater
genetica
hout
##BG
gedachten
##doelen
Resultaat
drugsgebruik
toegediende
##oxiderende
cutaan
klepbladen
HSM
jaarlijks
Bayes
arbeids
transpar
suboptimale
Samenge
##OSCOP
WAS
FO
ram
gebruiker
maatst
gastheren
##ether
##vergroting
Duur
##antus
blotting
##membranen
Kindermaag
10AM
blind
##stract
gewaardeerd
Departement
speciaal
Draagbare
##osec
##bili
Gestopte
##colleg
atom
bloedsuiker
voltage
diltiazem
##boek
##PV
traden
periodes
bronchoscopie
##sprotocol
ontbrekende
gedifferentieerd
series
Feder
##vulaire
sodium
##mac
borsten
vereenvoud
##glycerol
##ynthese
osseous
ibuprofen
##ataal
Humira
nabijheid
##ervatie
##inderen
geïmmun
Röntgen
##dol
tors
Ms
veelgebruik
chemicaliën
wachtlijst
suggestie
High
Tox
liggende
##coop
wave
dialys
##oer
enzymactiviteit
omhoog
##alase
problematiek
##uv
Parox
farmacokinetische
##amera
##agens
Management
##italopram
ureters
uitkomstmaten
halluc
Samengevat
Vertraagde
institutionele
ideale
##adenoson
##itation
efflux
5p
retroperitonale
##hox
##oproteïn
Hom
benauwdheid
Therapy
oplevert
bruik
PANCRE
##P3
##vreden
therapietrouw
atria
##schriften
vertragen
##ergillus
##uiling
##verwerving
papier
dramatische
doserings
events
ziekteverwekkers
Drs
axonale
ling
San
toc
irrit
retroperitoneale
##ergometrie
Levothyroxine
Breath
membraane
##fouten
##icagrelor
immuunziekten
Opnamed
##LT
verlos
Ent
##conditie
##ublieft
ef
1989
capt
##diversiteit
denk
orthopedische
dual
##ENE
TBI
Eenheid
PTSS
##stublieft
SICU
profylactische
##ivery
##plek
##03
Stroke
Obes
##P2
tumorgroei
coeliakie
ongebruikelijke
origin
##gekomen
Patint
##iferatieve
##ardeffusie
Nor
Les
##isper
SPO2
rapportage
##ATER
##oestanden
implementeren
diepgaande
##habil
Ouders
##iclovir
##inderd
verplicht
Mycobacterium
bevolkingsgroepen
humer
##bben
Transfer
##west
piepen
Progressie
adenoom
##tic
ertoe
Die
gematchte
##ansetron
kit
Verenigd
expressies
tachycard
##rices
geverifieerd
voorouder
infra
##opic
ervaart
geboekt
prostaglandine
hil
kationen
##pad
##gericht
spoelen
foramin
##ishman
##mogelijkheden
##anitidine
kust
125I
Invent
septaal
substitutie
correleerden
##jar
flagyl
aanpakken
Beh
GVHD
Cuff
beheerd
##ielen
##bevorder
biomedische
parasitaire
##adon
##NG
##rich
Cholesterol
musc
uitgeput
##ifedi
##OVA
WM
Meetwaarden
Vanaf
##ablatie
Lid
##obacteriën
##eptum
Module
vorder
gevoeld
##stabiliteit
delirium
punct
Cons
acceptatie
keerde
ORF
longziekten
IA
afstoting
beroep
duplex
##LOW
auscult
Atheroscler
verdu
##umafactor
##cho
HI
Amiodaron
UMCU
voorgelegd
Toegang
##ilol
Chemical
COS
family
poliepen
Nat
##ois
staps
glazen
##modellering
Ergometrie
##alg
lopende
##ffend
treft
Voornaam8
aritm
secreties
cardiovasculair
##atis
begeleid
sek
coherente
fax
##120
1β
Gedilat
eiwitkinase
##tek
##TM
choline
Kopie
Propofol
methionine
OX
other
Postoperatieve
Pediat
##gerust
oncoloog
##rotisch
Coronale
Hsp
Oxy
fas
diffic
##genaam
##kas
knoop
Cas
dent
##rampen
Ala
quant
verwonding
1980
eut
RET
folders
##odig
leeftijdsgroepen
##werkte
##nood
zoet
wan
##ited
Cardiaal
contrasten
##homeostase
Statist
rechterlong
borstwand
##reert
Ade
ribben
INT
repe
steiger
zaken
geoptimaliseerde
##genese
##aant
##agglut
respondenten
##streert
Arteriële
peer
stad
CYP2
voltooien
##ifedipine
ingrepen
amputatie
Cere
##velen
KCL
MITR
RCC
Pd
##silon
Streptococcus
dieper
antidepressiva
360
##romy
Name8
BRCA
onvrucht
##VR
rivier
##icans
origine
levertransplantatie
levofloxacine
gemodel
cardiomy
ventilator
Nierfunctiestoornis
zwemmen
RIP
Balans
reguliere
plaatselijke
##tet
Zuig
##alciferol
##bundel
verrijking
Cochrane
nyst
##otransplant
##fyseem
syndromen
rechterventrikel
bioactieve
Rust
##CI
Renale
Order
167
ontbreekt
microbi
dingen
Daarbij
kleppen
paramet
##gru
##gesprek
##ycycline
Journal
##sparameters
verrijkte
overgevoeligheid
##benzo
polikliniekbezoek
slib
##verdun
ontdekte
criterium
daarvoor
mediastinale
##ials
scale
polymorph
##kop
cholinerge
Age
3L
Bijn
Stoel
##ligging
MUC
Wistar
prefrontale
##alisaties
zekerheid
fruct
Wnt
carboxyl
ammonium
renine
##samenstelling
##ieert
daad
tertiaire
Lichaam
toegevoegde
ester
disulfide
koppelings
##chemisch
##consumptie
stond
deb
zoekt
3p
ondergaat
losse
##adox
fenotypen
##kade
welk
microglia
Aer
##ketens
##ney
##verpleeg
BW
##menopauzale
zuivere
heem
permanent
impliceren
intense
Discrimination
geconjugeerde
serologie
verkle
##idische
epitopen
territor
dossiers
scholen
##TRIC
Kanker
##mel
instabiele
hippocampale
um
zwangerschappen
##odyl
##oomp
Lim
midazolam
OCT
cognitie
##dendum
verzwakking
toilet
ongewone
testten
##ocardiocardiocardiocardiocardiocardiocardiocardi
DCM
educatieve
liposomen
basilaire
geloof
2mg
Vi
##Eos
##beg
getransformeerde
dhr
kortdurend
momenten
gevoell
##orbide
Opdrachten
gelegd
WA
anale
verwerken
##iëct
##vertraging
laboratoriumonderzoek
betrof
ooit
lozen
Discla
dominantie
##iscus
ruimtes
pathofysiologische
cijfer
aortab
##verband
P3
activerings
verrichten
Zou
##geleiding
##indamycine
Melkzuur
onbet
##bescherming
##85
infliximab
verergeren
##verdelingen
tryptofaan
slaapap
bloeder
succinaat
priv
chest
predi
##artraat
##gewrichten
##abe
##oots
Ultra
vouw
TEM
##otro
##wijdte
stamcelt
doxorubicine
HMG
linkerarm
Evalueer
derivaat
onaan
thuismedicatie
##USP
toxic
bijkomende
##ocatie
diabet
mechanistische
##hoe
onderhouds
zorgvuldige
bewoners
supraclav
levensvatbare
congestief
aber
elementaire
##isciplin
besp
Hemodynam
voorspelt
##iff
onopgemerkt
aankleuring
microb
zuigeling
##linde
##rokkenheid
aryl
werkte
silicium
fon
margin
##appel
##vattingen
##zorgsmaatregelen
duiden
##neuropathie
##ocompatibiliteit
geob
adviezen
Ogen
onverzadigde
REM
drains
Brazil
probeerden
koff
##drainage
bepaalden
mum
##management
##fix
plantaardige
squ
sx
duim
benzodi
##hs
Historie
acetab
distress
formuleringen
bloedlichaam
##dium
neutrofiele
nodulaire
4mg
zonne
##spel
hypothesen
##nede
##gradige
verdwijn
groeps
spironolacton
##hoff
mammografie
##vement
verbanden
##potentiaal
aangemoedigd
APP
##weerstand
H2O2
##essieve
gevoede
tracering
FN
hartstilstand
##osiden
Vloeistofbalans
cop
##enseerd
##go
Shock
Brit
groeis
voldeden
kankerpatiënten
galweg
Eet
##verschil
##landse
commands
beheren
Europe
RPM
beschouw
muismodel
subcellulaire
conclude
ZORG
flavon
stabiliseren
keu
AbsEos
##PAP
striatum
##kliniek
##dood
##verhoudingen
FDA
gecreëerd
##altime
Clipnummer
##hydratie
##ramidale
##hoor
##dringen
HEART
gespleten
##iences
diameters
upregulatie
tarwe
sclera
##abces
##hi
epidemiologie
surgery
ongewoon
##otidine
spanningen
darmlussen
gesubstitueerde
regulier
Geïn
staande
Single
wondgenezing
##istry
afvoer
hersent
##bank
IC50
##arme
automatische
thuiszorg
boodschap
namens
##oquine
##osac
157
##ipoten
administratie
afebrile
Disclaimer
##imetrie
monoklonaal
muggen
##orteerd
reproduceerbaarheid
EOS
HEP
fijn
reservoir
T2DM
SPINE
biosynthetische
radiof
##oxazol
glucoset
Foundation
radioactief
RBTB
##jj
signs
1200
HAS
uitbraak
Atrial
##traumatische
knaagdieren
ontkende
##siella
##rax
Jan
CCR
voltooiden
SOFT
hoof
vanco
verantwoordelijkheid
rechterknie
Gede
isolaat
CTC
Dilaudid
##usaat
Gesproken
Functional
##oxon
##stappen
contractiele
food
##microsc
##GAT
##zichten
melena
opwinding
afleiding
logistische
Pup
immunosuppressieve
poplite
GAT
vorig
##cellijn
##accumulatie
hosp
##aud
optra
##La
##alapril
rustende
Bere
##ravastatine
##centra
##etector
staf
zei
##collegiaal
enteritis
verontreinigende
resulteerden
ambulante
##sdag
##tentie
SEPT
nausea
##loopt
PERICARDI
faag
bloedtrans
Nurs
##oooo
proport
commercieel
Cath
gezondheidswerkers
College
Intoxicaties
##variatie
##zu
PAP
biot
Versed
##spijn
##acrylamide
vertrouw
##oppervlakken
pulsaties
##antigenen
neoplasmata
##pyr
danken
afwachten
##ingsvermogen
olfactorische
##gineering
verbre
Proxim
papill
Termin
##orisch
##LEEN
moeilijkheden
pathway
##elementen
##dev
mechanisch
178
Lic
gefosforyleerd
Tabel
Tachy
HER2
Mater
moesten
voorschrijven
gewe
if
tijde
subsegment
onmark
onderd
##yclovir
kansen
vermenig
##oides
pulm
opvolging
##ATRI
##litaxel
##ncRNA
Bactrim
##Plus
##wth
Brazilië
downregulatie
##veneuze
gemetastaseerd
003
pericardeffusie
herhaaldelijk
onbep
##ocytische
skeletspier
crosslin
genoteerd
Phe
Short
Expressie
Bloot
##NC
##riting
kwadraat
offic
contour
010
Cy
Fourier
Ed
revascularisatie
CMC
hartt
definities
##FC
gecoate
TISS
Batterij
rangschik
IX
intolerantie
verluidt
bureau
Dyspnoe
##amino
aft
affectie
pCO2
##ISH
##ofosfaat
##regeneratie
wassen
##trose
Ev
anticonceptie
sociaale
toepasbaarheid
hepatocellulair
##modus
##analyseerde
opdracht
aantrekkelijk
leeg
pure
onderkant
DISCH
##scen
Disorder
tere
grade
45PM
harm
UOP
##ng
Tam
stimuleerde
##accharomyces
##pneumonie
##sprofiel
##virussen
Protonix
##obarb
beoog
intrath
bestonden
##gewoonten
pron
bereiden
Ins
plassen
difficile
FLU
##ulatoren
overgangs
dank
adipocyten
impuls
prolaps
##fragmenten
##uikens
LCX
Metast
##gradiënt
immunost
osteoclast
maagdarmkanaal
bewegende
ijs
behoudens
gedeelde
Ru
##start
organisch
nest
codon
##sings
MIN
##itiviteit
##benaderingen
node
##veertig
wa
SJ
sjabloon
##appen
##ocardiale
rechterbovenkwab
apart
##ulsie
schadelijk
afgezien
controlegroepen
beweeglijkheid
herin
noradrenaline
Actueel
therapy
bal
##zepam
##ecum
mucosa
##cellig
##Mono
##koppeling
##uration
##aardigheid
donderdag
##x2
##etentie
ipsilaterale
autosomaal
##imetrische
BRA
spreuken
Vanco
182
Mamm
Centre
##aprox
Referentie
thymus
invloeden
waterd
corrigeren
adrenocept
cement
scheen
point
gebouwd
##ovenox
bilat
geanalyseerde
##etal
uiteenlopende
opgebouwd
eiwitexpressie
##preventie
##ugel
veranderden
aandachts
##itril
##iteerde
exponent
##drom
##very
langzamer
##werkings
##umon
plattel
##verzadiging
aanwezige
##crib
uitstroom
simuleren
UK
axon
dringende
publicaties
Sterk
intracellulair
wijn
##INS
##ypan
gewonnen
##oscoop
##vedilol
##oscopisch
##opend
##anthine
rele
Tac
hydrogel
##lopend
##ror
Eind
##insdag
Gezondheid
##onuclease
interessant
##VALVALVALVAL
##ripten
##atomen
kosteneffectie
Hand
verduist
abortus
CDK
CCA
coderings
tolerated
omkeerbare
lipopolysaccharide
geclust
Respons
AbsMono
ongewijzigde
##OLOG
##asmen
##EZEM
producerende
fungeert
##olipiden
mannetjes
##ificiteit
##ios
has
nanom
ascorb
hartkatheterisatie
kwijting
##radi
##rames
##acodyl
##ostruct
schijnbaar
synergetische
INTERPR
##ademing
Bowel
##VF
lucifer
onbed
##olus
Weinig
##isor
CFU
condens
lastig
##64
PCB
motivatie
perindopril
Azië
burs
allen
##greep
conve
##isense
fMRI
##Med
##randen
15PM
Instructions
antigene
##94
Verbet
kolonies
sigm
vasculatuur
Minder
Stra
##orfy
tort
leeftijden
1D1
With
##ifactor
kwik
##orine
##fout
intellectueel
Voornaam3
##relaties
BOEZEM
metatars
gemar
##gemed
##rincip
spindel
subsid
zorgverlener
antioxiderende
plasmaconcentraties
responsiviteit
##komsten
Analysis
reagerend
NOT
SAH
##aproxen
##omas
thiol
##probleem
Studie
hoofdz
msec
doorgemaakte
##OBIL
ativan
Chrom
latentie
##isher
probeert
drievoudige
knel
gevoelloosheid
Dors
##contouren
##section
##igemin
camp
letter
roker
Ka
MICR
##spannings
poreuze
PERICARDIUM
OG
professionals
##lofenac
##uminale
mini
KN
glioom
beschadigde
geconserveerd
##roplast
geometrische
##ditioneel
verschuivingen
PLT
bloedstol
##verdeeld
Metingen
DAS
##texten
clo
##interactie
uitval
repet
Pneumonie
verwachtingen
##praktijk
bor
acceptor
Anat
subclavi
VEN
testre
emoties
EU
gedragen
beschermd
foramen
gespecificeerd
synthetiseren
Tegelijk
ontstekingsreactie
##93
magnet
gehoord
symptomatisch
##straat
##osterior
##gere
##uist
ruw
postpartum
seizoensgebonden
calcificatie
##spinale
##ARE
S4
anaerobe
aangeven
Snel
kwaadaardig
persoonlijkheids
##erisatie
classificaties
antioxidanten
##bsiella
PTA
vull
##anal
eindstadium
geïnformeerd
embolisatie
exclusie
##otatie
##bestand
veronderstelling
molecule
terre
##INGS
##kaart
##acetyl
leucine
verdra
manifestatie
##zettingen
rac
##plet
##perator
Opnamedatum
suggest
hot
##prom
5L
Number
Impl
##EGEV
cholangitis
omega
##porale
Kap
oncogene
artefacten
rechtsdrukken
darmkanker
##uitslagen
KON
stig
##ande
inactieve
##sthetische
kwetsbare
impedantie
responsieve
fus
tracheale
##TED
sterftecijfer
farmacokinetiek
Conform
levensstijl
multilevel
trachea
geprogramm
aortaklepinsufficiëntie
voorstel
##implantatie
Wond
tang
zetmeel
##draad
##aggregatie
inferolateraal
SIR
##orex
##upple
Pf
Stoelgang
klok
dilatation
##vH
Sil
##veiligheid
Fab
ANOVA
kortdurende
##genoten
hemolytische
oefenen
amine
scherm
nemat
VERKLARINGEN
##uvastatine
Neutro
geag
##wijzingen
RSV
##ubitus
##AMM
Zoeken
duurt
μL
stabilis
##ralgie
##zt
glen
Ket
Palp
significantie
##melk
radius
arach
draining
BPH
##stechniek
##oensdag
gross
1985
##klassen
##ije
##treffend
alstublieft
interdisciplin
trabec
transduc
middenoor
normalisatie
sectionele
##load
UNIT
Tegelijkertijd
Epi
##itoneaal
pati
Motor
##yclus
##structurele
##ositas
financiering
Es
cv
geïncludeerd
longvaat
beleids
doorverwezen
symmetrie
darmmicro
annuum
amoxicilline
##rio
Intact
##kwam
##74
##materialen
consumenten
164
merkte
nogmaals
veer
Mens
GEEN
volwassenheid
iedere
werkgroepleden
ondervoeding
##neuronen
plaatsgevonden
ziekenhuiscursus
##blinde
draagbare
aanhoudend
universiteit
##quate
##vissen
##alanx
geneeskundige
equivalent
1987
BDNF
incompatible
praktisch
verbinden
##iliaire
UWI
Lumb
perspectieven
ALS
##VO
##iegeld
##anner
##allergieën
relig
anorganische
##pitheel
werkende
##ifier
##vee
Calif
taxa
DFT
GAL
##wal
overvloedig
gesplit
dilaudid
fosfolipiden
Complete
changes
LLE
MEET
service
verwerving
opPlus
circumflex
Respirator
PMA
##tracten
HVZ
Zwanger
reis
katheters
ulc
##opslag
databank
tor
##idylin
vastgelegd
proBNP
brachten
zol
multipel
observationele
##ukt
plasmiden
Effect
decompressie
##Operator
intOperator
##84
BLEED
halen
BG
4L
Absent
ingevuld
HYPER
Diastolische
##unes
mogen
banen
Cellen
gefinancierd
dode
Bu
##WAARDE
absoluut
Bep
ziekteverwekker
ventrik
20PM
polymerisatie
##etam
interc
naïeve
##neden
gedom
##agie
toppen
Pulmonaal
##oche
##patie
##ochemie
Via
volumes
lopressor
brandwonden
KCl
##amicine
tubuline
tepel
PVI
##ronectine
rolstoel
leptine
precordiale
##ONDER
clinical
##vervang
UF
320
Risk
##ORMAL
slaper
molaire
combineert
Frank
##DO
hydra
beoordeelde
Druk
coagul
breath
pulmonalis
pantoprazol
bele
fibrinogeen
##itoring
vv
hielden
chap
thrombus
QAM
profil
samentrekking
##ook
acquisitie
##ama
uitstrijk
##WF
infectieus
partic
menstruatie
proteolytische
MEETWAARDE
166
calorie
overgangen
##ORATO
tarief
genereert
Perfusie
aritmieën
aminozuursequentie
##ratio
##ogl
lib
Immunohistoch
##takblok
Ciprofloxacine
amssy
FFP
##snelheden
##plaatste
synapt
##set
PTCA
##infiltratie
synoviale
Band
##gol
cells
echocardiografische
Tal
visualiseren
##asing
##mutase
Def
polymere
##gereg
CS00038149
sociaaleconomische
##eptidase
Occ
evenwichts
Technique
##hof
PANCREAS
angiogram
verwijderde
##opl
silica
##mitte
ontsn
gli
##adia
##atrofie
Other
spectroscopische
HeLa
Arts
beantwoord
wig
SDH
##oogst
##dieningsweg
##rijvingen
Bron
hitte
hematopoëtische
ru
Transcript
##oxygenase
Mich
have
wandelen
binaire
##ACTER
90e
##PP
UTR
penis
bemoe
##ments
comorbiditeit
Diagnostic
E1
IG
NIET
##oradi
circuit
it
JNK
##ureum
aders
##oblot
hypotensief
ATRIUM
chirale
virtuele
##ELD
##uiken
##icade
##oxie
##L3
tabaks
##omb
##lash
chel
diam
Rap
Pulse
sinusitis
aantoonde
##kwater
brom
katalyseert
bloedglucose
VE
##splaatsen
hoop
dispersie
Mem
wervellichaam
DIAGNOS
##ini
bracht
ferritine
transmembraan
Lorazepam
geëvol
rooster
##iës
signaalroute
##hermo
eindige
rechterkamer
##ocal
halfwaardetijd
foetussen
##waardig
mutagenese
ler
##alazine
##uscular
uitgevoerde
rekrutering
##ancreat
vel
kransslagaders
psychiatrie
ante
##antilich
gekleurd
##emorale
innovatieve
schepen
chronic
CHADS
##uiven
##architect
biopro
splenomegalie
MDO
Pel
##ams
beoordelings
##BAN
omgaan
entrop
nal
transplantaten
##iconazol
vochtafname
##cen
uitbreiden
dak
CRF
testiculaire
Respiratoire
gedetailleerd
weersp
prioriteit
Ps
Infect
ZORGIN
fosfo
sublingu
reconstructies
atax
##pulmon
ZORGINSTELLING
##ablokkers
##domeinen
ventilation
amt
##hu
NOAC
dihydroxy
nationaal
Nazorg
weerspiegeld
##raam
##stromen
blik
epinefrine
Vocht
##Lymp
JR
pod
intellig
##tensief
##emming
regulation
##ades
##anje
##vaardigheden
thalamus
glomerul
overal
EDTA
extravas
Wt
##gggggggg
SEPTUM
##200
mamma
antipsych
proct
##divid
isoleren
##oedings
inte
##redigend
##etale
163
ovariële
CDC
dB
##oL
Str
overleef
nig
##inaties
erkende
##coh
##chniek
synapsen
mitogeen
##carbonaat
##obactam
coëfficiën
Vaak
modules
ach
urineweginfectie
GBM
Blootstelling
gepaarde
##droging
PBMC
##ventilatie
gesequenced
lussen
##ystrofie
prolact
Fibrin
tegenovergestelde
veronderstellen
hemolyse
web
Korte
##aaier
pond
horen
PTX
belemmer
subacute
##pr
verif
##BO
primaten
gezegd
Voorlop
EXTREMI
##dieet
Stationaire
AbsLymp
bedrijven
RDW13
decompensatie
Medicine
ademen
flowcytometrie
strengen
185
##hormonen
Recidiverende
san
##cijfers
sarcoidose
spuit
##87
hyal
prikken
##ergische
fibrillatie
misvormingen
Gi
##lichting
##versieel
guid
stijgt
Commons
##aspiegels
bloeduitstorting
hypok
INTERATRI
doodsoorzaak
50PM
##ostale
kwaadaardigheid
cytosol
Vaat
cohorten
recessieve
Prov
Low
##sterings
##kuur
PCM
##idym
controversieel
rek
senescentie
##ietische
5x
##oost
##itieel
opdat
promot
construct
galops
angstig
TRIC
deden
280
##agnoses
junction
triviale
Cur
URI
Peric
Gewrichten
##erder
ziekenhuisopnames
onverwachte
##agmus
bruin
##calcium
Renal
extraheren
##osch
niers
##idiafrag
Name2
##iens
##wen
varices
endocrin
crisis
mislukte
##opping
Ziek
Hypotensie
glaucoom
hydratatie
stollings
TAPSE
Creative
goal
primary
##opaque
Dominance
##tatie
glucuron
##derde
clips
##chle
deelnemer
gevaren
gecoördineerde
##PE
Beweging
daily
belemmerd
##opyran
glucagon
expliciet
acenocoumarol
ectopische
Regelmatige
viscositeit
gefix
##ending
methodes
myalgie
omgevingsfactoren
Attribution
alsmede
Wgt
onderverdeeld
parenter
Bijgevolg
MBq
gehem
geann
opioïden
harttransplantatie
##ource
##bindings
OOB
##HL
##genatie
afstem
##onad
perone
follikels
Stern
##1a
##lac
159
dyslipidemie
TCH
pilot
##orted
kary
invoer
break
004
ultraviol
oogarts
kalveren
katheterisatie
##voorwaarden
congenitale
##specifiek
kristallijne
brug
dwarsdoor
172
fabric
ontmo
##acarcinoom
perioperatieve
##HHHHHHHH
##thiazide
##groottes
##usus
radiografische
HTx
gedroog
glio
##fore
Notch
onmarkeerbaar
polyacrylamide
##hip
RENAL
ondersch
Longziekten
##duction
##aminase
jejunum
representatief
Abnormale
eleg
Sulfate
Toekomstige
Hypothy
##lading
##rometer
controlled
##azobactam
mb
verzadiging
##GGGGGGGG
75e
cipro
perinatale
lign
maaltijden
geformuleerd
##remming
##fs
human
HDAC
ecl
eosinofielen
augmentin
kwadr
lactulose
##sverlies
##praktijken
gestoorde
##arag
##leven
PVD
##atinib
##nee
##BEV
Experimentele
HET
##hermische
##isseld
centrifug
##ather
afgevallen
##ett
Acenocoumarol
verdunning
##isthese
TDI
tweeling
hypoxemie
Rect
##alva
composiet
##frequente
##blijven
##eeeeeeeeeeeeeeee
RISS
hospital
##atalyseerde
amts
defecte
plots
inspiratie
##spanningen
AVN
##ocephal
morfologisch
License
seq
Bur
Administration
Plasma
construeren
lie
colchicine
getransfecteerd
##oker
uitbraken
##war
guarding
Lichaams
hematologie
classificeren
##OGR
NEUTS
D5
##iect
1986
##SI
naft
platen
hoofdzakelijk
supplement
acetaminofen
DSM
TRI
lncRNA
chitosan
Voortgezet
##nl
verzamelde
omkeerbaar
Oriented
kinasen
##USPID
werkzaamheden
albicans
##kwamen
Alles
##pleging
##spleet
envelop
repressie
Leg
robot
##iro
encefalitis
##vention
##urium
##genwoordig
176
##oefeningen
##rior
##ostatische
antir
immunopre
propranolol
zweren
##atiere
meropenem
daaruit
231
contracties
##controles
Piper
diverticulose
ontstoken
zosyn
lymfomen
RAS
jeugd
##assays
hernieuw
Rob
ros
ANION
mos
SCC
amygdala
immobilisatie
MVP
gezondheidsproblemen
invaliditeit
hiat
##ummers
samenleving
specialisten
inversie
voorkeuren
##ranul
##opar
##idylinositol
##ilanden
ontstekingen
geëlim
verpakking
RUL
genitale
##remmer
originele
hinder
ORGAN
Circ
onderkaak
thoraxfoto
##gif
##ires
vasopressine
T12
records
blokkeert
paclitaxel
har
disorder
Myel
antisch
##kles
verscheen
Discriminatie
##dese
noted
##cyclase
Trace
gebeurt
density
mtDNA
gig
translationele
GERD
occl
ongeluk
expertise
logar
##quency
##itive
FACT
Immediate
Clostridium
oligos
rang
##isteerde
hyperth
225
VIEWS
hersenletsel
intermitterend
##diagnost
##heken
modaliteiten
##metabol
technisch
oa
##dys
Tachycardie
CDISC
LB
Centrale
##mming
praten
##pathologie
veranderende
smalle
BIJ
##osplen
evenredig
##optie
overigens
wensen
##yx
##ivale
immunomod
geluids
antikanker
gesynthetiseerde
##bromide
##ozym
gewenst
functional
Diff
Uitleg
GRO
threonine
##verzameling
blokkeerde
##kat
cle
wkn
radial
plur
HSC
##gevingen
trypsine
fotor
Nasal
##cocet
##malling
afnemende
pyrim
levenslang
von
MON
uitoefenen
gemodelleerd
fluoroscopische
murmur
wekken
stelden
##adv
anteroseptaal
EDV
##blijf
linked
SCD
##current
##ased
40PM
Indic
pret
##apap
extended
Regadenoson
verzeker
endoplasmatisch
onregelmatig
##brede
stroke
circuits
gebogen
Har
provincie
biosens
Saccharomyces
##rous
samenstellingen
##H1
star
bloedings
eindpunten
##oassay
##AIR
uiting
anionen
affectieve
pert
opinion
luchtweginfectie
Morphine
Chloride
Flag
Acetylsalicylzuur
##icle
mismatch
telemetrie
##alimumab
1900
##oelde
##oprost
handelen
toewijzing
##asi
OGT
##ilant
KC
ZD
STR
AANBEV
bloedend
tekortkom
familieanamnese
orthost
##EGEVENS
Ec
ra
##chloorthiazide
##embryo
gemakkelijker
N1
##ecatie
Joh
##atran
mang
lysosomale
HCP
TL
Nef
veelgebruikte
480
heterozygote
Soepel
suï
Dert
BALB
Prophy
tellingen
pO2
proline
rookt
hartfunctie
##vans
detectielimiet
persistente
fabrikant
Angst
hyperglykemie
geassemb
##epp
afd
##aged
Sert
##oolde
##circulatie
##mob
gedist
anaf
opport
blinde
HBsA
##racil
depressief
##quencing
afgew
##UW
##astine
##sanalyse
ongevoelig
Lt
hyponatriëmie
Nursing
##azon
Gezamenlijk
Negatieve
bloedmonsters
##netwerken
behandelt
bifurcatie
##old
##stijfheid
Activiteit
##OSCOPIE
pocket
vrijwillige
agressief
##laagt
NORMAL
defic
##oplossingen
grondig
fosfolipide
##ofysische
##carcinomen
cele
##opamine
##marker
fosforyl
osteopenie
mrt
Hiervoor
lekker
hiërarchische
terugtrekking
note
##obronch
##riel
doorg
getranscrib
mannelijk
elektrolyt
uitgaande
dinsdag
getit
epitoop
##icitis
noodzakelijkerwijs
pezen
noemen
##E1
dichtheden
fitness
radiopaque
TW
analgesie
##verhoging
##varium
kwetsbaar
maximaliseren
−1
methylatie
strateg
group
##gers
##uilen
rechterarm
##continu
Mag
Inventory
Schema
TTP
hysterectomie
pell
elektrostatische
toxisch
giftige
##artefact
tacrolimus
##alamine
Oplos
luciferase
circa
onveranderde
kreat
Negen
stres
##irpatie
##uzumab
feces
cho
##egel
##azard
##onic
nadere
##bodem
vraagstelling
aspecifieke
indexen
osteoblast
##hernia
amylase
nagel
titer
peroxis
PLE
##ev
anesth
##ositis
aansluit
PRL
EXTREMITEITEN
##omegaly
Plant
kristalstructuur
beschermde
ontwrichting
inplannen
174
profiteren
##ives
##vermindering
##ogastrische
Fas
examine
##ya
activerende
##alanine
VL
##Tc
##91
intrat
##ape
graads
theorieën
ORDER
Vas
aanraking
##lines
##rige
behandelaar
##92
BLED
Urin
afib
Zelfs
ingevoerd
afkomst
260
Inhoud
DIP
##omica
achteruit
##rienden
viscerale
##groeifactor
177
##igden
trimester
Xen
trajecten
varken
##abig
contin
benut
rr
ingang
161
##axiale
##ified
dichtheids
verschaffen
deskundigen
##yph
ARTER
RLE
plaatsvond
koffie
vasthouden
Nit
performance
hangende
Misselijkheid
UNE
##poli
types
verschijning
keratinocyten
omkering
getraind
laparotomie
STECHNIQUE
##quenil
##voort
manchet
rechtszijdige
##sulosine
waarneem
AGA
Down
bevrucht
Tai
Experimenten
Computer
autopsie
##urige
Past
tramadol
Spironolacton
##roblasten
afzetting
##ict
jaars
doeltreffend
Opgenomen
CCK
Demografische
CMP
##eksen
Male
stoch
##Neut
INH
##ared
##ND
ferro
PORT
ILD
berg
delier
LABORATO
evaluation
oorzakelijke
spine
cadmium
##sed
Cardiomedi
35AM
TIPS
consum
extension
gelaat
UO
fok
microtubuli
productiviteit
buig
hoofdader
proteïnurie
Units
reken
core
Radiation
##etrovirale
TRICUSPID
tylenol
DG
Fron
##ichi
ss
ventriculair
feeding
##gente
Carcinoma
##Patroon
constitutie
XR
DNI
apneu
piper
signaleringsroute
CALC
gevestigd
rapporteert
Visite
chromosofische
pot
Ernstig
onru
gezamenlijk
Aspergillus
thymidine
Midden
##ympan
Klein
geëlimineerd
samengevoegd
consent
zoektocht
follikel
genus
tintelingen
Suboptimale
beperkende
enhancement
stijgingen
ademgeluiden
mitrale
Toename
##admission
Kru
foton
##acia
Project
postsynaptische
LEUK
##ultuur
ostium
gecoördineerd
##SF
killer
drastisch
##MD
sacc
Results
##gemedieerde
##onor
NaamPatroon
##belast
Obesitas
Injectie
##odendro
Log
induct
##semb
daarnaast
##LORIDE
ESV
gemakkelijke
antihypertensiva
onverklaar
Enige
173
Rapport
##inhoud
tegenst
achterkant
##aran
dubbelblinde
haplotype
geën
emfyseem
CVL
ROS
AbsNeut
WHz
screenings
verdween
##scur
Specifieke
PND
Daw
Receptor
tegenhangers
##graft
georden
groeire
##butamol
Av
myocarditis
respiratoir
alth
geassisteerde
##olyt
##contractie
strikt
Gedilateerde
Q2
SPLEEN
hemidiafrag
extensie
200mg
linkerknie
concent
drinkwater
Dox
##sthesie
plu
Longfunctie
IFX
##rinsiek
N0
##YN
microtubule
vacuüm
pulp
belemmeren
##erie
##atur
Bijna
fraai
afbreek
embolische
##areare
##61
PubMed
schaars
radiograph
myeline
behandelend
##EGEGEGEGEGEGEGEGEGEGEGEGEGEGEGEG
Chef
10PM
##etanide
Stenose
nauwkeuriger
GW
hs
Bevinding
cass
remmend
##atro
verschoven
Beoor
Oc
2A
kleurend
schaam
erkennen
vasod
abdominaal
##houder
Virus
metronidazol
serologische
Opnieuw
LUL
wiskundige
Minimaal
##L2
isovorm
##chondrale
plexus
stationaire
doi
IB
EMT
nasof
stemm
##sprekken
intermediair
formulier
getrouw
final
##ativiteit
insulines
views
##ceaan
stroma
Heter
covalent
celmembraan
big
##UTE
##wann
constructies
CHO
ringen
Methotrexaat
##imp
aldosteron
##atoom
##zijdse
antisense
##patient
documentatie
kinderarts
##71
before
ademhalingen
gerangschikt
##olair
appendectomie
##ka
batch
leidden
bloedvat
atleten
FUN
lep
1983
RED
##agers
slij
##ksuele
robuustheid
Sepsis
##aang
IBS
perfect
slaapapneu
multiplex
Endo
##azijn
beschermt
Chew
##abigatran
DIT
detector
##otid
woensdag
voorlopers
meldingen
ongelijk
overbelasting
##stoft
##uted
Specifiek
ecg
cister
gedocumenteerde
Comparison
dor
Italië
klysma
##servatie
ICH
indices
first
gereconstrueerd
NGF
vasoconst
middenrif
Weefsel
keizers
hulpbronnen
##yleerd
##entra
bemoeil
glutam
vertering
immunodeficiëntievirus
##uleerden
SHR
##dense
breast
##ence
passag
HLD
pesticiden
##oediening
ethyleen
cp
althans
opbrengsten
overheid
zintuiglijke
171
cytologie
Proteïne
patell
gevormde
reflexen
Fisher
gratis
nitros
##mings
bestrijding
ka
gehecht
major
voorspellings
##ioloog
boek
wenselijk
##volemie
kritiek
##gerelateerd
familiaire
##rague
Neonat
raden
Remming
mtp
##NAc
hepatosplen
nav
fant
ernstiger
waterstofperoxide
##umetanide
zweet
eosinofiele
evident
##arcoma
schakelen
traan
sf
fylogen
oprichting
##laten
##betrokkenheid
25AM
Dosering
normotensie
uitgangsvraag
##mp
secretariaat
##istiek
##amenteuze
oculaire
BASO
Vrouwen
elektrom
Opmerkelijk
cefepime
##bericht
vervang
dismutase
linkerventrikelfunctie
NAT
renal
##inespiegels
kalibratie
verdicht
##UST
Sprague
ronchi
baden
##ucleotide
Oraal
##bradycardie
tendin
Rib
verenigingen
craniot
demonstreren
##BE
##glas
tamoxifen
pupil
onderschat
repeat
##alcohol
Multiple
##gency
stamceltransplantatie
Neurologie
elektrofysiologische
CXCR
kleurendoppler
##ophilus
Base
##doses
prox
ductale
Intensive
veter
##omethacine
##zes
STT
HYPO
##ële
poriën
##keer
169
##deviatie
Th1
Lu
attitudes
cerebrospinale
scheenbeen
main
Vooral
titers
modaliteit
Turk
fermentatie
tibia
verplaatsen
besmettelijke
voorspellend
##ijdt
overtuigend
lytes
uitgedaag
oligonucleotide
Immunologie
181
Land
canon
onderdomp
##ipen
isolette
geher
##obie
sour
Lesion
traumatisch
cardiopulmonaire
Color
Water
STUD
##oere
##signaal
shell
technologische
literatuuronderzoek
##FT
##allergie
##K3
##iverend
galbladder
##emetabolisme
##repar
geëvolueerd
##ribed
##R2
hyperintense
gepolar
##N0
immuunreactie
extrasystolen
annule
interfac
Luchtweg
gewonde
lippen
health
fosfolipase
Methyl
Tcurrent
adenopathie
radiografieën
epsilon
myocardische
##instelling
Retro
SAS
splicing
Lew
falc
##tube
afwissel
Ts
vrienden
abstract
icterus
macht
##brengen
##entig
humorale
##osferische
vervaard
Sout
Protocol
zoekop
##uitdrukking
GRAM
alarm
DIC
##ysema
TPA
STitle
##hersenhelft
inner
rt
##idence
##format
##punctie
beoordeelbaar
sing
Informatie
##iënten
##afen
uln
glycosyl
uitdroging
diabetespatiënten
##calcificaties
##mata
erythemat
wed
Wand
##clerose
epididym
Pathologie
toet
##ethanol
##OTH
NLR
phyl
voorstellen
kruiden
ochtends
determinant
##raline
extravasatie
sigma
##electiviteit
##iodarone
universele
verklaarde
ETOH
nystagmus
##ark
##ronisch
particul
monomeer
differentiaal
schuim
waarb
kloof
fluconazol
VVI
ug
antif
collab
obstructief
##orbent
proteasoom
Voldoende
uitdruk
##dnisone
zalf
##vering
arrestatie
##WN
mobilisatie
eenmalige
polariteit
##stipatie
hydrolys
minerale
gein
transmembrane
semantische
##preparaten
4e
##steek
blood
osmotische
##inaire
Preventie
NADH
oscillaties
mantel
rash
voedselinname
tuberculosis
gelaten
##iseert
##oortje
##ymfoom
wellicht
##iliter
tussenproducten
naamPattern
knelpunten
Rating
##ralisatie
norepinefrine
##ibilis
##behoud
##testen
register
gehemelte
butyl
methoxy
##infil
##liter
chloroplast
PGE2
Wetenschap
Yo
NICU
Epidem
European
##ranken
##omyomy
AQ
##GEN
distrib
aanleg
buff
##ipp
##TEN
##kinasen
stroomopwaarts
##ageerd
##ML
##instructies
exemplaren
##obarbital
##ophy
herschikking
##BLINK
illustreert
HIT
voorge
WEBLINK
##mycine
absorb
##IVE
##diffractie
##86
##correctie
wekelijkse
##otent
HNP
homozygote
echogeniciteit
AMS
valse
spiraalvormige
Cort
Myocardinfarct
##specificiteit
assemb
##potentialen
osteoph
geproduceerde
onderdelen
Toedieningsweg
GBS
##fenol
kleinste
Hoofdstam
COL
25e
PAIN
opgewonden
55AM
infusies
monot
##kkingen
depolarisatie
gerookt
##vorens
Ceft
celtype
throughput
vervangende
Jude
PVAI
potentialen
atenolol
Wereldgezondheids
##odim
##plastiek
NPC
preoperatief
falanx
sterftecijfers
fibrine
zuigen
treden
##atiet
vij
beschermend
##bbbb
she
##odus
depressies
bloedlichaampjes
ontspannen
tensie
025
goedkope
##opathologie
##dynamica
administr
retrocardiale
150cc
##immunologie
maatschappelijke
BCR
hili
intral
hiatale
##ULL
##lobuline
Academ
Ondertussen
terugkeren
Aandachtspunten
##wekkend
##pale
##training
##scherp
##vattende
gegenereerde
Scintig
onderliggend
##maakt
##beperkende
list
popul
##TC
epidermis
Maximale
zouten
ovale
recs
palmit
Dawley
prel
raam
Dagbehandeling
##raniële
afnam
##ralazine
organic
Pulmonale
intelligentie
child
##alaat
realtime
antiretrovirale
naburige
##rate
subarachnoïde
Thoracale
mim
LU
##peptide
AVNRT
##romitteerde
bicarbonaat
Tg
aërobe
stereot
##eses
##cefalie
Fil
Anal
zelfver
##vene
aanvrager
aanvaardbaar
FVC
kleurstoffen
immunoreactieve
delet
##vredenheid
ole
comorbiditeiten
count
acrom
verlengen
V5
gebruiks
##dynamiek
apical
Nitroglycerine
positionering
Centrum
##trofe
Sw
##ATS
spermatozoa
regelgevende
verplaatste
##gemeenschap
##riose
##bouwen
##lobin
##epitheel
uitstrekken
carbox
responders
kleincellige
##zend
CRIS
annuleerte
Hyperlipidemie
besteld
Ontslaggd
##argine
##ino
perceptuele
##ophen
##lamming
gelezen
##eptische
statines
Ontslaggdatum
hartklep
##fysiologisch
##NAM
west
##slaan
GLP
##vlst
onbepaalde
p21
##ani
##gemiddel
Noch
engineering
##ocaine
polyneuropathie
gastroscopie
Enzyme
##lanaire
streven
Ratten
communiceren
##gekoppelde
Wijzig
waak
doelgenen
substitu
geët
hepatop
B3
verwerkings
geopend
laad
##fasen
JC
adenovirus
TOTAAL
divergentie
subclavia
##ulerend
##azep
counseling
UNEAN
Defin
Achtergrond
CORON
Orthop
##laagd
algen
zinvol
bevordering
##scores
Method
##Se
metaf
##quid
##illings
herseninfarct
##aining
plasmaspiegels
eis
http
gecont
##UIK
##ofran
primer
Wereldgezondheidsorganisatie
organellen
monocyt
Systemische
aanhouden
Afro
##yraat
##omgevingen
diffractie
opmerking
Vorige
Differentiële
Klik
HCM
PROC
##oefend
##conjug
paraf
Lumen
sial
gemonitor
AMPK
Korea
ISO
stemmings
##omvang
necrotische
##roo
stijve
claud
##orbol
##geleide
##zwakte
Glc
Persist
folliculaire
artralgie
##yo
ongest
Rab
ontvangt
nsVT
herkenbare
overtuigingen
erbij
##activator
CVV
flexie
bloedproducten
observeerden
inhibitor
Infant
urinewegen
##dede
Vaccin
Dieet
MU
Intub
##overgang
nierslagader
ROC
eu
##liss
concentrische
##uï
Development
necrot
Database
scannen
stolsel
contexten
##ratific
##giëne
patella
caudale
invent
geconjugeerd
##reconstructie
##gever
helper
vroeger
##beelde
klachtenvrij
##ita
buikklachten
##ylefrine
positiviteit
kost
Cys
verbrand
triple
##ocks
STAT3
Superv
##odine
Km
ribosomale
ecosysteem
Je
wederzijdse
Cyst
Ontlasting
internet
valgus
oligodendro
duurzaamheid
##riptyline
EMS
Survey
confocale
ultrasound
##fracties
wetenschappers
Mor
radiologisch
ecosystemen
percepties
OAC
Vooraf
medulla
##volution
Geschatte
rende
##enting
pluripoten
bacterieel
##Hz
bibasilaire
ladings
Houd
99mTc
Amt
previous
Dermatologie
IDENTIFICATIE
KA
vloeien
inositol
competentie
gemer
##mmol
##ferentiële
##fot
hartdood
##ortium
##AYAY
zorgde
##ulering
Halsvenen
gemonitord
glycogeen
##ophage
##F2
hit
##clusters
contractiliteit
bloedgas
##gesloten
##rint
1984
differentiëren
Nadien
coup
##aarzen
subtotale
free
field
klem
Forse
##sief
CpG
trip
##emateuze
kie
AKI
Kind
##osure
1D1T
##zijnzuur
Altern
Paroxys
cotrim
ventie
05AM
##ocyte
Intercollegiaal
plasmacellen
Levofloxacine
##overy
tumorigenese
##dragende
Langdur
aantrekkelijke
##person
##reoid
murmuren
##erve
dobutamine
##icuspide
Zuurstof
192
##icles
integraal
Metformine
spleet
Famotidine
Atypische
publieke
Sustained
##oxic
docking
ZnO
##bloot
omliggende
##arree
##ematologie
prikkelbaarheid
habitat
augmentatie
##imodale
Antib
##matigheid
Saturatie
hydrofiele
##omorfe
##knobb
GEGEVENS
groeihormoon
##pil
Been
intraperitoneale
dy
compressibiliteit
bodems
oesofagus
Menselijke
Nederlands
##trekken
Belangrijkste
hypoc
rijpe
BN
##lotte
substantie
Ideaal
cefal
##stische
VOET
Immuun
tetrahydro
Imuran
keto
lukt
Hog
##sefficiëntie
##radiol
stage
short
lae
reumafactor
Muse
GB
oxyt
gly
vullings
Second
sr
##itten
mist
##ano
mumol
Conjunct
##econcentr
auscul
kik
verdoofde
onvolwassen
waarborgen
##ulcer
explo
ESR
simplex
##operidol
thio
source
##kans
Mond
##ssituatie
FV
##fincter
##rec
constitutieve
optisch
allergisch
##eppra
Addendum
##HR
CNT
atypisch
metabolische
covari
uitgerust
DQ
##iqu
lower
camera
steekproeven
mitochondriaal
like
pakket
##affiniteit
Gall
Ibuprofen
##vector
aantast
verdund
##bach
geiten
pT
Mu
##overzicht
larvale
grafeen
Spanje
conflict
methadon
radioactiviteit
##hing
growth
postmenopauzale
Ipratropium
HCQ
NAC
pyruvaat
dichloor
anticoagulantia
ontvo
strekt
schroeven
benzeen
Na14
270
AND
##denburg
Treg
##rame
arachidon
PW
posttraumatische
Pal
##M2
zinnen
##breiding
ton
visite
titan
polysaccharide
HIP
Muizen
anterol
noduli
FYS
anesthes
##derivaat
##platen
Chi
carcinogenese
##CS
adj
law
vesiculair
##oskeletale
GAS
chondro
kralen
##ways
##stadia
vpk
Kwij
##ventig
Bax
##vasculair
uve
microsat
##pa
##O1
Vandaar
##ove
LAVI
elegans
verbreding
ventrikelfunctie
##acil
conditionering
##houdendheid
Orgel
paroxis
Angi
##acry
Kit
opvl
ischemia
verkalkt
approach
##eenheid
##osoc
##oun
##vriend
wekelijks
probe
Stresszweer
Get
eiwitniveaus
aangesloten
Klebsiella
visus
Besproken
oordeel
##trofisch
voedingss
1α
bewuste
##bus
herkent
hydrocortison
entiteiten
##onende
organisatorische
scintigr
groeide
Voiding
spijsverterings
gepac
##rafisch
fructose
nietjes
CPT
subsegmentale
balance
arseen
qPCR
WWP
##mische
cognitief
volumeverlies
paradox
gelukt
##arbe
##integr
endo
stenting
##prof
ontoere
stroomafwaarts
##synthase
Kinderimmunologie
THP
##plasma
cholest
Foliumzuur
psychose
regulatoren
Bewijs
raken
##itonitis
##iëteit
##elok
diermodel
biome
##atide
leider
ingeschreven
##ocriene
linkerlong
verzadig
ontwikkelingslanden
bless
BBB
##iaat
steriel
Solution
maatstaf
morgens
werkplek
Nauw
beoogde
verklaringen
##hangt
Zod
transcription
area
skin
006
lamine
arrays
Sul
verzorgers
kalm
PAS
##X1
Biologisch
cGMP
Dienovereenkomstig
##rologische
York
##hoeken
EPO
carotiden
hCG
oogheel
onderbuik
##transport
Sonde
chain
registreren
onvruchtbaarheid
##rub
RW
##riënten
##sto
induceerbare
toegankelijkheid
AANBEVELING
tijdper
ventrikelholte
proced
##ylacet
aVL
##cirrose
PMHx
##OLD
coping
##tekracht
Slank
##schakeling
SCI
elektrofor
##oprotein
##chus
gedown
Sport
Individ
cochle
Frankrijk
Heden
##orfe
fibronectine
gekleurde
Monte
cryp
voorzitter
antagon
opstelling
##retentie
##resultaat
##modium
State
prep
gevoelens
bevredigend
##urgical
opstaan
gag
who
gels
##kernen
##herentie
RAPPORT
energieën
BASOS
Vergelijkbare
doxycycline
decubitus
waaraan
Antistolling
meldden
Kwantitatieve
##89
bedrijfs
combinatietherapie
onverklaarbare
##agl
MEDISCHE
onderbre
groeit
##indust
stemmen
ingediend
Team
Uitgebreid
Bot
gevar
nabootsen
##zi
uitdagende
Fluoroscopie
spons
VB
berust
bemonsterings
##catheterisatie
Ventr
doelwitten
##apoptose
##woor
School
##sklachten
Federatie
Centraal
Barr
β1
veront
mem
consul
uitbarsting
gekru
cast
LAA
PDGF
ye
##ynaud
gehaald
##ination
cardiopulmonale
opleidings
Gedeelt
##ki
schakel
linkerbeen
ZvH
losartan
passeren
##regels
nitriet
Toevoeging
Tricusp
##ICE
##arterie
##rocardi
##perme
hemisf
CER
##ateral
##ancy
Details
communic
##ading
mgl
onderbroken
polypeptiden
RADS
tens
##ronden
213
tartraat
nefrectomie
ECT
isomeren
generaties
Flagyl
constitut
Mannelijke
cyclosporine
nature
##hR
vuur
##vasculatuur
Fund
rechteroog
CALCIUM
zaail
Cholec
Groot
##x1
aflopende
##distributie
##uminescentie
Methoden
hoeft
Spiraal
##ometry
RVOT
##reken
solid
phot
##ometrisch
Hoofddiagnose
##morfologie
##obobobobobobobob
urineblaas
##anus
diazepam
##osomal
reaction
Length
haak
##ijftien
Perindopril
Bent
CML
##urse
##scopisch
##aiac
Poliklinisch
preparaat
Afgelopen
##change
Neutrofielen
verlamming
ontlu
hydrogels
Endotracheal
dwarsdoorsnede
inzet
Toediening
iNOS
Tissue
Valsalva
##ëse
intran
expiratoire
vouwen
##ky
voorzorgsmaatregelen
synthetisch
##ety
Hierna
Gauss
##luent
PJ
appendicitis
##bru
Tar
zilver
##axine
magnetisch
da
Will
##dder
Vmax
##secretie
tx
PAH
##config
nocicept
demonstratie
Vanuit
ontleed
2112
doorvoer
##propion
venen
Onveranderd
uiteinden
##krachten
opst
##express
beroertes
tympan
CXCL
mitralisinsufficiëntie
drijven
applic
edema
MDR
antischimmel
HBsAg
pillen
bronchiëct
katalysatoren
navig
antistollings
Eff
VIP
eilandjes
asparag
tropische
s1
epicardiale
##types
##YL
##onamide
##morph
RAN
drift
keizersnede
Multivitaminen
belof
##lanke
##geleider
baarmoederhalskanker
groeiend
verwerven
experts
VTE
spreiding
tekortkomingen
RADI
Food
CRISPR
Verrassend
##EEN
subf
Dun
##isaties
##invas
Failure
inherente
##midden
Wal
##atiënt
##wikkeld
##afil
Dental
luminale
##scyclus
E3
##fuseerd
ABDO
lectine
audi
taxonomische
##olipide
waard
diagnos
##spl
Reagent
Th2
Count
voorwaard
emissies
##ties
nvt
##industrie
enth
hamster
roof
##worm
galactos
neutraal
##hoekige
Verwerving
mediaal
R2
##obacillus
##grenzen
psychiater
posttransl
geregistreerde
##ofiel
##opauze
noodzakelijke
Rash
##tegra
##telling
Seph
##elinelin
THORAX
vannacht
2H
##zelen
Il
aantasting
##instrument
Geeft
spenen
merkbare
##oveneuze
nifedipine
Hx
##ouchen
Delivery
##dimensionaal
S100
##rekkingen
onderstreept
Rookt
endocytose
versp
general
indicatief
256
verwarm
Off
##imide
##83
##holten
dringend
##volgorde
transformerende
##etest
##UG
MVR
##atriale
Chewable
akinesie
strikte
KD
Hoofdklaag
##etast
bijeen
celmigratie
politieke
aanvals
uitgelijn
PDE
manipuleren
nitroglycerine
multis
Dev
disco
Beeldvorming
tafel
##kinetiek
subclaviane
breder
natte
Slanke
bilateral
orgel
Honderd
oncologische
spor
traum
##XXXX
toedienen
sensibilisatie
##ralings
Fox
Begin
HRCT
Complement
adolescente
##ford
geloven
interactieve
##olaat
##epten
room
##aur
##elektronen
verbindt
jarig
opportun
WNT
Differentiaal
counter
##stralen
kationische
stille
##ozol
##versies
cy
gekeken
geoogst
verhaal
##otopische
analog
suppressor
ideeën
schok
183
##omycomyc
FTI
oogpunt
Leads
cardiomyocyten
methylpre
##umaraat
sinustachycardie
kla
##Pa
immunosorbent
uitdagend
bloedende
leiding
bedreiging
2114
np
##ractuur
muur
##gerapporte
uitgedaagd
rechterbeen
##anemie
identificeert
jet
B6
lekken
parametrische
Franse
vascul
##wor
fam
soja
geconditioneerde
groeisnelheid
Atenolol
##ronaat
##ocy
gevalideerde
coating
2024
UDP
duizen
polymorfe
184
##families
maste
intracere
DOP
##ucl
immunoblot
middenlijn
neuromusculaire
microbiota
nodule
veerkracht
apixaban
angiogene
##M0
Ablatie
##onium
piramidale
vergelijkings
overdraagbare
##interventie
ATG
##ethyle
overmatig
paracentese
incre
##zweten
lactatie
chaperon
papillaire
Iets
##opyr
lbs
Lead
##offers
##diagnoses
Promin
schaduw
genoegen
NAF
Cs
aparte
##gecomp
dysart
described
ileus
behandelingsopties
tussenproduct
aanvr
bezoekdatum
NEC
##rup
##athyro
##gamma
tracer
##rijdige
biventriculaire
trillings
##haald
constitutief
schaarse
flecainide
##molten
##vix
##ienota
##ousen
ductus
Respiratoir
serotype
##icin
NIR
coagulatie
inwoners
folder
precursoren
gekarakteriseerde
gentherapie
verscheidene
Lijkt
transporte
verergerende
prolactine
sequ
stenosering
nefroloog
inherent
##illect
verslagdatum
Diagn
bijgevolg
voortvloeiende
FOX
terecht
##sprobleem
##ulinen
TAT
gisteravond
vroegtijdig
CCP
##thermie
vagina
Writing
exponentiële
##eases
##rang
##09
veneus
pix
QTL
##winning
##elokeen
hypert
##Procedure
gedecomp
ensemb
ingredi
##lei
HAP
emotioneel
steatose
dragende
KR
##fli
steden
treat
life
opaciteit
tijdsver
veelzijdige
##tom
gesneden
hemol
##cumine
##kool
meniscus
Ultras
dichter
##laxis
##rapportage
moeilijkheid
mitralisklepbladen
##seigenschappen
##omtrek
195
hallucinaties
daalt
oxo
bang
##isterie
##D2
akin
pleur
NPH
##frequenties
isop
MCI
Bib
##vattend
groenten
186
##rofot
BMS
deeltjesgrootte
streptokokken
symb
##ieus
Oldenburg
onomkeerbare
hold
##ICAL
##za
formaat
##interventies
monocl
allopurinol
vliegen
meervoudig
##ampsie
##symptomen
nachtelijk
opgestuurd
strip
Atriale
astrocyt
Cran
##stok
Communication
##dii
afv
DOC
arterieel
canonieke
Carlo
maatregel
##moduline
##ando
##lamydia
presentaties
vondst
es
##metting
klimaatverandering
NID
Visueel
##sensibilisatie
glycoproteïnen
##inem
celdifferentiatie
cultiv
##ITE
immunosup
##ITY
NODES
amide
##umadine
##PL
Sindsdien
hersenschors
longslagaders
public
##soort
##idomide
voorspel
##MIN
Sy
##ateur
ontleding
documenteren
##ATIEVE
##GR
voorkeurs
anten
mestcellen
0700
##uraf
hoc
##split
bestraalde
Glykemische
spijsvertering
verifiëren
schroef
echografisch
Zwit
gm
mammacarcinoom
##C2
##asilar
##sum
##mort
##lair
fagocytose
##werkend
##instituut
##ssyndroom
architecturale
##TSLAG
##schattingen
MPS
verstrooiing
rechterheup
relaxatie
1a
geoxideerde
##minogeen
onderzoekafd
##82
any
scheur
pens
tillen
vin
gewerkt
3000
Beiderzijds
Aldus
gemiddelden
ADRE
##kinderen
genormaliseerde
Diltiazem
dysfagie
electro
benzyl
##reoidie
install
thans
Wijzigingen
afdelingen
convex
gevulde
2130
mobiel
##oïnezuur
##blaasjes
##ontan
plo
tegenstrijdige
mits
Vroeg
ataxie
biochemisch
particuliere
##genoom
geïnjecteerde
merkten
Dub
validering
##elines
thee
tolereren
eye
Ventilator
FX
Zonder
uitgangswaarde
##UUR
vrouwelijk
VASCULAR
App
maatschappelijk
##IEF
rehabil
BCG
controleer
##illary
mitose
##ycle
##OOD
##hor
Zodra
##gings
opzw
##stream
citraat
onverm
AIDS
00000
##omiale
gentamicine
Ward
##esce
Spect
parag
aromat
gecalc
##itinib
osteoartritis
EY
##otrofe
param
##media
betw
Subcutane
insertie
AW
##yer
geluk
celadhesie
calcane
randen
uitmaken
gehe
##school
##opropyl
vervoer
Informed
gaas
Apo
sporadische
ADRENAL
spike
Behandelend
Belconsult
functionaliteit
Elektrocardi
##ridge
oestradiol
CD11
Farmacologic
dichtst
voorbereiden
beginnend
##alfa
##BBB
##chanter
##icient
reagens
Echocardiografisch
Stat
##verlichting
##lora
ophalen
geperson
langwerp
##HYHY
##oraal
hartrevalidatie
monomeren
Case
Mg2
marge
##polaris
aanw
results
sphen
##AREN
mondholte
fosfatidylinositol
zoster
Moet
##peroxidase
##ristine
ONTSLAG
BV
lipoproteïnen
vingeraf
doorsnede
##ragmatische
epist
omze
##database
bereken
onbeper
ct
OVER
##alyseerd
gelelektroforese
bloc
##GC
##wongen
bacteriëmie
##aaid
##ijdings
creatine
##ranscript
hypercalc
deelgenomen
##transplantaat
cam
##oclop
hyperglyc
##bische
##iparum
oxycodon
Dip
##unctuur
gereduceerde
extracellulair
autisme
nc
spierpijn
radioactieve
Lange
Profess
oproepen
urologie
##cussie
herstelt
lax
draden
near
reizen
promotors
antra
##azijnzuur
atri
proteine
Gecon
upregulated
Pass
##ollige
##oflav
voorlopercellen
##reerden
Volume
##40mg
##aarne
##ambocor
MDI
##TENS
##Gym
reumatologie
##omegal
bidirection
filamenten
tracheotomie
Sem
##gast
Coll
Positieve
##OCYT
##kristall
uitgangsvragen
entropie
bloedkweken
Bayesiaanse
211
Dorsalis
balloon
scrot
indomethacine
sterven
irrig
plavix
##negatieve
transcripten
Afebrile
adenine
##schrij
synonie
##sim
thermodynamische
thiamine
##amere
mak
hazard
blaaskanker
stapsgewijze
##okinase
canal
##obalamine
rechte
histidine
provider
male
gemuteerd
more
transferase
##cefalus
onrustig
aerobe
Mis
##KLEP
crepiteren
endemische
##acylglycerol
##asurement
AVA
infus
hemostase
Progressienota
intercellulaire
##vergelijkingen
lent
Infus
georiënteerde
##rection
##zaï
aanvaardbare
apt
aminozuurresiduen
##oseerd
aortadi
##rasp
##aneurysma
onderlinge
##opening
##segmenten
binnenkomst
disciplin
##kinine
##scintig
CAS
Day
NET
positron
##ULT
dermale
regeneratieve
ossale
geprogrammeerde
##mic
verergerde
benadruk
Angio
Weight
analget
patiëntenzorg
##uper
aanvullen
falciparum
Spiraalverwerving
##come
##rengel
betrekken
##blader
GIB
Microbiologie
FB
Hoest
bezorgd
INTERPRET
DOX
##antozol
supplementen
##ogroepen
regener
snr
adapt
187
accur
glucocorticoïden
##inoïde
Afgezien
Class
clindamycine
CTR
immunocyt
celcultuur
schil
bloemen
##drome
##architectuur
Support
##ksh
##contrast
submucos
##S1
##mine
adolescentie
speech
meiose
mcp
Ves
dosisafhankelijk
##orus
afferente
nierinsufficientie
BY
##dix
schommelingen
##variant
NU
Pattern1
burst
galactose
##vergelijking
nucleïnezuur
##vijftig
TX
##bias
muscar
Commentaar
diclofenac
##emiss
Fluticasone
hoeken
guanine
economisch
ESI
##IB
##zenuwen
##jarige
Neurom
ASC
##obacteriële
##aparine
ongedi
fluorescent
##operaties
eclampsie
fellow
##opositie
gras
afgebeelde
beats
colloïd
parenterale
##koming
##hale
##stalen
gecateg
##oglobin
opgeblazen
CTO
##ato
##odeode
##bril
##oclopramide
##verlamming
Symmetrisch
nikkel
his
onderscheidende
onevenwicht
##atieresultaten
ziekenhuisverblijf
verzachting
zwangerschapsduur
ziekteprogressie
brein
##ribu
ti
abl
##vatslijden
paraff
##omatose
205
##study
verwaarlo
ingetrokken
intravasculaire
leukocytose
##azoline
kleurstroom
##etens
Inderdaad
##ronken
pet
volgend
##udeson
Bicarbonaat
bestaand
Treatment
buizen
verkouden
##saturatie
##risic
##arische
Riv
MEK
Uter
agentia
loops
BCL
ANCA
##aper
sporadisch
Humalog
179
agenten
seros
incidentele
sublinguaal
##atal
##LDL
droogte
veronderstelde
geldig
assistance
Sigma
klinieken
##cipit
atropine
folaat
celdeling
##vullingen
dissection
##ivir
##ESCH
segmentatie
EPS
##wandverd
##afbraak
tp
##vertegenwoord
moed
##cycli
rales
Trit
pathologieën
projecten
VD
kromming
portal
##aque
##achar
radicaal
6x
Ly
antitum
##hydroxide
##udenten
##rante
discrepantie
RNase
Children
##oscopen
IK
##udesonide
peroxidase
ophel
##ontitis
Abnormaliteit
regurg
aanmelding
disch
206
aVF
Procedures
Meestal
susp
endotoxine
Uitge
Richtlijn
doseringen
OCC
eicel
Gemiddelde
##illon
##ysine
RECH
##not
##EX
##ammon
##entrische
elektromagnetische
mobiliseren
##neringen
geïmmuniseerd
##PSC
unilaterale
##ieu
##classificatie
light
##rieten
following
CD45
leerlingen
##quor
gewrichtsklachten
stuwing
##ördinatie
droegen
grenzend
satelliet
lymfocyt
CaM
honing
RNAi
hematopoietische
binnenkort
descript
Tone
##vage
volbloed
##inereceptor
tibial
##oïsche
##screening
forens
##bestanden
CSV
wederom
luchtver
Spaanse
Amerikanen
Flu
peritonitis
##regulation
Ondansetron
##pijp
##rier
##ivum
uitster
neoad
indeling
benod
adipositas
granulomateuze
congru
botvorming
tolereerde
pus
required
##pertoire
sterkste
haalbare
osmol
##aminale
handschrift
Verw
ORIF
##odod
##bot
2169
PSY
cit
TRAC
##osmine
duidelijker
posterieur
stafyl
Bijwerkingen
graph
merkbaar
epigast
oftal
logistieke
CAM
Latere
niercelcarcinoom
Ident
##kamers
##keuze
junctie
Xenopus
gecentreerd
bloedonderzoek
SBT
293
stopt
expressieniveau
rechtvaardigen
leesf
##ICI
##orieel
##clip
onaang
bench
compliant
Nicot
##wet
trekt
##omavirus
emphysema
drempels
RAP
##asaal
pupillen
Fosf
spierkracht
##opolymeer
current
##groeid
##mente
hi
bloederige
stopte
versneld
serumspiegels
LABORATORIUM
plakjes
doorge
Risico
##optimaal
##espiegels
Differential
decarb
gynaecologische
ongrijp
Mitochond
cha
excentrische
##tief
paniek
PROCED
verpleeghuis
Catheter
cholecystectomy
vertekening
etiologische
huw
Tol
contrastmiddel
dam
oogdruppels
##bevorderende
##etente
verduidelijkt
##trig
##wake
paal
helaas
behoudt
methaan
scientific
##werkelijk
gestratific
toedieningssysteem
deg
hersenbloeding
Afhankelijk
ware
##pez
onopmer
##ias
prostat
##udine
intentie
##verkalkingen
FTIR
##cascade
##fluïd
endogeen
echocardiografisch
##zings
alcoholmisbruik
rugligging
atmosferische
##akak
Aff
traditioneel
##reekt
##ialisatie
##espons
synergetisch
tijdperk
varic
20000
lege
##stijging
##rieken
zoogdiercellen
##ectieve
nierfunctiestoornissen
immuungecomp
Trich
##itonine
##utane
Mitralis
nebs
apolip
transcriptional
gat
materie
SGPT
coe
EE
##ANT
instructie
efficiënter
nanostruct
OHCA
intox
antitromb
2153
##pings
geënt
betablokker
##voorziening
seconde
##apparatuur
associated
geind
staven
##imat
alsof
MRCP
transfect
leverenzym
Hi
PULS
sustained
HK
##oeuv
##inalis
Dose
ink
Australische
Zwitser
##briden
MIP
Vir
##unch
##NARY
discussies
##wijziging
TBC
Complicatie
dek
##rijpe
yellow
INTERPRETATIE
aster
##bevinding
gemaakte
verduisterd
Phen
zebravis
Technology
borstbeen
explor
hoofdhuid
oksel
holle
Schildklier
overmaat
puff
##ineresiduen
juridische
Losartan
LMWH
spot
lactose
gecategoriseerd
leucocytose
ooglid
lysis
methyltransferase
##ondentie
##farin
##ancreas
PCL
priming
##ban
benaderd
Evaluation
upperiode
Weergave
CY
PAGE
Britse
1982
F2
##geschikt
haven
Fos
heterol
surro
##verster
Dia
Back
IGFBP
##odone
onst
##ommend
femoral
##akeld
perfus
Compleet
Muc
##parenchymale
roe
longvaattekening
div
##jac
##azo
codes
##ylatie
##holtes
##iph
delt
##klem
ill
vitaal
##cluster
afgekn
##pendix
klas
longknoopjes
bevruchting
She
Lam
sedimenten
aldaar
PGF
##hrs
##ionella
Prob
##ebriel
fiss
years
##oxaparine
Titel
probeerde
phase
##OMA
sprak
Raynaud
pijnstilling
huishoudelijke
##alf
gezichtsveld
gaande
pelvis
##ytopenie
verkort
beschrijvende
##nnnnnnnnnnnnnnnnnnnnnnnnnnnnnnnn
##ylob
hartritmestoornissen
##zinnig
mediatoren
destructieve
zuid
##ically
##rant
##imaging
barium
interdisciplinaire
werpen
filt
bewaarde
klepafwijkingen
rhinitis
repetitieve
blokken
##arenale
AVP
Ce
suggesties
intensief
belofte
Tegen
sublux
calmoduline
buikaorta
ULTR
presynaptische
##ovag
sternotomie
divert
Diverticul
samenspel
chemokine
##gereguleerde
wind
##orum
versterkende
breathing
##bijt
uitkomstmaat
epigastrische
purp
Committe
gemethy
Kin
##yreen
PSC
reversibele
##ïsol
2200
kip
doof
##map
transcriptase
gaschromatografie
dermatoloog
Middel
hechten
##ayer
Smad
tient
Gold
atelect
eukaryote
beëindiging
##nomen
irreg
eV
##doss
zwaarlijvige
##blematiek
##ziekenhuis
crani
##groot
##ÉÉÉÉ
narcose
##iewer
##volgd
fotok
Axial
deleties
adalimumab
OV
multil
T7
##variabiliteit
ALGEMENE
apotheker
bemonsterd
nanoc
##agel
fibrotische
##iks
early
Initial
restenose
herschikkingen
mAb
amn
casestudy
argumenten
##ptose
palpitatie
gescand
INS
beoefen
BMT
Flex
deeltje
##URS
##idus
##eenzuur
polykl
##ERS
gediss
tail
Probleem
BILATER
aux
##verwachting
Gad
evalueerde
Thorac
##Is
Cart
KNE
ASP
gedrap
cerebrovasculaire
verdraag
afgescheiden
peep
Colace
##yltransferase
Californ
hydrocefalus
diëlekt
demyelin
##asa
temperat
rassen
habitats
Trauma
atomaire
crackles
known
linkszijdige
Gelieve
##HE
gestopte
kub
vestibulaire
Verantwoord
DIG
Cla
kankertherapie
double
beïnvloedden
parap
gedrapeerd
##arma
achtereen
coöperatieve
annuleerteken
methyleen
##romatose
stroomgebied
##geneesmiddelen
brachiale
predis
inade
pyrid
Alt
##ankers
##hebben
##romen
origo
Polym
nachtzweten
stentplaatsing
##agentia
colec
bewijskracht
saphen
##stamming
##io2
##ulinemie
##zinking
milliliter
juven
breken
hilarische
##wetenschappen
##onderkwab
reumatische
plaus
##sferen
##ful
##orders
wandbewegingsstoornissen
pine
filament
##onsters
cervix
chromatografische
##onditionering
anorex
stikstofoxide
sector
facilit
Tens
##buffer
voorkomend
##G1
smelt
fundus
eukaryotische
waterstofbinding
##spective
##collectie
sum
##549
Lig
##otom
2119
oligo
FK
##isolatie
voorzichtigheid
vegetaties
Knie
NCAT
eb
student
omtrek
FOS
levenslange
##aritmie
##anat
##erdag
##yly
##pla
CW
##well
stenoses
##ëtine
##ysplasie
##paar
##gelicht
natri
Nt
YE
releasing
prur
Swan
##bens
voorlichting
NHL
Gezins
##dode
heat
ideaal
illeg
roepen
bètac
##voorzien
striatale
gescheur
KGA
subpopulaties
##iters
ademhalingsstatus
##azid
##benzeen
Small
zuren
Verb
Kolom
UI
wire
##hypoth
curric
moeilijker
##combin
Helic
MHz
vermogens
verontrust
Chronisch
PAD
adju
##abilisatie
ERK1
wijzend
somatostatine
IVIG
##hechting
Infusen
levercirrose
voormal
humerus
grondwater
fysio
##nie
exciterende
metam
Q3
kamergrootte
ongelijke
bibliotheken
supraventriculaire
sto
##centimeter
evolutionair
Lantus
Sever
monolaag
##otrim
##lyceride
Amp
##vend
##yct
Negatief
eenzijdige
endovasculaire
gemin
SaO2
NAFLD
opzwellen
##otentieel
##uitval
vulg
uitgaven
Taiwan
suikers
intellectuele
borstbuis
bevrie
superfamilie
Syndrome
Azathioprine
##illectomie
vue
chimer
meegegeven
IABP
daadwerkelijk
##osyst
neurotransmitters
onmogelijk
VM
brain
zwakheid
labet
##bridement
##ativa
##zolid
Neo
1D
Infer
toxines
##bevol
quantum
urinezuur
uroloog
gedood
##ohumer
larynx
##bladjes
neoplasie
Trp
subtilis
aangenaam
Diarree
##ytoïne
tegengestelde
rost
##PI
bestemd
kuiten
rechteratrium
Fr
pyel
homogen
vertakte
Global
inducerende
##ctief
DHA
findings
##hoest
eilanden
breidt
##ofluor
geabsorbeerd
##ielden
dict
motiliteit
Grootte
plaatjes
Conjunctiva
pulmonalisklep
NHS
onoplos
Surveillance
dimeren
Plasmodium
hemangi
opbouw
nevenbevindingen
titanium
informatica
hern
rechtervoet
fibula
##ofyten
##strueerde
Gezondheids
bloedtransfusie
geëtiket
serumc
030
leed
ventiel
##eeld
##GATGAT
##microscoop
neutraliserende
gi
opruim
urem
##besliss
SNA
tussenpo
inteelt
##reparatie
nodus
Neur
PMI
##diting
tyros
transversum
FNA
##ficiën
##ithine
##CHT
Elekt
Huisartsen
Omn
resterend
barb
##igest
DIS
##protectine
ADRENALS
Spoedeisende
occlusieve
vaststelling
import
SGOT
afwezige
interfereren
Qd
##riol
wijdverspreid
Influenz
wall
afstemming
Gabapentine
analysemet
postp
active
##Cl2
macroscopische
complic
tetrof
metal
##algoritme
mgPO
Cult
##GO
Tn
##afscheiding
##voegen
verdeelde
ecchym
##sorbeerde
onrust
optrad
AZA
klepvit
Kre
gegroep
##aanpassing
erytropo
cholangi
inflammatoir
##otubes
Apixaban
enscen
annuanced
gemanipuleerde
compenseren
zelfde
behoe
H3K
##bit
##spire
pneumokokken
Kreatinine
immunoprecipitatie
Atl
##ji
ongecontroleerde
Mechan
diffus
##aanzuur
##sindex
voortkomen
breedspectrum
##geboorte
##oxib
##dict
variërende
thyroid
Troponin
systolic
verleend
##arr
Adres
lichaamstemperatuur
randomized
##gedaan
##ileerd
aangemeld
##sym
##moeder
dimensionale
Hypothyreoïdie
##resol
ribonucle
NIT
##anta
simple
carbonyl
myopathie
Talrijke
fluoride
during
verstro
Sciences
waarschijnlijkheids
ausculation
##stitution
eIF
cryo
ozon
RvO
##ereuze
hallux
fractionele
foetaal
hypothalamische
##kerd
CA1
##centreerde
luchtweginfecties
##oproliferatieve
##lagende
##ancreatische
prijs
##eman
heme
Beperkte
roll
Tran
##pansie
##optische
Hierdoor
stressoren
##XT
##heps
afstamming
##abric
grafts
##iseerden
accepteren
equivalente
verontreinigingen
##osphosph
Committee
golfvormen
NEB
inleiding
days
beslissings
bronchus
gespannen
Rate
cellymfoom
Ltd
Frequentie
##ietijd
CENt
cod
afgeronde
deviaties
##bacteriën
inconsistent
Jac
nefritis
pneumonitis
pseudomonas
##arabine
##iveren
lux
angioplastiek
Redelijke
conformaties
krim
dipl
orthopneu
mesalazine
##lying
uitgedo
dorsaal
ly
verontreinigde
coöperatief
rivaroxaban
azitromycine
##reep
##omain
titratie
assim
##lanar
rDNA
coil
##rictieve
herposition
##troductie
375
bloedkweek
##gat
inactief
##categorie
trich
vac
##illende
Primary
Verwijdering
Soln
rece
##pping
Incisie
betekenen
orbit
chondrocyten
Late
HAND
IQR
dubbelstrengs
##gassen
##naar
aortaboog
gepoolde
##vin
ondervraag
ampicilline
pK
werving
##oriëntatie
TUR
persoonlijkheid
##cipline
Year
verzadigde
##roninezuur
##aanval
projecties
Gestart
##reotide
levenscyclus
##eenheden
##pende
mandibulaire
gauge
Overge
Colitis
##oforen
##sprestaties
zeep
Fiets
zand
##euren
volgfrequentie
Lactic
filtratie
Volwassen
gerealiseerd
##rend
NIV
Prostaat
vormige
gepersonaliseerde
kunstmatig
weigerde
sensing
24h
EW
193
umol
dieth
##esseerd
##wortels
##omerisatie
##arum
##zapine
VENTRIC
vangen
realiseren
fotosynthetische
chip
evacu
additief
antibiotische
gemerkt
gekat
given
micellen
204
medewerkers
Voorbeelden
##pos
reflect
Derhalve
azijnzuur
RECHTS
##elend
##Lin
##attery
RUST
##KL
verlaagt
teruggevonden
TLR4
capsules
##knopen
CBF
hepatopetale
tractus
tetrofosmine
kortetermijn
##pal
Eval
redund
##kaarten
cardiogene
ICAM
##vect
bezet
zittend
monoc
kankerver
blijf
doublet
MES
##correl
##500
huidafwijkingen
verborgen
AAV
additieve
selenium
seroton
LPA
##cher
NPY
paring
Melan
ruptuur
tientallen
expliciete
##Gym2
spits
huishoudens
Tm
passief
##staand
##racetam
continued
grafiek
Woont
dispended
patienten
Snelle
##glycos
arachidonzuur
verdubb
##PG
pres
nitrof
##omegalovirus
2124
gefixeerd
##itum
forward
oppervlakt
TRACING
##kary
dri
mengen
##aande
gedragingen
##oct
##atering
##abdomy
Hogere
onderbouw
gedomineerd
ERP
##positieve
tijdafhankelijke
##kante
##iliseerde
##OMEN
Kolomnr
007
neuraal
Eosinofielen
##fosfatase
SLC
TMA
genomic
DMSO
psychotische
causale
theta
pravastatine
tid
SEP
##EO
##HO
75mg
Mutaties
DAP
Negative
hypodensiteit
placeb
Rb
kraken
snoer
scap
dehydro
oproep
Nrf
SAP
pijl
handhaving
##lerings
Lopressor
hedendaagse
voorbehandeld
koolwaterstoffen
kijk
##nitine
capaciteiten
##lands
Object
zweten
koortsen
ONT
Carotis
muriene
aarde
##oeidheid
dexa
##oprotectieve
convergentie
afscheiden
##orgaan
neuroprotectieve
##uleuze
sigmoïd
pc
blijvende
Langdurige
Prost
zesde
##ACIC
mucine
Canade
Awake
##romyalgie
Buiten
222
Bul
pasgeborene
##rion
##1p
ontregeling
regulair
ingest
Ejectiefractie
id
linkerheup
Fysiologische
Posit
sekse
GGT
Passen
EZ
schild
Heel
Ach
##mengsel
alvorens
overgenomen
Valve
TOF
PHT
Antico
##zout
perih
Vul
deelt
##gradig
rubriek
208
Hoofdbehandelaar
##urea
bemiddelaar
correcte
##entrum
dagbehandeling
##auzes
Morf
1600
##dosering
opvatting
FLA
PEP
etniciteit
amfetamine
Enkel
PAL
Activering
overtollige
Tstroom
propion
uitle
ontmoet
##letsels
##onate
##okine
compleet
##zaïek
##proco
##perspectief
##gerapporteerde
white
verleende
puberte
OPM
##ODUCT
compensatie
dok
heterologe
##pig
pob
blokkers
laden
Level
Ana
Ranitidine
standaardafwijking
Cam
##ivitis
rechterb
Tim
hyperkal
UE
AIC
organism
basil
##immunoassay
Gebaseerd
##neet
##unning
vasten
inkap
##yrid
microscopisch
paraffine
exacerbaties
posterol
laaggradige
stag
gefax
propria
flexibel
Breast
aanmoed
Twaalf
progress
pluim
inspectie
##anders
rho
##ienummer
Thr
Gelijktijdige
venster
getransplanteerde
##stek
##AZ
##jr
ziekteactiviteit
##osoma
ritmestoornis
ontslagbrief
##modaliteiten
##gar
##opathologische
##polaire
##richtlijn
##OPER
##iero
##esceïne
##oxaan
otitis
Mt
geleerd
liefst
trom
cardiac
Mutation
Kortadem
proteasen
puf
##wikkelde
bestrijden
aanm
knaagdier
##hebbenden
deox
##schromatografie
##vi
##opec
wazig
##ena
##IEK
laboratoriumtests
##amiden
DISCHAR
scherpte
nanocomp
neoplastic
pedi
DX
onderbenen
##gendeel
matrices
emotie
leraren
##lipt
##aanvallen
genotypes
RESPIR
##isbruik
HTLV
curatieve
sor
WEG
anatomisch
##tam
##ondag
etiologieën
aanvragen
HNN
uitgeoefend
FIN
AFP
##other
aangekomen
exs
##verslaving
ongem
##ems
verkennende
Wean
##procoumon
klonale
hypercap
##behandelings
total
menopauze
extremity
RDW14
##voorbereiding
kel
##haar
molecules
##erculose
##peroxidatie
##aseactiviteit
oogst
flutic
gerec
##ëx
DRA
reviews
ANDER
##andige
darmgas
uitgedoofd
PAI
endothe
HepG2
Referentiedatum
C18
spatio
GAD
adnexale
##bew
corrige
evalueert
##aaien
posttranslationele
MITRALIS
Inge
myx
luchtpijp
overeenkomend
moeizaam
vooroordelen
examineation
gefrag
aquatische
##odische
beeldvormende
##ocysteïne
BOR
##acrylaat
##iomy
##beoordelingen
Concentr
##ician
quasi
obt
NADP
dissoc
deelnamen
##ontine
2145
delayed
##valvulaire
##eertien
stevig
##oposide
peroneale
TOP
##ospit
##hoxy
##regimes
hierover
##stitueerd
##HES
aortaklepfolders
##rogol
recovery
##eflex
CLE
##inae
Extre
strijd
##precurs
HOB
##kkige
levers
orthopnoe
LWK
potentiaal
##asisch
##C3
levothyroxine
Systems
biogenese
URINARY
remo
inactivering
deep
antiserum
##rofiele
kleding
##ilen
ondubbel
sacrale
##onia
verkorting
werkgeheugen
Lokale
##schakelen
versterker
depletie
Leucocyten
##ked
DataLin
stochastische
Zest
##tegrade
AORTAKLEP
buc
homologen
##alact
collabeert
profilering
##ylen
##uite
afgrens
grondige
##Name
affect
ALP
##roïde
bedu
sfer
##ueen
##igene
SAT
belanghebbenden
cyclussen
borstkankercellen
##strijd
night
Biopten
##honderd
diende
##uug
##pot
Loopt
chimere
NON
##annel
ergo
kom
XI
Network
##ACH
Ace
Iv
##kie
ribbreuken
large
slachtoffers
##eeds
voortgang
WIT
##rupt
mitralisklepinsufficiëntie
Woonplaats
power
popliteale
Gek
interpersoon
belicht
PCO2
μmol
vruchten
203
Functie
##epatiënten
Ara
##ateus
opgelopen
steken
micromol
DEN
RPE
excretie
rondes
##raakt
Fosfaat
NCC
aank
##STEMMING
gevouwen
##hydrochloride
aortaklepvervanging
multicenter
##film
oestrogenen
191
##2a
osteophyten
Inte
versed
bank
getitreerd
Ovarium
dre
##atiesysteem
##lekkage
NEUROLOG
metap
person
Lactulose
##gangl
nicotin
gereduceerd
geïnteresseerd
##iment
intramoleculaire
conceptuele
EEN
##edoch
ongrijpbaar
##conclusie
cord
vagale
##sexperimenten
verloopt
microcalcificaties
onnauwkeur
ongeval
voorspelden
thalass
uitgezet
amiodarone
nerv
##karakter
##geschakeld
overheids
stoichi
verzonden
##otrofine
2167
concludeerden
enalapril
Mig
perian
gerepar
medicatieoverzicht
hop
##obalt
autorijden
BACTER
naproxen
##orger
##incristine
limiet
cephal
duren
##oactieve
bv
arterioveneuze
eukaryoten
##gedomp
noordelijke
intraventriculaire
##orrh
getrainde
wnl
onderzijde
voelbaar
afgeknotte
CVS
matching
verzwakken
tijdsverloop
melkzuur
Nacht
proteolyse
geoc
##lasse
##sin
##odeoxy
mannose
5mm
Cry
begrens
invullen
Wol
A549
##iciency
infecteren
3d
##ymethyl
subject
antipsychotica
##schijf
gabapentine
Plaats
##QL
##innitus
##eeuw
vertebrale
geoxideerd
onco
##septum
##seizoen
tortu
##municatie
##intest
titr
afstands
opnam
transcriptionele
John
Lyme
gelatine
verkrijgbaar
##istieken
botre
41J
conser
trombotische
Gd
##fragment
##sclerose
##gemiddelde
Warfarin
SMC
katalyseren
gepolariseerde
##erbaarheid
1981
intervention
ontvangst
##iveerde
##iepe
##geïn
temperatu
paars
verstand
##esthesie
tange
neurotransmitter
FLUID
##biom
##rines
export
cliënt
SCA
viss
aortadiameter
gevaccin
captopril
thoracaal
longparenchym
##raagt
sternum
Movement
STEST
Dry
acup
##inz
liever
Bone
##monitoring
fases
overleggen
##iensis
##inum
verrassend
##schim
##osorbide
laboratoriumwaarden
##erbaar
##actorieel
##uppletie
golfveranderingen
850
[...]
