[PAD]
[UNK]
[CLS]
[SEP]
[MASK]
!
"
#
$
%
&
'
(
)
*
+
,
-
.
/
0
1
2
3
4
5
6
7
8
9
:
;
<
=
>
?
@
A
B
C
D
E
F
G
H
I
J
K
L
M
N
O
P
Q
R
S
T
U
V
W
X
Y
Z
[
\
]
^
_
`
a
b
c
d
e
f
g
h
i
j
k
l
m
n
o
p
q
r
s
t
u
v
w
x
y
z
{
|
}
~
¡
¢
£
¤
¥
¦
§
¨
©
ª
«
¬
®
¯
°
±
²
³
´
µ
¶
·
¸
¹
º
»
¼
½
¾
¿
À
Á
Â
Ã
Ä
Å
Æ
Ç
È
É
Ê
Ë
Ì
Í
Î
Ï
Ð
Ñ
Ò
Ó
Ô
Õ
Ö
×
Ø
Ù
Ú
Û
Ü
Þ
ß
à
á
â
ã
ä
å
æ
ç
è
é
ê
ë
ì
í
î
ï
ð
ñ
ò
ó
ô
õ
ö
÷
ø
ù
ú
û
ü
ý
þ
ÿ
Ā
ā
ă
ą
ć
ĉ
Č
č
Đ
đ
Ē
ē
ė
ę
ě
ĝ
ğ
Ġ
ġ
ĥ
Ħ
ħ
Ī
ī
İ
ı
Ĳ
ĳ
ĵ
Ĺ
ļ
ľ
Ł
ł
Ń
ń
ņ
ň
ŋ
Ō
ō
Ő
ő
Œ
œ
Ř
ř
Ś
ś
Ş
ş
Š
š
ţ
ť
ū
ŭ
ů
ű
Ų
ų
Ÿ
ź
Ż
ż
Ž
ž
Ə
Ɛ
ƒ
Ɣ
ƙ
ƴ
ǁ
ǂ
ǎ
ǔ
ȁ
ȗ
ș
ț
ȩ
ɑ
ɔ
ɕ
ə
ɛ
ɜ
ɡ
ɣ
ɤ
ɨ
ɪ
ɯ
ʃ
ʌ
ʠ
ʹ
ʻ
ʼ
ʾ
ʿ
˂
˃
ˆ
ˉ
ː
˘
˙
˚
˜
˿
̀
́
̄
̆
̇
̈
̊
̋
̌
̧
̶
ͳ
;
Ά
·
ΐ
Α
Β
Γ
Δ
Ε
Ζ
Η
Θ
Ι
Κ
Λ
Μ
Ν
Ξ
Ο
Π
Ρ
Σ
Τ
Υ
Φ
Χ
Ψ
Ω
ά
έ
ή
ί
α
β
γ
δ
ε
ζ
η
θ
ι
κ
λ
μ
ν
ξ
ο
π
ρ
ς
σ
τ
υ
φ
χ
ψ
ω
ϊ
ό
ύ
ώ
ϕ
Є
А
Б
В
Г
Д
Е
Ж
З
И
Й
К
Л
М
Н
О
П
Р
С
Т
У
Ф
Х
Ц
Ш
Ъ
Ю
Я
а
б
в
г
д
е
ж
з
и
й
к
л
м
н
о
п
р
с
т
у
ф
х
ц
ч
ш
щ
ъ
ы
ь
ю
я
ё
і
ї
֯
ְ
ִ
ֹ
ּ
־
א
ב
ד
ה
ו
ז
ח
ט
י
ל
ם
מ
ן
נ
ס
ע
פ
צ
ר
ש
ת
׳
״
،
أ
إ
ا
ب
ة
ت
ث
ج
ح
خ
د
ذ
ر
ز
س
ش
ص
ض
ط
ظ
ع
غ
ـ
ف
ق
ك
ل
م
ن
ه
و
ى
ي
َ
٠
١
٤
٥
٦
پ
ۛ
ं
आ
उ
क
ग
ज
ड
ण
त
द
न
प
फ
ब
म
य
र
ल
ळ
व
श
स
़
ा
ि
ी
ू
ॉ
ो
्
।
॥
௠
ಟ
ಶ
ಿ
ೆ
್
ก
ค
ง
ต
บ
ผ
ฟ
ม
ร
ล
ศ
ษ
ห
อ
ะ
า
แ
โ
ใ
่
้
์
་
ག
ད
ན
བ
འ
ར
ུ
ྩ
ྭ
ྱ
ᅟ
Ḍ
ḍ
ḗ
Ḥ
ḥ
Ḫ
ṅ
ṇ
ṓ
ṛ
ṣ
ṭ
ṯ
ả
ế
ệ
ổ
ừ
ữ
ἀ
ἄ
ἅ
Ἀ
ἐ
ἔ
ἕ
ἠ
ἡ
ἰ
ἱ
ἴ
ἷ
Ἱ
ὀ
ὁ
ὄ
ὐ
ὑ
ὔ
ὕ
ὖ
ὠ
ὤ
ὲ
ὶ
ὸ
ό
ᾠ
ᾰ
᾽
ῆ
ῖ
ῥ
ῦ
ῶ
ῷ
‐
‑
‒
–
—
―
‖
‗
‘
’
‚
“
”
„
‟
†
‡
•
…
‰
′
″
‹
›
※
⁄
⁰
⁴
⁵
⁶
⁸
⁻
₀
₁
₂
₅
₆
€
℃
№
™
Ω
ⅎ
⅓
⅔
⅛
←
↑
→
↓
↔
↕
↗
↙
↦
↲
↷
⇄
⇆
⇋
⇌
⇐
⇑
⇒
⇓
⇔
⇝
⇨
∅
∆
∏
∑
−
∗
∙
√
∝
∞
∥
∼
≈
≠
≤
≥
≪
≫
≲
⊕
⊖
⊝
⊥
⋅
⎡
⎢
⎣
⎤
⎥
⎦
⏐
①
②
③
─
│
┤
┬
┴
═
║
╪
░
▒
▓
■
□
▪
▲
△
▴
▵
▶
▷
▸
►
▼
▽
▾
◆
◊
○
◎
●
◦
◯
◻
★
☆
☐
☑
☓
♀
♂
♦
♪
♭
♯
⚪
⚫
✓
✔
✕
✠
✧
✴
✶
➀
➁
➔
➙
➝
➞
➡
➢
➤
⟂
⟦
⟧
⟨
⟩
⟶
⟷
⠀
⠩
⠬
⠳
⠺
⥠
⦁
⨁
⩽
⬜
⬠
⬰
⮚
ⱡ
⿬
⿿
、
。
〈
〉
》
「
」
【
】
〔
〕
〖
〗
〞
い
か
き
な
に
も
り
ん
ア
カ
ガ
キ
ギ
コ
ト
ナ
ミ
メ
リ
ル
レ
・
ー
ㅏ
ㅗ
ㅜ
ㆍ
㠀
世
中
之
二
井
亮
人
仙
会
佐
作
佳
依
俣
元
兄
冬
凸
出
切
北
呦
員
唇
夏
大
契
女
委
姫
子
字
学
孫
宇
対
居
山
岡
崎
川
州
巫
帝
平
式
引
弟
德
恐
患
救
文
斑
新
日
明
智
書
本
李
村
桂
水
济
海
湖
滑
漢
猫
玉
现
男
病
症
白
盲
秉
第
策
素
缕
腹
花
草
蕲
蘑
虫
蛇
蟲
行
解
語
语
进
逸
郎
郡
都
金
錯
镜
阿
院
青
須
黃
黄
꙱
ꝉ
ꭕ
구
궱
방
븅
사
선
소
연
학
ﬀ
ﬁ
ﬂ
️
︵
（
）
，
－
：
～
･
ｵ
ﾀ
ﾴ
￼
📞
##a
##t
##u
##r
##o
##l
##x
##i
##c
##n
##ï
##e
##z
##s
##5
##4
##G
##N
##A
##w
##b
##d
##m
##g
##p
##y
##h
##f
##k
##v
##H
##C
##ë
##M
##O
##−
##0
##3
##S
##1
##7
##8
##6
##D
##j
##P
##L
##Y
##R
##E
##Q
##X
##J
##q
##2
##B
##I
##V
##F
##T
##9
##K
##è
##W
##₂
##ö
##™
##≤
##U
##é
##α
##κ
##ε
##υ
##τ
##ι
##ή
##×
##→
##®
##Z
##ı
##±
##µ
##°
##ú
##à
##Â
##Ë
##É
##π
##²
##≥
##∙
##β
##¹
##ê
##⁄
##μ
##á
##ü
##ó
##사
##선
##θ
##ν
##Δ
##ô
##â
##↲
##³
##Ö
##∞
##ñ
##─
##̄
##═
##Λ
##γ
##ø
##č
##í
##î
##ł
##ä
##η
##≈
##ì
##Ó
##ř
##С
##ń
##Å
##ζ
##ž
##В
##ç
##λ
##ý
##Á
##ﬁ
##Ï
##¨
##Î
##å
##↔
##Ã
##▪
##↑
##÷
##ī
##ρ
##③
##℃
##Ĳ
##Ô
##Μ
##ß
##ę
##¬
##ū
##˚
##ż
##©
##δ
##ā
##Ø
##┬
##Β
##º
##│
##ą
##♂
##Π
##´
##Ν
##Α
##↓
##●
##š
##ω
##¯
##σ
##□
##ē
##Ä
##ו
##י
##ã
##ח
##מ
##ן
##о
##е
##К
##М
##Σ
##ś
##Ÿ
##ό
##ς
##û
##İ
##ě
##ć
##½
##ĳ
##£
##⬜
##ò
##Р
##А
##ş
##ă
##Æ
##æ
##€
##∼
##ё
##¥
##ά
##χ
##ο
##˜
##≠
##⇄
##√
##Ü
##ğ
##Ε
##⁻
##₁
##Ω
##ő
##ș
##Φ
##Ê
##ṅ
##ṇ
##ἷ
##←
##ō
##к
##Τ
##ð
##Н
##ė
##̈
##О
##⨁
##ù
##œ
##➔
##▶
##а
##έ
##õ
##Γ
##þ
##▒
##ə
##ṭ
##ل
##ع
##ا
##φ
##ῆ
##ț
##Ι
##л
##и
##б
##р
##т
##н
##я
##ź
##ů
##ा
##र
##्
##ग
##न
##ब
##ू
##♀
##Í
##Κ
##↕
##ľ
##⇌
##ೆ
##ಟ
##್
##ಿ
##┴
##Ł
##х
##с
##у
##ύ
##ȩ
##้
##อ
##ง
##ˆ
##ɛ
##ɔ
##ﬂ
##̇
##ª
##⁴
##►
##Ç
##उ
##प
##ड
##ी
##ɣ
##Þ
##┤
##́
##¼
##◦
##ί
##Т
##▴
##È
##Ρ
##⋅
##ώ
##ň
##⥠
##Ξ
##Ζ
##◯
##ξ
##⇔
##①
##Ù
##Ð
##⇒
##コ
##ー
##ル
##Ì
##■
##و
##ر
##ج
##Ф
##ᅟ
##↦
##△
##ۛ
##ː
##д
##в
##Е
##Ž
##⇋
##ψ
##Ú
##ं
##ज
##đ
##ㆍ
##Η
##▵
##Г
##ế
##ﬀ
##≲
##ф
##○
##г
##ы
##ч
##ъ
##Ñ
##м
##⊥
##ʌ
##➝
##̀
##Χ
##ص
##ي
##ب
##ة
##⿿
##ţ
##з
##ж
##й
##Š
##∆
##▓
##ņ
##≫
##⇆
##⇓
##ὐ
##ї
##स
##व
##त
##¾
##Д
##₅
##₀
##Υ
##⟂
##Ò
##ħ
##Ο
##▸
##ų
##ả
##௠
##¤
##ɜ
##À
##ю
##ǔ
##⟷
##ϊ
##∝
##ن
##ƒ
##～
##⩽
##⟶
##ῖ
##¦
##Ş
##ɑ
##ב
##ṛ
##ﾴ
##¢
##ŋ
##▾
##ح
##م
##د
##⬰
##↷
##に
##な
##ん
##か
##⁸
##Ś
##ÿ
##ῷ
##п
##Ъ
##ṣ
##า
##ใ
##ต
##บ
##ű
##ǎ
##ʿ
##✠
##़
##И
##ť
##١
##٥
##♭
##ש
##ה
##◊
##ὖ
##म
##ण
##ش
##⬠
##Č
##ه
##★
##✓
##レ
##ĉ
##➞
##Х
##Đ
##⊕
##⊝
##Û
##ֹ
##ز
##П
##ϕ
##ὀ
##ь
##リ
##メ
##カ
##⇑
##щ
##ד
##ם
##️
##ὲ
##Л
##ʾ
##ḍ
##ك
##Ω
##ό
##נ
##ס
##ц
##Ō
##학
##연
##구
##소
##ῦ
##ت
##ḥ
##Ā
##⊖
##ʹ
##ל
##ר
##ז
##☓
##Ż
##س
##द
##ט
##ȗ
##ִ
##ш
##ȁ
##פ
##א
##ἴ
##♦
##ผ
##ม
##โ
##ค
##ล
##ɨ
##☆
##░
##ệ
##ŭ
##ナ
##ト
##ミ
##ア
##ῶ
##✶
##Б
##◻
##फ
##║
##ག
##ུ
##ན
##ὸ
##ㅜ
##ḗ
##ͳ
##Ц
##➙
##№
##ΐ
##✴
##∗
##Ά
##ो
##श
##ǁ
##̌
##ʼ
##Θ
##ע
##ـ
##ฟ
##╪
##븅
##ְ
##ּ
##ת
##Я
##⚫
##і
##Ĺ
##ļ
##ɯ
##ἰ
##Ī
##٤
##②
##ὶ
##่
##ก
##ษ
##ร
##์
##き
##も
##り
##⁵
##ἠ
##क
##ɡ
##⇝
##བ
##￼
##ữ
##ὔ
##˙
##➤
##Õ
##ᾰ
##ギ
##◎
##ṓ
##✕
##แ
##ɤ
##➢
##ळ
##Ų
##⠀
##⿬
##˿
##٦
##ĝ
##ἐ
##ｵ
##֯
##Ш
##ि
##ガ
##ɕ
##̧
##ʠ
##ổ
##↙
##˘
##ྩ
##ྭ
##ྱ
##ར
##ॉ
##ะ
##ﾀ
##₆
##ʃ
##ừ
##ق
##ى
##⁶
##¸
##キ
##∏
##en
##er
##an
##ie
##in
##el
##or
##at
##et
de
##ch
##ij
van
##st
##al
##on
##ar
##ing
en
##de
##it
##is
ge
in
##ro
##oor
##den
##ol
##ge
##ct
##re
ver
##der
een
met
##le
be
##om
het
##te
##as
##atie
##id
##aar
##ra
##ijk
##oe
##isch
op
##di
##ul
##gen
##ten
##es
##eer
voor
on
##am
##ic
##ale
##og
##ot
##cht
##ent
##ische
te
##il
##ur
##us
aan
##ijn
##ver
##sch
##ig
##ken
##em
st
is
wer
##os
##elijk
De
##un
##la
##um
##op
al
re
##ctie
##ven
##ine
##he
##ee
##del
##len
bij
om
##ik
die
##ve
##eren
wor
##ati
##ru
an
##ag
dat
##ingen
##ze
of
zijn
##ele
##if
door
##orm
##oc
##ste
##aal
##ën
onder
##im
##sp
##sen
nie
##ap
pro
uit
con
##ab
##ter
##ak
werd
##heid
##ep
##ite
##ai
##ut
als
##per
##ss
##iteit
geen
niet
##eg
##dt
waar
##du
geb
##eerd
##iek
##se
af
##ang
##ho
tot
##ant
##uw
##ect
##ist
##atiën
##and
##ige
##olog
over
##ff
##han
##eld
sp
##erd
##aat
##oed
##ok
##ri
##act
##ec
worden
##ult
na
##omen
##ft
##aire
patiën
##ion
werden
per
ont
In
wordt
##ad
##ac
##een
##ier
was
##ud
res
##ker
##iv
##ide
##ies
gro
##icht
##eerde
##nen
er
##elijke
##ast
##ich
##wij
##val
##of
##ran
10
ex
##ardi
deze
##ed
su
bl
onderz
##oon
##art
##men
##uur
##aan
gen
##kt
zo
di
##ellen
##aten
20
##ific
##ress
##ort
##yp
le
##ell
##ere
##AT
kan
##ym
##vol
##handel
##ON
##ron
##tra
##ER
we
##ings
##ase
##ind
##ose
##ir
##dere
##cl
##vo
##ruik
##omp
##aties
toe
##chter
##ectie
##ien
eff
Het
ch
Er
##dig
##rij
versch
##be
gem
##ers
##tro
##ys
##we
##ass
##od
##onder
##ologie
##ost
Con
##inder
##iddel
##aren
ho
##wee
##ne
##entie
mg
behandel
vol
##ijd
##ame
##yl
onderzoe
he
##ip
gebruik
ne
##eeft
patiënten
##lu
##erde
##bb
##aak
##ende
##ign
##lijk
ant
##ater
##illen
im
##ib
##yn
inter
##sie
##her
me
##lo
stud
naar
##SO
inf
##me
##ia
##oren
verb
##ussen
##pen
sch
##af
PER
##ond
maar
##ox
norm
##lin
geï
##ept
##SOON
PERSOON
bet
verg
##sel
ei
##usie
##qu
##iden
##mer
##ulaire
##entr
##geven
dan
##king
her
ter
lin
sign
##onen
##ander
verm
##UM
verschillen
##ressie
##ering
bel
##als
ook
##amen
mo
##uid
##ke
##ijden
##baar
##kel
##ië
##zen
##ce
act
eer
##iviteit
##reven
waren
##bben
##gel
pre
##rie
min
##actie
kun
tussen
##oen
##pt
##AR
ged
##con
##rom
##dic
hebben
gez
ontw
besch
##NA
##pl
Cardi
##ath
uitge
##age
effect
12
Geen
##oven
hy
ar
##unctie
##atieve
##laat
##wel
DAT
comp
beh
An
##yt
onderzoek
DATUM
##kken
##uis
##eel
##ens
##pro
##rans
##ive
Deze
##wit
Een
##ann
verho
##ogen
meer
##are
twee
kunnen
bev
##ieden
##ger
We
heeft
##ium
##ren
patiënt
CT
no
##lag
ac
##itie
result
##ation
dit
##oel
rec
belang
##rijk
##trole
##duc
alle
dag
##zig
ger
##ese
verschillende
##alen
cellen
verander
##dien
##io
ma
Al
or
##IN
##genomen
behandeling
##00
##gevens
##ces
bloed
studie
##ulp
ontwik
##ate
##ma
##agn
##aam
vergelijk
##ving
pol
eiwit
##yst
##dige
##onden
best
##ment
##ute
##alis
sub
signific
##est
Cardiologie
##yse
kle
##th
hart
linker
##yc
##schap
##wer
Ver
11
##icro
##chten
##ieke
##pressie
wat
##herap
##ante
verhoog
##dro
##ijdens
at
reg
##iële
##oom
ze
mm
21
cor
had
##ui
pl
##ong
##ogra
##ub
##arm
vro
resultaten
##ivea
##ologische
##ert
##ill
bas
geïn
##ente
##ader
verminder
##ek
andere
On
##eten
rechter
am
##middel
15
belangrijk
verk
anal
##org
##sult
gebruikt
vert
##orst
zonder
19
##EN
nieuw
mog
Om
ab
ontwikkel
##gest
##geb
##sc
##clusie
##erg
##vl
##uc
##woor
##iekte
##ug
##elf
##fie
##adi
##ruct
hoe
##eter
hun
tijdens
##acht
##atten
##ef
trans
##schreven
##erende
##dra
th
man
##van
jaar
##dent
bin
##uro
201
##wezig
zoals
kw
##ype
##name
pijn
##dru
##tie
##let
activiteit
zich
spec
##agen
##heden
klin
##nel
##ulatie
##IE
behulp
##iale
verbet
##bare
##air
co
mee
##ard
##kelijk
##elling
uur
toon
##vorm
resp
##volg
sc
##valu
##anis
goed
13
St
##dat
micro
##ob
##uren
##lex
imm
col
14
##uden
##dem
el
##iedenis
controle
##ure
##ram
##aakt
##vallen
##eleid
normale
##gro
##itis
##etische
functie
##oorz
##IS
##elt
rem
bi
par
##iën
##ction
ele
##eratie
##ateg
##chts
beg
##olec
##eert
la
lever
##dure
onge
##slag
##cedure
##kend
bep
##fer
test
long
Dit
##AD
borst
##hal
30
vorm
wee
##TE
groep
ml
##ting
cardi
huid
##zien
ap
##kom
mon
Pro
beoor
##kte
##isic
sug
##ari
##oten
##centr
omschreven
CAR
##gende
##dentific
##deren
##ule
##ocht
##schiedenis
25
syn
ster
##met
bere
nivea
cel
##ositie
##yste
nieuwe
intra
##laats
aanwezig
##herapie
hyper
waargenomen
##uit
##voerd
post
mogelijk
##indingen
Bij
##iet
##IC
tijd
tegen
##ator
##ieerd
sugger
##igheid
normaal
ziekte
##ster
##elen
##atische
Th
##ablet
zw
toen
hyp
echter
vrouw
##orie
ep
ben
50
Conclusie
uitgevoerd
##fsel
##ductie
hem
com
##bin
ste
aant
##cellen
##bij
gew
##emie
##gens
basis
##regen
lich
##hy
gegevens
##last
##ude
##rim
gene
vertoon
##atief
tra
##woord
16
##one
##jes
##nis
##ach
eerste
##assen
##ax
##mon
##get
##cin
##stelling
##wijs
##ks
##ING
##stig
##ire
CO
veroorz
##voel
tum
risic
##co
gev
binnen
geass
##atuur
zowel
reactie
##asc
ad
gep
##els
100
ble
Consult
##osf
##ema
##deling
hoog
##emb
Met
art
rol
##ieken
verwij
##emen
veranderingen
##chn
dos
betro
##rit
klinische
dis
##AM
40
##oede
18
Ant
expressie
end
##inale
II
##oï
##rag
hoge
lang
geassoc
##wijl
specif
##och
##stige
##spro
metho
##voor
nu
veel
##rek
ro
##uk
##app
##wijk
positie
##rium
24
##amil
LV
ser
##unction
drie
PC
verhoogde
ges
doel
syst
cm
and
significant
struct
snel
##ymf
Over
##form
rel
middel
gevolg
##komen
vergelijking
##lijke
effecten
Ch
diagn
stab
##vat
##mat
Ex
wij
##iver
##bre
gest
Na
elekt
##schijn
##urende
##AL
sym
##sus
groot
werk
##ofd
##lachten
##inding
samen
##emische
##ransp
##yten
##racht
##ont
##dicatie
##waar
cont
type
studies
##CH
ern
##lic
##vul
via
##uze
terwijl
boven
dagen
meest
Ne
##ijnen
##ysteem
##ome
##all
gl
##gaan
##gem
##rel
sle
##raal
Ge
evalu
200
##ied
##ust
##atus
Be
##quentie
##oort
model
ten
bewijs
##elden
mech
##weg
##elde
pat
Me
aort
nog
plaats
##alc
##rijving
bre
##MP
##ith
##middelen
infectie
int
analyse
aantal
Boven
Aan
##kende
##ategorie
Op
aanget
##groep
##open
##eeftijd
neuro
gek
gra
##uizen
##anc
##und
##ore
##duct
neg
17
mens
##zuur
dif
##schijnlijk
##kan
IN
##ucle
molec
onderste
ob
immun
deel
##aterale
##erv
significante
##ica
##aliteit
kl
##druk
##ES
mil
##ble
ass
##oog
EC
##ID
##oek
gevoel
radi
IC
geassocieerd
##EG
ken
##isatie
bil
##ane
##gang
##xim
##acter
##do
##ycl
onderzoeken
##geschiedenis
##los
lymf
##IL
weefsel
hog
##ming
haar
toege
##vla
##oot
##ATIE
anti
gel
recept
##ets
##ple
##low
##gesteld
Re
beper
##atige
##ikel
duid
##ou
hij
alleen
nodig
##ders
kleine
##rine
waarbij
##na
##iel
##kelijke
to
##actoren
get
00
opt
##ons
##iciën
##ografie
extra
genees
DNA
Sp
##cent
minder
##min
##ïn
##urg
##schrijving
Bovendien
beschreven
##EF
##ess
##anneer
##ED
gedurende
onderzocht
##CT
betrokken
gede
sec
##actor
daar
grote
##amine
##ood
ontwikkeling
hel
vrij
##iss
##stof
##opt
##comp
##rop
cyt
Antwoord
##eratieve
ech
leeftijd
##perim
IV
##stand
Categorie
##vel
Omschrijving
##uele
Thema
Po
geïnduc
##pervla
##room
##AS
##ctieve
##keur
proces
groe
##oond
##sten
##rische
acute
##rin
##RI
gezien
poten
##gegevens
prog
verz
hersen
org
kg
verkregen
##orte
##versie
moe
##raag
men
concentr
##sent
##ov
afwijk
dru
Dat
##zicht
##zet
##tensie
##amin
nier
vit
aand
em
##ondheid
se
specifieke
for
##aanden
risico
##iding
##vent
##opro
my
##kl
##luc
##functie
belangrijke
gemiddel
##ret
##houden
tumor
##stru
Voor
##ronische
##ieren
maanden
##assa
weken
##AB
blij
##delen
##anal
##mg
vari
leven
zorg
zeer
volle
eigen
procedure
##LO
geh
Dis
##up
zelf
waarschijnlijk
##spre
##iaal
##ocyten
60
##baarheid
##én
contra
##abol
##par
vast
##ool
##fin
PO
##vloed
##aard
##opath
car
##AP
##iliteit
uw
##anten
##veer
bepaal
##ph
bevindingen
cons
##BC
complex
##orf
aangetoond
##raak
sympt
function
lijk
CD
sl
##ffen
muizen
oor
##ucht
kinder
ang
huidige
ret
lage
##press
up
cell
neur
Tablet
##ïne
##elat
##kun
techn
gecon
##ijf
mid
##oorten
beide
##hankelijk
##MM
##ene
enz
##nie
eerder
ple
det
##oornis
et
##omy
aanzien
##cur
PR
the
##vorming
##RNA
verminderde
##antie
dosis
sten
aange
##ging
tonen
##ition
stim
##anden
prim
mut
##iot
hadden
##ptie
##rof
hoofd
voorkomen
mult
22
vir
klachten
##opp
experim
##iekenh
voed
ratten
hydro
gevallen
ongeveer
wel
##end
as
##amelijk
mechanis
##schappen
med
Nee
##ieën
Hij
even
80
##amilie
##vang
beeld
##cept
No
##sche
respectie
Datum
aut
##str
##mo
un
##oth
pers
gebied
##rect
toename
Ab
medi
één
weer
##ych
water
##pass
##aling
som
wanneer
verw
Di
##sters
##iatie
##aken
##esie
identific
aanwezigheid
RR
##OC
05
##kele
##kers
STE
verhoogd
##ity
niveaus
lt
beïn
kenmer
interactie
fol
menselijke
voorgeschiedenis
##unt
##ical
##irurg
DA
##ieerde
terug
suggereren
##PM
##kingen
##iekten
afg
fosf
##aag
lucht
##ouw
gezondheid
##las
respectiev
##geen
richt
dist
##neum
##leg
##aatste
##omie
darm
respectievelijk
dra
lig
huis
##jectie
moet
##omet
ziekenh
licht
ventr
##fect
##ail
bloot
##wege
##ode
conversie
niveau
enkele
Ze
##rekking
elk
hier
##ratie
opname
waaronder
eiwitten
lichaam
fys
##sych
##enten
toonde
combin
goede
##cri
oppervla
##vloe
gemiddelde
PM
lag
geïnduceerde
##hankelijke
methode
voorsp
wil
##zelf
90
##asculaire
##sproken
inform
gedi
Ad
##ynam
verl
##rem
##merkt
##eut
diagnose
ernstige
iets
##anning
##sul
flu
##deeld
##no
Daar
rechts
laag
##YY
omge
zou
coron
##OR
##wassen
##zoek
##door
##hyl
plas
lab
gevonden
isch
##CA
tem
##br
impl
##opie
with
Hier
##reat
proble
##cell
##OS
opge
##teerd
##fa
##lacht
##lep
vis
ECG
ox
chronische
gec
##ogene
stam
geïdentific
lip
staat
str
##iele
kanker
vl
##lant
##kanker
geë
bereik
##vullen
bleek
mit
##ject
##AC
##orax
symptomen
beve
operatie
23
behandeld
vier
zal
##ins
##romb
kinderen
##alcium
ziekenhuis
gebas
aorta
##requentie
##lan
##Hg
##TI
conversiegegevens
##ade
##amn
pla
Hoe
vaak
##eerden
CV
##volgens
overeen
##ix
veroorzaakt
asp
##activiteit
##elect
##erol
bekend
nucle
##beeld
##zel
inc
##wijz
##mm
oplos
##veel
soorten
At
PT
##az
##stel
groter
##eft
##sing
geneesmiddelen
chrom
onze
regul
zien
bot
pneum
##GF
nauw
##ichte
do
##embra
##uik
##ay
BLO
onth
##iken
##MMING
##reg
##houd
##oïde
totale
##stan
##ilich
AT
rapp
##amnese
##olische
##lat
Norm
geven
##utie
##lig
##ijst
##heel
##ines
hep
##ILY
##lijn
bestaan
ST
abd
35
##tern
meerdere
transp
var
insp
fen
betrekking
##onde
pul
gemeten
indi
receptor
volwassen
##gemeen
##eleken
geïdentificeerd
##av
aandoen
##eur
##vou
28
##AG
##eds
ou
alfa
##opathie
45
bacter
32
##sor
01
DAILY
##oloog
##ding
##achte
ru
##abet
##aden
##ventie
##eks
##ferent
##inus
verder
verband
##digheden
##ede
##ibr
duidelijk
lo
omdat
therapie
##kenen
pt
contrast
26
70
belangrijkste
AP
##sol
oraal
vrouwen
Am
##cler
STEMMING
##ocardi
genen
vo
geval
##arige
##ial
aanzienlijk
all
Ac
##ex
elke
##zelfde
ve
antilich
tr
gedrag
lijkt
activer
metabol
##vid
##hol
HC
##OD
##dragen
evaluatie
##10
##onale
##iciteit
waardoor
##arct
##igen
informatie
##ief
##luit
##tig
vooraf
gesch
transcri
##iode
kenmerken
effectie
##amet
##osp
Ca
##iz
HT
##structie
beschik
vanwege
line
hoeveel
En
##these
onthul
status
##ulair
RV
##fusie
MRI
verwijder
##herapeut
##wicht
##ronen
##verander
##iseerd
##ores
groepen
##nem
##inds
du
##je
Hoewel
vertoonden
##itu
Res
Van
95
afwijkingen
##atine
jarige
CH
enzym
medic
##UR
Patiën
##komst
prote
adem
suc
##droom
##O2
##embraan
AL
systeem
##iter
AD
##icale
maken
fase
gast
##offen
##AN
ondersteun
lok
##oornissen
gluc
nee
hist
##amer
##zaam
positieve
##inu
##isme
gele
##otische
overle
##uun
##ograf
medische
moleculaire
##vas
eigenschappen
stabiel
##lagader
massa
verst
suggereert
val
##ologisch
##ated
##abetes
vloe
zij
##zorg
##otor
29
IL
##behandel
doc
##EL
##urale
AS
bepalen
stress
##test
combinatie
links
gal
##ling
gelijk
voort
correl
##lob
##ular
##inf
vere
##oire
toonden
##lagen
direct
##odi
tablet
bla
verd
##igh
##rose
loc
bron
leid
75
##zonder
##iegel
gerelat
AF
cl
##arts
##osc
naam
ag
##erden
CR
immuun
##maal
mar
##raat
cent
pop
psych
##atheter
27
moeten
##iklin
net
foc
##kw
achter
minu
verbeteren
##gt
primaire
##teg
##inig
present
bevestig
chirurg
##tr
mmHg
##quent
Onder
toepass
##kin
##tens
hypertensie
chem
polym
##pers
maxim
##cursus
##reen
grootte
blijft
##MI
verandering
nan
##struct
Hy
amin
analys
hogere
Procedure
LOC
respons
Pt
##ary
##UIS
##itme
vertoonde
laatste
##gemen
Le
##standigheden
dus
##bel
##atient
hal
##over
##ragen
ID
vitro
##erend
##laag
RD
##ulte
##nieuw
uitgebre
##KEN
##rip
cir
centr
individ
druk
##gemene
familie
serum
31
tekenen
##cinoom
aanwijz
Samen
##deel
vergeleken
Af
##arak
##aad
##istent
##asen
##idatie
Ges
##gte
##voe
##arakter
##etten
datum
matige
ZIE
mmol
LOCATIE
##imale
##ior
waarvoor
##pression
Niet
LE
36
vergelijkbaar
verschil
MCH
##HUIS
ZIEKEN
ZIEKENHUIS
Ph
gedet
##tieel
##aps
##iciëntie
hoger
recente
##genen
Uit
BP
path
##wn
##mige
bepaald
HR
##LE
##rond
##centage
kon
eerdere
##vatting
besproken
vormen
##iculaire
##uderen
##pijn
mat
structuur
afhankelijk
non
hand
Tot
different
ker
##dag
Onze
##IT
mogelijke
atrium
##gene
##digen
##model
LAD
buik
geschiedenis
gemeen
volledig
oede
##rijven
##richt
##ital
ons
cycl
##inden
productie
##schapp
##ild
beoordeeld
sterk
begin
##regel
vervolgens
##chte
benader
ruim
##gaande
##itieve
open
tweede
opgenomen
verte
klein
bilaterale
artikel
##rief
Name
Sig
Pre
stand
##ice
##ombin
zwang
##rol
resulte
negatieve
##pleeg
sele
factoren
##ergie
algemeen
##12
##oma
##oplas
evenals
negatief
##ime
##ueel
33
##ocyt
RNA
MC
##loten
vet
##esies
fib
##alisatie
succes
##menten
steeds
##ziekte
chol
##ionele
week
follow
##lyc
Disp
##aker
##udeerd
##otte
##order
##ory
##ly
##UL
##weging
##otherapie
bes
kre
maag
##eptide
signaal
potent
geleid
tromb
gt
##omein
lichte
slechts
panc
ervan
PCI
dagelijk
##vers
##rakt
##ain
aanwijzingen
##IV
term
zuur
concentratie
kort
##atrium
functionele
02
Per
organis
##iseerde
kin
##ange
##orator
regel
##ICATIE
##ans
stimul
##illig
contact
AC
He
binding
laten
invloed
37
echo
##ps
vermogen
therapeut
zen
##ichten
ICD
##genwoor
zicht
MS
##wijzig
iv
gewicht
hom
Als
bijn
##aand
prot
mel
kreeg
##ege
##ibrill
##ura
sh
mater
antib
##wegen
IND
##peratuur
##uff
super
actieve
urine
complic
MD
##iologische
##roon
kwant
##èt
##mie
opnieuw
##atal
hoewel
RA
##lif
verbetering
##icatie
##ysp
Beleid
##ero
##land
##iew
##pre
##activ
spier
##eltjes
kom
##analys
oog
viv
##keld
snelheid
ul
##gd
hulp
aanbe
##omische
midden
##ET
regio
55
organ
gevoeligheid
activering
glyc
meeste
##ocard
rest
##falen
##norm
nood
rapport
##ume
mal
hemat
##pp
zenuw
rele
nut
##orac
progressie
gemed
##oment
mechanismen
gegeven
gebru
199
INDICATIE
bieden
##omin
oedeem
##loed
##laire
##past
blootstelling
##reden
intact
voorn
experiment
hum
fot
##ameters
geëvalu
##aste
minuten
beïnvloe
kracht
vivo
##lam
Ech
Anamnese
Pol
name
##cellulaire
##trol
genetische
beoordelen
##gram
gemaakt
##ider
Cor
ischemie
##PO
bèt
inst
liter
dim
vastgesteld
48
beperkt
##spraak
groei
##cc
potentieel
ja
beoordeling
levens
stroom
##aalde
##ating
bekken
arter
##esterol
##ytische
fra
dieren
##afhankelijke
##oorts
##centie
impression
##ongen
##iteiten
##voudige
geëvalueerd
##pak
waarde
produc
##gra
poly
route
aden
##car
##ociale
effusie
##diening
insul
##idine
##rale
##istof
34
##vullend
acht
##dan
##aring
diagnost
moment
##lor
chromos
continu
oste
morf
mis
periode
ademhal
##eling
nauwkeur
dicht
Lab
##oef
calcium
gereg
vroege
##vatten
##armac
gevolgd
##olom
afge
factor
dezelfde
Cl
bio
##eu
##zij
ontwikkeld
##enen
##orb
patho
ax
relatie
volgende
kal
mRNA
sla
syndroom
waarvan
AM
ontde
spect
mate
zwanger
frequentie
Hyper
implant
leiden
##vis
proef
##dracht
virus
##iologie
sinds
##ateraal
verzam
perif
sommige
actie
##ae
duur
##ock
vorming
gericht
##plaat
##JD
bloeddruk
isol
vrije
Hart
##TR
##cel
gezondheids
##halte
beter
##itte
hersenen
geïsol
hoeveelheid
versus
verdere
98
mac
amino
##ziekten
##atisch
##ace
concentraties
##ificatie
totaal
toont
##ellingen
wand
##klier
cardiale
##urele
##zing
##aakte
##tex
identificeren
##drukt
form
##amp
mod
product
##aliseerde
SP
##ogram
AB
vertegenwoor
UR
verminderen
Tijd
##accin
##doende
reacties
mensen
tox
volgens
##nivea
RDW
##ros
##ulaties
centrale
gedetect
##serv
bed
meestal
vijf
##onist
mann
##oem
##orgen
##tale
##ance
seg
recht
oorz
gedeelt
verkl
membraan
verminderd
stellen
antibiot
bew
kwaliteit
weinig
bra
pac
LEEF
##20
##operatieve
##itor
##ieve
bespre
99
proxim
##tijd
##oler
verbeterde
##heer
lagere
##volle
##oord
middelen
##asp
Overzicht
##TIJD
disc
##ument
##ina
voornamelijk
gebruiken
Alle
LEEFTIJD
mG
ontste
problemen
##analyse
secund
##spec
All
##uleerd
bevatten
##duid
##stoornissen
Patiënt
##illigram
##hydro
##ocol
##imeter
bescher
##istentie
##iging
##pe
##ergelijke
ext
milligram
stop
prest
biologische
mond
##BP
hepat
##opische
##log
pH
klinisch
65
volledige
laesies
Hist
medicatie
houden
gepre
waarden
##onie
assoc
snelle
methoden
##emt
##cohol
##akkelijk
Co
##concentr
##orale
Sc
Medic
induc
colleg
##ril
Normale
##verl
##itale
cellulaire
COMP
##wezen
MI
##scheiden
##miss
gedetecteerd
Ig
##ree
NS
Un
inge
000
##uiten
##apt
##engte
geken
##behandeling
beelden
500
38
omstandigheden
Klin
gekenmerkt
Zo
vereist
##usies
enkel
dL
NE
##ameter
fo
##stem
pulmon
SR
##achting
##kings
sinus
zetten
##fibrill
##ors
##II
##ight
cult
PA
##tij
##gelopen
AV
gaat
koorts
##ifte
ED
##gestelde
##otox
##dende
41
##ARIS
imp
diabetes
gecontrole
fil
toediening
bloe
bekende
injectie
LD
mechanisme
sens
manier
Vers
acet
Reden
potentiële
CK
##adem
mGy
##ochten
evalueren
vers
Samenvatting
komen
##ycard
##cul
##personen
waarin
remming
verster
Gen
##ycine
karakter
standaard
##quenties
COMPARIS
relev
cort
algemene
##iëren
##rijgen
##view
##stre
##otype
CP
bèta
##wand
Brief
stenose
NEG
##schappelijke
prakt
gepresen
der
##matig
bevat
##irus
##adig
##cum
remmen
MR
##dex
blok
##resp
Rec
zwangerschap
link
##rist
duidelijke
##ieure
##les
wervel
##scopie
positief
##ulf
gebaseerde
pancre
##teel
##fra
rug
##lantatie
##spron
COMPARISON
literatuur
mes
##aart
monsters
III
leidt
##pol
gedilat
rust
methyl
##oratorium
WBC
##lol
##riale
spra
##staan
##danks
gebieden
blijven
PRN
let
vergro
##to
bestaande
gemeld
##nn
subst
cere
##put
##ilijk
dysp
##oplast
Diagn
chemische
vocht
distale
97
##ning
##osine
##euze
##uut
ziekten
##werking
##PS
variab
oude
PD
BLOED
##inine
##oprote
plasm
vasculaire
korte
##etisch
fem
03
control
##lijden
apopt
##mission
150
##int
##oden
arts
##aven
transcriptie
##umb
mannen
opz
O2
##pel
abnorm
##ile
therapeutische
gepro
tri
##oper
BID
keer
domein
invas
Ar
##11
appar
specifiek
##gebruik
complicaties
##bere
##laatst
##leden
erv
vragen
rond
screen
##weefsel
maakt
##wijzigd
veroorzaken
verh
##issie
##zame
##oxide
##ieten
controles
##atale
detectie
SC
gehad
sche
##ullen
##uleerde
energie
Im
##roc
inflam
afwezig
inspanning
##otyp
dynam
##YYYY
##ospital
vervolg
##ografische
##lut
gener
##ric
##inter
##bla
poliklin
laesie
Aanvullend
dil
centimeter
onbe
##verlies
##reactie
##antwoord
afgelopen
##spectie
##nemers
geanalys
##matige
##ulen
42
##datum
##vangen
afname
code
##gs
bestudeerd
TI
##ouwd
##ionale
vooral
##asis
Hg
##LP
##been
##uter
inciden
##arge
##kundige
beïnvloed
weefsels
lange
##uen
##mers
red
##aald
neuronen
##bi
geschik
##osis
const
##ts
dergelijke
##MA
graden
peric
##able
##ochond
ontwikkelen
sim
thuis
soort
##EH
##stud
##SI
kool
gerelateerd
consistent
zuurstof
##DI
##indt
omvatten
##stroom
oppervlakte
##onent
ivm
pleura
herh
##mol
diff
activiteiten
##iedt
##tel
dd
##mun
depressie
kleur
verspre
oorspron
Comp
sup
##ry
OR
Door
ER
##osition
##eringe
##diend
weten
functies
##daag
been
integ
##yr
geplaatst
leuk
vertonen
##au
Medicatie
##duceerd
detect
43
EF
Keu
##UE
##ogn
onop
##staat
##zelijst
Keuzelijst
##aliseerd
out
verwijderd
##oprolol
grond
Decursus
biedt
##atist
BS
##ral
##lect
ess
gepresenteerd
##uig
##aanse
##rengen
##lok
##onderzoek
veil
aandoeningen
buiten
onderzochten
##unten
##liferatie
gebaseerd
S1
antilichamen
patient
##afhankelijk
angi
##NP
##chol
Neuro
nemen
jaren
beeldvorming
PS
##line
##uiver
##oph
##ift
systemen
##othorax
##50
structuren
verbindingen
##metho
verlies
tumoren
##ili
ritme
DD
##generatieve
natuur
dec
strateg
##atio
colla
huisarts
##ENT
experimentele
beheer
##groepen
##ycardie
situ
toepassing
##alp
##sloten
##kant
Abd
##raz
##res
##bol
##kening
zes
dubb
gaan
##dition
overleving
Ten
tach
##cip
zeld
opzichte
##oster
proefpersonen
geanalyseerd
##oeder
##NI
dieet
Ass
pancreas
##CC
omvat
last
dys
Hospital
beta
beïnvloeden
HIV
zichtbaar
laterale
verpleeg
##kking
Qu
##tenis
thorac
beschikbaar
##INE
lijn
##lang
so
##OM
stadi
##osit
##eed
39
##slagen
##eria
fe
##vallend
Com
##bo
##klep
aandoening
Inter
##lav
toestand
##olf
04
##ritme
ATP
##orpen
insuline
##ody
voorkomende
effectief
oppervlak
stof
herst
noodz
onthulde
uitgebreide
##erp
##amma
##rib
##fibrilleren
spelen
focale
##13
moeilijk
hele
##werk
verbeterd
##formatie
kru
##OP
magn
Te
##orrel
toel
mechan
##US
##gelijk
##latie
lokale
##gener
systolische
##indings
dro
##apsule
##urs
##issel
##emaker
neut
##dd
gezicht
##gewicht
HS
##ikkel
drain
katheter
mi
##lij
plasma
techniek
bijwer
katal
##oi
##ms
##che
beleid
afgifte
##trans
Twee
defin
kno
PV
retro
##herm
grotere
44
asc
One
##ichting
plaat
receptoren
Plan
##omenteel
CC
wereld
##essment
##itatie
##opsie
##sorptie
##xy
bepaalde
Date
##uiden
##nelheid
bereikt
CS
aspect
##kolom
vaat
BLOOD
96
##onenten
RCA
##asse
##EM
Resp
temperatuur
##ous
##consult
Daarom
AR
interne
sprake
metast
alcohol
lichaams
##isie
recid
scan
SV
##liggende
Allerg
pneumothorax
##waarden
acuut
##uiste
sn
correlatie
##14
score
TN
##EP
##ofactoren
##verb
toegepast
begon
plan
ein
##dur
richtlijn
##nauw
vene
speel
##SH
Mon
farmac
komt
toegediend
cru
##fic
##product
afhankelijke
DM
##spiegel
abdomen
lager
##renzen
120
herstel
elektro
##arine
Radi
##reerd
delen
blaas
vaccin
##ylering
vertra
##ventr
longen
bijna
46
bevestigd
structurele
##medi
##LA
heter
LVEF
planten
intraven
reeks
Dr
infarct
##ogeen
pleurale
gebeur
##fosf
##ynth
don
##sslagader
NO
CAB
kern
ca
passen
activ
mitochond
beschrijven
##oeken
##aklep
linkse
gemedieerde
parameters
voedings
volume
vergelijkbare
opgemerkt
##komstige
antilichaam
max
##inen
##cycl
##ferentie
prof
geeft
maximale
##RS
##oging
##icul
##plaats
vanaf
##alyse
init
##PD
sept
09
zwak
CABG
##ement
##fiel
signal
kregen
##gele
##pat
##ogenese
temp
glucose
##ymen
cap
##sluit
##iseren
##ometrie
Vol
##bul
maat
Eer
slechte
stap
daarom
Pl
##atoren
sequentie
bleef
uitgedrukt
##asting
##man
dik
experimenten
##bes
##gebracht
Ja
zie
vloeistof
##mentatie
52
bovenste
##oglob
betrouw
Car
TR
geactiv
blijk
##operatie
typ
Reg
##arc
Ho
interventie
enige
progn
stabiele
##oïden
Lich
##mit
##stemming
later
dagelijks
secret
bo
relatief
##aardige
##micro
Act
interacties
NI
##ben
gezonde
statist
aandacht
Cont
moeder
prestaties
onverander
##gaand
verhogen
##afwijk
fluores
modellen
poster
ij
evol
uite
breed
slagader
Status
##onine
minim
##que
##merg
##voorbeeld
Ref
##zaamheid
Overige
wervelkolom
vroeg
##fen
VS
##cluderen
##wak
##kunde
##reng
56
epit
antibiotica
47
Disch
##li
##pm
##loc
perifere
implantatie
hartfalen
Tijdens
verantwoord
getest
06
ec
##aardig
regulatie
##lit
breuk
##itatieve
##ór
##infarct
CAG
zelfs
##rijpen
##zijn
juiste
exp
qu
##óór
mass
##geboren
##oscler
##orten
voedsel
##uken
##Eq
cruc
Par
##rum
##zer
##dering
lengte
synth
processen
altern
part
##cus
08
aanpak
49
differentiatie
##schillen
vermindering
HD
##sis
epis
HTX
##emat
selectie
RBC
infer
##ënt
73
bestaat
72
##inatie
07
personen
##odynam
speelt
beschouwd
HP
wijzen
C5
##vast
mannelijke
85
##bry
##weest
##langs
##zuren
chirurgische
helpen
##productie
ast
##osten
hol
mEq
toelating
geweest
letsel
Andere
##lip
probleem
thorax
##ffect
voorspellen
##ritis
milt
stimulatie
maand
cogn
PE
medicijnen
praktijk
natrium
percentage
##ars
##kelet
subc
##gezet
Hct
##tende
##adru
vandaag
vor
Zij
54
inflammat
##riteria
individuele
coronair
peptide
sociale
scler
##aliseren
##volgende
##gor
synthese
##LC
PCR
vertoont
zachte
veroorzaakte
directe
log
grenzen
stoffen
biom
##path
cyst
##ialen
##duidelijk
##houdende
##dis
dun
##ostic
top
verlaag
CI
##agonist
##kens
bez
gelijktij
##icus
vraag
tub
##iat
gedefin
voorafgaande
complexe
##istente
##itus
gedeeltelijk
ventrikel
##lijnen
eerst
jon
milde
oxid
58
##hesie
Diagnose
##amide
geïsoleerd
##systeem
History
bilateraal
##gde
##oop
##ei
##ology
##elingen
##illaire
bijvoorbeeld
meet
stammen
##oh
paar
##nemen
vóór
Lin
ather
##chym
##volen
benadering
sm
aortaklep
##gebied
##utane
dem
slecht
myocard
resulteerde
##klachten
ernstig
Ter
anter
las
afwezigheid
voldoende
53
incidentie
Bloed
bronch
##nia
Cardiale
##use
Discharge
endot
Fol
lact
CX
Gro
anders
protocol
klasse
##oxy
##rot
verantwoordelijk
nit
##braak
inclusie
##emd
##rug
81
spont
##lop
tek
zullen
populatie
cholesterol
64
##LL
##uding
##chanis
apoptose
##azol
##OT
geïnfect
##igeen
langdur
Examin
dilat
##stam
001
fre
Echo
laboratorium
omgeving
##aily
klep
##gehalte
eind
##cult
begrip
##ness
embry
geïnduceerd
begrijpen
##ifieke
frag
tests
inflammatoire
##water
##kal
oorzaak
ondersteunen
glut
##21
ko
Sub
aneur
INR
schade
##tem
NM
collegiale
##reft
presenteren
##komt
warm
##ugen
oplossing
57
efficiën
schaal
vernauw
aanbevolen
##niveau
##boven
gestart
uitdag
indien
##IP
bijzonder
##transp
omvang
ik
##our
Ext
verkal
bespreken
##iep
onveranderd
Geslacht
prom
NP
##proces
##EGEG
lijken
##vrij
wijten
##ysma
##CR
##score
diast
genomen
doses
preventie
gebeurtenis
Controle
volwassenen
verdi
behandelde
langs
Admission
diver
kennis
##structuur
##vraag
Pul
motor
##yla
##kten
Ble
##dr
MCV
domin
interval
pols
voeding
aard
##kwab
##ung
##ites
cur
Ook
segment
neurale
gamma
##drukken
overdracht
beperkte
matig
mutaties
benadru
GI
dichtheid
Lichamelijk
##lucose
meten
##verm
##gevoel
##bum
exc
horm
198
Hypertensie
pr
metingen
##OL
##apporte
asym
##enter
gecontroleerd
##kanaal
geslacht
##vings
##iner
eth
intrac
indic
nuttig
67
voorgesteld
##zo
transcript
Sch
kwab
##vastatine
##wegingen
PP
cytok
##ize
los
##voer
associatie
tet
ing
##SD
gesp
nam
##teerde
mig
Mg
resultaat
##ament
screening
eenheden
behandelings
fysieke
bereiken
effectieve
foet
optreden
Amer
prop
59
Calcium
voorste
##cer
implic
bijwerkingen
##eek
inductie
##itone
carb
TE
##uiv
##xpressie
##erte
##slagader
LA
##omer
##UN
##dip
hals
##uitgang
gevoelig
##innen
SD
patroon
##blast
##ystemen
aspir
Behandel
##ube
RE
51
derde
##valentie
##rix
bijdragen
##nt
neurolog
##iod
##erings
fosfor
##OB
kans
Meer
##komstig
##vullende
88
##iditeit
##yle
##oppervla
clu
##ildklier
traum
ventriculaire
zout
##QUE
consult
persoon
loop
mer
geselect
werking
krit
##hou
##aciteit
toevoe
angst
ruimte
stij
therm
orale
##olon
##mechanis
veneuze
ondergaan
afspraak
Creat
##otide
Allergieën
##syn
##ummer
##gerelat
##kamer
BM
veld
gehele
##waarde
##oid
minimale
maal
##sper
##ovasculaire
##heugen
##ici
thoracale
termijn
anat
tit
##ublic
##frequentie
##ector
arteriële
##razol
defect
hoogachting
slaap
Function
##ationele
review
Laatste
grootste
##achtige
bloeding
Wij
metabole
relatieve
geco
Suc
ol
momenteel
ledem
lineaire
PG
##anen
gist
voel
##vlies
voorafgaand
afgeleid
##ubatie
##bep
ph
Klinische
##eptiden
dier
afwijking
intens
sterke
Or
geassocieerde
bacteriën
gemeenschappelijke
Ont
fysiologische
##vice
port
##oïd
episode
colon
Verslag
##embran
ev
140
Mult
##imm
erg
pathologische
remmer
##ralis
gekopp
hypoth
##oxid
impact
##actieve
Her
dop
MCHC
voorge
natuurlijke
proximale
##enc
vorige
index
##CI
palp
##FR
Ao
pacemaker
##agnostic
##dieren
ICU
gerelateerde
eenvoudige
enzymen
##umor
DLP
myel
##cg
diagnostische
pap
68
observ
##osom
gebracht
circ
##NIQUE
##risch
componenten
graad
##acet
visuele
##monsters
overw
vrouwelijke
##plan
twe
##volgen
Daily
analyses
##factor
dien
cerv
gedaan
vat
knie
##abel
deeltjes
vent
2015
##ue
2016
proliferatie
gegener
62
abnormale
verzameld
mutatie
MED
onafhankelijk
perfusie
oc
coronaire
bestuderen
ES
system
ontwikkelde
##amm
Total
sil
werkzaamheid
presentatie
##abiliteit
##bet
400
##ations
krist
class
##atiënten
onopvallend
94
##ominale
den
ontslag
kamer
##ventionele
gediagnostic
##eerbare
controleren
##noe
land
atheroscler
##lage
##controle
start
63
piek
##emende
kant
##orderen
##rd
##GFR
inclusief
auto
##telijke
atriumfibrilleren
##keerd
Assessment
Post
##TP
helder
kn
prostaat
##ardiale
##digt
rib
##fal
##fot
afgele
ablatie
##omyopathie
wond
gedilateerd
cc
overzicht
nef
vinden
Verder
##orter
El
eenmaal
presen
infil
gekwee
##fielen
IMP
testen
prevalentie
bacteriële
ademhalings
gerapporte
geproduceerd
uiteind
behoef
elektronen
##seud
inb
kind
##uleren
des
66
##ancer
risicofactoren
AN
gecombin
##blemen
Plt
##carcinoom
gastheer
92
elkaar
dunne
doen
postoperatieve
bevorderen
verlen
continue
NAD
sterf
##olaire
CM
actief
han
Phys
##loor
##uwen
naast
stent
behouden
veronder
##complic
selectieve
##VT
rapporteren
Bel
CTA
##emaal
##bri
toler
##mee
##dule
93
moleculen
##orr
##ffer
##istische
##gan
##ack
basale
##53
nucleaire
##zetting
degeneratieve
welke
terugk
Veren
technieken
Mil
onderliggende
##electase
##ote
pulmonale
materiaal
##aarm
##uul
##aryn
##hoog
##entegen
##CHNIQUE
NF
pneumonie
minste
betrokkenheid
##uus
bindende
##astin
secundaire
Prote
uitkomst
##wissel
recombin
##ills
78
Fe
TF
geleden
OP
76
74
program
##vari
##flu
systemische
zeldzame
weg
antigeen
apparaat
seks
resid
TH
intern
deelnemers
Ik
respon
infecties
ins
pe
relevante
##ll
##respons
87
84
##heem
##its
##oscopie
VT
##alve
Wanneer
##grootte
cognitieve
blijkt
##punt
##tub
geschat
vaste
##ull
##ografisch
##ctuur
toenemende
volgen
##stit
nieren
mot
##akken
aneurysma
not
onmiddel
Gene
famil
Findings
dl
cyste
300
##var
langdurige
site
golf
77
Familie
##RES
250
Sinus
Naam
milie
chemotherapie
##plaatjes
oct
##stellingen
hartslag
bijdra
##SION
##aby
86
achtige
geschikt
flow
sluit
sat
beweging
##darm
tand
##ining
##omycine
rechtse
##loop
ondersteuning
ET
NT
##gerelateerde
##uwe
mic
##entale
ijzer
krijgen
##ella
kopp
##16
verwijdering
##cties
ouder
ontworpen
##leiding
Hep
DR
Coron
##structies
69
accum
gere
down
aanzienlijke
##plic
punt
resulteert
HE
kwaad
Med
gecorrel
optim
def
toepassingen
##vanging
##pret
borstkanker
130
Poliklin
##ju
essentie
2014
##oorte
ber
coli
macrof
##ord
OS
##iol
##yan
##eiden
prob
Onderzoek
##zels
uitgebreid
Ro
##urie
##IR
mag
##producten
##voudig
Trans
##rontale
##obacter
##TU
mogelijkheid
aanhoudende
epitheel
##ave
IF
##isen
schildklier
mechanische
reden
del
##andom
##oge
wereldwij
witte
2017
CON
gastro
##rac
virale
##22
tele
##gingen
##geluiden
##complex
volgt
##akelijk
vle
identificatie
##ilisatie
##heids
monster
substraat
##roffen
kunt
gef
##onucle
ademhaling
mild
laat
intest
##oordeling
##ageren
T2
##studies
##deerd
bol
##nam
commun
melan
##uline
##genese
##plant
hoogte
##ERK
##beh
##oring
lymfocyten
gran
mob
recent
signalering
Toe
##kle
##andid
PL
##pha
gun
##NE
toegang
##mens
tegenstelling
geringe
1000
##infectie
remmers
consol
bevol
produceren
##oses
##olip
##uli
##werp
stabiliteit
##17
110
stadium
Body
vs
hoest
transm
##text
multip
Is
cre
83
conform
chromosoom
gla
##gelaten
##oplasma
Verschillen
Daarna
Disposition
ade
##rooi
specific
ident
intracellulaire
##opname
##ditie
aminozuur
##gez
ren
genoom
locatie
##regelen
behandelingen
Gesch
hypox
##ross
##lekeur
NH
rect
NC
##concentratie
Refills
abdominale
affin
##etrie
##hanol
termin
##PA
##borst
##zw
Present
diameter
vervolgconsult
bleken
##aging
##glyc
My
##chemische
##bruik
dilatatie
Kle
oudere
gr
##cont
vernauwing
liggen
##cten
##trofie
geneesmiddel
82
EN
##DNA
dagelijkse
DC
##brale
opgel
##techn
ontstekings
T1
afgeleide
variatie
veranderd
endotheel
##oods
kanaal
muis
##stenose
##egal
ondanks
transport
gemakkelijk
vertegenwoordigen
##recept
conventionele
##okin
bloedplaatjes
##arb
##ctomie
##otensie
##iegels
##werken
##iezen
##ectomie
voorkeur
overgang
termen
kortadem
Col
##okken
##sm
overeenstemming
Haar
##ank
##oedeem
exter
leveren
plat
gecorreleerd
##lijst
CN
ann
lipide
oest
brengen
TC
opmer
##quenc
diep
Echter
CA
beschermen
drainage
##etting
gebonden
po
aanvan
neus
89
oper
ernst
enig
aanbevel
##örd
##orische
Hel
##ution
sequenties
ra
2013
Asp
##ities
##dheid
ion
##omatische
Result
##yth
Hgb
##eerbaar
oorsprong
##verd
gediagnosticeerd
olig
Amerik
Zijn
gaf
invasieve
Atten
bro
event
##oplos
Drie
MB
##ïde
##ouder
hip
benaderingen
##scheid
##lear
atelectase
##methode
##omat
##oit
stoornissen
sol
##vocht
##ellitus
gevorm
##ntgen
##cefal
125
resol
##S2
pan
nab
##kent
voordelen
verhouding
Examinering
Cr
##rekken
symmet
##ner
##concentraties
Patient
arm
blokk
##vormige
##ics
EM
##ual
paras
##repen
Neder
CD4
##insuff
py
procent
Glucose
gang
nacht
afbraak
##duur
##ases
2018
component
anamnese
lumb
##ikstof
tar
je
##gemakkelijk
Abs
willekeur
vergemakkelijk
onlangs
vitamine
##stoornis
##gew
##isselijk
jonge
##ted
Normaal
kinase
##intig
polymer
##oglobine
kwantitatieve
##veren
Spec
gemiddeld
sin
criteria
vonden
geïnfecteerde
Gezien
humane
ms
##gebonden
##zep
##binding
##stest
ty
zacht
##mmun
Rele
oud
recidief
MV
elektrische
##cess
onderscheiden
##ha
##ytro
##SS
ng
Diabetes
bevindt
plaatsen
##char
Comment
##ping
##atory
onbekend
3D
cardioloog
##dens
Urine
gebrek
##spect
ongewijzigd
79
uitgesloten
##tering
##vies
##opril
genexpressie
Nederland
Ca2
lys
##pler
blootgesteld
Tele
konden
Indicatie
CB
voorgeschreven
secundair
Hem
fluor
##ofen
halsslagader
echocardi
essentieel
##oemde
namen
slotte
prec
geheugen
DP
zouden
leeftijds
reson
wv
##19
sper
verdragen
##rand
reguleren
##arch
Milde
gezondheidszorg
verwijst
##idem
##ST
##iform
toxiciteit
uiter
optimale
PH
prognose
externe
inname
##vens
gebruikten
##STE
##estion
kosten
##öntgen
##biële
##massa
gezichts
tachycardie
intraveneuze
ontdekten
onc
##gramma
Ag
muc
##modellen
##O3
##afwijkingen
##bs
aute
vergelijken
kader
conf
##etie
##ey
##itude
buis
##stoffen
COPD
dw
##ink
lymfaden
##LAR
herken
neemt
schat
axiale
operatieve
eenheid
rekening
afstand
place
##dnis
ledematen
##UC
##isering
##kracht
CAD
HF
##specifieke
calc
Bi
##ethyl
veronderst
ontsteking
aanvullende
indicatie
##osyn
intervent
##lutter
onderzoeks
kD
cytotox
hoeveelheden
bevorder
affiniteit
##stelsel
werken
vermoe
geregist
##attern
##romat
##beelden
time
groeif
##vingen
Se
verdw
Vraag
Serv
hypot
concept
##keningen
##olling
cervicale
monitor
ven
##rijft
sem
##ound
prin
soft
cortex
uitvo
coh
2012
gepaard
##bouw
mitralis
##dicht
2019
71
gevolgen
RX
91
mitochondriale
##aarmoeder
Capsule
##agement
zeven
hen
##male
behandelen
##arisatie
##bron
##YP
wild
acetyl
##ala
vererg
uitbre
enter
##fil
pas
##usc
##ative
ruggen
oss
kruis
##AST
diar
intracran
Ap
##ikels
##ber
##eggen
sep
Verschillende
##ring
hoogste
##uurd
##idemie
##drag
##vermogen
mort
flex
hypothese
##greg
gedefinieerd
##molec
Physical
Sinds
IgG
##pop
##acchar
##ipatie
malign
resistentie
beste
av
onafhankelijke
gea
##nnnn
Toel
programma
context
##ïnen
Tem
instr
maximaal
veranderde
##ometrische
LC
##foto
CXR
##oest
##plicatie
decursus
subt
TNF
##generatie
##irale
subeen
##neu
baarmoeder
##eline
extracellulaire
organismen
##spectief
populaties
##oca
61
##drukking
Ondanks
steek
ogen
##odel
richting
bero
oxidatieve
verdeling
##iaire
##annings
ging
terminale
##emide
veiligheid
vas
voet
##ctor
rh
biopsie
##inal
##uiving
Dop
Omdat
fibro
complexen
Tra
##uratie
toevoeging
Goede
##tras
##ouff
veranderen
Invas
##oz
differentiële
##uurt
##YYYYYYYY
netwerk
##ACT
gebeurtenissen
computer
##leerde
onduidelijk
Care
verscheiden
HB
baby
##dimens
gevoelige
##ions
##even
##haling
rat
matrix
##yg
daarop
Che
sig
producten
fosfat
##alol
NG
toegelaten
PI
##gedragen
##sels
obstructie
magnetische
nr
allel
chron
medicijn
m2
GR
behalve
##uizel
Vervolgens
betere
proteïne
variëren
optische
cross
##status
team
ontwerp
remmende
metoprolol
##delingen
##locatie
URINE
Daarentegen
ischemische
TA
##tingen
##arten
##bumine
verzwak
##route
binden
onver
##wikkel
signalen
zoog
IMPRES
##arenchym
Hoofd
orth
Question
schimm
##compens
ander
bar
bpm
##24
Ma
##tes
##embranen
souff
##elding
##ypt
misselijk
gestim
##gezien
##grond
gaven
##imer
##ococ
##cm
hetzelfde
toegenomen
##EC
##chlor
##beloven
##operatief
##ays
meth
##oodsoorz
vermoed
##2O
promotor
##richting
rij
pass
reage
ontwikkelings
mediastin
Patiënten
detecteren
##bolie
##oscopische
##rouw
##artsen
##ERKLAR
##ray
##omegal
##aris
##eus
##cyclus
bodem
ionen
veelbeloven
RF
##atoire
##rik
verkrijgen
geactiveerde
resolutie
voorgestelde
TTE
##activer
herhaalde
lead
stikstof
neuronale
Heeft
lymfadenopathie
slij
femorale
214
ontstaan
EP
toekomstige
SS
##prote
lopen
bete
##hep
fluorescentie
gemeenschap
##ational
repar
##ferase
molecuul
beperkingen
Hb
##ustzijn
##zijde
aanvallen
##kno
##bloed
HA
##oproteïne
##expressie
corticale
##ility
microg
Stud
wijst
MEDIC
orde
regressie
band
modi
##matische
soms
##beweging
weerspiegel
pen
ruimtelijke
recon
intestinale
koolstof
pathologie
##ocar
##veranderingen
##osa
EX
S2
emot
gevormd
voorbere
isolaten
Attending
late
##rucht
##kk
beroerte
noodzakelijk
tal
Pac
##acine
steekpro
Ill
##verslag
knobb
##15
IMPRESSION
ontslagen
Geschiedenis
##factoren
Unit
##passing
vooruitgang
dubbele
afzonder
##18
zit
vertraag
gereguleerd
QRS
dyspnoe
breuken
##angi
##INGEN
Sh
carcinoom
Bes
##30
aangeeft
##organis
verbinding
##gebieden
QT
gehouden
zorgen
volto
##iwit
##agit
gas
mortaliteit
##aptische
stoel
Service
##kinase
##umer
##fractie
##VID
markers
miR
antist
schijn
##oppervlak
nec
216
strategieën
adequ
polikliniek
vanuit
CVA
##oles
split
##mar
rep
verwijderen
roken
ur
x10
##ringen
aspecten
Ser
neurologische
gerichte
Zie
stre
Sex
Do
daalde
##OSE
berekend
radioloog
gehalte
fer
##ynthet
ligand
efficiëntie
##itas
##ister
gebruikte
##VI
leidde
##TUUR
##teert
##ded
##zijd
##lak
##achten
Algemene
meting
##gegeven
##oodsoorzaak
slok
nauwkeurigheid
motorische
gemen
dubbel
CL
microM
##rend
promin
Abdomen
skelet
glob
Type
##besch
##etica
##alth
sulf
##kere
HCT
gelab
PF
milieu
bloeden
einde
run
accumulatie
##HS
organische
##strateg
##ow
gezuiver
cultuur
gu
##flex
2011
genereren
Intel
concluderen
##vle
hoofdpijn
intro
##pport
cruciaal
vasc
geregistreerd
peptiden
Blo
##opy
Intellect
ALT
PTT
rout
##ivers
160
##ificeerd
vloeib
##result
cr
##jor
beschikbare
##abolisme
select
##IA
Hol
gemedieerd
transplant
reductie
menselijk
##tal
besmet
lymfek
##ieel
##BS
spre
geremd
sterfte
MT
lat
detail
##iber
Ep
aangeboren
Vit
Ox
##ijken
COVID
posterior
lumbale
dynamische
extrem
progressieve
##kundigen
##rig
Euro
mM
##aseerde
##riè
##rokken
samenstelling
cal
home
ofwel
onderging
routes
Borst
##HH
##ease
soc
##oblast
cardiovasculaire
##azep
LDL
##niveaus
hydrox
##olen
##asale
##patiënten
MA
antagonist
##komsten
IFN
RT
tweemaal
fosforylering
geleiding
toegevoe
analyseren
End
oef
mcg
unieke
##hel
specificiteit
vaatziekten
gelijktijdige
##udenten
lid
nauwkeurig
plaatsing
##aars
herzien
rob
##ventrikel
##ULTUUR
tube
##waard
##hepatische
##isten
OH
minimaal
##sver
aanvankelijk
##RA
##orende
verlaagd
trop
##ope
##roep
nierfunctie
gekoppeld
##icine
geboorte
patronen
DE
verscheidenheid
uitsluit
verschijn
##uros
geïsoleerde
assay
mediastinum
transplantatie
2010
humaan
hypotensie
succesvolle
leukemie
Toelichting
##ulus
duizel
hydroxy
##egrip
eier
metabolisme
##keerde
BI
##iste
dood
ide
gradi
##oemd
##fficiën
polymorf
voordat
overwegen
##rijke
##otrop
algor
tel
##ifest
AG
spontane
##microscopie
buurt
##poc
vag
##illine
chirurgie
werkgroep
go
##MER
##SP
uiteindelijk
slokdarm
procedures
kwantific
Wat
Release
CF
neutro
hecht
verhoogt
Immun
pseud
metaal
ventil
secretie
hyd
regionale
staan
1dd
microgram
Soc
AA
CRP
##naire
patiënte
##istratie
fusie
##urosemide
##umenten
ampl
##structuren
feed
##sproces
PK
##lement
##RD
opeen
afbeeld
consolidatie
gedrags
Illness
röntgen
##alt
##osomen
##otalol
##verlen
plast
##kenis
bereid
##oide
##voed
overwogen
onvol
behoefte
wonden
ket
iso
##vrije
##gedrag
##NAL
##positie
Som
##40
##MS
Cell
statistisch
##ekt
radio
gegenereerd
leren
WH
##iene
##cter
##spanning
controlegroep
divers
honden
vou
##breng
##orbiditeit
ratio
poli
afkomstig
##maat
elementen
intermedi
##ocardiocardi
telef
vaker
RC
##olol
strom
stimuli
##lap
artsen
gedilateerde
##HA
auteurs
##Cl
##trast
##virus
vervangen
noch
##tia
##inn
##out
ligt
dig
##oll
ir
orgaan
altijd
##aa
##tendeels
regulering
verv
##enz
granul
##YS
morfologie
afdeling
mening
relaties
hormoon
##pocamp
kran
Dif
schedel
##stra
##rempel
melden
##uleert
##cement
##doeld
bedoeld
##ally
vermindert
voorkomt
betreft
lum
##reep
PIC
frontale
##MG
betekenis
##seling
gepublic
braken
daarna
##zende
##groei
voeren
krachtige
interventies
##elte
##ohist
technologie
opac
anest
ziek
bru
##IG
##transplantatie
rot
gelok
bepaling
##oxine
Daarnaast
UV
verwacht
IR
##roscopie
hemodynam
beschrijft
##reedt
intensiteit
##BL
daling
##itm
richtlijnen
##schik
Phos
bevolking
focus
##25
##ditionele
resonantie
218
adren
Follow
dient
Doppler
strategie
daaropvolgende
##BT
Kal
##rift
##elta
komst
evolutie
SH
Molec
##apar
uitgang
##oplossing
Nie
interpret
beenmerg
cav
uitste
##werkt
kortademigheid
doelen
##FT
##ylase
##ian
locaties
DVT
##ogingen
stoppen
medium
interfer
##onische
L5
##itoneale
Micro
##isu
plant
##sth
erop
##nier
etiologie
##max
##gezondheid
grotendeels
kristal
##basis
zwelling
ultra
##ingle
effectiviteit
Behandeling
vergroot
disfunctie
Inf
##cholesterol
Pert
##ontre
##MC
##houding
kwaadaardige
Aangezien
ontvangen
##UMMER
##fort
slijm
gewri
imple
Product
##iende
macrofagen
mellitus
##cludeerd
210
Mild
##etiek
verspreiding
pathogenese
##riet
wie
##cep
begonnen
##poten
##leerd
##wegings
##mater
##mut
onderdeel
referentie
uitdaging
dors
inbegrip
##RT
erytro
effusies
fund
##omstandigheden
radic
spieren
##EA
ball
##SA
plot
MAP
fenotype
evenwicht
##wonden
##UT
##ributie
##ilis
half
##hyper
mol
##sz
##adiging
##icusp
vele
cortic
Q6
##NUMMER
##anningen
##stim
rode
101
##mal
Bleood
##mod
hernia
amp
##rosine
Pertin
ving
##beper
##CL
Bas
##scheiding
##naam
gedeeltelijke
180
Alert
genoemd
foto
occlusie
##uring
##genoemde
getrans
materialen
##Pattern
##cyt
gesynthet
richten
##ii
##olyse
training
##selen
diarree
obes
##idyl
collageen
##singen
Kleine
TP
gemet
##genase
##ids
##vindingen
high
onthulden
GU
verdo
##orden
aanbevelingen
polymerase
zuig
##tratie
##ART
alternatieve
wijzig
verhoging
steekproef
##trop
##abetische
residuen
Geringe
Onge
presenteert
document
hippocamp
##plaatsing
##lox
##imin
GL
AST
##xtra
##odific
kwam
##aspect
##ylax
PAC
betrouwbaarheid
shock
Extrem
eierst
##dimensionale
gecontroleerde
ouders
##inst
verklaren
##BI
bent
varkens
HCO3
zenuwstelsel
spi
hulpmiddel
2020
lipiden
##lucht
adoles
remde
MP
##eth
##ohistoch
eviden
RDWSD
##ationale
##reatinine
##punten
Rh
gestopt
##jun
##ofil
##werving
astma
##oriën
##ypische
noodzaak
##iva
##pland
bestude
ontbre
##odium
tetra
##ieven
##ugger
ervaring
##mis
##staande
##metingen
##eller
Doodsoorzaak
##lekt
Metoprolol
inzicht
##validatie
##23
straling
studenten
feit
gerandom
##leuk
gevisu
##irg
##ula
ect
##ocytose
vader
TEL
##geving
##lipidemie
MIC
obesitas
##olytische
Hyp
taak
beginnen
this
##resultaten
hepatitis
##stellen
besl
fenotyp
rapporte
diastolische
drin
polyp
agonist
Echocardi
##ECT
##osteron
##iaties
gewijzigd
Beide
langer
##adr
bevest
##spectieve
organen
##utum
Coronair
Cu
##ochte
##omografie
##mmHg
##bed
care
Ang
Flu
pericardiale
##olerantie
##OON
##dichtheid
collega
##sieve
fac
verleden
right
tumorcellen
Aort
Zowel
kandid
##lering
##blaas
##bra
##sectie
waterstof
chlor
##wikkeling
CULTUUR
##week
overleg
219
ader
##rins
SN
zwaar
codeert
regelmatig
##ivaten
##zem
##oside
isolatie
Uitslag
oestro
Finding
psychiat
gram
##emblage
##zijds
##reum
meng
##econ
Oper
heparine
vertegenwoordigt
##oepen
##aline
##onaat
##ise
Last
##uigen
cardiologie
ovar
##hoofd
##ëfficiën
##spercentage
aang
trend
##omatisch
##abiele
##belasting
antic
##toe
behoud
##anyl
theorie
Major
dienen
##po
Nederlandse
gesugger
##quente
##bar
##IF
##igde
geselecteerde
##mechanisme
##oppingen
##nea
##venen
serie
endoc
vlak
verbetert
allemaal
##osyl
##rest
varie
Opt
##27
##ofag
Invasive
geschikte
trauma
manifest
overexpressie
gesuggereerd
angio
reactieve
carcin
##fys
##gevoeligheid
migratie
droog
medisch
bis
collaps
fosfaat
##dust
Rep
ong
##allel
213
##buis
##ikelen
groeifactor
arg
IVF
##ïd
thym
##outen
CTDI
##bal
ondergingen
weerstand
1x
##brid
##orph
hard
dikke
##ware
zon
ABG
jong
##agt
##fase
overgebracht
##anine
Vanwege
reparatie
Atrium
##ilar
Chirg
nooit
octrooi
gekregen
TELEF
TELEFOON
Acet
TELEFOONNUMMER
##present
verbonden
melk
luchtweg
sonde
##ALV
afgenomen
keten
bijdrage
Health
##hen
##ser
##scher
sporen
landen
##geh
Resultaten
trombose
off
incisie
diffuus
##volume
NEUR
nucleotide
express
plus
Matige
2009
##standen
che
verdeeld
##ithel
##for
##OX
##STELL
197
##ml
##yro
marker
##lijf
overt
##osin
diepe
by
Nu
hoogst
##icum
##lengte
##ureel
SpO2
absorptie
HENT
cardiomyopathie
##merken
placebo
##scopische
##ocaïne
variabelen
RS
drug
GC
##STELLING
Bet
gemodific
##schappelijk
##kn
##cap
##lever
atriale
karakteriseren
ori
agressie
episodes
##HD
##derheid
Exam
belasting
benen
BMI
CTDIvol
levensvat
from
##ercul
inferieure
##methoden
##reerde
resterende
##cluderend
mesenter
verwerking
trac
bevestigen
Verhoog
Concluderend
Actie
##perat
onmiddellijk
vervanging
##entiële
##chi
aminozuren
##ococcus
##therapie
##plas
Syst
tw
##rectie
biomar
perc
tekort
VAD
method
toegevoegd
implicaties
Verg
##waarschijnlijk
efficiënte
Polikliniek
tib
waarnem
##iodar
nadat
##riene
opgelost
nm
Amerikaanse
clin
epidem
reageren
synthetische
gecombineerde
heup
##eden
classificatie
culturen
##strij
zodat
peri
dragen
SBP
##kloppingen
replicatie
##cy
##DA
##arte
anatomische
##iae
Geachte
##sed
Ern
antim
longoedeem
##iveaus
Labs
##irine
##isk
kaart
kunst
spin
gekweekt
geactiveerd
Indien
##cturen
hypo
leden
geble
##EGEGEGEG
##vormen
pain
mitralisklep
theor
sinusritme
fiet
##ember
2D
##bro
vormt
##derd
OF
foetale
plaatsv
tempor
celt
sur
##TX
##erge
cellijnen
##heen
overgedragen
sagit
asympt
##CP
functioneren
##ick
beïnvloedt
Succes
onderzochte
Mo
elektrof
##GE
biochemische
vloeibare
IS
but
##dipine
##jecten
klass
##activering
600
##steking
wortel
ascites
draag
oorzaken
ML
Long
Kno
kDa
Not
vezels
##llu
Meerdere
voorlop
##opol
##trof
endogene
##sproblemen
ECV
##compliceerd
MM
diffuse
GP
##ylaxe
##west
mediale
##hand
mentale
SM
rood
geïm
##voeding
##ivity
Leeftijd
verrijk
waarmee
vermoeid
asymmet
hydrol
intracraniële
benadrukt
posit
##erem
inhoud
endomet
zuiver
cardio
##arin
scala
##igne
capaciteit
##ffecten
##names
215
##oss
gewichts
myocardinfarct
Veel
OK
Aanm
helft
##auw
ervaren
##inde
integr
individuen
grondslag
diabetische
Pat
##ificaties
IP
morfologische
##otomie
vond
MO
##onisch
##reacties
vitale
spinale
##amente
##oft
mitochondri
##pletie
beneden
217
brede
##rat
SEH
##polarisatie
kie
remt
Clip
cytos
intacte
verdachte
##ichaam
ontvang
Disc
cruciale
##AMP
afw
beschikbaarheid
##diat
yes
nauwkeurige
Vergeleken
luchtwegen
color
doelwit
Gewicht
RRR
Evalu
##ecept
echografie
resectie
proximaal
cerebrale
##digd
generatie
regulerende
p53
##idase
induceren
vezel
Vergelijk
equ
toekomst
hou
puls
begrepen
aangetroffen
stadia
Drug
monitoring
mutant
##ized
##ental
therapieën
##HC
econ
aangepast
CSF
bijbeh
trache
##atter
Zn
varianten
infusie
ethanol
##oorden
Toen
rechterkant
##eeee
##ongem
##raling
Gra
2x
ruggenmerg
bloedingen
##26
tab
geïnject
drugs
domeinen
PET
kaliber
daag
ent
LVF
tak
geneeskunde
essentiële
##umat
aantoon
Vraagstelling
Blood
wilde
advies
Q6H
##ruim
opeenvolgende
##ason
bindt
artikelen
wak
mur
##isol
##IND
hetero
Contrast
wegens
uiterlijk
verricht
degenen
CVD
gerapporteerd
voorbij
##studie
##oeg
##oep
##umente
verschuiving
Kalium
vergemakkelijken
vul
mediane
##OH
bijbehorende
Chirgical
datab
##ippen
Sinusritme
NEURO
cis
dimens
##iasis
##kwaliteit
##straten
##ymph
##itaties
##ices
hartkloppingen
onvoldoende
##defect
gedeelte
encefal
maatregelen
onregel
jan
##aringen
##omegalie
werkt
##wisseling
##A1
##hals
##gehele
##icot
##oplastische
##holte
geleidelijk
##hr
##sulf
##rometrie
##ypass
hoor
angiografie
##istoffen
stem
instelling
##sorb
Sec
##des
zware
##ticul
assays
Respir
##okl
##cyten
##NT
##elfunctie
##acties
ontkent
versterkt
arch
Holter
Operatie
##emisch
schatten
##quencing
cordis
##ontwikkeling
##ördin
cohort
morgen
Recente
##ontsteking
3H
##fact
stro
heden
##houet
bal
lokalisatie
Waar
C3
gekarakter
aggreg
BC
##diagn
VAS
reeds
##anth
##vasc
urin
Mat
segmenten
morbiditeit
##klieren
diversiteit
capsule
Sten
IGF
105
gewricht
case
Afspraak
Europ
aug
##ogeniteit
##arde
##openie
kliniek
Test
##odone
##EV
lymfoom
inheem
DS
##GS
##weeg
##ila
##ostase
voortgezet
Acid
resistente
pericard
bijv
Clin
herhaling
Cd
##loxacine
gete
gelijktijdig
waarop
mutanten
##ostische
##structieve
##letsel
##renzende
##procedure
sed
##chirurg
versle
vermeld
prednis
eenvoudig
wijze
TAB
fibroblast
gemengde
uter
##ensie
##culturen
Intra
##spat
nat
Heart
uitbreiding
##receptor
kanalen
Protein
Right
##undel
##uil
##ogenetische
subs
toegeschreven
dominante
##genees
##hoek
functioneel
##amaat
##doen
PVC
communicatie
Ob
##bride
Sociale
##kenmerken
antioxid
gedetail
##verwij
lad
ongew
traditionele
parox
ontwikkelden
##stijd
##diging
##ADS
aanv
##atiente
##emet
##tests
##va
##osomale
uitdagingen
bul
IM
LI
bescherming
Tromb
Q4
hypof
gtt
Questionnaire
TGF
distributie
##chloride
aanpassing
haal
flutter
##enteel
labs
##denking
Algemeen
aspiratie
pri
2008
verschillend
##HT
litte
##amb
Loc
##angen
formul
Alk
Medical
##vulling
##vasculaire
##ton
TM
gesynthetiseerd
##ters
##cholesterolemie
brand
##ologen
omgevings
##ugh
##ops
adenosine
##RE
ultras
##olisch
massaspect
Tel
intraveneus
##genitale
##sterkte
SA
##ges
##klin
metalen
single
##apen
##atin
inz
##ertijd
##ilaterale
voordeel
AK
trig
initiële
scores
Lact
LPS
##medicatie
insuff
neon
##ended
##igende
Known
##szins
chan
tyrosine
kalium
NamePattern
tricusp
fl
negen
Min
verbeter
##pathie
complement
Lengte
besliss
EG
##arynx
D1
brad
##vanc
dosering
lagen
##verdeling
embryo
103
##onaal
occ
##wort
##80
##ympt
##iguur
Del
##soorten
spiegels
atm
glad
##materiaal
##patroon
meerderheid
bezorg
alert
##respon
perifeer
vertraagde
##ocon
atherosclerose
Kort
##schaal
Device
redelijke
Comments
##IST
afzonderlijke
mast
interf
stimuleren
##ceptie
##produc
##rial
prov
lozing
##isico
Hospital1
##LR
##dier
neiging
##iculair
ring
##oorde
HLA
PEL
laser
##ologe
##quis
##bereik
##oos
real
kat
##fferentie
##ieur
Doc
eens
alkal
##fib
echt
droge
verspreid
maligniteit
##uste
aangrenzende
PCP
##ficatie
##xine
gezamen
lichaamsgewicht
terugkerende
dynamiek
benadrukken
hydron
systematische
immunos
schu
##iratoire
##osynthese
abces
##paste
Vis
##ivari
ballon
toch
katalys
##ijne
##dilat
cran
extractie
AI
##ci
##hyle
##want
mei
inheemse
aanvang
Chirurg
bp
##romatografie
miRNA
antigenen
amyl
parallel
Cancer
##aakten
uitzonder
relevant
##otiden
donor
voe
##hydr
Sign
gepland
optreedt
mamm
rate
gestuurd
##katheter
cancer
Natrium
flexib
calciumscore
##ronic
NA
VCI
##ocarcinoom
retin
wit
gespec
ziekenhuisopname
bib
wereldwijde
##omeren
##itaire
minuut
tien
##gelegd
##iO2
accept
Home
##periode
##blok
myc
##eterm
glucos
cyan
##kru
veelbelovende
Man
Left
nov
HDL
##elekt
overeenkomstige
veren
set
geworden
2003
##Gap
##etermin
##H2O
5mg
media
comfort
opger
wetenschappelijke
##hab
schimmel
##mitt
thermische
inh
az
##othe
agen
pulmonaal
H2
bypass
bijnier
metastase
fragment
immunohistoch
##sequentie
AnGap
oxidatie
Aspirine
##regulatie
management
robu
##carb
speciale
##ateerd
##alpha
##band
##insufficiëntie
##rif
sclerose
##iket
biologisch
variant
indirect
##VIS
Tw
##amus
##ofren
routin
houdt
cholec
element
NK
##eleiding
Sup
celd
##ichia
##ats
kransslagader
karakterisering
Pain
##ria
##opo
succesvol
jun
eet
Chronische
##rijgt
rijk
clear
104
##omale
constipatie
gesla
adolesc
##itatief
langzaam
Linker
bif
##aandoen
##ION
##rière
transmissie
hypoxie
None
kop
##dehy
##aking
Beoordeling
Int
artritis
energ
CYP
epider
verslag
##horm
##asten
hematoma
Sle
oorspronkelijke
instrument
linkerventrikel
Temp
nor
werv
geselecteerd
stappen
lapar
cDNA
##idog
##inezuur
##nummer
stier
##gevallen
selectief
atherosclerotische
##omal
verontre
##werpen
ras
Experim
##isin
##afwijking
uL
##entanyl
seksuele
metabolieten
benz
Terwijl
dialyse
amplitude
EB
##icilline
##steun
##dikte
##curr
organisatie
experimenteel
rechterboven
hybrid
FA
Neurolog
2000
##ional
onderwijs
princip
102
##omon
verwond
##mechanismen
##DE
Analyse
antit
aderen
##DS
##percentage
stamcellen
##EST
melanoom
Head
enigszins
spontaan
titel
##spier
transformatie
##omeer
infiltr
##ulose
septum
Famil
voorsch
##overdracht
##nale
antistolling
celcyclus
##izoen
##sil
##chan
##artim
veilig
longem
##ofie
##ique
Continu
algehele
tev
##umes
bestand
##jectieve
redelijk
##oprazol
decompens
passend
Vereniging
##vaten
LAB
##SE
variabele
bronnen
verwijd
onbekende
##gave
uitvoeren
##ialis
LM
anemie
##tho
##eron
samenvatting
##GT
##ouwen
##LD
elektron
nek
Code
geest
atypische
dimensie
koude
bezoek
sac
PICC
Activity
Lip
gewoon
##matie
monokl
vertro
L4
Verander
omgekeerde
sluiten
##durende
##gin
zeggen
##ioom
dopamine
Trop
##reoïd
Indi
CONTR
daarvan
##gestie
##ulmon
##appa
kra
heb
induceert
nod
##vante
fractie
##proliferatie
##lete
##metabolisme
##ield
##gentie
##osoom
bemon
diffusie
multi
##leukine
klassieke
Cur
vereisen
ulcer
##kenning
lymfekl
gerapporteerde
Intellectueel
##brengst
##uron
gescheiden
##illus
Acute
Bloeddruk
##komende
fin
##rinsieke
elast
conserv
bevestigde
situatie
sagittale
##ife
##inc
hartas
ambul
visu
bevinding
Rechts
gon
allerg
##eende
##reatment
DI
tubercul
onthullen
typische
neer
##artan
##70
##kopp
##bine
##ONE
GH
VERKLAR
duizeligheid
draad
##inium
hippocampus
##vestig
GAB
oriënt
##ket
toegewezen
##omedi
##alys
datas
decen
efficiënt
##schat
persist
##mus
farmacologische
Wer
##oneel
lasix
genetisch
war
##CK
##yndroom
percentie
genomische
##azine
vallen
virussen
taal
##otis
plaque
gemetast
blot
##ubl
##FA
Ernstige
apparaten
rollen
##transferase
aangegeven
##ROM
##stij
##kige
vrijw
blan
gead
spectrum
orthop
beoorde
oefen
##spiegels
verwezen
2007
uitgesproken
##ged
verpleegkundige
##obob
cyclus
##iderzijds
stimulus
##ogelijk
sterkte
##isinopril
##breuk
fist
regurg
##iere
##TA
represent
##reem
##verandering
##38
PELVIS
namelijk
sepsis
##digheid
##rekt
##arcoom
##snelheid
##istr
zeldzaam
leg
Psych
diverse
voorspelde
##xt
sen
image
circul
dend
##blad
##analyses
intermediaire
AMP
##chron
CO2
compet
achtergrond
dermat
##appar
SK
DO
state
##kering
Gez
##cultuur
ili
PREH
##worpen
##oplastic
PREHTX
##vloeistof
beheersen
eGFR
Escher
invasie
clip
##niet
Az
schiz
obv
##ocale
##ocort
emp
space
substraten
onderscheid
##icaal
zeker
##programma
##acu
verpleegkundigen
##60
cytoch
##ilaire
levende
percentiel
cef
membranen
dochter
##eest
cmH2O
aanval
Medisch
sinussen
rand
details
bestond
Escherichia
leer
opnemen
verwijzing
Tr
Jap
willekeurig
Insul
geconserv
##moe
diagnostiek
##orvastatine
onderzoekers
##clusies
indust
##choline
COM
celdood
nn
##iodaron
langere
can
Sommige
##vlees
##oplasmat
statistische
##uls
uitgangs
Laboratorium
##azepam
##uld
pal
observatie
##wek
onderhoud
NMR
##ofosf
Lung
##aas
uitstekende
Aut
retroper
geteste
totdat
##VD
##artic
##illa
##responsen
zoogdieren
##merc
##optim
SG
lev
##peraturen
##tocol
kwal
##oepel
HCV
Ros
bemiddel
##PH
##zoeken
pasgeboren
##reoïdie
heel
##ures
hypertrofie
##aai
algoritme
osteop
alternatief
integratie
##aardigheden
LDH
krijgt
Elekt
##andaard
incubatie
varieerde
##iologisch
##reening
##class
para
##ionen
##benader
##jug
head
##umab
FL
lijnen
VP
##gressie
subeenheid
immuniteit
##ata
overig
dienst
ves
multif
variërend
activeren
##orrige
structureel
##haaf
oplosbare
##avirus
Naast
renale
sul
Complic
besluit
##DER
geïnjecteerd
afval
Scale
L1
##intens
avond
konijnen
##otypen
fix
gevorder
synaptische
misselijkheid
##aserem
Aanmelding
pector
gekweekte
kandidaat
ingreep
##90
##sne
##ATE
delta
kleuring
histologische
##egment
##vaat
Operatieverslag
anderen
wereldwijd
aspirine
##erente
##rijf
willen
tip
##athion
CKD
identificeerden
##beta
thal
As
##tage
basaal
variabiliteit
intermitt
geslachts
Inc
geladen
ond
schad
influ
##ori
Creatinine
pi
diverticul
geïnteg
##iveau
sleut
325
##biopsie
keuze
##usp
poging
voerden
Vier
Bre
##spieren
voelt
##aalf
angina
Bili
##waart
krachtig
##essant
EEG
##orese
handh
assemblage
##iër
##coëfficiën
therapeutisch
cath
##ulerende
erf
wijd
##tubeerd
DOSE
##mende
onderdrukking
##rache
longkanker
nanop
##inol
##diol
onderdrukt
##aria
##patronen
##idis
##strategieën
##cal
##icientie
interstit
##ozen
##beoordeling
BR
##com
discus
gecombineerd
voorspeld
##sniveau
##28
##eef
bespreekt
RP
oplossingen
Hemat
adip
sensorische
bolus
##woorden
Monitor
##aminofen
##hersen
polymeer
##oien
hulpmiddelen
bleven
aankomst
intram
falen
implementatie
anesthesie
lim
beschermende
PB
elektronische
chronisch
##lycer
bloedstroom
bestraling
106
HTN
oestrogeen
##ette
pakken
##osens
embryonale
##iforme
##huid
mL
ouderen
##bl
##gels
vloeistoffen
hoek
##zhe
##waartse
##stijden
##umoren
##ectine
##antoprazol
katalytische
Sol
complicatie
knock
verstoring
chloor
individu
##BTB
vergroten
sotalol
CRT
Nut
bewegings
Eerder
splitsing
suik
coderen
vrucht
##verhouding
##itud
##metast
compressie
##zon
##kins
##osen
belem
##frine
omgezet
bescherm
cysten
gecodeerd
##component
##adrant
eierstok
gunstige
##sec
gesteld
pancreat
onderworpen
##ocumente
##eprazol
##fol
##erpen
kwamen
beval
##ident
categorie
##34
##ycodone
gedefinieerde
trombus
##team
##ined
hemoglobine
verzorg
##raakbeen
##chtend
goedaardige
verduidelijk
gewogen
##sub
opslag
TSH
poliklinisch
adequate
##aec
##FP
##ssysteem
eic
Pulmon
##utaan
zorgverlen
##aarde
##sinter
##ocomp
##nelheden
device
prominente
##ypen
herstellen
stelt
hor
Gaat
beloop
nabij
cytokine
myocardi
hex
commerc
GABA
##orting
##stherapie
zelden
CPAP
plotseling
Sal
NY
##endens
endometrium
oes
40mg
interleukine
gerandomiseerde
verdenking
verdikking
##straling
##accharide
##zijdige
moduleren
coronairlijden
##A2
glomer
leukocyten
klaring
pediat
##oestand
hypofyse
##DM
##uscul
schijnbare
Den
wissel
##ole
superieure
LVAD
##zheimer
Japan
FI
gevisualiseerde
resulterende
2006
##B1
concurr
gestimuleerde
##oder
voudig
lactaat
gekarakteriseerd
hiervan
##hang
Medications
##apamil
CONTRAST
##esen
hypoden
Pulm
##populatie
steroïde
vinger
based
microbiële
kolon
ACT
meld
##verse
##rië
##opidog
epithel
LS
Sm
##fo
genoeg
fosfolip
verwante
##namen
kwest
##BD
verklaard
mijn
film
definitieve
inse
neu
verlaagde
netwerken
transplantaat
output
onzeker
gemute
wan
aer
gent
sputum
creë
##pert
##net
##ofiele
##dehyde
gelokaliseerd
fenyl
pleuravocht
##umptie
##stitu
##omeen
dië
##oflu
verlagen
INSTELLING
poliklinische
##tensieve
disease
##led
huisartsen
kb
Et
##KG
##veal
tender
epi
uitslag
project
verdwenen
CD8
##ck
##ioneel
##umar
##GA
##verw
##verz
##rog
##ciplin
eval
iliac
ref
dementie
##sk
##icter
Eerste
##achtig
##ollen
Skin
VF
gedocumente
##erm
vaten
sequencing
##oprofiel
gecompliceerd
kritische
bewustzijn
vermeende
Lang
fosfatase
illu
##adigde
onderwerp
souffle
##K1
Nog
##oudering
punten
adap
geaut
tan
Sim
infect
##tomografie
##ius
##BB
Glyc
##ologic
gehoor
gemodificeerde
onderdrukken
Eerdere
##splaat
actine
determin
HO
profess
verkalking
nummer
meldt
blad
##stechn
emotionele
gisteren
##ameth
att
reproduc
gunstig
##ras
wakker
Kliniek
Alzheimer
ontdekking
dihydro
gelegen
absol
LH
##RO
##eeksel
assessment
dal
##buter
##can
##eringen
uret
##TER
gedifferentie
inhal
spanning
##eral
fyl
##membraan
MMP
Staten
onderzoekt
##ypes
170
Gegevens
##inese
##opisch
gesloten
##ineres
microm
slagaders
ongeacht
diensten
heterogene
##opidogrel
Prop
prost
##ivariate
##ductase
Aden
uitkomsten
associaties
Las
koppeling
##weefsels
Huis
interstitiële
geïntro
hybride
VEG
simulaties
lar
##ovirus
levert
radiotherapie
gezamenlijke
Chief
gebruikelijke
organisme
Pertinent
##riend
##buterol
antimicro
willekeurige
##etine
handhaven
zoek
##ther
##zetten
geheel
kenmerk
##opa
nitro
##fosfaat
BL
IT
fluoresc
##enste
stoornis
##rocardi
##lia
##ijfers
zone
##son
##veld
##tended
Onlangs
##oplasmatische
isot
Ret
gezuiverd
SI
staart
cat
paran
##hydrogenase
##itutie
PMH
immunore
Verenigde
geconcludeerd
##roe
##stering
verschijnen
bewegingen
Neem
opmerkelijk
Flow
verondersteld
Wel
##moid
##lim
schatting
##nnnnnnnn
QHS
parenchym
##problemen
##versch
left
Cre
evolution
The
alk
##perfusie
##bu
sociaal
tegelijk
geschatte
gesc
kernen
TO
##passen
##esium
##itief
##rab
vascul
lu
mogelijkheden
##adin
sensor
omgekeerd
Nieuwe
hoorn
Kan
gelabelde
schizofren
##atum
kweek
##chromatografie
##ureus
Document
Zuid
fluid
vaccinatie
drempel
voortplant
##gie
##stadi
versn
2021
##wijzing
Ambul
silic
patent
voorheen
##tige
LY
##vuld
gestaakt
C4
Gem
Techn
POD
##osale
waterige
FFR
onmiddellijke
dorsale
beperken
verplaat
beiderzijds
wezen
dimensies
Afrik
zwakte
Hum
temporele
TECHNIQUE
Line
dij
##strueerd
instructies
infectieuze
luchtcellen
##ofage
vi
##cons
shift
PN
brief
##ksgezondheid
lichamelijk
geïntubeerd
verkalkingen
##missie
weerspiegelen
##oeien
##long
##schade
##aardigd
aanvullend
##iverende
school
##astom
glutamaat
##duceerde
sleutel
gehand
imaging
135
##hydra
##atib
gedetailleerde
verslechter
PQ
kleiner
verklaring
idee
##jectiefractie
##kundig
prognostische
archite
##OOR
##hyleen
special
cla
##lyk
micros
gehandhaaf
klonen
##gas
##okokken
contractie
HCC
ochtend
wet
gecorrige
Amin
Eos
beperking
##orven
geïnter
##agul
Des
steun
omk
gehandhaafd
Em
module
Belang
vertraging
kankercellen
kappa
spectroscopie
Bacter
cluster
dex
##tieve
geavanc
Opname
Verdere
FR
##iaz
pathofys
2005
fasen
##uari
Radiology
kiem
tax
Ged
Clinical
lossen
scheiding
Chest
well
fibrose
antip
ME
aud
##29
cirrose
nadruk
prolif
omvatte
hepatische
ventrikels
zink
gevalide
bevalling
Risic
Ontslag
##rofie
cAMP
verandert
Ger
zin
##lodipine
##capaciteit
fren
Size
Condition
definiëren
nas
##vragen
##part
Guid
voorbijgaande
##rimin
##actief
##wijzigde
##groe
##frag
inspanningen
NV
lood
temporale
transgene
##iaanse
Lev
ACS
liganden
##urt
centraal
stere
##bronnen
tijdelijk
Matig
##WS
Hoog
Chem
bemiddelen
##ofactor
fragmenten
##rens
ontbreken
massaspectrometrie
##dz
uitzondering
##uz
##omonas
placent
deficiën
Family
##dynam
influenz
meta
##opre
casp
##eck
knoopp
Eén
zichzelf
Bekend
diss
geac
psychiatrische
kleinere
femor
chromat
ASA
creatinine
##gankelijk
##eph
olie
theoretische
##formaties
manip
##itine
Pers
afbeelding
neonatale
##odon
115
##rolog
fenomeen
vereiste
Pacemaker
##kinson
zuigelingen
LVH
stuk
Verrichting
dysfunctie
cyclische
##anim
vermoeidheid
##YYYYYYYYYYYYYYYY
longembolie
bip
FY
betrouwbare
interpretatie
sedatie
adolescenten
##othy
##rapport
##aban
QTc
##oelen
subclav
Doctor
pyr
waarna
tanden
##oeps
##deerde
variaties
plasmac
##matigheden
apoptotische
genotype
ortho
zwakke
linkerborst
##afrag
mach
lies
medicamente
##rid
##iland
##beheer
cytotoxische
##herapy
ervoor
##herent
naald
VI
setting
##wortel
Klacht
##ake
enzymatische
##stern
epid
gezichten
rapporten
##ablok
##GR
##sse
juni
stri
##oxidase
PUL
bloedcellen
SO
##ikken
zee
##telijk
vetzuren
##acte
Zoals
##ateuze
Men
normal
lokaal
##ellings
longitud
gevo
##gemaakt
frequente
##ritische
FiO2
Myocard
##pathische
echte
starten
##ioden
EKG
##ality
108
##ced
sedi
RES
leuc
##laesies
##ille
Tri
tandheel
GT
800
##quê
teken
profiel
stoelgang
##ringende
vermoedelijk
verschilden
biomarkers
desc
bek
geëxtra
steeg
##eget
baseline
ruis
trim
Tevens
milj
##schak
Ster
109
bezorgdheid
MEDICE
rectum
moleculair
Aanvraag
##EHEH
##urine
Prim
opsp
steroïden
deficiëntie
Familiegeschiedenis
##aadpleeg
NPO
warmte
financ
##adol
OM
##NOS
##functies
##okt
bevatte
##streren
TNM
pectoris
holte
Mar
low
##abele
Geb
anterior
nul
cardiaal
schema
b0
kolom
hypothal
okt
inferior
##oli
##ontale
supra
##vende
intrinsieke
##const
##armen
nicot
Ken
modulatie
conclusie
##bestrij
piep
Prof
##ca
mesenterische
##opress
empir
##oosheid
##ofol
Concept
nachts
tijdst
Dys
##cope
nierfalen
Verslagdatum
schouder
spectrale
##zym
patch
geleverd
EGFR
##tekeningen
hybridisatie
Lymf
cytochroom
BIL
##geruis
##tings
prednison
config
hydronef
##atterij
verwachte
##odynamische
vanc
feb
uitst
##off
verblijf
##oyl
##epro
##oglyc
percutane
mede
##glut
sites
##but
##agon
##ISCH
SL
107
##riminatie
Verhoogde
2004
typisch
reproductie
Hun
TB
Vijf
tim
demon
##emic
##elin
metastasen
tegelijkertijd
##staties
##laagde
SB
conformatie
C6
##modi
intrahepatische
##rocyten
##etermijn
gesproken
kwets
##celcarcinoom
##ARS
##da
##verspre
beschrijving
reveal
##annen
##irst
##splaats
personeel
##umadin
pall
grij
oppervlakkige
disp
posterieure
Binnen
zoutoplossing
resistent
middelste
lumen
##SC
economische
Nier
januari
endotheelcellen
interactief
##nec
getroffen
##systemen
##olact
voorzien
Tumor
Thuis
Momenteel
cellijn
Gast
voorl
bewaard
inn
afhankelijkheid
##urend
##vale
##idale
##velden
plasmam
glutathion
##lykemie
tijdelijke
##ural
EO
CAT
Cel
ile
##verbindingen
##gg
bevordert
IU
pediatrische
##back
##D1
##lot
vullen
##herapeutische
opio
##ads
##ryl
##ogels
BA
##ient
treatment
SE
adju
450
correctie
extract
klim
Bevindingen
veget
##fectie
##gend
##ijns
verenig
nanode
##merking
pijnklachten
##ifer
DES
##paraten
Roken
##tt
zak
kristall
##ish
##roken
ondersteunt
OSH
##behandelde
##vir
geïntroduceerd
HCK
SOB
##uma
##waarts
ziektever
##loze
Uw
bdz
##oo
##III
##ilept
overheer
##ffusie
##dema
celproliferatie
french
geluid
E2
##spra
bevinden
Event
zitten
andro
graag
Dien
##familie
statine
##gebre
acid
nuttige
Gel
mn
##yleen
##pan
Foley
orig
depressieve
##ules
Chinese
Aorta
°C
nadel
drupp
geestelijke
regurgitatie
##kort
locus
Meest
##alings
psychologische
##populaties
gewichtsverlies
ontwerpen
radiale
##lopen
CHest
Radiologie
##calc
Ritme
138
omgevingen
##antal
ondersteund
produceerde
##itraat
##sende
meervoudige
Version
immunoglob
##omisch
toenemen
heer
cystische
symmetrisch
adhesie
veroudering
##kennen
levensvatbaarheid
voren
vindt
echocardiogram
compartim
sal
##loos
##orine
radiografie
Links
perman
opvallend
microb
##amycine
##tijdige
Vro
##istieke
##domein
##lichaam
##leb
ontlast
perme
rechterborst
##ficiëntie
##isel
Blan
##idt
uitsluitend
inzichten
endocriene
gestimuleerd
##delings
gekozen
Orale
plannen
##orescentie
buikpijn
doorgaan
neurop
morfine
##olie
aangenomen
zure
Bew
Bovengenoemde
##etectie
GM
##airen
##regul
reconstructie
bekkens
Pa
##rar
MMM
Q8
##35
afgesloten
##plande
##opulmon
##splaatsen
##ectale
pil
##enis
LT
jaarlijk
eryth
##NF
1999
risk
NR
eindigt
heterogeniteit
bijge
##otisch
Anders
gewrichten
leek
##ves
##vezels
mono
Non
##antagonist
eigenschap
dip
gekoppelde
hersteld
##biqu
00AM
##wijzen
##tensine
bezit
##ördinatie
voorspellende
katalyse
##ash
##ORT
##iserende
rok
##ositeit
Cursus
lamin
bewezen
Volgens
##ounds
Furosemide
access
China
ND
T4
##VP
cytotoxiciteit
antimicrobiële
bundel
pacing
##oste
versie
μg
##iders
kraakbeen
Ureum
maart
longslagader
mengsel
##edische
##way
##beerd
##drukte
gemetastaseerde
##knoop
Nutrit
login
bijgeluiden
immunosup
Nucle
B4
##lepsie
ontdekt
##schien
##diagnose
pomp
##moleculen
reticul
Control
L3
interview
##stap
ABD
##inaal
herhaald
##wijze
correlaties
##eta
gradiënt
gevestig
##ikend
Sulf
##oezem
autofag
Huid
##inname
Ons
Chol
Veranderingen
Fac
##synthese
Longen
toxische
lineair
opgeroepen
taken
back
##parenchym
##datie
##parameters
wacht
beroeps
gladde
##DEN
miner
##cor
diur
Gl
souffles
temperaturen
serot
##rete
hydronefrose
gevaar
##sequenties
elektrol
behoren
##gevoelige
deficiënte
oppervlakken
versterking
139
HPV
##raf
##rex
sneller
waarnemingen
##erc
ACE
overleden
Blanco
##fferent
##ada
##othel
Path
dram
galact
nM
hilar
##stenen
instellingen
geëxtrah
examin
moder
piepende
geavanceerde
neutrofielen
##icteric
##ocarditis
##visie
##beschadiging
Voorgeschiedenis
NECK
Betreft
##idende
##onnen
mitochondriën
Asc
##contin
##ork
##dienst
CHF
Br
##volumes
##iger
##amol
##afdeling
##ript
duct
perip
elektronenmicroscopie
stijging
Syn
##ephal
CMV
conditie
##aliteiten
nanopartic
identiteit
knobbel
gol
nanodeeltjes
dikte
##ious
Mit
gepubliceerde
april
decompensatio
##liot
longontsteking
Zeer
constante
##onregel
Studies
##otrans
Continue
137
Univers
uitstre
regime
artro
ald
zover
MG
##ocriet
##iduen
##37
##ush
##rictie
##ariteit
after
##derende
recombinant
colle
samenge
contro
##vere
subeenheden
apicale
hap
prostaatkanker
Ren
##routes
##complexen
autor
##lux
galblaas
oxy
##osynth
kinetiek
corp
epilept
136
##activatie
##temperatuur
bic
overige
NYHA
zwangerschaps
##onchi
biliaire
##eeuze
##iqu
Voort
VAG
volksgezondheid
rijping
##loog
##genaam
vragenlijst
symptomatische
anastom
##armoede
input
##consultatie
SNP
seizoen
cas
speeksel
twaalf
lus
##sensus
responsen
juli
cT
waaruit
##PR
Laat
etiket
onvolle
Congenitale
zieke
##ransport
Succesvolle
support
AoI
Myc
eten
##keken
zoeken
Hz
##hormoon
##compliceerde
Intern
vrijwillig
##schema
bevattende
##red
Spi
necrose
kwantificeren
redenen
leggen
##sprogramma
osc
##elk
##plijden
technische
adsorptie
placement
prikkel
nl
Ul
leverde
##beur
##index
Amino
volg
moeders
suggereerden
macro
bewust
mV
albumine
##ransplantatie
Ur
palpitaties
verontreinig
geraadpleeg
aangezien
neoplasma
zorgvul
voldoen
Buik
##imet
wetenschap
ontwikkelingen
agressieve
soepel
verstrekt
POB
hi
coval
##bezoek
cursus
##meting
##scheidingen
progest
Sur
##heren
##ear
mobiliteit
zwangere
aanleiding
tol
aureus
##ondition
##intensiteit
geluiden
ene
DN
Lasix
pathogene
##ORM
tolerantie
fibroblasten
resulteren
SVC
paroxys
Interessant
verloop
##viseerd
BD
Mn
ATPase
West
introductie
mesen
geplande
Mut
gelabeld
Art
IH
patiente
ople
##ALVALV
fouten
##iteren
bewegen
univers
are
samengesteld
intubatie
groeiende
##ondersteun
OB
oriëntatie
##iëtale
Antib
minst
##opathische
##wintig
Magn
##ales
derivaten
##bewegingen
##ressure
Abnorm
dissectie
verdacht
##onregelmatigheden
##lank
##ructure
Calciumscore
T3
Even
##otrope
##ronolact
##irc
immuunrespons
introduc
numer
##amentele
##abil
hoogstwaarschijnlijk
Teleconsultatie
genezen
##liothe
bestudeerden
##apping
##oproteïnen
drukken
varieerden
##entine
moest
uurs
PEG
symmetrische
ovarium
reumat
fec
annu
Succ
ubiqu
zaad
persoonlijke
##vinger
overeenkomt
LIMA
auton
Start
Molecular
##flux
Full
vergrote
Opties
##ialisme
FD
Ga
##contact
##tense
families
LUN
pancreatitis
##infecties
##chirurgie
##dosis
enquê
ureter
latere
furosemide
##iotische
peritoneale
##aff
##aft
georiën
##vervanging
##ociatie
Vitamine
gezuiverde
gepubliceerd
##werv
Stress
TIA
dwz
NB
risicoprofiel
##lact
vierde
##bestrijding
elect
repolarisatie
graft
##oekt
abnormaal
Clear
onregelmatige
##rubine
##raad
mij
vrijwel
Peptide
##itive
centrum
bloedarmoede
##wan
voorbereid
foley
kankers
SW
coronairen
Nit
##eeded
##tische
afgest
##ocardiocardiocardiocardi
primair
Stre
longbasis
geraadpleegd
geïnfecteerd
Dist
##hes
Bal
bili
voert
##port
##bound
operatief
geblok
##56
bijwerken
##ival
##lijning
korter
##dilatatie
opw
recombinante
##ands
##atalys
##ieniveaus
Cardiomyopathie
chond
werkings
Stabiele
##different
Vanc
##amenstelling
##bic
##RH
##oorzicht
##huis
DF
ingeb
##dend
osseeuze
##vonden
pg
dwars
##ukary
cerebel
##idae
revalidatie
verzameling
levensduur
##uspen
##leving
Succeeded
bloeds
vide
amiodaron
##fibr
distaal
##gebaseerde
fundamentele
##lenol
circulerende
TEE
interferon
reguleert
##oïne
##nex
Nutrition
##ëro
enorm
Mr
postoperatief
0001
oscill
mas
VEGF
put
##NL
alpha
Tach
remissie
Soort
koper
reagen
botten
novo
murm
reactief
##osm
##T1
betrouwbaar
apex
##syndroom
extracten
praktische
##DR
histopath
Verpleeg
##dagen
vaccins
##iëmie
Genome
activeert
blaasjes
Warm
paranasale
Mentale
sectie
Pantoprazol
##igenschappen
##passingen
##orrag
period
Neg
kost
eosin
RN
##Bili
Europese
##ISS
bijzonderheden
##formeerde
horiz
extremiteit
herkenning
##ynaec
maakte
##activiteiten
loopt
betrouwbaarheidsinter
##omyc
##aph
##VA
##CO
##mak
defecten
geoptim
##vig
##nect
degeneratie
##oxiciteit
##ënten
indicaties
toestanden
retinale
##velop
##gifte
caspase
##losure
##inefrine
##otorische
Grote
simulatie
cum
verwondingen
antioxidant
##TS
acties
gb
dod
biosynthese
##ete
fout
behoeften
pm
P4
##bumin
Wh
tevens
Wil
paren
lateraal
##etje
embolie
##assay
##nT
LP
Plas
ziekenhuizen
##mate
US
##leet
epitheelcellen
shunt
##stisch
NSTE
##aw
erfelijke
chromatine
flav
Bo
µmol
verdikt
##oco
hechting
hematopo
aangebracht
mor
Extremiteiten
Glu
bur
overvloed
##lopende
gemuteerde
Elke
geleidingstijden
overeenkomen
handen
vlees
translocatie
C2
##oxyl
longitudinale
##sens
woon
wh
Signific
##ifiek
versterken
##durend
creëren
##T3
kritieke
aanb
overvloe
analyseerden
pent
Bewustzijn
Richt
EL
data
preoperatieve
complexiteit
injecties
prospectieve
Heparin
ascendens
grof
patint
##ytisch
##elijks
evidence
Data
hydrofo
uiteindelijke
##ocell
ham
##grade
obstructieve
colitis
Hydro
transfer
induceerde
manieren
farmacokin
##aalden
Verleden
##inderde
miljoen
Can
lijden
tre
misschien
##pressor
proton
herziening
##uitslag
cytokines
persoonlijk
Special
keel
##ITAL
auditieve
geboren
Lymph
##componenten
clusters
epilepsie
gevraag
telefonisch
spoor
##voet
##neemt
##fus
ost
##fre
verworven
analogen
spectra
methodologie
##aandoeningen
##Ph
inspannings
Conditie
optimaal
##retie
Lun
bede
##col
##differentiatie
##slijden
##eper
##aders
vlucht
analytische
##esp
LF
vaardigheden
##gestief
blast
##iftig
##zeker
vector
adequaat
kruk
eventueel
virul
levering
loci
uitdrukken
monoklonale
ammon
##vallende
##acillus
##ARY
Verwerving
CTAB
##etijd
overb
UN
allo
daags
##risico
ray
profylaxe
Q4H
##65
##obil
schizofrenie
hypog
zichtbare
##potent
CoA
cad
sperma
litteken
verergering
##ovir
syndro
geïdentificeerde
object
synerg
##avond
position
##essie
##wekken
middels
##ayed
thyro
hx
bereikte
Zorg
Neut
tun
##ymmet
Dag
hypertensieve
Goed
##beurtenis
##veisel
##sulfaat
beeldvorm
L2
##esearch
films
schadelijke
alve
retentie
##techniek
cardioversie
discussie
visueel
111
immuunsysteem
##geerde
##oefen
ingu
monocyten
stralings
complete
##wervelde
intermitterende
Voornaam
Research
fung
opkomende
glas
##otrof
combineren
public
SF
caud
##benadering
EFO
TAVI
bijnieren
rebound
microtub
systematisch
kleplijden
##rotische
toestemming
TLR
##hex
consensus
vest
superior
##ruit
##ismen
getrokken
besloten
pool
berekeningen
meis
woorden
##akom
overleven
placenta
grens
yo
proberen
Net
##arynge
##cub
zijde
FYROM
suiker
##verschillen
Experiment
##knie
slang
telefoon
evalueerden
deels
112
bijdraagt
schrijven
schapen
identiek
##auz
##onat
Val
respiratoire
Mac
hydrolyse
IgM
modificatie
pren
fixatie
bevelen
dominant
145
verhogingen
bood
##udingen
##necrose
##lasie
ie
mesenchym
ondoorzicht
LABS
geadviseerd
##phone
verzamelen
voorbehandeling
gemat
orb
dimethyl
NSTEMI
##ario
uro
General
spraak
##urese
##acer
apothe
##apine
Helder
Ambulatory
neurode
stopgezet
Q8H
vena
correct
##leten
navel
gedocumenteerd
fosfatidyl
afwijkende
gevraagd
##lust
gewoonlijk
ind
##halve
Gebruik
Au
geconserveerde
##traat
bekijken
Parkinson
PAR
absolute
pijnst
##ler
##ophila
ip
semi
Respiratory
gelijkenis
##gorde
riv
Pijn
##akomelingen
##gekeur
femur
00PM
##vrouw
emissie
langzame
WE
cytoplasma
advis
dosisafhankelijke
gespeci
verslechtering
##igd
silhouet
infuus
bacterie
chemot
Ni
gewrichts
ontstaat
2dd
reactiviteit
berekenen
FIND
##redi
stierf
trad
##stests
##menteerd
adaptieve
Bespre
##iepen
reflex
##ollings
volgorde
##ythm
neutrale
cytoplasmatische
##ALY
signalerings
##yps
PNA
luc
fasc
##houdt
##amethason
##itmen
bewaking
fyt
##fun
Chirurgische
pig
fracturen
foetus
database
Kw
midline
##trom
##uronen
##kkoord
rs
herp
Verm
groeien
thi
##mid
goedgekeur
##iers
instrumenten
##aster
##ocortic
verloren
##RM
##wijf
fla
ara
Cardioloog
Pseud
IVC
opbrengst
anth
evolutionaire
##onderzoeken
##onzuur
##uits
##gangen
spor
bilater
produceert
##balans
##aamd
Klinisch
Onderzoekdatum
projectie
coronale
cry
kinetische
laagste
knobbeltjes
##cellulair
Noord
##romatische
Neemt
PKC
VAP
ana
##3K
differentie
gekl
##eemt
National
Su
##progressie
##ism
##antia
##ico
##onyl
ADD
Cyt
##waardige
preventieve
React
pad
staken
Thorax
##iten
##otoxine
nierziekte
afbeeldingen
rehab
vacu
##processen
##ytheem
##immun
##abl
synthet
boezem
hierboven
##pon
##ained
CRE
transform
afst
lading
serine
##ovasc
Multip
geclass
maternale
pra
##UD
##002
begele
##zyg
anatomie
uniek
##streeks
afgeb
##behoef
si
atoom
##imes
excisie
target
uitput
toeneemt
nakomelingen
2002
##TH
##vit
Bewustzijnsniveau
graf
paden
ga
ADP
##organisatie
gebruikers
hemodynamische
slank
weke
##strategie
kindertijd
vergelijkingen
Form
##ICU
##ailure
##hod
Note
hypokin
##omorf
##tjes
CZ
fractuur
draagt
anterieure
Moleculaire
polys
ontlasting
Bar
conver
##uss
groene
nadelige
##DP
verde
##ora
linkerboven
Poliklinische
letsels
overmatige
##clude
ejectiefractie
schattingen
##iekenhuis
Init
partner
##otomy
familiegeschiedenis
##hout
##ementen
verdoving
##dist
##schijnlijke
neo
rapporteerden
Vitale
samenwerking
streng
D2
belast
compens
arte
##athie
##iceren
##junct
##iatief
gevalideerd
System
voorbeeld
commerciële
stern
epidermale
december
occip
##receptoren
wijdverspre
##aldehyde
Diff
trach
splen
eukary
##dreven
##ofageale
GTP
##verst
##trek
tandheelkundige
verzoek
##ettingreactie
##laesie
EV
diafrag
familieleden
parac
genaamd
CCU
figuur
##ved
##animatie
##ady
aantrek
spannings
subcutane
Fys
nefro
##beperking
##ransplant
Uitgebre
Pen
##stoestand
hartziekte
##STR
ritmestoornissen
##criteria
liet
postn
Spont
##eerbaarheid
##erine
##elz
frequenties
##volge
zeg
##bil
##leren
endocarditis
kunstmatige
##aciale
##vic
Fib
gron
##iwitten
##auge
achterste
asymmetrische
##duit
##bell
hypothy
##astrische
aanvaard
Pe
Pr
precur
##dib
verwijding
Link
##lijft
vaginale
##leur
tong
##brile
erytrocyten
##hans
Vand
Soft
wandonregelmatigheden
##ifen
##rank
##uwd
##entriculaire
##anties
##orderline
##sion
ii
BAT
somatische
passende
geëxtraheerd
nationale
geper
##ssnelheid
nucleair
plaveisel
Sen
Rechter
Leuk
Rel
Alcohol
##delijke
stu
Lever
pandem
Perif
tekorten
regelen
##ellow
cardiopulmon
S1S2
MHC
moeite
overlevings
##iatieve
aantallen
##ican
PPI
doet
##NO
AKT
adenocarcinoom
##HHHH
verniet
##ization
##adigma
##BR
overlijden
fun
plasmide
ervaringen
dyspneu
natuurlijk
myeloïde
naarmate
##bev
##inase
vancomycine
genezing
comput
##pendent
##oxidatie
##vormingen
##imus
arteri
##idisciplin
##plaatsen
Gram
##ëin
AVR
SPECT
echocardiografie
indirecte
##ectatief
##ivaat
Action
cyclo
antiv
##LS
##aminen
##ikelfunctie
zorgverleners
EPI
##eutische
misbruik
idi
##angiografie
seksueel
Social
tabak
eiland
##amenten
##ventriculaire
transcriptiefactor
activity
##hyp
strept
kwaadaardig
linkerkant
carotis
verduidelijken
cocaïne
ademgeruis
Different
ziekteverwek
##idazol
verpak
view
AO
verstrekken
elimin
Coronairlijden
reperfusie
##ieg
homogene
##ileren
##spercentages
vrijwilligers
fraction
##pg
10mg
##apparaat
etn
##cript
2001
tran
##mcg
##roepen
##kg
houding
gewone
abdomin
accessoire
BNP
SARS
zelfm
afscheidingen
Risicofactoren
##emon
HPLC
rechtstreeks
tevreden
##Phos
##ibele
stimulerende
##plante
congestie
##formine
drinken
##transplant
verwer
suggereerde
EOMI
bind
##potentieel
##prop
##insufficientie
##iratie
SOD
P2
Diameter
##oston
##ijfer
operaties
lot
##CS
##geneeskunde
lymfeklieren
gebleken
##diceerd
aritm
hartfrequentie
ALAT
##uurde
snelheids
BAL
erytheem
##alige
bellen
troponine
retard
Ax
##raine
##ijft
##weer
##osfaat
##meel
##draagt
gestandaard
myocardiale
dox
VERKLARING
##eceptor
##temin
##verdi
driedimensionale
##HY
immunoglobuline
##ston
waarom
##stadium
netvlies
##tent
ju
##pas
capillaire
risicofactor
terminal
overla
##bacter
Thuismedicatie
##osus
##ograph
holter
diepte
artefact
angiotensine
Identific
afwijkend
tuberculose
##lijm
cerebellaire
premat
platform
ok
durende
##laging
bovenstaande
schoon
intraper
##oeling
implantaten
fibrill
perspectief
##locaties
##ronch
coll
##arter
amyloïde
Extr
verbeteringen
##ike
optimaliseren
##ocytaire
##ober
CoV
vetzuur
pup
hypertrof
instantie
interface
Dra
takken
##imens
replic
gekomen
##heet
bezig
ventrale
bestudeerde
##ularisatie
Laatst
besteed
MEDICAL
klassen
aangetast
##down
##gerichte
Facility
gebleven
erkend
##werkers
geslachten
##etra
##ationaire
fistel
##olonie
Imaging
AlkPhos
micron
##ocyst
##oncentr
Study
verschijnselen
geclassificeerd
pak
coherent
##teren
Recent
scherp
pseudo
##spraken
##yte
kritisch
syncope
weder
basislijn
binnenste
##ners
configuratie
onderwerpen
wervels
seconden
GS
CD3
TV
axillaire
sport
face
anion
##stimulatie
##ection
verdu
Sounds
##medic
glycoproteïne
##UB
onbehandelde
PAN
##WI
Hypercholesterolemie
antigen
Trombocyten
full
##iak
pneumon
werknemers
akkoord
##tijden
need
WT
##opte
##fiele
##ASON
Hierin
biologie
ontstekingsrem
##etic
analoog
##EGEGEGEGEGEGEGEG
Recid
PAT
belemm
##ageert
##ressing
verschilt
anicteric
##onucleaire
##gebeurtenis
##agland
veroorzaakten
uitwisseling
Events
Boston
##ethyleen
Ct
TotBili
##helft
wort
feedback
geblokkeerd
ped
##ATION
differentieel
Screening
filter
vrijk
stenen
gemeenschappen
onderdrukte
##stil
sera
kwaliteits
##gaat
linkernier
tekst
PEEP
hemodi
foll
Hartklep
pijnlijke
Deel
feeds
Extended
infiltratie
New
body
Atorvastatine
rRNA
stable
spermat
LR
Aust
strand
##odg
embol
verhoudingen
samengestelde
##VERKLAR
Complicaties
pariëtale
##coëfficiënt
fit
##ochemische
##verwerking
apicaal
C1
##coh
oplosmiddel
GLUC
huiduitslag
##hm
hydrofobe
##umber
kippen
##otoxiciteit
Guiding
Telephone
inflammatie
Bio
ns
Rem
##compressie
overwegingen
##ferische
Allergies
infrar
ri
UC
veelbelovend
FEN
##eng
##ymptomen
percept
##osomaal
Si
conclusies
##orbide
besluitvorming
classific
selectiviteit
##iral
HG
##drachten
##cyst
##breuken
hiel
Disease
##monoxide
Gest
testosteron
##zige
antine
##iotica
##spatronen
##omere
##interacties
##rassen
##zine
VES
handel
klier
116
fracties
##afe
##stream
##esis
118
Dru
##eps
voorbeelden
##speriode
mondeling
##ignaal
Q12
fab
zwarte
Echocardiogram
aantekeningen
gevorderde
Beg
acyl
schak
symptoom
Bleed
stra
mu
opacificatie
Western
##eters
voorwaarden
Ongeveer
##aid
##ositol
lymfklieren
biofil
73m
bloedverlies
conservatief
frequent
os
fenotypische
##F1
schimmels
##oracale
CAP
##unit
grijze
xen
Extra
herschik
ondoorzichtigheid
erger
113
##lion
##cale
multiple
##eeeeeeee
tap
##don
CARDI
instabiliteit
##klinische
geautomat
fag
afwachting
ak
##ssequentie
##roei
antibiotic
bloedt
##icide
pyl
##sies
aantonen
vlekken
##bevindingen
##monella
nale
Dus
retrospectieve
tRNA
opnames
##osering
##isende
##organ
nanoparticles
##ozo
vergemakkelijkt
##TEIT
Du
UA
welzijn
##orrels
##uties
zegt
globale
##aceae
radiologie
Max
antis
nano
Acetaminofen
##ostomy
ronde
scintig
Gol
Numer
uitlijning
##ïs
epigen
DH
VAL
##ematige
Bilaterale
##aarten
elektrofys
##centrum
decennia
arbe
spoed
##ovende
Normal
Domin
gekwant
opaciteiten
##BM
chromosomen
ROM
Alleen
gedacht
##ester
plaqu
Hartklepafwijking
##ront
ww
besmetting
manifestaties
percentages
##icon
##enario
Actuele
bradycardie
insufficiëntie
allelen
omzetting
Voel
rotatie
134
verzwakt
arginine
##draag
portable
coun
colorectale
##sn
##fosfory
190
Arab
gynaec
##raktijk
verlenging
##dtronic
initiatie
##stress
slijmvlies
gesim
##fosfor
Lat
valt
D3
##erobe
residu
##gradatie
cf
ventilatie
base
wijzigingen
eventuele
##phy
Anti
##methyl
##ïden
gezin
##ellers
123
##anti
##profielen
HM
vergelijkende
work
MSC
mucosale
klimaat
##afname
##fet
verwaar
##ikt
IVD
gebeld
##ropnT
antrum
zoogdier
macrofaag
##osept
histon
##amische
bedre
kwantitatief
Admit
tij
##graat
GA
vertrouwen
##oir
##PC
karakteristieke
interferentie
##ourn
coördinatie
AML
blokkeren
##atier
fibrin
SVT
corpus
##erum
Hemoglobine
##rengt
FT
buitenste
sluiting
immunosuppressie
zelfmoord
Medicijnen
HV
wijziging
tro
Omeprazol
hemorrag
SER
parameter
progesteron
##ïnezuur
htt
##herstel
Aanvullende
##ractie
bibliothe
Onverander
aanmerking
##osol
Hoge
##odgkin
##afgifte
##graad
elektrode
dendritische
Lungs
##ivalen
somat
asymptomatisch
##asal
membra
Pb
betrouwbaarheidsinterval
heterozyg
vriend
posities
iom
##icol
##ruimte
##verbet
##ascade
Cent
merk
TIMI
##R1
##ley
Ple
##kanalen
consumptie
molecuulgewicht
tricuspide
veilige
114
evt
achteruitgang
##asische
##iation
Medtronic
##ctomy
CE
leverziekte
##zigen
patients
beëin
weergegeven
Austral
Tmax
##arning
aandeel
potentie
##loïde
fysiek
reageerden
##dicap
implantaat
##lyceriden
kation
vogels
tachy
##angschik
kwalitatieve
recidiverende
varieert
##eend
voudige
mislu
modific
Oste
intr
zenuwen
portaal
atrofie
voorloper
eerstel
##ademing
##54
Medi
##gehouden
##orose
modellering
##ofyl
aggregatie
##usion
##feren
TS
##prestaties
begeleiding
##richten
onthult
toxine
apo
##plasie
##nat
SEM
wetenschappelijk
cip
metaboliet
autofagie
computertomografie
herkennen
##ectomy
##APT
Zes
ee
geleide
SKIN
##geerd
##utine
relevantie
##icyl
demping
immunologische
##naag
langetermijn
220
Location
voer
Waarschijnlijk
##ibiliteit
##omyel
Neoplastic
Sotalol
polymorfisme
TabletPO
pathogenen
ke
##ijfheid
diurese
##cardi
rugpijn
##umarol
V1
REASON
rijst
galwegen
Vo
cann
diuretica
##ranium
linkerzijde
##sluiting
verwar
condition
cutane
##oning
Lo
##omyces
neuropathie
buff
##vleesklier
digitale
tom
integriteit
First
##ta
ligament
oversch
##inyl
activatie
##ometer
bovengenoemde
##fusies
voorspelling
werkzaam
trial
bevestigden
##hydraat
donoren
##omgeving
sulci
traject
##derdaad
gedifferentieerde
##ely
lijst
##inet
gradient
##ebrile
immunode
##witch
proteïn
RESP
remodel
##mering
observaties
Bra
bos
240
ETT
##ymp
NOS
presenteerde
##vet
benauw
lob
##wekt
postnatale
Farmac
Perr
dev
voorlopige
online
exon
Scler
alcoholgebruik
vermijden
BLE
Cal
reflux
##BAT
##ns
##jaar
mill
orof
continueren
Gal
##95
##ocept
##stuk
##profiel
Zelf
TG
##vaccin
Gu
anticon
begint
dyst
##stance
##onderd
##olic
propofol
geconju
alkalische
Cx
##diensten
schijf
redox
onthuld
##hed
146
##zwollen
##keten
##iminatie
Bespreking
##yclische
hab
##aggreg
coc
Intellectual
##technologie
bladeren
HL
indicatoren
vatbaar
##derivaten
131
##iton
LYMP
##tegenwoor
cycli
Fax
echtgen
beoordeelden
industrie
MAPK
wanddikte
regulator
wt
lac
hiervoor
##technieken
133
Dysp
##inderen
##ituatie
verwant
vroegtijdige
Stable
##LV
corticoster
GLUCOSE
196
##atibel
##umatische
RVF
Dros
geïncub
HER
##medium
darmgeluiden
zus
##zenuw
gouden
ongel
STAT
Impression
radicale
dich
voedingsstoffen
Volle
Add
terugge
##beleid
chromosomale
Onbe
eicellen
reageert
LUNGS
##foratie
beurt
##ropathie
verkennen
##oplasm
fylogenetische
MRA
##cellige
variantie
##informatie
##ates
Carb
deelname
##plantatie
CZS
##volging
Behandelplan
##osynthetische
##gery
Belangrijk
##gevende
transcripties
unit
##usculaire
dr
hepatocyten
routinematige
1e
##bloeding
gerecon
sarc
##itheel
herhal
RCx
##flutter
gar
##P1
TID
ontst
##emia
MY
##atatie
##ationeel
##oping
##enoco
##ORY
lute
Sodium
wis
##ificeerde
admin
Sens
Meet
gezond
tert
Diast
Kl
##oriseerd
Baso
kwantum
##GG
##oringen
registratie
##tekening
prestatie
allergische
##kkage
##igratie
##formul
##tember
##cinaat
timing
rijke
Vent
HBV
gedra
toegankelijk
nmol
discrete
internationale
cava
subgroep
smal
##opsis
arrest
Li
##ronolacton
##abap
volum
##ylact
LBTB
opgeloste
getransp
141
traumatische
insecten
Huisarts
angiogenese
##etail
horizontale
##aseerd
dislocatie
hypothalamus
Dergelijke
A2
##ffectie
signaaltrans
gevoed
3x
psor
katten
gemak
kwantificering
Ber
situaties
gekwantificeerd
uren
##bindende
mutagen
FS
x3
only
FM
ureum
##mented
##avel
pijnstill
epidemiologische
dose
2e
Adem
Serum
premature
##bor
117
##oplasmatisch
Ben
Arg
MIR
##enocoumarol
tumorg
##ye
assistent
asymptomatische
acetylcholine
sterfgevallen
verzwakte
zet
##streerd
boog
ASAT
Overig
Neck
##VE
##obacterium
##apro
hartinfarct
##racheale
128
##itting
nicotine
cTropnT
enquête
##maken
NSC
boom
fluorescerende
gereguleerde
monol
steady
landbouw
##indopril
##ozyg
helemaal
celoppervlak
RCX
extern
##idi
impliceert
QPM
##har
oph
Mal
deletie
random
Fer
Drosophila
voortdurende
Gastro
##persoon
##sequent
polsen
EXAM
Dyslipidemie
##seffecten
herhalen
permeabiliteit
pur
Der
superoxide
##ierd
dekking
pept
##ocytopenie
AH
knaag
##vliezen
weerspiegelt
##urc
##farine
hartziekten
Adenosine
oefening
aangevuld
##dependent
sigar
webs
30AM
La
constant
CHEST
##ieet
geprobeerd
diëten
les
##percentages
##sA
##oners
##ijen
##fibrileren
neurotrans
reageerde
##mend
Kortom
systolisch
##spectrum
##rofloxacine
Maar
##stijl
Ram
gescre
broer
RCT
helix
optimalisatie
mean
inhib
##IUM
uitputting
lastname
maxillaire
##odule
PU
##oratoria
catheter
Stap
##isa
jaarlijkse
A1
##spatroon
##alisering
Vancomycine
compress
##75
SLE
Fre
##allen
publ
##otstelling
VER
connect
ecologische
selecteren
antivirale
bedraagt
##wezige
x2
##durale
##ability
aqu
plasmamembraan
##idingen
XII
geconstrueerd
numerieke
verschilde
Port
Hodgkin
##ulator
actuele
gefosfory
Time
casus
mobiele
wijzigen
examen
uitgescheiden
##ellect
##zak
Significante
aanbeveling
enhan
verticale
interageren
##obut
fentanyl
versterkte
hr
profielen
##loer
EGF
oedemen
DL
##deeltjes
proteïnekinase
Examination
alvleesklier
##uting
change
Strept
steriele
etikettering
agonisten
##ysis
daarbij
celtypen
##abole
lytische
Stro
geïncubeerd
##AGE
##ega
Process
scanning
maligniteiten
inhalatie
combinaties
naleving
opgezwollen
heldere
aa
CHAD
comfortabel
bovendien
verdun
mediaan
exogene
##heorie
transfusie
thromb
innov
cerebell
dichte
academ
##istisch
armen
Atriumfibrileren
##ibilisatie
planning
constitutie
amb
Nieuw
deoxy
650
##oename
oppervlakteactieve
Lisinopril
prostagland
overwinnen
verplaatsing
ingebracht
Balance
rustig
bijlage
lept
rig
##geluid
hypercholesterolemie
ppm
alveolaire
##ofib
Centr
Pertinente
##detectie
##streng
##CD
pressure
wens
TT
transporter
sect
draai
##rust
mesenchymale
slagen
##hem
Achter
##droeg
nauwe
##mark
##iliseren
##platine
plotselinge
##ideren
bedrijf
##nings
##isc
##trekking
##lingen
Stop
##ullaire
opget
Stent
farmaceutische
OA
ruimtelijk
technique
robuuste
isovormen
perioden
zwaarlij
proximal
##absorptie
##ulitis
##IDE
balans
bulk
eliminatie
Rhythm
Zw
gelokaliseerde
parasieten
##metastasen
minimaliseren
##ocine
maligne
Totaal
##renaline
study
twijf
##rough
cortisol
one
Ha
##ytes
##chemie
##aract
stenosen
##othyro
2L
trypt
runder
ruwe
lith
Doel
##eep
##iac
microscopie
afzonderlijk
reduc
Sa
geografische
omringende
aller
prothese
hetzij
oplever
IgA
reticulum
Enter
intellect
##43
basen
Onbekend
##fibrillatie
celm
pandemie
Weer
STEMI
HN
126
##omyelitis
Red
vertegenwoordig
voeten
indruk
bestrij
aortaklepstenose
akoest
cerebro
##ecifieke
moderne
protein
Nad
spp
Bekende
gecoördin
voltooid
129
##elings
reproductieve
gevestigde
modus
##oedeisende
banden
helpt
##LOG
##sterase
opties
robuust
terugkeer
20mg
longziekte
beoordelingen
##itaal
##ired
Independent
Two
Hartfrequentie
multidisciplin
Vragen
##ogeniciteit
##diale
nader
Q12H
TD
Fentanyl
##ivit
##47
cysteïne
rechternier
verlichting
ethyl
cytokinen
coumadin
gering
gewervelde
indicator
##iazide
##icil
##stro
sigmoid
blootgestelde
##gelijke
ha
roodheid
ruggengraat
Albuterol
##kwadrant
produceerden
gespecialiseerde
bezocht
Salmonella
ABSTR
Pi
##fract
Substance
gp
##beeldvorming
verkalkte
##lec
OD
##snede
Oxycodone
opening
##ivan
##function
opmerkelijke
IE
extre
##acerb
##rachte
afbre
##defecten
Ve
##ature
ontstekingsremmende
C7
##oline
verwachting
voorbereiding
app
LAT
geleidings
parallelle
ledemaat
MDCT
NSA
##clust
Erg
CG
HIST
##kleuring
##kap
pathofysiologie
vissen
COX
optie
##bupro
detecteerbaar
##licht
rokers
extrahepatische
##ustus
incis
KL
##statische
vergroting
RDP
doord
cate
ABSTRACT
73m²
##stammen
##PT
technologieën
##pering
##99
clinici
##vige
30PM
144
serotonine
subtype
trends
MICU
Mental
opsporing
RVSP
##lationele
##onse
voeden
##loe
##uim
hematoom
Pacing
geïntegreerde
##synaptische
hardware
deed
geïmplante
Slechts
Poly
##enyl
subjectieve
mest
##OORDEN
homeostase
##wijd
chor
##hecht
##ouders
voelde
vertak
##astinale
##GEK
ongebruik
fiets
principe
immuno
ascal
cx
aromatische
gebruikend
oktober
verspreide
x1
##entwintig
##UCT
stromen
Elisa
polypeptide
innemen
plate
##itter
doub
AFGEK
eetlust
endoscopische
MET
Genees
evolu
kwesties
jejun
##32
##N1
##oral
psychische
##ondyl
ingedeeld
##ctu
nitraat
tijds
denken
epitheliale
##TOR
##ofluorescentie
##ride
##continentie
sclerotische
WOORDEN
ontwikkelt
amlodipine
herstelde
##arco
anomal
##osan
Advies
Acquis
##oson
##avir
overlapp
breiden
educ
resulterend
suppletie
geïndiceerd
##aut
Pols
september
voorschrift
lidocaïne
prior
werkelijke
##ented
##iciden
homologe
##sted
MRSA
##ogenen
georiënteerd
eieren
##inon
##hersenen
##lid
recombinatie
##osph
##abiel
ontvangers
tabel
##duw
Ty
velden
gekleur
Dil
migraine
##itoren
son
diagnostisch
GSH
trekken
##orticale
klaar
virulentie
##VL
132
##uwing
voorwaarde
lymfklier
vlakke
plastic
##urk
neurom
Laborator
gecorrigeerd
##digend
zoon
hypodens
enorme
aangepaste
plasticiteit
comm
coördin
aanwijzing
##tend
datasets
##lon
##schalige
antagonisten
kleurstof
spij
incident
##stolerantie
Besch
longvelden
Atriumfibrilleren
hang
autonome
koeien
tenzij
revers
ACh
TABPO
mondelinge
##TES
FE
bronchiale
stimuleert
##protocol
kostene
tegenover
subgroepen
##regio
##doet
fecale
##ISC
##edantie
cumul
voorzicht
bloeduit
##hn
HPI
image002
subcutaan
Hoofdk
goedgekeurd
bindend
Arter
cholecyst
Stool
##stoename
ontwikkelende
TCHNIQUE
Fig
MN
vijfde
##ematig
tricuspid
BSA
baarmoederhals
##celt
scher
sterftec
magnesium
hormonen
excitatie
versnel
insert
##bleem
introduceren
codering
kruising
##obobobob
##EFT
##ignalen
dataset
##stradiol
uitdagen
Admitting
EBV
##verg
perceptie
voedingsmiddelen
##udid
software
##berg
##reigende
##unds
toegest
subtypes
dyspnea
penet
124
##itr
##omateuze
##abine
cirkel
P450
##antische
##amelijke
jongere
onderwand
ECM
Linkse
hierna
##folders
dimeer
prenatale
praktijken
onderhuid
release
VALUE
##uin
##K2
vals
##ofys
oplossen
##atien
sondes
1998
##ida
multivariate
FU
##WP
##ergelijk
extreem
##ragers
##36
##ograft
bevolkings
adnex
122
##daan
##aryngeale
##orta
zwem
ed
##tems
dressing
darml
Mer
##golf
Lines
##idings
##ouch
dodelijke
infiltraat
eerstelijns
##ynchron
verwerkt
##chloor
compatibel
rook
normen
korrel
afger
alkyl
onderte
##zingen
borstfoto
##verwijdering
voortvloe
##sal
verre
chromosofie
Bloedproducten
##zeen
longvolumes
CHADS2
verpl
expectatief
komende
immuunresponsen
##breed
polymorfismen
inject
urinaire
##itol
Troponine
Extremities
##icaliën
aspart
kortademig
##esse
blokkade
pathologisch
##agnetische
cardiomedi
##arach
Monos
crypt
chromatografie
scans
lymfoïde
##icylzuur
##isis
Beeld
foci
jongeren
haalbaarheid
pulmonaalvenen
142
etc
plaques
illustreren
berekende
##ilevel
Bcl
doelstellingen
Exp
##orde
knooppunten
Ziekenhuis
##baan
individueel
VG
periv
kalk
##gebeurtenissen
trem
toenam
NaCl
##ubstitu
punctie
glycos
waarschijnlijkheid
IgE
Let
UP
##verbetering
tent
cholecyste
dexamethason
##nes
neuron
##ilatie
ontle
marg
Insulin
##rières
verlichten
dissociatie
Doorgaan
passieve
cafe
Licht
parenchymale
curve
##ctus
RI
circum
geaccep
gemodule
glucocortic
reformaties
##CG
protease
spiegel
##verbruik
Score
##slijm
##stratie
PCA
sats
subtie
##cellijnen
voornaam
gyr
##URE
gesprek
elektroden
##ASC
##atibiliteit
onderling
larven
##spunt
osse
gescreend
immunohistochemie
forse
##asie
lam
##BA
##ossa
Mogelijk
##tak
assess
preparaten
identieke
##eltje
##buprofen
LO
fx
NSAID
##ots
voortplanting
opleiding
##abase
Response
roze
Nur
##eleinden
Ti
routinematig
zodan
weergave
##LET
##oscopy
precisie
##illingen
PSA
##obstructie
bespreking
herkend
geautomatiseerde
jpg
Zacht
antineoplastische
sensatie
##aseremmer
EA
##kern
##osociale
Echocardiografie
pulsen
Controleer
HY
##lad
v8
##icular
##ekent
onwaarschijnlijk
gedateerd
plasmaconcentr
slapen
steen
getoond
fs
pasgeborenen
opioïde
RIG
##chem
gevangen
##ELL
##ionaal
Herh
verminderden
geïmple
##romide
kloon
hierbij
verrijkt
##CHO
snelheden
##voeging
kenmerkend
Mellitus
wen
terugval
##2A
##tender
kolonie
reagentia
scheiden
##aï
Stage
specialist
circulatie
AoV
lisinopril
arterie
cavia
##aaf
elev
Leu
127
neurot
tunnel
##esult
##WA
SDS
##dehydrogenase
HISTORY
niertransplantatie
##bindingen
##ontwerp
bevestiging
kam
bouw
dergelijk
sympathische
muscul
Nierfunctie
verval
Rest
ps
##steen
American
##98
bindingsplaatsen
##KK
##achycardie
NamePattern1
##erbare
regelmatige
ureth
##lastiek
##idend
gevolge
proliferatieve
##loïd
Gep
barrière
ADmission
vetweefsel
creat
##ants
##glucose
soj
adv
##opten
Mid
##weten
röntgenfoto
betekent
##quenced
##othyroxine
BT
Ou
smaak
cisplatine
computationele
adrenerge
autologe
##opolym
transcriptiefactoren
richtingen
##aso
halve
##ioc
##iderende
Dig
odd
Routine
##voorsp
##markers
##iety
incomp
##barst
caps
immunoreactiviteit
##hode
microsc
##45
##mogelijk
schro
sap
talrijke
trials
##gent
spijsver
##epen
ecos
bloedst
aangeb
familiale
##1A
brach
κB
eenmal
cardiomegalie
chemisch
elleb
diverticulitis
uterus
VR
##ogrammen
wortels
##ipar
Reactions
geacht
trif
##spectroscopie
objecten
daagse
sperm
##era
getra
Commun
##hyd
##urm
beslissingen
Tc
doorgaans
dep
algoritmen
nucleotiden
palpatie
anastomose
##oting
multic
aangem
correleerde
Part
##ips
vertaling
histamine
G1
sament
##ASE
Prednis
trap
##omerase
1997
uitoef
Versie
toevoegen
##67
ergometrie
25mg
##date
verzorging
proeven
Wor
epidurale
motief
##anger
##B2
bad
##nog
verapamil
lek
##ÉÉ
fungeren
empirische
identificeerde
gespeend
determinanten
Examen
##ADE
paper
verenigbaar
au
Index
##essies
HSV
activator
georganis
ingebed
V2
Denies
##07
verlengde
vastgehouden
##gewricht
Afrika
##strueren
polymeren
Lys
##eceptoren
epig
siRNA
routine
##omm
chemok
centra
langdurig
flap
antide
conc
Fluor
##ërobe
Glob
##zymen
influenza
##ieft
monoc
fijne
##atose
Depressie
##paren
##ofielen
afgesch
##pr
QID
alles
bloedvaten
voorspellers
gemeenschaps
gestandaardiseerde
##öper
005
tandem
mA
LEFT
sigaretten
geïnterpret
stedelijke
homozyg
opgele
##100
parasiet
zijk
schede
GFR
reanimatie
##lijsten
history
gewenste
demografische
voorspellingen
bloeduitst
definitie
##oskelet
ingenomen
##formeerd
##ablokker
eluting
##ientific
2022
##fenyl
radicalen
155
verbre
Succesvol
LN
##verzorg
mnd
##RIUM
##afspraak
voorhoofd
##otypes
gevoeliger
##ological
ademhalingsproblemen
##algie
Staphyl
ICA
categorieën
consequent
waarschijnlijke
##acetamol
visualisatie
air
Evenzo
RSBI
Aantal
beslissing
##rologie
correleren
##omics
verdovende
##oxic
lens
##DD
permanente
occipitale
polyc
Pseudomonas
verf
pijnbestrijding
##seen
##ocor
UTI
ASD
stranding
ondersteunende
learning
##hart
hypothyreoïdie
##ochrom
Overweging
mga
GEN
daarentegen
##illair
dopamin
##tre
compos
geïmplementeerd
geïnterpreteerd
##proteïnen
##barrière
ontspanning
##oty
M0
sediment
Spontane
##drempel
lees
kou
##itmie
Cardiovasculaire
##orphine
enanti
QD
##ypsine
CVP
NHG
hematologische
antihyper
##riële
vruchtbaarheid
##orn
##oblasten
BUN
gi
hydr
##upus
sulfaat
##plos
##cepten
prominent
##opolys
keren
##ignal
Infusies
augustus
HCl
zodanig
##zone
Set
laparoscopische
##ineresistentie
Ir
gonad
FP
ov
##itonale
afvalwater
uitscheiding
##orub
hangt
##cine
##ylaat
contral
99m
##arison
leeftijdsgebonden
##weken
##vloeden
##oprop
krans
TCR
Zal
bases
twijfel
UL
NSR
small
##meth
##aatregelen
november
gestructure
##ence
astrocyten
suspen
items
adjuvante
##KA
##opende
##nium
website
##anker
##menteerde
##stemperatuur
##atieven
operatieverslag
Child
homologie
elastische
##geheugen
trof
Cro
##eertig
chromosof
impro
ds
through
GE
bezoeken
monitoren
past
##roblast
NMDA
stromale
niets
Ste
voertuig
overheersende
##ionine
##Ob
persisterend
secretoire
##AI
gemengd
assist
zuurstofsoorten
##sup
##ruari
day
paarden
geïnitie
##CRE
covalente
##odes
lysine
financiële
Stand
##ancre
Additive
##inib
##zoe
Assoc
Neven
##tract
opgeslagen
blauwe
##bevel
Heldere
longarts
##aans
appen
secties
##moleculaire
##oestanden
##proken
vrijgegeven
##wond
Ane
infiltraten
##polym
geïntegreerd
##oseptaal
waardevolle
amy
##ited
##tractie
##cipitatie
habit
##rolimus
rekru
gedaald
##relatie
##FF
Deelnemers
epic
VIE
##rafie
Ori
##iase
NTG
##dules
SU
##hydrox
misvorming
Report
CARDIAC
Albumin
neoplastische
order
##omotorische
##egen
diagnoses
ero
##idaties
MH
##gi
pieken
Hepat
vervaardigd
##oplastiek
100mg
beetje
onverw
RAP
PIP
##ampon
refract
Cef
hapl
aangedreven
Clopidogrel
##nemende
##romycine
epigenetische
examination
inw
##inosa
www
##ssystemen
coöper
li
exacerb
vermoedelijke
borderline
##ota
Ven
effort
MDRD
Volledige
Insuline
Hal
principes
XL
validiteit
geman
tau
paradigma
conjug
kortere
VA
##morf
##klaring
##tiazem
respectieve
##OG
##biologie
AJ
##resistentie
##hom
neurodegeneratieve
Pneum
PULM
laboratoria
vect
doden
##cr
exacte
For
tweedimensionale
mode
##ropium
radiologische
##etjes
pp
pest
glu
##residuen
##ateerde
ketens
IJ
##ationaal
golven
##ellaire
##centreerd
borstvoeding
Europa
PGE
VAN
zorgt
halsslagaders
beeldvormings
initiëren
##por
119
granulocyten
Organ
plaatsvinden
Namen
immunohistochemische
Group
ritm
uitstraling
##rengs
cytoskelet
poeder
##ward
Blijft
##kleur
##oform
##eens
pmol
Heparine
Trig
Japanse
moduleert
panel
eierstokken
fors
block
comment
VASC
inguinale
lieten
Genetische
##aseremmers
Flows
regeneratie
Factor
Hierbij
assessmented
lichamelijke
langz
##iërarch
excit
Wire
daalden
FDG
littekens
##rep
WNL
belangen
##irur
##maten
drager
enkelvoudige
##imen
linkerkamer
hoornvlies
##overeen
gezocht
Instellingen
genorm
allergie
##oreuze
dynamisch
##pressiva
lymfatische
professionele
Moeder
##EMI
Uitgebreide
databases
tempo
goedk
distended
crit
donkere
inbrengen
##48
ongemak
ESRD
##ME
kaak
##adhesie
herpes
septale
wk
MAE
expressieniveaus
cyanose
##imulatie
gevisualiseerd
##ycline
##vergelijk
transcriptieve
PACS
aids
tibiale
##riv
##fficiëntie
metall
1990
toepas
Verwervingssequentie
##gn
ongun
leverden
hyster
rechterhand
afle
##rane
Simvastatine
##opauz
evidente
beweeg
##oken
DDD
##bewegings
##ible
leken
netto
Medische
Staphylococcus
BSN
Delayed
intervallen
EGD
dens
##brand
##spunten
uitgest
extreme
##lectie
tur
##slagaders
plaatsvindt
##mot
ot
##ureau
Drains
##pakt
encefalopathie
NGT
##igers
##ries
kar
tabletten
histologisch
DT
##vergro
aanm
##sprocessen
##Object
Verapamil
globaal
ABC
doorgemaakt
bac
##vraagd
##roforese
##cutane
121
##elatonine
His
pogingen
fysiot
##oday
AfspraakObject
uitleg
##gradi
##spar
##ibratie
##quentiële
druppel
conto
ongevoel
hydroxyl
##bolische
##EK
aangeduid
##ison
bevestigt
hematurie
##gegaan
Minim
PI3K
##agent
stents
formulering
##ono
##necrosefactor
Cardio
Oede
##ieniveau
Vasc
partiële
##behandelingen
GAP
##planten
##tine
##misbruik
crep
goedaardig
##zondere
rondom
50mg
explic
Up
tov
vatten
mapping
##idia
##grens
Urgentie
breedte
gerandomiseerd
##ampl
##esultaten
verpleegafdeling
grove
##ience
##erium
##diende
medicamenteuze
antibacter
missen
bu
##lastische
Ile
##elijkheid
jonger
Best
##oof
##vaardig
##verbinding
##krist
objectieve
slacht
immunisatie
antibioticum
##vi
onvermogen
oesofageale
Endot
##nnnnnnnnnnnnnnnn
##kettingreactie
##iatische
##yleerde
twaalfvinger
##osarcoom
biomarker
stikstofmonoxide
duoden
odds
actu
##01
##ulfide
Bay
##ixaban
levensbed
Supple
##kinesie
##array
Ast
proth
hoesten
hemodynamisch
##irurgen
Identification
##raktijken
##brief
MF
cG
seriële
##lutic
##hoden
##revalidatie
kiezen
ionische
##acetaat
nadien
clopidogrel
reser
##bp
receptorantagonist
blanco
validatie
tric
ERK
##tumor
restrictie
##ided
Acquisition
bedekt
gewijzigde
Oral
opent
##tenolol
geweld
diermodellen
AbsB
laatst
dijbeen
adduct
Gauge
##42
##terings
scenario
##cinomen
URL
catechol
Prom
##fron
flexibele
##inigende
gestabil
follic
##conto
##zers
Richtlijnen
##piegels
aanvulling
Gelijk
crac
krachten
hypoglykemie
##arg
##hier
##ht
##jectief
##stilstand
herinn
osm
Gedurende
onderk
cycline
##ationen
Gn
kwij
AAN
##riften
acetaat
hemodialyse
vereisten
mindere
mutante
Werk
coderende
multid
##pomp
oligonucle
linkerventr
Senna
##constante
opgeb
##uplex
osteoporose
hormonale
bran
OC
NOD
beïnvloedde
War
elektrolyten
provinc
infrarood
trage
fruit
##bbing
##ISCHE
##electie
ON
abnormaliteit
##arium
bestanddeel
Cir
effectiever
##perimenten
143
phys
PPAR
ziet
##kosten
wijdverspreide
rectale
xyl
uiteinde
kil
voorwand
eiwitsynthese
zorgvuldig
Spiral
reumatoïde
##stechnieken
proteïnen
verwarring
tool
##weegt
regelt
##utes
Braz
verstoren
osteoc
vaststellen
##amines
##alende
##integ
opgewekt
uitslagen
Neurologic
lezen
Omge
microscopische
intensieve
leeft
##herkenning
today
##lab
AFGEKAPT
obst
##ENS
##blastoom
opleveren
afgeschaft
##oxetine
##ondersteuning
##pels
coel
##rooiing
cijfers
video
##uivingen
Indic
gekloond
##ximab
INF
##vangende
1995
lichaamsbeweging
disper
##uster
synthase
##silhouet
##jabl
##atase
inferol
##üm
##gl
##rijp
##plex
##rays
Telef
moeheid
##infil
verliezen
protocollen
broers
##rassend
decennium
##riep
CRC
SY
##genezing
##strengs
gewichtstoename
straal
circadi
##elliet
Namens
##optimale
paroxysmaal
##sh
##bc
##vormende
opgetreden
##stein
Verwij
agar
machine
effector
Degeneratieve
##verh
##lante
##dia
homoloog
hematopoë
maximum
##lagyl
manipulatie
AbsBaso
RM
pylori
caten
herstart
schrift
Instruct
##zol
M1
##ylactische
1996
februari
##orubicine
##02
##dom
##55
##oepele
Ohm
distal
actin
ganglion
##issen
##otheliale
LFT
response
subset
Aand
geoxide
TOT
elektrochemische
dysurie
##axel
tevoren
##voerde
Fc
tijdstip
doordren
lipoproteïne
OT
subdurale
inactivatie
##ithiase
Beoor
begeleiden
##OSP
##asilaire
700
benige
nontender
norad
contract
Laboratory
##arly
##rectomie
Diffuse
##adolinium
##ACE
##atston
##acyl
##33
train
sarco
atri
sounds
synov
raad
##oïdale
CPK
##rylamide
woord
hours
VASc
getransfect
spectro
VO2
##oplasmata
verbeterden
BB
connectiviteit
Spoor
##ortus
tam
overgewicht
rub
##cid
functioneert
ERCP
contouren
verlopen
bipolaire
implement
kath
##circ
##houdend
massale
##tumoren
samengevat
Opmer
##sterf
metab
culturele
mengsels
zogenaam
##atings
cellulair
##ony
cerebellum
CAL
polymerasekettingreactie
ips
overeenkomsten
##04
##enties
spiraal
aneurys
Ital
##handeling
alom
stroming
kDA
twaalfvingerige
##oplasie
##py
donker
kwabben
##otypische
knockdown
pel
remodellering
vak
##oart
architectuur
ingesteld
C57
Regul
Vrouw
voortdurend
##77
Acht
typen
##verwezen
dramatisch
aangeboden
koolhydraat
gesubstitu
##aturatie
Kennis
hartritme
##inerge
teen
industriële
##uan
##06
Recht
card
palliatieve
vre
##ilus
##arachn
##ivalente
##olar
##dertig
Gec
##ONES
Air
chirurgisch
liggend
sucrose
heterogeen
##atiesnelheid
Mot
overweging
precie
rap
##matrix
Vitals
rhonchi
##ovasculair
gepresenteerde
##peroxide
hartsilhouet
##smaatregelen
NL
contacten
##amponade
##C1
µg
intub
lupus
##heup
##etro
##idopsis
verle
uiterst
gerecht
cm2
##paraat
extub
##arding
##drain
verhoogden
consistente
AUC
##idon
##indering
gewaar
Los
slijmvliezen
tumorigen
herhaal
testis
FH
##grote
metformine
Bro
Postoperatief
##rh
##voorz
##reeks
poort
NSCLC
naboot
cafeïne
carina
##vaardigd
stabilisatie
colonoscopie
PTH
rapporteerde
Chronic
dragers
parod
aerug
alum
mt
##gestuurd
Org
##active
liep
kalf
Edema
inval
##antigeen
FSH
Agatston
grootschalige
Arabidopsis
expan
CNS
##oteerd
spoel
ARF
onvolledig
fibr
onderarm
##opties
vloer
leverfunctie
gestuwd
lymfeklier
##oet
simvastatine
Graad
##fibrose
sporad
HEENT
##ranten
caus
oorspronkelijk
Isch
##VER
mitotische
eeuw
harten
flux
leef
mTOR
good
##gramm
hepatocell
##amne
overname
##iof
##CO2
##verzorging
##rf
onverz
agent
ontdekken
##ricusp
bezitten
##cyste
Aute
##ength
krom
alanine
##kra
record
elleboog
aantoont
##ozoa
FINAL
##elektroforese
gedem
##LOR
check
persisterende
nota
##fac
boezemfibrilleren
failure
korrels
aeruginosa
##CE
schuine
##astische
FINDINGEN
tris
##known
Imp
instroom
fossa
harde
bestanddelen
##lymf
signaaltransductie
##hogen
##anol
akoestische
uitvoer
Hals
2117
eisen
##atch
mariene
Leukocyten
##eti
maïs
##oleculen
##glycerine
Patiente
oxidase
ADHD
immob
##gluc
Ra
##schouder
##88
opkomst
Lage
##AIL
kwestie
geoptimaliseerd
##ofloxacine
##hist
Segment
avonds
prospectief
##bepaling
GRADE
interviews
Glycemic
Coronairangiografie
neurotransmit
##type
##standig
glutamine
Ki
##organen
##catheter
axonen
onderhuidse
##slijmvlies
homogeen
Gly
m²
asymmetrie
methylering
internist
ganglia
Erytro
deelnemen
hyperin
Weten
tarieven
toezicht
call
##fosforylering
bovenkwab
##iërende
##romy
lymfekn
RIGHT
##fronteerd
##coholische
benigne
##mutaties
##ulla
vlie
verlengd
Ascal
##medicijnen
compartiment
warfarine
##cyl
##stellings
porie
Of
apen
antico
##dibulaire
modelleren
##wekkende
date
ARDS
##icept
groet
Mw
opvallende
cost
anis
##GAN
##aorta
India
##orens
##meng
##cintig
##astenose
plak
belt
##gewijze
##ynthase
bemonstering
##veil
Delta
orofarynx
##31
diagnosticeren
opgehel
##ramine
Registratie
obser
CTL
extremiteiten
##orptie
##itoneum
##roren
gyrus
subac
maakten
gegeneraliseerde
retrograde
vergez
sw
elders
voelen
gesimuleerde
##ijp
beant
Carcin
reductase
interesse
Voelt
zaak
Uranium
##ography
plaatse
cataract
bereikten
##veill
##MV
ondertekend
##TEITEN
helderen
leads
taxon
https
intracraniale
HEAD
##proteïne
##alk
hechtingen
##virale
gerust
Numeric
relax
wees
hct
vrijkomen
gemeenschappelijk
oplosbaar
vrouwtjes
##ruggen
isth
zil
##NK
1mg
bruto
##ulariteit
ongelijk
Dienst
##iete
Antist
BMP
estradiol
hypertrofische
intron
antitumor
subtiele
ta
CBD
1dd1
label
##action
##ffectiviteit
vulling
keratin
corticosteroïden
anorgan
blijkbaar
Tube
##schors
perox
about
##gangs
inj
sleutelrol
##cRNA
##adigd
##aaaa
analoge
malaria
hersenstam
perin
ethyleen
downstream
gever
winst
aspartaat
##cort
##accum
atriumflutter
neuropsych
##sterse
navelstreng
koppelen
Vandaag
##ULAR
ceft
PLA
geform
immunotherapie
Journ
##entin
proteas
Vt
reverse
omzet
##AA
revisie
psychosociale
##behandeld
onderver
##riek
fietsen
dierlijke
Neuts
cut
##getrokken
##traging
bibliotheek
stol
##ueerd
pijnstillers
##tijdig
H2O
fragmentatie
opgehelderd
cumulatieve
spel
immunodeficiëntie
openen
ia
tje
##EHEHEHEH
BONES
achternaam
##hydraten
kappaB
##schijnselen
##alog
Perrl
##oman
##ainide
uniforme
remden
##oonde
##97
##omloop
##IES
##rijg
GD
##teit
screenen
##fetamine
medicamenteus
##mmobil
##bec
entiteit
Sociaal
VALV
fysiologie
onderhouden
##ariaat
Hartfalen
Klachten
wegen
##spannen
gebrachte
##alisklep
beeldkwaliteit
verplaatst
##salicylzuur
##YYYYYYYYYYYYYYYYYYYYYYYYYYYYYYYY
hieronder
Fen
uteriene
bovenzijde
##raking
##iota
array
zuid
Hoogte
retour
##rootte
maten
##rati
1994
afstam
JVP
minimum
Raman
Vergelijking
##oiing
toeval
zwavel
menstru
##atorische
meisjes
##acchariden
detectielim
Fra
PAF
retrospectief
45AM
immunofluorescentie
middag
80mg
##plat
20AM
behoort
##ffende
mononucleaire
##chtere
sequentiële
##hypertrofie
incontinentie
##uraties
hond
##gesie
segmentale
antibacteriële
##acar
##UK
Verbet
atorvastatine
##irect
consolidaties
TAP
plaveiselcelcarcinoom
##beoor
##reef
Bev
MK
hyperlipidemie
overwegend
bifurc
CHA2
FGF
faciliteit
##redigende
##omt
LG
verbale
##ateren
hiërarch
50AM
glycine
fysiologisch
##ruvaat
##hoogte
bov
toenemend
geconfronteerd
##overeenkomstig
uitgel
emph
precieze
##hulp
obese
nauwelijks
update
snij
##44
HEM
vertraagd
##olaterale
vermen
##unct
toegestaan
##matiek
1500
Sputum
##rocyt
##afel
##my
vreem
statische
tumornecrosefactor
##sprocedure
neem
##BATBAT
##plo
osteophy
175
Mono
vatslijden
##middels
gift
##embry
##hydrol
##ondenten
trombocytopenie
PFO
berekening
1d
Patch
gelijke
kwart
##vest
##scan
stijfheid
##amenteel
##iumzuur
yl
SUR
hiv
FOL
veronderstelden
Mann
aanvankelijke
##ators
##ilit
bilaterally
##ides
##iaale
gadolinium
##XX
lymfeknopen
##UES
ultrasone
LYMPH
pa
chit
methanol
fluctu
voorspeller
Invasieve
intramurale
histopathologische
##INK
marginale
opnamen
##x3
##rent
zogenaamde
##ofaan
Specialisten
CREAT
##opauzale
cond
##ulum
zuivering
integreren
gedeeld
trombine
iii
stamcel
Therapeutische
myeloom
THE
doss
correleert
Mel
##atic
Toch
Recept
geaccepteerd
##agulatie
##neden
GnRH
14C
constructie
Pattern
thiol
##elligen
##pi
geur
Auteur
contralaterale
Ventil
##asure
volde
##chrom
kristallen
500mg
pathogeen
tomografie
geïmmobil
verlaten
##umen
Sust
multidisciplinaire
cerevis
oxycodone
mug
uitbarst
endem
##antigen
fmol
Dem
pub
##alingen
##geert
Detail
Elk
##DS2
##cysten
iem
##hyla
##orazepam
haalbaar
##etron
##sneden
oogt
afgebroken
##bescher
Regular
isthmus
geoper
##rong
biofilm
galbul
##rocardiogram
##lijkheid
Fran
##otrex
##lecainide
Nov
neurologisch
NADPH
INTER
##brengsten
##partum
##mann
hemorragische
tegenhang
##ostatine
uitvoering
##oiden
psoriasis
##loof
box
Gluc
winter
##dienen
Chlor
##diff
alcoholische
##waardetijd
##etrische
##chet
sjabl
wilden
intensive
geverif
perist
sarcoom
##imod
ondersteunde
verhinderde
350
AoS
cerevisiae
daardoor
galblad
SQ
Instructies
eigenlijk
##entese
afsch
academische
##cet
##plementen
Oct
PO4
verdoofd
Py
stroomaf
CBC
##stitutie
intraoperatieve
geometrie
Golgi
signaalroutes
periodieke
infarcten
ouderlijke
HH
URNE
werkingsmechanisme
##anamnese
bestraal
diag
nt
TABLET
##66
##oretische
aanpassen
ti
μm
genotypen
##inger
bedroeg
chemo
synchron
##oppen
spondyl
longknoop
maagkanker
Access
year
gevorderd
##zu
precursor
circadiane
geste
##ogroep
##vious
level
portale
##sgebonden
Struct
##bewak
regelgeving
##eve
Unknown
CEN
Profylaxe
glycerol
Tylenol
##ocicept
##otransferase
belangstelling
bekeken
Bijge
vectoren
##onef
JA
Discrimin
schuif
longfunctie
theoretisch
msr
##oliose
elektroforese
markt
zussen
148
15AM
CHA2DS2
##izumab
chim
glomerulaire
thy
##ituut
##ijkomen
##akelijke
Rho
fas
driemaal
versnelde
##andida
##aandoening
V6
tumorm
##wisselings
klacht
##quired
Vrij
wandbeweging
##raan
telling
bindweefsel
##CAE
##verschuiving
fundamenteel
##cytometrie
##laps
Onc
Calc
oplosbaarheid
stierven
##AY
vermoeden
closure
migr
##gewoon
radialis
discriminatie
gerechtvaardigd
##glycol
40AM
MIRADS
verwaarloos
##axis
ubiquitine
##arming
##MRI
##VC
linkerb
HSP
middelbare
terminus
212
Wee
V3
selen
ASS
##bladen
##oto
transvers
schalen
##kels
##ignalering
subarachn
onzekerheid
bijgedragen
androgeen
amput
##arbonaat
##aduw
μM
Totale
antwoord
strak
##otic
oplosmiddelen
uitstrekt
idiopathische
dysplasie
Four
##vant
##ekuur
MDA
gemodificeerd
##L1
informeren
COR
fles
##icag
##iana
##amnestisch
uniform
hield
##osum
superieur
Secund
trombo
wervell
##lange
##G2
bloedsomloop
guan
acquis
stat
biomassa
Kore
celwand
pref
165
##molecuul
v7
flank
AZ
Beper
fenol
##fractuur
koolhydraten
achtig
16S
##chanische
biv
JVD
clubbing
verklaart
Elect
##azool
FEV
##kam
elektrisch
ionisatie
wekelijk
ACTH
extens
##braken
Specialisme
polaire
##opolysaccharide
ethische
GV
##instr
##usea
benzo
maandag
geïnitieerd
hartteam
bindings
gevuld
linkeratrium
barrières
##orbid
pic
ontvanger
##itair
gezins
Baby
afgestemd
aangetaste
ongunstige
##ikende
degradatie
batterij
bemonst
aantoonbaar
facet
atriumfibrillatie
750
Kon
##azepine
##ataal
WHO
##AND
##riëmie
Kwaliteit
soepele
##iller
##gelegen
din
zones
catenine
HIF
vergezeld
dehydrogenase
##IAL
invasief
vestib
##ologieën
##idu
Instit
mastoide
Vragenlijst
##ext
##actische
Aandacht
BMD
vegetatie
##gemerkt
##agel
klieren
bindingsplaats
Final
vervorm
##membranen
##landen
##hangende
perforatie
activiteits
expert
Crohn
##dekking
CTCAE
fysisch
##dont
cer
##zwelling
##zijdig
##voir
##dienings
##omk
##sex
PLC
lichamen
p38
automatisch
allogene
Amerika
##fundeerd
##straal
##ineuze
Standard
recidieven
##voeren
concepten
##ues
zn
detecteerbare
vingers
Fl
tijdstippen
##breedte
ontvingen
Ide
wanden
##illing
##toestand
Q24
urineweg
##ELING
verwijzen
pericardi
Fiet
CVRM
vasopress
##gineer
Zeven
Soms
mevrouw
##yelin
stroomop
##buik
sterker
prolifer
##istar
displa
gegaan
antik
spoedeisende
##H2
bouwen
##ESS
##oppervlakte
International
##vag
operatiekamer
##edisch
##otoxische
##ucleaire
verstoorde
##vormig
Neu
celgroei
rijden
Enzym
##oxaban
spiercellen
toekomstig
carboxy
Mater
doordrenkt
##MT
##mediate
Onveranderde
nucleus
noe
myosine
ECHO
malen
vooruit
Poli
osteomyelitis
##Ca
##ofoor
afscheiding
##asone
gemon
impressionion
##isp
eierstokkanker
##duidelijke
bemoe
verlaging
cellulose
subunit
SMA
Admin
LEG
Sr
RG
melatonine
##iënt
##opbrengst
aortawortel
##MB
atomen
##adenoson
##ocket
G2
##tekort
##oqu
##verdun
LVOT
B1
neurologie
verstoord
##vrucht
##aciteiten
now
##JECT
preklinische
septische
insulineresistentie
hersengebieden
zekere
lamb
expansie
aangepakt
##din
##oenen
Ba
osseous
##PER
Vloe
brady
10AM
compartimenten
vernietiging
interageert
polarisatie
##axon
Sn
##issue
betre
Evaluatie
H1
Gy
##match
verdwijnen
consistentie
##76
plex
Society
groeifactoren
voortplantings
verlicht
nuchtere
##keuren
hypodense
Rechtse
blanke
##coëfficiënten
Ongewijzigd
##viol
aggregaten
uitkomstmaten
houd
beantwoorden
neven
geldigheid
insect
nasale
##schaps
##assemblage
##ometh
Nitro
LCA
AJCC
STOP
nefropathie
##klem
##ogel
nadelen
GO
gemanip
##YC
blijken
alt
##houdingen
leeftijdsgroep
cil
verwachten
Oedeem
##raden
brengt
fysische
##AME
##irium
##issies
##inge
##oleculaire
bemiddelt
##aca
concurrentie
Aβ
1A
HU
levensbedreigende
competitieve
##constanten
controlepersonen
voldoet
##opter
##ichamen
##uscular
##ijftig
ectopie
retroperitonale
Gezamen
afmetingen
##asme
##bloedingen
##lite
Vals
Meetwaarden
##eech
vervorming
ureters
voorlopig
suprac
nierinsufficiëntie
Bijzonder
calcificaties
heart
##afhankelijkheid
AIOS
##dioxide
cardiomy
Medication
##ump
dic
weig
##ruchten
modificaties
Os
femoralis
verergerd
traden
##adine
##remmers
OSA
senes
Verhoogd
##omplex
ambulance
metastatisch
verschijnt
##work
##peloosheid
gall
geduid
interess
voorkant
plateau
lekkage
tac
##ionals
##3A
Albumine
Wereld
getransplante
##oint
##ofilie
##cycline
##morgen
tijdsch
gemoduleerd
suggestief
##vankelijk
Sympt
solide
125I
##embrane
MCA
uitstekend
##ativ
chemie
bias
PSV
olfactor
posttrans
chemicaliën
##RL
bovenarm
geelz
##BNP
hoofdstam
##sorbeerd
vreemde
kwadrant
kandidaten
PANCRE
orbitale
dynamica
##vlak
PRBC
gecondition
qua
waarneming
Cp
Hematocriet
##hh
##39
B12
ICC
##velopment
NamePattern4
##inescentie
##agulantia
variabel
wrijven
##omod
REP
##valuatie
##otrexaat
VIII
inkomen
##verkal
Inhal
geconst
without
alomtegenwoor
##iated
gese
geïmplanteerd
match
geelzucht
##maatregelen
old
chloride
thre
##zuiver
##igens
##ocus
pull
lij
Volgende
##iline
##ynthese
##veillance
zebra
##iose
##emetrie
lithium
##ergometrie
##racheal
##conomische
Ald
Fin
verstoringen
bijzondere
pneumoniae
stelde
##isteren
opgaande
##procedures
EXT
##ification
integrine
Bacillus
Pra
##regime
Anemie
beoordeel
dopaminerge
Dex
narc
triglyceriden
Kwant
##gezondheids
kwad
Tien
architect
##ameling
##gekopp
##miner
##daagse
staten
##antiële
ongewenste
extr
schaar
instellen
##electieve
cytosolische
Lactaat
Ather
##apopt
##glycerol
##etan
##constructie
##stent
steigers
congen
##prothese
dalingen
PRO
oneven
onomk
##ssc
##41
Patiënte
zat
##best
##ND
gekatalys
transfectie
##overbelasting
gecorrigeerde
geldt
oxide
acidose
Verwijz
subling
Ms
##aryng
hematocriet
##aliseert
maagdarm
tamponade
##VERKLARING
##olin
Ergometrie
##ido
H3
implementeren
##Eos
vormden
##wite
inspanningstolerantie
huidig
runderen
##otropie
##algor
br
NPN
##lating
aortastenose
viscer
bevorderde
Nadat
deelcontact
bestuur
vanavond
##yclus
overeenkomst
Coronale
##ardeffusie
##affin
RAD
##lines
##stoel
##varianten
vlgs
Visual
##redig
atria
Sclera
##oderm
Primaire
##ibel
herhalingen
VALVE
beademing
fos
##GIN
nachtelijke
schet
##alan
##neuro
##gggg
wean
##ARD
Gi
bloedculturen
bs
skeletspieren
##ubes
Positie
Inch
jongens
bilirubine
##yme
##mutatie
##79
Enkele
membraane
inderdaad
##mings
Lichte
##itische
##voering
resection
##knobb
gedo
alternatieven
radiografisch
Pla
N2
jodium
prostaglandine
Ru
##volutie
kits
##fluor
##gestuurde
##schatting
##iereg
##VASC
gecodeerde
##Pro
##ABLE
overvloedig
##trouw
representatieve
Mam
##wegende
apotheek
##verwante
Moe
Analys
##mas
benauwd
##68
##monster
macrom
Multivit
tubulaire
mus
Nierfunctiestoornis
##pine
progressief
neuroprote
##cositeit
##overleving
##yreoïdie
plu
enzymactiviteit
elimineren
Ox3
##ISA
Da
Niettemin
##otransplant
apparatuur
meningitis
geboden
kr
pitting
##abelen
##tere
Lipase
EXTR
persistentie
##ATO
VII
ic
westerse
##hern
Discrimination
geverifieerd
##mium
##ensis
##benz
##pjes
lokaliseren
##immel
knooppunt
zagen
digoxine
Figuur
antrop
MW
gamm
##ranolol
koolwater
AbsEos
trainings
##iftiging
##ld
carcinomen
##obutamine
MOD
freq
amygd
switch
##soren
geres
heem
1992
##muizen
##illige
Model
extras
pin
Had
##werkende
##ritor
meldde
##ages
vreemd
##metastase
belangrijker
zwe
foramin
##win
SVG
fatale
eiwitkinase
tumorgroei
arth
##epsis
##pool
sets
gastheren
handicap
vaatlijden
##tropine
HOSP
valideren
eiwite
slechtere
geïmmun
add
##plannen
##abapentine
waardevol
##vascularisatie
geëx
##dood
verlenen
tav
hoogwaardige
##dringen
##ived
##empl
##ocyan
ln
Sla
##idium
Gemiddel
ANI
partners
VSD
overgezet
##behoeften
gender
respondenten
GFP
confli
##minste
vasculitis
sho
stil
##aalt
len
##iatrische
afstoting
syndrome
##osporine
1993
Historie
Evalueer
contrasten
##rome
OX
vloeibaar
fee
##leggen
Engel
voorz
efflux
wal
that
incons
##spectieven
borsten
vouw
mum
coherente
gerekru
arteria
fenotypen
gezinnen
overlappende
##ervatie
onduidelijke
##erence
soortgelijke
endoscopie
##derings
##idol
verspreiden
##uran
zodra
##aarden
Integ
##centrische
##wanden
##agglut
HGB
##oconst
neutropen
##ocardiocardiocardiocardiocardiocardiocardiocardi
##otica
substantiële
Bijzonderheden
regels
golflengte
norep
##verontre
tracking
pigment
Afrikaanse
##ulsen
##AAL
##ospor
Ontkent
geg
##controleerde
##onin
overlap
PMN
gerep
##albumine
##opus
##rien
##agina
dalende
##spray
bevredigende
sturen
precor
new
slikken
ongewone
saturatie
##oxische
##ds
reag
etnische
OBJECT
jongen
microRNA
##itt
upregulatie
gematchte
slot
BF
##alsnog
2111
Patint
##iveerd
aangewezen
under
##kig
Les
darmlussen
communic
Discla
lactam
##63
##lora
Groep
goud
##ifug
##kweek
Naarm
spreken
##achter
Naarmate
bruine
impliceren
##boom
staaf
##ctionele
sodium
Sin
intrat
treedt
##ised
derivaat
##TIR
cholinerge
esc
weet
##conazol
Batterij
vluchtige
Tyr
hoof
##neus
romp
conservatieve
##rijs
##iency
kationen
##abd
merken
onopgemerkt
##elijkse
To
##UTS
WAS
##cond
##omeostase
gap
duizelig
##vigheid
C57BL
hoofdstuk
gehoorverlies
##M1
cellulitis
SOFT
##iatrie
AAA
Fem
TISS
Direct
Wistar
IBD
##uigend
overlevenden
tevredenheid
polikliniekbezoek
flavon
abx
Therapy
baan
onverkl
latente
Vari
acc
##osiden
toegepaste
trek
SPINE
##lus
onmark
machines
verlam
kijken
cholecystitis
buikwand
##Mono
##relor
HEART
HAS
regen
##AF
##gesp
##afstand
minstens
Amlodipine
activerings
tijden
147
gestabiliseerd
methionine
microvasculaire
geregeld
Naar
##rea
substitutie
metastatische
vee
##bewaking
registr
groeis
artrose
dacht
sensoren
discrimin
gov
##accumulatie
Cox
Breath
Pop
DISCH
verkrijg
chest
slapeloosheid
testten
##59
University
tachycard
##med
uiteen
##nr
handmatig
##amino
##samenstelling
Omgekeerd
##chid
viel
Coch
formule
bijwerking
##vezel
rivier
veelgebruik
Vroege
bijkomen
electieve
AbsMono
Tachy
##idose
carboxyl
targeting
streef
monoklonaal
Atheroscler
methodologische
eindpunt
##atica
ieder
##fig
Refer
actueel
##uitwisseling
renine
45PM
Pulmones
annulus
additie
schriftelijke
##isper
##menopauzale
##oproteïn
boot
##imetrie
##PP
##ocriene
Parox
lozen
ammoniak
##osac
##seffect
Orth
choline
multifocale
##criptie
Disclaimer
aluminium
HbA1
##OW
disulfide
conjunct
number
polit
EtOH
##injectie
##orroe
##oides
RBTB
terminaal
##code
aryl
hypoxische
ester
HOSPITAL
cadher
##ares
verkeerd
bepaalt
parasitaire
##ko
Europe
##digde
gewaardeerd
##orfine
regimes
Acetyl
downregulatie
verpleegkundig
specialisme
skeletspier
##izen
##enst
liposomen
TK
PIV
##ikte
gefosforyleerd
##ogenes
##variatie
Candida
lee
onverzadigde
tremor
perine
septaal
stimuleerde
##olaat
Vertra
verschenen
territor
##rempels
reces
neoplasmata
verwonding
Temperatuur
verzwakking
complementaire
##odilat
##geleiding
Vader
hypothesen
Canada
dramatische
gesubstitueerde
overvloedige
hyperplasie
mix
gedifferentieerd
gerekruteerd
item
auteur
Symmet
splic
farmacokinetische
##obacteriën
bepaalden
rechterventrikel
##etector
ongecompliceerde
##verwerving
adrenocept
Bis
##altime
MAL
Oor
##ivatie
ischemisch
##icagrelor
##IDS
openbaar
testre
uitsluiten
fruct
##omenten
Inform
##lavix
daarmee
##drupp
Q24H
elektronisch
##silon
##gaven
##ishman
##ablatie
##irt
##TRIC
buffer
Recidief
GG
QS
contractiele
##ATER
Drugs
##LEEN
Voed
hemis
##spectra
neuroloog
Gedilat
expressies
002
hippocampale
gediagnosticeerde
tors
##isth
bid
aritmie
##divers
##opnames
oncologie
intellectueel
Instructions
##lijven
chirurgen
##aneur
##oreg
##atroon
Diver
##NG
##alm
zomer
##ivering
##LY
##flow
##yne
ongewoon
faag
Verpleegkundige
Aortaklep
Mycobacterium
##indic
levend
230
Ta
Creatie
##ision
Aziatische
bereiding
subcorticale
pericardeffusie
##ux
knoop
atom
hypokinesie
EH
##nauwkeur
IC50
hydrocefal
transmembraan
supernat
##middag
sociaale
Es
ZOR
GST
folders
##comprom
Ins
geschiktheid
##accharomyces
silicium
flexibiliteit
bescheiden
##adon
Cap
conclude
##anderen
ADL
15PM
subm
##ptuur
##april
##ivalent
radioactief
cascade
H2O2
konijn
sequ
kwetsbaarheid
##vergroting
Secret
##rus
Alkal
##vascul
uitgeput
Streptococcus
Sl
##ocyste
corrig
##lamy
alhier
##ivery
tryptofaan
gingen
annuum
insufficientie
chi
exempl
beginnende
##85
CEA
biosynthetische
##IO
gestructureerde
Tussen
gevoede
##sterfte
##chicine
amplificatie
zoet
albuterol
Diagnostic
##veertig
##homeostase
wandbewegings
other
900
##opressor
definitief
geab
versnellen
##uiling
houdend
wilt
mannetjes
##neem
##tic
geconserveerd
basilaire
zebravis
slib
Human
katalysator
werkgroepleden
interpreteren
epitopen
##zwak
SOC
metabool
fungeert
spray
##leeft
synap
hartkatheter
Feder
cannab
striatum
Quality
afebrile
kamertemperatuur
profylactische
##face
Standaard
ammonium
penetratie
FC
corresp
tenminste
##diameter
OBJECTID
doserings
Renale
knel
onvolledige
##ffectieve
PTSS
Chemical
CHD
peristalt
##ois
Hsp
##formance
onbet
Invent
toegediende
##mede
zaden
##anthine
##ocompatibiliteit
afstanden
Ala
voorvallen
observeren
##aemie
DIAG
BSE
BH
##pyr
##opic
organisch
##mac
use
MCF
historische
dilatation
gespleten
junction
dominantie
rechtop
##liggend
helling
Helaas
##oppervlakken
##bereiding
verwijde
autosomaal
EMG
fon
##actrim
correleerden
##verschijnselen
rechterknie
##osities
##ellere
aceton
scherpe
lymph
prefrontale
Perifeer
acquisitie
Verwijzer
##zin
Fluid
Pan
##streert
ziekteverwekkers
tor
##vt
1β
duurzame
gevaccin
Multi
olfactorische
V4
ongebruikelijke
##ramidale
optra
Afib
clon
##bevorder
Erytrocyten
Cholesterol
virt
stomp
aanpassingen
sporten
Proxim
##laving
##PSC
evaluaties
wave
Geboorte
RH
BE
Pharmac
prn
syndromen
kust
visie
cd
##P2
doxorubicine
bevonden
afvoer
landelijke
##deficiëntie
tussenliggende
##euten
NIBP
voltooiden
##cellijn
LL
##italop
gecoate
tracering
##ulde
##ikkeld
##doel
##lem
##stabiliteit
Termin
##otro
##ils
##appel
##lazen
##rager
Actieve
Shock
km
##biv
##idische
mammografie
Cardiaal
Hou
Mov
regeling
##dium
resulteerden
##hoe
hierin
gehan
levensvatbare
Herhaalde
aanvraag
##aroxaban
steiger
immuunziekten
Plavix
reporter
Functionele
##lofen
precies
##radic
getransformeerde
voorgelegd
##iop
compli
##ATH
klaagde
liggende
cave
##curve
lipopolysaccharide
##antigenen
kopieën
##ifactor
retroperitoneale
surgery
##osfeer
##ether
gif
productieve
##isfunctie
##banden
##maals
VALUE1
Teg
CYP2
Contact
kantoor
Anal
kwijting
Stroke
##vH
volgde
##famil
commands
doeleinden
PANCREAS
jicht
geïllu
geïncludeerd
responsiviteit
Technique
family
interessante
feite
##ijning
##ORMAL
antigene
treft
ziekenhuiscursus
Disorder
BK
Samenge
rooster
UREA
hers
doorgegeven
20PM
Var
##bouwen
Vertraag
afnemen
maagdarmkanaal
##netwerk
intracellulair
afspraken
msec
VERKLARINGEN
##orfy
168
noradrenaline
uitdrukking
Atrial
##ofosfaat
Complex
responder
isolaat
sessie
popul
RB
ling
RET
depositie
hout
##ieuze
win
discip
Nort
kui
sx
##klist
initiatief
##ulfaat
Mog
duplex
ZORGIN
pericarditis
glucoset
ZORGINSTELLING
anaerobe
DCM
FO
##ketens
Samengevat
##vulaire
##ilet
FLU
ophogen
blauw
##Lymp
##meden
Perfusie
Duur
##neuronen
##variabelen
##stu
series
##acrylamide
knaagdieren
dysf
intense
zint
subclavi
##klasse
MUC
geleidbaarheid
overvulling
##ipoten
##splan
commentaar
dalen
Go
nabijheid
gross
DATE
atyp
##atoir
##AMM
##ït
Out
linkerhand
adipocyten
##yseem
snellere
##cho
UNIT
##ïeve
gemar
suggestie
FAC
motieven
##P3
##ritine
##err
discrep
Association
1H
geboekt
gly
ontstekingsreactie
##oblot
##ublieft
stopzetting
intrath
incisies
pract
##ochtend
za
##ugel
##reductie
BLEED
waarsch
geboortegewicht
glioom
##stublieft
thymus
bioactieve
endotracheale
gerangschik
regressieanalyse
subsegment
rechtsdrukken
APC
ment
warme
probeerden
AbsLymp
Phe
gestegen
duidt
related
enkels
REC
##fracturen
groeps
dialys
organisaties
##oxygenase
genetica
kwalitatief
##sla
voegen
Functional
##inositol
##bbre
Pap
##giën
AGB
veranderden
##ager
##potentiaal
##antel
dringen
kerat
crosslin
##oomp
##VR
TPN
voltooiing
##ALVALVALVALV
ascorb
borstwand
lap
##ateral
##radi
dent
Stationaire
voordoen
bericht
microarray
therapy
immunosuppressieve
##pad
##regeling
##N2
vochtafname
##contouren
overgevoeligheid
##imetrische
##modellering
##onuclease
188
##indelijk
stolling
blotting
##broken
Bilirubine
cong
radiof
geleidelijke
permanent
90e
Well
pathofysiologische
uitsluiting
host
onderkwab
refractaire
vertragen
##TED
onvrucht
aandachts
##OF
Dominance
RDW13
epileptische
maaltijd
Lid
##BAN
boodschap
##uiker
bindingen
testiculaire
symb
subcellulaire
promot
Fam
##ronectine
vlek
##vlekken
duurde
immunost
keerde
middenoor
BW
##plement
Mede
leucine
##ularis
##ocardiale
BRCA
ondergaat
##regeneratie
axonale
M2
seizoensgebonden
cardiovasculair
geconjugeerde
Organis
##reactiviteit
stijgen
bilat
axon
geïllustreerd
Secundaire
geconstateerd
antwoorden
verlos
Uite
geometrische
succinaat
##cran
capt
Pur
##jj
kolonisatie
LCX
##cit
##ba
garanderen
verontreinigende
RCC
Tab
With
sociaaleconomische
##igo
NAS
Gede
Negen
doppler
##ucoom
gesequenced
Fourier
##LOW
mitogeen
##virussen
nanom
gebroken
TBI
DET
galops
Blijf
Quant
dermatitis
producerende
##spinale
##itudes
Coronaire
zag
ruimtes
PDA
##wijdte
gecompliceerde
##greep
rechterlong
50PM
##rocardiale
##57
##IENT
##linde
##ypan
gevoeld
bruik
kleppen
tort
##ofosfamide
##rosis
ton
bredere
##istration
vermeden
spreuken
coronavirus
##ieert
il
hiermee
SPO2
exacerbatie
kwik
Overweeg
Short
biomedische
subtot
VEN
##chniek
aantrekkelijk
galstenen
##gereg
##ILL
Mex
dual
vereen
rillingen
papill
nausea
osteoclast
verduist
Module
contour
Ran
vasculatuur
##plet
lief
P1
darmen
opwinding
158
masker
##arme
uitbraak
primers
PVI
##venties
process
gemelde
extrasyst
latentie
##oculaire
hitte
##sings
tolerated
Will
dispersie
onmarkeerbaar
voorspelt
afneemt
verse
Levothyroxine
##opaque
ICP
zuivere
Bowel
antistoffen
Anat
Penicil
##ulatoren
##aterialen
Oxy
formuleringen
katalyseert
ideale
handmatige
##vement
affectie
Aanbevel
##atis
bestonden
koppelings
bewegende
##interactie
##ramadol
Mogelijke
kansen
QAM
muismodel
##materialen
F1
georganiseerd
Blootstelling
##dings
nanost
perindopril
##veneuze
zwart
mechanistische
##51
153
##weerstand
blootstellings
1991
##verte
diameters
rhin
TAPSE
Age
##hox
SAM
##erisatie
##stechniek
aminozuursequentie
openbare
##leeftijd
diepgaande
persoonlijkheids
multipele
spectroscopische
##limin
afgesproken
repe
##keuring
DIAGNOS
##relaties
distress
sterkere
##ocal
149
multilevel
kuur
plasmaconcentraties
##eptidase
ORI
empirisch
suspensie
eveneens
heen
##zichten
ciprofloxacine
##ask
##NS
Ultra
##acetyl
onderstre
Mc
ovariële
size
##regulated
##acy
plasmasp
omkeerbare
CDISC
voorgaande
engineer
acetab
noord
lambda
##koppeling
B2
##tussen
Ind
spindel
endotheliale
beschouwen
##ostiek
hematopoëtische
##isthese
hepatocellulair
bewijzen
##alg
zwangerschappen
retinopathie
##zapine
##diversiteit
bloedlichaam
##oegen
wondgenezing
##rofys
geneeskundige
##HHHHHHHH
##ABP
Gezondheid
opgeleverd
side
Cath
kwaadaardigheid
geopereerd
##geleid
ipsilaterale
##oxifen
tarief
##umon
##aritm
NOAC
HVZ
toxic
cytosol
LLL
##igemin
gezondheidstoestand
Magnesium
##tje
polymerisatie
statistieken
onaan
verkeerde
alf
##mutase
5p
tegenstrij
##iliaire
fenotypes
aft
HMG
##scen
omh
##LT
kcal
beheren
publiek
toegevoegde
##ulin
Metast
##mine
flowcytometrie
knieën
synthetiseren
Cere
orthopedische
##atomen
##49
gedachten
##ima
meg
##traumatische
Immediate
deb
MTX
##aise
##chle
irrit
draining
##ulsie
##wth
epidemiologie
insulines
dwarsdoor
griep
omega
##ott
lipase
##vreden
Australië
Geboortedatum
hil
##epime
Lichaam
ontbreekt
osteoart
##ochemie
proteolytische
CHADS
scoliose
hervatten
nest
Expressie
sindsdien
VIEWS
sessies
groen
##itidine
frame
##tet
##formulier
PCB
Regadenoson
##frequente
Houdt
Cogn
##etentie
550
gesplit
##mach
staps
cv
##lading
samentrekking
##resectie
##specifiek
tertiaire
synapt
Nan
##urn
tarwe
anorganische
##ificiteit
Mens
##italopram
chirale
fosfolipiden
Diastolische
gevoell
##spel
##opyran
HTx
##structurele
Ps
jr
farmacokinetiek
##ez
##aggregatie
opi
##zettingen
rectaal
schijnbaar
##ris
##benaderingen
second
logistische
##verschil
evenwichts
##izers
##ortex
P3
HI
HbA1c
Verd
##plicaties
Sterk
##72
EOS
has
diabet
ventilator
##att
cognitie
prolact
HSM
Jaar
titels
##adering
##ustachycardie
Cochrane
rif
beheerd
diafragma
##uv
veiligheids
##rices
gecre
poplite
vragenlijsten
nemat
##roph
Baseline
ziekteverwekker
harm
kankerpatiënten
Terug
##asing
pijnlijk
START
koort
immunopre
moeilijke
beoordeelde
vermijd
KCL
geëlimin
stemming
biot
field
aders
##elementen
Immunohistoch
Antibiotica
Bere
156
stabiliseren
tag
beroep
voltooien
methotrexaat
misvormingen
40PM
Hom
hervat
molaire
##oooo
##otypering
Laboratoriumonderzoek
Discriminatie
gemodel
food
Interval
##rict
##BG
gewassen
synergetische
foliumzuur
##oxicilline
halfwaardetijd
glucuron
dihydroxy
verrijkte
bloedstol
front
kalveren
impuls
Absent
JR
toepassen
##verhoudingen
##vey
regulier
denkt
Nazorg
##rokkenheid
simuleren
speciaal
Sulfate
##antilich
kopie
rechterkamer
##behoefte
naft
Other
Perifere
##lettend
gewichten
responsieve
##oassay
##gradiënt
impedantie
Leuc
eut
acceptor
range
bijgewerkt
Studie
mutagenese
##cyclase
##groottes
blokkeerde
FYS
Mob
Journal
Allergie
reflectie
##embryo
##pressies
##meter
geassist
vasculair
wervellichaam
chel
zoveel
bevroren
Single
cop
##isters
Duits
##chond
##yclovir
NORMAL
ram
Lok
##itril
APP
CD34
##46
Astma
uitstroom
##igingen
##bew
Bed
antikanker
derhalve
EDV
brom
brandwonden
endoplasmatisch
kristallijne
punct
Kanker
geassemb
nig
radiopaque
152
leptine
Eenheid
geoptimaliseerde
##spannings
75e
Pulse
Dan
magnet
recessieve
bureau
STECHNIQUE
bereiden
##Neut
Colle
bloeduitstorting
Pd
breath
tegenovergestelde
hersent
zwemmen
geautoriseerd
UNE
##bundel
aff
angiogram
DG
MBq
analysis
wachten
##ozym
opgesteld
Draag
zorgvuldige
gaten
kinasen
volwassenheid
##verde
BLED
##adox
baat
jeug
##rec
antioxidanten
kamerlucht
pure
KO
##romagnetische
lncRNA
GF
namens
##ratropium
VC
##vee
chromosofische
longvaat
chec
geprogramm
Engels
##oxon
belemmerd
tepel
##eksen
##zeem
##patho
opzet
##Tc
##ocytische
beweeglijkheid
jur
##atur
rechterbovenkwab
##consumptie
onderkant
epitoop
Mass
tubuline
bor
hyponat
penicilline
Uro
opvolging
pees
##ietische
##elena
lussen
##iniging
plantaardige
##vert
amine
acetaminofen
RPM
blind
Mamm
5000
vastgestelde
##unctionele
pron
##matisch
##oeld
Uiteindelijk
circumflex
##DH
##fragmenten
AbsNeut
WHz
gebruikelijk
##utionele
Flowsheet
Dhr
AE
reproduceerbaarheid
ultraviol
symmetrie
##ophag
Cerv
CCA
##dilol
mechanisch
##uï
##96
##aaier
overdraag
##INS
therapietrouw
##ifedipine
gedreven
Chirurgie
##iscus
onderd
beweegt
SPLEEN
##keren
HEP
eindige
##ostrid
geëvol
WA
poreuze
Belangrijke
##strom
Saccharomyces
##itiviteit
CLL
##modus
##igvul
iemand
CFU
##obarb
zetmeel
trabec
FACT
##uminale
Kinderen
banen
verze
##yph
##egatieve
spanningen
ingrepen
RL
voorouder
##versieel
transduc
Bijgevolg
verward
daad
repet
langzamer
afweer
##aardigen
antidepressiva
##admission
hoofdader
##ergische
##oxiderende
Gezamenlijk
Pel
oligos
wachtlijst
##verv
hydra
controversieel
verkeer
aanpakken
erkenning
##uigingen
criterium
##microsc
ACC
##osec
supraclav
##iës
chronic
schouders
daily
appro
fistels
brachten
Color
##kade
microtubuli
##La
MAG
amputatie
lamina
##vervang
PMA
##onefritis
chap
overleef
Aanvankelijk
DM2
##bili
fMRI
overge
concurrerende
glijden
##cir
##genatie
##straat
##hermische
##gemed
##assays
gepaarde
##drainage
##snelheden
##lucin
events
##amyl
##blinde
katheters
##58
##riaxon
154
35AM
##fore
OSAS
genoemde
##idym
##azolam
scheen
##iair
IX
GAL
162
##stromen
nyst
gig
IA
spironolacton
##kwater
omgevingsfactoren
inactieve
blokker
##ansetron
reconstructies
Wt
RO
amt
CTC
Respirator
Brit
##ostatische
condens
pij
Ket
fosfolipide
##uvastatine
##alanine
controlled
anomalie
##waardig
reservoir
##omegaly
##iater
##ème
Palp
##ithiasis
HYP
icter
harttransplantatie
##atiet
##bescherming
##quin
respir
ruw
##doelen
aanverwante
stijgende
levertransplantatie
##ystrofie
Oriented
##IK
cement
invloeden
verif
Graag
aanbrengen
##ofde
Zuig
werkende
fluoroscopische
glucagon
slag
##tek
##nemer
foetussen
Carcinoma
silica
LLE
draaien
##row
##ending
##iegeld
##isense
atax
##werkingen
##tentie
PRL
151
MDL
PaO2
transpar
##etale
ongecompliceerd
geëlimineerd
inte
uitgangsvraag
##kles
##78
Units
ventilation
##prom
##ijkt
Management
ongewijzigde
S3
letter
operationele
hyal
pathogen
##anus
##groeifactor
##eeeeeeeeeeeeeeee
stabilis
verschuivingen
##fracties
##03
##redigend
NEUTS
losse
schepen
10PM
arbeid
ESV
Voortgezet
Oost
Chef
necrot
manifestatie
##praktijk
dichtheden
##sparameters
transversale
Flutic
ontsn
tachyp
NAME
verscheen
traag
koel
EXTREMI
zoekt
gebouwd
beoog
##siel
Pub
Statist
fosfo
RAS
Bevinding
breast
Morphine
##hs
gedro
inmiddels
zonne
threonine
stijgingen
want
##paal
omkeerbaar
AVN
PLT
geclust
Radiation
##alva
Infectie
instabiele
ISS
##appen
conve
polyacrylamide
##point
MCP
Wgt
verwerken
zintuig
afzetting
radial
opdracht
Bijn
blokkeert
Ademhaling
##ials
paracetamol
neerslag
##x2
gedragen
##plek
##metabol
##BEV
rac
peristaltiek
gevoelloosheid
morfologisch
aanwezige
##ositas
Life
anionen
Computer
##ielen
polyethyleen
##blo
exponent
##xis
beschadigde
Bu
vrijdag
staande
annule
4mg
geïnformeerde
elektrostatische
synapsen
Plat
propranolol
follikels
##areare
ambulante
voorzichtig
##urium
##orteerd
##beg
radiografische
##olus
PAP
##rous
immunomod
regulation
##sthetische
##implantatie
##olipiden
abortus
onderverdeeld
muggen
##°C
Cardiomedi
ART
verplicht
##glykemie
sno
benzodi
bewoners
##TIF
clips
tracheale
murmur
goal
cit
##peptide
mail
gecreë
primaten
Abnormale
ubiquit
##kwam
pericardvocht
Risk
hersenletsel
##benzo
Coumadin
changes
RENAL
##reert
voltage
1988
isovorm
##amera
traan
Maag
##fouten
have
report
1980
HER2
elementaire
publicatie
ibuprofen
omgaan
sterftecijfer
POS
radiograph
infectieziekten
kolonies
kaarten
##unc
wandverdi
clustering
merkt
Institute
FF
Chrom
verdikte
Tac
eenmalig
histologie
lign
Nor
onderv
herhaaldelijk
symptomatisch
mismatch
Vaat
geopen
veronderstellen
25AM
Slechte
nal
dichtheids
##loopt
Mi
voorlopers
##orisch
zweren
kransslagaders
##genoten
Conform
Lesion
##ommelingen
##landse
##ramide
##itoring
glen
perone
Trace
intelligen
Hersen
hemolytische
BDNF
##uper
ipv
##spiegeld
E1
##ligging
ORF
##enting
Vertraagde
Bayes
mini
gli
gekleurd
Transfer
thymidine
revascularisatie
noted
leeftijden
verergeren
vanmorgen
weerspiegeld
welk
Lumb
lucifer
##ostomie
meisje
genoteerd
##ah
eiwitexpressie
Nasal
T12
beschermd
betreffende
genereert
galweg
Die
##ban
overgangs
JNK
schadelijk
pyrim
geën
##nelle
Occ
##vedilol
doorverwezen
TDI
invoer
CDK
oncogene
##orbiditeiten
trypsine
proline
ongevoelig
signaleringsroute
##opslag
WD
rek
beschouw
##ISH
##hoff
chitosan
onderkaak
inferolateraal
before
juist
##sorpt
##nede
##OBIL
##hepat
##WH
1D1
##hormonen
taxa
##nee
amts
exclusie
TCO2
##recht
Comparison
sectionele
AANBEV
##EGEGEGEGEGEGEGEGEGEGEGEGEGEGEGEG
Puls
naïeve
Vanco
Cycl
stroke
envelop
leeftijdsgroepen
##verzadiging
weekend
##rs
voldeden
ther
bevorderd
clinical
commercieel
##emorale
##tensief
##omic
##section
levensstijl
verwerving
##kop
##actam
verbinden
Ker
concentreren
CY
combineert
views
automatische
Remming
subacute
ventrik
fax
##onad
Acenocoumarol
##centra
Zosyn
Plasma
mitrale
ontwrichting
keratinocyten
##ZE
geïnactiv
nitros
fabric
primary
Wnt
##rode
##derde
handelen
afnemende
##calcium
##optie
huishoud
##120
##gif
stationaire
##carcinomen
DFT
##atran
##istry
rapporteert
003
Hulp
tylenol
immunodeficiëntievirus
linkerarm
PRE
Nooit
Alles
verkle
##atibele
galbladder
heu
##gv
pocket
##verband
if
detectielimiet
3p
Stra
Past
alstublieft
fibrinogeen
##kkingen
VE
gesynthetiseerde
##tensiva
Hemodynamische
##ematische
##ingsvermogen
definities
##oedigd
CCR
Top
osteoblast
nauwlettend
enhancement
verschijning
Aer
##dieet
Amylase
##PE
##aminase
Huidige
sclera
thalamus
demonstreren
Fas
##GY
Hoofdstam
##sprofiel
Geschat
Konink
##rincip
ELISA
dB
squ
cyclofosfamide
Hepatitis
ondersch
gein
cadmium
##rt
Results
amygdala
Vi
HLD
##erale
codon
microglia
PVAI
penis
congestief
Cip
glio
##sterings
klok
Brazil
182
elektrofysiologische
senescentie
dieper
signaalroute
annuleerte
##ijde
##orex
##diffractie
epinefrine
Receptor
geassisteerde
remmend
aritmieën
opbrengsten
##ocatie
CMP
guarding
HDAC
##izer
kary
foramen
postsynaptische
gedist
neutralis
##73
ostium
ORGAN
uitgesteld
knelpunten
dode
##ALE
onbep
grade
Experimenten
##feer
Specifiek
draagbare
levenslang
Verminderde
##litaxel
darmkanker
drugsgebruik
##gre
Beh
##ditioneel
stad
##BLINK
neutr
biosens
dringende
WEBLINK
##werkte
wijn
##remming
##ïdose
##uraal
staf
N0
##62
##orbent
toppen
covalent
professionals
##racil
sacc
dak
circuit
55AM
Jun
ine
wiskundige
Ade
tere
##werkings
##voegd
canon
##chemisch
##asmen
##potentialen
##jaren
geschreven
bevrucht
bloedmonsters
Ent
extravas
mang
geconcentreerd
koud
##akte
COS
VVI
ALL
##kwamen
##uif
classificaties
Daw
slechter
neutrofiele
potentialen
fysiotherapie
##astine
spine
volumes
##duction
##pneum
ribbre
DETAIL
antipsych
appendic
fus
UNEAN
RLL
Bl
##kas
Experimentele
dismutase
Obes
foton
consumenten
Renal
keu
maatst
perspectieven
##anz
##pitheel
BRA
kalibratie
CRF
fosforyl
Tegelijk
wonen
##etal
geformuleerd
##gekoppelde
##dol
afstem
albic
toepasbaarheid
plur
repressie
spiraalvormige
veelgebruikte
microtubule
oesofag
drains
veer
Scintig
werkte
##oprothese
controlegroepen
anesth
Was
killer
##akers
EU
##rames
hangende
arachid
mos
##INGS
##oxie
Brazilië
Camp
verdubb
##VF
verrijking
mtDNA
prima
groeire
##abig
fosfolipase
Rap
vermenigvul
occl
verrichten
ecg
administratie
##melk
##vans
lysosomale
text
##opur
##fix
STUD
##cipit
peroxis
##situatie
Intact
bracht
Endo
break
Notch
##eme
onverwachte
##dubb
##sonde
oplevert
terugtrekking
infra
methylatie
##NAc
Sert
##oots
Oog
meter
##ofysische
##apap
Alkalische
suboptimale
diastolisch
nsVT
3e
aldosteron
pesticiden
##uiven
realtime
##iche
duiden
exam
Review
##dys
##ino
##very
overgangen
defecte
Order
adenopathie
tus
##anget
##ijven
Referentie
smalle
##ocephal
PTX
overdag
onverklaar
oefenen
Duitsland
blik
##atiere
Cons
guid
koff
immunoreactieve
Daarbij
##preparaten
SJ
cardiopulmonaire
##amenteuze
transplantaten
Minimale
Tal
ectopische
drank
diltiazem
epsilon
##radiol
##hangen
afbreek
quant
construeren
##osterior
Inventory
gebogen
viscositeit
bele
##thyl
Zwanger
STT
##axiale
affectieve
BALB
microcalc
diam
gero
##PCR
exper
giftige
Laag
##ogastrische
Glc
##hernia
Xen
leidden
stopdatum
##opathieën
##dynamiek
ante
PTA
gecoördineerde
extubatie
Tegelijkertijd
bifurcatie
organic
translationele
proport
deden
##etanide
Cat
genormaliseerd
praktisch
Halsvenen
1989
HeLa
##CLUS
follikel
##ysema
herin
monomeer
induct
##rague
immuuncellen
disorder
PGE2
##idiafrag
Dert
verzadiging
vertegenwoordigd
note
trigger
##agmus
gegenereerde
eci
##mes
list
##hersenhelft
##yleerd
Cellen
1L
##ositis
kortdurende
ribben
corrigeren
##kinasen
Gesproken
vorder
goedkeuring
99mTc
##ARE
##ication
Morgen
myeline
immobilisatie
intermediair
paramet
Muc
menstruatie
Overdracht
##sprotocol
Sprague
hydrogel
viscerale
sjabloon
Ativan
Motor
plaatsvond
##ransporter
##domeinen
vel
##remmer
##boek
cho
plasmaspiegels
##yline
NGF
RLE
verwijderde
middenrif
ijs
##vattingen
kenmerkende
verwachtingen
##unes
periodes
##ribed
althans
norepinefrine
hielden
##cente
##eptum
hyperintense
aerosol
spermatozoa
DNR
retrocardiale
cerebrospinale
##roblasten
depolarisatie
##wijzingen
Melk
fok
hiatale
##iering
ros
Tam
gehem
equivalent
bloedend
ontkende
JP
##electiviteit
tons
zekerheid
Ev
##schakeld
butyl
##gewoonten
geher
Rv
Jude
ertoe
##graft
##varium
educatieve
glomerul
##spanningen
sust
scale
linkerknie
05AM
##ronidazol
genitale
##fs
vull
##odendro
Amiodaron
benut
##ham
ALS
drievoudige
uitgevoerde
examine
ervaart
##ACTER
melding
origin
graads
vasoconst
monotherapie
##orbol
##azon
moeilijkheden
jug
Lim
anticonceptie
##abigatran
echogeniciteit
##osferische
##emde
##divid
isoleren
##odyl
geruis
serologische
geloof
1200
##nacht
##FC
antisch
Mes
kristalstructuur
bomen
##umetanide
vasopressine
##wen
contracties
fijn
DSM
Röntgen
PBMC
##artefact
##stab
Dawley
afib
##seg
congenitale
##voorzien
RUS
##omethacine
linkerventrikelfunctie
Gedilateerde
##orted
flagyl
##ocef
Na14
persistente
ooit
scherm
167
##scheur
Azië
varken
##doses
UOP
hydrolys
PAL
echtgenote
node
##marker
fermentatie
N1
##ires
betrof
artefacten
gevaren
functional
lopende
service
herschikking
gehol
detector
feeding
##nd
carbox
ductale
Virus
vriendelijke
##draad
IQ
SHR
veronderstelling
##ancreat
##droging
vrijwillige
geel
onveranderde
##erder
##uleerden
EMT
tegenhangers
##opar
uitgedaag
##NR
##zweer
##fiet
circuits
hosp
##arag
strengen
Km
gedeelde
acceptatie
geholpen
##sentijd
child
plasmiden
zaken
##lac
tekortkom
nefrot
AVNRT
##TEN
Tabel
albicans
BPH
grafeen
perinatale
pos
AMI
##archite
gevormde
ecl
XR
PLE
##alisaties
Postoperatieve
zelfstandig
wig
depressief
constitutieve
evaluation
verpakking
Nursing
bijkomende
##stappen
wervelslagader
ulcus
gezet
##anced
PTCA
final
eindstadium
thema
passage
OOB
##nit
Hemodynam
##management
Specifieke
compressibiliteit
LAVI
acenocoumarol
verslecht
##houder
activerende
aangemoedigd
##drachts
##alcif
analgesie
Orgel
Inge
NADH
waterstofperoxide
radiografieën
polymere
hepatop
epididym
Ratten
celmembraan
##disciplin
kap
##ilanden
drastisch
uitstrijk
178
Noch
##opping
AANBEVELING
157
perceptuele
##emin
##erwijs
##alapril
inspiratie
##veiligheid
##rige
TEM
scintigr
##ULL
Enzyme
Locatie
parenter
kwadr
tuberculosis
Komt
##atoom
##fraction
Name2
Fluoroscopie
Neurologisch
cister
##vaardigheden
##gemaakte
ontdekte
coëfficiën
lep
suggest
daadwer
wensen
##atrofie
pyruvaat
veranderende
aus
bloedvat
evenredig
metat
levo
oncoloog
oefeningen
determinant
##fenol
geëvolueerd
Center
##ased
##ventilatie
hinder
##lanaire
meldingen
##scores
beleids
secretariaat
##endectomie
glycosyl
##porale
##activator
##transplantaat
##gerelateerd
##cost
fylogen
inositol
##ibilis
wekken
verenigingen
drinkwater
ringen
##zinn
Chew
verdoofde
midazolam
differentiëren
mumol
Korte
beschermt
camp
arrestatie
omkering
STR
##gr
25e
PAIN
extraheren
hartstilstand
##abe
helper
##PV
##tube
Centrale
methoxy
mannelijk
##instellingen
clo
agitatie
TTP
suï
thrombus
gelegd
raden
exten
decompressie
Lichaams
jeuk
autopsie
vv
Plant
##erie
##duidend
DX
Koorts
SAH
##derivaat
stroomopwaarts
Spiraal
GAT
##otid
tijde
##wann
Epi
gespecificeerd
entrop
afnam
embolisatie
##oelde
tussenproducten
collab
subarachnoïde
gemakkelijke
drukpijn
##omed
fL
##gerust
beperkende
##azijn
##iem
offic
PERRL
arbeids
Afro
##roo
##oker
##kliniek
##itromycine
Biologisch
postpartum
palmit
360
ZvH
big
2d
##go
##cription
##ucleotide
Auto
##verpleeg
samenleving
ka
##PORT
dubbelblinde
High
heterozygote
##leven
comorbiditeit
antioxiderende
sek
papier
plexus
##odim
hydratatie
profil
relig
##avior
proBNP
##aantal
##olair
Stenose
voedselinname
mitochondriaal
lae
tumorigenese
##rate
Kwij
##vattende
##brede
geob
distrib
Bronch
point
inferieur
folliculaire
##coc
Dila
Length
linked
categ
##gress
##continu
glycogeen
##AE
##rafisch
invaliditeit
brug
CCK
Preventie
scholen
##carbox
uitoefenen
##iens
urineproductie
polariteit
Peric
verlu
Rating
##emetabolisme
anale
visualiseren
Open
ontmo
Ip
##odine
##bbbb
regulatoren
Zoeken
##ifier
##ivale
problematiek
omeprazol
##omorfe
ona
##iodarone
##omb
zei
Federatie
suppressor
vooralsnog
gastritis
##IM
##ulerend
berg
gepolar
##mogelijkheden
pulp
genus
gereconstrueerd
Toegang
humorale
##vene
delet
momenten
##ophilus
ademgeluiden
isolette
diabetespatiënten
nuchter
oscillaties
beschermde
ZD
pulsaties
onderdomp
##zijdse
osmotische
bloedtrans
schaam
2mg
schaars
VOOR
##itoneaal
naamPattern
##pathologie
fant
gecreëerd
##cephal
glazen
carcinogenese
theorieën
##oes
##oscopisch
shell
##gente
radioactiviteit
voorschrijven
murmuren
##verhoging
prox
patell
eleg
hyperth
Spironolacton
1900
OCT
intral
##proeven
pezen
##format
dila
previous
composiet
##conjug
encefalitis
lib
opgezet
chloroplast
##angitis
onderzoeker
fibronectine
stamcelt
verluidt
TPA
ran
Menselijke
##olyt
verbanden
proteasoom
##dtijd
oprichting
RIP
##benen
perioperatieve
modaliteiten
muz
166
##zegd
hot
endos
ontstekingen
sublingu
nasof
plattel
overtuigend
Sed
pulmonalis
behandelt
cot
##ceaan
vouwen
stroomafwaarts
tetrahydro
kik
##gewrichten
##asurement
SCD
RVOT
Universiteit
##secretie
overigens
getranscri
luciferase
Kopie
apical
absorb
hospital
bewijsmateriaal
arseen
##circulatie
Wand
TIPS
##wal
Name8
##osidase
##clerose
Woon
##ventig
innovatieve
##oradi
Ka
Bewijs
Sustained
MDS
##microb
melena
##elinelin
reguliere
eu
Tit
##NC
##rinsiek
##gevonden
##ades
blinde
Administration
beschermend
eiwitniveaus
ribosomale
molecule
Bla
##gemedieerde
uitgelegd
hallucin
##ultuur
hartfunctie
OG
##yraat
engineering
##ified
##DC
verne
##asi
throughput
##52
Leads
jaars
AND
pleister
bibasilaire
##Procedure
##icuspide
Afwijk
performance
articulaire
kwetsbare
goedkope
hemopt
antir
illustreert
##schalen
Gebruikt
synthetisch
viraal
##sulosine
indices
trimester
##preventie
##vertraging
NIT
AGA
opioïden
verkalkt
Mem
gewonde
##drom
stoch
ALG
myocarditis
immunoblot
incl
zweet
lytes
Vor
hemidiafrag
Dermat
elevatie
slaapap
verdunning
##beperkende
dwarsdoorsnede
lb
binaire
stijgt
belemmeren
uitbraken
she
##nl
Vmax
subsegmentale
##lobin
lymfomen
observeerden
bronchitis
trachea
renal
##orfe
medulla
##artrose
plek
Hoofdklaag
##uscle
2A
thio
postmenopauzale
consum
sigma
described
orgel
##SOS
##ana
Negatieve
herkenbare
Paroxys
auscul
bloedsuiker
##olzuur
rang
meldden
cle
priv
##elok
tweeling
Proteïne
intraperitoneale
recs
referent
Low
##ovenox
##arkers
##ranul
onderdruk
Complete
WWP
Chewable
benzyl
##CIUM
afleiding
plaatsgevonden
GBM
larvale
Oc
##overgang
Dienovereenkomstig
wandel
##rior
##gesprek
Angi
##ostridium
embolische
algen
PORT
titers
Amt
counseling
achterkant
concentrische
##acilline
pyrid
Achtergrond
##reflex
infusies
##arcoma
PND
NODES
partic
wandelen
microp
fron
HBsA
##epitheel
lower
##opathologie
gefix
Cas
allergieën
##ablokkers
records
cGMP
##ichi
ernstiger
p21
voortzetting
1987
gedetailleerd
##synthase
repeat
bodems
elektrolyt
##mel
tenen
##affen
groeihormoon
polypeptiden
##tb
verzeker
##imp
substitu
##OOD
ANION
##infiltratie
##zepam
gecoördineerd
##acodyl
##oplossingen
dichloor
nauwkeuriger
treden
Gr
vertering
AOR
begeleid
extended
Gall
##specificiteit
##elektronen
TW
sr
##ycardi
star
##RIAL
3L
##AYAY
##gradige
ileum
##atible
##geleider
daaruit
phot
tart
gemodelleerd
##financ
##training
ATRIUM
##transport
rekrutering
##HL
decompensatie
ADRE
REG
##ijnd
CKMB
roker
pod
##behoud
psychiatrie
SCC
##ismaal
Vergelijkbare
##ducten
mislukte
observationele
Stern
004
exemplaren
piper
##scur
##proef
##ergillus
tussentijd
Acetylsalicylzuur
vanmiddag
hoop
manchet
##E1
organellen
metaf
formele
constitutief
toewijzing
productiviteit
##plasma
##gamma
dy
##klassen
profiteren
##inhoud
diverticulose
##netwerken
malaise
164
lectine
scheenbeen
edema
##anner
##Med
ventrikelfunctie
afgezien
sial
beoordelings
vasodilat
identificeert
stroma
ingezet
waarneem
##EPT
stig
hernieuw
##inaire
320
##agie
rr
moesten
VASCULAR
who
Farmacologic
##praktijken
hartdood
flecainide
anteroseptaal
sing
##eiwit
##itteerde
##liferatieve
ADRENAL
##compenseerd
normotensie
##ocks
triv
UO
onderhouds
orthost
##lash
chondro
oligodendro
Seph
##voorwaarden
##illings
231
HCM
##bot
hartklep
huishouden
steekproeven
##ARDI
##secties
Minimaal
Artsen
Wetenschap
benzeen
roof
margin
##fasen
klem
fructose
multiplex
gevestigd
RADS
##hi
Nederlands
##kaart
##ives
isomeren
oculaire
Eiwit
immunosorbent
types
san
toc
##gericht
##ratio
##urgical
kruiden
##druppels
pluripoten
augmentatie
calorie
Nek
groeisnelheid
dilaudid
aantrekkelijke
es
onvolwassen
epidemie
spleet
tgv
##urige
##zijnzuur
doodsoorzaak
BG
emoties
185
eosinofielen
##kinine
maximaliseren
Cy
Hu
ROS
ole
kleincellige
hCG
##bindings
ultrasound
canonieke
##alciferol
prikkelbaarheid
modaliteit
hamster
onverklaarbare
Methyl
sy
Sat
##gere
caudale
GER
oligonucleotide
uitgangsvragen
1985
geconjugeerd
Ablatie
Sil
Injectie
adenoom
##affiniteit
##hR
RW
NOT
poriën
KN
leeg
##quate
laboratoriumonderzoek
antisense
allen
rapportage
##vasculatuur
plekken
##ophen
##adium
ontvo
cefal
Down
dysart
##dragende
##uminescentie
competentie
CONCLUS
adenovirus
##iëct
Fab
aflopende
gehecht
##oseks
##lastic
Tissue
diermodel
architecturale
##69
FDA
##catheterisatie
##Gym
origine
Weefsel
baden
raam
Mevrouw
Th1
biopten
divergentie
urineblaas
subclaviane
deg
uitstrekken
Bactrim
indexen
Dec
extravasatie
aankleuring
Multiple
Stabiel
##obobobobobobobob
##pub
Vaak
opgewonden
Lew
Visueel
probeert
JL
##acia
titan
blood
geanalyseerde
##texten
##oskeletale
##apoptose
classificeren
beantwoord
Spiraalverwerving
Organisatie
bilateral
VO
##81
##midden
ondervoeding
paclitaxel
gemetastaseerd
UDP
ABDO
auscult
Lead
CHO
enteritis
Respons
eilandjes
registreren
carotiden
oxyt
surveillance
##stadia
Details
inner
##hing
substantie
antagon
##antus
##H1
Gedeelt
verplaatste
##ële
##rylaat
##ativiteit
gevar
intolerantie
biome
ontlu
##olipide
CXCR
keto
##vermindering
##iclo
Honderd
getraind
Wordt
gekarakteriseerde
polymorfe
interfac
peer
opmerkingen
geluids
noemen
##openem
150cc
KNO
dobutamine
uiteinden
snr
##asilar
##DO
intestinaal
##embly
concent
glaucoom
heupen
prel
##instituut
rijpe
##eenheid
spijsverterings
##idom
cec
multipel
##stract
jaarlijks
longslagaders
##schakeling
##obacillus
tabaks
technisch
batch
##geleide
##minogeen
Infant
ler
verantwoordelijkheid
MIT
monocyt
HYPER
nystagmus
integraal
titer
BASOS
##lichting
##ralings
traumatisch
specialisten
##teerden
scannen
Multivitaminen
cyclosporine
falc
Voiding
##CN
Scientific
spenen
bloedlichaampjes
Later
##UP
expertise
Number
wederzijdse
Vervolg
##TM
major
##olven
motivatie
spreekuur
Bur
IB
iter
PDGF
##elokeen
##ophage
virtuele
Imm
##soort
prolactine
opport
anaf
Mg2
PMHx
##inespiegels
PROC
##ferentiële
##amicine
Retro
nature
Hoofdklacht
##oxyc
gelelektroforese
Geïn
gewenst
bewuste
grondig
##moduline
##afil
ventie
transformerende
robot
GVHD
##raline
##kinetiek
##ambocor
hydrofiele
1986
Tricusp
CW
heterol
aërobe
##morfologie
crisis
##dring
schakel
endocytose
Echocardiografisch
##entra
magnetisch
tint
##gevingen
oxo
glycoproteïnen
vorig
proteïnurie
Onderzoe
terugkeren
##iënten
##hof
isop
gehemelte
induceerbare
##etrovirale
voorspellend
neutropenie
vertrouw
##HYHY
##peroxidase
bedrijven
hit
opin
voorlopercellen
pantoprazol
##ureum
drijven
tijdsver
dragende
kationische
voorzitter
FN
gehoord
beenmer
176
bevredigend
##trose
##ummers
ventriculair
CONT
vanco
celadhesie
##adju
urinewegen
minerale
Dilaudid
doorvoer
bloedglucose
Abnormaliteit
Thoracale
cochle
T2DM
mobilisatie
##worm
geiten
Myocardinfarct
erkende
aanraking
habitat
zoektocht
##iend
vasthouden
Beloop
uitbarsting
Valsalva
##servatie
vraagstelling
simplex
synoviale
contin
##gemeenschap
Aldus
sarcoïdose
##abces
plaatselijke
MIN
balloon
ecosystemen
##alaat
Endotracheal
wassen
Conclusies
ss
gedocumenteerde
Adju
##ctief
universele
Male
##arig
homozygote
epidermis
##lobuline
contractiliteit
##oïnezuur
normalisatie
zilver
##maakt
optisch
##odeode
##IVE
##halen
metabolische
afb
##imide
##blader
stollings
iedere
rangschik
##idence
##istiek
##ingsmiddelen
omliggende
COL
kleurstoffen
acrom
RAPPORT
publicaties
MVP
duurt
##dendum
predi
Dental
##indamycine
Dyspnoe
plots
##osmine
##ometrisch
meervoudig
gebeurt
WNT
URIN
muur
positionering
mogen
vraagt
Toediening
schaduw
Bru
##buff
extension
##oolde
literatuuronderzoek
##blaasjes
polysaccharide
stemm
gemakkelijker
##quency
159
##yx
##mycine
stijve
##coop
pond
strikt
##alcohol
##RP
bestraalde
##egel
##kans
volumeverlies
fotor
familiaire
##ulation
kortdurend
cellymf
inversie
##gers
Oplos
##rox
ongeluk
keizers
##gerapporte
Verrassend
ladings
growth
Richtlijn
##screening
##dimensionaal
##omas
181
##craniële
Versed
splenomegalie
haplotype
wenselijk
agressief
##bodem
##hoor
Pup
##pend
##oefend
##omica
##igt
piramidale
##vatslijden
##betrokkenheid
hartt
atleten
agentia
##siella
KLIN
filamenten
##onge
##obarbital
Koninkrijk
koffie
first
##ears
serotype
KCl
172
balance
##controles
kleurstroom
##probleem
fosfatidylinositol
##ocr
wa
##breiding
Lorazepam
microflu
Wond
internet
expliciet
colloïd
EY
getransfecteerd
zwaarlijvigheid
Q2
pilot
gezondheidswerkers
uitgedaagd
##cellig
transporte
atenolol
Solution
Draagbare
Toevoeging
##rio
naburige
##gevoelig
##omieën
density
Kwantitatieve
genoegen
kleinste
##latine
Fluticasone
afwissel
##athyro
##otopische
##agers
##modium
##perme
##ollige
Belconsult
##mische
##ape
pCO2
celtype
##F2
##tegra
samenstellingen
endometri
celdifferentiatie
luminale
zelfver
EXTREMITEITEN
amf
Vrouwen
iNOS
demonstratie
verzachting
geët
druppels
uitdroging
##study
losartan
##pk
merkbare
cast
pedis
##randen
ingang
provincie
Verwijzing
tracer
chaperon
baarmoederhalskanker
slaapt
Neurom
##obie
Weinig
pert
##config
rechterarm
169
##sefficiëntie
veter
dosisafhankelijk
##ijftien
kloof
163
##scintig
##vijftig
##erve
intermitterend
schroeven
hartrevalidatie
kleuren
stereot
AVA
afferente
Cys
deeltjesgrootte
fraai
guanine
##vredenheid
horen
cijfer
semantische
##ylacet
225
Bijna
##ranken
Nitroglycerine
coping
Vanaf
Perindopril
##ked
##opropyl
##iseert
ischemia
groeide
gezondheidsproblemen
Propofol
Cran
VIP
nodule
any
##hoekige
main
Proton
verstrooiing
transferase
dor
##beelde
platen
mim
canal
##dynamische
Gisteren
quad
transmembrane
##scherp
##KY
##spijn
geconditioneerde
Regel
mestcellen
verwerkings
circa
NamePattern2
##acylglycerol
hysterectomie
verschoven
MON
##start
muscar
##lopend
hypok
Hx
onopmer
gebruiker
cardiomyocyten
schakelen
rt
disch
tussenproduct
modules
##liter
ceftriaxon
##kristall
constructies
Monte
aantast
regelgevende
nodulaire
##oogst
merkte
Eth
HET
necrotische
##ror
##set
cy
##econcentr
Geschatte
geproduceerde
nabootsen
celmigratie
##OCY
nocicept
zu
amylase
ecosysteem
ach
fibrine
hersenschors
preparaat
significantie
papillaire
##uitdrukking
spijsvertering
##onamide
Delivery
afgerond
Promin
cardiopulmonale
rustige
1983
erythemat
280
Tg
ongedi
SDH
##fout
##stische
Gestopte
vacuüm
##illary
##azard
##uraf
Aspergillus
galactose
PubMed
##ng
Epidem
oestradiol
voorzorg
manipuleren
##alamine
##verdelingen
##otri
##ama
##osorbide
posttraumatische
ativan
##ergieën
LEUK
pell
##atidyl
plassen
bemonsterings
Aug
verlengen
zaail
indomethacine
##carbonaat
FUN
stond
##R2
gedomin
hiërarchische
##icin
bestrijding
##obronch
middenlijn
vuur
adenine
##aque
coagulatie
mucosa
##peerd
WM
Atypische
Zelfs
initie
Maximale
anamnestisch
##resultaat
##LORIDE
verouder
##bber
Kn
##otidine
levofloxacine
PATIENT
aerobe
1α
opmerking
annuleerteken
##dii
extracellulair
##herentie
daarvoor
##dycardie
verwerven
STAT3
paal
##aminale
GBS
##uted
##onende
##polaris
ritu
aantoonde
vastgelegd
fibrillatie
##matigheid
Leg
colchicine
##liss
VL
##dustrie
immunocyt
##mob
##tekracht
taxonomische
west
assistance
EMS
akinesie
erosie
craniot
aansluit
radius
##okinase
1D1T
4L
tamoxifen
##ïteit
betablokker
pte
neuromusculaire
##oortje
eindpunten
##change
rolstoel
##PAP
amide
klachtenvrij
Ultras
ulc
##oscopen
##riënten
##ÉÉÉÉ
vervang
stelden
verzamelde
HCP
DB
trip
##x1
##gekomen
Subcutane
##onium
interdisciplin
doelgenen
geënt
intran
geoxideerde
##atide
vondst
histidine
verifiëren
##inoïde
voorkeuren
afd
Barr
vij
##ocaine
gentherapie
hoofdz
##ctale
multis
Vandaar
##afen
bedrijfs
longknoopjes
gels
near
AQ
tellingen
##K3
##cumine
nitriet
##GI
belemmer
##rapp
behandelingsopties
buikaorta
Ec
Afebrile
##briden
opzw
energieën
BCR
##dense
Langdur
fagocytose
explo
##rometer
general
##iliter
uitdagende
CPT
ovale
meiose
venen
sustained
##bank
preoperatief
astrocyt
##bische
solid
##otrofe
voorstel
aortab
counter
##paratie
antiretrovirale
PDE
Verenigd
Myel
geopend
##ucl
##poë
bewijskracht
174
##kernen
eye
uitbreiden
invent
aanvals
Rash
kit
opgebouwd
##opurinol
##scyclus
##herapeuten
Bax
Kolom
AMPK
dyslipidemie
interessant
##rieten
DISCHAR
technologische
hemolyse
mitose
diëlekt
##brengen
diazepam
##WN
OAC
Clostridium
onvruchtbaarheid
CTO
##ones
trillings
##film
thermodynamische
##ELD
functionaliteit
##lamming
NID
##steek
anesthes
hematopoietische
anus
##volemie
##opolymeer
Individ
geïmmuniseerd
thuismedicatie
communiceren
telemetrie
reflexen
verklaarde
wandbewegingsstoornissen
##C2
##war
vervolgen
voorspellings
fitness
##pulmon
carn
260
room
serumspiegels
tropische
##farin
##oriënt
onderge
lopressor
##ios
stage
##ande
Weergave
##pijp
Coll
endotoxine
INH
##offers
##propion
reagerend
##olys
hilarische
emphysema
##atro
rales
##oprotein
diffractie
besmettelijke
Verantwoord
reis
##ney
##pla
##regatie
leider
##geneesmiddelen
bemonsterd
verplaatsen
asparag
glucocorticoïden
Bep
calcificatie
tx
NEC
HSC
verbreding
ingevuld
positron
casestudy
onomkeerbare
ADRENALS
RSV
##itation
##reconstructie
Hartslag
SICU
##hylaxis
tibia
coating
steriel
lactatie
schok
##jac
##atiënt
##gereguleerde
absoluut
precursoren
aminozuurresiduen
geïnjecteerde
##ments
##sensibilisatie
scientific
Sy
coderings
inzet
##ather
##compromitteerde
PGF
palpitatie
werkplek
raken
Antistolling
bijgevolg
KLINISCHE
gag
soja
App
prioriteit
##94
pelvis
##bromide
##iff
linkerlong
verbrand
microsat
eicel
annuanced
tekortkomingen
antischimmel
gedroog
##azijnzuur
onbepaalde
gedrapeerd
aanmelding
##atinib
sensibilisatie
Fil
Hog
##orders
##usus
##krachten
##osomal
tetrof
zorgverlener
##levering
##rein
lipoproteïnen
mgPO
rustende
herseninfarct
##ALS
metatars
bètac
##odod
cholecystectomy
celdeling
radioactieve
##rijpe
bless
Ventr
##dode
epicardiale
apart
##alanx
##laten
##oveneuze
adolescente
Gecon
nadere
endogeen
Const
tricuspidalisklep
Informatie
##bias
ziekenhuisopnames
gaschromatografie
hyponatriëmie
calmoduline
veronderstelde
lippen
V5
transl
##wake
sour
##laagd
strekt
Ernstig
lethar
ECT
vertekening
kwadraat
##stok
inhibitor
##hip
gefus
##omavirus
falanx
nietjes
RAN
ataxie
FOS
findings
pathway
est
##distributie
EDTA
##axine
uitkomstmaat
angiogene
cholecystectomie
##zi
attitudes
stemmings
uitgaande
##oflav
##oïsche
bloedproducten
anterol
##achar
##iomy
##vention
##frequenties
bloedings
vin
CENt
exciterende
rechtvaardig
##voort
calcane
##aarzen
##ulcer
Minder
##tensive
verdicht
##split
Bib
Communication
atmosferische
vingeraf
overtuigingen
Program
##instelling
icterus
2114
##mort
KNE
Carlo
##D2
verlamming
##ceïne
Ves
##variabiliteit
Urin
voorstellen
zol
##regels
Xenopus
extensie
Water
##onsters
gekleurde
entiteiten
cognitief
##gemiddel
##S1
handha
Trich
##inereceptor
Kinder
responders
##bsiella
##ira
##oratie
##87
##ark
##UTE
##URS
Iom
##ties
Hiervoor
cam
##dosering
eczeem
documenteren
Je
##ammon
Kind
antif
zuigen
ziekteprogressie
synergetisch
verwijs
##rint
percepties
eis
hartkatheterisatie
##lair
##ATIEVE
tibial
##64
health
##etens
##ocrine
##symptomen
burst
sinustachycardie
Tox
Th2
ontspannen
polykl
nikkel
Bic
rechterheup
##ocy
subtilis
apixaban
grenzend
Band
##omvang
##tom
sporadische
##imaging
compliant
Commentaar
doorgankelijk
##dynamica
werkgeheugen
Vas
chain
hold
Conjunct
Failure
klepvit
incre
maaltijden
deleties
stenting
triple
opsporen
verzadig
elegans
organisatorische
pancreaskanaal
SAT
##oefeningen
Opmerkingen
immunoprecipitatie
TRI
pres
langwerp
##ribu
177
kwetsbaar
ongrijp
Ts
SPR
CNT
tetrofosmine
skin
##Gym2
gestoorde
##aur
##belast
##oprost
##ivum
male
Atriale
##uzumab
sedimenten
ingredi
Complicatie
botvorming
echtgenoot
geprogrammeerde
Colon
##93
omze
origo
ausculation
KA
##agentia
docking
antra
insertie
##reerden
##verkalkingen
short
uitgangswaarde
Dose
Via
volbloed
indicatief
femoral
Pediat
##anje
Kolomnr
patella
Second
gm
##oglobin
SCI
MAC
##oct
adviezen
##yreen
Vooraf
intracere
##microscoop
Altern
Catheter
Calif
ESR
generaties
documentatie
stres
Effect
MDR
verduisterd
lbs
##contrast
##udine
jeugd
variërende
##gendeel
##vend
von
hulpbronnen
171
##retentie
##thiazide
verbindt
Heter
##gesloten
binnenkomst
Tractus
IGFBP
ETOH
##holten
161
belof
Voorlop
##centimeter
intercellulaire
gratis
##pte
crackles
nucleïnezuur
##ORAC
gerangschikt
##rienden
poliepen
afgescheiden
dermale
tolereerde
oren
ULTR
agenten
YE
perfect
klepafwijkingen
speech
releasing
Centraal
regeneratieve
groeiend
Nef
lymfocyt
creatine
##yrid
woont
Methoden
BY
##argine
waak
Neonat
bruin
##vasculair
mist
Tone
##eenzuur
methyltransferase
gezw
hili
Infect
eukaryote
##otent
jejunum
Progressie
##Lin
stille
coagul
173
onderscheidende
somatostatine
Metingen
vestibulaire
confocale
gemuteerd
##ulinen
zoogdiercellen
waarb
screenings
aangeven
bemoeilijk
kauw
Weight
DOP
OGT
Clon
Database
micellen
Ol
slaper
##amere
GAS
accur
striatale
chemokine
voorspel
more
rechteroog
ingeschreven
bloeder
BILATER
##zaï
atypisch
Hand
positiviteit
ware
wisselend
##ije
ISO
##eptische
PSY
Class
tacrolimus
alarm
##vulde
SIR
Opmerking
waaraan
##vattend
wire
uitster
hyperglykemie
ZnO
forens
##iph
##gever
bevruchting
beoordeelbaar
portal
schaarse
sphen
##aper
paradox
evalueerde
bloedende
Nadien
B6
Midden
nationaal
GRAM
2112
##ety
lamine
required
##attery
originele
metal
veneus
maste
onderschat
chromatografische
RUST
FEV1
glijdende
georiënteerde
##omyomy
CML
nanot
adsorb
dam
##clip
CALCIUM
##emissie
##vector
Gezondheids
##icle
CaM
etiologische
Angst
##seigenschappen
dingen
##invas
aspecifieke
LAA
##wongen
priming
##ini
decub
cultiv
##allergie
##cortison
nifedipine
peroxidase
Relevante
area
ontleding
##omgevingen
IG
uitdagend
kalm
##obacteriële
myalgie
##MIN
antistollings
endocrin
strip
##inum
##sprestaties
uitval
##lanar
Fiets
Reageert
4x
Zou
AVP
0700
besp
Ondertussen
methaan
deviaties
##ASS
stolsel
##drome
Kap
presynaptische
##grenzen
##O1
She
##ancy
rost
##ateriaal
##illon
NPC
##ithine
##ifugatie
materie
##database
5x
Axial
##wikkeld
verergerende
conflict
analog
source
ontwikkelingslanden
##iseerden
denk
verdween
duizen
vereenvoudig
Bot
dimeren
anticoagulantia
restenose
werpen
overdraagbare
Referentiedatum
valse
cutaan
lastig
##lying
##lands
Tai
##beperkingen
reversibele
##nnnnnnnnnnnnnnnnnnnnnnnnnnnnnnnn
focaal
appendicitis
onaanget
##giëne
##Cl2
sterftecijfers
dissection
geïnformeerd
NPY
##ineresiduen
parodont
apolip
uln
gezamenlijk
echocardiografisch
sto
##variant
beoogde
toxines
afgekn
##metting
##dede
projecties
pot
wekelijkse
rechte
wisselende
Nt
##ocyte
##yly
schroef
upregulated
HBsAg
QTL
chondrocyten
cp
SPE
CORON
##oordelen
congru
perfus
overschrij
##ampsie
enth
arachidonzuur
Rab
organism
hypoxemie
dispended
mak
results
folaat
hypothalamische
##uitslagen
##uilen
oogpunt
human
opdat
tyros
##oere
DataLin
##stralen
##molten
gediss
onderlinge
selenium
OV
RDW14
drift
##arenale
law
comorbiditeiten
uitlok
instit
bloemen
GLP
voorwaard
dubbelstrengs
aanvaardbaar
##ource
conditionering
##eb
years
##ky
##immunoassay
PAI
moeilijkheid
zouten
nanostruct
Italië
borstbuis
oordeel
brachiale
##bericht
osteoartritis
audi
overbelasting
URINARY
gegroep
tramadol
jet
Survey
##sthesie
OHCA
geor
excentrische
natte
WEG
##itonine
##ORATO
##chloorthiazide
##abric
##ficiën
anten
zuigeling
ontbrekende
current
EPS
OCC
##orum
Orthop
boek
antistof
scheur
College
gebruiks
zorgde
Angio
ribonucle
plakjes
leucocytose
moeiz
prem
HIT
##mengsel
herschikkingen
##vermijd
Dev
mw
##holtes
##media
aVL
##M2
doublet
onst
giftig
##illi
prolaps
splicing
##wijziging
Apixaban
##colleg
cholangitis
breathing
##semb
tolereren
barium
##cycli
##Hz
##blootstelling
IK
antitum
1a
gevalideerde
##ITE
por
mb
voedingss
zuren
##gency
vullings
speci
elektrocardi
##usaat
hetgeen
groeit
##perk
Sul
Yo
keizersnede
myocardische
following
hoofdzakelijk
##ematic
Differential
buig
proced
onderliggend
dringend
##ielden
Ventilator
endemische
Volwassen
##doofd
Mutaties
waterstofbinding
behandelend
##diagnoses
mondholte
zwaarlijvige
##isseld
Primary
geloven
##atiesysteem
Eval
BBB
klimaatverandering
##fosfatase
##ipen
Cs
EPO
vrouwelijk
gevoelens
beïnvloedden
Enige
Qd
##vullingen
juven
inteelt
dhr
##itten
phase
##heps
##ODUCT
##oL
paracentese
##XT
gecalc
onoplos
hartritmestoornissen
S4
verduidelijkt
voorkomend
##X1
hepatopetale
opdrachten
##ONIC
atropine
systolic
lent
exponentiële
holle
FV
adipositas
known
aangenaam
eosinofiele
##rologische
posttranslationele
##dine
##prik
##LDL
spons
arrays
##vised
superfamilie
opzwellen
overmatig
free
koortsen
mandibulaire
unilaterale
CTR
41J
##oxaan
antihypertensiva
Count
##iparum
haven
spoelen
apt
##ortium
cefepime
##AX
optrad
Volume
burs
##ympan
rechtv
##ilitatie
Treg
##71
##jarige
Franse
zintuiglijke
inducerende
##lamydia
##glycos
hemostase
during
versterkende
tange
Obesitas
UF
##imodale
aanvaardbare
##sanalyse
tensie
HIP
pine
hydrogels
HNN
cytologie
tang
collabeert
##ara
mem
##verster
##hoogd
##CM
Land
gereduceerde
veront
Cyst
vertakte
wetenschappers
opstelling
##perspectief
##omerisatie
Valve
##oforen
NU
##NES
PROCED
##iverend
verontreinigde
##ZO
CpG
Sout
monot
pulm
veelzijdige
methyleen
Afdeling
aquatische
##ancreas
##oxap
applic
Latere
CER
##comprim
psychose
Fibrin
Ciprofloxacine
gedood
fractionele
kromming
obstructief
D5
diffic
##peroxidatie
veerkracht
danwel
##sthes
Trache
herkent
Mannelijke
vrienden
lactulose
Mutation
consent
streptokokken
##zout
continued
gedown
##patient
ontoere
blaaskanker
cele
Inderdaad
Reagent
ERP
##rap
##mata
##vriend
##prof
##GEN
Frank
RUL
##oter
##neuropathie
DQ
Kin
BN
ontvangt
gevulde
##74
##otrofine
grondwater
erytropoë
##modaliteiten
subchond
##omatose
neurotrof
Awake
droegen
##ulering
##iquid
combinatietherapie
##ITH
##polaire
##ka
leed
##emateuze
Talrijke
yellow
nefrectomie
AMS
levers
##kamers
overtollige
falciparum
##aran
volgfrequentie
Fox
hydrocefalus
##ancreatische
life
representatief
β1
dehydro
citraat
afstamming
coöperatieve
bidire
##erbaarheid
micromol
abru
Progress
interactieve
osteophyten
##ading
Ond
botre
his
macht
##osphosph
dossiers
kankertherapie
##pings
##schim
intravasculaire
NADP
beëindiging
Ident
FFP
spike
onderdelen
Toekomstige
##ilt
Back
adnexale
atrof
darmgas
Muizen
adolescentie
Redelijke
rechteratrium
monolaag
##keuze
##person
##hrs
aanhoudend
ribbreuken
Breast
linkerbeen
convex
delirium
gezegd
Dors
##schromatografie
waarborgen
##ogroepen
loops
pathologieën
##rasp
ERK1
hoeken
stemmen
006
wijdverspreid
Elektrofys
ORDER
##aneurysma
eenzijdige
golfvormen
bijeen
Vocht
eclampsie
Prov
Dip
256
##houdendheid
microcalcificaties
evolutionair
mediatoren
pT
Nat
verontreinigingen
##akt
1984
##ommend
Vooral
osmol
##onic
##WF
##ymethyl
pu
demyelin
##werkend
satelliet
##IEF
relaxatie
honing
pupil
stuwing
##cascade
##ïsol
##pertoire
verstro
enscen
##arische
CA1
Gemiddelde
##verlichting
##lerings
##verlamming
##richtlijn
##otter
gemethy
NCAT
equivalente
##sl
zinnen
efficiënter
gekru
##pleging
groenten
##digings
pens
rugligging
##ful
##school
Troponin
##200
meniscus
Hoofddiagnose
##OPER
pK
E3
##letsels
provider
spits
kla
##bestand
muriene
peroneale
##VERKLARINGEN
vac
intake
submuc
hemangi
##iero
Sever
##knopen
Protocol
tens
gemonitor
##OTH
koolwaterstoffen
causale
oftal
maatstaf
zosyn
snoer
toilet
Losartan
duim
onderbre
PULS
Plasmodium
seconde
##compartim
mediastinale
verklaringen
overheid
temperat
voortvloeiende
Twaalf
heterologe
titanium
PVD
onregelmatig
tussenpo
##elzinn
Dislosure
antiserum
geregistreerde
Bent
echocardiografische
##rax
##vergelijkingen
nevenbevindingen
wall
Stat
qPCR
Stimulatie
celcultuur
##ssyndroom
##1a
inactivering
gister
MVR
##gings
halen
heat
stroomgebied
carbonyl
opvatting
ICH
##osamine
vagina
Negative
Celfunctie
Complement
bedreiging
##bevorderende
##operidol
##iect
seroton
verergerde
Neuromuscular
div
Uter
bestemd
##aged
Nrf
Turk
chimere
##optische
##arr
irrig
ill
bekkenwand
##wortels
##thermie
economisch
##osensorische
UTR
##sorbeerde
Warfarin
##geboorte
pret
gelaten
gras
angstig
segmentatie
##itonitis
marge
##keer
afgebeelde
grafts
##ONS
nefrogram
toxisch
nebs
repetitieve
##inem
versneld
##volgorde
amn
gaas
vliegen
tegenstrijdige
S100
deeltje
##hangt
gemaakte
##opauze
Ward
extremity
##ageerd
IDEN
VENTRIC
alsmede
270
amfetamine
##gerapporteerde
lekken
ozon
treat
luchtpijp
##scopisch
aanleg
DHA
elektroforetische
##illende
##ORACIC
overeenkomend
klonale
Trp
intensief
interfereren
light
ontleed
##ombinatie
pasgeborene
##sexperimenten
##ridge
gemonitord
Systemische
##ohumer
Lange
s1
##sprobleem
R2
vloeistofchromatografie
doi
kraken
destructieve
DIG
nvt
dichtst
merkbaar
##rijvingen
cholest
##91
Meth
##risic
##negatieve
Amerikanen
##zings
reagens
oppervlakt
##ically
ophalen
Vroeg
Tstroom
belofte
roe
##platen
brachi
praten
Day
##ophed
neutraliserende
presentaties
verlaagt
ideeën
concludeerden
tijdsverloop
ulcera
##rele
Syndrome
delt
rDNA
descendens
pO2
natri
stenosering
##dubbelzinn
Mich
2023
abdominaal
ritmestoornis
darmmicrob
##correl
phorbol
##ocefal
neurotransmitters
Small
Defin
oncologische
##kie
##azob
Gelieve
NAC
har
ORIF
##hoxy
opgehoogd
Scintigrafisch
Ibuprofen
gemanipuleerde
incidentele
sterven
Vul
Buikpijn
oproepen
Verdenking
RNase
##verzameling
thyroid
berust
PHOS
Antico
corticosteron
##contractie
oestrogenen
CRIS
##doss
vakantie
VD
200mg
Uitleg
cohorten
##kui
disco
Gelijktijdige
rechterkwab
intercost
DIC
patiëntenzorg
Cart
opruim
inherente
##zelen
##cylsulfaat
herstelt
cha
transcriptase
hersenbloeding
##acrylaat
Activering
##BBB
geluk
##olide
##tief
DOC
##rante
FLUID
NICU
5L
##isolatie
fotosynthetische
haalbare
Tub
##trig
Mechan
vergelijkings
Rib
precordiale
##ateur
orbit
##diment
simple
vesiculair
ventiel
rad
Abeta
Food
San
TAT
##afbraak
Maand
getit
paring
NIH
formaat
emotie
##loot
uitgedoofd
trajecten
BCG
hyperglyc
commissie
amoxicilline
longvenen
orgelcomponent
Clipnummer
##anat
##conditie
antitromb
##ectal
##iakie
Profess
stikstofoxide
##rofot
aanhouden
Ed
STEST
ingetrokken
aortaklepfolders
eIF
ink
autisme
##ylatie
##vin
LABORATO
neurotransmitter
Cort
##oxaparine
##bacteriën
achteruit
##86
IDENTIF
shocks
delayed
neuroprotectieve
plasminogeen
##L2
atelect
vervangende
mannose
perio
onderbeen
lichaamstemperatuur
count
Kreatinine
Humalog
##orus
stopt
proteasen
HYPO
##osoma
voorzorgsmaatregelen
nagel
##tegrade
5mm
ondubbelzinn
ane
inactief
kettingreactie
samenspel
apneu
varic
fibula
triplet
##unctuur
##uigende
Nicot
Nauw
katalyseren
serop
Tn
Battery
Pal
double
##vergelijking
Case
wijzend
early
##oproliferatieve
##bouwing
casusrapport
neuraal
##tromb
multicenter
streven
expiratoire
Verwijdering
Initial
depressies
Piper
Gew
gevouwen
Rate
MPS
group
2130
contrastmiddel
teruggevonden
##sim
##instrument
proteolyse
emissies
##ilen
drinkt
##LOGY
hechten
##iteits
breder
##aining
##zestig
boviene
##hydrochloride
filament
quantum
fluoride
SGPT
##chanter
posterieur
linkerkwab
epigastrische
intentie
tafel
stapsgewijze
##HES
##imat
##neet
multil
junctie
##regimes
Protonix
endothe
Phen
slaapapneu
bacterieel
voorbehandeld
Smad
analget
klepvitia
Samenstelling
##atienten
2119
vermogens
##SF
##osed
geldig
##ylefrine
Fosf
azijnzuur
Ace
Gauss
purp
##IJ
versp
levenscyclus
##eertien
levenslange
##G1
Telefoon
anorex
neoplastic
Sw
fam
nicotin
habitats
Pressure
onderbroken
##bach
Omn
##leng
parenterale
##lies
foetaal
omhoog
DOX
rechterbeen
Spaanse
##onor
expressieniveau
besteld
mantel
scrot
Cuff
##osyltransferase
statines
##families
bezorgd
onno
gefinanc
pravastatine
ly
LUL
RISS
##hoeken
posterol
Groot
##gebrek
##rijd
voeder
Verwer
TX
geïmmobiliseerde
##gus
Super
##ylen
PHT
##oquine
AIDS
ooglid
##oprotectieve
FK
##mente
CVL
zwangerschapsduur
##idus
intramoleculaire
inherent
aantasting
Huisartsen
Zest
Immunologic
##algoritme
spreiding
##afscheiding
##eenheden
verwarm
FOX
opportun
dissoc
192
trich
hypoc
prur
hydroxyp
Tran
##onucl
afgeknotte
##groot
##HR
longziekten
supraventriculaire
verwaarlo
it
##Se
##ove
Atenolol
kub
contrastmateriaal
uiteenlopende
afscheiden
Binding
zoekop
##schikt
LPA
gemin
##types
integrale
##ENOS
##rapportage
toegankelijkheid
ALGEM
merkten
kunstmatig
ongrijpbaar
bisoprolol
zinvol
Object
##pa
suikers
contexten
deelnamen
##oview
##fincter
deskundigen
Ogen
kortetermijn
Soln
##afzetting
entropie
hematologie
bemiddelaar
gefosforyleerde
##zwakte
##omegalovirus
stenoses
EE
ademen
##onderdag
bicuspide
CXCL
BV
##sief
##stantie
exogeen
geënte
onco
gewe
camera
Tol
European
Prost
artrop
##endement
##arum
BCL
GB
##fyseem
nucleoside
Zuur
politieke
##YL
##eases
Rb
##epp
##winning
2153
##AIR
1beta
##slaan
##ample
##ocysteïne
TISSUES
varices
gerealiseerd
endovasculaire
##aaaaaaaa
##vix
Voorbehandeling
##carboxylase
Inte
##alact
boodschapper
occlusieve
VTE
##spl
##oeuv
##entallen
183
##ofylline
breken
206
hypodensiteit
randomized
foraminal
##schattingen
hedendaagse
ct
##zaïek
thee
navig
Mitochond
##stijging
gynaecologische
kel
longvaattekening
##romen
Bericht
hs
behandelaar
ferritine
overweeg
Globaal
rho
inkap
doo
TOTAAL
galkanaal
##aleen
surrog
Thorac
traditioneel
ergo
##oun
rechtvaardigen
tortu
##pig
stafyl
vroegtijdig
nanocomp
Borstfoto
Meestal
##honderd
param
uitle
##1p
##atho
##40mg
gauge
mucine
toet
FX
##orisatie
##fas
Year
Posit
regener
brein
vulg
Ondansetron
##haald
##vage
##aseactiviteit
Britse
focal
web
beoefen
Lactic
##trekken
##parenchymale
fenylalanine
Evaluation
##correctie
CDC
##ano
Sport
##onditionering
##ination
##kool
draden
Mu
##ontine
NONE
niercelcarcinoom
##aggre
stamceltransplantatie
kweekmedium
##paar
pyridine
NON
Wean
borstbeen
receptoragonist
Slank
##io2
aortadi
Sagit
Ejectiefractie
##inz
##interventie
verzwakken
barb
##reken
microbiota
UI
amiodarone
##abapentin
gat
dysfagie
atomaire
##ycle
##sclerose
ontving
Gelijktijdig
##strueerde
klon
leukemische
ferro
Medicine
##92
ongelijke
gescand
difficile
verzadigde
knaagdier
##UUR
##atieresultaten
##clusters
cyclisch
paraf
aangevraagd
ICAM
ALP
obstak
betrekken
behoudens
25PM
robuustheid
##riptyline
##osure
children
person
descript
##vaginale
##wet
##erbaar
Tm
##PG
Overexpressie
mediaal
##old
spot
prostat
vertebrale
195
Ovarium
waaier
Treatment
##ffectief
##otentieel
##ateralen
paraff
Bayesiaanse
parodontale
excretie
##hydrolys
gigantische
subtotale
Magnetische
discrepantie
tijdafhankelijke
kralen
##elines
Prednison
bloc
ensemb
anatomisch
adviseur
core
Riv
##oxicaties
additieve
211
Spect
##sum
diaf
testikels
pob
Team
voortgang
thiamine
##aced
isopro
##oseerd
vue
tijdperk
additief
retinoïnezuur
##ball
publieke
zwakheid
##omiale
graph
mamma
##isaties
behoudt
##transplantaten
PUFF
predis
geoxideerd
afkomst
Concentr
Dominantie
vormige
Reactie
serumc
coronari
Ly
##groeid
versterker
HTLV
argumenten
corrige
radicaal
Bone
prednisolon
##resol
vagale
gescheur
urem
##ratific
Lumbar
myx
onmogelijk
184
Dieet
betw
##luor
Penicilins
Melan
##disfunctie
sterkste
roepen
##sverlies
night
Ele
##ueen
fuc
hypert
York
stoichi
##ethanol
conformationele
folder
GW
Metformine
probeerde
myocyten
##geïn
Afgezien
##hydroxy
pc
Klein
3dd
NEB
##ofran
##voorbereiding
popliteale
beduidend
inleiding
##come
Onveranderd
##otheline
##plementatie
kip
transcriptionele
##arth
##ontan
Stenosis
substit
##collegiaal
SVES
Fos
noodzakelijke
conformaties
##malige
realiseren
days
Base
##ya
microscopisch
Get
LB
##resto
##pneumonie
tegengestelde
stressoren
eilanden
aparte
Atria
emotioneel
gepolariseerde
gezichtsveld
##lyceride
186
infecteren
kweken
construct
reaction
Symptom
oema
##buffer
Cholec
limiet
PW
##mic
subpopulaties
BILATERAL
afdelingen
##biopten
Indicator
bezet
eerstelijnszorg
##orc
##ioloog
T7
##IB
Verw
intelligentie
##conclusie
slaag
##roïde
##inemie
nogmaals
##osoc
Att
##iepte
B3
porfy
##ouchen
##ato
ademhalingsfrequentie
subcentimeter
thermisch
##Plus
##atalytische
aVF
##etam
hoofdhuid
endo
adenylaat
rituximab
##mitte
##clusion
celfunctie
##acarcinoom
dichter
overex
passeren
##dodecylsulfaat
hazard
eenmalige
duurzaamheid
Pf
##arterie
Dry
elektromagnetische
Nrf2
caroten
##iensis
methadon
##gankelijke
getransplanteerde
hyaluron
cholangi
vegetatieve
theta
##rines
myot
SGOT
Children
achtereen
##karakter
Familieanamnese
Misselijk
afgeronde
propion
vervoer
Av
sensing
benedenkwab
Morf
##odië
FTIR
inactiver
psychiater
cofactor
kijk
##transfer
examineation
slaagde
deelt
abl
resterend
Langdurige
active
gedomineerd
assim
##pez
benauwdheid
##orh
gemurm
##opening
##kat
gentamicine
lesion
Alg
WEEK
Gek
hersenbarrière
basil
##genoom
temperatu
##erculose
##pale
dict
Hip
##ook
##schijf
##orrh
Voorbeelden
voorkeurs
Movement
parap
PAH
URBAN
##precur
##ukt
beats
botminer
BMS
##besliss
IMAG
Hyperlipidemie
chemotherapeutische
psychotische
##odische
##industrie
##architectuur
CRISPR
##rub
homogeniteit
##azobactam
##MD
smelt
##pot
##occlusie
gerookt
Oraal
buc
NLR
heme
CONCLUSIE
angioplastiek
Visualized
##C3
CBF
vla
vormde
intervention
terecht
fabrik
CLE
Leucocyten
##proco
025
MES
##apparatuur
irreg
blootstellingen
##verstrooiing
convent
##KE
caseïne
REPR
LMP
##phis
Polym
breidt
##roplastiek
voorspelden
plavix
HNP
Monsters
omtrek
Fr
##auzes
##gast
Ana
regulair
vangen
pillen
getrouw
stopte
KD
Hogere
##yct
Osteop
##reson
gereduceerd
##afte
macroscopische
cephal
ABDOomen
resonantiebeeldvorming
Snelle
Rhonchi
DNI
187
pluim
orthopnoe
Slan
sporadisch
generieke
lineariteit
sfer
littekenvorming
Rob
Klebsiella
PAS
verrassend
Ischemie
##rolisthese
schuim
##omest
##volgd
sternotomie
##ofiel
##emonsters
platina
koers
slachtoffers
admission
##distended
experts
Acuut
##spire
biogenese
myocardium
##inoline
homogen
##KL
3T3
##vect
Atlant
##uite
brain
expliciete
steatose
##opathologische
echografisch
TLR4
##GRAM
##ULT
passag
laparotomie
##ani
crani
gefunction
phyl
205
PSYCH
##ONG
vitaal
cardiac
cliënt
##partment
Rad
##BATBATBATBAT
antisera
paniek
tientallen
geëtiket
##ATP
##illin
##rier
bevrie
##olone
##romatose
Pneumonie
droogte
ketting
##spraktijk
cytologische
Wilt
##bestraling
peep
##iliseerde
##procoumon
##draai
##alniet
##opyr
35PM
Schildklier
##omycomyc
opstaan
hars
cellymfoom
curcumine
##alniettemin
##eflex
ultrastructurele
desorptie
##gron
verkorting
##ayer
aarde
arterioveneuze
aster
opleidings
atriaal
##dermale
lysis
venster
schetsen
##ulate
voorhoofds
sublinguaal
Level
##esthesie
Fietsergometrie
ingediend
HepG2
kikker
tocof
large
uitgeoefend
NAT
##CY
##aaien
##prednis
spatio
##itheliale
doorsnede
fle
##olytisch
trit
##nauwkeurigheid
subclavia
##ronaat
onbetaald
##pho
geïnactiveerd
belucht
REPRODUCT
immuunge
werving
Tachycardie
##atriale
Spanje
gewas
kankerver
##oxicatie
##teiten
NCC
Vital
naakte
##perator
onderzijde
##STEMMING
Neurologie
##ML
Hypothy
ANA
nodale
zoö
##ileerd
dubbelzinn
##iting
FLA
KR
dri
antegrade
antin
hamsters
##schil
leiding
##ERS
inconsistent
analyten
röntgendiffractie
##EHEHEHEHEHEHEHEH
##bekken
benaderd
faec
analysemet
##YN
##intest
##09
##oraal
homologen
XI
blastocyst
##INDINGEN
borstkankercellen
Ticagrelor
GLUT
##cted
schommelingen
foraminale
afwezige
AFP
nachtelijk
CD11
##loïdie
krim
sinusitis
SLC
PHA
Ipratropium
Ce
##dieningsweg
rationele
Diverticul
reflect
geïmmobiliseerd
##operaties
ACH
##xen
raamwerk
perih
##ruk
respiratoir
beroertes
herverdeling
Prednisone
##antilichamen
##hydratie
Obese
reproduceerbare
1D
##neringen
##ssituatie
agglut
intermoleculaire
plt
Academ
##usate
Telefonisch
neuroblastoom
Alt
TL
spuit
genomisch
Druk
##84
##ohn
inenting
##maxim
Passen
gecateg
Functie
uitgerust
##hypertensie
##aanpassing
buizen
##irp
mammogram
halver
##araat
volumeoverbelasting
longknobb
monomeren
Gad
pedi
Opnieuw
quasi
ontluikende
fabricage
##ecretie
jarig
##aanzuur
##ruis
##sprofielen
##urse
melkzuur
uitoefent
ribose
##eses
Helic
bevordering
Conjunctiva
vroeger
BMT
CAS
cing
Aanzien
particul
##OUS
dimensionale
polymorph
sbp
Opdrachten
##inalis
terminals
hypotensief
2124
uitmaken
bovenliggende
SaO2
gelatine
membraangebonden
transductie
Recidiverende
##gue
##iepe
geann
Q3
deep
FNA
vasten
dominance
diëlektrische
opinion
##pil
##oriëntatie
hogedruk
import
drempels
biotine
##aminophen
Rema
4e
##abdomy
##pten
juridische
##mmol
neurotoxiciteit
epist
werkzaamheden
Tegen
PSH
bloedbeeld
Swan
fluconazol
Flowsheetgegevens
wnl
2200
##insdag
Lig
uitdruk
nasogastrische
##yo
strikte
intrinsiek
Science
##inte
hydroxylase
ischaemie
formulier
2169
##conversie
##orgaan
##sdag
2145
##obalamine
##pn
concentratieafhankelijke
##ki
zesde
glycosylering
eukaryotische
##monitoring
##biom
T11
eukaryoten
##beoordelingen
rece
Log
Prostaat
placed
##okine
zand
##liale
evident
##obalt
C18
puberte
matrices
##haar
verdeelde
nitrof
ideaal
##wekkend
noodzakelijkerwijs
##scherpte
##PI
Ingreep
tactie
##diast
plaatjes
CLS
Apo
##other
ABA
CD40
Leishman
UNITPO
intubated
ROC
##nekk
##ereuze
##Text
sprak
glucosetolerantie
fluorescent
gerepar
##OLD
##RAY
peritonitis
krachtiger
cystic
Evidence
schijven
aromat
##positieve
bovenbuik
dek
filtratie
##imurium
afzettingen
Dispositie
neurodegeneratie
hemagglut
Chi
collaterale
doseringen
hyperdense
cipro
##kary
##otransplantaat
##instantie
gemer
gekatalyseerd
Multilevel
Mis
##ergrootte
verscheidene
##tam
55PM
bevond
##classificatie
comprom
##ICAL
doxyc
sf
synonie
##GRP
##gische
RAQ
energieverbruik
pericardium
##moeder
lif
Gabapentine
Gd
##hechting
tendin
sagittal
Vanuit
bloedstolsels
verdediging
schild
VB
RNAi
parametrische
05PM
microsomale
preferentiële
NAF
##bpm
gliac
damp
rund
Voortdurende
alloster
##bbel
steden
##iaceae
beginnend
##onate
granulocyt
incompatible
aminob
white
kram
quadru
ongecontroleerde
##oculatie
Qual
Twintig
randen
verhinder
Ach
projecten
belon
##ohumerale
##diafrag
biochemisch
##fragment
F2
motone
luid
doelcellen
MDI
werkingsmechanismen
##edie
colloïdale
geld
bestrijden
Lumen
##Pa
##aande
##iters
INFORM
zijketen
Ht
beno
PROTE
hybriden
hypercalc
alomtegenwoordig
##thel
compenseren
##velen
atrial
AKI
dre
MIP
##ienummer
supplement
hept
##asisch
huw
##idere
##lagende
DDDR
geperson
Crypt
BACTER
rechtervoet
aangesloten
Trit
etiologieën
gespre
beschadigd
Sym
STO
Beoordelen
eiwitcomplex
Prob
gedwongen
proefpersoon
titratie
ontregeling
AChE
oxytocine
immuunreactie
##odysp
gedemon
onbalans
logar
##cluster
##wor
opper
##signalering
rechterschouder
schil
LVED
neoplasie
overmaat
Forse
dystrof
meetwaarden
bestralingstherapie
ontmoet
reproduceerbaar
Lokale
Integendeel
zelfgerapporteerde
cells
normotensieve
Buiten
Artikel
Cry
##verre
TLC
lactose
subf
palpabel
Cult
amyloïd
##Operator
ontwen
AX
opPlus
intOperator
UE
Dia
##volution
ANG
##opoë
##liceerd
emulsie
##UW
##ocorticale
##tien
##hypoth
verkrijgbare
associated
administr
gecategoriseerd
coeliakie
paroxismaal
Hierna
lie
Sats
gezwollen
genoombrede
placeb
Aanmeld
##integr
synch
##umaraat
angiografisch
kud
oefent
Carotid
geaccum
gesplitst
1982
opleverde
zaailingen
signaalsterkte
versnelling
thalass
Mag
Desalniettemin
##ronolactone
stochastische
##cijfers
neuropath
Prophylaxis
ecchym
##PL
Intervale
##arrays
approach
doorgemaakte
##rivatie
GAD
ongevallen
##lengten
Borderline
spierkracht
flexibel
thymocyten
reken
##rongen
179
##oglycanen
##eptale
imaged
FGFR
##ondersteunde
bolvormige
2141
hardnekk
Enkel
promotors
Poliklinisch
volgden
gesneden
TEST
scap
rattenlever
duidelijker
potentiaal
inade
aas
##variantie
2113
milliliter
chemokines
hern
mengen
USA
Gegeven
nondistended
FB
klas
geaggre
##invasie
sorptie
Australische
export
NPH
biventriculaire
kooldioxide
osteopenie
##omtrek
hoeft
onopmerkelijk
antipsychotica
behoe
##iveerde
PAGE
Eind
Vorige
GERD
opaciteit
##wetenschap
##kante
##kinderen
onbed
##elektronenmicroscopie
##ycling
bicarbonaat
##pleurale
kada
##83
scherpte
innervatie
Slanke
varië
redund
progress
noordelijke
##ouracil
groeip
##arende
HOB
remo
pyrimidine
vleeskui
verschaffen
Korea
##epatiënten
##oxin
##itative
postp
trombocyten
sigm
prothesen
metaalionen
##oevoer
reizen
ribosoom
2167
##yster
kwee
##dor
##illatie
boerder
quin
laden
osteoblasten
gepuls
sikkel
Middel
##chus
VENTRICLE
gepoolde
interpersoon
geabsorbeerd
Afhankelijk
cadherine
captopril
Achternaam
discharge
maatregel
arabin
vergelijkend
##oscopic
##opolymeren
Paroxysmaal
##ativa
perfor
dentine
Stichting
intramusculaire
verhaal
TOF
zyg
gereconstitu
Mod
Rust
Diagnostische
cerebrovasculaire
passief
marges
vogel
##signaal
poliep
Ouders
##alfa
##overy
galbuld
groeirem
##QL
Paracetamol
PTEN
modelsysteem
##omedic
adducts
##bridement
##ercetine
##icles
epigast
geherformat
ESI
gedownreg
##athyreoïdie
MRCP
##sensor
Sepsis
##toxiciteit
Persist
##offer
lasers
##istieken
supplementen
diagonaal
State
##oediening
chrome
hallucinaties
Bijvoorbeeld
catal
donderdag
Bèt
SMC
aaneen
expl
MCI
ether
magneet
##vissen
wijzigt
##lokalisatie
Misselijkheid
Self
aftasten
Analysis
Achten
getrainde
##zes
##iëring
##riol
minimal
##URAL
neoadju
Fus
##gemeenschappen
NEGATIEVE
viss
CsA
patienten
Nevendiagnoses
aangemeld
##bevattende
Activiteit
##theorie
install
##ksh
neuropathische
periferie
Histologisch
etniciteit
voortvloeien
doctor
##ty
ischemic
nabije
gekeken
tillen
PKA
##odermale
evolueren
Bijwerkingen
atriov
decubitus
cochleaire
##hebben
upperiode
plasmaconcentratie
gated
linking
##hepsine
ethmoid
Propion
STATE
bup
##atiero
oogheel
receptie
mAb
adj
##orphone
Site
Pattern1
##valvulaire
chlorofyl
viri
textuur
ug
voorzichtigheid
##vlek
DEN
##cirrose
Zod
energetische
isotopen
##urmur
Famotidine
metronidazol
verdient
rechtszijdige
cytoskeletale
gedragingen
bm
gesimuleerd
Addendum
SEN
##rapporten
##oposide
magere
##lapse
AFM
uGym2
verloopt
blokkers
LINE
##wisseld
##iteerd
##retch
##innitus
facilit
overleefden
populaire
katalysatoren
Lyme
asymmetrisch
##atingsdatum
indeling
ontstoken
IMAGING
MU
ingek
Gla
007
dossier
psycho
tail
lege
##ecomplex
CSC
molecular
doxycycline
drop
evalueert
B4W
neuropsychologische
afbaken
aanvrager
##astinaal
Nazorginstantie
profilering
ace
ultrageluid
##hydroxide
bepalingen
mineralisatie
begra
##lichamen
Verwervings
Diltiazem
TiO2
Lymfocyten
##interventies
Neb
##cisie
angineuze
##ovag
##reoid
Positieve
illeg
singlet
ba
oogst
anaërobe
IDENTIFICATIE
geïnteress
conser
##bijt
parat
Yellow
##duoden
adnexa
zeep
##voorziening
##bindend
Diagnosis
##VEC
ascorbinezuur
palpitatieklachten
Thr
obt
24h
##iven
##pende
immunoassay
extensor
Begin
UH
stevig
##digende
maatschappelijke
Sindsdien
PERIC
Cyan
Inzicht
rookt
##osters
##koming
##89
multiplanaire
sublux
radiologisch
bekle
oligonucleotiden
laboratoriumtests
daadwerkelijk
laminine
erythematosus
rapamycine
bench
##lipiden
gehe
longparenchym
##sin
suggesties
opgeblazen
##etts
auth
bewaarde
##ycodon
verkennende
##verontreiniging
interfaces
gedetecteerde
onevenwicht
cord
difenyl
##otatie
INFORMATIE
##treffen
hoeverre
nerv
SAP
##ortem
##nomen
exs
natriumdodecylsulfaat
##bevol
zittend
eiwitgehalte
##dopa
informatica
Uur
##ways
programm
##legie
cannula
##osplen
KNEE
discontinu
curric
##resten
humer
thans
1600
Adult
##yb
overheids
wed
maatschappelijk
realistische
parathyro
vesiculaire
katalase
Late
silico
like
##categorie
##eppra
pros
malt
tumorcel
proteomische
compenserende
hemodynamica
Indiase
gezichtsvermogen
voortzetten
##municatie
Follows
dok
defic
gliale
##YYYYYYYYYYYYYYYYYYYYYYYYYYYYYYYYYYYYYYYYYYYYYYYYYYYYYYYYYYYYYYYY
##aagde
##behandelings
prijs
HK
reviews
prototype
Epstein
beeldvormende
will
Overleg
##adenocarcinoom
##zaad
bestaand
verborgen
enscenering
medullaire
##chec
##schakelen
binnendringen
CD45
##oxiden
##entriculair
##TT
##ijnt
numeriek
biofilms
##zweren
Wound
##amiden
##apparaten
diende
##OV
urethra
RPE
##oglycaan
Noor
##549
##NGN
atra
##ita
##identie
##genereerde
Bron
geoogst
##onger
metam
intrathe
Lewis
verbreed
Nas
Verbeterde
ontslagbrief
hypokal
tintelingen
##ammeren
##ospit
gekloonde
Amb
abstract
afhangt
##migratie
metastasis
##osyst
PY
rhod
paraffine
PUFA
bronchiëct
##racetam
PMI
##xtrine
##ias
SRS
tympan
##verslaving
Opmerkelijk
efflu
204
##besten
Bul
fotok
Off
middelgrote
Suspen
Differentiaal
when
CD44
##staak
Risicoprofiel
given
leerlingen
Constipatie
GTPase
kolommen
cryo
Drop
PBS
Dyspnea
##wetenschappen
purine
##ocele
fosfodië
##capsule
capaciteiten
coherentie
menopauze
chip
beslissings
ongedifferentie
hop
Measurement
##ANT
subklinische
tussenpozen
##ofemorale
##spective
##resolutie
##faciliteit
##naal
depletie
apotheker
##frame
matching
trimethyl
header
PAD
disciplines
##Ab
Trauma
gematigde
##implant
##taak
golfvorm
##delijk
Zwit
adrenoceptor
fenomen
biopt
##ristine
pasten
parodontitis
##gggggggg
##astig
differentiaal
##bevinding
Kd
##2a
stroomsnelheid
##geslacht
appendectomie
waarnemers
Risico
natural
transferrine
convergentie
Severity
onrijpe
fundus
bios
##complicaties
H4
Sind
NH2
Amp
mictie
##onafhankelijke
Diagnostiek
inwoners
##itum
age
DMI
tetracycline
2150
PCL
slakken
tocoferol
CAM
tv
sacrale
##SO4
curatieve
crepitaties
begrens
##ratten
##presentatie
geden
flexie
##ws
Department
##otroop
##vlie
verkenning
plasmon
Vloeistof
vierkante
beadem
uitsterven
ingewikkeld
##nood
MTT
interfaciale
verstand
##ovirussen
uitdrukt
##NESIUM
topologische
Incisie
isotoop
diethyl
##ipramine
compleet
torsie
##pulsen
CVS
spir
##akings
collectieve
radionucl
tijdro
dichro
inplannen
puberteit
##idal
granulomateuze
Ganz
supram
Herzien
gerec
##ogaster
stromings
193
practice
SAR
Wal
nitroglycerine
##gevers
Tors
gekatalyseerde
Mitralis
##schro
verschijnende
Dear
opgestuurd
enkelstrengs
Antibody
##operitoneum
ligase
##mn
valve
halsader
UROBIL
http
hyperthermie
Procedures
id
##vruchten
voorlichting
Inhaler
Heden
ampicilline
vaststelling
##anders
cardiogene
PDT
PEP
##alisme
coöperatief
Clu
MALDI
contrastbehandeling
kosteneffectiviteit
##rypt
pleur
pneumokokken
microsferen
vernevel
BPD
PRI
cavo
daarnaast
##diffusie
voortkomen
bloedonderzoek
##aarne
##orieel
Adv
broed
rechterbovenkwadrant
Pulmonale
##stomy
Campyl
rassen
CSV
biodiversiteit
geleerd
urinezuur
##hole
oliën
##chirurgische
pna
VM
##blokkers
positive
Reguliere
##otropine
tumorsup
##oseksuele
dendrieten
Pupils
##irth
##roat
gangli
##alect
cue
Taiwan
aortaklepvervanging
Melkzuur
evacu
naloxon
vergiftiging
nierfunctiestoornissen
Besproken
##citabine
linkerschouder
MAB
##neming
Ann
##interface
##ochroom
Leishmania
verkort
AORT
##ocyanine
voelbare
microgolf
##gedomp
ureterale
2H
IDDM
##vormings
slow
##RF
fs22
Tart
##hl
prothetische
Woonplaats
zoetwater
##opent
oorzakelijke
PACU
##etest
222
adenomen
##oensdag
##gezondheidsorganisatie
##atrol
Glycol
LACT
borsttube
longembol
##integratie
JC
##61
houdings
##oost
##asalaat
nag
nav
##race
293
Been
##uration
##cm2
onverwacht
reconstrueren
CYP3A
joint
used
plaus
gentrans
480
##rod
##ATHATH
signaalintensiteit
elektronenoverdracht
fluorescerend
klassiek
burg
carvedilol
stegen
lucentie
flavonoïden
tentoon
two
##psych
##oreus
oestrogeenreceptor
grad
peripancreatische
kritiek
75mg
NIV
Carcinoom
Rac
CU
##GO
bloem
microfluïd
vim
MAGNESIUM
208
##centreerde
##ANN
stuif
Controles
grafiek
##ured
huishoudelijke
craniale
rivaroxaban
FOR
##terenol
neutronen
Fyl
##stheorie
Maxim
##zetim
MPa
##onderden
##blind
##rakingen
##oud
NHL
kuiken
units
genormaliseerde
KID
Influ
Voelde
afstands
##ijdige
imid
##OVA
genotypes
THP
waterstofbindingen
fellow
telomeer
crepiteren
getransplanteerd
helaas
uitwissel
##FGF
erectie
ANP
##zeventig
um
Fall
Wereldgezondheidsorganisatie
neuroimaging
##onaten
##asaal
aldehyde
radiot
##ivir
ASC
Hospital3
ongeval
musculoskeletale
GPCR
voelbaar
Lactobacillus
sferische
##oxyn
manifesteert
glucocorticoïde
##VO
faciliteiten
Frankrijk
TOP
##reparatie
gemetabol
farmacologisch
Hi
samengevoegd
overdreven
##oteen
Surgery
mannetje
tumorprogressie
blijvende
ritmes
trombotische
##azoline
DIS
larynx
##oconjug
##gewichten
fibrotische
##porele
##instrumenten
adrenaline
correcte
accurate
tools
##oze
strijd
Vasculaire
##aliserende
GUCH
vette
##stek
##aun
systemisch
fall
schedelbasis
graphene
##iks
ENT
##burg
microben
internationaal
vruchtwater
##veratrol
hopen
1T
dire
ophel
##angioom
NAFLD
##euren
Zee
IABP
Hartteam
##anil
sector
##B4
inputs
gefixeerd
tartraat
arsen
microsatelliet
conceptuele
dilaterende
antibiotische
teelt
secreties
dipl
vruchten
##Fe
enquêtes
anisotropie
stasis
##ocephalic
gedownreguleerd
reduced
geperfundeerd
##arigen
gradiënten
REM
##ureth
Oude
linkerheup
##uleuze
##stellende
protonen
medicinale
doof
representaties
onderstaande
zuurstofverbruik
millimeter
interact
assemb
anomalieën
oplossings
teg
gegroepeerd
demethyl
synaps
sum
Aanbeveling
achtereenvolgens
##chen
neerwaartse
##avirussen
bloedtransfusie
##stukken
neurogenese
Polyethyleen
##lofenac
##vervuiling
##gemiddelde
clonidine
kuren
##ïsche
LTP
##ithorax
ontstekingsreacties
mount
##atierem
##gm
##aaid
linkervoet
thaliana
ingevoerd
extrasystolen
oligomeren
fran
##ICE
flush
##ginaat
grondige
TeCHNIQUE
staven
##dev
telomerase
sulcus
##ctioneel
levensvatbaar
afwachten
TRH
203
GIB
klinieken
groeiden
monocytogenes
verdraag
Arteriële
Californ
voedingssup
mm3
trun
mobiel
Urobil
##hangend
##ozol
Vasculair
##onia
Development
bifasische
Ferrous
geoc
Verz
plo
gehaald
echogene
##rieken
dyn
cervical
tellen
rechtermidden
trapez
translatie
transcriptoom
##inereceptoren
##rook
##eldisfunctie
##lept
gestratific
repair
Uitge
EZ
Adoles
##lymfocyten
##hebbenden
ontgif
##cop
female
glioblastoom
spelers
##ibrio
bewakings
Impedantie
voorwaardelijke
##bewijs
##ycturie
##HO
Multiplanar
Mor
[...]
