[PAD]
[UNK]
[CLS]
[SEP]
[MASK]
!
"
#
$
%
&
'
(
)
*
+
,
-
.
/
0
1
2
3
4
5
6
7
8
9
:
;
<
=
>
?
@
A
B
C
D
E
F
G
H
I
J
K
L
M
N
O
P
Q
R
S
T
U
V
W
X
Y
Z
[
\
]
^
_
`
a
b
c
d
e
f
g
h
i
j
k
l
m
n
o
p
q
r
s
t
u
v
w
x
y
z
{
|
}
~
¡
¢
£
¥
§
¨
©
«
¬
®
¯
°
±
²
³
´
µ
¶
·
¹
º
»
¼
½
¾
¿
À
Á
Â
Ã
Ä
Å
Æ
Ç
È
É
Ê
Ë
Í
Î
Ï
Ð
Ñ
Ó
Õ
Ö
×
Ø
Ú
Ü
ß
à
á
â
ã
ä
å
æ
ç
è
é
ê
ë
ì
í
î
ï
ñ
ò
ó
ô
õ
ö
÷
ø
ù
ú
û
ü
ý
ā
ă
ą
ć
Č
č
Đ
đ
ē
ė
ę
ě
ĝ
ğ
ħ
ī
İ
ı
ļ
Ł
ł
ń
ņ
ň
Ō
ō
ő
œ
ř
Ś
ś
Ş
ş
Š
š
ţ
ū
ů
Ų
ź
ż
Ž
ž
ƒ
ǀ
ș
ț
ə
˂
ː
˚
˜
́
̄
̊
̶
Α
Β
Γ
Δ
Ε
Η
Ι
Κ
Λ
Μ
Π
Σ
Τ
Φ
Ω
ί
α
β
γ
δ
ε
ζ
η
θ
ι
κ
λ
μ
ν
ο
π
ρ
ς
σ
τ
υ
φ
χ
ω
ϊ
ό
А
В
И
М
О
П
Р
С
Т
Ф
а
к
о
р
с
ф
ё
ї
қ
א
׳
ᅟ
ṣ
ệ
ῖ
‐
‑
‒
–
—
‘
’
‚
“
”
„
†
‡
•
…
‰
′
″
⁄
₂
₤
€
℃
™
←
↑
→
↓
↔
⇄
⇌
⇔
∆
−
∙
√
∞
≈
≠
≤
≥
⊂
⋅
①
②
③
─
┴
═
║
╪
■
□
▪
△
▵
▶
▷
▸
►
●
◦
◻
★
♀
♂
♦
✓
➔
➡
➢
➤
⟨
⟩
、
。
〈
〉
〞
・
ﬁ
️
🔴
😁
𠆀
##u
##b
##c
##o
##m
##i
##s
##r
##a
##l
##1
##0
##y
##f
##t
##e
##n
##g
##p
##x
##k
##O
##C
##h
##v
##d
##z
##j
##è
##A
##P
##3
##K
##w
##L
##E
##S
##I
##ß
##N
##G
##D
##B
##W
##9
##2
##7
##6
##8
##F
##4
##5
##ë
##ï
##H
##T
##X
##V
##M
##R
##U
##Y
##º
##q
##é
##Δ
##α
##Z
##Q
##±
##ö
##β
##°
##®
##J
##ó
##μ
##ü
##á
##ê
##Å
##µ
##™
##©
##ä
##ό
##→
##ё
##κ
##ł
##Ë
##℃
##×
##∞
##³
##¹
##Ε
##Ι
##ç
##≥
##í
##π
##χ
##γ
##φ
##ú
##Ü
##î
##æ
##≤
##õ
##ą
##₂
##ø
##Ï
##ã
##═
##ś
##ô
##²
##¯
##λ
##ù
##â
##ϊ
##ć
##ò
##δ
##−
##ā
##↔
##½
##ý
##ν
##Í
##♂
##ę
##τ
##ω
##σ
##ι
##ς
##ş
##Ω
##①
##É
##ğ
##√
##à
##▶
##△
##≈
##å
##ñ
##─
##ń
##η
##ε
##Μ
##Β
##Α
##✓
##Ö
##ї
##č
##⁄
##Σ
##˚
##≠
##Λ
##Φ
##ō
##⋅
##▪
##∙
##đ
##↓
##Κ
##ż
##ř
##о
##θ
##È
##ṣ
##ș
##↑
##ů
##Á
##š
##←
##ρ
##ː
##ě
##➔
##Ä
##ﬁ
##Ó
##М
##¬
##ı
##⇌
##û
##ì
##с
##к
##а
##ī
##ᅟ
##ț
##③
##ē
##ă
##⊂
##˜
##Τ
##ο
##÷
##Ф
##ž
##ζ
##ƒ
##♀
##ħ
##ί
##ő
##▵
##Γ
##ū
##ź
##╪
##ə
##Ø
##С
##И
##̄
##İ
##В
##ň
##ļ
##ņ
##А
##О
##¼
##ė
##️
##ῖ
##Ê
##œ
##£
##Î
##ţ
##€
##◦
##́
##┴
##´
##Т
##ĝ
##Р
##ệ
##en
##er
##an
##ie
##el
##in
##at
##or
##et
de
##ij
van
##ch
##st
##al
##ing
##ar
en
##de
##on
in
##it
ge
##is
##oor
##ro
##den
een
##der
##ge
ver
##ct
##re
het
##ol
be
met
##oe
##le
##aar
##om
##te
##ijk
##atie
##id
##as
##ten
op
on
##gen
##isch
voor
##eer
##ul
##am
##ic
te
##ig
##es
aan
##ot
##ra
##ur
##ische
##ken
##cht
##og
##ijn
st
##ver
##elijk
##ent
is
wer
##il
##ië
##un
##sch
##us
De
bij
al
##os
dat
##ale
##em
##del
##um
##ctie
wor
##he
##di
##len
##op
##ag
die
##ik
##ven
##ze
##iën
##ee
##eren
om
onder
##ve
##la
##ru
##ine
re
##ingen
zijn
pat
door
##sen
an
uit
##ste
nie
##ele
##if
##ap
patiën
##sp
##ak
##oc
of
##heid
##ep
##im
##ite
werd
##ter
##aal
niet
##and
pro
##iek
##eld
beh
##orm
##iteit
##ang
over
tot
geb
worden
##oed
##ab
##uw
##ige
waar
##eerd
af
con
##ut
##ok
##se
##ist
##per
als
##ire
##dt
##fe
deze
ont
patiënten
##ho
##aat
##omen
onderz
##ier
##ad
##ant
was
##ed
##eg
##ss
zo
##ft
werden
gro
sp
##ud
In
na
##nen
##ers
##erd
res
##aan
er
##ir
gev
kan
##act
##andel
##uur
bl
wordt
##ec
##oek
##of
##elijke
di
##aire
##eerde
##iv
##ere
##ich
##du
##ies
##aten
##ond
le
##ast
##icht
##inder
##ide
Het
10
gen
##kt
##ion
##men
versch
behandel
##ac
##ien
##be
##ult
we
toe
##ings
##ellen
##dere
##olog
##aren
ex
geen
##ip
##ran
##ruik
##ijd
##od
##aties
per
gem
##yp
to
su
##ell
##ific
##aak
##ame
##ress
##we
##lu
##ost
##iddel
ef
he
##ind
dan
com
##wij
##oren
ch
##onder
vol
##ïn
##fect
##ose
verschil
sy
onderzoek
##wee
##ker
##entie
gebruik
##bb
##ende
##val
ho
##ort
##ussen
##art
##onden
##eeft
naar
ook
##lijk
##een
##erde
##ont
maar
ant
##gev
##rij
##00
ne
##chter
##onen
##ase
bel
##ass
stud
bet
##her
##lo
verb
##iden
##erk
##pen
mo
sch
##ys
kun
##mp
##tra
waren
verm
##bben
##oel
verschillen
##ign
##sel
##ib
##zen
##ia
hebben
inter
tussen
##uid
kunnen
##als
##af
dit
verg
ter
##io
##eel
##ikk
alle
##yl
##ressie
##tie
eer
##NA
##vol
##geven
effect
ged
her
meer
##uis
##actie
##lin
ei
##cent
##ander
ar
gez
##agn
belang
##amen
##wel
##ron
##baar
pre
##tro
##ulaire
behandeling
besch
##laat
##mer
Een
##age
ontw
##ater
##rijk
##ect
##iviteit
Deze
ger
##ijden
best
##gel
##yc
vro
men
jaar
sign
##TA
##itie
patiënt
##dien
##pro
##qu
##mm
result
##iële
##me
##ke
##ectie
##geb
bloed
19
12
##ium
mg
##sie
##ank
##ger
##ann
verho
had
##fectie
##AT
##atieve
##yt
##herap
##org
verschillende
me
twee
Er
comp
##ren
##are
ziek
We
act
##ox
##ept
##eten
##schap
heeft
##alen
##rans
##king
bev
ontwikk
studie
##ma
20
##wit
##oven
##igheid
mog
Bij
##kken
andere
datum
##dige
##ering
##genomen
##ogen
##ub
##ulp
##duc
hy
hun
belangrijk
geïn
resultaten
##ym
##pressie
##ute
##elf
ac
##ui
cellen
rec
zoals
vergelijk
##oom
##yse
##ive
groep
##ijdens
##rom
uur
##ologische
##do
##acht
##rie
##ieke
verander
mee
##van
verminder
aant
ma
##yn
min
##uden
verhoog
##chten
man
ze
gegeven
pl
##dro
##vl
eiwit
klin
##erg
zich
##uro
##ef
##icro
gec
11
Al
signific
ontwikkel
fun
##aam
##est
##dem
inf
##th
med
##alis
##gest
##lic
##isic
bas
nieuw
15
##aard
##ate
##ologie
reg
beoor
##hal
resp
hoe
##ne
anal
##wez
or
##ese
vrouw
tijdens
##ert
kle
diagn
##vo
##ek
verbet
verk
##herapie
##gro
On
ziekte
kw
##dat
##middel
##ulatie
##ivea
contro
imm
##zien
Dit
spec
##dra
mogelijk
##onde
echter
##ieken
##adi
##arm
##ure
##erende
dag
##ON
##ces
aantal
##heden
##ieden
##stand
##bare
Ne
##gens
##uit
risic
AM
##aakt
bep
##fer
tegen
gebruikt
##atten
##ST
sub
sc
##EN
geval
trans
beg
##bij
behulp
##ositie
gevol
##nel
##ug
norm
##ente
##agen
##ath
vorm
##kend
##anis
##deling
mon
##itis
##ment
pol
bin
14
veel
huid
13
##sten
art
##cin
mL
plaat
##elling
##OR
##ruk
##deren
##atief
##sy
wat
##centr
zw
##ari
##ante
##fie
bere
ste
##to
##oten
##aag
Ver
##uren
activiteit
##dent
##gende
##mat
goed
eerste
ble
##eert
##stem
onderzo
##ype
gep
toen
controle
##ën
micro
##bin
##hank
##ong
##stig
##elen
aanwez
nu
##etische
tum
pr
zonder
car
co
##IC
30
nieuwe
kinder
##oorz
##komen
##ruct
nog
wij
##ER
##kom
##oeken
24
gegevens
##iale
lever
el
##fic
##valu
##atuur
##IL
##iet
##ram
rem
##ionele
deel
tijd
##fen
daar
##get
##sc
cor
##str
##lex
cel
lin
##ijnen
basis
sug
bi
25
##sl
##min
gew
syn
##ob
##name
klinische
infectie
sle
dos
##nis
ern
##deel
hyp
##ogra
##assen
##ductie
##IN
##werk
rol
##ator
##rek
tra
par
sugger
ele
##huis
veroorz
betro
##chn
##app
zowel
ep
gevolg
##atiën
leeft
doel
rel
##eratie
##ader
##ATE
ben
PM
alleen
##ood
plaats
lang
16
ten
##wijl
Name
positie
##usie
ou
##dentific
##rit
hier
ser
meest
hoge
gene
##stige
samen
Op
metho
##ons
##vorm
##land
##uizen
leeftijd
##regen
werk
##groep
##gevo
DE
ab
nivea
risico
##ondheid
##entr
blij
minder
##olec
50
##ieerd
##AL
hem
18
##stelling
##iding
##iver
##wijk
##AM
St
lich
ad
hart
##SP
##met
groot
##urg
expressie
##aliteit
inc
hyper
##oï
significant
##gevoerd
##indingen
ap
##ard
middel
##chts
kinderen
##ble
Re
100
wee
studies
binnen
##chte
##oord
##hy
##fsel
effecten
DATE
hog
##air
geï
##asc
get
zorg
pijn
terwijl
##ill
##én
##ransp
gemiddel
##urende
voed
##reven
##tr
##anneer
specif
waargenomen
verhoogde
leven
ges
Geen
snel
##ijkt
##anc
##lijke
##cellen
gest
##gem
##vloed
##racht
uitgevoerd
##ica
##voor
reactie
neuro
##uze
##jes
hadden
##gaan
##let
opt
##ule
wel
##steun
##elat
##ens
verw
##rag
hoog
##spro
##odig
onderzoeken
aanget
##schijn
zelf
An
ro
zal
Na
col
immun
##och
duid
##orst
stat
##actoren
##ovendien
##rip
doc
##last
##omp
enk
end
model
Om
vrouwen
##mon
##atr
geass
##lant
##ficiën
##ilie
##aling
linker
diagnose
moe
medic
##elde
grote
mech
oor
ken
intra
##ster
17
##con
##eter
vergelijking
200
##atische
##ting
##stof
gesch
##yten
analyse
gek
##steem
##kan
beper
##weg
dagen
vaak
test
##ane
40
##mpt
##zuur
geassoc
zieken
Ge
waarbij
long
gel
DETA
##open
nodig
DETAIL
##osf
post
belangrijke
##oot
##ation
drie
##rop
Be
##keur
##waar
##erv
##emb
##oon
Voor
verto
mm
onderzocht
gl
##nem
elekt
mens
##ders
dL
veranderingen
##uele
##rel
##middelen
ob
##uk
stab
##acter
##lan
##irurg
##gesteld
##O2
##kende
##deeld
##emie
gevallen
RE
##ied
Bovendien
sterk
toege
zou
moet
##rof
##los
Met
verz
##wijs
##vent
##aanden
Daar
voorkomen
ontwikkeling
##TI
prog
Pt
00
##iel
neg
bepaal
gevonden
gedurende
ster
groe
IV
kg
afwijk
tumor
##oond
evalu
##ieën
maanden
##els
type
##actor
gele
struct
hel
borst
##gew
##doen
pers
##ormatie
##beh
HO
##sych
huidige
##schijnlijk
##ming
##ED
via
imp
##las
zeer
vrij
aanzien
Neder
##orte
##kun
##luc
##rine
##oort
##isatie
sl
##druk
CT
##ret
beide
Patiën
gezondheid
##perim
één
Van
##oper
##baarheid
functie
even
cont
##ofd
21
##lak
som
PO
##ziek
##gang
vit
Hier
##elden
##omie
vari
ondersteun
Nederland
##oede
genees
dis
PT
##anal
zij
##zoek
aange
vast
##anden
##up
##iot
molec
DNA
betrokken
techn
aangetoond
##istof
##AP
##aken
concentr
vers
dif
##delen
geïnduc
wanneer
##unctie
##dig
##ouw
gevoel
##emische
##ks
IN
##ullen
##oen
##br
##ijf
##ving
poten
##AR
actie
##iaal
overle
cyt
eigen
II
##hankelijk
##inale
##sul
geassocieerd
##loe
##opt
extra
acute
##slag
respectie
bleek
22
tr
##SPI
##ov
vra
weken
##ging
##fin
##geveer
##uc
##oornis
##spre
##iliteit
##ix
##inding
vir
##iode
specifieke
##TAL
##gesch
##beeld
##zelf
adem
hersen
volle
org
IC
huis
gemiddelde
therapie
##one
sympt
##zet
##ikel
wil
##ografie
##requ
##ust
##duct
am
vo
lage
##amine
combin
omdat
nier
60
funct
behandeld
proble
rechter
##amelijk
##velijk
##perv
prim
gezien
dosis
chron
CO
##imale
Sp
lag
moeten
mut
respectievelijk
##co
et
##lachten
enkele
sec
##kl
##geen
geven
##abol
fam
##door
pul
staat
##ool
muizen
ass
##na
at
recept
onze
##end
##ventie
verminderde
##sing
toename
hij
##pass
##ïne
aandoen
beïn
system
ongeveer
HOSPI
laat
HOSPITAL
##igen
23
se
verwij
##ocyten
##enten
##schappen
haar
normale
##all
##houden
##AS
significante
##ID
Cont
weefsel
int
Hoe
bevindingen
##sters
kleine
aut
str
terug
ernstige
voorsp
mechanis
experim
##par
##itu
zwang
##LE
boven
##fte
##woord
enz
mult
blijft
psych
##ynam
verkregen
ziekenhuis
verl
aanv
##iedenis
lym
chirurg
waarschijnlijk
zien
##gele
em
weer
##ax
##iging
##ikt
##anten
my
##stru
cm
th
##IS
##opp
det
##oorten
##ple
Cl
cons
95
aanwezigheid
ontst
gra
methode
##ome
##room
##orf
##eerden
tonen
##ateg
Aan
##low
verst
##ieren
##res
##CT
05
verhoogd
ademhal
##zorg
##wassen
nauw
bewijs
##ucht
##vallen
identific
toonde
##RNA
eerder
##licaties
##RE
ang
##cl
##veel
beoordeeld
##antie
stim
groter
groepen
##kanker
medi
##stel
##wege
##bre
menselijke
##ellulaire
dra
lt
##centage
##ycl
lig
lab
plas
diagnost
bestaan
complex
199
un
##irect
radi
bloot
duidelijk
##ans
26
PC
effectie
cardi
aanwezig
35
##ransplant
##tern
##dic
bekend
pt
##eut
##functie
ratten
Ch
##raal
##zelfde
##pervlak
verband
bre
##role
##richt
uitge
water
dus
beschreven
suggereren
jar
slechts
veroorzaakt
##zaam
##asculaire
##luit
##iatie
##IV
##ologisch
beeld
CD
##etr
elk
eiwitten
##tijd
kanker
fys
##sche
28
##merken
##und
neur
##ines
##rekking
##oog
##eft
##ins
var
gebas
overeen
##gt
##heel
##ced
##mo
stam
##teerd
geh
##opie
leid
vloe
omv
##zicht
totale
##az
niveaus
##eds
maken
##urs
richt
##rakt
Hoewel
##iter
##ade
gebied
beve
kl
laag
##reden
##iken
##RI
hoofd
CH
jarige
##eleken
belangrijkste
##igheden
fol
lijkt
normaal
mil
##ieerde
bestu
licht
##erden
bacter
geïnduceerde
##rin
direct
hep
chronische
volwassen
ret
##uim
27
AB
##ou
proces
combinatie
##ferent
##volgens
up
informatie
80
lok
interactie
##ore
##itor
##rond
indi
beschik
ve
##ilich
##vorming
##reg
ons
##hankelijke
##vid
##accin
##ode
##droom
aanzienlijk
waardoor
##uik
symptomen
positieve
##iseerd
pla
steeds
oorz
##romb
##plaat
familie
##abel
##over
waaronder
##alc
rapp
90
stand
diab
operatie
##orator
##ontrole
vooral
hydro
##nie
##inig
lip
##AME
##gemeen
fen
lichaam
Vol
##wer
32
##ichte
artikel
gedrag
##cedure
hoger
ml
##inds
##ce
##utie
##merkt
##dru
##unt
gluc
##AST
lymf
periode
##onderzoek
##AC
##cc
mensen
factoren
##euze
##herapeut
##crip
bot
darm
Ook
RR
hoeveel
zwanger
##orb
vere
Plan
##av
mis
lucht
##ess
voort
medische
##tensie
##ijken
sele
komen
##BC
##jectie
##wijz
##eur
##rijven
geë
insul
gelijk
##merk
antilich
sla
##ficiëntie
hand
45
niveau
goede
##behandel
##inu
jaren
waarde
frequ
##cinoom
##ores
##asie
##GF
##rol
onth
HR
##AN
PE
anti
Ze
##oop
afwijkingen
##ardi
##oeden
70
huisart
serum
##gd
CV
fosf
##kelijk
bron
01
##AD
29
##eling
##opath
##IE
##iz
##otherapie
##ichten
##verander
meerdere
vormen
hogere
vergeleken
asp
##form
##clu
oplos
##osc
##pers
##hyl
bil
##komst
##inden
du
nood
achter
genen
kon
klachten
invloed
cir
antib
##uun
##iegel
vis
##aterale
meeste
IL
##oth
##activiteit
##lig
opge
soorten
verbeteren
CON
metabol
verder
##doende
fib
begin
ox
kans
##deerd
##sol
primaire
31
##ial
BP
mE
##test
geneesmiddelen
##cept
##iciteit
##IT
Af
algemeen
##ivering
##osten
##diening
##raak
toepass
Patiënt
##structie
mEq
stellen
mannen
geïdentific
##isme
En
vier
##digen
##gebre
37
Clip
immuun
##sproken
Over
bepaald
201
##ogene
##hol
bepalen
##elt
mit
##aad
betrekking
##kers
02
36
kenmerken
mogelijke
gemeten
pop
status
gt
##otte
tweede
gast
##ratie
poly
##uleren
hist
##ENT
vertoonden
laatste
Bl
vanwege
##oornissen
##asen
##gene
##cle
val
##fa
ag
chem
##reen
sequ
beoordeling
##etes
##iseerde
gezondheids
opgenomen
##igd
max
##kte
toonden
vert
##oire
kwaliteit
##ler
suggereert
prakt
Res
##past
##gegeven
ST
##voer
suc
do
ruim
##ulte
##spectie
##rijgen
stabiel
nucle
##zonder
##mis
verkl
systeem
open
waarin
druk
tromb
leiden
##ets
Tot
##embra
urine
uitgebre
afhankelijk
individ
laborator
##houd
mate
levens
meestal
##onale
fase
##ief
oppervlak
liter
antibiot
mal
198
##arak
Niet
bevestig
##SS
eigenschappen
zwangerschap
respons
##arakter
##vie
net
##oïde
##these
transcrip
##mige
derg
flu
correl
bew
##peratuur
inciden
##pp
vloeistof
weinig
##oem
##ocyt
##teg
##pleeg
##ach
regel
mar
NAME
##inen
##schapp
33
Als
##fus
bed
##ract
000
##ablet
ber
Onze
gerelat
##amp
##tens
analys
##orp
##ege
03
##ombin
Door
ervan
laten
##standigheden
##tieel
contra
geïdentificeerd
##rote
##ject
##model
Ca
PR
##aring
##oordeling
##otor
34
##assa
prote
##ulair
##neum
##lyc
##ziekte
##pijn
enzym
##itieve
vitro
##uiten
blijven
##dag
alge
aort
04
alfa
hal
##vel
keer
therapeut
##log
##sent
nan
klinisch
##tig
soc
toediening
benader
gedet
##ór
indic
##eed
##óór
##sluit
##dragen
##OD
standaard
##rose
##mene
jon
klein
AT
##amet
##osis
patho
##iologische
##dering
receptor
##ber
elke
ech
##genen
##wezen
voeding
vervolgens
kom
stress
##istentie
gaan
##raat
ul
zuur
##erol
##SC
inv
bla
houden
centr
concentratie
##SA
moleculaire
##derd
##fusie
diabetes
vragen
medicijnen
complicaties
##regel
##vers
##ange
##car
##iele
beïnvloed
succes
##deelt
resulte
##ransplantatie
erv
bieden
loc
evenals
negatieve
##bel
vergelijkbaar
##laag
totaal
syndroom
ontste
##emen
##oler
##odi
versus
##mie
AP
hulp
##aalde
dien
name
onge
##entil
##ING
##ga
productie
nut
##pak
vaccin
Com
##bl
volledig
##uf
blijkt
vroege
##tre
Hij
Zo
inst
##je
problemen
##DI
##anks
dezelfde
##ha
Uit
##nemers
##ograf
##gif
##weging
##oorts
vóór
ontstaan
beoordelen
omgev
functionele
circ
eerdere
relatie
##verl
selectie
ple
##concentr
##analys
amin
##gebruik
##icale
##ile
##ergie
##embraan
55
mid
##duid
middelen
ICU
##roon
prof
buik
##view
ventr
##wegen
FI
##ducten
##nieuw
opname
38
sterfte
##oment
##lob
48
bestaat
voorn
##MP
##falen
rapport
##eiden
##reat
gaat
75
all
##udige
procedure
gemaakt
##teel
##pt
literatuur
##klier
onthul
##anning
##aby
##mun
insp
##daag
##ree
bescher
Onder
##ling
spier
##alisatie
duur
fo
##aden
chrom
dergelijke
NP
rep
gebru
insuline
organis
komt
personen
Last
stof
volgens
gericht
##iguur
##voorbeeld
Alle
##omische
tox
Radi
noodz
AR
gemeld
gemeen
vet
bijn
negatief
##ilijk
beschouw
verandering
##BP
different
##illen
##activ
AC
genetische
moment
blootstelling
percentage
##aanse
##oeding
mechanismen
mater
lijn
nauwkeur
beter
viv
potentieel
weten
proef
grond
##loten
wie
chol
present
groei
NI
##ume
##uten
HIV
vermogen
verminderen
leidt
##halte
##gener
waarvan
##vang
maag
kosten
##mee
positief
incidentie
hoewel
##kenen
##danks
factor
##ORT
regio
##entele
dru
##ramma
the
kwant
vereist
##igde
mat
##akkelijk
actieve
exp
verminderd
bijvoorbeeld
figuur
##enties
##gewicht
verd
beperkt
gereg
bloeding
O2
##ellingen
##lagen
sommige
##aakte
activering
CP
potent
aandoeningen
##ex
moeilijk
AD
zelfs
##lor
Ab
bio
voornamelijk
RNA
der
ventil
gevolgd
Ex
recente
vivo
##lacht
##esie
evalueren
##ferentie
cl
##analyse
##ay
##iëren
verbetering
##aste
afgele
mel
tem
cult
tumoren
##anische
methoden
virus
relatief
##armac
##tub
hepat
##bi
HC
##ziekten
##inue
##otische
dr
##iculaire
Reactie
##behandeling
##comp
##au
##LO
##elect
statist
ziekten
##sis
gewicht
buiten
vanaf
##opische
oorzaak
veil
hypertensie
bloeddruk
##cus
isol
vroeg
##atale
besproken
aand
stadi
grootte
vraag
LAST
##etrie
kre
toegepast
ker
##werking
##dur
##orgen
verzam
##issen
gevoeligheid
dagelijk
Ig
later
##arct
ontde
Ten
overleving
##UM
MD
##amin
##afhankelijke
kracht
##aker
rele
ademhalings
acht
arter
ontwikkeld
hom
##inus
follow
##yst
manier
zullen
kind
##TION
MC
verbeterde
screen
mac
##bla
bevor
sens
Di
##ynamische
##cip
##ronen
##voudige
##kings
la
65
##ta
kregen
##gifte
##imaal
kn
optreden
##cel
##ime
verpleeg
##oekom
##icatie
##idatie
##geschiedenis
waarden
aandoening
BM
dist
structuur
cap
pept
kreeg
geïsol
kort
part
ME
gebruiken
monitor
koorts
##eks
Med
##diagn
invasie
AL
kin
##valentie
##erend
ondersche
##mijn
Andere
##weefsel
buis
geeft
chirurgische
calc
Le
verdere
depressie
gede
Tablet
concentraties
99
##operatieve
vastgesteld
identificeren
##amer
gemed
prest
##ulaties
NO
##adem
zen
function
lager
effectief
pneum
oog
lagere
zeld
##EM
##groepen
glyc
##spec
Actie
##omenteel
##esch
verte
leuk
maat
##gestelde
progn
wereld
recid
tabel
##osit
spelen
opnieuw
progressie
PA
##lif
##10
verricht
antibiotica
##kingen
algemene
toestand
aandacht
week
let
produc
##menten
bè
vandaag
##cohol
richtl
bez
##personen
contact
Pro
##cellulaire
##inf
98
voedings
dec
volgende
##iditeit
karakter
##ameters
dieren
##inter
gedetect
fot
TO
##vloeden
snelheid
42
secund
bespre
mod
bereik
##ild
##aald
evaluatie
08
gal
biologische
Neuro
mRNA
##monale
##verlies
hoeveelheid
##gelopen
bevol
zenuw
##ith
##oz
stij
##iedt
##riter
morf
voorkomende
therapeutische
lange
##orrel
minuten
##arine
##drukt
hemat
##urele
artsen
cell
##isten
afname
##struct
##metho
##ning
##ail
##eleid
##antwoord
##emt
##UL
heter
nemen
daarom
##isp
TF
##nt
##licatie
spect
##zame
omstandigheden
39
binding
maakt
aanbe
##AB
gecontrole
oste
##ificatie
onderzochten
volledige
route
mann
##stud
##nivea
##ift
lichaams
betre
##ogn
##elijkheid
situ
##atiënten
toekom
06
snelle
sten
plan
Radiologie
##EST
duidelijke
prot
##irus
##EP
fe
prevalentie
##gra
induc
don
krijgen
Am
##otox
##been
gedetecteerd
##ijdige
##gek
##otype
##lij
##werkingen
##12
##vangen
bevatten
rond
Ac
##oïden
SC
##oster
mechanisme
praktijk
plasm
onbe
##ina
##gte
TH
##aliseerde
opz
##etisch
hen
##vul
cere
##uiden
##idine
hum
systemen
stap
##dex
oper
##oden
##olische
biedt
vooraf
##kening
antilichamen
##itte
gebieden
ing
##andom
zacht
##ueel
path
stroom
gebaseerd
sinds
07
MED
##tex
toepassing
##ultaten
variab
##orptie
reacties
Con
##ATI
##mende
bepaalde
betrouw
##rengen
gebaseerde
##zondheid
enige
assoc
##oplas
secret
beschikbaar
44
korte
aute
geanalys
##spron
natuur
##asp
vertoonde
indien
DA
##stre
potentiële
##ytische
##bo
geleid
GI
grotere
##geboren
ontwikkelen
afwez
##dende
##dracht
perif
gezonde
##urale
lokale
coron
##SH
Gen
veroorzaken
isch
bes
Beoordeling
##rim
verh
##ractie
##lam
ess
ventilatie
150
pH
bereikt
strateg
dubb
##centie
ernstig
geplaat
techniek
Dat
infecties
line
reden
centrale
43
Daarom
##resp
Co
land
gebeur
geëvalu
bestaande
afgelopen
huisarts
##atal
##Hg
gemiddeld
##istent
##aliseerd
##ocol
##anen
opzichte
##atisch
##etrische
uite
beïnvloeden
bijna
Amer
##elet
probleem
specifiek
##ES
monsters
##otyp
##itale
cycl
##lang
gecon
##kunde
##schappelijke
REP
gepro
##iteiten
bra
##opathie
##uleerd
##atheter
fil
##oeder
vorming
ven
SP
preventie
##ede
##gaande
toont
alcohol
verschijn
farmac
##ts
##rist
NE
voorspellen
cort
remming
herh
##RA
frequentie
geplaatst
##atus
##put
herstel
eth
MS
beschrijven
kleur
##urop
##gegevens
geëvalueerd
##scopie
langdur
##II
beho
##esterol
hersenen
##ulerende
arts
beschouwd
bijwerkingen
##ycine
##orie
dieet
##önt
ademhaling
##rale
Bloed
vaat
ondersteunen
##öntgen
##che
incl
##afhankelijk
##oïd
cellulaire
energie
vaker
pub
behoe
97
risicof
##ri
signaal
500
##stemming
##ografische
mmHg
##vat
zuurstof
##stit
gepre
geanalyseerd
pas
polym
vijf
##matig
detectie
##reactie
##iologie
41
##stellen
eind
Nederlandse
voldoende
ondersteuning
##ors
##issel
##iss
##atrium
bekende
##H2
##erc
OR
##ulen
bete
##olf
##sequ
inclusie
Ar
##mers
onvol
##ros
dome
sh
VAL
##maal
gener
##kundige
tub
hele
##ICAL
diagnostische
BS
bestudeerd
zouden
genoem
##cluderen
##oprote
##itatie
bèta
96
Resp
##stoornissen
EC
plasma
##diend
AN
werkzaam
verspre
moeder
##iegels
##matige
temperatuur
No
orale
toenem
kennis
defin
##straling
gun
##uter
altern
NG
PD
##RO
##wn
cogn
##UE
oorspron
onderzoekers
acet
panc
##riteria
eerst
vertegen
CK
##ema
gedeelt
controles
##chtheid
##hydro
##uen
##atine
puls
##waarde
EX
super
Num
##ider
rat
tekenen
##huizen
##ae
transcriptie
integ
experimentele
##ps
##langs
##zing
##lop
##uig
##ulf
PP
prost
##NAL
##ctomie
##aart
aanpak
##kw
individuele
proefpersonen
interventie
geschiedenis
##duur
init
deelnemers
##duidelijk
ER
verantwoord
##osp
56
##rijpen
apopt
##20
##han
46
PS
toelat
CR
uitkomst
patiënte
populatie
##waarden
##uiver
##akelijk
CC
##unten
##ogeen
auteurs
momenteel
gepresen
Wanneer
##atte
MRI
RA
ID
##vis
##leiding
##udig
no
47
##atrische
vertra
##heer
MR
##gebracht
##ionale
##IP
##trans
##indt
Hct
##erp
injectie
behandelde
##gde
laboratorium
elektro
##uiv
REPORT
WBC
Mon
##achte
##reng
termin
gerelateerd
gedaan
HP
##ucle
##naast
##orax
geïnfect
pulmonale
malign
##raag
##liggende
methyl
##ieten
##OS
volgen
detect
schaal
##reerd
kool
##azol
glucose
aanwijz
toelating
##okk
ouder
##ormale
ast
speel
##bere
##sm
##herm
##inine
volwassenen
aden
##elingen
##systeem
dient
geken
##selen
Twee
##uleerde
##agon
gekenmerkt
##TE
##okken
transp
sociale
diep
gepaard
AF
vergelijkbare
##duceerd
slecht
cru
##tenissen
zie
##esies
PL
53
ca
##aliseren
oude
##genese
##serv
actief
##ical
##emat
membraan
##oorte
dim
vermindering
49
##atoren
diagnostiek
##cer
52
##nelheid
contrast
voedsel
##oging
stadium
amp
HD
foet
##diagnost
##woor
##apt
correlatie
begon
rad
##gevoel
been
spont
##orbiditeit
calcium
mmol
je
##TR
behandelings
intact
##ei
toegediend
mi
rest
09
LD
##apporte
##asting
screening
BI
aorta
vinden
gesteld
##arc
verlaag
Sig
##voe
neuronen
Ph
##oph
vasculaire
activiteiten
##uli
##laire
directe
form
##rot
and
##infectie
ouders
54
temp
beheer
schade
III
##sorptie
##UN
CHEST
diver
zin
intern
DO
code
##ochond
magn
##rat
sim
##onenten
PCR
##ril
ontlast
neurolog
uitgebreide
SD
Wij
lon
uiteind
##onie
##ankelijk
bevestigd
den
oede
Amerik
##cep
beteken
##volgende
horm
001
modellen
rug
Omdat
Number
oud
oppervlakte
cy
##osom
welke
##lement
retro
vonden
typ
bleef
soms
passen
letsel
##igeen
##ock
##leden
##ding
58
signal
gerandom
##carcinoom
##ument
verlies
Patiënten
##roep
##regelen
verbindingen
onthulde
##ity
monitoring
verhogen
ledem
##schillen
##agt
ABG
Europ
##omy
neut
##ivers
omgeving
##ikte
vrije
functies
##concentratie
##orpen
##icul
nam
##alve
##cum
altijd
FOR
omvatten
##oxide
seks
He
##ili
##liferatie
##istische
abd
##municatie
CONDI
PH
benad
baby
sterke
perifere
##NF
##ameter
Per
##GE
##50
effectieve
##alans
verbeterd
interacties
myoc
place
prestaties
doen
##gehalte
ree
dro
Sinds
Abd
MEDICAL
57
ij
cruc
51
jonge
planten
ref
Rec
las
##agader
##igh
##weest
getest
mutaties
##producten
lact
endot
##verm
geactiv
##bol
##alp
vor
##yr
##aciteit
##yle
64
##ochondr
##sper
##unct
##pm
biom
onderzoeks
milde
bleken
Cr
##amma
##gebied
##liceerd
##iene
##missie
geweest
Pl
derde
verlen
voorkeur
##enz
##uitgang
uitstraling
elkaar
slechte
benadering
59
##gor
##iënt
oudere
Eer
##bum
##man
lee
##achten
vertonen
enkel
##ritis
subst
metast
##ance
##otensie
noodzakelijk
aard
ingre
vergro
wijzen
experimenten
soort
invasieve
##braak
chemische
HT
inclusief
intraven
Hy
stimulatie
##kking
##even
##iseren
onverander
##itus
67
##vante
evol
##spectief
konden
spra
##patiënten
##kin
##itatieve
presenteren
##istente
aanwijzingen
##syn
##uding
Lab
##11
sep
weefsels
uitdag
##bet
meld
toenemende
Daarnaast
##zer
aanvullen
cent
##komsten
uitgedrukt
##H2O
##US
bereiken
angst
antilichaam
##itme
processen
120
##vrij
##alyse
gevolgen
##yla
72
overw
stammen
##line
krit
veronder
len
gerapporte
##inde
##wak
##rische
##ister
##ylering
##ymen
event
##EC
structurele
gepresenteerd
lijken
##uut
inflam
speelt
TC
##ysteem
dem
landen
##hesie
foc
midden
tek
zes
mannelijke
##cell
Hep
receptoren
HE
gezondheidszorg
##ior
85
mes
ga
röntgen
maal
##fecten
traum
begrip
breed
DM
microg
##chanis
opgemerkt
ernst
helpen
mogelijkheid
resultaat
gedefin
ontlasting
gemedieerde
genomen
gecombin
##dit
cmH2O
##bry
begrijpen
complexe
##oloog
thuis
termijn
verwacht
sn
##cult
geïsoleerd
statistisch
##gingen
gef
bo
afgifte
atr
##atoire
reeks
##pre
bespreken
massa
cholesterol
parameters
auto
##ary
##oma
technieken
toegenomen
##eggen
fluores
Eén
##uwen
##OP
beleid
##oto
##lasse
structuren
benadru
ec
recht
##vaard
mitochondr
##ifieke
sequentie
Sch
for
gebruikte
##ICU
##orten
behalve
behandelingen
##tjes
ziekenhuizen
tests
##oring
CM
##licht
resulteerde
##tem
##ovasculaire
prognose
dood
volume
##uiste
mig
##idem
Zij
##infarct
Tijdens
eenheden
##FT
efficiën
##gerelat
afwezigheid
afhankelijke
borstkanker
##water
mass
Lun
SO
##xy
appar
TR
##aand
##ubatie
##zijn
CI
##omin
naam
natrium
##afwijk
##iltr
medicatie
bijdra
ander
bevolking
##gezet
##osoom
##prog
overzicht
hypoth
##sloten
##CC
observ
betere
onveranderd
Bel
uL
vitamine
vermeld
##oscopie
gehouden
aspect
##inatie
as
##ugen
cognitieve
Diagn
##gezondheid
##erkt
nad
geslacht
kal
loop
##itheel
63
bijdragen
embry
persoon
76
##cycl
##attern
##angen
##volle
##komt
ET
##PS
##formatie
##slagen
gezicht
bijzonder
##toe
bronch
##VT
chemotherapie
##cur
##LA
naast
##iger
LE
##houdende
werkzaamheid
##odynamische
dier
INR
##eeds
##EL
##osyn
##entegen
##ergieën
##bruik
##lucose
ledematen
relatieve
##ialen
62
##irst
##kle
##zij
verwijderd
##dequ
##mit
##stroom
verzameld
zwak
langdurige
BLO
##bep
nuttig
CX
maximale
##iner
Ad
##lav
geboorte
brengen
geselect
IVF
gtt
##blemen
des
geïnduceerd
MA
##uiving
##merg
ging
risicofactoren
cr
##com
intens
secundaire
eenvoudige
veroorzaakte
psychi
abn
synth
##amm
amino
impact
arteriële
kern
stop
prop
##mechanis
laboratoria
aanzienlijke
out
68
##li
##lit
Her
BLOOD
cur
gepub
NS
wegens
66
##micro
##isie
##handel
##ventionele
uiter
drug
doses
grootste
uitgebreid
##clusie
##ds
gegener
##yth
##MA
##orter
##dif
effectiviteit
##productie
oxid
stoornissen
##stemen
##pret
##chol
##NP
bacteriële
bewust
##CA
beperkte
mutatie
differentiatie
red
fysiologische
bilaterale
##abiliteit
##proces
78
##utane
lichte
so
huisartsen
metabole
ondanks
prob
stoffen
cytok
##schr
metingen
##PD
gaf
##orale
lo
antigeen
verantwoordelijk
motor
##enen
chirurgie
gemakkelijk
zeldzame
punt
##lever
##ated
scan
gecontroleerd
##olom
voorgesteld
laesies
controlegroep
CS
score
Veren
continue
##ritme
regulatie
control
73
gebruikten
ontstekings
First
##ular
Ho
##loop
staan
slaap
94
Dr
onderscheiden
ED
##techn
natuurlijke
geschikt
##ylo
##ining
##sver
pan
bovenste
##kelet
mort
##atroon
MEAS
veld
##opsie
index
##entieel
testen
##utum
criteria
apoptose
betreft
##grootte
77
##omer
syst
Mg
sat
fract
VALUE
inflammat
tegenstelling
##ly
graden
Ant
onafhankelijk
delen
melan
##amide
werking
associatie
##niveau
##gerelateerde
prec
zicht
##zijd
Inter
mening
synthese
beta
Hem
##rect
bacteriën
neus
IF
DP
##vlies
virale
ondergaan
##Pattern
weg
paar
##gezien
##drag
NamePattern
inductie
##innen
##tijdige
##kten
bevorderen
##YP
##verlen
opmerk
therm
##kens
gist
ontbre
tach
ax
onvoldoende
kwam
##monsters
juiste
##ulose
##voudig
93
##ctor
##emd
##LC
##heugen
rechts
##aardige
##teerde
##oh
mortaliteit
richtlijnen
##actieve
peptide
gerelateerde
prom
##asis
Hart
toevoe
69
dagelijkse
##int
92
Th
nit
review
katal
##onent
Un
COV
recidief
EN
SR
gediagnost
##wacht
schild
SpO2
specific
##oer
##ating
##igt
61
seg
gedeeltelijk
geregist
sprake
analyses
##TAB
gekwee
##nam
gere
##imm
exc
Ass
##dieren
resistentie
protocol
##VE
##ufficiëntie
gebracht
im
vrouwelijke
##factor
##structuur
hypox
Disp
NM
oplossing
resid
meten
88
Comment
##etten
geld
besmet
minste
##cg
rij
##efal
mede
bestuderen
##nemen
ontsteking
##isen
Totaal
##roffen
aspir
milie
behandelen
##lijn
##ace
daalde
bevat
dun
schat
klasse
qu
##komstig
tre
vez
##inst
##gevoe
##foto
##wissel
uitvo
postoperatieve
helft
##kundigen
##OM
Do
namelijk
links
##venties
##eline
##bumine
Verg
Verder
##ysp
gastheer
##icus
##53
herken
81
sche
COVID
##IST
beschrij
##ijm
84
##les
hoeveelheden
inflammatoire
beeldvorming
rapporteren
mechanische
leeftijds
##INE
interval
##raz
74
matige
jong
team
##rd
##iO2
pap
pleurale
uitsluit
fl
daling
glut
##ilisatie
##rum
non
behouden
El
##methode
transcript
##xpressie
maand
ontwikkelde
neurologische
400
sm
##ieure
ON
##voeding
##olaire
##studies
onderliggende
besl
rekening
systemische
lengte
Sc
golf
class
enzymen
##respons
##edi
##leg
Tr
##seud
##gelijk
subc
vele
##testinale
##bed
##reedt
langer
domein
essentieel
katheter
dikk
gren
##enter
conventionele
spre
##OL
overdracht
oedeem
##oxy
##max
piek
##rofie
stabiele
onduidelijk
neemt
##lijden
##ïde
werken
##telijke
gastro
zorgen
afgeleid
inname
wond
antic
concluderen
ogen
rust
gamma
##oscopische
gekopp
##erings
beste
##oglob
placebo
##ationele
##vloe
krist
recent
fosfor
coronaire
transplantatie
dienen
veiligheid
CONDITION
overeenstemming
WIT
componenten
macrof
DVT
anders
zout
mot
reage
##oll
kant
gecorrel
onlangs
PTT
endotheel
##andid
coh
ochten
resulteert
veneuze
vorige
toepassingen
hoogte
##udenten
bestond
##eringen
##apar
gediagnostic
##rik
bol
lum
herst
Ondanks
elektronen
##linische
AS
##uld
longen
oest
Reden
Par
coli
hypotensie
##gaand
Lin
Ont
genoemd
##aps
86
##uwe
##pol
recombin
zodat
uitbre
optimale
interne
oorzaken
feit
##aars
variëren
indicatie
behoefte
##iratoire
##iol
zeker
patroon
voordelen
##besch
lichamelijk
83
ervaring
79
medisch
roken
TNF
gestart
onver
inzicht
prostaat
gaven
kru
##otide
##ella
##lastische
##ogram
sluit
##ees
plaatsing
nab
ov
##controle
dikke
implant
const
carb
##tubeerd
##ontste
steek
ijzer
##olon
##bouw
##volen
morbiditeit
dubbel
##ront
gebrek
peri
slotte
##uist
FINAL
##rill
##RT
gering
moleculen
##punt
verschuiving
verstre
helder
disc
gesp
##ars
##rectie
Toe
myocard
##delingen
##spiegel
71
##stoornis
89
onbekend
tren
##ageren
##itone
##ationale
140
geïnfecteerde
frag
plaatsv
##adiging
variatie
##osomen
bestr
##drukken
regressie
CA
kopp
##wicht
FiO2
intr
ligt
hiervan
##sens
##oit
ident
##press
##appar
##eerbare
##werp
##zetting
uiteindelijk
##omatische
vergelijken
82
lymfocyten
tet
##fusies
##fib
leidde
asy
regul
bindende
sinus
beperkingen
remmer
##brale
##arb
signalering
Care
##wegingen
hepatitis
remmers
clu
verwijdering
##etting
##amn
##pop
epidem
##DS
veranderde
deeltjes
materiaal
blaas
##dr
adequ
specificiteit
Verschillen
kie
##uul
##olerantie
Laat
##ital
ouderen
VS
##ondersteun
gecorreleerd
##letsel
dagelijks
heup
hoogste
ren
Amerikaanse
diverse
##loc
##plaatjes
ontwikkelings
geproduceerd
aanvankelijk
gran
##wand
##ff
berekend
toegang
cardiovasculaire
genoom
verster
WITH
##week
hybr
87
extre
vermoed
vooruitgang
programma
CB
hypothese
##itas
liggen
inge
cc
##itoren
##tingen
##boven
##rib
##usc
po
aanbevolen
RS
##lekeur
##fosf
tel
##fort
Comp
91
##TABLE
##ontsteking
##icine
accum
consistent
##akken
Verander
PER
enter
197
##ONE
##ids
reeds
gedefinieerd
##orac
##osa
##afwijkingen
hetzelfde
##ole
##spectieve
##ET
##chemische
##sectie
vaccinatie
##pens
toxiciteit
##cefal
remmen
##ogenese
TP
##liceerde
##BI
proliferatie
Huid
##ellitus
##rucht
tele
contex
netwerk
afwijking
mic
anest
##kelijke
NH
##orische
##recept
selectieve
intro
steekpro
ie
##IG
##entan
##scheiding
Code
##orr
omvat
Rh
##örd
300
beelden
lineaire
##modellen
plaatsen
##rokken
##gedrag
##veranderingen
##esitas
emot
##bron
##IA
schildklier
opgel
Laatste
afstand
##oplos
ik
uitslag
waarmee
##biële
##nia
Gegeven
##staan
##cyten
ochtend
##vari
##aging
angio
STA
monitoren
medicijn
##erkte
bedro
dw
afdeling
##organis
benaderingen
colle
##achtige
dys
All
geregistreerd
geble
##beloven
nacht
polik
##ocht
alk
##concentraties
##glyc
mellitus
epitheel
obstructie
myel
angi
pen
##TIE
Ter
##ioneel
##werken
gang
Sinus
py
##iva
resectie
NC
identificatie
SBP
systolische
veronderst
verdw
##lijst
reguleren
130
mond
veranderd
minimale
presen
veelbeloven
willekeur
gevorm
tuberc
omgek
CXR
ment
verkrijgen
##grond
Plt
##ement
##uline
##TP
dop
geassocieerde
Continue
ontvangen
##mens
##too
fysieke
##ATION
termen
OP
##cy
dichtheid
produceren
iets
##specifieke
matr
interventies
##aarm
epile
bloedplaatjes
##bul
cas
los
ruimte
##dheid
##sterd
##UR
aanvullende
sepsis
##ytro
leveren
daarop
wijten
vertegenwoord
##frequ
##omat
eens
aanvallen
##gemakkelijk
##factoren
##heet
##30
pancre
keuze
HS
##ben
##opname
##transplantatie
ondergingen
stabiliteit
##iep
##idase
witte
muis
zogen
##derde
mediane
##ometrie
verhouding
##vies
sed
beweging
milj
kader
overwogen
##ross
##ice
aspecten
verschijnselen
##DNA
##yg
cultuur
aanhoudende
slagader
IgG
##cten
CD4
##tijdig
pass
Gezien
bru
##osine
IFN
betrouwbaarheid
toegevoe
isolaten
fem
##ijfers
##finiteit
onafhankelijke
ATP
##ipp
##oppervlak
gevoelig
afgeleide
Aangezien
diameter
##ijding
gebeurtenissen
toekomstige
anat
##dis
110
##LL
acetyl
sper
##heids
##ekt
respon
##stoffen
uitkomsten
##onine
multip
Baby
OF
geneesmiddel
onderzochte
keten
geheugen
##cludeerd
dynam
##orden
log
tar
epis
Som
##oerte
##ull
geïntubeerd
computer
##lees
##icum
stre
##ote
veranderen
neurale
ty
##HC
nucleaire
##ifest
late
##arcinoom
achtige
##binding
geluiden
##issie
neurop
intracellulaire
##vermogen
##ring
##OC
obesitas
echografie
site
kwamen
kwantitatieve
##stelsel
beroe
activ
mur
studenten
beschikbare
HB
terugk
blokk
voeren
intestinale
##cler
##riè
hypot
ulcer
##fiel
blootgesteld
nec
MAP
afbraak
##udt
substraat
##loor
1000
##stam
##urie
##obacter
##raken
##beelden
##olip
At
endoc
##pl
##PM
interpret
milieu
Echter
ontdekten
enig
zeggen
locatie
##greg
betrokkenheid
##strateg
##uigen
vaste
gla
olig
##inn
il
vanuit
##athie
pathogenese
infiltr
##gren
kamer
##ursus
##volume
##ozen
onderscheid
ontworpen
##flu
ventriculaire
colon
mob
maatregelen
organismen
Soc
waarop
gediagnosticeerd
strategieën
##illine
##istoffen
##IF
heparine
relevante
erytro
vond
wijze
##geschreven
##URE
##cyt
VAP
##ocytose
##ala
lys
vergemakkelijk
hol
context
colla
##kracht
##oriën
##kanaal
##16
##isico
Cardi
##orende
meth
functioneren
aminozuur
##GA
gerandomiseerde
BC
gebonden
cardiale
ide
ingreep
erop
##inanc
rect
##entiële
oorsprong
##ctieve
beroerte
gerichte
##ummer
nm
gewricht
##otomie
##ser
##lucht
##resultaten
visuele
overgang
richtlijn
Hyper
resol
##13
ng
rib
##romat
referentie
down
schimm
Vervolgens
##handeling
pathologische
##agement
##tel
wervel
##ju
Glucose
##HT
regist
##darm
afkomstig
vas
##acine
Ik
##MC
##olyse
Pre
##entanyl
rout
##insufficiëntie
top
##chirurg
dysp
##ites
ischemie
bpm
onc
##versie
bedroeg
##ificeerd
Pul
verdeling
##eus
##itle
##beoordeling
chromosoom
carcinoom
Tem
namen
##uurd
Daarentegen
voorlop
##ifactor
lipide
populaties
ABD
toch
infusie
##gebonden
Verschillende
##ulus
oxidatieve
neon
detecteren
lapar
##ector
strategie
hartfalen
##UC
##iekenhuis
##aringen
##ube
##oppler
lopen
##FI
verklaren
##schappelijk
Hg
GU
##allen
uitgesloten
##oles
gunstig
ol
Rechte
voorgeschiedenis
betekenis
vrijwel
warm
##embran
dosering
##eller
##medi
sept
ontwerp
##arree
##ATIENT
astma
##ilat
wijst
PEEP
##oeg
sup
polymer
##anol
##ember
##char
Men
##ton
##rijke
##expressie
laterale
relev
gehalte
transport
dunne
Meer
Volgens
##ieven
terminale
situatie
##onucle
prox
##ksgezondheid
ervaren
gemeenschap
toevoeging
regelmatig
omvang
##reatinine
THIS
##balans
##ethyl
##schreven
spontane
Dif
##umenten
cerv
##eurys
##zeker
richting
procent
drain
zuig
##hang
##ner
theor
mogelijkheden
ion
##ectomie
wijz
sequenties
##umor
producten
genexpressie
acuut
overlijden
CONTR
voordat
##iende
categ
gehad
##ue
voorgestelde
sol
bijdrage
##onin
controleren
##complex
##hoog
lichaamsgewicht
##UT
domin
##ofag
gea
##oplasmat
bepaling
Tra
##rand
##ikstof
Gro
begele
##aryn
aneurys
##othorax
##richten
Fe
plat
250
##standen
##fys
##15
cohort
##ici
##generatie
voordeel
##essment
geactiveerde
cruciaal
glucos
geleden
reductie
Waar
bar
basale
dre
##18
DC
##ori
klass
nauwkeurigheid
CONTRAST
##groei
variabelen
tand
vormt
##oge
onderdruk
exter
Me
##ational
cytotox
Commentaar
##deels
alternatieve
intraveneuze
CPAP
##periode
handel
POR
Fys
##olen
##beweging
intrac
lat
##eth
minimaal
##eek
##ijft
oraal
##14
RT
Univers
manifest
versle
sputum
carcin
afgenomen
half
##tering
##our
##ichting
##kant
afzonder
gemeenschappelijke
PIC
stoel
tekort
gestim
##arten
twe
onderdeel
optische
##gevallen
voltoo
lymfe
##igers
steekproef
melden
##vrije
daarvan
Drie
vag
Ly
econ
##TER
##wijd
degenen
Neurolog
foetale
Zowel
verscheiden
ather
##ack
##dam
hoest
cross
reson
##arkers
##spect
##pg
last
vertraag
Labs
##aria
signalen
tit
beloop
##apparaat
##ieel
##ogelijk
##opisch
pasgeboren
voorafgaand
PATIENT
##pine
##loride
##atronen
##methoden
##uff
cal
graad
onmiddel
ES
gelok
conf
cortic
PORTABLE
##ikelen
LF
##acchar
##ilis
liet
##deerde
##maat
##ms
eenvoudig
##klachten
mitochondriale
aanpass
gevormd
##ord
##aa
groten
voet
toekomst
zeldzaam
psychiatrische
flex
##resent
##vens
##sproces
vs
##BER
select
##wikk
subt
##lip
Vloe
##raagd
Vanwege
grotendeels
analyseren
melk
125
sil
##iste
##amnese
LC
richten
sulf
##ïd
##MS
matrix
##ardie
##repen
FA
herhaalde
IR
noch
##ondersteuning
##ics
##chym
special
ontvang
extracellulaire
zelden
affiniteit
elektron
donor
##uratie
Veel
peric
##dimens
##route
Doctor
efficiëntie
oestro
##orme
antigen
##uil
Normale
ontstaat
##percentage
##out
##irale
verwezen
verlaagd
motorische
product
##RESS
miljoen
##oorden
noodzaak
##isering
##ogingen
bereid
gevoelige
vervangen
rob
##iox
##operatief
Samen
anter
overge
Opmerk
nef
##iwit
##acet
##rac
luchtwegen
Diagnosis
##breng
binden
Vanc
Tmax
uitste
IND
##oproteïne
ruimtelijke
zoog
##ontre
hormoon
##illaire
##gebieden
NF
101
##verd
##status
genereren
##arts
arm
magnetische
remmende
technologie
##PC
prin
##jaar
onderste
##ziening
gedrags
rh
End
##vings
kunst
##geluiden
NT
prikk
pred
diarree
##therapie
uitbreiding
externe
##okokken
geëx
fluorescentie
gerapporteerd
accumulatie
segment
sedatie
geworden
opeen
unieke
instr
##zijds
##IR
sig
arg
##alth
promotor
##usies
##VC
opsp
##ump
inform
geïsoleerde
taak
SS
DAAT
leren
varie
training
Pa
overwegen
advies
adoles
##BS
##HD
langere
##amilie
AA
Hyp
macrofagen
neuronale
##spercentage
TE
##reerde
voorkomt
repar
##letie
##ceptie
Ca2
uitdaging
##ometr
zeven
chronisch
##osomale
cre
##ometrische
##ynth
##niveaus
verspreiding
##ph
##klieren
##ococ
##prote
klep
scler
molecuul
##aser
nano
interfer
activer
##ditionele
miR
##ledige
SE
##virus
##ologen
gecomp
##genees
volgt
resolutie
##rouw
divers
daaropvolgende
Te
dubbele
zogenaam
HCT
##ventr
posit
Evalu
##akker
LV
herhal
Resultaten
##curr
##abolisme
SH
trauma
##eerbaar
##geving
##zuren
halve
markers
##ominale
##ylase
distale
optim
verzwak
matig
##ylax
##arch
pseud
##des
tal
ratio
av
##ii
##oscler
Reg
##idemie
doelen
##wachting
langs
longontsteking
nooit
slijm
COPD
verhoging
##neu
fractie
erg
sem
maximaal
S1
##aseerde
Trop
media
##beur
##PA
secundair
gecontroleerde
DR
##sterdam
##opress
Trans
inspanning
aangeboren
##ciplin
princip
benz
Amsterdam
##mut
AV
##outen
##cyclus
ritme
##stest
mcg
pac
stikstof
geneeskunde
##ften
verbinding
agressie
gezuiver
##sheet
kwantific
influ
##inc
bekken
Mult
Beide
verbetert
begonnen
NUM
PHONE
kinase
##002
Communicatie
bro
##lox
##aakten
oc
secretie
##ise
assay
granul
radiotherapie
##odel
##velingen
##etica
gecombineerde
##molec
ontslag
##24
cortex
PICC
##odynam
##programma
patronen
comfort
subeen
vertoont
antagon
milt
##oprol
##atum
gepubliceerd
##EG
##bs
PK
dementie
##verandering
##woordigen
koolstof
gelab
NUMBER
cerebrale
vertegenwoordigen
##erm
ischemische
Naast
schijn
meet
##ortic
Gegevens
ongew
##imer
ionen
gekoppeld
reageren
##mmun
Doppler
##uken
symm
flow
Wel
NPO
##wijzigd
opgelost
##stip
knie
##okl
stijging
##aec
##anningen
algor
##kolom
##gsel
##fuse
##studie
leukemie
ontbreken
Or
fenotype
discus
aangegeven
rot
##osteron
gemedieerd
elektrische
##microscopie
INDIC
famil
Sy
##19
##uleert
##houding
##stellingen
bevest
culturen
##sproblemen
Indien
honden
Allergieën
implement
afge
##waard
dynamische
ins
aanmerk
humaan
##rug
besluit
AND
lijnen
stelt
voel
geboren
geest
verzorg
geheel
##win
vindt
metabolisme
concept
meis
waarvoor
toegevoegd
skelet
##igende
fibro
presentatie
verdeeld
##alige
gelijktijdige
krachtige
##omycine
ph
weerspiegel
dragen
overige
klassieke
mentale
getrans
##vallend
peptiden
influenz
##aarmoeder
ofwel
humane
##ienivea
vloeib
aangeeft
beginnen
tev
##enc
willen
cyste
##otypen
##male
Assessment
jaarlijk
nadat
bilater
hierboven
Au
##ARS
zenuwstelsel
fosforylering
nek
gunstige
##zins
oef
Ser
##omstandigheden
##quê
decen
samenstelling
stoornis
109
geremd
kwaad
##ocy
MEDICALE
Aanv
Respir
ect
##singen
verwijderen
overleden
eventuele
del
##gl
datab
metaal
lokalisatie
bodem
alert
##bro
hoofdpijn
evolutie
##mater
2000
##odific
schad
voorbere
eenheid
pneumothorax
supp
pancreas
##cultuur
##17
##embranen
leer
##ura
##ogroep
bevinding
##won
##artsen
##olytische
etiologie
zwelling
infarct
component
onderwijs
gas
##erking
gon
dicht
ligand
bescherming
gegenereerd
emp
mag
elementen
prognost
##mechanisme
jpg
##ohist
beenmerg
miss
baarmoeder
antiox
##OB
grondslag
##aspect
Maar
Glyc
##stitutie
slok
p53
##derheid
relaties
locaties
overgebracht
thorac
uitzonder
abnormale
##aille
##schrift
MT
einde
DS
therapieën
##band
##HO
scores
kandid
##itoneale
gemen
zichtbaar
detail
##itten
vaatziekten
vermindert
embol
##sef
##cont
##ry
kanaal
zogenaamde
voorbij
Col
Bloedproducten
indicaties
##tieve
baseline
##rem
intubatie
weerstand
murm
drugs
##ases
##lengte
##hel
fluor
collageen
Prof
progressieve
##ypt
melanoom
##ragen
ir
daarbij
complicatie
kD
##heem
benadrukt
ovar
##vormige
CF
CAR
Wat
ruggen
kwe
##vanging
CN
bevestigen
real
trombose
residuen
dig
##ieve
PRN
muc
nauwkeurige
Nie
##keningen
gemet
materialen
##kere
luchtweg
organische
Heparine
##quête
hydroxy
##gevoeligheid
atrium
##ippoc
verbonden
160
wild
EF
##Cl
beïnvloedt
##oneel
AST
verdi
##icilline
Ag
geselecteerde
plus
##belasting
overt
episode
mamm
##for
nierfunctie
##aandoen
##fractie
uter
fac
##orrige
##kenmerken
##fficiën
vocht
wetenschappelijke
recon
ALT
orgaan
##ason
##ïnen
LDH
##namen
iso
regionale
##igingen
initiële
gecons
procedures
##21
verplaat
##horm
hierbij
##schat
FEN
##iae
mol
Kle
geldt
##mpel
##ococcus
radio
anderen
aneurysma
##ous
##stij
##ugger
GH
geschat
Hartritme
Europese
beschrijft
H2
##bev
##aïne
afvoer
spontaan
onthulden
gereguleerd
encefal
##openie
Monitor
##dific
drainage
##etermijn
nas
gekweekt
ong
##frequentie
sonde
##aze
Afvoer
##dert
wet
##eptide
Onderzoek
##vasculaire
capaciteit
Hb
veilig
##fielen
##ila
schatten
##oorde
proximale
##ight
vat
intensiteit
STitle
lev
inhoud
##ippocamp
waarnem
##rijf
thorax
##abele
##oest
meerderheid
krij
verklaard
Vloeistof
##ifer
##eens
##splaat
##jectieve
##genase
bijbeh
##ografisch
go
##dichtheid
overexpressie
antim
zwaar
LS
##reoïd
PG
seksuele
reparatie
##trek
##fase
##enteel
geïmp
##orieën
##stim
##inase
##seling
polymorf
belasting
stoppen
verscheidenheid
##oplasma
EM
nieren
##deeltjes
##will
artritis
continu
##roscopie
##anine
nauwkeurig
spieren
##asculair
implicaties
beschikbaarheid
##ivari
Spont
##lage
transplant
juist
gemat
##oefen
asc
leukocyten
aanleiding
##oxine
Micro
Act
classificatie
##metast
verschillend
consult
##infecties
sociaal
gram
ambul
##lering
aangetroffen
##ocardi
Lung
aanmerking
verklaring
fer
start
alternatief
##oi
##ays
##aris
kaart
indu
Sle
##tom
##OT
SM
Alk
Hemodynamische
zwangerschaps
##anu
generatie
##weeg
gehand
##ohistoch
##OH
##eden
##IM
Prop
redenen
Verenigde
bloedingen
##ww
##ditie
##econ
illu
verhoogt
##leving
##ëfficiën
reactieve
Infusies
REC
##ynthet
diabetische
drupp
##cap
voorgeschreven
##umoren
collega
##etiek
UV
toegeschreven
aanbevelingen
##po
orde
##wikkeling
##deerden
inz
behoud
##elijks
anesthesie
PO4
##mod
##bar
allemaal
coc
##trofie
##ozuren
braken
##cheale
cursus
integr
differentiële
essentiële
##lakken
##ertijd
distrib
induceren
presente
##plant
medicamen
##emaal
heden
##riene
##positie
3D
##leuk
dienst
kruis
oplever
polymerase
Veranderingen
gezichts
##wisseling
houdt
##ene
##kent
##iaz
##ingsapparaat
##rière
##ric
HA
##halam
poliklin
resonantie
GC
##ution
method
##aptische
secreties
bestraling
intensie
##weer
##beg
benadrukken
optreedt
VE
meting
gesugger
Spontane
monster
erf
disfunctie
102
laesie
##beurtenissen
##ille
CAD
##wek
uw
##iere
##esp
genoemde
stadia
paras
trend
##ament
##sinter
wand
biochemische
slokdarm
vlak
beval
fosfat
monokl
wereldwijd
run
corticale
bijbehorende
fout
pancreat
buikpijn
##oplossing
voorspellende
zuiver
Cu
##buis
rapporte
Afrik
gesuggereerd
trach
myocardinfarct
misselijkheid
##ray
communicatie
hippocamp
##ffen
##ouder
vrucht
drin
Staten
band
##oriënteerd
HLA
zachte
absorptie
hulpmiddel
sing
transmissie
##stra
##wijde
##gelegd
plant
Stress
##validatie
##middels
agon
migratie
##aardoor
Post
##ystemen
##oeid
scala
LH
##ibele
verpleegkundigen
##paste
geleidelijk
diepe
Voeding
experiment
individuen
CSF
CAB
geschikte
artikelen
ultra
organen
reum
##wijf
Opmerkingen
##egal
MP
verrijk
##aktie
##halve
hiel
efficiënte
haal
MM
www
bovendien
care
##avirus
aangezien
vragenlijst
##generatieve
gelegen
gisteren
maligniteit
stimuleren
defect
cellijnen
gemodific
daag
prn
hypof
janu
evenwicht
##fract
##lap
symp
tevens
radiële
adequate
januari
##hele
apparaat
##idazol
##heen
##structies
##itaire
tablet
remde
##sieve
m2
Zuid
hetgeen
waterstof
##emmer
Ziekenhuis
##igens
##ozyg
##vaten
verwerking
tri
leden
indirect
gesynthet
##DA
kweek
##ofol
CHF
uitdagingen
gevolge
immunos
##stri
##scopische
##ylaxe
aminozuren
RESP
straling
histologische
levensvat
rode
ampl
hieronder
##allel
split
##ycardie
verstrekt
betekent
beschermen
##dimensionale
##ilaktie
az
##inemat
##elta
plast
front
wakker
##emisch
proteïn
traditionele
##hyper
bili
Neurologisch
DN
absol
varkens
omgevings
##abil
##unds
opeenvolgende
adolesc
mM
iedere
##behoe
##lasie
zuigelingen
varianten
stent
##rast
##agul
vertro
##ferase
MB
##zetten
##ivaten
##NALE
##encing
hecht
depressieve
##ick
prognostische
medium
##undel
Dag
##isol
schatting
gecombineerd
##draagt
tab
##LD
##ördin
##idis
atheroscler
krijgt
meta
PN
wervelkolom
##ogeniteit
##arte
spiegels
##locatie
##activering
##gelaten
##odium
uitvoeren
resistente
Concluderen
Concluderend
sporen
ur
enquête
gekarakter
gebleken
Vergelijk
##orele
##perat
correctie
microM
IGF
gehele
wilde
##gin
##umptie
##komende
##iezen
Dispositie
eveneens
##aline
stem
lipiden
kDa
hydrox
##sequenties
Eerste
##plan
vermoeden
cruciale
microgram
CABG
frequent
Phos
focale
complexen
gerandomiseerd
##veren
##ibiliteit
endogene
gerapporteerde
ald
routes
RV
zoek
uitsluitend
##ofren
gewichts
Volledige
##stoe
CVP
algehele
IS
droog
neonatale
instellingen
##omyc
##reoïdie
BR
##oemde
antistoffen
##mentatie
statistische
laser
Brit
##aarde
##vormen
ile
examen
ontwikkelden
##blaas
##rijp
afwijkende
##gemaakt
veelbelovende
gelijktijdig
##ecept
observatie
Centr
##ats
varieerde
##punten
ARDS
##spiegels
##onaat
Lact
ziektever
Se
marker
hypoxie
##LR
##osin
geactiveerd
##raad
##sed
vergroten
Hierbij
organisatie
##bloed
##scher
##spanning
organ
diast
hypo
##orven
##annings
publ
ps
gecorrige
##razol
LPS
PF
overlevings
##mg
menselijk
financ
begrepen
vle
##RH
Ep
glob
complement
##woorden
Stud
document
Health
paren
diversiteit
##nacht
beperken
doordat
output
vloeibare
##zoeken
resterende
nl
systematische
bewezen
geringe
elim
##mitt
opmerkelijk
##orect
minim
IU
##ident
succesvolle
ving
##ostomie
##beheer
wereldwijde
uitgesch
gesla
##reacties
##strie
##obe
zon
tien
oorspronkelijke
gekozen
stimuli
schiz
pulsen
##dema
##ikels
instelling
Zijn
oes
brede
The
implic
Norm
VAN
vul
familiegeschiedenis
maligne
Sub
vertraagde
theorie
sur
levert
voortd
zwangere
wezen
##blast
bezoek
##oglobine
##vende
##raniële
##zijde
##massa
##GT
##dier
cyc
bolus
Ged
vl
ket
##iologisch
##ain
orth
##ark
##ssl
diffuse
schimmel
##wijzen
##emblage
##artim
schrijven
FINALE
Genees
aer
hals
ethanol
##oprolol
assays
##CTOR
600
##membraan
Alge
blad
##iers
##ioden
vrijwill
Flow
##spraak
vezels
bleven
##metingen
ke
##werkers
pathofys
variërend
##loxacine
morgen
##systemen
##stijd
PMH
Urin
gedetaille
atelect
school
discussie
geselecteerd
##regulatie
EEG
domeinen
##oepen
routinemat
##A1
perc
##UB
bek
##rometrie
polyp
Nier
##jecten
gevraagd
tetra
##produc
Gezondheid
##omeen
##poten
##vez
##ters
##apen
ademhalingsfalen
blok
Bili
punten
stappen
economische
alkal
antioxid
##oplast
genoeg
##ferentiële
voorbeeld
datas
##dos
NK
bilateral
virussen
thym
EP
##kenning
anamnese
##ology
korter
Hoofd
##23
technische
RSBI
myc
##ian
HTN
achtergrond
emotionele
interpretatie
##onische
##otrop
##populatie
##ontwikkeling
bronnen
##soorten
##vanc
##iëmie
palp
port
accept
negen
##este
onbekende
daarmee
##DE
geestelijke
##vast
##mph
##ATIE
##lante
Verm
regulerende
steeg
geper
MI
stamcellen
antigenen
##receptor
opsporing
deter
gedacht
##merc
Behandeling
groeifactor
##lim
rood
shock
##chirurgie
daarna
CMV
##40
MICU
##staande
Acute
##verleners
SA
zagen
verlaagde
Fysiek
Patiënte
PB
rijk
Onlangs
##kins
zorgvul
SB
##sensus
cyst
therapeutisch
##opol
dermat
focus
tegelijk
uitst
doelwit
profess
##sulf
abdominale
Lungen
##vlees
werkt
##loos
verontre
##doeld
pathologie
deficiëntie
##ionering
tuberculose
gevaar
##38
prednis
CTA
bedoeld
##lete
##25
##alingen
doorgaan
##hyle
##umente
##moe
##daan
morfologische
Vro
##bindingen
DOCTOR
##risico
antit
onzeker
dialyse
zichzelf
Algemene
uitgang
kra
nadel
image
lokaal
mutant
immuniteit
holte
genetisch
Belang
##iend
CE
##fil
embryo
leverde
asympt
##schade
##sequentie
high
##groe
voerden
herhaald
geslachts
##szins
massaspect
EGF
succesvol
CO2
HIST
intraveneus
replicatie
gekregen
kwets
denken
##lyk
robu
tumorcellen
ontwikkelingen
##essant
##gering
##kk
##erge
onderwerp
##gaat
OH
sarc
##iaties
gespec
##komstige
eventueel
aanpassing
CYP
kristal
experimenteel
PI
voren
105
beroeps
express
adren
functioneel
##nale
multi
##patroon
grenzen
handha
kleiner
buur
lid
##ffende
biopsie
HISTOR
##arisatie
##oos
##chloride
verleden
circa
rok
centra
vlo
Pol
maakte
geco
taal
trop
vereisen
##respon
##teuze
##datum
sluiten
##ijns
karakteriseren
aggreg
Toel
afbeeld
##ostase
nucleotide
##FA
##mechanismen
aangenomen
breuk
##itatief
##dule
aangepast
fusie
distributie
leek
##iër
Sommige
cervicale
##NATION
plot
PPI
PV
spectrum
Bal
##ula
toep
metabolieten
aspiratie
##ow
fosfaat
pericard
NA
dors
neiging
onderging
arbe
##IDS
vergemakkelijken
Las
geoper
##etrisch
gead
anemie
##rosine
brad
bevestigde
Is
Verhoog
pandem
##straten
equ
##procedure
trig
Az
Gesch
MRSA
NAD
Zn
##esen
falen
verspreid
##ivariate
kwaadaardige
cytos
##dip
##materiaal
##hec
aantallen
abnorm
Sh
variant
retin
atelectase
##vir
Fran
lu
versterkt
casus
##iqu
voorste
gelokaliseerd
ETT
##brengst
kwal
##27
isolatie
##vingen
gestuurd
bevalling
Lip
heel
definitie
Immun
##sorb
##derende
langzaam
SARS
bewustzijn
Name8
sterf
clin
104
rijp
röntgenfoto
ev
centrum
##ypen
EXAM
telef
##kru
modific
##deelde
conserv
univers
Hoog
##plaats
##clusies
wissel
interview
##streng
zieke
hiervoor
##hoofd
induceert
Cd
Vt
neutrofie
aanvang
Haar
Profilaktie
##gramma
nauwelijks
operatieve
onderhoud
##ichia
##tras
bescherm
hr
zware
SV
##angi
neer
hypog
##uring
extractie
moeders
beschermende
CL
bp
##paraten
karakterisering
presenteert
relevant
commerc
TGF
FE
mutanten
NamePattern1
##ypass
blijken
##60
##verdeling
single
opleiding
##opo
immunohistoch
##ata
variabele
behoren
hoek
##gevuld
schizofren
miRNA
lasix
##iose
##DING
lymfoom
gehoor
##iland
bijv
onmiddellijk
##latie
##ocortic
respiratoire
RN
##LV
case
Asp
##analyses
##oley
morfine
verondersteld
##auge
leg
Jap
mengsel
synthetische
##omatisch
##blasten
##chi
interf
gesc
longkanker
steun
##iverende
stro
##afd
##ices
ongeacht
mechan
Foley
Nut
##zon
##omegal
typische
vaard
geïnter
##mol
diff
IP
celd
prov
bis
afzonderlijke
##kel
nabij
diensten
consensus
##differentie
gu
##strategieën
gewen
##ruim
Neut
Recente
106
trad
##AG
nadruk
verou
##opor
fenomeen
##names
geavanc
pedi
lad
##tenis
identificeerden
latere
##uste
##ynaec
personeel
GE
##veld
thermische
##ung
vertegenwoordigt
##actief
##zende
##YS
wortel
endometr
gedeeltelijke
vloeistoffen
##graad
Abdomen
##ENTI
bevolkings
##metabolisme
verv
##hyro
##heimer
metastasen
##inezuur
##eliale
##RL
103
EXAME
##streren
parallel
time
##diënt
inch
trim
##gent
efficiënt
fist
introductie
brand
##tal
##mming
##sk
Kort
keel
overeenkomstige
##son
represent
inheem
samenwerking
prospectieve
home
##operatie
diure
##stitu
mediast
MV
##22
##dosis
##amelijke
Engel
omgekeerde
vasc
willekeurig
##GD
geïntro
glomer
centraal
vezel
dopamine
##beschadiging
primair
doet
Alz
infer
CoV
Flowsheet
##kinson
Set
ervaringen
enigszins
##ocon
##wintig
##mand
kalium
eic
betrouwbare
ent
##ergische
Moeder
gol
speciale
Car
##leid
##mb
verloop
##acties
##okin
##diceerd
Lymph
Lasix
kleuring
##sies
LDL
daardoor
aller
besteld
Tijd
##achtig
##sslagader
vermoeid
gepubliceerde
eier
##ureus
tro
blot
uitzondering
##racheale
albumine
element
##mate
##trekking
##evens
##atier
##stherapie
Toch
##alpha
geïnfecteerd
##vestig
##derdaad
##standaard
ECG
##idyl
beperking
gemetast
##nog
fenotyp
##benader
##leukine
Gezondheids
farmacologische
##diagnose
morfologie
##omon
##lux
##iëntatie
cijfers
geïnteg
foto
vergroot
Tevens
geel
renale
RBC
##brengen
macro
Indi
##wijze
verlengd
dynamiek
beeldvorm
creatinine
onthullen
Duit
##sem
amylo
echt
Escher
verwachten
##overdracht
adolescenten
opger
celt
weergegeven
tijdstip
##ules
anatomische
spin
bypass
transformatie
##oet
##MB
implementatie
beheersen
placent
ARF
##elekt
##verz
Overige
##CP
##want
uitstekende
determin
conclusie
##lifer
##cal
overvloed
Europa
Escherichia
Fl
Alzheimer
##riet
toon
rollen
genomische
##ioom
##osen
##nauw
variabiliteit
Toelating
ko
toler
##hr
bede
bemon
##ademisch
endo
gent
cyclus
TCO2
vloer
##CH
ring
pakken
##heren
##IGHT
algoritme
##osteroïden
antimicro
dex
epider
##iket
##itude
nov
gesynthetiseerd
##bereik
HF
beslis
Glu
##anker
##ash
##illus
AK
not
##orad
management
Review
##rofor
##icot
##aas
##oside
##gevol
##psie
##zw
##yndroom
##carb
##ai
waarna
Terwijl
lichamelijke
lagen
##MO
##aliteiten
##zijdige
##ureel
##alings
##cter
sneller
##lykemie
HCV
incubatie
##tests
hypofyse
##oont
eryth
voorbijgaande
od
remt
getrokken
##sn
handen
##staties
##omeren
##snelheid
toestemming
langetermijn
##ellicht
kritische
##azine
##LP
off
##stadi
##onaal
##rep
psychische
daal
##artic
##bale
μg
onderv
psychologische
seksueel
Hist
##RESSIE
##oelen
Zoals
##appa
wacht
compressie
advis
nierfalen
cDNA
##kamer
betrouwbaarheidsinter
oestrogeen
families
feed
inheemse
##werpen
##waarschijnlijk
intermitt
glutam
Troponin
gescheiden
geconserv
verduidelijk
##26
##70
##rengt
##ient
##eeksel
Japan
bezorg
##schaal
##schijnlijke
aanval
pancreatitis
knock
##GR
gehandha
kandidaat
jun
zoeken
gesloten
##ficiënte
##osyl
Fib
BMI
VALVE
Toen
rook
NPN
epilept
##insieke
gekarakteriseerd
registratie
inzichten
##ities
gevor
familieleden
celdood
starten
##28
frequente
gehandhaafd
sectie
zijde
spraak
EK
selectief
##romatografie
data
##drachten
180
intram
##pel
afwachting
##NT
##iënten
antip
gevalide
##itiviteit
verschilden
uiteindelijke
##rillatie
eet
##sprogramma
Fentanyl
vader
trache
caps
##mogelijk
Best
num
##oflu
##kinase
##bes
##B1
plasmac
gekweekte
creë
##sne
##chron
##dan
coderen
allo
##iaanse
##ouwen
##olling
##rijs
##centrum
dd
##aardig
herstellen
atyp
IDENTI
##proliferatie
##nec
##bru
##schien
Gauge
Vitale
PUL
proteïne
##peraturen
##responsen
adju
verpleegkundige
aantonen
Eos
##loot
chlor
urin
image002
##niet
verrichten
##problemen
##spier
Vier
##osoc
internationale
##fuseerd
glad
##TS
idee
gemengde
cx
##stap
Oor
volksgezondheid
oxidatie
valt
revalidatie
##stering
hard
HEENT
bib
##tool
langdurig
##off
##ush
Hun
vereiste
##ologe
##tocol
occ
##ionen
##AMP
##lass
nierinsufficiëntie
risicofactor
##kort
##eron
##red
##ofosf
absolute
##ineres
pall
##eph
netwerken
##stechn
##oses
geïndiceerd
Type
fec
integratie
##itm
besloten
##frine
twijf
eenmaal
Experim
levende
kenmerk
symptoom
Of
##coëfficiën
afval
IDENTIFI
cla
fibrose
##structuren
echocardi
##tomografie
##90
##ocumente
IDENTIFIER
##uron
##ssysteem
##ikken
hemodynam
##ibel
geïnject
trial
##avond
dominante
beweg
jonger
operaties
##kennen
bespreekt
##hormoon
gecompliceerd
##erpen
Rhyth
genezing
##ISS
veelal
##schijnselen
##emmers
##anth
empir
voldoen
##cons
Evaluatie
Intern
promin
Slechts
AIDS
##uppressie
1990
stenose
##akeld
antico
aureus
remissie
nanop
geteste
tegelijkertijd
##bestr
state
Centrum
##80
kwest
cum
##itud
##emet
buurt
hippocampus
MAE
online
geconcludeerd
##lear
colorect
##annen
EV
metastase
vallen
##omisch
oplosbare
reproduc
##omeer
embryonale
gestopt
##bladen
##suline
congen
allel
Noord
##waart
biof
onderdrukking
##inname
##pervlakken
kanalen
AG
##osens
katalys
kolon
##iten
##adig
vervol
sensorische
S2
versn
wetenschappelijk
##feren
##RS
##otter
##57
definitieve
##olol
##gevat
december
onderdrukt
formul
intacte
minister
voorspelde
##O3
##stoestand
adip
##uma
##ardia
kleinere
##syndroom
##rab
dikte
##hals
##dehy
bemiddel
Del
commun
hartslag
lar
sequencing
betreffende
acid
HPV
gedocumente
ontdekt
vertraging
##metastasen
##huid
##FP
PRE
cav
gemute
kliniek
ervoor
fractuur
##woordig
##hoek
substraten
##kwaliteit
avond
afwezig
fix
lij
##oder
FL
Min
metalen
geïntroduceerd
kop
##bra
##patronen
##orine
inhal
##capaciteit
##BD
##athische
##ocarcinoom
set
somatische
overgewicht
verstoring
codeert
rokers
sleut
##alcium
praktische
##ions
STAT
##adigde
getoler
seiz
##34
##ymf
Medisch
bezoeken
hybrid
polikliniek
moduleren
##cement
karakterist
##waartse
serie
Ve
waarschijnlijke
verwond
poster
##ciplinaire
##aandoeningen
kat
intracraniële
inn
conform
Cor
##hed
##rapp
onderdrukken
onbehandel
interleukine
##ilatatie
prospectief
T2
bacterie
teken
pren
compet
herkenning
tijdschrift
Differentiële
SW
##verhouding
vaccins
##ageert
klim
##athion
hiv
##imes
ru
getroffen
plaqu
Bi
ee
verwante
ventrikel
pandemie
schizofrenie
##ylogen
Even
Urine
infectieuze
percentages
kostenef
Vergeleken
##ocomp
vetzuren
##biopsie
epilepsie
##retie
pasgeborenen
transfusie
ras
##its
##oïne
genotype
##azep
gebruikelijke
##alic
EB
hydrol
VEGF
##stat
uitvoer
variaties
droge
##elk
verworven
verbl
##gave
theoretische
##versch
natuurlijk
herhaling
##urgitatie
Glycemische
##esium
zetten
2D
betrof
toegelaten
chloor
zwakke
##URO
oplossingen
PIP
##ope
##gorde
voudig
gebeurtenis
verlagen
associaties
wetenschap
nitro
eierst
##gewerkt
microbiële
zoogdieren
uitgest
toxische
NMR
activeren
GR
##rex
hoogst
cytokine
overigens
##eende
pols
dergelijk
gemodificeerde
gewoon
proberen
cath
extub
##wekken
SK
principe
medicamenteuze
beadem
##ontin
uitgesproken
raad
voorlopig
membranen
##zo
steroïden
etn
##ructure
roze
wijd
verdwenen
pyl
symptomatische
Links
biomarkers
treedt
vr
Total
NEG
##net
Momenteel
inmiddels
afst
georiënteerd
grens
hoor
perfusie
tyrosine
onderw
##LY
kno
fracturen
mer
##vig
houding
TM
apparaten
Linke
suik
vitale
Mono
107
antimicrobiële
bevatte
2005
Verhoogde
China
##acu
Hosp
Kinder
begeleiding
setting
merk
2007
##iforme
ultras
##back
endotheelcellen
##osynthese
TB
##iasis
bijnier
ondersteund
poging
##vaccin
##verse
celcyclus
##ransport
circulatie
##vaardigd
waarom
EKG
onderzoekt
##oglyc
prolifer
details
##uz
verdragen
##urt
opslag
##kundig
polymeer
##draag
abces
plaatsvinden
##spatroon
katalytische
moest
TA
pil
reconstructie
leggen
gebruikers
omgekeerd
##feïne
Stool
ontslagen
Doorgaan
EXAMENATION
diurese
Sur
Gem
gynaec
##asker
hersteld
Balance
tol
Blijf
besliss
erytrocyten
echte
toeg
decennia
elektrol
GAB
##DM
heb
##eemt
##vatting
industrie
histopath
elektronische
##ellings
diffusie
koppeling
vermoeidheid
hulpmiddelen
##antagon
cholec
asymm
Waarschijnlijk
trac
Init
betrouwbaar
##atin
compartim
tube
groeiende
bundel
ventrik
##bronnen
toeneemt
druppel
##pletie
Spec
ziekenhuisopname
assemblage
tib
##tige
##alys
##atio
spi
PSV
bevindt
concurr
voedingsmiddelen
veroudering
##tes
echo
manieren
serot
moleculair
OSH
##sterkte
preoperatieve
##III
grof
benen
LA
##K1
omvatte
onderworpen
2003
Aut
hybride
##osinof
gekomen
##nelheden
maart
toegewezen
tegenover
dod
Status
##orescentie
##paraat
erfelijke
spanning
CONT
analyseerden
##othe
108
verslechter
Borst
inspanningen
##lichting
geladen
resulterende
artro
monoklonale
##inese
##acte
Ons
##adin
##gevoelige
pediatrische
drempel
inse
adap
##ork
##lax
afgesch
cardiomy
##iserende
##ctus
osteopor
##lijsten
uiterlijk
Flu
dar
bloedstroom
##stral
anticon
willekeurige
waarnemingen
dend
##acer
Lever
##opril
zeg
evolution
Des
vererg
##krijk
voorafgaande
resulteren
2004
naarmate
bul
nadelige
Ob
vermeende
Hel
##tische
overnacht
##speriode
silic
bind
isot
Geschiedenis
##elcel
##°C
endocriene
##ara
histologisch
##weefsels
infiltratie
project
##ober
lood
immuunrespons
herkennen
Buik
##beta
##oplasmatische
interferon
gewijzigd
Daarbij
preventieve
##opressor
##osomaal
manip
simulaties
IMP
##lijnen
##asten
schadelijke
##ringen
behoeften
Binnen
moder
heterogeniteit
##ollings
biologisch
neu
fouten
##iod
profylaxe
tabak
cat
##kn
vaardigheden
##gend
gedifferentie
elders
steroïde
retrospectieve
antide
sensitiviteit
prostaatkanker
2001
exper
##ware
verschijning
Full
##dagen
Verminder
fenyl
##GS
bindt
konijnen
massaspectrometrie
comorbiditeit
##roken
delet
andro
introduc
##iften
##telijk
strom
##ylzuur
RD
NGT
jongeren
verwachte
definiëren
VENT
##xine
2010
Alleen
bevordert
resistent
gecode
##OUN
gr
My
kappa
##amb
Lang
2002
##inet
##inaal
2008
achterste
middag
##verzorg
National
partner
Ox
##hen
##angt
arch
Ele
transgene
##urgen
gezuiverd
##cir
##lycer
Vloeistofbalans
handhaven
aanvaard
##keten
##loze
ruggenmerg
##lopen
##VER
Afgifte
Can
##raakbeen
##CL
##bestrijding
##ilaterale
longitud
Parkinson
gestimuleerde
aud
april
##diol
##oped
doods
##amil
deed
gestandaard
verandert
##ijen
Qu
New
##ikking
nul
ingrepen
##organisatie
gestimuleerd
##ket
##ratio
##ateuze
afwijkend
2006
##inol
vervanging
geëxtra
slapen
maxim
nationale
##idende
immunore
NEURO
fragment
plannen
geschatte
astro
reumat
micros
##ysacchar
##techniek
splitsing
voorsch
visu
Utre
##ycardia
Lev
waaruit
daarentegen
##egen
##ilt
NR
progest
schema
app
##opten
misschien
meisjes
##danig
lijden
oct
oefen
##36
pathogene
Die
##PP
##MG
##lenol
##schema
PNA
angiotens
tevreden
speeksel
krachtig
okt
##orro
##otherapeut
cluster
instrument
NSR
opvallend
rapporten
epid
CD8
maternale
pericardiële
fasen
microm
beë
##activatie
war
database
##ties
##alende
196
verblijf
##ario
##stitiële
perioden
##hes
Ref
##ocale
ACE
Utrecht
##ijne
vermoedelijk
comfortabel
##urend
instantie
cyan
##lict
slijmvlies
sterfgevallen
Albumine
liganden
hernia
overleven
##kosten
##vloeistof
subeenheid
plotseling
##iepen
##keken
gewichtsverlies
tolerantie
##antia
ontwerpen
hemoglobine
gedetailleerde
##paren
bedre
Mar
wester
systematisch
nat
abort
##ovirus
Rotter
##yk
perin
persoonlijk
FS
##irurgen
toenemen
##omonas
oktober
auton
bedrijf
getolereerd
stier
pal
##illa
##orting
##product
synaptische
stimulus
schedel
fab
Contrast
verzeker
##onat
Herziening
##populaties
beslissing
##nummer
Rotterdam
oxy
sect
##lad
correct
##ieur
##itine
voorspeld
koolhy
##aant
##ïc
##illin
##ypes
levensduur
regurgitatie
conj
situaties
ondersteunt
juni
bewegings
responden
nuttige
sleutel
##rig
sats
bloedg
draag
Nu
klonen
Nieuwe
##umadin
glucocortic
##choline
##isende
Austral
geac
pneumonie
EXT
##aking
##itect
fluoresc
versie
Gebeurtenissen
##streeks
##ofen
##omegalie
##ette
intensieve
odds
T1
Universiteit
Ros
toezicht
gladde
##TH
bloedverlies
persist
Blijft
##weegt
Ang
GABA
Intra
persoonlijke
##conf
##geneeskunde
dekking
##leur
afhankelijkheid
laparoscopische
##ikend
##eest
excisie
overgedragen
##brile
angiografie
regime
##viseerd
specialisten
##kige
##latine
effectiever
Gast
##urk
##ifiek
##MM
endoscopische
##fectiviteit
woorden
autofag
TSH
##strueerd
##raktijk
##LS
schouder
##lopende
PERRL
3H
##dehyde
bor
agressieve
bewegingen
aandeel
##lasten
Insuline
drager
##beleid
immunologische
##vezels
vlucht
sedi
170
Hospital
extrem
##sec
tijdelijk
##vastatine
Ech
fosfolip
bemiddelen
cytoch
jongere
defecten
x1
##istisch
verschijnen
immuunsysteem
ped
gelabelde
period
##oft
GT
reflex
##lok
##spieren
corticosteroïden
borstvoeding
PET
##temperatuur
subgroep
immunoglob
mislu
implantatie
PEG
##ardiale
verwachting
item
##DEN
chirurgisch
bestudeerden
circulerende
varieert
recombinant
hangt
temporele
##progressie
##oude
##onnen
LO
##29
##oeling
fibrin
##iper
cafeïne
PaO2
episodes
geleverd
delta
fund
##part
HCC
olie
alve
##holte
recidiverende
##oleculaire
leef
##abiel
cellijn
GP
##ners
cirrose
##HN
Arter
ingeb
Chinese
eeuw
ader
dram
##oeien
actine
samenhang
##BL
stra
draa
ontkent
begint
omgevingen
##ialis
dip
zink
##ocytopenie
regelmatige
stere
##hyd
1995
dochter
ASA
##liot
1998
Eerdere
aanvullend
##ritische
Rede
##maken
##glut
toedien
##ventiel
INDICATION
oversch
##emm
##ificaties
##neemt
perme
voortgezet
levensvatbaarheid
HYP
duoden
inh
##wen
##chromatografie
##osition
fentanyl
##omein
multidis
laagste
##arker
Pr
sen
chromat
GM
##sine
##sub
##hep
geclass
soft
verwijzing
ingew
zee
korrel
afgest
##oncentr
subs
wens
ziektebeeld
##necrose
wellicht
##gegaan
##optim
rapporteerden
deficiënte
epith
LEFT
Wer
##halamus
NamePattern2
##index
##ationaal
misbruik
twijfel
##iceren
Recent
##icarb
vaststellen
betrouwbaarheidsinterval
eut
##nemende
##overleving
Rhythm
##verspre
correlaties
prednison
##tegen
zinvol
##IO
necrose
verslecht
gespeci
##sion
nummer
##temin
115
##opro
colitis
hybridisatie
##arde
MMP
beneden
gescre
BAL
1996
HDL
werkings
eosinof
mei
##auz
##ulitis
navel
##arter
dihydro
lactaat
cyclo
Prog
##apsule
modulatie
scheiding
1999
tanden
conformatie
jaars
mediaan
sensor
lymfeklieren
warmte
geopereerd
##sg
##rition
SER
##umen
##perfusie
trip
tweemaal
intermedi
werknemers
besluitvorming
Familie
apoptotische
##unction
RP
##WS
BB
##umes
radic
##mmon
indruk
adequaat
onderling
afscheiding
kankers
Analyse
nicot
##icap
inderdaad
bevattende
vervolg
monocyten
kolom
##anim
##plaatst
oedema
Temperatuur
IE
ABDOM
Hoogte
113
spectroscopie
intrinsieke
uiteen
besteed
Onbe
voeden
1993
Academisch
verdo
##ankelijke
pneumon
epidemiologische
partiële
##tember
ongun
Sal
##ition
ure
##iatieve
omk
with
overleg
kiezen
november
1994
eiland
##ieniveaus
fundam
kenmer
september
mobiliteit
##moleculen
##criteria
gevestig
Imp
##mptomen
##eutische
##opa
IgM
reageert
totdat
casp
##oratorium
1992
Note
besmetting
##liothe
herp
consol
ontstond
injecties
bijdraagt
Ma
##dens
NSA
##opre
##ruit
energ
Vooral
retrospectief
##spraken
tax
##HA
##begrip
CONDITIE
Neutsen
##ipatie
geavanceerde
doodsoorz
pyr
diaf
Verdere
Man
litte
combineren
film
0001
placenta
##ijfer
##ifen
##pr
##uss
##essie
##olie
interstitiële
2009
waterige
Volksgezondheid
numer
##igne
indirecte
cit
overheer
schapen
bereikte
leeg
IJ
transform
contractie
##strategie
kwart
terugkerende
ara
##asieten
herkend
Interessant
VER
##delings
##opende
trekken
geïnjecteerd
stijgende
##cholesterol
Sec
##etro
zodanig
command
passende
verpleeghuis
goedaardige
aangren
zoveel
perox
murmuren
E2
##iders
##alg
verloren
respondenten
kwantificeren
##etectie
RIGHT
zorgverleners
cytotoxiciteit
genezen
eten
SNP
##ILY
landelijke
simulatie
##pressiva
atherosclerose
##ASON
##IAL
hemodynamische
diss
typen
##ylact
Afrika
##iak
##cijfers
##OF
zegt
enzymatische
veilige
propofol
##verschillen
GA
aangeb
##odus
nanopartic
Test
##hou
##nal
##fectieve
incisie
fysiek
temperaturen
iv
##aft
neurode
maligniteiten
##RY
gevoed
##aamd
##verzorging
##ascular
loopt
tandheel
gezamen
mach
diastolische
carot
##oblast
rectum
##ördinatie
##bc
tijdelijke
CKMB
voorbeelden
##fibrill
bloedcellen
Date
klo
discrim
BUN
jaarlijkse
geadviseerd
##zaak
##45
hex
1989
##stro
opbrengst
##onderzoeken
malaria
ontdekking
identiek
kation
doss
verpak
bewegen
aanb
##ips
volgorde
geëxtrah
aangevuld
strept
diagnostisch
cerebro
varieerden
hydrof
Ongeveer
CVA
cran
##ralis
##MT
deden
voorheen
##ippen
fundamentele
Psych
Zie
##parameters
450
verstrekken
##routes
##familie
##umab
komende
Medical
taken
##ize
##NL
virul
##waarts
sites
draagt
nanodeeltjes
fylogen
##seg
800
##oping
miner
##oedeisende
geclassificeerd
allergische
cry
##roforese
mediale
perspectief
Nederlands
premat
aantrek
INP
caus
##hydrogenase
##synthese
##ios
microb
gouden
##RD
verschilde
kankercellen
##technologie
##idon
##able
##letten
necrot
##anties
##ragers
NSAID
##roei
samenhan
##cinomen
gewrichts
pad
##kans
alb
##leb
##lact
WHO
complexiteit
bevinden
##reef
reproductie
graft
consumptie
jongens
##lot
##waardige
influenza
Britse
vog
profiel
REASON
tachycardie
lussen
celproliferatie
sterkte
commerciële
vre
##sluiting
farmacokin
##stijl
percutane
##arg
##opathische
opdrachten
Gedurende
fibroblasten
##uls
##CE
transplantaat
##etijd
##gebaseerde
ventrikulaire
Nutrition
sigar
weerspiegelen
kortadem
gemuteerde
##35
kritisch
gedefinieerde
US
hap
##aatregelen
endometrium
##flex
##cess
##yleen
##agland
verbeteringen
stri
foetus
gecorrigeerd
bindingsplaat
Cent
eerstel
##rolog
Hemat
##INDING
DIS
##amenstelling
intensive
curr
##intens
##klep
uitslagen
tumorg
##ameth
vest
Sputum
glutathion
creëren
##vatten
##sterfte
ASS
verschilt
Stap
vide
##hylax
hyd
##dend
zover
suggereerden
Hierdoor
Hierin
schijnbare
111
reflux
rechtstreeks
vertrouwen
voortplant
longem
aanged
##mcg
##eta
opgele
##ettingreactie
aortaal
##EMI
commando
antioxidant
uro
fibrillatie
categorie
##R1
##houdend
##gels
##epro
System
##componenten
##arr
schattingen
gekoppelde
1997
Ct
pe
##iculum
##benadering
ND
galblaas
##veis
reactief
##functies
produceerde
categorieën
academ
verzorging
##enario
foll
##transferase
##lipidemie
##schuw
Doel
opio
berekeningen
##hex
groene
nadelen
deels
##lingen
term
ball
compens
eigenschap
##vleesklier
locus
verslechtering
rijping
bestand
##ester
##ICE
constante
Ga
ene
##matie
cytokines
##bine
markt
kritieke
kristall
extract
TS
##don
##ULT
112
reguleert
structureel
##drukking
elektronenmicroscopie
##immun
berekenen
##complexen
LP
cognitie
osm
aangewezen
2019
ieder
responsen
NOT
veelbelovend
Calcium
zaad
##erecht
##stadium
frontale
clusters
HBV
##eters
identiteit
evalueerden
fyt
##OOR
laboratoriumonderzoek
Myc
##oyl
114
prikkels
Klinische
SU
##ieg
##inefrine
##iwitten
Respirator
##eptiden
CCU
input
##uurde
OS
##klinische
opget
appen
verle
bijge
goedk
idi
##dubb
##alicylzuur
##mal
zoutoplossing
##enis
##sende
oriëntatie
occlusie
bezorgdheid
##uus
##otoxine
conditie
Stat
adsorptie
cytotoxische
FAIL
bur
but
koude
jaarlijks
opkomende
mw
##dikte
GL
rand
##lokk
##acarcinoom
vrijwilligers
##atica
proton
1991
lineair
##tijden
##yste
##isu
Serv
klacht
##oplastische
##sland
##arin
SOB
atypische
Net
uitval
plasmam
Ro
antist
##ophila
glutamaat
138
##oscopisch
##ielen
##oedeem
psychosoc
##otiden
FIR
bip
voorzien
##blij
amplitude
ind
##arynx
##sulfaat
##stens
##oenen
FSH
##ican
lichten
pg
vóórkomen
##trekkingen
deelname
ovarium
EL
##inium
LR
##genoemde
PAIN
hematopo
wachten
RF
Tach
##ames
herstelde
pig
##teit
vector
##menteerd
PRBC
osteoporose
acties
##med
mijn
##onchi
##bloeding
kunstmatige
apothe
mitochondriën
zuigen
##oste
##ulling
##down
##trouw
##diging
##lichtingen
sperma
##deelte
##ATH
##etine
slacht
SL
ziekteverwek
gevalideerd
prenatale
tijds
DD
ronde
Diab
feedback
Besch
Derg
##cardi
Vereniging
##pering
##irium
gezond
methodologie
gemetastaseerde
##duceerde
gebleven
##leten
##tho
##ationeel
dorsale
##ink
##gerichte
##vallende
veg
aankomst
beschrijving
##ivirale
aantoon
##deelden
BID
1987
##culturen
dwz
##spercentages
vermijden
Chron
instabiliteit
FAILURE
##astom
recombinante
genaamd
gelabeld
perfor
##plaatsing
##bedre
zitten
lumbale
ingewikk
aangeboden
longembol
WT
##oemen
##ilstand
Volg
ethische
Onbekend
Herh
##zel
##meting
galact
##lia
##rar
MCV
uitput
moeite
BE
UR
hct
placeb
vak
nader
137
##yleerde
TLR
prior
onbehandelde
chond
Stre
gevaccin
##strictie
##ssnelheid
INF
##viezen
##ieniveau
immers
Ide
135
##osfor
herinn
aug
spuiten
dringen
spreuken
mu
omgezet
##peritoneale
vroegtijdige
maakten
##ada
2020
##nat
obstructieve
##udingen
bewon
##opauz
##scill
combinaties
fragmenten
SN
##lab
LT
##schriften
cocaïne
dië
##NARY
##hulp
geacht
##ariteit
##stenen
winst
opzet
##utomat
eierstok
Sm
dissectie
residu
Zelf
##da
##ellers
werkelijke
##processen
belemm
welzijn
conclusies
SF
spoed
scherp
verwaar
immunosuppressie
eval
adhesie
116
##upt
##biologie
Elekt
synerg
vrijk
voert
##eerbaarheid
##annab
##hylaxis
Cuff
##akelijke
Sign
etiket
trials
inwon
ziektegeschiedenis
##ferentieel
neo
##activiteiten
spermat
1988
##rapport
cad
herzien
vergelijkingen
##ivatie
##ART
heterogene
aspirine
325
westerse
##fact
bloedvaten
##iumzuur
C3
Capsule
sta
bloeds
testosteron
##LOW
alvleesklier
weig
##sels
opgeroepen
nod
zure
##rest
divert
gezuiverde
hormonale
INDICATIE
naald
##aw
##itair
geoptim
spinale
##reening
##ectine
illustreren
FINDING
pup
##ato
##jaren
##technieken
##loper
##wijzigde
bu
inten
1985
bèt
plaveis
adjuvante
START
angiotensine
Mild
fung
##beperking
##stimulatie
HEM
FIRST
gedocumenteerd
klimaat
optimaliseren
verlos
sclerose
##otorische
##istratie
##obil
hematoma
##auw
voorbehandeling
##scopisch
colorectale
Wereld
complete
reageerden
bif
sera
##UTE
bekijken
##hyleen
BD
##gevonden
perinatale
bedekt
Vijf
Stoel
##unctionele
blaasjes
pak
##mede
veget
##ulatieve
Creat
radicale
Studies
eviden
longitudinale
bood
can
mono
Medische
juli
##ismen
##ementen
CRP
##aldehyde
antwoord
incontin
sounds
FT
aangrenzende
##gekeur
subgroepen
##oci
radiologie
vinger
kraakbeen
##iform
buitenland
Gl
##betering
##rea
Et
Beweging
inval
reactiviteit
Dergelijke
GS
##educ
##urine
initiatie
signalerings
pijnlijke
zwangerschappen
dimens
##ancer
adaptieve
cef
##yne
##schatting
pathofysiologie
oscill
##rassen
##verbindingen
##opy
SEH
##oots
##acerb
gradiënt
##atalys
ABDOMEN
##ryl
donoren
Pseud
##ION
##agyl
plaatsvindt
voortdurende
##utaan
1986
vaten
##elings
##ivan
tom
antibiotic
Endot
congenitale
##DER
cytochroom
vancom
Deel
##stemperatuur
zorgt
2e
uren
##otrans
comment
##voering
cycli
financiële
academische
##hand
##matische
Vancomycine
kortademigheid
##idend
Dis
##iliaire
##usculaire
##leeft
geluid
RRR
CVV
PLAN
retinale
##gezondheids
##verw
kernen
subcutane
ht
lim
Clin
2011
praktijken
##ositeit
Wester
anticoagul
##idt
fasc
schok
postoperatief
Controle
Eerder
epit
femorale
Gez
lith
subeenheden
daad
demon
uniek
##65
##ake
##smaatregelen
moderne
object
##ferentiatie
##agulatie
##eenkomst
prostagland
##percentages
##ouwd
PAC
TID
##leren
##verwij
weder
SLE
innov
PAR
geconserveerde
uret
##iatief
onregel
##doet
##igenschappen
##mmers
oppervlakken
Atr
les
##klacht
elast
HEAD
Ou
inbegrip
neutrofielen
nak
exacerb
gegeneraliseerde
beslissingen
Wgt
##atho
schak
##diensten
118
translocatie
karakteristieke
bijgewerkt
toet
placement
Plas
gescreend
nM
peritoneale
poliklinische
PIV
pylori
dik
veren
##elligen
afgeb
extracten
jongen
TEC
##oien
##grad
nale
Inc
1900
induceerde
redelijk
##ocytaire
##remmende
Tube
Wt
sal
geïnform
epitheelcellen
bevre
suggest
##ovasculair
zwangeren
##oproteïnen
daags
Im
##cellulair
routinematig
bedraagt
##ociatie
hartziekte
contacten
farmaceutische
mammacarcinoom
volde
##berg
##tale
pathogenen
samengesteld
perman
##ureau
##ropathie
ectopie
gar
##absorptie
##port
toestanden
rotatie
equiv
Rep
overeenkomt
T4
##raine
##rief
##hyreoïdie
getransp
alcoholgebruik
relevantie
apo
tubercul
##ME
##acillus
os
tan
shift
##33
individu
gingen
overeenkomen
##chymale
gesproken
organisme
evolutionaire
modus
##erving
Antwoord
consistentie
fosfatase
##hn
##mot
staken
##voeren
levering
##behoeften
##PH
comput
Prophylaxis
verschenen
chirurgen
abortus
##delijke
119
West
platform
So
blan
##lettend
vlees
kol
objectieve
Aanvaard
QT
hemodi
Kortom
FINDINGS
niets
##hoe
bestudeerde
lading
128
multic
foliumzuur
##onucleaire
Br
##raktijken
afbeelding
inhalatie
INPRESSIE
x2
##utatie
splen
Vergelijking
IgE
##amycine
analytische
##dynam
Vit
##ca
##verre
voorwaarden
Daag
mesen
##ukary
meisje
Cons
##OV
##weten
geïdentificeerde
fixatie
Medic
##receptoren
handelen
1e
Cal
Gram
##no
symmetrisch
##oxiciteit
##lading
ammon
Nur
analogen
goedgekeur
Huis
##vocht
##iltratie
GEEN
##BM
##amol
##best
gonad
aids
##OG
zwarte
letsels
overla
tran
multivariate
Ty
##leeftijd
baarmoederhals
SI
##sge
##BR
Metoprolol
##alium
Multi
epigen
gelijkenis
opw
syndro
ascites
link
bemoe
##otrof
bs
koper
Magn
P4
dosisafhankelijke
extreem
glas
MN
CZ
Ul
vaginale
SQ
##oid
##hyp
Mo
##col
Respiratoire
##HE
##arynge
MCH
rijst
kortere
nakom
liqu
paden
##epsis
COMP
sigaretten
psychosociale
##ompens
verduidelijken
LM
kost
therapietrouw
passend
##mus
##otrope
123
verzonden
verlengde
mesenter
reageerde
cytoplasmatische
IM
kinetiek
demografische
##afwijking
##giën
##ody
ontbreekt
Maand
##ASE
indicatoren
caspase
armen
tevoren
stad
geleide
verzamelen
Mn
##HS
gemerkt
Control
neurologisch
TPN
geëxtraheerd
Name2
Comments
##verschijnselen
conver
frequenties
clinici
erkend
##stests
##ozygote
##itaal
##biqu
HPI
##minste
stralings
gestandaardiseerde
##iprof
vergelijkende
##aseerd
onthult
spectra
lumen
daadwerk
pijnst
verzoek
suppletie
uitvoering
meldt
thal
##eep
##zaamheid
geboortegewicht
chec
bovenstaande
dup
##cub
##fische
verstand
diur
##acteriële
geconf
##hermie
random
##oonde
biologie
mutagen
eerstelijns
NSC
##esse
uitscheiding
##ventriculaire
hypoglykemie
##ish
##lect
##ijfheid
asymptomatische
agonist
balans
##dre
##arditis
##wijzing
Aanvullen
verontreinig
spectrale
diepte
##meel
ongewijzigd
nag
117
##iniging
indicator
meningitis
based
bruik
cis
##profiel
klassen
prikkel
sac
##istr
immunode
##yleerd
##omyel
wijdverspre
Lijnen
Oorzaak
opgetreden
geën
##omal
prothese
##ysaccharide
verhogingen
films
terecht
##arning
##wan
geïncludeerd
tim
commissie
celoppervlak
##urosem
beoordeelden
gerecht
##stitut
globale
##xt
##profielen
Alert
Arab
##ateau
nierziekte
Sociale
##adigma
##beerd
parasieten
Kleine
opleveren
geblokk
2012
SPO2
MHC
want
##bp
hiermee
rs
minstens
##bleem
AKT
##urosemide
##schalige
##veill
toxine
##oprazol
voorspelling
Daaglijk
##vere
##iotische
##sil
Geb
##front
optimaal
enorme
##breuk
lamin
##iteren
embolie
##bruari
elimin
nakomelingen
afe
computertomografie
Line
##ëro
voorwaarde
124
##aciale
jeug
##aarten
##kkage
##basis
gedaald
atoom
prestatie
publicatie
verslag
februari
overheid
##azepam
##richting
0700
aldus
kran
##afgifte
gezin
angina
##ield
##IJ
alkalische
autofagie
reanim
uitdrukken
abx
wijzigingen
onderwerpen
Chirurg
cytokinen
HISTORIE
Bio
gekleur
##grens
extubatie
##vragen
##NE
verp
##ytisch
##plaatsen
##informatie
##sA
##geerde
verwer
##oppen
werv
antivirale
##ervelde
gemeenschappen
Ideaal
##salicylzuur
degeneratie
##zondere
beëind
Beg
filter
##eceptor
Ni
##leet
##ask
##loopt
tenminste
emissie
Warm
derivaten
##vice
anterieure
FO
##ory
131
exacte
radiologische
fenotypische
Besteld
##armoede
ADP
##ATED
digitale
Sodium
139
##GC
beoordelingen
Stand
klaring
ACUTE
Diagnost
Elis
triglycer
##abiele
##ituatie
##ocatie
PCP
kiem
fag
##3K
##steen
gevisu
chromatine
μm
##lat
eukary
##ott
geautomat
##jun
##differentiatie
zorgvuldig
suïc
##prestaties
ana
Belangrijk
rugpijn
cumulatieve
rub
##37
##ronteerd
bibliothe
temporale
LINE
cAMP
hor
endem
belangstelling
aanbev
##avir
subclav
LAD
pseudo
##inum
testis
derhalve
##coëfficiënt
##tings
##lectie
##ogast
antis
oesofag
kwalitatieve
##oide
epidemie
macrofaag
##amethason
##orfe
##loog
##malige
orb
ademhalingsondersteuning
bruine
flav
vragenlijsten
##ofluorescentie
Goed
##resectie
mitrale
Mogelijk
ongem
dok
Gn
##oning
manifestaties
dwars
PKC
intermitterende
##fibrilleren
Bas
lies
hypertrofie
##arge
beurt
sport
##regime
ham
##ascade
chromosomen
THE
toepas
verdient
##ïden
differentieel
Extre
##opauzale
brengt
hx
ms
trombocyten
##hanasie
polymorfisme
conservatieve
biofil
##isplatine
TECHN
##nium
##leven
provinc
##ike
gestructure
multif
agent
##ificeerde
somat
##rachte
##ilar
belast
preparaten
getra
##emand
dataset
##alk
##aggreg
##ORM
350
afzonderlijk
corp
impliceert
Arteriële
vancomycine
pent
migraine
126
##romatische
voltooid
Staphyl
bevelen
uitgescheiden
##idop
Inlichtingen
verhoudingen
drinken
Acet
##itectuur
##ness
voorloper
##oseks
eicellen
Cro
recidieven
gespecialiseerde
##DP
##seffecten
dodelijke
TTE
WNL
##fosfaat
Gra
LLL
dragers
##oting
levensver
cortisol
segmenten
empirische
dui
141
achteruitgang
overmatige
##nect
fysiot
integriteit
Ste
riv
##ipar
hersch
##ormodus
##draat
bladeren
Ken
##ijde
controlepersonen
##ized
##aalf
Volgende
hematologische
hoorn
coronair
##49
kinetische
HPLC
beroep
exogene
verwar
##arcoom
observaties
alveolaire
##ofib
verwant
##interacties
progesteron
gevo
allelen
hepatocyten
antagonist
lijst
ARTER
config
geconfronteerd
##anders
##can
##maten
##oename
plasmide
dimethyl
Western
##stuk
verdwijnen
EXAMEN
woord
verhinder
T3
145
##sequent
##but
##ideren
##ora
onwaarschijnlijk
##kopp
hetzij
##iduen
##abd
##assay
##rijden
gepland
OC
versterken
uitgangs
##dukt
HCO3
##iton
kwad
##ONIC
##blad
lymfeklier
##tumoren
##omgeving
RDW
##ti
##isis
##ots
hoeverre
perifeer
thi
##gekeerd
arbeids
plasmaconcentr
Zes
resulterend
##uterol
perceptie
##orens
ii
136
levensbedre
##werkings
longziekte
commentaar
GO
##odont
DAILY
consolidatie
yo
##intensiteit
modellering
lept
IgA
stijgen
publicaties
ubiqu
##plas
##emon
parameter
acetylsalicylzuur
psori
immunoglobuline
zoon
##ionaal
volgde
suggereerde
benigne
implantaten
optra
veroorzaakten
Not
tun
interface
infect
##wekt
##gevende
IA
ak
gezins
##ineresistentie
Meerdere
##benz
ingesteld
##itmen
##herstel
aangetast
aanvulling
landbouw
##waalf
##aff
American
eliminatie
reumatoïde
##IB
##alsnog
synthet
MSC
°C
##vormingen
Aanwez
##lanteerd
ontwikkelt
hartinfarct
naleving
implantaat
verwondingen
##okines
neutrale
##frag
nanoparticles
vernauw
bewaard
##anger
ecologische
SEM
si
##orfine
adenocarcinoom
##WA
anastom
subjectieve
##hanol
Ap
dyst
##QU
coördinatie
auditieve
##angsch
##adigd
partners
Aanvaarding
amf
vatbaar
##iprofloxacine
##wonden
daarvoor
##derivaten
##ibilisatie
Grote
Ventil
xen
microtub
##monoxide
eisen
##hersen
##rift
##rubine
banden
##iciden
mogen
##spatronen
geklo
terugtrekkingen
vergemakkelijkt
meldingen
ok
wort
Balans
##slijm
specialist
Besteldatum
FH
BA
##agit
zelfm
onmiddellijke
Ital
vierde
longfunctie
##IVE
As
regelen
Temp
placebogroep
##onderd
##graat
besp
Infectie
##yreoïdie
hechting
BIL
Financ
##1A
screenings
129
##otoxiciteit
gewenste
zijk
##sign
##ales
bloedarmoede
samengestelde
##chtere
myeloïde
##ournal
zak
tekst
##DC
professionele
modificatie
Pneum
##odg
borstbuis
OM
ondersteunende
##ook
langzame
curve
##aseremmers
Gastro
Dros
##48
Inf
MCHC
Staphylococcus
palliatieve
pogingen
##ves
toegest
uurs
##ustus
##ius
driedimensionale
Art
replic
uiterst
instrumenten
Service
pool
##digende
##INS
verdraagt
congest
linkerventr
##schak
trends
voorbereid
geïmple
Naar
constitutie
verklaart
symmetrische
URINE
##ley
NHG
verward
versterking
tachyp
presenteerde
doorgaans
GTP
zaak
##itter
invasief
##verh
##atrie
loci
##icol
gevorderde
Toler
serine
individueel
##riterium
##transplant
##uronen
afbre
sterker
##iotica
ventrale
CZS
iemand
##vige
##antoprazol
doelstellingen
semi
Zosyn
##oens
##riep
2015
onzekerheid
georganis
gewaar
typisch
fracties
##lootstelling
##chloor
##regio
oplossen
Belg
##ophed
pathologisch
superieure
Band
VI
cisplatine
fles
membra
Nij
kleding
geslachten
insufficiëntie
amyloïde
versnel
determinanten
learning
##odon
Nursing
ICD
Tegen
dalen
zet
voedingsstoffen
zone
##ochemische
blokkeren
Respiratie
geperfuseerd
target
##OUNT
sin
toenam
permeabiliteit
##otro
Drosophila
gekwant
aggregatie
celtypen
deletie
Hum
##lich
vetweefsel
##stammen
##laint
vergrote
axiale
gecodeerd
MON
transcriptiefactor
protocollen
uitgeschakeld
##digend
dox
lieten
Reageert
gesim
capillaire
atriale
##NOS
gestaakt
##aadpleeg
##icusp
vacu
##leggen
zwangerschapsduur
posterieure
lot
waarschijnlijkheid
kwantum
Sim
alp
toets
drukken
kwantitatief
kamerlucht
##fractuur
ili
augustus
Si
AMP
immuno
Deelnemers
MG
bos
##orrag
lus
lute
ortho
immunisatie
Hgb
##55
uitwisseling
goedaardig
##bepaling
ontvangers
epidermale
conclu
lichtver
selectiviteit
##oof
wilden
precurs
Scale
encefalopathie
treden
ziet
geweld
serotonine
acidose
Bep
ontvingen
opleid
allen
##thetische
hield
antidepressiva
##centra
gewrichten
##bacter
##ged
produceert
Elisa
vi
##ofage
##iety
interviews
##ete
##rust
##ervatie
draad
technologieën
EGFR
uitputting
OOB
toenemend
voe
##angenconf
##losp
Perif
700
##lid
Prim
volg
thoracale
##oringen
behoort
profylact
verniet
cyclische
##oxidase
RLL
katten
MAPK
fx
verer
##rafie
getoond
vanco
##edu
normen
##VEF
2L
##icide
##oty
patch
bestraal
verkle
suiker
berekende
traden
##braken
##RIC
##ijt
euthanasie
##odgkin
reguliere
onderdrukte
moeilijke
meldde
herpes
voork
edema
##aarden
##otisch
##ipro
biosynthese
Totale
Dus
longembolie
liquor
Dem
leken
##ugh
ADHD
##opressine
Den
overwegingen
lymfaden
2016
##KA
verzwakt
##RACT
gelijke
nachts
##indelijk
Name3
consequenties
classific
identieke
femur
expert
infrar
pacem
moesten
chondro
##bu
overwinnen
NST
opnam
analoog
Diabetes
##N1
##verwerking
opkomst
##loïd
voorschrijven
##rijving
cytoplasma
voudige
##uif
##buik
##43
robuust
diafrag
##emde
##effecten
proteïnek
Lines
versed
##regul
rijke
Lumen
percept
geconstat
virulentie
incontinentie
Positie
##ras
##naire
##voud
PCA
##visie
barrière
##stoename
items
142
optie
interferentie
melding
##ruimte
SKIN
spp
##aans
##apping
##ronidazol
gewogen
ruwe
mmoll
CLE
SOD
fruit
##GH
##blok
vetzuur
##oons
##behoefte
##inosa
waardevolle
bezocht
numerieke
vatten
##ogenen
##gaven
Soms
explic
ha
chromosomale
##cellige
GF
reser
##monella
aangeduid
MIC
gelokaliseerde
COX
Chief
##stilstand
##ometer
toeval
150cc
hormonen
plaveiselcel
voorzicht
geboden
133
oppervlakkige
bevestigden
halsslagader
aantoonbaar
educ
##tral
stijgt
lief
decennium
inkomen
##ITI
geprobeerd
angiogenese
##current
telefoon
fos
pm
geres
Pb
carbox
##omyces
##weken
para
retentie
datasets
autonome
ruis
##gez
houd
geïmplementeerd
##diende
##osale
##ulerend
ATRI
exon
##obstructie
##ELL
Clear
##maak
##NO
schrift
tandheelkundige
RCT
##wort
beant
gecoördin
##ico
LVEF
Natrium
##gentie
##stenose
SEP
aflever
multidisciplinaire
voorbereiding
Lactisch
##yel
opmerkelijke
##omere
##streerd
schimmels
scenario
Ger
trombus
gif
stollings
##ramm
##vas
inhib
evidence
GnRH
voorkó
put
ves
stelde
overleed
Associ
verkrij
blokkade
Neonat
RECOUNT
##ankelijkheid
hepatische
terugkeer
hypothalamus
agonisten
Fibrin
hydrofobe
Tcurrent
robuuste
##potent
Nog
##atch
profielen
minimaliseren
gedeelte
ingedeeld
kippen
Hz
##ria
121
ballon
Po
consequent
##ENS
##ills
mast
neuropathie
posities
##ctu
coördin
verplaatst
##celt
spannings
##dood
kwantificering
Sup
##bewegingen
Toegegeven
ureth
nor
doseringen
##inesp
NamePattern4
introduceren
HL
verkennen
##ida
uteriene
pijnstill
##zucht
##ecifieke
vergroting
##rekte
##aseremmer
Mid
kortd
##bindende
ontstekingsremmende
hypothyreoïdie
##obacterium
Financiële
reduct
samengevat
PLAC
patent
wees
Elke
fistel
Tussen
missen
dilatatie
##itr
##ondition
##fosfor
Gu
##oïdale
dendritische
slechtere
nmol
##fracturen
CAP
beweeg
variantie
Alb
molecuulgewicht
ongewen
##gevolg
##iodar
trombo
##stream
##abit
DI
##angenconflict
micron
arginine
##dium
hemodynamisch
onderver
levertransplantatie
verlichting
Sa
##emming
AI
onderarm
##eduur
##ferische
groeif
##barrière
gerechtvaardigd
Ster
##ials
##verbruik
##persoon
Duitsland
antihyper
constant
geïntegreerde
##oreg
zekere
##ollen
##jab
##slotte
##cubeerd
SAT
##alt
##ATOR
extreme
overlapp
##erzijds
##ysis
##erum
mest
berekening
1980
aangepaste
autosomaal
metaboliet
##veillance
vraagt
dyspneu
carcinomen
etnische
AGA
vruchtbaarheid
au
zoogdier
polymorfismen
aanp
neurom
Sounds
##icep
uitdagen
leverden
knaag
cardiomyopathie
FGF
##ady
aanwezige
##omyelitis
zit
voorlichting
geblokkeerd
##P1
reperfusie
gevestigde
##protocol
Lipase
##sth
##igratie
blootgestelde
Amerika
##kering
ruggengraat
##snede
Konin
##rid
tender
culturele
regulator
gezocht
voorspellers
stimulerende
cannab
PELV
publiek
International
nicotine
##zinn
##recht
RENAL
lossen
##potentieel
ML
##ofyl
tryp
tong
##kern
levensverwachting
eieren
Q4
smaak
DL
param
x3
##burg
##roepen
vanavond
##ranten
bilat
berust
verf
##trib
verdun
magnesium
Complaint
binnenste
lichaamsbeweging
navelstreng
##loïde
##mission
mediastinale
##spel
lees
wen
respir
##ataal
anion
##siel
gebeurt
routinematige
timing
gekwantificeerd
Koorts
##lei
circuit
cysten
gemeenschaps
voorkómen
##eck
##spectrum
herseninfarct
##mitte
##ijkomen
geïnitie
##utes
550
voorlopige
Drug
Pub
UP
voorz
kindertijd
##56
##genoten
opgezet
FU
##BA
metoprolol
blijk
##ilatie
lezen
tempo
Belangenconflict
SG
sulfaat
optimalisatie
##etra
##SPIR
##cellijnen
hemodialyse
Vaak
##natale
##vasie
neuropsych
##ocompat
##riek
##nee
##veil
##iveaus
##eltjes
urineweg
screenen
atro
golven
scans
bijzondere
spel
##ibr
2013
velden
##47
POD
beademing
##vest
##inemie
##otica
weergave
transcripties
Klin
##nings
##menopauzale
pector
pneumoniae
geografische
compat
daalden
Adequ
recs
versla
Endotracheale
past
##V1
##cijfer
##rete
diëten
pomp
onduid
selecteren
##iatrische
gewone
agitatie
precisie
ulcus
leukocytose
omzetting
##oplasmatisch
##statische
##amenten
nota
127
hierin
SOC
mij
ingezet
stimuleert
##ïs
Gewicht
verlenging
##passing
neurodegeneratieve
Tylenol
Crohn
Long
##kanalen
compartiment
##AK
terugval
Uite
protease
geconstrueerd
zelfmoord
Q6
##odule
hyperp
##ontwerp
##openem
inwoners
prijs
thyro
##iswaar
immuunresponsen
tabletten
Association
##osm
##diale
onderbouw
Ges
Prote
proeven
coval
##gelegen
Laboratorium
##ocyste
lithium
BL
##39
##F1
zodra
##ivaat
elektrode
persisterende
gepresenteerde
##orn
ond
##icaliën
PU
verstoord
bevestigt
uitkomstmaten
abs
Ha
Zorg
geaccep
ureum
boom
bestonden
##tje
lob
##cript
bouw
doodsoorzaak
##gradatie
##ycline
spreken
fosfatidyl
Gy
Su
##chan
##klaring
streng
coronavirus
DRA
meervoudige
132
Arg
Dien
zat
gewijzigde
haalbaarheid
134
##rières
jur
oplosmiddel
shunt
glomerulaire
punctie
aerug
cutane
larven
mindere
antagonisten
toepassen
Extrem
q4
geïncubeerd
penetr
hydrolyse
##tic
polit
nuchtere
slagen
1984
beschouwen
ongunstige
##omateuze
toegepaste
passieve
plasticiteit
kwesties
##alazine
##ocine
##morf
##integ
gematigde
vogels
verminderden
uitersten
septische
HISTORY
Uiteindelijk
##electie
Enk
##gevoelig
##cm
adviezen
Phys
detecteerbaar
parasiet
Rele
UN
sympathische
Vis
postnatale
multipele
isovormen
homeostase
fylogenetische
##vet
##oosheid
kenmerkend
aeruginosa
##osus
eindigt
##ucleaire
SICU
##odone
trombocytopenie
##carcinomen
Belangrijke
GEN
opvallende
arte
principes
aqu
lup
##32
##ript
vissen
##medium
Aanvankelijk
potentie
##gebruikers
Hoge
spiraal
##lationele
voordoen
monol
##essies
##wendige
##TC
##ocus
regulering
elektrolyten
afnemen
verrijkt
Adequate
Syn
grootschalige
verlaging
fluorescerende
incident
##golf
helemaal
##gewoon
Hypert
##halen
nogal
leveringsapparaat
quad
ketens
##losporine
##omics
schoon
voortvloe
##lating
gebruikend
2017
PELVIS
##indering
ademhalingsproblemen
subtype
GSH
obese
tau
opac
##landen
merende
##ofiele
validatie
##staat
leeftijdsgroep
patiëntengroep
##score
helpt
current
lac
doden
Meest
##fenyl
##genezing
##ampagn
Hodgkin
Land
antitumor
interageren
##iderende
Pseudomonas
Stichting
lam
pulmon
ventilator
graf
daadwerkelijk
##isin
##veneuze
keren
coumadin
Gol
##rane
##oxicatie
Cardiovasculaire
CULT
evolu
infectieziekten
kwaliteits
differentiaal
bijgedragen
##ISA
informeren
voortdurend
narc
##ted
ambulante
COR
##laesies
##itol
vooruit
Nieuw
geïntegreerd
##lege
verzwakte
weerspiegelt
##verzam
daagse
##uï
fecale
UOP
hoesten
plaque
chor
microscopie
Regel
##opul
reanimatie
##brug
##DO
ertoe
##ijp
2014
release
zenuwen
epidurale
Edema
slot
ontdekken
##eceptoren
geste
ICP
##slijmvlies
TG
##lust
acc
initiëren
diermodellen
##chem
##verzeker
medewerkers
insecten
##ledig
hypertensieve
isolaat
glycoproteïne
Normal
interesse
aangebracht
alles
routine
##ulator
aanbeveling
##nectiviteit
abnormaal
koeien
geduld
##dienst
##helderd
##oqu
Salmonella
WE
##88
##spar
niertransplantatie
gereguleerde
##mogelijkheden
Chronische
Strept
##scontrole
144
zekerheid
buizen
##67
onop
dossiers
##antigeen
computationele
ot
##imens
vullen
##kettingreactie
##emic
immunotherapie
##vraag
##iërarch
sediment
etikettering
##ofageale
viel
verliezen
netvlies
enkelvoudige
draaien
tak
wijzigen
##eertig
##amming
##vervanging
bloe
immunofluorescentie
Serum
REMA
UO
##inib
verstoren
Li
Pen
##akte
discrep
endocarditis
Gron
##ituut
verwijzen
correleerde
ein
belangrijker
##arigen
geconstateerd
##strueren
##resistentie
redox
geïnterpret
CRC
runder
fit
tijde
Data
##erine
verbale
##oiing
Aspir
dexamethason
jodium
##verst
sporad
transvers
gefosfor
##osol
gemak
##instellingen
rupt
sperm
epigenetische
##xtra
##katheter
histon
##zingen
##rekt
FM
##aminen
ext
verwerkt
Propofol
opties
##fac
auteur
122
parallelle
Gec
elastische
##ongen
identificeerde
herhaal
litteken
cerebel
sluiting
subtypes
Dames
gevangen
muur
helix
proliferatieve
opleidings
slagaders
kolonie
sx
trof
##radic
overeenkomsten
mesenchymale
kijken
##blin
Enkele
##MV
##methyl
rRNA
##rant
##idale
afweer
ablatie
delirium
##detectie
##EMENT
mT
pur
##geerd
levensjaar
netto
##ral
parenter
Amylase
fas
##stress
remodel
internet
##isinopril
uitkomstmaat
##necrosefactor
verkrijg
##ey
mode
##atiënt
Du
##2A
tumorgroei
geïnterpreteerd
##iliseren
wis
##cr
polyc
terminal
ecos
RUL
##rong
traumatische
cholecyste
L1
ontwikkelende
onthuld
mobiele
##uffer
Gal
Pantoprazol
RAD
minst
Zeven
caud
gecorrigeerde
epitheliale
CVVH
klinkt
##alisering
neurotrans
##verlening
Meestal
ongemak
LFT
diagnoses
Opvallend
toevoegen
Nad
groeien
Groot
##klin
plaatse
recombinatie
##ogrammen
##stradiol
##acellen
##iaale
##brand
##misbruik
creat
##nemer
nauwlettend
voorgaande
nauwe
cereb
kam
voortzetten
GD
low
Japanse
##sup
##zeem
##orticale
begeleiden
cate
##95
##waardetijd
LI
stelden
minuut
hematopoë
geautomatiseerde
alpha
##CR
##ocell
##dia
zaken
##kap
##ziekenhuis
##heorie
##gevoerde
cysteïne
Tone
tegenwoordig
Rho
stedelijke
openen
anticonceptie
190
##elfunctie
verval
onderzoekingen
uitstrijk
##cor
##oken
Reason
HER
bevestiging
bilirubine
daalt
Heren
PGE
Sulf
##entwintig
geconju
##sprocessen
##procedures
##hepatische
##ilet
trypt
klier
##strom
##udid
homologe
Tele
##ism
##oep
luid
##oline
reproductieve
##kweek
projectie
coderende
breiden
Refills
ureter
glucocorticoïden
Zw
ram
##afdeling
Bev
##uiker
##spunt
##conomische
insulineresistentie
transcriptiefactoren
koolhydraat
machine
opgehelderd
iliac
##defect
bloedtrans
buitenste
DAY
Hoofdklacht
Gel
MO
baat
klaag
SDS
LAT
##zem
renine
lopressor
cond
levend
Braz
Journal
##ministr
##uscul
aromatische
##omale
tricusp
##derings
gewichtstoename
solide
polymerasekettingreactie
tam
Ram
240
##cid
##gebeurtenissen
NaCl
voorspeller
levensbedreigende
erectie
##HP
##dosering
voorspellingen
voldeden
ongel
condit
hersenletsel
validiteit
openbaar
fatale
bijwerking
##uitslag
precie
astrocyten
##apine
verscheen
Kinderen
##rassend
cv
##calc
Int
idiopathische
fungeren
##ionals
receptorantagon
Height
refract
jaarsoverleving
horiz
proteïnekinase
Val
durende
masker
gemodule
train
gedifferentieerde
verlaten
tekorten
BY
##75
Afrikaanse
##houdt
voeten
permanente
##onisch
##perimenten
##ophen
##ilaudid
##ladings
##osan
gestoorde
TEE
afvalwater
Cyt
gehe
##traum
Ext
pectoris
Kalium
verticale
Trent
##aandoening
ingebed
##kra
##behandelingen
langz
##nier
ann
uitbraak
transfer
##flux
κB
feite
pacemaker
gewervelde
tevredenheid
##ineerd
voorhoofd
gesub
VENTRIC
goedgekeurd
##omm
##ressor
thans
titel
##pakt
produceerden
kap
reh
COMM
arbeid
Evenzo
##oxidatie
tumorm
##controleerde
Hal
##lucos
##spectroscopie
deelnemen
fysiologie
lipoproteïne
body
##iop
steady
##stratie
149
##UD
illustre
##uin
##deficiëntie
##arende
saturatie
sondes
heer
##gangen
module
##ween
bepaalden
onj
respectieve
##maatregelen
Neonatologie
Cef
##oekt
##oestische
DNR
glu
##vle
speciaal
asymmetrische
plotselinge
AML
slaper
myocardiale
lupus
##stein
spiegel
143
orthoped
CLEAR
wt
anderzijds
FD
##ded
##prop
gevisualiseerd
##osfaat
University
##ural
afneemt
##antische
biomed
arach
theoretisch
##stechnieken
##YC
vermoedelijke
P2
##reren
##etje
menstru
bindend
##gelijke
##izers
initiatief
Vrij
full
146
stromen
##blinde
risicogroep
voedt
merendeel
##itraat
##ropen
##voir
##grote
Bes
afdelingen
endoscopie
oordeel
diagnosticeren
##lamy
trill
##orbide
voelen
P450
##lion
##esis
staart
chemisch
bereikten
##vuldig
adenosine
vrijkomen
Candid
##illair
opnemen
laparotomie
##iperac
Kanker
NICU
##oud
##42
aannem
slechter
##T3
middelbare
##waardig
opgesteld
##optimale
kleurstof
echocardiografie
beantwoorden
kb
ingebracht
aangem
##strib
polymeren
##ound
vooralsnog
##esultaten
immunohistochemie
gever
sigm
Creatinine
tRNA
##date
##inyl
vormden
##raan
##raden
##hom
coll
##egatieve
Cancer
lib
##ml
##02
##gere
##ït
vermeden
krachten
toedienen
CRE
##inger
geraadpleeg
Enter
antibioticum
##mutaties
histopathologische
##dringen
vect
##nc
Stabiel
uterus
ceft
ooit
##cepten
DF
Leveringsapparaat
##otherapeutische
rekru
##onds
##markers
compos
##ARDI
afbeeldingen
##wekkende
plasmamembraan
##noe
##adhesie
apparatuur
rig
scheiden
gesprek
LN
Leiden
winter
verlichten
acetylcholine
D1
dran
##lovir
##anderen
gevoeliger
NSTEMI
catheter
sul
gelegd
##geschikt
VENTRICLE
Bo
vertaling
glycos
jejun
ingewikkeld
##46
wekelijk
wijziging
ERCP
##atoir
atrofie
verre
##atiesnelheid
planning
uitsluiten
Vrouwen
hartziekten
2018
##beheersing
verwek
overeenkomst
afstoting
ACT
##actam
huisartsenp
##offers
griep
invoering
verdubb
schijf
##imab
follic
##cond
gereduc
osteoc
##ukken
belemmer
ontvanger
##oleculen
hemorrag
electieve
##yclische
polypeptide
carotis
##ocker
stabilisatie
##jectief
dopamin
haalbaar
##orroe
EA
verde
schrij
Hol
dij
##uster
##zeen
##tere
Proton
OA
Pers
PFI
TIT
pp
##osium
contral
immunodeficiëntie
plu
##fun
secretoire
immunohistochemische
##arachn
##OORDEN
##geheugen
reduc
##tigrafie
gemengd
##atitis
##reekt
BMD
##imp
kansen
orig
##uivingen
##elliet
Gemiddel
Bcl
##cursus
##gesie
gezu
zichtbare
zorgvuldige
EBV
##distrib
##indings
coö
panel
inferieure
Instit
verkeerde
PSA
005
opgeloste
cong
1500
wortels
##oplastiek
appendic
verwaarloos
##unit
kransslagader
##relatie
antwoorden
bewaking
prominente
leuc
chromatografie
##domein
opnamen
opgeslagen
thoraxfoto
##iodarone
##pensie
parodont
##otypes
lobe
##instr
##31
##onyl
donkere
Toegang
oppervlakteactieve
##wisselings
conversie
155
mild
databases
##menteerde
##opties
perforatie
VT
##reductie
dissociatie
##roren
##wust
paradigma
##lora
amy
Hulp
##beoor
1983
APP
Lys
vent
opmerkingen
CARDI
UTI
Imaging
Nadat
Wil
##izen
##epinefrine
adduct
precies
septum
immunoreactiviteit
Bra
##ERAL
bicarb
dens
##ges
geleiding
pees
##rix
internist
vertraagd
dalende
##virale
##cipitatie
##zers
##volumes
intermediaire
siRNA
Artsen
Release
habit
wegen
vertrouw
##otransplant
##ogenetische
elektr
intron
circadi
homologie
##ozo
oren
alsnog
mutante
kwestie
toegestaan
ROS
##waliteit
##anamnese
##atieven
##vattingen
Pulse
India
thy
##otrex
motief
allogene
##uan
degeneratieve
verloopt
alsmede
parac
ABST
Volgt
transcriptieve
AFGE
##tekening
terre
bepaalt
##ratis
paper
anterior
vlekken
Australië
lymfadenopathie
pathofysiologische
ABSTRACT
welk
distal
aangemerkt
beïnvloedde
ERK
vlie
##circ
maximum
versnelde
Ef
Oost
Will
##bal
weke
BSA
Path
PVC
mug
##idae
tumorigen
alkyl
adviseren
knockdown
PULM
A2
geman
##striële
duizel
OGT
herk
aantoont
video
##ssc
hapl
rif
superoxide
regressieanalyse
Endoc
AFGEK
wit
##ocyst
UC
##ronch
hematoc
##PCR
##idopsis
gezinnen
gehante
Mac
malen
##lijkheid
correleren
precieze
Rese
##allergieën
massale
glucoset
##contact
methodologische
WOORDEN
hi
##VP
duct
bezitten
toekomstig
##inent
weliswaar
allergie
verdwijn
ongebruik
##trop
jeugd
psoriasis
##daling
##olic
ernstiger
HSV
manipulatie
coel
##oblasten
reticulum
##werkende
##eleinden
dank
plaatsgevonden
##iveren
software
bijkomen
##vergelijk
blauwe
zwakte
vastgelegd
gp
lopende
##etjes
##chlor
ziekenhuisop
##stitueerde
##blastoom
ministerie
Turk
##aut
##ofilie
ruimtelijk
plaatsvond
vereisten
Der
realiseren
##ssystemen
versterkte
##REM
Procedure
Hypotensie
hiërarch
##eenkomstig
interess
serologische
aanvankelijke
Arabidopsis
##mann
systems
excitatie
wijdverspreide
Research
##zelen
##omet
RES
Azi
geverif
oorspronkelijk
arrest
opnames
##bevor
##vr
spreekt
##econcentr
RISS
##inigende
##ization
mitraal
B12
##digheid
##SF
activeert
##otrexaat
##rectomie
##uspensie
revers
HOB
lymfoïde
##allergie
Society
Mer
##array
doorgemaakt
##locaties
radicalen
##ijdende
hierdoor
PTH
NSCLC
geïnitieerd
##amenteel
algoritmen
SVC
##ECT
gemon
flexibele
HbA1
##ïnezuur
triglyceriden
##alle
gekeken
immob
intervalverandering
##aai
##boom
werkgroep
anatomie
TT
dl
##kwam
VP
pest
raken
onderzoeker
hematoom
superieur
ontstekingsreactie
##rupt
##scoop
dimeer
##sneden
blijkbaar
Bijn
dent
##sex
##defecten
gecont
fluctu
elektroden
logistische
3e
Urea
bracht
beeldvormings
tumornecrosefactor
verlopen
##kwamen
##ifier
heldere
dysplasie
cystische
##bank
##romycine
##getrokken
##atrisch
periodieke
##krist
##SE
##dehydrogenase
dubbelblinde
diabetespatiënten
##lappen
ELISA
diverticul
TN
vermen
stamcel
straal
toel
verbeterden
##rofys
abdomen
biomarker
A1
Bay
Lat
fiet
##ocar
aannemelijk
Sats
tool
##iota
##rus
##vaat
afspraak
gebruikelijk
CRI
bestuur
industriële
htt
bewijzen
onmogelijk
195
interpreteren
beweegt
##splan
##waking
C1
##doel
constructie
##scon
bevolkingsonderzoek
Koninkrijk
Naarm
μM
##fyse
##rechte
##avage
dep
verschijnt
zuurstofsoorten
excit
##agnetische
Behalve
cervix
waaraan
volum
priv
ATPase
expressieniveaus
##giëne
Naarmate
##aid
##CO2
bloedings
att
##vloedige
geraadpleegd
Sol
zil
elleb
spreek
stierven
dise
conjug
##oter
dramatisch
Groningen
GG
webs
toegediende
UreaN
Cx
aus
##inon
regeneratie
##ingsvermogen
beoordeelde
obductie
##neem
##wet
pieken
##ivum
labs
fysisch
supple
wonden
##ethyleen
##abine
microscopische
Vroege
##hem
##ansie
Furosemide
vasculitis
werkingsmechanisme
##za
##iratie
intelligen
metab
##dib
##operaties
antibiotische
Verenigd
Gezondheidszorg
epileptische
kosteneffectiviteit
vrijgegeven
##mutatie
Protonix
##wond
enerzijds
##isc
gestabil
neurot
openbare
blanke
intervallen
mononucleaire
corrig
ethyl
flagyl
tarieven
therap
acyl
##ILL
sociaale
medul
Poly
onderstre
##oedings
tenzij
bovengenoemde
overtuigen
groeifactoren
preparaat
pijnbestrijding
toegevoegde
##erbare
Datum
horizont
schalen
preklinische
sap
doorver
hypert
vastgestelde
paarden
benzodi
kandidaten
Signific
genotypen
##zenuw
tweedimensionale
##lastiek
bronchiale
metall
endotracheale
macht
##bus
##remmers
##ocef
verhoogden
obst
##abole
verantwoordelijkheid
##voeging
kalib
cytoskelet
antipsych
beantwoord
waardevol
Auto
gestegen
##omotorische
verwachtingen
activator
##frontale
opaciteit
gebrachte
consistente
##oreuze
##idazolam
Progress
geïnformeerd
##aardigen
pathol
hierop
DSM
Candida
D2
##oxifen
147
##itudes
alcoholische
stikstofmonoxide
##barst
tijdstippen
##entile
gerecon
biopten
##llu
connectiviteit
bezig
bewoners
REMAINS
148
Gebruik
asymptomatisch
##denking
seconden
attrib
Plateau
secties
verwarring
VIII
alom
verkeer
endoth
ALL
fundamenteel
##44
##oskelet
dynamisch
##consumptie
ATRIUM
Anders
Europe
Extremiteiten
nr
##antigen
coun
novo
trimester
configuratie
verergering
##HR
preoperatief
kankerpatiënten
bibliotheek
tent
##sniveau
amb
amt
##velop
Acht
maten
leeftijdsgroepen
Evalueren
titer
##vi
##stellings
##ogelijke
afib
##clamp
##diagnostiek
kwetsbaarheid
CG
##zegd
Heparin
##oseksuele
geventile
Initial
##APT
##aminophen
Normaal
##drempel
##ocaïne
##abelen
Niettemin
ongecomp
##duktie
overvloedige
##seen
##ures
objecten
drast
##opolym
ultrasone
650
bestrijding
tekortkom
##hersenen
ongewenste
##A2
antik
LG
##arium
##rays
##overeenkomstig
##cholesterolemie
prostaglandine
Chem
##curve
voelde
conservatief
##ascularisatie
georganiseerd
Midazolam
##rame
##regeling
##ositol
##öntgenfoto
Elk
##zone
##GEN
cycline
syndromen
illustreert
onst
verwarm
plastic
atherosclerotische
Mann
visus
knoopp
AORT
##herkenning
##thesen
synov
##reflex
veronderstelden
afgebroken
FR
gewenst
Duitse
##66
onvermogen
##accum
contract
geboekt
##prothese
Continu
koppelen
gestructureerde
##ative
verlicht
##olisch
uitgevoerde
##vormende
verzadiging
Trig
##akers
spuit
##otypische
##strengs
AORTIC
hoop
##iveau
##bescher
slikken
Integ
##verschil
meldden
spij
flux
CoA
tandem
HSP
##gas
fysiologisch
uiting
##ience
implementeren
##iërende
overbelasting
regels
Frankrijk
kcal
##verontre
##const
profil
jeuk
toegankelijk
schet
Daarna
CRRT
kweken
fijne
BRCA
mA
multiple
gekloond
catechol
UF
deb
##udine
Medicine
anticoagulantia
Daaglijks
zomer
##oproteïn
onderverdeeld
corpus
Groep
##ellaire
##hoden
##elatonine
##slagader
Ber
LUL
##ylaat
##ijftig
signaaltrans
D5
##CG
##99
afger
getransform
strak
artefact
##CD
nucleotiden
palpatie
##dekking
ingenomen
##lucin
pasgeborene
Vanco
SY
progressief
AZ
jarigen
##iete
stijfheid
##epime
spoedeisende
bruin
kloon
conc
##megen
kinderarts
gli
lysine
ovariële
Centraal
##verzameling
##iew
waarschuw
##beeldvorming
##breed
epidemiologie
talrijke
monoklonaal
Nijmegen
Vasculaire
stuk
##traging
operatief
zag
##ction
PMA
eczeem
Mut
Port
samenleving
##SCC
wandbeweging
gezamenlijke
Fol
HIF
Teg
ingek
virt
slaapt
PTSS
maagkanker
integreren
seizoens
Bijna
##catie
PPAR
methotrexaat
Direct
aangepakt
Afib
##aceae
Jaar
onderk
extr
C57
##atter
##minogeen
##ALL
snelheden
##passingen
agar
##nes
iedereen
stromale
##vermindering
bipolaire
##ilus
elektrom
##iazem
minimum
boe
behandelend
ductus
gevorderd
Helaas
##artaat
##vangende
gemark
architectuur
Che
euro
modelleren
ontvangt
voortplanting
##kig
TCR
zuid
##voet
verkeerd
serop
geïllu
darmkanker
##bumin
overweging
ACh
uitstekend
Franse
Vo
##ramine
autor
DIC
##blind
filtr
##zak
ontspanning
##ional
wean
##afstand
duizeligheid
##rf
##ruchten
RESPIR
##ofosfamide
voertuig
##sprocedure
verstoorde
##proteïne
optrad
Longen
bal
veelgebruik
Vanaf
PTX
ligament
sinusritme
Trache
darmm
label
Gluk
##anus
##antel
Adem
CATH
estradiol
##othyro
gehoord
##osynthetische
bias
antibacteriële
##omerase
##component
formule
CBC
MOD
kolonisatie
sleutelrol
cil
##injectie
sociaaleconomische
##ctine
afnemende
##trent
autologe
vroegtijdig
##preparaten
curatieve
College
C2
DT
cerebellaire
bescheiden
responder
##tia
##TEN
verkal
substitutie
atm
##synth
amyloïd
occip
Tachycardia
LAB
levensl
pleura
plaveiselcelcarcinoom
Sla
002
variabel
##pleging
pathogeen
SEC
##ellere
proteïnurie
STATUS
remodellering
##omenten
##alering
overlevenden
daarnaast
representatieve
Piperac
mt
##cort
##ieuze
thema
##formine
##daagse
elektrochemische
fabrik
verplicht
##sa
##3A
##ofloxacine
vroeger
bulk
discriminatie
diafragma
bouwen
##organen
eindpunt
circadiane
gratis
groen
Indic
leverziekte
##ventig
getransfect
mTOR
##tumor
##85
exclusie
public
subcutaan
barrières
##matiek
RU
oestrogenen
##aantal
geverifieerd
Dise
inactivatie
stolling
infrarood
Mogelijke
##feen
Canada
##velden
metastatische
gewoonlijk
overheersende
ARTERY
gerust
geïmm
PI3K
Zelfs
cholecystectomie
gezuikt
HbA1c
##actische
fysische
praktisch
##orph
kwetsbare
capsule
##ème
##schors
##use
liggende
mariene
##hydrox
##iltiazem
opgeb
opent
uitgeput
akoestische
pi
##geert
stil
homoloog
penicilline
radioactief
Glukose
Cox
GV
##ereen
seriële
alanine
overwegend
##effect
lichaamstemperatuur
echografisch
##otoxische
##iana
aanpassen
harde
##IUM
##orub
Huidige
##yelin
ester
##ager
##monster
granulocyten
##ikende
offic
overdraag
radiografie
Coron
afgeschaft
##eef
##RAL
instructies
sterkere
coöper
Rad
##idische
nadeel
subarachn
16S
OB
afebrile
wonen
##hist
Omgekeerd
slaag
depress
atriële
naboot
##pomp
verdenking
linkerkant
##lande
nefropathie
##banden
##gekomen
##apro
opgewekt
expansie
##antigenen
clear
snelheids
##ega
ESRD
lymfatische
##jor
bevonden
statische
verstro
GIB
##straal
intermitterend
neoplastische
eigenlijk
handicap
dysf
AUC
##chanische
omzet
snellere
halfwaardetijd
Fc
koel
##gi
##hart
schaar
oplevert
Fibrinogen
criterium
##idu
##idol
AAA
geg
Hydro
hypothesen
##kleur
verplaatsing
subset
apicale
aanwijzing
observationele
dierlijke
##cytometrie
bloedsuiker
Vand
##lep
uitstre
vingers
H1
omgaan
chemicaliën
uiteinde
proport
contralaterale
onbed
rondom
ideale
nasale
huidafwijkingen
220
##azepine
formulering
##pul
bemoeil
gesimuleerde
Mal
##dertig
gematchte
Suc
##NS
onom
voorbehandel
##iline
onderzoeksperiode
groeihormoon
ethyleen
Aβ
##O4
organisaties
geoptimaliseerd
##ns
bloedst
leidden
BSE
veronderstelling
casussen
ritm
##alente
bezit
erythema
eetlust
Cre
##schalen
reverse
##grade
##issies
gamm
gemeenschappelijk
oksel
geïllustreerd
kent
ppm
verdween
geregistreerde
Gezondheidsraad
NV
##R2
##ved
##matrix
latente
geconcent
##toestand
ionisatie
##planten
kwalitatief
maaltijd
aantrekkelijk
##reactiviteit
alarm
##vliezen
##spectieven
trombine
ionische
##uiling
schriftelijke
vectoren
##inerge
getit
ALS
Pijn
doch
##spunten
basen
Anemie
##polarisatie
##verhoging
mazelen
hoeft
oplosmiddelen
goud
##risic
##standig
houdend
probeert
base
##ja
Vital
##oli
pathogen
##zwak
verzameling
pneumokokken
synthase
##ijven
aldosteron
##izersne
##type
##nl
##ares
kwab
zwaarlij
aangedreven
OVER
haz
##bili
anis
##ynthese
disper
historische
adrenerge
geïmmobil
##ima
neuron
anesthes
symposium
tip
##sh
##olar
uniform
Rash
grij
14C
donker
verspreide
premature
##omieën
klinieken
passage
##rylamide
vrouwtjes
codering
##cycline
##idings
##spannen
geïmmun
sequentiële
##zine
##osarcoom
Inmiddels
##astische
cyclofosfamide
trainings
interessante
##WF
blocker
puber
activatie
agressief
##stipatie
HG
Ti
visueel
artrose
gedifferentieerd
wenselijk
Afe
bedu
postmenopauzale
bemonstering
ruptuur
Org
##otypering
##aturatie
##tief
mitralis
dimensies
BMP
FDA
##ultuur
##volging
uniforme
sucrose
##gre
geform
##iazide
overlappende
plex
##ofoor
stern
helderen
##acetaat
##seffect
onderhouds
##var
##meth
AnG
##conazol
RED
methylering
CEA
mengsels
streptokokken
nagel
##aliseert
zebra
posttrans
hersenstam
##match
partic
supra
hydroxyl
opioïde
Je
vee
##thans
Geneeskunde
Controleer
poeder
biomassa
onverz
C5
IBD
MF
vals
staten
androgeen
##ensie
##verpleeg
spoel
750
voegen
geur
##oxetine
##variabelen
enant
##iram
synchron
ja
##patiënt
##va
inbrengen
tegenhang
uitgestrekt
##WN
staf
##formul
axonen
##aryngeale
spijsver
WET
consul
dominant
oesofagus
PORT
ulcera
HU
geometrie
##preparaat
gister
##ulcer
statine
##LI
gedo
ouderlijke
guan
parenterale
Cp
##PT
##lagende
huil
lichamen
neutropen
uiteenlopende
woon
foley
nucleus
bedrijven
denk
SVG
Aanvullende
CULTURE
##NK
CHR
onderhouden
veronderstellen
##proteïnen
Delta
Ment
Sepsis
##dol
ongeval
##opolysaccharide
plaques
##dom
MDA
brach
##ferente
cholecyst
gemelde
##prof
hersengebieden
##oplasie
EU
##orubicine
##wachte
INTER
overgevoeligheid
##symptomen
geplande
regelt
ingrijpen
schadelijk
dichte
##iller
CKD
oligonucle
cerebell
arachidon
caten
##situatie
eiwitsynthese
##traumatische
AnGap
nal
##68
##oblot
amts
##etamine
leverfunctie
tijdig
myeloom
pedis
werkende
##rup
##obacteriën
manifestatie
##sgewijze
##ysen
##aract
##proeven
gediagnosticeerde
constipatie
broers
noemen
##ERD
##ochrom
fenotypen
huisartsp
serologisch
hielden
Bar
duidt
voortzetting
##molecuul
immunosuppressieve
##ishman
Geïn
modificaties
##tann
vanc
bewerk
ondervoeding
##fectief
nanom
omgevingsfactoren
stierf
##ck
##CRE
vervorm
##oprop
##neming
##iliteiten
##rotische
follikel
##vlak
elektrofys
Q6H
##mor
##iing
immuunziekten
stroomaf
herhalen
bindingsplaatsen
G1
kraken
##geboorte
incons
marg
mor
##jug
##orvastatine
##ikkel
assist
verstoringen
insulines
valideren
downstream
mucosale
Sed
Toekom
bov
##rootte
##brengsten
terugtrekking
tweeling
##oradren
samenvatting
##ASS
unit
1982
verdachte
NOTE
Vrouw
##redig
##otax
consumenten
##hrs
##asale
polarisatie
traject
testten
##avel
##elektroforese
LOW
##iës
##bbel
hematocriet
##melk
##adox
##ionine
obser
RESPIRATOR
Non
##migratie
uitlijn
signaalroutes
fibrinogeen
brief
##itting
##roscopische
scrot
cirkel
histamine
intensief
##tannië
Ern
ledemaat
disease
##orc
##genatie
##iereg
detectielim
Experiment
hitte
duurzame
keizersne
GTT
MAL
apen
##sings
##97
ECM
Brittannië
biofilm
Goede
inject
antir
glijdende
retinopathie
rondes
luc
althans
##hee
tijdschriften
##scores
geoxide
Tegelijk
twaalf
##DD
ingevoerd
gezegd
##tekeningen
##ires
gemodificeerd
bedrijfs
elleboog
trek
##ograft
neuroloog
##gewricht
##aryng
diffuus
cer
maïs
TECHNICE
D3
##VD
TRH
lep
klieren
##glycol
oefening
##asische
##indic
update
verhinderde
corrigeren
##cher
##itro
sterven
Tien
##oform
OT
##vrucht
primers
surveillance
Institute
Bacillus
##eve
##romide
wondgenezing
##acetamol
Piperacillin
GST
faec
##io2
MEDIC
aanpassingen
zuivering
Azië
OK
chit
vernauwing
Lage
##NR
##üm
##otidine
##axel
viscer
##verlener
151
recentelijk
##lanteerde
garanderen
Huisartsen
elimineren
Gastroin
zosyn
##pon
##98
##iëtale
interdis
##atorische
publik
slachtoffers
##ërobe
Wh
bele
##wal
profylactische
##ratatie
##ulariteit
overgeplaatst
reductase
Gep
Pe
Rel
tijden
interessant
geregeld
maatschappelijke
Perifeer
##ocellulair
AFGEKAPT
HM
wnl
Absent
##ulfide
##gineer
Bre
##ueerd
gelaat
gastheren
##ulde
##obarb
spiercellen
##fibrose
##clampsie
NON
overmatig
concepten
basaal
leeftijdsgebonden
beider
heme
familiaire
verspreiden
##synaptische
BF
##foon
##traat
verklaarde
vlakke
jug
##xon
##sief
##kwab
afgestemd
TIA
steen
cellulair
discrete
kortdurende
##glucose
##tent
aanpakken
motieven
ziektegeschiedenissen
Cir
##epatiënten
##cephal
lactam
TRAN
gerekru
Ativan
##tekort
tractus
glutamine
persoonlijkheids
senes
tunnel
##onzuur
aanhoudend
bepalingen
##ventilatie
INT
producerende
Raman
Bro
##alisaties
hoogwaardige
##draten
korrels
EtOH
IT
MK
boog
uitleg
hierover
duurde
CARE
kappaB
exacerbatie
##ventielbladen
Clinical
gift
overleef
match
blast
deoxy
antrop
gisteravond
##verv
uitbarst
##spijn
gevoede
toxic
oddsratio
Bevindingen
##keuren
eierstokkanker
raden
##oxicilline
cerevis
SBT
FLU
TV
peep
sek
breedte
invaliditeit
bac
alum
array
steigers
reservoir
dalingen
noradren
##vert
##divers
210
##algie
Dial
Kore
RC
##rate
##ischarge
Tabletten
TOL
900
##ategorie
decompens
cavia
ju
inspectie
scherm
##tussen
gezw
station
##ampl
seizoen
##inespiegels
cerevisiae
kaak
gevaren
hallucin
##afhankelijkheid
folie
##bias
##nodige
elektroforese
##tensive
##kwater
feces
##ncRNA
p38
aangetaste
brachten
lens
##CK
##entriculaire
##vinger
fenol
proteas
promot
duodenum
Streptococcus
alf
omringen
lekkage
##oolische
##ermde
##enced
radiale
ziekteverwekkers
Perc
cG
175
geïmplanteerd
concurrentie
Bilaterale
ri
##cositeit
##mengsel
hartritme
Sociaal
vlek
hoornvlies
auscult
actin
APC
##hoogte
extremiteiten
QD
boot
##zol
geab
aortak
##specifiek
neurotransmit
hers
##adon
detecteerbare
lastig
##C1
scanning
vertragen
hemorragische
##houdingen
universiteit
GIV
sament
##zuiver
ongest
regen
##istiek
atomen
Overigens
dopaminerge
UA
##imod
##fosforylering
buig
reis
##racil
regimes
remden
uitsluiting
##coëfficiënten
bindingsplaats
rectale
overtuigend
Gly
dsg
##vreden
##etic
##imulatie
##ynchron
PROC
##oxygenase
ongewoon
vascul
Ben
Gi
cascade
##lymf
##winst
effector
##miner
##omeinen
acetaat
Ontladings
CYP2
##medicatie
expertise
##HL
##volutie
##ERT
##ouders
vereen
##peroxide
Mycobacterium
York
##ochten
text
steden
reflectie
##accumulatie
Em
vervaardigd
##icillin
##geschakeld
HSM
tricuspid
omtrent
##ipoten
##ycodone
oplosbaarheid
arteri
plasmasp
##sers
##kal
##imetrie
##ampon
bronchus
Verminderd
OSA
##eeld
##iëring
rechterkant
intoxicatie
gefix
Management
MIN
##atur
anale
afsch
gerep
##osities
##iferatieve
check
gemoduleerd
##reë
tris
regelgeving
gehoorverlies
boezem
##BG
bevorderde
##time
165
##ortex
fibroblast
tamoxifen
gecondition
##wortel
hazard
##Hz
beiderzijds
tur
##haald
##63
methanol
stond
dialys
##ondanks
##bezoek
SAH
anastomose
cof
##ison
##iveerd
##ostatische
beru
bericht
transporter
acceptatie
discrimin
geaccepteerd
tx
##sin
##ham
##home
rev
##azob
capt
##versieel
##oefenen
yl
##oonden
##ositis
emul
functioneert
Techn
beduidend
C4
La
wijn
xyl
##sla
##biopten
##gekopp
crypt
bemiddelt
rivier
carina
Extra
gevaccineerd
##urm
##voorsp
thiol
crisis
gerekruteerd
Bacter
waarneem
##obut
traag
leth
dynamica
vasopressine
verloskundige
##istieken
rapportage
kritiek
samenhangende
##era
Tenslotte
##ocefaal
controversieel
mondeling
lokaliseren
dramatische
ly
oneven
##okine
##itief
opnameduur
##migen
##membranen
flexibiliteit
blind
##constructie
nitraat
versnellen
Respiratory
##RP
invloeden
gewassen
homogene
##zijdig
##tine
##ultaat
leeftijden
relax
Lopressor
##idi
##ife
hypoxische
Down
baan
ero
telling
##ND
##N2
##alm
uitspraak
FIO2
metformine
##orteerd
onvolledig
opgeleverd
TRA
##nodig
##vissen
##junct
##MRI
leiding
tegenst
##ITOR
Amt
beschermd
ASSIST
verleende
LUN
##ostatine
Wet
cT
rt
##emia
##imus
genorm
golflengte
##iakie
causale
##itonitis
##zu
##terings
##oxische
Disposition
##weerstand
entiteit
adipocyten
Albuterol
BT
Had
Nor
##wite
voorstel
##acid
motivatie
prominent
Dan
##ations
##hout
belde
nachtelijke
tarwe
murmure
consultatie
tekortkomingen
gecompliceerde
tuberculosis
din
vergez
bredere
ade
##mmings
keratin
glycerol
##preventie
GIVEN
##ave
##gr
bekeken
correleerden
##77
empirisch
alomtegen
mislukte
##antilich
##trekken
lap
bloedmonsters
persistentie
geleidelijke
##kleuring
plasmaconcentraties
ondergaat
##ycard
##activator
mechanisch
horen
##etal
##oculaire
##implant
ondersteunde
productieve
Dors
##amines
upregulatie
CPT
abdomin
ips
onrechte
##icans
##ogenes
##wongen
gemanip
##boek
beschouwing
stroomop
verdoofd
Four
##aterialen
transm
correleert
beleids
sarcoom
bindweefsel
Hypertonie
##B2
##hode
scholen
allerlei
hematopoëtische
##homeostase
Rijk
amen
onttrekking
##ospor
gezamenlijk
152
geschreven
##IES
taxon
view
##oediening
sturen
##unc
zoet
strikt
redelijke
perioperatieve
tap
##ruvaat
herziening
ontwen
waarneming
oesofageale
farmacokinetiek
##etici
subtie
ongewone
parenchym
Event
ventie
##inal
##onef
##opbrengst
downregulatie
impliceren
draagbare
box
degradatie
verif
##iculair
##ilaire
Hiervoor
triv
Antib
voltooiden
visualisatie
Diagnostiek
158
sensoren
runderen
Fen
##chemie
encefalitis
verfijn
##azobactam
##empl
beheren
tempor
onverwachte
flavon
onduidelijke
nagegaan
foetussen
CNS
##ofaan
PCB
afgesloten
hersent
Ba
paracetamol
boodschap
##filis
##reert
conto
##gevoegd
##varianten
bevredigende
baarmoederhalskanker
analoge
Respon
amplificatie
biomedische
##41
##initis
##laps
simp
##fol
inzet
##electieve
Voorts
##AND
takken
voornaam
##verlagende
##osacchar
intracellulair
Rema
Up
selen
##biopt
penis
##IRED
##rapportage
1β
beoog
predisp
catenine
Bet
FFP
gesequ
##keuring
emb
dubbelblind
##eductie
##ocompatibiliteit
GGD
bent
##cope
##ANG
##sparameters
Aziatische
femor
vluchtige
ziekteverwekker
weet
chemie
verbruik
additie
##residuen
##vezel
##sorbeerd
eilandjes
##appel
##sprotocol
ademgeluiden
stimul
##halamische
cataract
Tegelijkertijd
Tit
##opulatie
Institu
LEES
appendicitis
##ido
onaan
##otr
ontlading
##breiding
belemmerd
ammoniak
EG
melatonine
zussen
##baan
##mac
ontving
trif
SOFT
##opauze
pigment
DIST
OG
##istar
##uitwisseling
168
Endo
staaf
##euren
eiwite
praten
ontstonden
##tromb
geschiktheid
treft
kristallen
iii
##ois
##omod
##embry
enzymactiviteit
sterftecijfer
activerings
##metastase
##modus
dwarsdoor
Tc
WA
##iof
##itische
##tocht
geconserveerd
son
za
bestrijden
celgroei
##extra
##dralazine
Begin
Golgi
grove
156
specialis
##azon
bevorderd
cadher
voorzitter
gestabiliseerd
##samenstelling
##SI
voldoet
transfectie
bioactieve
Samengevat
rap
##erobe
middelste
blijvende
PVD
Mex
uiteraard
##oplasmata
herhaaldelijk
restrictie
verklaringen
##materialen
PULMO
Acetaminophen
host
##51
lymfomen
chemo
geventileerd
Bek
q6
gekatalys
randomisatie
horizontale
ris
##cyl
Spoedeisende
Significante
ns
##hod
##oxic
botten
beschermend
CORO
CHRONIC
##TATA
fungeert
cerebrosp
##fyseem
##ature
onnodige
##erkingen
##requentie
beenmer
##UCTION
##viol
##orisch
##alog
CVS
sterftecijfers
wetenschappers
##agglut
Instituut
porie
anorg
##herent
koolhydraten
antistolling
MIT
##hox
##iering
##ious
gerangsch
##inescentie
geneesmiddelenallergieën
moeilijkheden
achtig
dimer
conjunct
back
stents
drinkwater
gemetastaseerd
http
##Pa
neuroprote
stemmen
muggen
Gastrointestinale
geslaag
##orex
verschijnsel
stenen
Veranderde
##veiligheid
Boots
PTCA
amoxicilline
##jectiefractie
##malig
cannabis
##gewoonten
klaar
blauw
Trach
onverm
##apopt
gemist
pijnlijk
##ending
serumc
reproduceerbaarheid
woont
##ci
##veertig
##ett
##dibulaire
FC
spoor
Hiermee
huishoud
##drupp
MONITOR
Camp
Aanwezig
menstruatie
Discharge
##iotomie
opening
TPA
H3
##way
gelaten
voorspelt
ontstekingen
zetmeel
volgden
metabool
faag
##oeld
anaf
##hoff
inspannings
duurt
voelt
sets
##offie
PRL
Glycemic
Grond
Max
sjab
gedeeld
##asme
afgew
##acyl
website
Center
VIE
kennen
groeis
tracheostomie
##partum
Eth
Ps
gecreë
glioom
##oïdose
##dnis
##78
##team
##ologieën
technisch
HV
Ki
1200
opgesp
##cyste
COMPAR
romp
##stoel
##stabiliteit
afspraken
##ronectine
polys
Rhonchi
oncologische
FEV1
C57BL
##69
dokter
België
marginale
ds
invent
access
##voorziening
antihypertens
cerebellum
RESPIRATORY
##diast
interageert
beschadiging
internationaal
professionals
hond
hinder
streven
hypercholesterolemie
bespreking
##carbox
voorge
ontmo
thro
lipopolysaccharide
profiteren
##pad
##artan
##ertiliteit
polaire
testiculaire
distaal
Pulmonale
##straat
##emble
spanningen
beschadigde
ontwikkelingslanden
##pitheel
lncRNA
##raties
##diënten
##ivery
##hydrol
compatibel
PULMONARY
mannelijk
PDA
##teland
leptine
Dialyse
gesequenced
hemolytische
##orbent
oxidase
compartimenten
beweeglijkheid
European
sessies
##ïeve
##roog
154
hyperlipidemie
gespleten
argumenten
mediastinum
cognitief
tient
##mar
##ACE
aspartaat
differentiëren
transpar
gematigd
Coch
##remie
gedragen
##dienen
vijfde
##odynamisch
insect
diuretica
IQ
##gs
##asing
waarb
153
heterozyg
aggregaten
Magnesium
HH
Mil
zwavel
instroom
noodzakelijke
ademhalingspatroon
Ren
roe
##affen
hyal
herhalingen
farmacokinetische
PROCED
plasminogeen
##itoring
Klinisch
Lanc
##S2
afloop
steiger
##ditioneel
glomerul
##algor
##dioxide
verbanden
Nederl
gevoelens
resulteerden
achtereen
##lamydia
##alent
gender
##artikelen
flank
antikanker
deelnamen
maatregel
alternatieven
Sequ
keto
berusten
MDI
uitbraken
ganglion
skeletspier
parasitaire
ventiel
##celcarcinoom
probeerden
kamertemperatuur
Visuele
regering
##ovir
##ategorieën
elektrocardi
retrograde
cytosolische
fysiotherapie
Response
OX
##olang
##erebrale
actuele
PCO2
letharg
##ulteerd
doorheen
##aster
benut
evaluaties
tropische
targeting
Cell
soortgelijke
expliciet
kath
##T1
servo
Leu
##itoneum
geelzucht
sessie
verse
nucleair
kantoor
bindings
Fam
kaarten
gap
noord
##rillen
##loon
levensstijl
complementaire
##stechniek
interdisciplinaire
manus
##registratie
irrit
antiretro
##andige
Out
##ano
microglia
##muizen
##verbetering
groeps
intraperitoneale
##uropathie
onverkl
seizoensgebonden
##ënt
steriele
liposomen
expressies
afbeelding002
Italië
onomk
arachidonzuur
Bureau
##asmus
daaruit
landelijk
##moedigen
##Med
##ana
##onad
##promitte
achteraf
verdikking
neutrofiele
jarig
##controles
##olin
stimuleerde
veronderstelde
dieper
ontle
epig
##tekracht
wekken
exempl
##ritine
gold
coeliakie
Afebrile
##lag
##kh
clustering
Gezamen
pijnstillers
##vriend
veelgebruikte
GFP
##eprazol
richtingen
vuur
##bec
##Ca
##schild
microRNA
##ANT
CRF
infiltraten
##ye
nest
Ald
maatst
Herhaalde
subclaviale
vermenig
liep
##gestuurd
zelfstandig
bradyk
FP
##apatiënten
toepasbaarheid
Cy
##imide
gedachten
supernat
Diagnose
fragmentatie
atriumfibrilleren
##gast
##kels
##epitheel
##ijdings
veranderden
transc
gonadotrof
precursor
Dorsalis
##chirurgische
##plo
##olyt
##ilië
prolact
verschuivingen
##gereg
##roph
##groottes
emoties
skeletspieren
##aggregatie
Fourier
3p
##L1
##uminale
##divid
ziekenhuiscursus
##class
##ulfaat
EMG
Hsp
Oste
Retro
ziektebeelden
##IDE
platteland
mechanistische
##isteerde
Negen
##fibro
gezwollen
BW
MCF
5000
##wekkend
ubiquitine
Nort
##oedigd
afsche
peritonitis
muismodel
gedetailleerd
leegmaak
Py
##fouten
Wean
stamcelt
explor
denkt
ileum
vestib
doorverwezen
Kn
mitotische
nefrot
wisselende
##vaccinatie
provincie
noc
vouw
##vergro
##ransporter
Metronidazol
gekleurd
Sen
##hi
##chemisch
geopen
##udget
schaars
argument
opsporen
brandwonden
onderlinge
demonstreren
spond
gedra
geloof
Afhankelijk
##YSIC
Flowsheetgegevens
##stijden
prefrontale
hoofdstuk
vasocon
suïcide
observeren
sbp
##INA
opvatting
##amers
##ropium
gaande
Coumadin
##variatie
aangedane
aortaklep
DM2
Cardiovasculair
Fysieke
##ogastrische
vergezeld
kil
##ateren
##optie
##gerust
microarray
##ACH
##complicaties
bijkomende
Ta
##logen
oriënt
stemming
combinatietherapie
terminus
##nauwkeur
##01
##hern
controlegroepen
##cellijn
##splaats
aluminium
Rijks
LY
##orde
vervorming
PMN
##leerd
##glycemie
portaal
##secretie
onverzadigde
Wor
gyr
indeling
##chtone
publieke
Sn
##ries
##fix
##euten
ontsn
zwem
DES
pijnklachten
maagdarm
Geneesmiddelen
gezondheidstoestand
koolwater
drastisch
Kap
##kkingen
Ander
##ampagne
meg
ton
##fs
##albumine
AVR
Fas
cut
mapping
##rend
Neo
psychotische
##yclus
staande
katalysator
Informatie
bloeden
HCl
brug
duplex
##vit
##atro
##umat
##dustrie
mini
##ucoom
PDGF
papill
placeboge
##stappen
CARDIAC
gron
##farine
##ormen
##mach
ETOH
##otransferase
doxorubicine
refractaire
seropositie
Darm
mus
MCA
cellulose
nabijheid
competitieve
EGD
##opus
afw
##ignalen
microtubuli
Press
##osec
daarin
fototherapie
##vaardigheden
Secret
discrepantie
krib
##mium
##aur
lek
NMDA
Verminderde
##icon
kunt
##spectra
tegenovergestelde
langzamer
falc
##west
herb
CTL
Demografie
TEST
##ficile
amputatie
Blootstelling
Heeft
Mit
Wistar
##remming
veranderende
reflexen
knaagdieren
transversale
Indicatie
grijze
Mc
mos
destructie
voedselinname
bradycardie
juridische
gi
concent
zei
responsiviteit
##oderm
hyperth
geëlim
Clipnummer
verscheidene
RAS
ingang
Dex
##proef
##ogeniciteit
gepaarde
onderzoeksresultaten
opgew
lipase
ENDO
Primaire
BG
Pas
onvrucht
cholesterolgehalte
afkomst
pleiten
##pool
##vee
Pulmon
Ala
##ision
Lucht
Werk
ip
##py
##fincter
Bloedcultuur
##stroming
##vre
##zym
zogenoemde
##abilitatie
amygd
B1
Sr
gall
360
ECHO
imaging
besmette
##geneesmiddelen
##iegeld
bloedtransfusie
##antiële
monotherapie
allergieën
antigene
abnormaliteit
cava
Mr
##oost
##feer
##59
overdag
afgek
##rokkenheid
stopte
axonale
##segment
goedkope
linkerventrikel
##essieve
proto
##werkte
kwetsbaar
ISS
VD
kust
##ld
activiteits
##ARGE
bloedglucose
extremiteit
Kwant
M1
Tazobactam
##iens
##ysma
##vormig
posttraumatische
##izumab
hepatocellulair
integrine
membraane
gedreven
Verplaatst
coch
##observ
trombolyse
##othyroxine
engineer
extern
automatisch
blootstellings
##ITE
instellen
verwonding
keizersnede
TBI
##fenol
folliculaire
Mens
##UP
##ieert
omliggende
1981
leefstijl
##bundel
##imet
157
##modellering
magnet
gecoate
blotting
##oef
mala
##versla
overgangs
Engels
##parenchym
anaerobe
endemische
Disease
gelden
diepgaande
Wereldgezondheids
Gelijk
harm
2021
hemofilie
breuken
proteolytische
verzamelde
broer
striatum
INFORM
GERD
TI
feeds
##osiden
splic
extensie
volumes
risicop
##osfeer
stabiliseren
literatuuronderzoek
Grootte
facil
hippocampale
follikels
Gezamenlijk
gebroken
aritm
diagnosen
kwik
slik
cardiopul
Dys
agen
oph
##verg
##gebrek
mitogeen
verlenen
plak
##NC
##ota
chi
##lanten
Universitair
communiceren
##isters
##bodem
steekproeven
##blijven
verwerken
immunodeficiëntievirus
F1
Sacchar
##SIS
oefenen
verontreinigende
elektrisch
##onefritis
zuster
##itt
ani
gezondheidsproblemen
spreiding
Herhaal
scherpe
Mis
##inderen
Morfine
##work
immunoblot
statistieken
gefosforyleerd
##ony
##ostatica
hernieuw
immunopre
draden
dimensie
levensvatbare
##zwakte
##diversiteit
QS
RIV
hyperg
tylenol
intelligentie
DH
##doelen
bijzonderheden
politieke
Brazilië
Bayes
Remains
Pap
##verde
##ematische
partum
hematurie
Conclusies
veiligheids
##vasieve
through
tientallen
neutralis
ijs
kopieën
Endocrine
##ateerd
analgesie
robot
rhonchi
Study
gm
eenduid
Erasmus
evenmin
colonoscopie
albicans
##icaal
afnam
##bewaking
Name4
obstipatie
##interactie
substantiële
flowcytometrie
##ardium
DRAIN
Lancet
Minder
Rout
pic
rate
##inele
celmembraan
100cc
##fluor
commercieel
concludeerden
gehanteerd
AOR
burg
noem
##ficiënties
##sprekken
##fosfat
##benaderingen
##regulated
hyperplasie
Bekijk
doserings
##hydr
galwegen
beeldvormende
5p
STABLE
Weten
harten
peer
##vrouw
##anit
inser
gedeelde
voorh
veelvuldig
titers
synergetische
buffer
buisvent
##broken
beschermt
boek
gebeuren
##mpels
plur
endotoxine
angstig
Engeland
vernietiging
dehydrogenase
voorzorg
##yline
huishouden
strikte
bevolen
epidemiologisch
Specifiek
PGE2
##breedte
gecreëerd
geëlimineerd
FAM
ed
pmol
nadere
##ateraal
##orfy
stenosis
gemakkelijker
Telefoon
fruct
subunit
##sterase
Commissie
nauwkeuriger
interventiegroep
##64
##urve
perspectieven
psychose
moeilijker
mannetjes
betekenen
##ularis
fenotypes
getraind
fon
aangeven
##verschuiving
antiretrovirale
clo
multid
CD3
fibrine
Radiology
##hormonen
levophed
##K2
affectieve
##okinase
ventilatiebeoordeling
##letsels
schijnbaar
dB
fijn
##idingen
syfilis
basislijn
postm
##helft
neuromusculaire
D10
darmgeluiden
enterale
liefst
##atormodus
uitoefenen
bereiden
tubulaire
gevormde
hydron
differentiaaldiagnose
##enting
aft
particul
##netwerk
Wereldgezondheidsorganisatie
rang
afstanden
patiëntenzorg
genetica
voldaan
reporter
Surin
silicium
opzicht
opvattingen
stille
##bestraling
heem
belangen
##TACT
hartstilstand
cardioloog
##derline
teweeg
##assemblage
oorzakelijke
glycine
HBsA
dren
afgezien
Uitgebre
Genetische
methadon
NADPH
Midden
pure
##gers
##ije
rek
##agentia
glucuron
tabaks
cyanose
gesubstitueerde
C6
CLL
##delijk
##icrob
##ancier
rustig
RH
uitgel
##uties
stemmings
##regeneratie
cholinerge
Admission
responders
Form
hangen
##lite
##verbinding
##oelde
ventricul
waarborgen
cp
##fout
##YL
invoer
bolussen
voorlopers
##ciplinair
TK
gelat
##Flow
Analys
extrac
##coop
zuivere
Voiding
4L
##G2
##62
onderte
chloride
##orgaan
Bijgevolg
Alcohol
plaatjes
celwand
hemolyse
##OX
##cirrose
duizen
##sanalyse
stomp
##wegende
gediss
onvolwassen
##virussen
EXTREM
keus
##kenden
##spiegeld
erkenning
infusies
abst
rooster
##hermische
latentie
##oxaan
microvasculaire
leeftijdsc
kruiden
RIVM
Eind
RCA
##atose
##oriëntatie
##stere
##imetrische
getallen
##gemed
##opid
##hof
beschadigd
cytologische
rechtvaard
lysosomale
omringende
Lak
##isfunctie
ACS
melkzuur
##rologische
Lich
Plaat
##kweken
##inalis
aanleg
microscopisch
stabilis
rechterzijde
nanost
galweg
heterogeen
##bescherming
lign
heen
beoordelings
subcellulaire
INS
kortetermijn
IMPA
IMPRESSIE
epithel
virtuele
##fiele
terminaal
AFOF
infarcten
verrijkte
thymus
prioriteit
PLACEMENT
inef
##tevreden
opgelopen
referent
lymfklier
verlaagt
definitief
##schakeling
Joh
Kg
Pac
koffie
##oordelen
##agie
embolisatie
diverticulitis
##promitteerde
##ignaal
intraoperatieve
##rincip
gentam
aderen
##genoot
##mente
##gevraagd
verbinden
##trose
groeire
##zettingen
atax
metastas
signaaltransductie
KO
Rest
##rige
##led
##opneum
gevuld
gemodel
goedkeuring
weerspiegeld
mismatch
Puls
immobilisatie
Cochrane
mill
##pan
aanm
IC50
duidelijker
verergeren
uitgangswaarde
o2
##erwijs
##iteerde
##iltraat
##formance
determinant
Later
afzetting
geïnactiv
##ILE
PCI
macrom
verrichtten
gekleurde
grafiek
##usculoskelet
verwekker
Ned
ciprofloxacine
##79
##VO
spir
##uigingen
adenoom
vriend
pilot
plasmaspiegels
##deert
reiz
uitgaande
benodig
repet
onvolledige
theorieën
##ompressie
toilet
olfactor
125I
isovorm
PMHx
Calif
penetratie
Aer
mum
##entesis
mutagenese
inactieve
##bbeltjes
cholangi
arterie
CBS
MTX
##bevatten
representatief
G2
WH
##iveerde
schro
vormde
##brede
TropT
organisch
Ple
mV
verdraag
symptomatisch
Amerikanen
rechtv
##glycerol
Nierinsufficiëntie
covalente
Hu
realtime
overdraagbare
cement
reë
##acrylamide
Expressie
NHL
##ilatormodus
innovatieve
##siella
##VA
##erder
Postbus
##anje
gezondheidswerkers
oogpunt
neuskanaal
gronden
respiratoir
combineert
varken
##bound
familieanamnese
simuleren
mix
betrekken
geleidbaarheid
##hydratie
sagit
convul
##oxie
persoons
Gener
passief
##verwijdering
##iparum
PAN
##M1
hout
biosens
##omplex
##ISH
##ithiasis
stijgingen
Dra
##keuze
##gery
DEV
bedacht
risicogroepen
dwarsdoorsnede
km
##klasse
##idia
service
atom
glucagon
CVL
psychiater
sectionele
tryptofaan
Il
##face
##zapine
##chet
geometrische
gezet
nitros
koppelings
adviseert
Langdur
zijketen
hyperthermie
Tyr
##END
pariëtale
osteomyelitis
Mensen
vrijwillige
PubMed
malaise
Fin
rechte
##abase
##structurele
toedienings
##silon
Draag
Pan
##WI
##dicht
histopathologisch
Chirurgische
HBsAg
##kg
##chrom
##aciteiten
incis
myosine
##laviculaire
abnormaliteiten
opi
dual
Afro
verrijking
geoptimaliseerde
bomen
sheet
##INAL
sprak
##rologie
wed
##ochemie
eindpunten
kalm
Dert
Dilaudid
dc
nationaal
##zin
##dendum
##ah
##iscus
multifactor
radioloog
verdacht
warme
sinussen
amn
H2O2
density
##brengt
##remmer
formuleringen
dode
##kop
##ofys
bronchoscopie
carboxy
##frequente
carcinogenese
bedreiging
Tegenwoordig
poort
beschikking
trich
##resultaat
MCP
experts
##vergroting
##IX
bekle
##schrij
eiwitkinase
##ITY
##opres
spoelen
groeiend
difficile
dermatitis
ammonium
##ciplines
Nederlanders
veer
##gehouden
gedwongen
##rens
consum
DOL
SSRI
3L
##ussent
##ificiteit
herop
subdur
Verpleeg
##comfort
##litst
hoogstwaarschijnlijk
gemonitor
##uraal
##masker
##ogrel
naïeve
##plegen
rechtse
onregelmatig
##econcentratie
##CO
afstem
##splaatsen
Stressulcer
concurrerende
Hematologie
leucine
counseling
afwachten
##gestuurde
rechterboven
emfyseem
tarief
Kan
volwassenheid
##odes
RECON
immunosorbent
Atriële
beenmergt
Zwit
##EA
##ylatie
benaderd
Toediening
Epidem
overvloedig
gynaecoloog
dihydroxy
voortplantings
Zeer
##alanine
gemaakte
technologische
##klassen
assistent
proximaal
##gekoppelde
NAS
rr
##operidol
falciparum
VA
zus
##snelheden
##zichten
ingevuld
oprichting
##oxon
viscositeit
##emetabolisme
eindige
receptorantagonist
gemonitord
Amp
MEN
##orazepam
##ulum
infra
monocyt
anatomisch
oncologie
buitenlandse
AutoFlow
Farmac
brom
transmembraan
strijd
##opathieën
optredende
depressief
Perifer
ongevoelig
klok
##assays
Ciprofloxacine
##nT
onsch
##adol
##ateriaal
Verbet
levercirrose
##dissectie
pacifier
CORONARY
Saccharomyces
codon
fMRI
ringen
##ini
##armen
##ulatoren
Depressie
immuuncellen
margin
isoleren
insertie
toxisch
slaapap
##moleculaire
Meropenem
TUB
hot
##ugel
##alaat
##athyreoïdie
ongevallen
collectie
##aaier
flexie
support
rapporteert
fabric
##dynamiek
##opidogrel
anth
##ligging
choline
beeldvormend
ECT
PO2
UL
##dipine
##ofde
synap
geluk
Vooraf
fibronectine
gegenereerde
crosslin
elektrolyt
plexus
bad
icter
keerde
##atrofie
periv
neoplasmata
IVC
##clus
varic
anesth
Engelse
synthetiseren
TITLE
maagdarmkanaal
zwe
##acc
230
misvormingen
sensibilisatie
##oplasm
hallucinaties
Scler
##ulinen
gevar
disulfide
##oolde
ganglia
gevalideerde
##ozoa
NB
lamb
##elijkse
cordis
188
ativan
geleidings
sectio
##elp
##ometh
heterozygote
##uzes
gecodeerde
Secund
Pd
kary
##KING
transplantaten
druppels
pasten
##elementen
172
Acid
antioxidanten
QRS
sw
##aters
beetje
automatische
onregelmatige
educatieve
condoom
TD
geëvol
kinasen
classificeren
bewerkst
jicht
##bsiella
voorstellen
##bestand
problematiek
##geleide
##erculose
Bru
##nex
##bijeenkomst
verkoud
subm
##getal
SDA
polymerisatie
universele
##stadia
sporadische
FF
immunomod
exponent
vaatwand
cohorten
zoektocht
bemoeilijkt
##iro
afweging
groeit
slag
99m
ascorb
##groeifactor
merken
pluripoten
ach
##rekken
one
##imen
erkende
##schaps
bevrucht
Onc
uitgestrekte
mamma
##ants
carn
endoplasmatisch
##irurgie
extraheren
komst
decub
plantaardige
communic
##raf
verzorgings
aantrekkelijke
klaagde
antipsychotica
TX
##tet
Invasieve
verbre
##sterings
slib
##ophag
mededeling
geconjugeerde
uitdrukking
Inhal
##gericht
evenwel
##sprong
bilateraal
BDNF
dispersie
dige
##waren
##WP
##ephal
##offer
bloedcultuur
bellen
poreuze
beheerd
##cellig
aminozuursequentie
absoluut
hemodynamica
##portun
SOCIAL
knooppunten
##GG
anorex
HCP
##vale
##vorens
##ostrid
deelnemende
##tensieve
dringend
##amponade
recessieve
coderings
thio
genereert
##bronch
sarcoïdose
bestraalde
Laboratoriumonderzoek
senescentie
##ussentijd
##punctie
gegaan
##ifug
upperiode
onderzoeksgroep
fant
##bor
significantie
Georiënteerd
SDH
vruchtwater
hypovol
verslechterende
tumorigenese
Zoog
##quis
##oppervlakken
##lakt
blik
perip
paradox
##iverse
##vulling
##stromen
getransformeerde
verifiëren
##ateerde
Device
construeren
vroeggeboorte
##beper
Complicaties
##reefd
##affine
DB
eclampsie
halen
##XR
##gever
##tenolol
onvoor
##matisch
##oorzorg
diabetici
##vangt
maandag
erythemat
epitopen
grootst
deskundigen
portale
geopereerde
orbitale
ruw
veter
bevroren
endoscopisch
geassemble
bacteriëmie
releasing
##ENSIE
##achter
health
##witch
##ergillus
tenen
clon
spectroscopische
littekens
signaleringsroute
verdwijnt
RB
##ality
danken
##vouw
toegankelijkheid
##koppeling
occipitale
viscerale
##omorf
gebruikgemaakt
##inhoud
voordoet
##ators
doeleinden
eindstadium
rectaal
productiviteit
##omycin
MITRAL
JP
##arme
##duoden
##vans
##adering
roodheid
gecoördineerde
Regelmatig
His
##oestand
biopt
ontstane
blokkers
drank
eenmalige
##opslag
analget
primaten
ART
##gradiënt
DNI
afgescheiden
auscultatie
MW
fus
mantel
##ageerd
Hiertoe
humorale
EOM
FOL
##aderen
##metabol
nanoc
##URS
eosinofiele
verpakking
zaden
depositie
bijeenkomst
##anitidine
scin
NOS
Social
##anthine
aflevering
##oun
lactate
traumatisch
kationen
aanbod
rifamp
uitlijning
##oscoop
reticul
CBO
##ketens
##diameter
##uppletie
##coh
bewijsmateriaal
oplosbaar
hulpverleners
buisvoeding
Science
##opyran
##ern
##stab
##rijdige
relig
Vanuit
visie
geïnteress
canon
opwinding
manuscript
Zwe
##mma
##ystrofie
##ademing
voltooien
##iferase
##spanningen
COL
##modific
substantie
vasod
kolonies
Wee
fok
hant
wandel
##breking
mictie
DIF
Mat
Sx
##ilant
mits
helling
##idium
##abces
dich
lactulose
##iteerd
rechtvaardigen
homozyg
##maals
ambulant
##FC
##vend
##oding
transduc
bereiding
##ilieu
cultiv
##polym
aanvaardbaar
glucosetolerantie
App
Pat
##oss
##utr
voorspellend
##instituut
##nd
##gramm
toewijzing
perine
##TIVE
cholest
formele
enteritis
aanvaardbare
wiskundige
RADIO
Ernstige
##yro
##jar
##ruis
heu
flut
BCG
inferior
buisventilatormodus
BO
##keer
##ward
react
uitgaven
hypoc
concentreren
congres
LUM
VAS
##oman
uitlaat
##istosom
bibas
bestraald
tag
##pub
##ïteit
onderdelen
laparoscopie
asymmetrie
FDG
Ru
percentie
apolip
##geleider
homozygote
##eiwit
gereduceerd
P1
tor
ware
bejaar
##opter
onverwacht
endemisch
##lichaam
Tabel
nt
##otactische
##gerapporte
##anco
##sprofiel
##kansen
beeldkwaliteit
polykl
Fem
coping
##tam
##dukten
##amera
##romatose
neerslag
competentie
Beschermde
natte
gebeurde
remmend
lidocaïne
geformuleerd
Cap
hopen
##aalden
Bekend
voer
##ENTS
ambulance
##igden
##treffen
regulatoren
##oracale
oculaire
splenectomie
IK
##ear
RSV
##oquine
##laten
##72
##olaterale
##rubin
subac
Th1
##morfologie
Mel
kopie
##ifedi
##afel
##neuronen
##langen
BMT
paniek
Delivery
Noor
Sat
##ankers
##bride
uitgedaag
cadmium
##oides
huisartsenpraktijk
revascularisatie
keratinocyten
eiwitexpressie
defe
##perk
behandelt
aceton
kristalstructuur
tegenstrijdige
1a
Hou
Via
##lobin
hydratatie
uitstrekt
GBS
P3
vij
##iekenhuizen
##achar
##verlenging
medicamenten
ultraviol
ACTH
patholoog
roept
Dist
##mering
hydrocefal
murmur
drugsgebruik
Bot
##omst
afle
genitale
##ostale
maatschappelijk
constitutieve
olfactorische
DQ
##stomie
omega
choler
colloïd
270
TEMP
Tijdschrift
CONTIN
ejectiefractie
##reerden
##identie
Voorlop
##itoneaal
##groeid
lux
detectielimiet
waak
##famil
##D1
opbrengsten
##osidase
naft
##sprobleem
vertegenwoordigd
verzekerings
pupil
rac
tussentijd
##ensis
##orbol
synthetisch
vegetatie
hyperthyreoïdie
##orum
geassisteerde
gezichtsveld
geavanceerd
leverfalen
tria
ectopische
exacerbaties
treat
##89
##ineerde
##upple
##mutase
Flush
FV
Leg
OD
##ressing
##breuken
tegenhangers
Vóór
##ontan
##uikens
epinefrine
dislocatie
Heme
##krachten
##ommelingen
arrestatie
baten
gebouwd
166
##organisaties
ulcerosa
aangemoedigd
Zwitser
Zweden
Leeft
UMC
flap
wh
coagul
##izoen
##gings
##cintigrafie
OFF
CFU
nieuws
atleten
ontbrekende
neuropath
##ifedipine
GBM
##korrel
coagulatie
cardiovasculair
drukpers
hypoxemie
Experimentele
Chirurgie
cic
##soort
opportun
verschoven
efflux
##wijls
##uleerden
STOP
morfologisch
##odendro
vermeldde
kalveren
multifocale
DG
tolerant
Minimale
BALB
##EF
##ieet
##unning
##vey
chirale
##igend
gecoördineerd
Right
##La
##oradi
antitromb
inzien
afd
hervat
bevond
gewerkt
##SPR
voorspellings
vagina
geopend
Sl
har
misvorming
responsieve
poliklinisch
agentia
gewaardeerd
chitosan
##vH
tussenliggende
menopauze
zelfver
voorkomend
elementaire
peroxis
voorlopercellen
Gemat
Mede
##onderden
aryl
IMPAIRED
Gr
##vix
middellijn
disciplines
##formaties
##amino
##espons
fosfolipiden
##obarbital
mist
ta
##orh
1800
Complete
1970
palpabel
##blijfsel
verwerven
embolische
HIT
Ruim
##aine
##verhoudingen
groeide
streef
gevaccineerde
nee
##long
##ney
##glycerine
##bevindingen
##rijpe
kenmerkende
taxa
wensen
##ruptuur
Röntgen
##alniet
intub
plavix
kloof
geënt
Famotidine
##alniettemin
Stro
kuur
oplopen
eleg
histologie
grondig
##ophilus
##iepe
oncogene
bestanddelen
antistollings
ceftria
##verband
acut
malari
klepbladen
Cas
Pup
##fl
anomal
microflu
observeerden
zwaartekracht
beëindiging
anicter
##cente
##wann
##ocriene
methylatie
ongunstig
throughput
Bere
HSC
##paar
##uivende
etiologische
superior
gedocumenteerde
mtDNA
##oorzorgsmaatregelen
wk
onbep
leider
abg
##conat
verwijderde
geanalyseerde
Daw
fors
##aran
##iment
ziektevrije
hemis
evenredig
gerealiseerd
multiplex
Vergelijkbare
GAP
nemat
##o2
##ioloog
desc
terti
AMC
kinderleeftijd
189
partus
neutr
##bruggen
nc
##61
##ocet
##volwassen
golfveranderingen
congestie
norepinefrine
moduleert
hoort
tijdige
##peptide
IVP
Spanje
autisme
##belast
methionine
##poë
immunoreactieve
subtiele
verkoudheid
VC
big
ss
##buizen
##advies
glio
maxillaire
##missies
decompressie
##ROM
PBMC
##besl
Levophed
Marokk
trypsine
Follow
ole
##etast
tijdsver
162
laatst
homocyste
besluiten
gehandicap
LUNGS
hosp
##E1
##olsels
##agram
antif
ziekteprogressie
leidingen
hydrogel
miljard
etniciteit
beëindigd
puberteit
kr
ka
##afbraak
rustende
epitoop
benodigde
Moleculaire
pep
##OUS
##bril
polyacrylamide
arterio
generaties
asbest
##ELLOW
Geslacht
noradrenaline
1H
Frequ
##PSC
##BO
##ibil
eiwitniveaus
beperkende
##blijf
##bloedingen
Handel
tons
##LT
##actrim
##modium
serumspiegels
##gemedieerde
Lo
##nea
ileus
Ventilatormodus
orthopedische
stationaire
amygdala
KCl
hCG
minderheid
ademhalingsgeluiden
naam3
huisartspraktijk
engineering
digest
dic
##igranten
##epp
167
##ailure
dragerschap
mim
kleuren
allerg
tachyk
axon
Turkse
Draagbare
Male
##atoom
##udent
164
##illing
raadplegen
maximaliseren
dokters
Left
kPa
##randen
##drain
derivaat
##orrelatie
blokkeerde
##okinesis
HN
Remming
##schoenen
vrouwelijk
apneu
linkerzijde
flowsheet
Initials
Vandaar
lambda
VTE
fid
##lofen
enorm
##iseerden
uitwendige
hypercalc
##ursussen
HTLV
voltooiing
Vancomycin
bewoner
spiraalvormige
##sconst
##synthase
Zacht
regeling
beslissen
Aspergillus
originele
herkomst
IG
##drom
##L2
##training
##iair
AMT
begeleid
169
impuls
##herapeutische
Exp
soa
##espiegels
troponine
Maast
schakel
##ïek
meervoudig
coëfficiën
##ERS
CVD
CPK
astm
kruising
urinaire
bicarbonaat
elektrofysiologische
##oorzicht
Trigger
levenslange
Cel
##zi
##zymen
##FF
ontdekte
axillaire
##kinderen
oproepen
##ieres
behandelden
schuim
scheur
##uiven
polyne
calcificaties
plasmiden
droegen
fosfolipase
pyrid
osmotische
composiet
##buminurie
geconcentreerd
Maastricht
Phe
ray
induct
##itabine
##iclovir
##istieke
##ecretie
##gradige
glaucoom
Australische
verstandelijke
prolactine
LAS
185
radiologisch
pleit
geproduceerde
cytosol
deleties
Standard
carboxyl
Pert
##yme
##kie
Inderdaad
Versed
##landse
Lew
elektrostatische
##verzadiging
gentherapie
opioïden
Bronch
WELL
##cet
##aang
##kd
stig
monomeer
Rechts
##ventioneel
pyruvaat
Desondanks
triple
dossier
##immuno
tertiaire
##raking
ontregeling
immunost
vertekening
##immel
Vitamine
##hypoth
verdunning
urineweginfectie
##iramidale
RI
##reotide
syncope
177
stopzetting
symmetrie
109l
Fluids
killer
voorouder
##ICARDI
##strijd
##omediast
radiografische
##diffractie
##begrepen
prednisolon
Experimenten
constitutief
afbreek
ongebruikelijke
Sing
gecompens
CD34
##ozym
foetaal
Diffuse
perceptuele
##embryo
Zwak
##ama
chel
poliepen
cholecystitis
gyrus
##VI
Algemeen
absorb
Child
##overgang
rekrutering
mitralisklep
zaail
##pyr
##dix
Numer
Canade
molaire
qd
##eloos
##ionella
voorspel
economisch
slijmvliezen
1L
Tol
velen
overgrote
stevig
161
adv
##rague
polyethyleen
voedingss
##aminase
geprogramm
intrat
subtilis
##gevingen
##oxid
scale
cardiover
Ontkent
Activiteit
HER2
tachtig
##radiol
work
##antum
Spaanse
crème
##cyx
wervels
honderden
compleet
Sprague
##uters
digoxine
cerebrovasculaire
neutropenie
5e
HMG
gewonnen
bedden
##bereiding
##ollige
antioxiderende
##ban
##ikklachten
sterkste
mediatoren
galstenen
Verandering
##variabiliteit
overgegaan
opleidingsniveau
##fundeerd
Jon
##gemaakte
4e
Intub
verlengen
Histologisch
belemmeren
1α
HUS
##aqu
##gue
##rage
aparte
tubuline
##zijdse
doodsoorzaken
Aspirin
Noch
OAC
##dii
patiëntengroepen
kerat
Houd
overtu
Infant
momenten
neph
##x2
gepolar
microp
incidenten
plek
##inereceptor
##positieve
orbit
##ministration
Food
JNK
##JD
##ischemie
uitdro
vroegen
Anti
conflict
kwaadaardig
RO
Ven
##P3
##ops
inflammatie
vreemde
N2
##oere
geloven
003
##isense
bevredigend
##potentiaal
SED
fotor
pel
##uzen
bijschild
anionen
##ranul
aandachts
definities
##OSE
##vattend
zilver
Dawley
##iatrie
##omiale
##heven
zweren
50cc
botminer
##gerelateerd
verzwakking
##wijfeld
p21
##lair
neoplasma
immunocyt
178
320
sindsdien
gekarakteriseerde
geïnterview
prikkelbaarheid
luciferase
innemen
betrek
##betrokkenheid
zonne
##ino
##oscop
NHS
necrotiserende
cochle
field
##itril
##drachts
operatiekamer
proefdieren
uitbreiden
Toevoeging
Transfer
gesynthetiseerde
geënte
voorzorgsmaatregelen
Lok
spike
arseen
gewonde
##ally
##resorptie
##ULL
oligodendro
wettelijke
brady
##stituties
Pla
sector
wan
##agens
##verblijf
##rongen
Leuk
modaliteiten
retroperitoneale
papier
intense
##ual
##bureau
opdracht
##aanzuur
Neem
##nelle
vaakst
##gemeenschap
adenomen
endothe
fabrikant
opgespoord
Cellen
##maakt
##irth
interc
heroïne
##itieel
Group
endovasculaire
TUBE
Bu
uitgesteld
gedroog
parap
ventrikels
##oefend
Nutren
##zeer
veelvoor
referentiewaarde
hechtingen
gentamicine
Vor
raam
##bindings
##zings
##ratropium
diermodel
smalle
visualiseren
verkrijgbaar
giftige
##khoest
##industrie
##urium
rebound
##opathologie
oss
vouwen
##ba
##anz
##insul
##omica
1600
schildwacht
overlevingsduur
ct
##otub
##acy
gezichten
hystere
##dode
##hygiëne
grafeen
##lobuline
kinkhoest
geëvolueerd
Functionele
Model
##ives
##aller
ADM
Respiratieondersteuning
depressies
##luor
subklinische
losse
vervolgonderzoek
onjuiste
stamceltransplantatie
synapsen
MRA
tast
##angio
overal
volgend
##oglycaan
BILAT
##otatie
##ikkingen
hypertro
Immunohistoch
drijven
##arische
##onor
##ocal
##probleem
kinderartsen
##koming
corresp
tric
##beperkingen
fermentatie
stoch
##affiniteit
neurotro
##relaties
ontstoken
protein
operationele
ferritine
warfarine
slachtoffer
Ziek
nig
##onch
##ulatoire
##emissie
##strat
vena
NIE
##yx
##52
##reeks
Struct
hyperpar
Specifieke
herschikking
reizigers
##psych
##vasculair
##AA
##SO
##geïn
##appen
blanco
biot
glycogeen
ORF
periodiek
omkeerbare
##uïst
ongecompliceerde
schaarse
##bevattende
Time
forens
pa
overheids
##nekk
Clostrid
handmatige
HDAC
qua
Opmerkelijk
financiering
##elektro
bruikbaar
fagocytose
GFR
DAT
Ratten
én
onmis
thre
identificeert
multipel
cardiomyocyten
comorbiditeiten
oscillaties
equivalent
hiërarchische
gefixeerd
##sonde
##ymer
##ymptomen
##atiet
##aanvallen
verlamming
##reson
PLT
##cycli
EDTA
MMM
appendix
geïmmuniseerd
decubitus
canonieke
PGF
##olum
##ranolol
##ellow
gewichten
##ANCE
foton
dysfunctie
faculte
Dienovereenkomstig
CGA
##1a
groeisnelheid
Eiwit
##inaire
bedragen
##gente
Bewijs
CDC
##oratoria
periodes
betreffen
opgewonden
Zonder
koort
##luidt
hechten
infuus
vertak
excretie
quas
##stijging
Microbiologie
Secretions
sial
##oteerd
##zocht
##bevol
perfect
tijdro
trabec
postp
cm2
##mishandeling
standaardbehandeling
apotheek
spermatozoa
mang
##onaten
##agers
##apent
##ads
transl
doof
NPC
surro
nabije
apothekers
spreekuur
Lisinopril
##58
ingeschreven
##olven
omschreven
chap
500cc
Thromb
##OUND
Systemische
##fragmenten
voorhanden
X1
toc
##domeinen
##onsters
##amere
##astr
translationele
Hierop
Ondersteun
##aily
creatine
##bevorderende
Medi
verze
##osferische
##agina
##ikkelcel
carbam
benzo
Multip
thymidine
ecosysteem
WNT
##combin
##crib
geiten
aangedaan
mitral
moedermelk
HeLa
##compressie
passeren
beschermde
Mot
##patho
aansluit
ischemisch
psychiatrisch
Aanvullend
##instrument
##atomen
##deringen
revisie
##ibilis
zorgplan
Addendum
PERICARDI
mobilisatie
cefepime
accessoire
##genoeg
anten
##bewust
##profen
020
PAI
Th2
##zwanger
##ilantin
fla
verluidt
##hypertrofie
Desalniettemin
fosfolipide
multidisciplinair
Secundaire
polyneuropathie
##bil
eenzijdige
opvang
afferente
##ietische
hieraan
add
drievoudige
dismutase
##OSIS
suppressor
suikers
Achter
##pe
deox
##edoch
verpleegkundig
Administration
kristallijne
schakelen
Plasmodium
SEPT
##circulatie
pesticiden
Menselijke
##aven
biome
impul
##brid
amylase
ingu
kwadr
Gemiddeld
captopril
Ed
Vi
##pil
##x1
##oorn
##opar
##aneur
verzamelden
##dimensionaal
epidermis
klimaatverandering
kalibratie
cerebrospinale
Thuis
VSS
wassen
bestemd
gemodelleerd
Barr
Zuur
by
##kankers
##DH
##lazen
##ICK
herstelt
triviale
uitgedaagd
tbc
##bische
##ymp
##73
bewegende
##ompen
werkple
60s
waarschijnlijkheids
behandelingsopties
delier
fistels
hardnekk
contractiele
darmmicrob
hanteren
gig
terrein
suspensie
##kader
##él
vanzelf
##okt
##haling
helper
##code
280
##ometrisch
##blaasjes
verslechterde
chondrocyten
##reep
Intensive
CLIN
eerstelijnszorg
gemakkelijke
veerkracht
Vari
##lers
##ffect
##fasen
##uitst
incomp
debat
stroomafwaarts
Sout
ZvH
leed
doorvoer
##aalt
produktie
vitaal
gravid
##geborenen
mondverzorging
Raad
vervoer
##dikt
proline
onderzoeksp
verblij
##geluid
normotensie
182
##houdendheid
invas
OPTI
erytropoë
claim
##houder
plasmaconcentratie
##naam
##olys
isop
benzeen
moeheid
oxyt
##specificiteit
overtuigingen
larvale
audi
slaperig
Tal
onnodig
159
##uitscheiding
Behandel
##ocyan
gevestigd
onvermijd
EOMI
hoof
##ARE
illeg
erfelijkheid
dikwijls
cefal
##yo
probeerde
percentiel
##rh
##UGH
ziekteactiviteit
##entrische
##schattingen
eicel
Medicijnen
jugular
particuliere
##artikel
tijdperk
upduur
geldigheid
polypeptiden
nadelig
sfincter
belof
modi
163
STO
verpleegster
soja
voorzichtigheid
Pedi
diens
gingiv
radicaal
circuits
ataxie
sym
##assemie
##STR
aspecifieke
tremor
##omatis
cohortstudie
BH
M2
Pi
dak
##gecom
aang
performance
Daarmee
assessment
Conjunct
efficiënter
Aanvaar
rubriek
##path
##inositol
##sparende
verbrand
colectomie
##infiltratie
voorkeurs
semantische
getranscrib
##ISSIE
uitdagende
gag
##chen
##ienden
##eptidase
##person
cellulitis
acetab
##cysten
latex
##grenzen
Cardiac
FEVER
astrocyt
heupen
LLE
##oliose
##usp
DIFF
##negatieve
borstpijn
samenhangen
Aldus
Present
SING
##yf
reken
hetero
##litaxel
##go
##WH
##rook
voorkeuren
##uldig
dosisafhankelijk
magnetisch
gelegenheid
slaagde
kuren
##arag
omze
neven
##valuatie
indices
kleincellige
deeltjesgrootte
osmol
eukaryote
linkerventrik
consulten
Syst
san
##arum
##oprim
afleiding
patiëntenpopulatie
##agebruik
##ovenox
meningokokken
EMT
transformerende
Daardoor
Mass
PAL
VRE
##ris
gewezen
ontoere
nagenoeg
##stralen
verwerving
ovulatie
adolescentie
leerlingen
##sefficiëntie
wachtlijst
anticoncept
onderstreept
Cong
stren
##osterior
##zinnig
exemplaren
Tg
duren
merkte
##ford
##zout
isomeren
##opamine
waterk
Gev
graag
breken
chemotherapeutische
letter
microsat
stroomopwaarts
##opneumopneum
Tur
TIP
mG
##oactieve
inte
##ijdrage
##atriëmie
ademhalingsfrequentie
##URAL
Lytes
entiteiten
celtype
intramurale
kosteneffectief
abcessen
staven
SINGLE
Da
zel
##etente
##othel
dienden
lactatie
herhalings
oefeningen
Positieve
B2
BRA
##ux
##eerst
##oglobin
epsilon
circum
##ithine
verduidelijkt
lisinopril
instructie
##laesie
Index
unilaterale
CDK
##netwerken
Respiratorische
2a
##fonds
##ön
demp
antisense
006
##kwaam
phot
vloeibaar
RVR
arbeidson
getiteld
E1
Vir
##teren
##vue
condens
myofib
##RIAL
modaliteit
##study
transporte
##olipiden
defecte
spondyl
##dev
overgangen
arth
Wegens
vertelde
##rylaat
Tijdschr
bezorgd
beenmergtransplantatie
##my
opbouw
##schil
resorptie
serotype
CODE
berichten
##elektronen
BRCA1
Bla
hit
ler
Ind
AMI
diffus
##RIP
##oplossingen
bloedgas
lichtverdikt
Kind
berg
Verrassend
klonale
hydrofiele
ACC
nabur
lysis
handelingen
ideeën
Gecon
KNO
Os
ademhalingscomfort
tachypneu
lepra
BAC
##kaart
##idym
celadhesie
##TIV
Lyme
Suboptimale
seroton
Q4H
##verontreiniging
Go
kettingreactie
ondersch
shell
legt
verwaarlo
wederzijdse
TEM
betalen
voortgang
maaltijden
juven
AORTA
Tab
larynx
##artrate
immune
autopsie
Chol
moeilijkheid
bevordering
stapsgewijze
versneld
##secret
Echografie
ecosystemen
ziekenhuisopnames
##gereguleerde
Pep
paste
##mycine
verrassend
overweeg
##ivir
web
##ages
cerebr
SPUT
##iepte
Pulm
ongrijp
ongeluk
Har
Lim
##praktijken
afb
gebruiker
##ycycline
binaire
zelfgerapporte
Contact
Voltoo
##integratie
##obutamine
anorganische
dure
doll
diltiazem
##gemiddel
##oepel
werkzaamheden
enquêtes
##oetst
wekelijks
Mutaties
##antilichamen
AH
DIE
Ts
esc
##opte
##eeuw
onderbeen
##ramide
zelfd
roof
##houet
##apoptose
Hog
VII
##umar
spor
##trauma
zorgde
176
##SCH
##electiviteit
Heart
vulden
opportunistische
LOS
QID
SMA
insch
bijgevolg
##iency
bewuste
3000
interfac
TLC
zijkant
benzodiazep
date
repressie
uitspraken
basal
breder
contrastmiddel
besteden
silica
clinicus
SATS
mestcellen
huishoudelijke
hyperglykemie
FULL
platen
##scyclus
verpleeghuizen
mitochondriaal
manifesteren
appende
GRO
algen
onderschat
diende
##arming
hoofdhuid
##rolimus
SCC
pyrim
septal
##contrast
koud
stuur
longoedeem
duiden
psychiatrie
Hemodynamisch
##amnest
Geneeskd
opgericht
bloedonderzoek
konijn
STEMI
Monte
absces
Xen
##iserend
sommigen
NPH
CCR
##betrouw
suggesties
gevoeld
Ile
##mel
vangen
##dernacht
##igemin
vasten
immuungecom
marge
##vloeistoffen
mammografie
##herente
vereenvoud
desm
##iëctomie
##ioneerde
gebruiks
paran
middels
225
bètab
##ioc
##hR
verdienen
##ury
overb
##anneel
##sprestaties
myeline
choledoch
Temps
##zweren
nature
onvruchtbaarheid
##bos
menen
microbi
vrijlating
nucleïnezuur
##ritish
neuropsychologische
##lemma
##omloop
symb
30cc
synch
doelstelling
##cipit
bezochten
H2O
waterstofperoxide
acceptabel
Clostridium
Ka
Ogen
RIJ
##pla
inenting
##itionering
##gevers
werpen
##abs
effusie
SOA
bronchitis
radioactiviteit
immunoprecipitatie
stoma
werkelijk
##vention
##management
elektronenmicro
benzyl
geïnformeerde
British
Ie
tamponade
##lon
##igings
doorg
##angitis
verschaffen
##TIR
231
##ucleotide
cyclosporine
Vroeg
BBB
geconditioneerde
metronidazol
##ethoprim
NAF
##ofosfaat
synergetisch
neutraliserende
marginaal
betrekkelijk
Q8
intest
##emetrie
acquis
State
hoogler
brein
spierzwakte
dwang
schetsen
antihypertensiva
BNP
Orale
thalamus
##liter
##omvang
voorbe
##ogels
##herentie
##iëlekt
Name5
Chlamydia
ruime
oefent
nasogastrische
endogeen
intermediair
mesenterische
uitdagend
ipsilaterale
##hypothese
von
Alt
postpartum
valse
trombotische
buikwand
1975
Toekomstige
conjunctiv
voorgedaan
##marker
inve
##olutie
##rap
##hecht
reagentia
##dules
##endement
##lodipine
bovenbuik
##wijzingen
glycosyl
aanbieden
gerangschikt
##94
harttransplantatie
##schappij
rationele
overzichts
tachycardia
hydrocefalus
MY
Middel
##him
dek
gehaald
allotransplant
maagzuur
WEAN
##constante
proteasoom
Langdurige
inziens
Pertinent
budget
##eticum
##iero
##atri
##azool
##verlichting
##interventies
bodems
nabootsen
Open
##ctoren
leverenz
ABC
proteïnen
benadruk
trigger
omkeerbaar
Wille
sikkelcel
##gamma
##IAN
metaf
overblijfsel
hydra
Opt
##LEY
##accinatie
gangbare
gynaecologische
toepasbaar
stafyl
Mich
Tox
tendens
evalueerde
amiodarone
multis
verliep
gespeeld
wisselend
meropenem
stroming
Fre
RCC
rangsch
##ilanden
waard
##neden
##trig
##rofylaxe
##oreus
##odim
##roforetische
RUQ
##ords
##chicine
##alcohol
ORDER
gaas
kunstmatig
hedendaagse
pot
##AGE
##WB
apart
##voorwaarden
174
evalue
260
kleinste
dodelijk
AMPK
CUR
##ialisatie
constructies
recep
vasthouden
overtollige
evenwichts
bemonsterings
sigmoïde
##distributie
scrotum
Murm
orof
##G1
##enyl
##criptie
septic
##arterie
afleveringen
maatstaf
FX
Fac
R2
squ
##borg
##dieet
##roe
##omtrek
##edarm
tussenproducten
methoxy
##ancre
geleerd
uiteinden
casestudy
##etalol
immigranten
Verwij
340
Preventie
voornaamste
predispon
Aanvaardende
gesprekken
tumorweefsel
Ondertussen
Samenvattend
adolescente
colorectaal
vliegen
##zes
##inoc
Inzicht
explo
bisfosf
boezemfibrilleren
Leeftijd
hyperparathyreoïdie
##eat
nebs
upregulated
CCK
referentiewaarden
entrop
##omgevingen
##spoten
lectine
intraventriculaire
plekken
##zaïek
Vas
Wnt
qPCR
hartfrequentie
gastritis
vrienden
CIN
vielen
##olpen
voormalige
##adine
levo
##rames
diffractie
inclusiecriteria
ribosomale
neuraal
##segmenten
posttranslationele
B6
##kanneel
##OK
##stukken
overn
##utionele
heft
gedomin
##eptische
academisch
hydrogels
fibril
functionaliteit
##issingen
teleur
uitvoerig
batch
##onam
##derivaat
verwerkings
amine
##blijft
ontwikkelingsbehoeften
ideaal
##laboratorium
lamina
fent
coating
lipoproteïnen
metabolische
familiale
##rijping
telefonisch
LB
heterol
##peritoneaal
##gebleven
ademhalingen
melanomen
Geboorte
##bromide
regionaal
Access
energieverbruik
MAO
##disfunctie
##ofylline
pna
poriën
##blootstelling
##function
regeneratieve
##edantie
##fiet
doelgenen
intran
##oudt
##apparaten
Honderd
##100
geholpen
proteasen
bijnieren
##commissie
tachy
Plasma
rehabilitatie
FLUID
John
Natuur
kijk
oproep
anus
corrige
##ATIONS
##hoewel
Tolerant
buff
##PE
onderlob
werkte
orgaand
ANG
antiserum
percepties
habitat
getransfecteerd
naburige
SPUTUM
Acc
overlap
testikels
Volwassen
palmit
citraat
verslaving
thyre
Gent
Wonden
##zijden
##rosis
gebeld
cardiomegalie
Bloeddruk
tetrahydro
Carlo
##buprofen
iliacale
Oper
duim
##sbe
##eale
##87
##stoft
##lekkage
##spray
afk
groenten
calcit
integraal
bibasilaire
Pur
Typ
lb
##ivus
docking
Voort
##ielden
Hieruit
Hierna
bedoeling
plasmag
borderline
##tegenwoord
goedkoop
uitdroging
Km
ic
aannemen
uitmaken
herschikkingen
thiamine
COMPARIS
LL
mont
tellen
##artritis
Verbetering
##rammering
Start
##lange
explos
geforc
ingez
gunstiger
nasof
tijdsverloop
7a
##instructies
overerving
samenspel
getoetst
botvorming
nitriet
prostaatcarcinoom
##semble
hydrolys
Lactischzuur
beoogde
Dig
iNOS
overd
study
hyster
004
Alles
##azolam
voortvloeiende
##tevredenheid
sagittale
q2
##tose
onont
ongelijk
##ondens
statines
gezondheidsrisico
SCI
##unctuur
nefro
demonstratie
OV
rijden
##ituaties
toxines
induceerbare
filamenten
##pressivum
angiogene
geïnteresseerd
ful
omeprazol
dichloor
dilemma
zwart
epic
middernacht
kleurstoffen
manipuleren
toetsen
haplotype
##beperkende
##mata
173
##izing
herstart
tetram
overlevingskans
compenseren
##studenten
##rijzen
extravas
gedragstherapie
Studie
voorzichtig
sjabloon
NAFLD
##vasc
##osum
onderwijzen
knoop
Allerg
trachomatis
##opolymeer
BN
TIM
##uraties
##uitdrukking
##ficiency
positiviteit
opleverde
warmer
vasoconstrictie
ROC
##half
klem
171
hulpbronnen
eosinofielen
VK
frame
##KEN
##iters
##oeu
afmetingen
##rieken
receptorb
voorspelden
potentialen
##interventie
Tweede
##fracties
Glc
##benzo
SEPSIS
910
pin
##lix
##zijnzuur
wetgeving
HY
Tumor
actu
manchet
suboptimale
voortgaan
rechtop
##oriënteerde
beslissings
JVP
##anale
##atiere
##reconstructie
ontgif
activerende
tetracycline
HYPER
HYPOT
##ositioneerd
FOLEY
wekelijkse
IX
keg
polysaccharide
##werkt
grondwater
CBD
anticoagulatie
##potentialen
microfluïd
arterioveneuze
##apamil
Doordat
indometh
Notch
achtereenvolgens
Voedings
aromat
##iseert
aangen
onderbuik
##abric
verborgen
vergoeding
##thes
seros
bezwaar
tachycard
##oïnezuur
trillings
vasculatuur
VIEW
Uitgebreide
YELLOW
doppler
wél
##abe
gewas
MDS
voorafgegaan
propranolol
mucosa
knobbeltjes
##wetenschap
##osmetische
gedown
Kwantitatieve
ciclosporine
botmineraal
iatro
vasculair
##hor
meegenomen
##draad
stegen
multires
##ouracil
eierstokken
correcte
ademen
##scan
trage
thromb
standpunt
lymfocyt
manifesteert
paclitaxel
enanti
dron
inherent
##perto
myopathie
varices
knieën
##ositionering
TOTAL
kiemb
ceftriaxon
1b
Cys
ROM
kro
##erale
##asmen
gebogen
Verst
verstorende
030
##licten
scannen
aspiraten
episoden
##aadt
NOTED
dringende
Baseline
Lp
Times
##transport
dimeren
##kinetiek
##olipide
bevruchting
Water
afwissel
aantasting
##gendeel
COUGH
homoseksuele
ALAT
Orth
vermenigvul
ondertekend
cost
diëlekt
##bloe
##mob
##ased
##obie
CHD
fosfo
##personeel
midazolam
oogheel
droeg
##ylefrine
satelliet
motiliteit
##gezondheidszorg
##imaging
##NAc
predi
intravasculaire
##opening
lymfklieren
##beloop
organiseert
dreigende
belofte
##dynamische
##aginale
##promis
parath
groeiver
radiof
##RAY
##isser
foci
indexen
Ontvangen
Symm
verontreinigde
Vrije
GVHD
sekse
X2
##erbaar
deg
stonden
uitoef
##ides
schil
regelgevende
DOX
##ijftien
covalent
opacificatie
Events
Ast
Zod
cot
ozon
gestoord
179
fractionele
##modaliteiten
bemonsterd
HEP
preval
major
species
borstwand
instabiele
biochemisch
Amiodarone
voorbehandeld
MUL
##keren
##ichaam
coma
thuiszorg
##onuclease
SHR
gevoerd
PERICARDIUM
CsA
che
##zaad
gestrat
##rouwen
aanraking
##peroxidase
hersenbarrière
##opathologische
##fuseerde
caver
epididym
verstrooiing
CLO
##aminatie
oestradiol
registreren
evolutionair
necrotische
CpG
indomethacine
Londen
Rap
Zest
##ht
##zakelijk
##ostoma
208
synapt
gelelektroforese
##werker
##angiografie
getransplanteerd
opgebouwd
agenten
##GO
##att
##dermale
##roplastiek
demyelin
oxygenase
##XA
##idov
##hoven
abl
Chloride
segmentale
DRG
Welke
##wetenschappen
##abdomy
afgerond
dysfagie
Californ
exponentiële
elegans
makkelijk
##vijftig
##idom
##imeter
tou
normalisatie
zuigeling
Neurologie
DISE
batter
##yraat
##atic
analysen
verkorting
stenting
##cumine
substitu
pyel
##stijds
ongrijpbaar
Lymf
V1
##erie
##indigen
onget
hervatten
plaus
##izer
partijen
glazen
GW
Twaalf
decarbox
alvorens
##perme
##conjug
irre
##leidingen
##dubbel
weigerde
##bacteriën
Nrf
##glu
uitdruk
##lood
extracellulair
cardiogene
##zichts
oxide
Klebsiella
aerobe
tracking
onjuist
overleefden
TOLER
Ir
L2
##cascade
##inem
##lem
##hebben
incre
zorgverlener
mannitol
polymere
speelde
divergentie
snij
sympath
muziek
purp
##conditie
MULTI
##H1
exogeen
nieuwste
parese
cholangitis
clopidogrel
1978
##glycos
tibiale
lavage
##cale
##ilen
behoudt
##oblastische
teruggevonden
transplantaties
waterstofbindingen
HEMOR
syndrome
##abdominale
stafylokokken
##eldisfunctie
onthouden
exs
##ureerd
hierna
objectief
continuïteit
katalyseert
##ookt
A5
Docus
Ra
SIM
##olact
register
hoogrisic
kraam
##imodale
hyaluron
fructose
Wellicht
cipro
nerv
##olus
##afname
verwijzingen
##uraf
##opoë
GRAM
butyl
tomografie
Belgische
duizenden
Canadese
2A
AIR
MPS
cele
##KL
##F2
gedi
##irp
lezers
##weed
##matigheid
celdeling
Hiervan
IGFBP
Oxycodone
intentie
Toegangs
5L
##vG
verpl
##spire
deelnemer
Oplos
PRO
osteo
##ognitieve
IH
cd
##inking
afsluiting
spons
bloedproducten
zorgverzeker
stralen
##ICUSPI
TRICUSPI
1979
rifampicine
substantieel
##D2
ante
naakte
293
Trich
ladings
beëindigen
thalassemie
verkrijgbare
##correctie
AQ
reizen
beschreef
variërende
emotioneel
dyslipidemie
blokkeert
##media
causaal
##sthetische
pulp
##bit
##alan
##neus
risicor
Name6
Stabele
getal
gekru
##compens
allergeen
kationische
HAP
dacht
ICH
confocale
Physical
verdedig
Neck
pell
woonden
##einde
##KS
##ineuze
##ienet
##afden
tracheale
agglut
haalbare
merkten
gestandaardiseerd
bloedsomloop
##dynamica
##ITIES
Succes
SEPTUM
Tai
##reet
##ATRIAL
endocytose
##APH
familielid
vaccinaties
##sensibilisatie
parasit
hematopoietische
hamster
##WAY
hysterectomie
Seph
Zeel
lent
hoeven
epi
##ardatie
375
beïnvloedden
afgebeeld
faciliteiten
Indiase
##geval
##stenosis
##rampen
getijden
Uitgesteld
verergerd
##geschiktheid
amyloïdose
INTERATRIAL
Gest
aarde
dichter
tweedel
bases
werkelijkheid
Overweeg
valide
aortale
fosforyl
lichtverdikte
##sexperimenten
simplex
##INT
##illon
trekt
jejunum
dankzij
Pf
energieën
head
##bber
moedigen
geët
instit
##120
dunn
##kristall
##borst
##boog
##karakter
##iddag
meiose
capillair
SPECT
verplaatsen
##idovudine
Hom
MU
##lies
##goed
##spannings
##ATIVE
biosynthetische
leukemische
##acetyl
documenteren
##omegalovirus
STAT3
oligonucleotide
DRAINING
apolipoproteïne
Q2
Surg
wbc
voorwaard
##plat
Zuidoost
##aiac
Italiaanse
DISEASE
1A
Asc
pens
ophe
##uran
rechten
veelzijdige
articulaire
##EDS
##retentie
classificaties
##obacteriële
sigma
beginnende
DISCH
##otrofe
supplement
Sens
VIP
werving
##aggre
nae
##cyclase
dubbelstrengs
provincies
##transplantaties
##loïdie
LOWER
metastasering
##immunoassay
Year
nich
zand
##stek
Str
verwijst
dermale
navelstrengbloed
##propion
SIR
Tartrate
VAC
roepen
##har
##ESS
##genitale
##ortale
vermelden
vergelijkings
eiwitgehalte
carp
hoofdzakelijk
poplite
waterstofbinding
betrouwbaarheidsintervallen
Levofloxacine
Ouders
publikaties
##slaan
##mine
achterwege
erytromycine
ondervonden
cGMP
face
sfer
##bot
##cyst
traditioneel
NEO
aerosol
uitgangspunt
tracering
gras
galactose
robuustheid
otitis
obstak
##gronden
Zeeland
huw
regener
##thyl
##obacillus
immunologisch
thee
bloedglucos
urethra
endotheliale
KL
##onatriëmie
geagit
##igo
##ichi
extens
gedachte
##rometer
werkzame
##monitoring
##ropnT
terughoudendheid
interactieve
##frequenties
CD44
##privatie
Atrial
multicenter
adducts
subarachnoïdale
Rab
ra
##ualiseerd
##O1
##X2
ensemble
tracer
##stelt
bezwaren
integrale
dichtheids
conditionering
PULMONIC
attitudes
geslaagd
WM
bindingen
zolang
##elte
deep
voorgrond
ontspannen
apex
##ceaan
onderscheidende
blaaskanker
titan
particip
CLINICAL
##creening
##54
antistof
Verbale
##oemd
drift
##compartim
gespannen
equivalente
San
Tub
##CM
Dezelfde
zochten
PMV
aanvraag
##amination
adenovirus
oligosacchar
luchtweginfecties
voorzieningen
bloedsuikerspiegel
##oco
conventioneel
dragende
lateraal
corticoster
positionering
gaschromatografie
verdoofde
Kennis
General
zelfgerapporteerde
BAS
TOD
##flora
##verte
##terisico
zoster
##ofil
onderscheidt
fluorouracil
Fluw
herinneringen
nodulaire
inguinale
DISCHARGE
pract
##selectie
##ëx
##ipen
##atiesysteem
##zend
gepaten
##fusion
adrenoc
##lokkers
pond
##OA
##hing
dev
inkap
geobserv
10cc
vermijd
##anner
##ATS
##estion
scoliose
##athiop
samenwerken
Methoden
spierkracht
##atieresultaten
overeenkomend
verontreinigingen
##otroop
chaperon
Fab
failure
huidkanker
vorig
CML
hypotensief
##config
##oprost
microbiota
albuterol
wederom
Fluwsheet
##curs
##ago
Inspectie
ermee
presenteerden
sacc
Ip
tint
##ror
opstelling
##uspens
volstaan
hypoden
drukpijn
forse
Familiegeschiedenis
machines
projecties
GAD
morele
veront
proefpersoon
##racties
PLA
transcriptoom
influenzae
Flagyl
posterior
compensatie
giftig
##athioprine
Treg
pc
##PR
verr
##idirect
hevige
neb
belicht
arrays
doeltreffen
duurzaamheid
##aaien
NTvG
microbiologische
burger
attributes
STOOL
GNR
Tha
##oze
##making
##TT
geperson
ondubbel
doorgebracht
gedood
aangetoonde
290
STR
##osclerose
expressieniveau
expliciete
onderbouwing
sporadisch
##eppra
Conjunctiva
Boven
leert
liepen
##yreen
##jac
##randiale
##urea
##atory
oorlog
##pervlakt
versterk
gunste
faeces
Antibiotica
DU
##M2
##alische
##vertraging
chim
nieuwere
glycoproteïnen
katalyse
muriene
vaginaal
gemarkeerde
Haag
Wakker
eIF
zul
β1
##eloosheid
##stijfheid
##oes
volbloed
parox
##geleiding
##oresp
NPY
Atten
PNE
darmen
ubiquit
slaperigheid
atmosferische
Bayesiaanse
DFT
KA
##otic
slapel
##carbonaat
CRISPR
Renal
Bis
RLE
nifedipine
whee
inherente
schol
##strueerde
ovariumcarcinoom
geresulteerd
onderkaak
insulinesecretie
##ïsche
##arit
student
##diment
binnenkomst
transcriptase
zoekop
getransplanteerde
CER
SX
onrust
zeventig
schildklierhormoon
##P2
##oraal
doorbraak
ontlu
schuif
##obhoff
achterhalen
##litazon
verzorgers
uitstrijkjes
Kaliumchloride
##uitstrijk
Bax
Gluc
rDNA
vinc
##93
navig
psychotherapie
vroegere
Different
radioactieve
zoogdiercellen
ondoorzicht
Brad
##vergelijkingen
Fox
degelijk
onderhuid
PAH
types
q4h
zaailingen
envelop
##idaat
aanmoedigen
longcarcinoom
tumorprogressie
Hoest
cardiologie
##regimes
PLC
thermodynamische
interfereren
narcose
monocytogenes
well
##iaire
hersenweefsel
generieke
reflect
sedimenten
##cardiac
##vervuiling
cardiopulmonale
##71
omkering
##mend
desats
##secties
Atorvastatine
Oral
vaardigheid
straf
getrainde
parametrische
##aneurysma
##heps
politie
aortab
ERK1
cTropnT
cast
##school
subpopulaties
gepoolde
import
INTACT
beveil
parodontitis
selenium
Laktic
##families
klas
##OUT
verkort
adsorb
atopische
intolerantie
psychologisch
populaire
##lobacter
cellymf
tibial
eosinofilie
Gemiddelde
Oosten
arsen
systemisch
##richtlijnen
vertakte
verpleegkunde
PDE
anderszins
CBF
##LDL
stroma
huilen
schildwachtklier
##erese
##denken
onco
##perfor
antisch
kindermishandeling
werkgeheugen
##LOG
TRP
intrins
Posterior
To
##temp
groeist
evalueer
Sport
asparag
330
##regels
distri
leng
ecg
halfjaar
PRES
fenylalanine
##apsel
##ivit
##inda
hypokinesis
181
##klist
##exie
##hangen
##otropie
geluids
defecatie
cijfer
##mes
stel
geraakt
priming
handtekening
Ontvangt
kweekmedium
gemuteerd
Echo
additief
katheters
geprogrammeerde
##onatie
vergeten
Chlor
CNT
Muizen
fio2
onrijpe
intrahepatische
##erveerd
centro
allergenen
GENERAL
exsud
bran
vel
##gn
##wart
##lijks
##metting
levenscyclus
staats
luminale
macroscopische
mumol
zelfdoding
Ret
win
##sur
##scherp
##ipramine
##ignalering
cyclisch
##stellende
genoombrede
PND
onomkeerbare
hypertrofische
kiembaan
AE
fra
fataal
##eman
omtrek
getrouw
nanocomp
##zolid
NLR
##Ph
##wens
gegroep
##omb
transferase
vloeistofchromatografie
##oplosbare
calorieën
pathologieën
Individ
drempelwaarde
GLUT
herziene
Vasculair
gaten
##K3
##afil
##GFR
homogeen
Slechte
rapporteerde
##antagonisten
borstr
E3
Ward
zidovudine
##ageen
berekenden
214
Sindsdien
Human
##vlekken
boviene
placebogecontroleerde
tin
##ether
afvoeren
192
ziektekosten
colchicine
opgeheven
tolereerde
reproduceerbare
CONTRO
##icillines
CTAB
##onger
klon
gelijkwaardig
bezoekers
casusrapport
echocardiogram
antibioticares
sigmoïd
spijsvertering
Pulmonary
surrogaat
VO
lung
##mische
##motor
##testen
##peroxidatie
presentaties
vreemd
##vergelijking
ongestoord
vestibulaire
immuungecompromitteerde
PED
##X1
##reken
##kernen
belon
1400
longtransplantatie
standaarddev
NIH
flexibel
subsid
anorexia
EH
MAC
Pattern
##hys
##ostomy
jongvolwassen
keuzes
persoonlijkheid
Tracheostomie
##algoritme
##himurium
Fus
##flow
##verdelingen
scoorden
geschet
Beweegt
##ransplantaties
retardatie
##lerings
neuropathische
bereidheid
evacu
provocatie
serumcreatinine
##eres
##emp
##ytoïne
inducerende
behandelingsgroepen
solitaire
organellen
schrijft
lethargisch
anticonceptiva
appendectomie
KN
L3
pra
##afdelingen
POST
strand
verlam
ventilatieondersteuning
Hepatitis
casuïst
##hangt
granulocyt
immunosup
fistula
geïnjecteerde
reproduceerbaar
VL
##etron
##verdi
overgeschakeld
Inte
gemot
binnendringen
##racturen
simvastatine
##essief
bruikbare
##etechn
veelvoorkomende
Ace
Nan
##ulden
##oogst
##ylacet
borstkankercellen
##omerisatie
UTR
V2
War
sr
##KE
vergrij
bloedgroep
Verlen
##meter
310
##diagnostisch
verontreiniging
Verbeterde
Voorafgaand
raamwerk
PNEUM
Oraal
uve
desorptie
geaggre
##ctief
bloedvat
longvolumes
POS
90s
70s
CXCR
burst
zweet
Hen
##olzuur
##eenzuur
##gevend
##efrose
##ocytoom
röntgenonderzoek
bejaarden
##stekort
prolaps
ziekteproces
trajecten
optisch
##ARD
##smakers
formuleren
natural
vogel
ingewikkelde
##velopment
##profess
hypercalciëmie
RM
nikkel
wal
##ratten
##ctase
voorkwam
behoorden
##halten
Onge
binnenkort
linkerarm
breath
directeur
010
##verlamming
##ositas
PAGE
verzwakken
##doss
##instrumenten
samentrekking
splicing
KG
##76
uitz
##rieten
strat
Aanbe
kankertherapie
##stellend
##iolen
dichtst
bekn
gemarkeerd
koolwaterstoffen
##otubes
Jun
waaier
teen
##voorbereiding
succin
behoeft
##resentatie
adrenaline
##sorbeerde
echocardiografische
suggestie
##OVA
somatostatine
microtubule
geïmmobiliseerd
##classificatie
##YSICIAN
GB
##vruchten
##iem
##invasie
##afen
daartoe
bench
retina
##oglycanen
geoxideerde
##ordende
depolarisatie
vanm
inactief
uitstroom
##isseld
exploratie
werkplek
Docusate
slapeloosheid
KC
SNA
honing
null
##iff
##aks
##ablatie
10e
pres
levers
stijve
##oprotectieve
ontstekingsreacties
contexten
platina
leesf
monolaag
##beoordelingen
INTUB
##druppels
pluripotente
DEN
Morf
##astig
synonie
betroffen
administr
geneeskundige
##ategor
Complex
erytrocyt
##oefeningen
Mexico
carnitine
##nelijk
destijds
strip
##acrylaat
##droog
duidelijkheid
##ava
ALK
opereren
preventief
##yrid
coloncarcinoom
registraties
klassiek
duodenale
accident
parodontale
##geïnduceerde
threonine
es
##uite
##ceratie
onaang
##ilum
##hous
neoplasie
##afzetting
##AMA
thermisch
segmentatie
verstandig
ribben
cultivars
dollar
TRICUSPID
EE
PAP
UE
dom
##fond
opin
afhangt
##uiken
##scurve
helaas
##ortem
##azoline
1976
intramusculaire
neuroprotectieve
Luchtweg
CY
kud
##acar
populair
discussies
limiet
##emonsters
##ijs
##ingt
stag
hydrocort
stressoren
palpabele
echtgenoot
verergerde
Hematoc
##avirussen
PLACE
ontmoet
pR
##reek
metam
##iensis
##ijdag
##oproliferatieve
gezichtsvermogen
striatale
##iceptieve
##acylglycerol
##ovirussen
##estionnaire
Geel
behandelaar
donatie
ampicilline
Standaard
chorion
geconjugeerd
zebravis
polio
celmigratie
AFIB
azathioprine
##acidose
LASIX
1beta
Ax
verwe
waarnemers
##edul
daaraan
overbodig
Cur
lie
pod
##stolerantie
uitgerust
##oclop
##yclovir
##vlie
beoordeelt
hemostase
vertaald
homogeniteit
oogst
negentig
gevaarlijke
neurodegeneratie
mondelinge
PROCEDURE
gonadotrofine
kozen
##aliserende
##uleuze
ziekenhuisverblijf
gedragsproblemen
370
480
signaalroute
titratie
infecteren
incidentele
waarschuwing
pathogeniteit
subacute
Glob
nyst
rab
wrijven
##AY
##atieniveau
##genodig
vergelijkend
paraffine
medicinale
gedetecteerde
osteoblasten
Monsters
##graads
vacuüm
urineweginfecties
strenge
extravasatie
PAT
USA
asiel
##ualiteit
##war
chip
infiltraat
Leishman
PHA
tyros
AVP
innovatie
##gemerkt
impedantie
dengue
Vloeistoffen
granulomateuze
afgekn
Nrf2
Locatie
inversie
voorkoming
interpersoon
##uiac
tijdsinter
hartfunctie
emotie
zwaarlijvige
##cohort
Hogere
##oclopramide
cursussen
furosemide
gat
aangelegd
overlappen
##dup
Bijwerkingen
gepositioneerd
Gene
TRAC
realistische
guanine
##inetherapie
genormaliseerd
Bor
Tromb
μmol
##set
##idus
oppervlakt
##ammon
##delaars
##rupp
lekken
##ureum
218
RNAi
polymorfe
karakteristiek
##ogaster
noordelijke
kribbe
geïnactiveerd
Moe
MVC
NGF
##seizoen
resusc
pert
vergel
##amenteuze
gecom
postsynaptische
Beh
ademhalingshulp
epidemieën
inzake
habitats
##drainage
2b
AW
Mu
NAC
iter
onbalans
microal
samenstellingen
gestelde
testes
besloot
migranten
kalk
micellen
##zwelling
Lorazepam
##sverlies
##artrose
haloperidol
naam8
140cc
influenzavirus
tieners
rijpe
conformaties
Helic
gemanipuleerde
GPC
MUC
voorschriften
bevrie
##otent
benaderen
Screening
ochtends
bestralings
intral
##apparatuur
##architectuur
Action
##oplastie
filtratie
cofactor
waarneembaar
huishoudens
hydronefrose
ther
##nit
##old
sporten
eryt
mitose
##prednis
##ylaxie
Mannelijke
hypovolemie
benzodiazepinen
hoogleraar
tellingen
zuren
##etentie
inactivering
opruim
intercellulaire
##voort
##voordeel
fibros
note
informatica
##osensorische
bemiddelaar
initiatieven
coöperatief
Verd
##seigenschappen
instituut
law
NECK
##emethode
TLR4
GOOD
flessen
Senna
fabricage
additieve
##pertoire
Daily
kit
##hop
##ieders
diazepam
##ypsine
antich
cytostatica
univariate
folaat
interactief
##cludeerde
anticip
##cylsulfaat
submuc
Bijdrage
FTIR
Zee
##benen
##olide
spenen
1300
ptx
##hangende
##juvante
voltooide
gevaarlijk
CYP3A
##lopend
werkingsmechanismen
##suppress
decompensatio
HEMORRH
Trend
##oL
##honderd
neuroblastoom
myocyten
MAG
Dispo
phorbol
##ocysten
blanken
precursoren
cadherine
Xenopus
Pattern1
FAS
##rerende
##lut
##erbaarheid
tijdafhankelijke
184
80s
achteruit
##nieuwing
organiseren
positron
##ineresiduen
Chest
glomerulonefritis
heterologe
onbesch
##wijgen
##afde
teruggetrokken
##azijn
275
serummonsters
##TIONS
##ularisatie
Toepassing
responspercentage
AVM
occlus
energetische
oxytocine
VU
##oedsel
erin
Hetzelfde
celcultuur
##clusters
chemokine
ALTER
##bepalingen
papillaire
aortaalventiel
inconsistent
neurotransmitter
gepolariseerde
Integendeel
Hand
SSC
##nomen
##asthen
chain
##uitslagen
prion
verzadig
MET
CCA
##transfer
procentuele
neerwaartse
nitroglycerine
Natriumchloride
verplichte
VH
pK
##ylobacter
##etts
##teus
##otis
##ogel
prothesen
##esthesie
##ENDING
parkinson
geïon
Daartoe
teruggekeerd
BPA
besmettelijke
NTG
Taiwan
##catheter
##oir
##ofactoren
hyperinsul
##RIM
##oppervlakte
LVH
LHRH
vergeleek
Lister
inoc
methyleen
begrijp
hyponatriëmie
verhaal
CXCL
thyroxine
aquatische
ritu
##isaties
##zestig
ervoeren
##uigende
hyperglycemie
##zoekers
##modi
S100
Subc
peroxidase
pupillen
amfetamine
Regelmatige
leeftijdscategorie
convulsies
CAT
nim
##FR
records
order
CaM
ongecontroleerde
BMJ
schildkliercarcinoom
merkbaar
tomaten
glycosylering
Sedatie
Legionella
Was
##vector
meng
##oxib
205
hyperbili
elektroforetische
beschikken
proteomische
beschrijvende
telomeer
effectievere
tors
##FGF
##ureth
reagens
conve
intermoleculaire
begra
183
##ortemon
botverlies
serumconcentratie
##verlaging
##otoxinen
venster
terugkeren
Reviews
repetitieve
pillen
inact
uitgelegd
overmaat
getracht
behoeve
beschrijvingen
innervatie
##katheterisatie
##ortemonnee
##akt
geboorten
behandelaars
215
trigemin
botdichtheid
alloster
detector
coccyx
kosteneffectieve
privé
artefacten
matching
taxonomische
polyklonale
Lokale
Blijk
GLP
##MF
##onium
orch
tumorsuppress
##axis
vermogens
minerale
synoviale
Let
Rob
##I2
cha
##lastisch
PAOG
##inereceptoren
opmerking
##oefening
abstract
incisies
digestivus
##bevolking
Swan
##types
##96
##ates
bezet
##omavirus
uitgenodig
extrapol
export
ADL
holle
##moduline
lijdt
vrijdag
hoorbaar
CSC
wijk
##wonen
##ense
bloemen
##screening
REV
##versies
MDR
trending
##wijdte
urtic
ketamine
##hexidine
geïmmobiliseerde
slaapapneu
doorgankelijkheid
BRE
Hong
##bomen
##oichi
##schot
##april
tegengestelde
TOF
noodzakelijkerwijs
teams
levothyroxine
vlieg
##GRAPH
##plasma
Perifere
Haem
NOD
aanhouden
##ascarcinoom
RET
blootstellingen
ijz
##187
insert
siliconen
cyclohex
spelers
Hib
fir
##kante
##WL
ontdo
epub
isotopen
gespecialiseerd
RECONS
##ira
##resie
stelling
herkende
##mmel
kwaliteitscontrole
zinvolle
lactose
kalf
##dragers
##rofiel
blokker
accepteren
##aantallen
##opropyl
noemt
gelatine
Talrijke
uitoefent
from
meteen
omst
##ficiënt
behoudens
Computer
kolommen
icterus
MIP
##staten
##urinol
gevouwen
##iesyndroom
meesten
gemethyle
ZnO
Gauss
cytoskeletale
geabsorbeerd
bewerkstelligen
HEMORRHAGE
BCC
RUE
cariës
hemopt
residuele
##omalac
knaagdier
postprandiale
OCT
##werv
##igmenteerde
##tiel
ziektel
bevocht
PCOS
fenomen
arterieel
adenine
position
documentatie
torsie
gecompenseerd
Mark
Plav
S3
Vers
##sstoornissen
##rele
##ethanol
##aliter
voordel
##eper
##organ
ABP
BPH
Afgezien
380
oogarts
epidemische
telomerase
##stimulerend
reumatische
SERV
INFORMATIE
aërobe
##akende
##dor
georiënteerde
##abapent
exosomen
##bindend
problematisch
##undantie
##miss
proteolyse
drs
macul
##ocyte
##point
eukaryoten
gestructureerd
Inhalatie
bijschildklier
Hematocrit
EBP
koem
ling
lax
##genoom
afstam
hydralazine
geneigd
CIWA
Terug
calorie
chromatografische
voortvloeien
colloïdale
Plavix
Nas
bm
peg
##fst
##KO
inade
##igbaar
aanger
##atric
##REA
##odeoxy
##controleerd
gonorroe
endometriose
wijdverspreid
atropine
##verslaving
Q12
TMA
##ible
apt
##aminotransferase
Database
melanogaster
hypoxisch
Elf
transcriptionele
mondholte
chloroquine
blindheid
gedomineerd
7p
camera
##epsie
##oflav
dagblad
PCV
##gevolge
carotid
rigo
UG
biv
candid
##steek
##schromatografie
##odysp
beloning
##omatose
##winning
pakket
Landelijke
schrijvers
verbruikt
Sclera
L5
##storting
inschatting
##itum
verpleging
##erente
##vlieg
serocon
pijnbeheersing
Nauw
emissies
Comfort
##biom
superfamilie
reviews
katalyseren
coöperatieve
Periferische
##sindex
##itaties
gedem
genomisch
heat
gedateerd
niercelcarcinoom
rechterarm
quantum
herstelden
telemetrie
##innitus
linked
optraden
immunoassay
bloedige
##hydrolys
##jarige
##hebbenden
1R
CAM
##etest
inwendige
##herapeuten
SPINE
##agonist
##stitueerd
vries
pyridine
doxycycline
gedraaid
High
##diab
change
209
aangesloten
INC
artery
systolisch
collectieve
PKA
hydroxyp
seropositieve
scintigrafie
##dodecylsulfaat
gepersonaliseerde
##verdikking
##aritm
ophel
betoog
oxo
Overexpressie
blijvend
organisatorische
glycer
Toegeven
dichtheden
CREAT
SIG
VIS
won
##bach
hartspier
pulm
##rint
instanties
buisvoer
School
redden
nabijgelegen
##strooiing
SUPP
supplementen
onstabiel
Organ
gegroepeerd
Kl
Kwaliteit
Pak
ketting
lg
twintig
dement
controverse
transfusies
tumorcel
subcorticale
autonomie
biofilms
viraal
HI
##DR
hoeken
Geï
biodiversiteit
##EMA
WITHOUT
##usculair
octreotide
##zinnige
pluim
officiële
acquisitie
Plant
##gms
##ikker
deelt
middelgrote
##ceïne
neuskanneel
episod
toetsing
##signaal
exciterende
Slaap
Bur
Cat
pij
vruchten
Voorbeelden
opgedaan
spindel
flavonoïden
eenduidig
##S1
##84
##reguleerd
gedragingen
gefunction
feiten
##rapporten
evolueren
vasodilatatie
Ec
FN
Nieren
Wal
##uale
##RF
stu
##unes
##emar
serotypen
vertalen
##amethox
Trp
tetanus
sinusitis
hypothalamische
Welzijn
etiologieën
Activering
retinoïnezuur
Californië
BV
cos
kip
##cisie
##fas
dehydratie
ICAM
CPP
##orrh
vulg
microsatelliet
##tz
ontraf
ziektebeloop
ingegaan
angioplastiek
Trauma
capsules
gekatalyseerd
aritmieën
geïnterviewd
Finger
azijnzuur
raciale
##beer
##arrays
##kennis
##ilol
hartklep
uitgeoefend
SCH
CD40
elektronisch
levofloxacine
##ability
Isra
anicteric
Pepcid
Cath
SET
est
kar
tac
##ulering
resect
##gift
##ayer
zones
silico
##ysacchariden
TODAY
2R
##ylen
##lept
doorgemaakte
blinde
##ymethyl
graph
retrocardiac
##kinasen
RPE
numeriek
Dermat
Ce
Hx
br
##anosom
##romen
lege
##ingsmethode
tussenp
194
##rett
##sprekend
temperat
droogte
IABP
gefosforyleerde
gluten
IB
sf
verkenning
afstemming
tenslotte
halver
DSD
##argine
##beslissingen
tactie
voeder
##kary
##GAN
##alfa
gedistrib
teaser
PTitle
histidine
##adenoom
##oteen
roker
Delirium
pulmonalis
afstamming
TW
bode
piramidale
##gz
##ocele
##upunctuur
foramen
instrum
ultrastructurele
vingeraf
rund
##ky
##onafhankelijke
eenzelfde
##ammen
##ereuze
meebrengt
maste
zestig
cytologisch
myx
vertegenwoordigers
magere
fluoride
##doses
enthous
Survey
extrinsieke
oncogeen
Apo
cop
defen
##ston
##olytisch
efflu
belanghebbenden
analog
polariteit
gels
varië
ongedifferentie
Dict
farmacologisch
gereageerd
logistieke
gereduceerde
geagiteerd
Tx
bup
##order
vertering
opstellen
##ams
##gelicht
brachi
endotheelcel
oxygenatie
mesenteriale
aftasten
Symmetrisch
Milieu
Sert
dilaudid
##ki
##Ag
##Bili
##lobe
translatie
normocefaal
waterd
##lexie
Reh
tweelingen
merkbare
intrinsiek
Leishmania
MMS
Zweed
dur
##iëct
wein
levermetastasen
betrokkenen
hersenschors
kankerver
##odiagn
##straining
conformationele
juveniele
Geboortedatum
Fos
SES
afgelegen
gynaecologen
dimensionale
voldeed
FOX
##ocystis
OPTIRAY
##liximab
RL
dal
afzettingen
Beeld
plasmaf
boerder
fluorescent
semin
biliaire
getransporteerd
wervell
Norepinefrine
ascorbinezuur
Allergies
BK
Stern
haak
pus
##zouten
ineen
##odopa
##blokk
ouderschap
ziekteverschijnselen
##GRP
Statistische
TTP
##pneum
##k1
erger
pars
neurofib
##rofot
insulin
##vangers
curcumine
elektromy
##orfyrine
cpap
FK
FRE
SLC
tussenproduct
herprog
193
##eertien
infectieziekte
hyperactiviteit
fluconazol
Medline
middenlijn
rusten
hebt
spijsverterings
hernieuwde
biotine
Fer
##91
projecten
aber
radiologen
oorzakelijk
bott
##adenocarcinoom
lasers
beleidsmakers
typering
gedissem
erythematosus
CONTINUE
Achten
Melk
natri
opv
##osering
basilar
amide
##unctioneel
therapieres
profilering
##nauwkeurigheid
Handeling
Zweedse
Aort
##sher
##onuc
Injectie
caroten
##BCL
urinewegen
insulinegevoeligheid
specialismen
Iedere
SAM
flora
##orus
ingestelde
##aarzen
##adium
toenamen
##sprofielen
##ootschap
60cc
darmkanaal
doo
##legie
##signalering
rehab
onvermijdelijk
diëlektrische
dachten
junctie
##uriteit
spatio
##bezoeken
schuivende
##ERM
epif
uitgegaan
laagst
##woordige
herkent
fundus
buikklachten
##protocollen
gepatenteerd
##scherpte
tussenpozen
H3K
RIA
ros
Invent
elev
hogedruk
hemagglut
consent
toepassings
##ext
##EMIE
prototype
internisten
ontvangst
NRB
Personen
##gemiddelde
multiresistente
Tri
eraan
##jaars
##ological
begrens
deeltje
paring
186
modelsysteem
##financier
indicatief
ARTERIAL
dystrof
reversibele
Circ
##olytica
titanium
ESC
Identific
##amaat
##valente
programm
periferie
oudste
BCR
solid
nefrectomie
permanent
thaliana
Twintig
VM
weefs
multil
AAV
hielp
intramoleculaire
antidepressivum
microsferen
micromol
SECRE
Campylobacter
kralen
##pn
vergoed
transductie
Gew
struma
tromboxaan
centrifug
##text
versterker
angiogram
methaan
##kno
antisera
benzodiazepine
##adolinium
analgetica
tocof
botmineraaldichtheid
Fluwsheetgegevens
5mg
Ia
Vent
##kool
##opleiding
hern
verzadigd
CHO
repeat
distress
osteogene
##icula
##apsules
strekt
digit
##opolymeren
##bridement
Toegangsdatum
afgeknotte
3T3
##erver
##oron
ople
##ssamenstelling
##oforen
interna
scap
serogroep
neuroimaging
quin
matrices
pacing
##GRAM
epileptica
toegankelijke
onduidelijkheid
reduceren
bang
##ride
plateau
PMI
vastgehouden
##breken
verdamp
Mg2
flag
indicatiestelling
##ginaat
Smad
vegetatieve
##ampagnes
ritmes
Zodra
##vaart
##gency
##identen
##dromen
bezinking
Europees
640
abdominaal
damp
##stalige
##ulo
##agerende
POC
cytogenetische
aanvragen
doub
koste
chimere
Sil
sorptie
##aun
##filtratie
vervo
##ival
##fenotype
Aanhoudende
valve
levensjaren
install
spierweefsel
##experim
fotosynthetische
osteoblast
tubuli
osteoclast
DHA
MH
agens
punct
##komend
##ayed
gesplitst
contracties
##integr
Korea
##hepsine
Sust
fum
##uper
gecategor
##ycling
landschap
atypisch
opgeleid
Drugs
receptorantagonisten
verkalking
##CREAS
GRA
##lus
##uitkomsten
apnoe
025
uitvoerende
ribosoom
specialistische
galactosidase
caudale
boodschapper
Ziekte
Kun
KUB
##bod
gebit
##obalt
##iverend
weekend
ONLY
carbonyl
##variabele
gemetabol
Postoperatief
##indicatoren
CONTROL
ASC
samenvatten
gliale
plasmon
zuurstoft
krachtiger
missense
##elektronenmicroscopie
leraren
poli
##illi
histi
incidenteel
calmoduline
##onatremie
luteïn
##ijtage
fosfatidylinositol
EXTREMITIES
##olacton
DIA
zijden
##gm
uitgere
spleet
##accept
##rank
verbaal
meniscus
##elena
##conversie
ondersteunend
feder
##UCTIE
##oefenaars
zonlicht
trommel
verwaarloosbaar
##implantatie
##idomide
Bactrim
Cond
MAT
##chromat
geann
gevulde
##afte
##ariatrische
toegekend
onzekere
sensibiliteit
microgolf
strep
Rhythme
biofys
lactaatdehydrogenase
Voltooid
##emelte
onts
##ichamen
genoteerd
sequentieanalyse
getransfuseerd
tibia
Afgiftedatum
CVVHD
luidde
Directe
Retrospectief
Marokkaanse
GAS
ORI
Tf
rendement
depletie
##staak
##osure
##afval
bloeddon
infus
213
verstaan
##opathologisch
echografische
gezondheidszorgsysteem
ongelijkheid
gramnegatieve
beademings
PrP
bruikbaarheid
EMS
OUT
celfunctie
##VEC
leu
##indamycine
mengen
Ann
1700
226
##klim
ABX
##alveolaire
Atlant
oliën
bijnierschors
##constanten
uitbarsting
biomechanische
Q8H
Listeria
Snelle
ramp
##SD
##ummers
ervaart
##giften
Waarde
Pain
##vedilol
Mentale
emulsie
homocysteïne
evacuatie
DBP
Kar
LAC
Unie
UPD
ba
dressing
##74
niemand
AMS
celdifferentiatie
darmregime
verzamel
homogen
nodige
gondii
claud
alvleesklierkanker
kwadraat
kortdurend
geoxideerd
stoichi
255
pulse
cliënten
plussers
HAART
Shift
##rexia
##radicalen
Zwanger
tentoon
##voorspelling
HYPOTENSIE
C18
##ipime
##osters
verzuim
1977
informed
##espect
##loosheid
antiprol
cryo
immunomodulerende
stochastische
Lag
kel
##92
beiden
testuitslag
afwezige
versnelling
MEDICINE
atomaire
##ueerde
##C2
##inin
##utt
Verh
50s
biogenese
hybriden
hypothermie
telefonische
laminine
afebril
gedownreguleerd
cosmetische
##otens
hypercarb
seq
bewaken
OPEN
infiltreren
drempels
##incidentie
##verpleegkundigen
serosang
Duur
baring
##1p
##theorie
##kr
##din
geïndivid
versies
amber
##oux
methylprednis
Monitoring
vruchtbare
geaccum
verkleinen
dentine
grondige
destructieve
atenolol
randen
##ueen
##aien
##italiseerde
constitut
##hoxy
##ssyndroom
spik
multivari
codes
RNase
goedgekeurde
subarachnoïde
H1N1
Kaplan
zelfe
Stra
aios
ibuprofen
##leng
meningen
opgegeven
slagaderziekte
##ARSE
brandstof
immunoglobulinen
##xtractie
H5
Ke
OCC
PY
vermelde
202
additionele
overlevende
PCL
##opathisch
expiratoire
nabe
categor
ESI
Transfusie
QTL
FUO
TIPS
entropie
Surgical
##uspensies
##azijnzuur
ziektelast
Sex
campagne
##ximab
stuit
##schijf
doelcellen
##interface
##boud
Sinusritme
PUFA
AChE
relaxatie
##vriendelijke
Uiter
##FV
##opzet
##rieven
##fenolen
cytomegalovirus
##liggend
ongekende
circulaire
katheterisatie
##bevinden
bestralingstherapie
tumorgrootte
dranken
Procedures
LIV
klanten
rassen
vin
##atrol
inositol
##gedos
##eleiding
Verzorg
Unit
recidiefpercentage
hydroxylase
Latijns
Lewis
ban
##yal
##taak
##ocellulaire
afgezet
##vormings
donors
enkelstrengs
##levering
##Cl2
holtegrootte
##IJN
Titles
hardnekkige
mozaïek
botresorptie
aminoglyc
heteroseksuele
cruzi
##film
oestrogeenreceptor
ultrasound
peil
##signalen
##chemotherapie
quasi
##jury
eenmalig
##icals
onderbroken
##antus
carrière
geldige
theta
CD11
##identificatie
Refer
textuur
muscar
FB
LUE
##mas
##sonderzoek
##norm
##otopische
affin
##onderwijs
herfst
microben
chemokines
urinezuur
arteriën
##157
ritmestoornissen
Weefsel
Fil
mask
##nose
##kamers
depol
aanhang
ontbinding
superv
verboden
Voorbehandeling
socio
Abeta
röntgendiffractie
Linker
##IFN
Amsterdamse
##hyperp
Obese
microsomale
gesimuleerd
##iceps
alomtegenwoordig
referenties
Dertig
interfaces
Factoren
Red
VIA
hars
##ka
##OE
##send
alsook
##gevings
##OND
terughoudend
process
homo
SCN
vervuiling
katalysatoren
##hoeveel
profylactisch
DISP
tools
uitbarstingen
glioblastoom
overdreven
GAST
SMC
tinnitus
##mings
##depressie
##oni
geden
##olsel
##ATING
atorvastatine
this
vaccineren
Amerikaans
migreren
CA1
##emethoden
##brak
samenhangt
Major
houdings
Systolic
##amethoxazol
CAL
##care
##lokken
##veratrol
anamnest
schommelingen
neurogenese
color
222
volwassene
##alcine
deskundige
intracerebrale
verleend
##giftiging
gecategoriseerd
Wond
fact
switch
##beter
##gus
##oposide
gelaag
008
richtte
HPA
supram
mucine
naloxon
nanostructure
For
##inamide
wormen
##yclo
Weinig
manoeu
##alisme
linking
trap
inclu
##gemeenschappen
functionerende
lineariteit
##ophage
afstands
EFF
NADH
applicatie
onderstrepen
STI
md
tucht
##uuraf
##Bank
##tende
prem
monomeren
##ancreat
##werkend
fluoxetine
dienovereenkomstig
IDDM
neurologie
ingrediënten
bedroegen
bruto
bladzijden
Recentelijk
##IONAL
coördineren
irrevers
KCL
NW
Pal
##ya
##dermat
doorsnede
gedilat
##oxazol
Lactobacillus
luier
##gevolgd
GLUC
elektromagnetische
Radboud
iatrogene
Israë
Chec
life
##glas
##GHT
##urse
reactivering
uitster
Altern
Verlies
Stitle
genereerden
##UNT
selecteerden
fantoom
Willebrand
##irpatie
Russ
zuiden
##atings
gefinancier
##omic
##beë
STUD
ademhalingsstatus
420
verhel
thymocyten
curriculum
assistenten
##rubinemie
darmmicrobiota
##othelioom
Lichte
NNP
##iven
voortijdig
##ells
analyten
vaststelling
##genereerde
feochrom
correlatiecoëfficiënt
gebrekkige
Centrale
aanvals
##hydrat
tachypne
zwemmen
A549
Q24
grim
klagen
vang
##roc
genotypes
regressiemodel
hamsters
luteale
##otericine
mGlu
overnoc
DBS
Eg
Wie
##crim
##gesp
verzadigde
Afwijk
resonantiebeeldvorming
convergentie
ongecompliceerd
PNEUMON
Helicobacter
FROM
Niveau
Tel
dobutamine
##diagram
##seks
##sector
schaadt
specimens
neurochirurgische
glycemische
Bloedglucose
Medicare
##apselde
tocoferol
##ball
##radi
##area
##oxinen
samengevoegd
gezondheidseffecten
voedingsstatus
behandelingsstrategieën
power
adjuvans
bibliotheken
pleuravocht
Voorlopige
##onucl
Kamer
WOB
##categorieën
##wanden
##ils
##opvang
ulceratie
##lichamen
CU
##som
reik
zoön
##aca
interact
preferentiële
##ramp
007
functieverlies
primer
teruggebracht
Diast
ethiek
intrath
##ondersteunde
##ource
thoracotomie
##ushing
##posities
##inoïde
bewerking
##aanval
behandelende
neurofys
80cc
SCD
##atalytische
vaatverwij
AFM
economie
##uilen
HVZ
geëtiket
bcl
eilanden
kada
membran
µg
##buffer
##wor
##IK
conferentie
leishman
genotypering
##besten
mandibulaire
ERP
natriumdodecylsulfaat
rhiz
grafts
##otaxis
infrastructuur
overblijfselen
PIN
##eent
##kol
245
contin
standaarden
Commun
strakke
##pulmonale
elektrocardiogram
Figuur
pir
##cortic
##lum
##MIN
behalen
191
vergelijkt
immunogeniciteit
##roptose
211
lock
theofylline
dyspnee
cohortonderzoek
cytotoxisch
stigma
CW
Luc
##Se
aanbrengen
patiëntje
204
hygiëne
##feri
##hydrochloride
pyreen
schaduw
vochtigheid
octro
burn
verdediging
##sscore
dreneren
geforceerde
SIMV
erytheem
Neg
UDP
junction
##ict
##geh
vervaard
##rak
##iënte
##aanpassing
homologen
presteren
stikstofoxide
bevolkingsgroepen
toetred
##vereisten
##fundeerde
RADIOGRAPH
fulmin
Gynaec
puur
##iomy
##gal
##IFT
##verten
prokary
##prothesen
Aller
evalueert
HEV
reconstrueren
TECHNIC
fossa
inhibitie
Turkije
barb
##poeder
##horen
beslag
##ogelijkheid
gebouw
##NATIE
gedos
psychologie
##richtingen
##azo
##overover
cholesterolconcentratie
broncho
Thr
##antagonist
weigeren
xenograft
filtratiesnelheid
amenorro
Analyses
pilotstudie
##ieft
##aryl
##tended
##imat
##tieme
achtergronden
Academ
borstkankerpatiënten
4000
ingediend
130cc
collaterale
intercostale
COMPARISIE
antischimmel
GAG
MSS
##B3
opzetten
301
trainen
hoogfrequente
Spect
zuurstofverbruik
restaur
formaat
verloskundigen
ductale
reversibel
onstabiele
##sprocedures
neurotransmitters
JAMA
wind
##ualiseerde
opgelegd
voorjaar
##ited
##antib
diap
arit
bestaand
206
samenwerkings
spierpijn
Genootschap
neutronen
nabest
influenzav
Epstein
nanoparticle
educatie
##perforatie
bic
##rang
ingev
onbegrepen
antidi
207
##ymfe
13C
biocompatibiliteit
Metingen
238
fibrill
beweren
##lipiden
levensvatbaar
##rijpende
verzekering
ceftaz
AU
ANA
Cs
MOR
SAP
self
##paden
##In
difenyl
alcoholmisbruik
##platen
Latere
rapamycine
##oplasmose
gigantische
demping
Israël
Oct
S4
SIN
UPP
##naar
##opent
plt
medici
NPs
##ithromycine
stroomsnelheid
Hepat
ecules
oesophag
##medic
triglyceride
gedissemineerde
BBS
flin
##laterale
##zier
##RC
##orings
verapamil
##icaps
ane
MCI
Meier
selectine
bemonst
vakantie
ingebedde
Cefepime
MALDI
Northern
Gelijktijdige
onvoorspel
tijdrovend
Dox
DIM
pijp
voorkwamen
##osof
anx
##kton
##ibratie
203
series
kenmerkt
difter
updat
darml
MTT
geconsum
MPa
##schakelen
D5W
Heel
L4
Tw
oö
zwijgen
##hesies
##opram
leverbeschadiging
leidend
##ULIN
farmacotherapie
katalase
aminozuurresiduen
RECE
wanddikte
avonds
trillingen
##TATATATA
Nauwkeur
amenorroeduur
Oog
Rb
RIS
pv
tv
##ijst
metap
aansp
complic
##ICS
Name11
##anceerde
##zekerheid
##iazol
observatieperiode
onzekerheden
Shig
universitaire
SIRT
coronavirusziekte
##fibroblasten
DKA
air
ejac
##kerd
dehydro
ingest
##zeventig
reuk
subpopulatie
subjectief
gesneden
haldol
ATN
virusinfectie
ANCA
sour
Interne
hypoactieve
##ibrio
##ïtis
contouren
Succesvolle
Ceft
SAR
eencellige
opgevolgd
##vervangende
##odyl
##ostat
tweederde
##aders
coloscopie
##oolse
verstoort
##ouillon
handtekeningen
##italopram
corticosteron
verdikte
longitudinaal
Lichamelijk
toucher
##lengten
mieren
##vrouwen
##ona
##oestanden
##perioden
Invas
erkennen
##arth
##ibliothe
presynaptische
geïnspire
risicobeoordeling
##atrix
Proef
screeningsprogramma
##UNDS
alkalose
Fibrillatie
##hoekige
##suppletie
vliegt
##circuit
zilveren
##verpleegkundige
##upplementen
ineenstorting
CYS
##ani
##ignal
gered
synucle
werknemer
268
##BP1
glycolyse
GenBank
boeren
##iologen
ovale
miljoenen
promotors
##ITIS
##usculoskeletale
##lofenac
gemetaboliseerd
Dieren
FNA
MAB
dy
##CNT
##repar
onderhe
##rekingen
epist
##igene
oplossings
immuunziekte
dermis
##toestanden
regressieanalyses
SSI
meetbare
wachttijd
onbehandeld
tranen
##resonantie
zulke
NID
RAN
##bac
##sat
##±0
voorst
##interval
ENT
Mechan
dermatoloog
extuberen
SUP
μmoll
benutten
tussentijdse
pCO2
x4
voorde
##itheliale
humer
hypoxia
community
gekloonde
Haldol
##ocarcinomen
Coronary
##opreservatie
inteelt
interpersoonlijke
uitgenodigd
##dorferi
Ol
aa
##inductie
##olidatie
##teiten
239
##resolutie
capaciteiten
440
Hersen
slaapstoornissen
Antilich
vervullen
plasmacellen
PARP
splenomegalie
##transplantaat
immunoblotting
synchroon
ongetwijfeld
Ier
Mod
bod
##één
uiten
verschuiven
bloedbaan
gepuls
##ITC
vierkante
aminob
HepG2
atrio
guaiac
AKI
afstamm
##ORMAL
orthostatische
geaccepteerde
Cefipime
Pathologisch
Don
id
##ita
##oorlog
infliximab
POP
middelengebruik
osteotomie
##ristine
levodopa
##espiegel
MVR
Ox3
##idirectionele
kub
bijeen
anonie
##imaliseerd
##volgorde
intraperitoneaal
filters
Eerst
kleppen
representaties
androgenen
mislukking
Program
STARTED
ziekenhuisopnamen
tachykardie
ontluikende
onderhevig
Apg
Bron
rost
##ence
##inia
recre
gelet
THICK
##raagde
redact
small
##orectale
Aspirine
medulla
verwarming
discriminerende
facilit
cochleaire
enthousi
Log
lach
##inspanningen
##split
genotyp
##ubl
laaggradige
pleur
vleerm
T2DM
##uzumab
HUVEC
HGF
##uige
##unne
chimer
pariet
hartaandoeningen
snelheidsconst
Tweeën
smelt
Trace
prikkeling
tropen
suïcid
anaërobe
burgdorferi
Diltiazem
MHz
dele
pagina
##Fe
gefuseerd
##gedra
bevoor
transfect
microscoop
##orteerde
vastleggen
etoposide
ADAM
Crypt
ribose
onderzoekspopulatie
breathing
A23
H7
Reduc
gavage
##2a
##akary
##ading
##ressies
recycling
##urese
##veelt
##uikers
##ondersteunende
##cefalie
metaalionen
immunohistochemisch
Ultra
LIMA
Brazili
##vlek
dijbeen
schetst
FOLLOW
voorwaardelijke
huwelijk
V3
cister
drop
hop
raakt
##hard
enh
omhoog
zijnde
waardering
##irt
##eptor
transgen
levense
conceptuele
gespecificeerd
allochtone
verdoving
orthod
Penicillines
hiaten
drijvende
KS
pip
side
##Tc
##ely
##ijfen
##ulente
##rach
##spees
level
##houdingsvermogen
Actief
gefabric
##vaardigheid
katalytisch
leeftijdsgenoten
begeleidende
##rigatie
QTc
##kraam
transferrine
Barrett
onevenwicht
opiaten
graphene
Fio2
Imm
LED
wysis
##wyg
##EBR
##orger
##reum
##olaat
concentratieafhankelijke
##precurs
voetz
singlet
omgevingsomstandigheden
pericarditis
##vaccins
isotoop
##fragment
inhibitor
kaliber
bootsen
crosslinking
wysiswyg
fre
oz
##by
insluit
verdelen
##olair
aanhoudt
##chters
##spl
coag
elect
gestaag
intraoculaire
##steringen
##concept
##pakket
Pharmac
PHYSICIAN
##entanil
Prefix
BiP
neurotoxiciteit
Structurele
##Phos
Mes
RAR
SVT
##urcatie
uitwissel
##spraktijken
hulpverlening
fotonen
osteosarcoom
diepgaand
##ofagie
gedragsmatige
Hypox
bFGF
meter
ondernomen
##traject
ellip
CTX
##resistente
Arch
gegeneraliseerd
##sverdeling
dominantie
##statistieken
strict
checklist
liefde
##kliniek
verwekkers
onderhuidse
Uiteraard
##omot
##chtonen
afasie
afdoende
hypok
##ARY
hoofdletsel
nucleoside
cultureel
onveranderde
angststoornissen
ASD
##stamcellen
oligomeren
carevue
acceptor
gentrans
Mental
lignine
persoonsjaren
serotonerge
ziektekostenverzeker
Invasive
RAP
veranker
aansluiting
stres
ontkende
geriatrische
steriel
myasthen
gedepon
galsteen
gefract
##toevoer
ongebruikelijk
purpura
Jong
Lee
gadolinium
laryng
##arbe
##dese
##artroplastiek
tractie
werkten
187
hartkatheterisatie
disco
bacteri
vaatlijden
medewerking
##serum
religieuze
Cam
Fylogen
pending
trom
##EV
##omt
geblin
##ioneerd
##ateral
huiduitslag
Vooruitgang
nutr
caes
##woorde
Peric
gefil
Team
Actin
gliomen
transmembra
koemelk
HK
Ot
##ffecten
##WEL
##eti
##amische
##rache
##spin
waarover
##aande
terat
coherentie
##voordelen
ondersteunden
PDT
CBG
broed
sterfterisico
diafor
Denemar
bloedtransfusies
##hyperplasie
reikwijdte
Denemarken
celf
##83
comorbide
##onto
benige
##ards
##operoxidase
fibrillen
INSULIN
mastectomie
Famil
Nitro
XII
##kines
##NG
uitstel
persistente
botul
proteomics
topologische
subtot
EXAMENATIE
incubatietijd
padden
##sgewijs
mAb
forensische
intestinaal
institutionele
Bacteriële
Euro
##depletie
geglycos
##venen
onderschatting
##bijzijn
plaatselijke
Voordat
212
ioniserende
afgewezen
pijnstilling
onderhoudsbehandeling
##reeksen
aritmie
Verk
fuc
##init
genital
prik
##ietherapie
##oboots
##rofagen
stofwisselings
venen
Lunge
aneurysmata
Lipitor
adipositas
duplicatie
fitness
oligonucleotiden
urticaria
Bed
##oegen
##vergiftiging
##adigingen
hartkl
REDE
Meth
rechterventr
hypoglyc
gescoord
##inolonen
##vitamine
source
##m2
##imuleerde
ontvouw
##rijft
Verleden
controledieren
ICS
handicaps
popul
NEED
ethisch
prostat
suprac
ESBL
Psychi
Royal
amfotericine
Pneumonie
onbeduiden
plakjes
##platform
NL
gland
##dystrofie
##icill
##sect
##ssnelheden
lezer
abiotische
neurogene
##ïnezuren
geldig
bestanddeel
gonadale
belastend
##iverseel
##triglycer
gewe
##ycin
##produktie
gestreefd
rokende
345
standaardisatie
Schwann
myocarditis
oncogenen
##consult
architect
vestigen
compenserende
getransfecteerde
Verwijdering
PRESENT
Immers
LTP
bank
boeken
##ko
vooroordelen
##uitbreiding
##lands
modellerings
lippen
operon
##OCK
langetermijneffecten
##mengsels
triage
850
G6
cing
laden
##nr
##kaarten
##anat
oment
overl
##ivac
[...]
