{"<s>":0,"</s>":1,"<pad>":2,"<unk>":3,"<mask>":4,"!":5,"\"":6,"#":7,"$":8,"%":9,"&":10,"'":11,"(":12,")":13,"*":14,"+":15,",":16,"-":17,".":18,"/":19,"0":20,"1":21,"2":22,"3":23,"4":24,"5":25,"6":26,"7":27,"8":28,"9":29,":":30,";":31,"<":32,"=":33,">":34,"?":35,"@":36,"A":37,"B":38,"C":39,"D":40,"E":41,"F":42,"G":43,"H":44,"I":45,"J":46,"K":47,"L":48,"M":49,"N":50,"O":51,"P":52,"Q":53,"R":54,"S":55,"T":56,"U":57,"V":58,"W":59,"X":60,"Y":61,"Z":62,"[":63,"\\":64,"]":65,"^":66,"_":67,"`":68,"a":69,"b":70,"c":71,"d":72,"e":73,"f":74,"g":75,"h":76,"i":77,"j":78,"k":79,"l":80,"m":81,"n":82,"o":83,"p":84,"q":85,"r":86,"s":87,"t":88,"u":89,"v":90,"w":91,"x":92,"y":93,"z":94,"{":95,"|":96,"}":97,"~":98,"¡":99,"¢":100,"£":101,"¤":102,"¥":103,"¦":104,"§":105,"¨":106,"©":107,"ª":108,"«":109,"¬":110,"®":111,"¯":112,"°":113,"±":114,"²":115,"³":116,"´":117,"µ":118,"¶":119,"·":120,"¸":121,"¹":122,"º":123,"»":124,"¼":125,"½":126,"¾":127,"¿":128,"À":129,"Á":130,"Â":131,"Ã":132,"Ä":133,"Å":134,"Æ":135,"Ç":136,"È":137,"É":138,"Ê":139,"Ë":140,"Ì":141,"Í":142,"Î":143,"Ï":144,"Ð":145,"Ñ":146,"Ò":147,"Ó":148,"Ô":149,"Õ":150,"Ö":151,"×":152,"Ø":153,"Ù":154,"Ú":155,"Û":156,"Ü":157,"Ý":158,"Þ":159,"ß":160,"à":161,"á":162,"â":163,"ã":164,"ä":165,"å":166,"æ":167,"ç":168,"è":169,"é":170,"ê":171,"ë":172,"ì":173,"í":174,"î":175,"ï":176,"ð":177,"ñ":178,"ò":179,"ó":180,"ô":181,"õ":182,"ö":183,"÷":184,"ø":185,"ù":186,"ú":187,"û":188,"ü":189,"ý":190,"þ":191,"ÿ":192,"Ā":193,"ā":194,"Ă":195,"ă":196,"Ą":197,"ą":198,"Ć":199,"ć":200,"Ĉ":201,"ĉ":202,"Ċ":203,"ċ":204,"Č":205,"č":206,"Ď":207,"ď":208,"Đ":209,"đ":210,"Ē":211,"ē":212,"Ĕ":213,"ĕ":214,"Ė":215,"ė":216,"Ę":217,"ę":218,"Ě":219,"ě":220,"Ĝ":221,"ĝ":222,"Ğ":223,"ğ":224,"Ġ":225,"ġ":226,"Ģ":227,"ģ":228,"Ĥ":229,"ĥ":230,"Ħ":231,"ħ":232,"Ĩ":233,"ĩ":234,"Ī":235,"ī":236,"Ĭ":237,"ĭ":238,"Į":239,"į":240,"İ":241,"ı":242,"Ĳ":243,"ĳ":244,"Ĵ":245,"ĵ":246,"Ķ":247,"ķ":248,"ĸ":249,"Ĺ":250,"ĺ":251,"Ļ":252,"ļ":253,"Ľ":254,"ľ":255,"Ŀ":256,"ŀ":257,"Ł":258,"ł":259,"Ń":260,"en":261,"er":262,"IN":263,"INT":264,"ie":265,"in":266,"Ġ[":267,"at":268,"or":269,"an":270,"ge":271,"on":272,"ar":273,"ch":274,"ij":275,"Ġv":276,"Ġd":277,"st":278,"al":279,"Ġm":280,"ol":281,"el":282,"et":283,"is":284,"ing":285,"di":286,"Ġb":287,"Ġp":288,"Ġn":289,"re":290,"Ġo":291,"Ġge":292,"Ġt":293,"ĠC":294,"Ġh":295,"oor":296,"Ġ(":297,"og":298,"AT":299,"Ġa":300,"cht":301,"Ġc":302,"la":303,"de":304,"Ġw":305,"Ġs":306,"--":307,"ra":308,"le":309,"it":310,"oe":311,"Ġen":312,"Ġin":313,"atie":314,"Ġde":315,"ardi":316,"us":317,"der":318,"Ġe":319,"den":320,"ro":321,"ct":322,"um":323,"ver":324,"am":325,"ul":326,"ĠA":327,"Ġvan":328,"em":329,"ent":330,"Ġop":331,"]:":332,"aar":333,"Ġmet":334,"om":335,"Ġk":336,"Ġz":337,"ale":338,"olog":339,"ee":340,"se":341,"Ġver":342,"LO":343,"aal":344,"ologie":345,"UM":346,"ER":347,"ig":348,"Ġg":349,"isch":350,"ic":351,"id":352,"ON":353,"ĠT":354,"],":355,"OON":356,"Ġl":357,"DAT":358,"DATUM":359,"ĠL":360,"ĠP":361,"ardiologie":362,"op":363,"PER":364,"ijk":365,"PERS":366,"PERSOON":367,"art":368,"ag":369,"Ġvoor":370,"ens":371,"Ġgeen":372,"Ġon":373,"FLO":374,"FLOAT":375,"ken":376,"ri":377,"eg":378,"Ġbij":379,"ur":380,"sch":381,"Ge":382,"----":383,"Ġst":384,"nt":385,"sp":386,"Ġre":387,"iet":388,"Ġbe":389,"ĠS":390,"ĠV":391,"eer":392,"Ġf":393,"ons":394,"ĠM":395,"ĠR":396,"ult":397,"CA":398,"onsult":399,"cl":400,"usie":401,"ot":402,"orm":403,"Ġeen":404,"ĠE":405,"]/":406,"un":407,"ĠH":408,"il":409,"ctie":410,"Ġper":411,"ĠD":412,"ine":413,"ant":414,"and":415,"ĠO":416,"ele":417,"ĠI":418,"Con":419,"clusie":420,"Ġu":421,"oc":422,"ati":423,"ak":424,"gen":425,"]-":426,"Cardiologie":427,"atum":428,"ru":429,"ĠGe":430,"CAR":431,"as":432,"Ġaan":433,"ab":434,"].":435,"Ġniet":436,"Ġonder":437,"ijn":438,"ische":439,"ingen":440,"ĠN":441,"sla":442,"ĠConsult":443,"sie":444,"icht":445,"])":446,"Ġis":447,"ce":448,"zoe":449,"ijd":450,"Conclusie":451,"Ġ-":452,"te":453,"Ġi":454,"rij":455,"zoek":456,"Ġaf":457,"yp":458,"Ġhet":459,"ir":460,"ĠB":461,"min":462,":[":463,"dic":464,"oord":465,"oog":466,"ont":467,"gev":468,"ft":469,"chten":470,"ne":471,"Ġ([":472,"ose":473,"ĠTh":474,"Ġna":475,"oed":476,"ĠĊ":477,"ĠGeen":478,"nam":479,"ema":480,"rijv":481,"Ġte":482,"ĠAnt":483,"--------":484,"schrijv":485,"Ġj":486,"woord":487,"me":488,"),":489,"os":490,"schrijving":491,"pl":492,"end":493,"orie":494,"ĠCat":495,"Om":496,"dicatie":497,"egorie":498,"Omschrijving":499,"ĠAntwoord":500,"ĠCategorie":501,"ĠThema":502,"unctie":503,"Ġover":504,"Ġmm":505,"Ġr":506,"]-[":507,"IE":508,"ik":509,"lachten":510,"ec":511,"elijk":512,"ort":513,"ĠLV":514,"]%":515,"Ġdi":516,"mg":517,"Ġhart":518,"slag":519,"lin":520,"he":521,"rol":522,"Ġonderzoek":523,"ang":524,"ter":525,"ure":526,"ok":527,"ige":528,"gevens":529,"ink":530,"ac":531,"],[":532,"eren":533,"ut":534,"ĠCardiologie":535,"]/[":536,"aat":537,"Ġx":538,"wij":539,"gel":540,"Ġnorm":541,"versie":542,"Ġwaar":543,"Ġpro":544,"eld":545,"Datum":546,"Ã«":547,"Ġal":548,"AD":549,"iek":550,"ier":551,"ten":552,"):":553,"ast":554,"con":555,"Ġdag":556,"ad":557,"Ġlink":558,"ff":559,"im":560,"EF":561,"Ġof":562,"ijden":563,"ĊĊ":564,"Ġdoor":565,"ven":566,"ĠĠ":567,"Ġcor":568,"es":569,"gegevens":570,"Ġer":571,"ist":572,"Ġcardi":573,"conversie":574,"conversiegegevens":575,"Ġcont":576,"Ġme":577,"Ġklachten":578,"ĠG":579,"wijz":580,"Nee":581,"ced":582,"Ġma":583,"ve":584,"eleid":585,"uis":586,"Ġla":587,"Ġnu":588,"Ġnaar":589,"Ġ|":590,"]:[":591,"ou":592,"rie":593,"ram":594,"gesch":595,"ath":596,"cedure":597,"ieden":598,"entie":599,"nese":600,"yper":601,"CG":602,"sc":603,"eerd":604,"Ġan":605,"olg":606,"Ġrecht":607,"iedenis":608,"eeft":609,"geschiedenis":610,"be":611,"EN":612,"pt":613,"ste":614,"Ã«nt":615,"Ġuit":616,"if":617,"Ġpati":618,"air":619,").":620,"IS":621,"Ġsp":622,"uw":623,"lep":624,"ull":625,"leg":626,"lo":627,"Ġcol":628,"onder":629,"mm":630,"ire":631,"CI":632,"ensie":633,"acht":634,"atri":635,"Ġvoorgeschiedenis":636,"ĠOver":637,"ap":638,"lat":639,"ib":640,"ard":641,"oede":642,"cho":643,"Ġor":644,"vat":645,"ĠK":646,"ĠVer":647,"ect":648,"Ġfunctie":649,"Ġ/":650,"urs":651,"ruk":652,"ril":653,"eu":654,"act":655,"voor":656,"wijk":657,"of":658,"erd":659,"Ġtot":660,"ium":661,"HU":662,"emie":663,"ill":664,"res":665,"KEN":666,"ZIE":667,"ĠU":668,"HUIS":669,"ZIEKEN":670,"ZIEKENHUIS":671,"sen":672,"ide":673,"ien":674,"role":675,"name":676,"abl":677,"Hg":678,"ursus":679,"af":680,"ell":681,"itme":682,"ind":683,"aan":684,"vull":685,"Ġle":686,"Ġinf":687,"Ġgoed":688,"ze":689,"Ġpol":690,"ost":691,"ypert":692,"ting":693,"amen":694,"zicht":695,"ann":696,"zel":697,"raag":698,"erk":699,"Ġsy":700,"ich":701,"Ġth":702,"qu":703,"onair":704,"ĠF":705,"Ġbl":706,"----------------":707,"Aan":708,"eken":709,"alis":710,"Ġwor":711,"ia":712,"uur":713,"ore":714,"ula":715,"dilat":716,"eter":717,"ende":718,"ma":719,"eel":720,"namnese":721,"iklin":722,"CD":723,"uc":724,"Ġmg":725,"oloog":726,"amenvat":727,"amenvatting":728,"Ġlinker":729,"Ġoraal":730,"TI":731,"oel":732,"Ġtijd":733,"Ġatri":734,"ed":735,"Beleid":736,"Ġnormale":737,"hand":738,"Anamnese":739,"omen":740,"Ġom":741,"LE":742,"rief":743,"Ġook":744,"==":745,"Ġto":746,"ĠW":747,"Ġwaarvoor":748,"ĠCA":749,"ĠCT":750,"ys":751,"Ġnog":752,"eling":753,"Ġdatum":754,"arts":755,"Ġeer":756,"igram":757,"eratie":758,"ijst":759,"Ġpijn":760,"ĠECG":761,"enose":762,"ablet":763,"Ġiv":764,"Ġzijn":765,"ĠRV":766,"ĠOverzicht":767,"-[":768,"ĠIn":769,"functie":770,"ĠDe":771,"vullend":772,"gelijk":773,"Ġmill":774,"Ġwel":775,"ID":776,"Ġheeft":777,"TE":778,"ypertensie":779,"spra":780,"fie":781,"rocedure":782,"TX":783,"heid":784,"Ġmilligram":785,"ATIE":786,"umf":787,"Ġtablet":788,"Ġnee":789,"Ġverv":790,"Ġafwijk":791,"Ġaort":792,"ibril":793,"CATIE":794,"ax":795,"ond":796,"Ġger":797,"nis":798,"Tijd":799,"Ġrechts":800,"Ġgoede":801,"LOCATIE":802,"aties":803,"Ġter":804,"Ġno":805,"Ġisch":806,"Ġont":807,"Ġhoog":808,"spann":809,"etten":810,"Ġmo":811,"we":812,"alc":813,"Ġcolleg":814,"Ġsc":815,"kel":816,"zien":817,"Re":818,"su":819,"Ġja":820,"Over":821,"kend":822,"druk":823,"ĠmmHg":824,"Ġaanwijz":825,"dere":826,"ulm":827,"bl":828,"ies":829,"Ġgedilat":830,"spraak":831,"ific":832,"omp":833,"Ġgest":834,"chter":835,"inge":836,"ĠPCI":837,"mb":838,"Ġ]":839,"Ġmmol":840,"Aanvullend":841,"ardiale":842,"Keu":843,"zelijst":844,"Keuzelijst":845,"radi":846,"uit":847,"ecursus":848,"Ġdec":849,"ĠpatiÃ«nt":850,"vent":851,"Ġivm":852,"ĠNorm":853,"ite":854,"Ġru":855,"ĠZ":856,"ke":857,"tra":858,"est":859,"spanning":860,"kt":861,"ente":862,"men":863,"JD":864,"isic":865,"TIJD":866,"LEEF":867,"LEEFTIJD":868,"dt":869,"Ġmeer":870,"Ġzetten":871,"edicatie":872,"Ġcon":873,"Ġwerd":874,"ĠICD":875,"Ġcoronair":876,"alen":877,"ibrill":878,"Ġaanwijzingen":879,"Ġmin":880,"dig":881,"Ġcontrole":882,"oornis":883,"consult":884,"ron":885,"ogra":886,"Ġnormaal":887,"VA":888,"sl":889,"int":890,"uid":891,"Ġrec":892,"ĠQ":893,"Ġdat":894,"ĠLAD":895,"na":896,"Ġdan":897,"Ġopname":898,"ibrilleren":899,"val":900,"od":901,"Ġlon":902,"antatie":903,"In":904,"Ġlinks":905,"Ġmaar":906,"dien":907,"ion":908,"mpl":909,"Ġzonder":910,"Ġsu":911,"Ġbel":912,"Ġmedicatie":913,"inus":914,"RI":915,"Ġgeb":916,"olische":917,"iale":918,"xim":919,"Ġischemie":920,"Ġant":921,"hoog":922,"Ġjaar":923,"Samenvatting":924,"bij":925,"Ġvolg":926,"co":927,"orax":928,"Ġsyst":929,"dd":930,"Ġher":931,"eerde":932,"Geen":933,"ocardi":934,"atige":935,"Ġinspanning":936,"wee":937,"stoornis":938,"ip":939,"ran":940,"th":941,"ype":942,"ater":943,"Ġhuis":944,"Ġstenose":945,"roken":946,"Ġwordt":947,"nen":948,"slacht":949,"Ġex":950,"Ġprocedure":951,"vol":952,"Ġdd":953,"yc":954,"aker":955,"ric":956,"laat":957,"requ":958,"lijk":959,"Al":960,"arct":961,"Ġbloed":962,"ĠSt":963,"erol":964,"iden":965,"ikliniek":966,"ox":967,"amelijk":968,"lop":969,"ces":970,"Ja":971,"ign":972,"Ġecho":973,"ompl":974,"Ġtoe":975,"je":976,"Ġvent":977,"ulmon":978,"Brief":979,"stell":980,"Ġbor":981,"rog":982,"acem":983,"ocht":984,"king":985,"agn":986,"baar":987,"atig":988,"low":989,"elijke":990,"acemaker":991,"ichamelijk":992,"ĠAF":993,"atief":994,"Ġinter":995,"Ġvervolg":996,"datum":997,"Medicatie":998,"richt":999,"ass":1000,"]),":1001,"Ġ+":1002,"Ġcollegiale":1003,"):[":1004,"Ġbehand":1005,"ug":1006,"Ġals":1007,"geb":1008,"ysp":1009,"Reden":1010,"weg":1011,"'s":1012,"Ġmid":1013,"pen":1014,"rikel":1015,"iteit":1016,"Ġborst":1017,"oven":1018,"umfibrilleren":1019,"Ġch":1020,"HTX":1021,"atus":1022,"Ġrechter":1023,"Ġimpl":1024,"Ġdit":1025,"ep":1026,"amil":1027,"ĠOp":1028,"Ġgeh":1029,"ritme":1030,"Ver":1031,"athie":1032,"ulaire":1033,"klachten":1034,"ĠCAG":1035,"score":1036,"achting":1037,"alcium":1038,"ECG":1039,"ach":1040,"Ġrust":1041,"Ġcardiale":1042,"Ġafwijkingen":1043,"form":1044,"Ġwat":1045,"Ġ:":1046,"Ġne":1047,"omplic":1048,"Ġhoogachting":1049,"FR":1050,"Ġgezien":1051,"Ġrisic":1052,"ĠMet":1053,"akt":1054,"Ġlong":1055,"lijden":1056,"abie":1057,"klep":1058,"suff":1059,"Di":1060,"Ġverhoog":1061,"eb":1062,"Lichamelijk":1063,"heden":1064,"ings":1065,"lan":1066,"ijdens":1067,"Decursus":1068,"Ġap":1069,"Ġzo":1070,"ĠNormale":1071,"nst":1072,"ker":1073,"eri":1074,"ĠMI":1075,"Ġvol":1076,"ĠEr":1077,"ĠRCA":1078,"Ġgele":1079,"ici":1080,"Ġml":1081,"als":1082,"ante":1083,"requentie":1084,"Ġmogelijk":1085,"genomen":1086,"ĠOn":1087,"Ġverb":1088,"ĠPol":1089,"CV":1090,"ber":1091,"Ġ;":1092,"Op":1093,"Ġsign":1094,"yten":1095,"sproken":1096,"CT":1097,"ym":1098,"romb":1099,"Ġkom":1100,"yse":1101,"line":1102,"inf":1103,"Ġuur":1104,"Ġdaar":1105,"spre":1106,"BG":1107,"chocardi":1108,"Procedure":1109,"MI":1110,"ĠMRI":1111,"opathie":1112,"noe":1113,"ĠLVEF":1114,"Ġgedilateerd":1115,"ede":1116,"Ġdysp":1117,"asc":1118,"ocard":1119,"ressie":1120,"Ġhartf":1121,"Ġpatient":1122,"wicht":1123,"ieuw":1124,"St":1125,"amnese":1126,"====":1127,"Ġwas":1128,"oren":1129,"ief":1130,"Ġweer":1131,"anden":1132,"arige":1133,"orac":1134,"ruik":1135,"rop":1136,"Ġimplantatie":1137,"elen":1138,"Ġwand":1139,"inds":1140,"suffici":1141,"ĠAo":1142,"Ġged":1143,"Be":1144,"CH":1145,"Ġeerder":1146,"Ġvia":1147,"Ġvervolgconsult":1148,"arm":1149,"ĠVerslag":1150,"Ġgev":1151,"linische":1152,"Ġang":1153,"Ġbeleid":1154,"oprol":1155,"ografie":1156,"aklep":1157,"Ġatriumfibrilleren":1158,"olest":1159,"ulair":1160,"agnose":1161,"abet":1162,"oprolol":1163,"ment":1164,"fusie":1165,"opt":1166,"yocard":1167,"inusritme":1168,"olesterol":1169,"Ġsec":1170,"ĠUit":1171,"ame":1172,"Overige":1173,"Ġac":1174,"ĠCon":1175,"do":1176,"alyse":1177,"Ġkan":1178,"]%.":1179,"Ġbet":1180,"stoornissen":1181,"aire":1182,"Hart":1183,"ĠRR":1184,"Ġzich":1185,"ycard":1186,".:":1187,"eng":1188,"stelling":1189,"Ġuw":1190,"ĠBij":1191,"--------------------------------":1192,"Ġgehad":1193,"Cor":1194,"Ġpre":1195,"ĠAV":1196,"els":1197,"ger":1198,"Ġritme":1199,"dige":1200,"Ġart":1201,"ĠAan":1202,"Ġoede":1203,"eek":1204,"omy":1205,"Ġhuisarts":1206,"Met":1207,"ĠPati":1208,"ple":1209,"ĠEF":1210,"ucces":1211,"Ġsignific":1212,"Ġgeringe":1213,"rouw":1214,"Ġwv":1215,"alciumscore":1216,"Ġhier":1217,"Ġpulmon":1218,"ĠTI":1219,"Ġ>":1220,"Ġho":1221,"zen":1222,"De":1223,"ycardie":1224,"oort":1225,"Ġafspraak":1226,"Ġdie":1227,"Ġgaat":1228,"Ġkle":1229,"Ġtype":1230,"reat":1231,"meld":1232,"Ġbas":1233,"abetes":1234,"kun":1235,"Ġtijdens":1236,"ichting":1237,"Ġmatige":1238,"amer":1239,"one":1240,"iding":1241,"Ġgro":1242,"Ġweken":1243,"ate":1244,"Ġob":1245,"ES":1246,"Ġworden":1247,"Ġdecursus":1248,"Ġmaanden":1249,"ress":1250,"ĠII":1251,"ofd":1252,"Ġpar":1253,"ocyten":1254,"antie":1255,"Ġhij":1256,"ffle":1257,"omie":1258,"Ġbekend":1259,"ĠAl":1260,"Ġhypertensie":1261,"iets":1262,"itis":1263,"Ġbeeld":1264,"ock":1265,"Ġcm":1266,"org":1267,"olter":1268,"Ġas":1269,"erose":1270,"Ġsou":1271,"VI":1272,"lut":1273,"ui":1274,"met":1275,"waar":1276,"erg":1277,"aten":1278,"uccesvol":1279,"Ġaorta":1280,"Ġweg":1281,"ander":1282,"oracale":1283,"open":1284,"Ġconsult":1285,"ĠST":1286,"^[":1287,"Ġdruk":1288,"erv":1289,"Ġvolgens":1290,"ĠGeslacht":1291,"Ġaortaklep":1292,"ml":1293,"Ġpost":1294,"Ġhem":1295,"Ġsouffle":1296,"Ġnier":1297,"Ġwe":1298,"Ġlicht":1299,"wijzig":1300,"Ġsystolische":1301,"]^[":1302,"blatie":1303,"Ġred":1304,"Ġsn":1305,"lu":1306,"xt":1307,"Ġernst":1308,"Ġdo":1309,"isatie":1310,"Ġstabie":1311,"kl":1312,"ov":1313,"tri":1314,"Ġse":1315,"TEL":1316,"eft":1317,"erior":1318,"ade":1319,"Ġgra":1320,"Ġventrikel":1321,"ĠHet":1322,"Ġgegevens":1323,"Ġsub":1324,"Ġontslag":1325,"Ġstart":1326,"oelichting":1327,"ble":1328,"Ġple":1329,"mmHg":1330,"lutter":1331,"vens":1332,"rofie":1333,"Ġneg":1334,"schijn":1335,"Ġmax":1336,"Ġtra":1337,"lap":1338,"matig":1339,"mer":1340,"Sp":1341,"amilie":1342,"oom":1343,"innen":1344,"man":1345,"omyopathie":1346,"iv":1347,"ogram":1348,"atine":1349,"ĠProcedure":1350,"Ġ\\":1351,"Ġanamnese":1352,"age":1353,"laats":1354,"all":1355,"ouden":1356,"pleeg":1357,"RS":1358,"Ġdyspnoe":1359,"Ġverhoogd":1360,"RR":1361,"?:":1362,"kende":1363,"ator":1364,"roe":1365,"Ġade":1366,"dra":1367,"nd":1368,"cm":1369,"Ġstent":1370,"Ġklep":1371,"Ġdagen":1372,"ĠCR":1373,"ĠNa":1374,"reft":1375,"etrie":1376,"Hypertensie":1377,"ĠLA":1378,"Ġprog":1379,"lecht":1380,"pro":1381,"unt":1382,"Ġproxim":1383,"ĠVT":1384,"infarct":1385,"pit":1386,"verslag":1387,"ĠConclusie":1388,"ren":1389,"afwijk":1390,"Ġweek":1391,"OR":1392,"Ġbep":1393,"otal":1394,"ofact":1395,"Ġben":1396,"Toelichting":1397,"erap":1398,"Ġhartfalen":1399,"Ġbloeddruk":1400,"ĠRe":1401,"otalol":1402,"usp":1403,"ase":1404,"oon":1405,"loed":1406,"Echo":1407,"schijnlijk":1408,"omin":1409,"Ġcontact":1410,"eratieverslag":1411,"ogen":1412,"Ġboven":1413,"Ġscore":1414,"Ġreg":1415,"Ġnodig":1416,"ameter":1417,"Ġgen":1418,"ĠCABG":1419,"Ġablatie":1420,"/[":1421,"Ġsch":1422,"ueel":1423,"io":1424,"CK":1425,"ust":1426,"denos":1427,".|":1428,"ĠSR":1429,"idief":1430,"eringe":1431,"Ġlab":1432,"ĠJ":1433,"huis":1434,"Ġverder":1435,"ĠTA":1436,"Ġtach":1437,"Ġmoe":1438,"Ġdiast":1439,"insuffici":1440,"Ġthoracale":1441,"Ġele":1442,"ura":1443,"Ġlang":1444,"dv":1445,"thorax":1446,"ofactoren":1447,"oten":1448,"Ġeerste":1449,"AS":1450,"ĠX":1451,"gest":1452,"Ġ.":1453,"Ġpolikliniek":1454,"Ġzie":1455,"Ġ<":1456,"cont":1457,"Af":1458,"hal":1459,"=[":1460,"kg":1461,"oth":1462,"ĠCardiale":1463,"wijzigd":1464,"Ġgedilateerde":1465,"eci":1466,"AC":1467,"Ġsept":1468,"vic":1469,"achte":1470,"Ġkort":1471,"maal":1472,"itr":1473,"ari":1474,"jarige":1475,"Ġbinnen":1476,"Ġperfusie":1477,"uut":1478,"minder":1479,"ĠCardi":1480,"Ġradi":1481,"ica":1482,"ace":1483,"Ġalle":1484,"Ġpoli":1485,"ĠHTX":1486,"ADS":1487,"ĠDi":1488,"itie":1489,"raagstelling":1490,"Ġlast":1491,"opie":1492,"regel":1493,"aag":1494,"sel":1495,"LV":1496,"RV":1497,"Ġcardioloog":1498,"Ġstop":1499,"deling":1500,"ĠDD":1501,"Ġasc":1502,"ject":1503,"Ġaange":1504,"Ġtoen":1505,"DL":1506,"engte":1507,"Ġveel":1508,"]%,":1509,"ectie":1510,"aren":1511,"ĠOnder":1512,"Ġlever":1513,"laps":1514,"rof":1515,"Ġdeze":1516,"Ġerg":1517,"Ġoedeem":1518,"mol":1519,"Niet":1520,"av":1521,"ĠAP":1522,"atio":1523,"Ġkomst":1524,"wand":1525,"vocht":1526,"VT":1527,"ijds":1528,"Ġspra":1529,"lob":1530,"Ġlaat":1531,"Ġsinds":1532,"cholesterol":1533,"Pati":1534,"ĠUitslag":1535,"wege":1536,"MER":1537,"are":1538,"igen":1539,"Ġhyp":1540,"]).":1541,"Ġze":1542,"ĠBe":1543,"ĠQRS":1544,"van":1545,"vraag":1546,"geen":1547,"mie":1548,"Ġgebruik":1549,"oll":1550,"Ġverband":1551,"emen":1552,"Ġheb":1553,"mp":1554,"NUM":1555,"NUMMER":1556,"TELEF":1557,"OONNUMMER":1558,"TELEFOONNUMMER":1559,"sloten":1560,"pol":1561,"MA":1562,"operatie":1563,"clerose":1564,"Ġmee":1565,"pm":1566,"Ġperc":1567,"erkt":1568,"Ġstatus":1569,"Ġsignificante":1570,"Ġpal":1571,"ĠPolikliniek":1572,"igheid":1573,"dis":1574,"Ġafge":1575,"Ġslecht":1576,"ĠGoede":1577,"oop":1578,"Cont":1579,"gemen":1580,"gemene":1581,"Ġik":1582,"zonder":1583,"Ġ,":1584,"ilat":1585,"];":1586,"Ġpat":1587,"mensie":1588,"ijkt":1589,"Ġziek":1590,"Cardi":1591,"alisklep":1592,"Ġven":1593,"Ġbehandeling":1594,"yl":1595,"EH":1596,"bd":1597,"ef":1598,"egment":1599,"dag":1600,"ompens":1601,"staan":1602,"melding":1603,"inine":1604,"Lab":1605,"Ġlater":1606,"Ġterug":1607,"yes":1608,"riculaire":1609,"Ġperic":1610,"ĠSp":1611,"jectie":1612,"reatinine":1613,"vind":1614,"]):":1615,"ob":1616,"radioloog":1617,"venen":1618,"Ġcollaps":1619,"Ã¯":1620,"hol":1621,"Ġbijw":1622,"osis":1623,"ĊĊĊ":1624,"RE":1625,"las":1626,"ometrie":1627,"uk":1628,"za":1629,"atrium":1630,"ĠLVF":1631,"ratie":1632,"Cardiale":1633,"mid":1634,"sist":1635,"cardi":1636,"Ġarts":1637,"Ġdimensie":1638,"PCI":1639,"orgen":1640,"Ġcardiologie":1641,"Ġ%":1642,"ere":1643,"gebre":1644,"Ġverminder":1645,"ĠECV":1646,"([":1647,"ering":1648,"ud":1649,"plan":1650,"sy":1651,"uik":1652,"oem":1653,"Geachte":1654,"Ġwaarschijnlijk":1655,"ider":1656,"Ġechter":1657,"Ġaant":1658,"Ġmyocard":1659,"Ġstabiel":1660,"uizel":1661,"Ġat":1662,"elef":1663,"Âł":1664,"ĠNee":1665,"Ġev":1666,"ms":1667,"Ġopn":1668,"Ġcontra":1669,"Ġonge":1670,"liniek":1671,"HA":1672,"ader":1673,"GFR":1674,"entr":1675,"Ġdist":1676,"Ġsnel":1677,"Ġcordis":1678,"Ġhaar":1679,"slagen":1680,"lex":1681,"Ġman":1682,"OB":1683,"ilt":1684,"ĠDecursus":1685,"ix":1686,"gende":1687,"vice":1688,"elf":1689,"resent":1690,"Ġduid":1691,"rel":1692,"Ġdys":1693,"pijn":1694,"Afspraak":1695,"Ġconform":1696,"Ġinfarct":1697,"ction":1698,"ĊĠ":1699,"urende":1700,"ation":1701,"Ġdilat":1702,"Ġopgenomen":1703,"stenose":1704,"richting":1705,"Ġiets":1706,"erapie":1707,"chocardiogram":1708,"ĠPV":1709,"zol":1710,"Ġlead":1711,"elden":1712,"houden":1713,"medicatie":1714,"omat":1715,"weest":1716,"ĠNiet":1717,"up":1718,"Ġdiff":1719,"eten":1720,"Ġcomp":1721,"Ġkun":1722,"]);":1723,"Ġmaxim":1724,"room":1725,"Ġcollega":1726,"ĠSEH":1727,"Ġsh":1728,"Ġfor":1729,"toc":1730,"per":1731,"ĠHart":1732,"eros":1733,"vast":1734,"INR":1735,"ening":1736,"ragen":1737,"atheter":1738,"Ġernstige":1739,"itu":1740,"Ġanalyse":1741,"Ġam":1742,"ĠIndicatie":1743,"Ġgeweest":1744,"Ġpleura":1745,"ben":1746,"Ġrecidief":1747,"AG":1748,"kele":1749,"linisch":1750,"zijds":1751,"arc":1752,"cor":1753,"LAD":1754,"alium":1755,"Ġsl":1756,"Ġbekende":1757,"Ġpath":1758,"iografie":1759,"Ġnieuw":1760,"Norm":1761,"Diabetes":1762,"Ã«ntie":1763,"Ġvanwege":1764,"oemde":1765,"ĠVoor":1766,"nee":1767,"ument":1768,");":1769,"ĠGeringe":1770,"Ġyes":1771,"tocol":1772,"ub":1773,"omplicaties":1774,"dens":1775,"Ġcalciumscore":1776,"Ġhartas":1777,"uro":1778,"ologische":1779,"Ġbelang":1780,"zonderheden":1781,"ICD":1782,"denosine":1783,"geven":1784,"ret":1785,"RA":1786,"Ġevent":1787,"Ġtoont":1788,"Ġmitr":1789,"ute":1790,"Ġgeleiding":1791,"genoemde":1792,"dvies":1793,"wel":1794,"onden":1795,"pitaties":1796,"Ġoverig":1797,"Atri":1798,"Ġverpleeg":1799,"REHTX":1800,"iderzijds":1801,"ocument":1802,"ummer":1803,"itus":1804,"Ġtachycardie":1805,"iklinische":1806,"gang":1807,"ĠEcho":1808,"uwd":1809,"Ġret":1810,"Algemene":1811,"Ġsprake":1812,"Ġasp":1813,"Ext":1814,"Het":1815,"========":1816,"Ġlaag":1817,"Ġint":1818,"ĠRC":1819,"Ġpacemaker":1820,"TB":1821,"ging":1822,"Ġkunnen":1823,"Ġextra":1824,"fisch":1825,"kundige":1826,"Âµ":1827,"Ġwegens":1828,"Ġcons":1829,"vastatine":1830,"ode":1831,"eeftijd":1832,"neum":1833,"ĠNormaal":1834,"olie":1835,"Ġzeer":1836,"loeddruk":1837,"Ġms":1838,"Ġrest":1839,"erie":1840,"Ġverm":1841,"uccesvolle":1842,"ĠAanmelding":1843,"Ġobv":1844,"ank":1845,"Ġzien":1846,"ypercholesterol":1847,"ĠPer":1848,"Ġmetoprolol":1849,"Ġstress":1850,"Ġhoofd":1851,"yt":1852,"Ġpresent":1853,"ĠAS":1854,"Ġoverleg":1855,"olling":1856,"]([":1857,"acing":1858,"rofiel":1859,"medi":1860,"ance":1861,"dels":1862,"ĊĊĊĊ":1863,"aakt":1864,"ricusp":1865,"Ġwaarbij":1866,"Ġpulmonaal":1867,"ĠOnderzoek":1868,"AF":1869,"adem":1870,"iod":1871,"complic":1872,"Â²":1873,"Er":1874,"Ġduizel":1875,"uele":1876,"ina":1877,"uiten":1878,"ĠpatiÃ«nte":1879,"OS":1880,"BTB":1881,"kal":1882,"Ġdecompens":1883,"ĠAT":1884,"anging":1885,"On":1886,"Controle":1887,"Ġpass":1888,"ucc":1889,"gro":1890,"wez":1891,"SP":1892,"Ġzelf":1893,"Ġzal":1894,"Lengte":1895,"endens":1896,"urg":1897,"Ġvaat":1898,"Ġzij":1899,"aring":1900,"cept":1901,"Ġpl":1902,"orator":1903,"ĠCor":1904,"gele":1905,"oelt":1906,"oratorium":1907,"iaal":1908,"Ġproble":1909,"Ġverander":1910,"]],":1911,"Ġel":1912,"kken":1913,"Ġcardio":1914,"ussen":1915,"Ġhoe":1916,"Ġbeter":1917,"Ġcoronairlijden":1918,"Ġgevoel":1919,"Ġvolgt":1920,"Ġpri":1921,"Bij":1922,"rose":1923,"None":1924,"fra":1925,"ca":1926,"ĠĠĠ":1927,"oment":1928,"Ġandere":1929,"ĠCO":1930,"Ġ'":1931,"Ġherst":1932,"Ġlijkt":1933,"neu":1934,"Ġprogressie":1935,"Ġrecente":1936,"chts":1937,"ĠKlinische":1938,"space":1939,"Ġminder":1940,"unction":1941,"Ġdis":1942,"iodar":1943,"frequentie":1944,"Na":1945,"Ġhel":1946,"elev":1947,"Ġplaats":1948,"lopp":1949,"ventie":1950,">[":1951,"rans":1952,"wijzing":1953,"reum":1954,"maakt":1955,"erken":1956,"veal":1957,"ĠKliniek":1958,"denking":1959,"erende":1960,"..":1961,"ĠOK":1962,"Ġkg":1963,"Behand":1964,"onen":1965,"DR":1966,"iÃ«":1967,"Ġmedic":1968,"ellitus":1969,"Ġprotocol":1970,"Ġthuis":1971,"Ġbed":1972,"Ġpla":1973,"vindingen":1974,"onderzoek":1975,"Ġsinusritme":1976,"dit":1977,"ventrikel":1978,"spreking":1979,"dip":1980,"Ġ_":1981,"Ġsegment":1982,"ize":1983,"oprofiel":1984,"ĠSc":1985,"lank":1986,"Ġgedurende":1987,"erend":1988,"uiden":1989,"Ġzw":1990,"oris":1991,"kw":1992,"leden":1993,"ypercholesterolemie":1994,"regelmatig":1995,"ollow":1996,"Ġ>[":1997,"sem":1998,"Ġbasis":1999,"Ġep":2000,"Ġenkele":2001,"hm":2002,"Ġeigen":2003,"Sc":2004,"tijd":2005,"Ġredelijke":2006,"arisatie":2007,"Ġgraad":2008,"Ġbeiderzijds":2009,"ĠVraagstelling":2010,"entiel":2011,"Ġbesproken":2012,"ĠRA":2013,"Ġsotalol":2014,"reep":2015,"Ġdevice":2016,"ntslag":2017,"Ġca":2018,"pacemaker":2019,"oit":2020,"Ġoperatie":2021,"kk":2022,"Tc":2023,"Ġhartk":2024,"Familie":2025,"mmol":2026,"eert":2027,"Ġpos":2028,"Ġverminderde":2029,"osc":2030,"Ġpleuravocht":2031,"Ġpercentiel":2032,"ees":2033,"Ġindicatie":2034,"Geslacht":2035,"Type":2036,"iggen":2037,"Ġnegatief":2038,"tis":2039,"cohol":2040,"Ġverricht":2041,"inu":2042,"ex":2043,"itale":2044,"eur":2045,"oep":2046,"Ġ--------------------------------":2047,"ĠHolter":2048,"luc":2049,"ĠVerrichting":2050,"Ġatriale":2051,"Ġsinus":2052,"Ġmaken":2053,"erkingen":2054,"ĠHeeft":2055,"loppingen":2056,"ĠOverige":2057,"urosem":2058,"Ġoog":2059,"urosemide":2060,"Ġnieuwe":2061,"ĠCa":2062,"Pol":2063,"Ġwij":2064,"gelopen":2065,"Ġflow":2066,"ekend":2067,"Ġslechte":2068,"PatiÃ«nt":2069,"Ġ------------------------------------------------":2070,"Ġcardiomyopathie":2071,"rum":2072,"ĠVerslagdatum":2073,"Coronair":2074,"over":2075,"AP":2076,"Ġing":2077,"Aanvraag":2078,"ĠTTE":2079,"Ġbi":2080,"Ġelekt":2081,"Ġrisico":2082,"Ġapic":2083,"Document":2084,"dz":2085,"Ġbeoord":2086,"atieve":2087,"Ġparox":2088,"ili":2089,"Ġ<[":2090,"ĠAf":2091,"ds":2092,"reening":2093,"rench":2094,"Ġafwijking":2095,"bekend":2096,"ĠPM":2097,"gaan":2098,"ss":2099,"Ġhebben":2100,"Ġmedi":2101,"ĠLVAD":2102,"Ġopt":2103,"Ġpect":2104,"Ġsten":2105,"rt":2106,"Ġverd":2107,"Ġpneum":2108,"ĠAC":2109,"Ġkamer":2110,"oofd":2111,"sec":2112,"iklinisch":2113,"stru":2114,"Ġintermedi":2115,"Ġverwij":2116,"elefon":2117,"vis":2118,"Ġbelast":2119,"Ac":2120,"Ġbdz":2121,"ypische":2122,"ropon":2123,"bel":2124,"ek":2125,"french":2126,"Size":2127,"ĠPatient":2128,"ulier":2129,"ern":2130,"ĠSamenvatting":2131,"pland":2132,"Ġlaten":2133,"ĠPVC":2134,"Ġmatig":2135,"Ġtromb":2136,"ĠLeeftijd":2137,"oms":2138,"ĠTel":2139,"TEMI":2140,"erking":2141,"geluiden":2142,"uren":2143,"ovengenoemde":2144,"Gewicht":2145,"oken":2146,"eftijd":2147,"Ġgestopt":2148,"Ġtussen":2149,"Ġrond":2150,"rad":2151,"MG":2152,"Ġtoch":2153,"ĠCK":2154,"Ġgestaakt":2155,"vorm":2156,"ymf":2157,"Bel":2158,"esie":2159,"irurg":2160,"Ġath":2161,"ĠInt":2162,"Ġachter":2163,"vall":2164,"Ġkomt":2165,"Ġro":2166,"ĠCV":2167,"ĠCont":2168,"istolling":2169,"Ġgew":2170,"Ġbijgeluiden":2171,"Ġkortadem":2172,"ziek":2173,"kom":2174,"Ġact":2175,"reveal":2176,"Ġmoment":2177,"adi":2178,"ronische":2179,"Ġsouffles":2180,"lucose":2181,"oorts":2182,"ĠRF":2183,"Ġverhoogde":2184,"zet":2185,"Ġtwee":2186,"Ġintra":2187,"etreft":2188,"lip":2189,"rug":2190,"istratie":2191,"ĠPatiÃ«nt":2192,"lanco":2193,"iteiten":2194,"Ġpijnklachten":2195,"Klinische":2196,"klaring":2197,"Ġval":2198,"Ġnierfunctie":2199,"IMA":2200,"wezen":2201,"emor":2202,"ĠTe":2203,"afwijking":2204,"Ġpassend":2205,"waarden":2206,"ĠÂµ":2207,"igh":2208,"ĠZo":2209,"Ġpols":2210,"een":2211,"Ġbez":2212,"-->":2213,"Ġzicht":2214,"ctomie":2215,"Ġpresentatie":2216,"Normale":2217,"ĠTele":2218,"Ġcoron":2219,"rijk":2220,"Ġvocht":2221,"Ġatheros":2222,"Ġhypert":2223,"plijden":2224,"Ġpersist":2225,"our":2226,"alcific":2227,"olatie":2228,"beeld":2229,"Ġdysfunctie":2230,"emische":2231,"Ġstenos":2232,"ĠINR":2233,"ografisch":2234,"dat":2235,"Ġdiastolische":2236,"ders":2237,"ded":2238,"ĠLab":2239,"Ġhartkloppingen":2240,"ptomat":2241,"Ġdecompensatio":2242,"Ġbuik":2243,"bare":2244,"ctieve":2245,"Ġeff":2246,"roponine":2247,"onregelmatig":2248,"ied":2249,"elefonisch":2250,"Ġmitralisklep":2251,"consultatie":2252,"Ġvergelijk":2253,"pect":2254,"intig":2255,"ndroom":2256,"ĠTeleconsultatie":2257,"PD":2258,"Ġoor":2259,"NP":2260,"Ġduur":2261,"zem":2262,"mat":2263,"Ġbeg":2264,"ĠAoI":2265,"Opt":2266,"Ġdoen":2267,"Ġbetreft":2268,"ĠCRT":2269,"Ġcardiaal":2270,"oeid":2271,"fect":2272,"ule":2273,"ild":2274,"ember":2275,"ransp":2276,"Ġrisicofactoren":2277,"onregelmatigheden":2278,"opril":2279,"Ġverw":2280,"atter":2281,"ow":2282,"Betreft":2283,"Succ":2284,"Ġgewicht":2285,"Ġgestart":2286,"Opties":2287,"Ġsup":2288,"eeded":2289,"Ġnon":2290,"Succeeded":2291,"ĠStatus":2292,"Bovengenoemde":2293,"sten":2294,"stijden":2295,"kte":2296,"Ġjarige":2297,"/-":2298,"mbolie":2299,"uten":2300,"the":2301,"afwijkingen":2302,"insufficiÃ«ntie":2303,"CM":2304,"ST":2305,"orte":2306,"Ġdaarna":2307,"Ġnov":2308,"ĠMedicatie":2309,"umar":2310,"Ġpatiente":2311,"Ġblij":2312,"stol":2313,"Voor":2314,"inesie":2315,"arcin":2316,"Ġopnieuw":2317,"Ġzorg":2318,"Ġten":2319,"Ġrepol":2320,"ral":2321,"Ġuitge":2322,"Ġventriculaire":2323,"Ġindien":2324,"ĠFFR":2325,"ong":2326,"CABG":2327,"ergie":2328,"elde":2329,"ĠPOB":2330,"Ġdoorge":2331,"und":2332,"to":2333,"ĠCRP":2334,"Ġcir":2335,"imaal":2336,"Ġsamenvatting":2337,"ĠAn":2338,"Ġgeleidingstijden":2339,"ecialis":2340,"slijden":2341,"RT":2342,"YHA":2343,"doende":2344,"rag":2345,"Ġredelijk":2346,"Ġrisicoprofiel":2347,"operatief":2348,"iÃ«le":2349,"ĠCalciumscore":2350,"zoeken":2351,"ĠNu":2352,"aken":2353,"uli":2354,"idi":2355,"Ġzichtbaar":2356,"BLE":2357,"Ġcar":2358,"ĠPG":2359,"Ġbijwerken":2360,"Ġpalpitaties":2361,"rem":2362,"lies":2363,"Ġinferior":2364,"weging":2365,"ecialisme":2366,"BS":2367,"ĠMV":2368,"ĠHCK":2369,"Ġlaatste":2370,"Ġaanwez":2371,"ĠĊĠ":2372,"Ã«n":2373,"Ġatrium":2374,"ĠPQ":2375,"Post":2376,"ĠHij":2377,"ude":2378,"ĠVAG":2379,"Ġhoge":2380,"Ġtoename":2381,"Ġkleplijden":2382,"Ġstuk":2383,"Ġbasaal":2384,"staande":2385,"Ġbijzonderheden":2386,"Ġfrequentie":2387,"Indicatie":2388,"euze":2389,"ysi":2390,"top":2391,"verander":2392,"ja":2393,"ers":2394,"Ġmag":2395,"Ġbpm":2396,"Ġpectoris":2397,"uiding":2398,"iodaron":2399,"razol":2400,"Ġverdenking":2401,"flutter":2402,"Ġuitgebre":2403,"Ġgep":2404,"ijnen":2405,"Ġbrief":2406,"ĠLVH":2407,"Ġpatint":2408,"Ġvragen":2409,"Ġgb":2410,"ane":2411,"Ġthorax":2412,"Ġascendens":2413,"idatie":2414,"Ġteken":2415,"diagnose":2416,"ĠHem":2417,"insufficientie":2418,"Ġsla":2419,"ĠMO":2420,"Ġsitu":2421,"stam":2422,"Ġproximaal":2423,"ĠOnderzoekdatum":2424,"ĠIC":2425,"ilde":2426,"Ġleeftijd":2427,"Ġdeel":2428,"Ġons":2429,"rg":2430,"Ant":2431,"Ġzou":2432,"compliceerd":2433,"ĠVCI":2434,"orth":2435,"oezem":2436,"arcinoom":2437,"CVA":2438,"these":2439,"Ġname":2440,"Behandel":2441,"Ġintermediaire":2442,"Ġcoronairen":2443,"iss":2444,"Sinusritme":2445,"Ġshock":2446,"Ġhe":2447,"ET":2448,"ĠDaar":2449,"comp":2450,"yd":2451,"apamil":2452,"wegen":2453,"Ġgaan":2454,"ĠIs":2455,"AL":2456,"Ġvull":2457,"mijn":2458,"Natrium":2459,"Ġveranderingen":2460,"au":2461,"Ġgeleden":2462,"ifeer":2463,"ctuur":2464,"VAD":2465,"Ġkeer":2466,"Ġcom":2467,"groot":2468,"Ġaspect":2469,"dilatatie":2470,"Ġmaximaal":2471,"Ġvolgende":2472,"Ġgraag":2473,"SR":2474,"Ġdiagnose":2475,"chocardiografie":2476,"Roken":2477,"ĠeGFR":2478,"deren":2479,"Ġafgelopen":2480,"Ġinsuffici":2481,"EP":2482,"lopen":2483,"Ġcardioversie":2484,"eds":2485,"Ġgek":2486,"okker":2487,"raagt":2488,"ans":2489,"Ġingreep":2490,"OT":2491,"mger":2492,"Ritme":2493,"Ġproximale":2494,"Ġlongv":2495,"ateraal":2496,"geme":2497,"Ġbehandeld":2498,"kenhuis":2499,"mgeruis":2500,"okt":2501,"Ġur":2502,"ight":2503,"Ġslank":2504,"Ġmiddels":2505,"Ġrepolarisatie":2506,"Ġdilatatie":2507,"ĠHier":2508,"Ġmaand":2509,"onie":2510,"gemeen":2511,"Ġwandonregelmatigheden":2512,"Ġademgeruis":2513,"Ġpt":2514,"cc":2515,"Ġtermijn":2516,"uus":2517,"Ġtonen":2518,"pectatief":2519,"amma":2520,"oscopie":2521,"ĠAL":2522,"sectie":2523,"Ġvrouw":2524,"eest":2525,"Pacemaker":2526,"Ġpericard":2527,"Cardiomyopathie":2528,"Ġmy":2529,"LU":2530,"vorming":2531,"Ġlymf":2532,"Hoofd":2533,"Ġfra":2534,"Ontslag":2535,"illen":2536,"orf":2537,"rom":2538,".,":2539,"door":2540,"Ġinform":2541,"Ġcontinu":2542,"asculaire":2543,"Ġkal":2544,"rombocyten":2545,"ĠATP":2546,"ronic":2547,"eeds":2548,"Ġscan":2549,"ranspl":2550,"Me":2551,"agnost":2552,"Ġritmestoornissen":2553,"Ġminuten":2554,"Ġangina":2555,"ĠĊĊ":2556,"iel":2557,"los":2558,"nummer":2559,"ologisch":2560,"genitale":2561,"anc":2562,"ĠIII":2563,"Ġdus":2564,"Ġkoorts":2565,"Ġhad":2566,"Ġstru":2567,"Ġdra":2568,"dracht":2569,"Ġinfectie":2570,"ĠIk":2571,"ĠNS":2572,"Ġar":2573,"bezoek":2574,"remiteiten":2575,"Ġvermoeid":2576,"Ġ=":2577,"idemie":2578,":\\":2579,"handeling":2580,"edt":2581,"Ġwarm":2582,"ysmaal":2583,"vrouw":2584,"inig":2585,"kamer":2586,"klepafwijking":2587,"Ġbelangrijk":2588,"Ġaanteken":2589,"Ġorth":2590,"ĠVAD":2591,"Ġsoep":2592,"last":2593,"Ġend":2594,"Ġpoliklinisch":2595,"Ġwil":2596,"ĠHT":2597,"]]":2598,"iep":2599,"schat":2600,"Uit":2601,"Ġaantekeningen":2602,"oumar":2603,"mal":2604,"elevante":2605,"Ġcontrol":2606,"zuur":2607,"gesteld":2608,"Ġklinisch":2609,"gt":2610,"que":2611,"Ġmorgen":2612,"erantie":2613,"Thuis":2614,"Ġtricusp":2615,"egen":2616,"plaats":2617,"Ġ-->":2618,"par":2619,"ierfunctie":2620,"Ġongewijzigd":2621,"Ġhartfrequentie":2622,"allon":2623,"annen":2624,"ĠDit":2625,"steem":2626,"Ġvis":2627,"ĠEFO":2628,"ptaal":2629,"zorg":2630,"ouw":2631,"Laat":2632,"lipidemie":2633,"cardiale":2634,"emp":2635,"ogrel":2636,"Hartklepafwijking":2637,"bdomen":2638,"amine":2639,"idogrel":2640,"Ġholter":2641,"Ch":2642,"Ġtekenen":2643,"Ġvrij":2644,"RCA":2645,"Ġeviden":2646,"Ġreeds":2647,"team":2648,"Ġmeerdere":2649,"PM":2650,"Ġgroot":2651,"Ġantistolling":2652,"onit":2653,"vene":2654,"Ġsignificant":2655,"Ġverwijzing":2656,"Ġgradi":2657,"vatslijden":2658,"Ġatherosclerose":2659,"Ġherh":2660,"oglob":2661,"Ġfamilie":2662,"ĠMe":2663,"komst":2664,"ĠVerder":2665,"ĠCoronair":2666,"oston":2667,"erde":2668,"daag":2669,"ĠTAVI":2670,"zaak":2671,"Ġgr":2672,"roc":2673,"Ġfiet":2674,"dipine":2675,"structie":2676,"Ġeffect":2677,"Ġinge":2678,"Ġduidelijk":2679,"pressie":2680,"Ġkorte":2681,"Ġseptum":2682,"oorde":2683,"ĠAtri":2684,"isicofactoren":2685,"Bekend":2686,"ocarditis":2687,"ĠPro":2688,"LA":2689,"Ġdomin":2690,"Ġgebruikt":2691,"DS":2692,"RADS":2693,"Ġgrote":2694,"fractie":2695,"uni":2696,"oglobine":2697,"Pulm":2698,"oud":2699,"Ġfunction":2700,"oet":2701,"Ġscreening":2702,"Ġec":2703,"teken":2704,"aand":2705,"ĠVF":2706,"agon":2707,"ĠTevens":2708,"ĠQTc":2709,"Coronairlijden":2710,"stellingen":2711,"Ġopge":2712,"Ġalleen":2713,"Behandelplan":2714,"ith":2715,"Atriumf":2716,"Ġziekenhuis":2717,"ĠDM":2718,"Ġmyocardinfarct":2719,"ĠVES":2720,"ĠHF":2721,"Diameter":2722,"Ġcomplicaties":2723,"jectiefractie":2724,"Ġenige":2725,"DP":2726,"Ġcre":2727,"Ġisolatie":2728,"Ġvergelijking":2729,"lasse":2730,"Ġtelefonisch":2731,"Ġrecent":2732,"lab":2733,"validatie":2734,"jes":2735,"Ġvl":2736,"astin":2737,"ĉĉ":2738,"lobaal":2739,"ĠÂµmol":2740,"Ġaanwezig":2741,"Ġsteeds":2742,"Ġadvies":2743,"enoc":2744,"Ġrug":2745,"Ġlage":2746,"ĠOok":2747,"Ġbenen":2748,"edtronic":2749,"elt":2750,"Ġvandaag":2751,"ulatie":2752,"Ġinformatie":2753,"later":2754,"Ġregel":2755,"ibrileren":2756,"Guiding":2757,"MO":2758,"Congenitale":2759,"etwaarden":2760,"chtend":2761,"eurys":2762,"ransplantatie":2763,"afdeling":2764,"Pre":2765,"Ġcomplex":2766,"ocatie":2767,"ieren":2768,"onde":2769,"Ġsoms":2770,"oumarol":2771,"sprek":2772,"staat":2773,"Ġballon":2774,"Ġsyndroom":2775,"beweg":2776,"ĠNYHA":2777,"anamnese":2778,"ekende":2779,"GT":2780,"enocoumarol":2781,"Ġlinkerventrikel":2782,"Ġacuut":2783,"scan":2784,"Ġlu":2785,"Ġcap":2786,"Thuismedicatie":2787,"ĠCardioloog":2788,"erolateraal":2789,"erent":2790,"Atriumfibrileren":2791,"roon":2792,"raal":2793,"Ġstatine":2794,"ecif":2795,"Ġkunt":2796,"vulling":2797,"kn":2798,"spreken":2799,"Ġangiografie":2800,"ellen":2801,"Ġber":2802,"Act":2803,"Ġdosis":2804,"ecifiek":2805,"Ġtevens":2806,"Ġcath":2807,"ĠAort":2808,"ressure":2809,"Ġdistaal":2810,"issel":2811,"indopril":2812,"uurd":2813,"Ġmoet":2814,"ĠGaat":2815,"Ġaut":2816,"Ġoedemen":2817,"lergie":2818,"Le":2819,"centr":2820,"ogelijk":2821,"nog":2822,"Ġplaat":2823,"rin":2824,"lopidogrel":2825,"Ġduidelijke":2826,"aban":2827,"Ġbeoordelen":2828,"iggend":2829,"ĠControle":2830,"Ġdimensies":2831,"zij":2832,"Ġdistale":2833,"Ġbeloop":2834,"ĠHb":2835,"midd":2836,"PREHTX":2837,"ĠBrief":2838,"Ġevt":2839,"amens":2840,"Ġmellitus":2841,"Ġnooit":2842,"ĠCh":2843,"ditie":2844,"aak":2845,"auwd":2846,"ecial":2847,"Operatieverslag":2848,"andacht":2849,"sluit":2850,"atterij":2851,"arox":2852,"Ġweinig":2853,"afspraak":2854,"Ġsubc":2855,"Ġboezem":2856,"Ne":2857,"meten":2858,"ity":2859,"band":2860,"Ġapicaal":2861,"iot":2862,"Ġstenosen":2863,"Ġvoelt":2864,"abiele":2865,"isk":2866,"Ġadequ":2867,"SE":2868,"Bespreking":2869,"Ġvanaf":2870,"ĠWel":2871,"uls":2872,"Ġright":2873,"ING":2874,"BMI":2875,"Ġechocardiogram":2876,"nose":2877,"Ġvast":2878,"Ġaneurys":2879,"Ġco":2880,"Ġafdeling":2881,"angiografie":2882,"Ġklein":2883,"Ġsuccesvolle":2884,"ortel":2885,"ĠRCX":2886,"Ġstaken":2887,"nest":2888,".||":2889,"matige":2890,"ĠLBTB":2891,"Laboratorium":2892,"vers":2893,"rift":2894,"norm":2895,"Ġtotaal":2896,"Ob":2897,"ĠOnge":2898,"riet":2899,"hart":2900,"Ġverslag":2901,"ĠLink":2902,"Ġduizeligheid":2903,"Ġresp":2904,"Laatst":2905,"kle":2906,"Ġrate":2907,"valu":2908,"rische":2909,"ĠNT":2910,"epar":2911,"Domin":2912,"]%)":2913,"verlies":2914,"ĠCVA":2915,"Ġstabiele":2916,"Bloeddruk":2917,"II":2918,"ĠIV":2919,"ĠHypertensie":2920,"Ġinst":2921,"Ġpulmonale":2922,"Ġlichte":2923,"EE":2924,"Soort":2925,"ĠPT":2926,"Ġbeperkt":2927,"bre":2928,"Ġfollow":2929,"veranderd":2930,"Ġvervanging":2931,"Ġkrij":2932,"Ġtotale":2933,"asculair":2934,"drukken":2935,"rocardi":2936,"vallen":2937,"osering":2938,"imale":2939,"Ġkleine":2940,"Ġaanvullend":2941,"ĠLDL":2942,"Ġalcohol":2943,"Ġarm":2944,"DI":2945,"aps":2946,"Ġneur":2947,"emt":2948,"ĠPREHTX":2949,"Ġjan":2950,"]=[":2951,"Ġverdere":2952,"ECT":2953,"halve":2954,"Ġhypok":2955,"ĠJa":2956,"Ġtak":2957,"hr":2958,"erder":2959,"Extr":2960,"Ġonderwand":2961,"Ġbehandel":2962,"aald":2963,"Meest":2964,"ĠKalium":2965,"eria":2966,"leca":2967,"chn":2968,"du":2969,"rit":2970,"onitor":2971,"Ġ-[":2972,"iron":2973,"Ġwerk":2974,"Ġpneumonie":2975,"raat":2976,"Ġbenauwd":2977,"Ġsnelle":2978,"col":2979,"otaal":2980,"Ġvor":2981,"ĠEn":2982,"Ġcarot":2983,"ĠMCH":2984,"Ġonderzoeken":2985,"olact":2986,"Ġwaarna":2987,"etica":2988,"ervatief":2989,"plande":2990,"reg":2991,"lijst":2992,"vents":2993,"dnis":2994,"euk":2995,"Ġkn":2996,"Ġheel":2997,"ĠBloeddruk":2998,"yslipidemie":2999,"Ġkomen":3000,"olacton":3001,"EPI":3002,"ĠCOPD":3003,"Ġpathologische":3004,"otherapie":3005,"Ġhyper":3006,"fibrilleren":3007,"Ġexpectatief":3008,"ĠLIMA":3009,"Ġbeide":3010,"volg":3011,"ĠDES":3012,"ogene":3013,"Ġadenosine":3014,"Ġgepland":3015,"Ġstruct":3016,"CHADS":3017,"Ġplaatsing":3018,"Ġfoc":3019,"Ġmal":3020,"istent":3021,"ecialist":3022,"va":3023,"Ġgradient":3024,"Ġtrans":3025,"Reg":3026,"ironolacton":3027,"ĠRec":3028,"Ġgegeven":3029,"Ġwelke":3030,"Ġ(>[":3031,"schrift":3032,"Ġres":3033,"ĠRVF":3034,"Ġab":3035,"Ġcontrast":3036,"intigra":3037,"ffort":3038,"Ġuitslag":3039,"artan":3040,"Ġdifferent":3041,"kwab":3042,"Ġmga":3043,"ronch":3044,"Ġafwijkend":3045,"yste":3046,"pp":3047,"ĠTC":3048,"Ġlaesie":3049,"ĠOpname":3050,"Ġvoorschrift":3051,"Ġforse":3052,"Ġoperatieverslag":3053,"Ġepis":3054,"Ġernstig":3055,"falen":3056,"ĠHA":3057,"emaal":3058,"Ġbevindingen":3059,"ĠBlanco":3060,"ĠOperatieverslag":3061,"Extremiteiten":3062,"Ġprima":3063,"ient":3064,"ĠMatige":3065,"aard":3066,"Ġhemat":3067,"minuut":3068,"ive":3069,"UR":3070,"Ġnacht":3071,"hier":3072,"hogen":3073,"Ġspont":3074,"Ġhand":3075,"Overweging":3076,"ĠEle":3077,"stand":3078,"yst":3079,"ĠRVSP":3080,"defect":3081,"enteus":3082,"Ġzit":3083,"Ġecht":3084,"Dyslipidemie":3085,"Ġmic":3086,"ĠCC":3087,"amenteus":3088,"luor":3089,"Ġascal":3090,"BP":3091,"arde":3092,"Ġsport":3093,"Ġklasse":3094,"Ġhal":3095,"Is":3096,"out":3097,"ĠSV":3098,"Ġpositie":3099,"Ġmeest":3100,"Ġsym":3101,"transplantatie":3102,"Ġstoppen":3103,"Verwijz":3104,"gebruik":3105,"assen":3106,"Events":3107,"ĠGezien":3108,"Ġprognose":3109,"Heeft":3110,"Ġgebied":3111,"gat":3112,"LUE":3113,"VALUE":3114,"nstige":3115,"ablatie":3116,"vanging":3117,"Ġproblemen":3118,"losure":3119,"Object":3120,"cardioloog":3121,"Overig":3122,"gembolie":3123,"ĠThorax":3124,"AfspraakObject":3125,"CL":3126,"reden":3127,"DRD":3128,"Ġgemeten":3129,"Ġwillen":3130,"Ġergometrie":3131,"Ġad":3132,"stest":3133,"Ġvergroot":3134,"Succesvol":3135,"Ġnemen":3136,"fs":3137,"ĠEen":3138,"bla":3139,"utaan":3140,"rgentie":3141,"Ġcontinueren":3142,"Ġpulmonaalvenen":3143,"uting":3144,"VCI":3145,"Ġinspannings":3146,"Ġjaren":3147,"Ġfurosemide":3148,"Ġlopen":3149,"uring":3150,"ablokker":3151,"max":3152,"Urgentie":3153,"ĠIndien":3154,"ingsstoornissen":3155,"Ġantrum":3156,"rofysi":3157,"ynam":3158,"Ġmediastin":3159,"================":3160,"Ġgenees":3161,"Ġgebeld":3162,"Ġenkel":3163,"Ġand":3164,"anger":3165,"SV":3166,"ĠPI":3167,"ecifieke":3168,"Ġverpleegafdeling":3169,"sn":3170,"MRI":3171,"atheterisatie":3172,"Ġspoor":3173,"pat":3174,"Ġtherapie":3175,"Ġinterventie":3176,"Per":3177,"CC":3178,"Ġgez":3179,"Poliklinische":3180,"agelijk":3181,"Actuele":3182,"Ġtov":3183,"umflutter":3184,"brief":3185,"Ġverbeter":3186,"Risicofactoren":3187,"Ġeven":3188,"Ġder":3189,"ĠUreum":3190,"Ġoorzaak":3191,"ĠĠĊ":3192,"ĠCreatinine":3193,"CVD":3194,"ulp":3195,"Ġcoronaire":3196,"gra":3197,"radycardie":3198,"Ġbesch":3199,"Ġeventueel":3200,"ĠSVT":3201,"eparine":3202,"MB":3203,"Ġmed":3204,"Ġkortademig":3205,"Ġong":3206,"Ġconditie":3207,"CO":3208,"Ġic":3209,"CX":3210,"ĠHg":3211,"olom":3212,"arb":3213,"traat":3214,"Ġ(%":3215,"Ġdiameter":3216,"Ġperifeer":3217,"iz":3218,"Ġsysteem":3219,"Ġgemaakt":3220,"rig":3221,"Nierfunctie":3222,"ietserg":3223,"kunde":3224,"effort":3225,"eroseptaal":3226,"ziekten":3227,"VASc":3228,"hoogd":3229,"Ġanemie":3230,"ĠPA":3231,"ĠVS":3232,"Ġrel":3233,"gatst":3234,"Ġopen":3235,"gs":3236,"utatie":3237,"niet":3238,"udie":3239,"oopt":3240,"isteren":3241,"Ġfors":3242,"rale":3243,"rest":3244,"Ġamiodaron":3245,"Ġroken":3246,"Ġwissel":3247,"Ġond":3248,"Ġmei":3249,"ors":3250,"Ġvooraf":3251,"Ġvoorwand":3252,"Ġpersisterend":3253,"MV":3254,"Ġwaren":3255,"Ġcf":3256,"ail":3257,"Ġuitgebreide":3258,"ymptomat":3259,"Namens":3260,"fer":3261,"lodipine":3262,"Ġbezoek":3263,"Instellingen":3264,"ientific":3265,"ĠCH":3266,"Ġaug":3267,"Onbekend":3268,"Ġnadien":3269,"bpm":3270,"Ġverla":3271,"osf":3272,"atm":3273,"scal":3274,"ĠRCx":3275,"Ġdiagnost":3276,"ĠAdenosine":3277,"Ġverwijd":3278,"Ġverkal":3279,"Ġmaximale":3280,"DD":3281,"Ġoc":3282,"Ġgestuwd":3283,"antal":3284,"aart":3285,"antop":3286,"Ġkader":3287,"Ġbedraagt":3288,"bin":3289,"Ġnegatieve":3290,"regen":3291,"vi":3292,"ĉĊ":3293,"Ġevidente":3294,"hank":3295,"Ġdaarom":3296,"iele":3297,"Ġlies":3298,"kingen":3299,"reven":3300,"Ġatypische":3301,"vang":3302,"iken":3303,"Ġstaat":3304,"Pacing":3305,"ultaat":3306,"vervanging":3307,"Ġrelevante":3308,"sule":3309,"Ġcav":3310,"ĠNe":3311,"dikte":3312,"Ġcholesterol":3313,"IOS":3314,"âĢ":3315,"erkte":3316,"Ġopnemen":3317,"Ġiom":3318,"cess":3319,"ĠReg":3320,"Ġgroet":3321,"antoprazol":3322,"ventriculaire":3323,"Ġbijwerkingen":3324,"Ġverzoek":3325,"urie":3326,"roke":3327,"Ġwond":3328,"Ġeind":3329,"ĠaV":3330,"Ġaortaklepstenose":3331,"iltraat":3332,"zie":3333,"Ġvanuit":3334,"SC":3335,"Ġflutter":3336,"itas":3337,"Ġgewijzigd":3338,"Int":3339,"ĠEx":3340,"Stent":3341,"Ġherstel":3342,"Ġplot":3343,"Ġdyspneu":3344,"Ġconservatief":3345,"CKD":3346,"umat":3347,"riculair":3348,"ĠRechts":3349,"Complicaties":3350,"OAC":3351,"Ġpreventie":3352,"Ġgehe":3353,"Opname":3354,"ĠSN":3355,"ert":3356,"Ġcirc":3357,"iculair":3358,"ins":3359,"BLET":3360,"Ġstarten":3361,"ĠDaarna":3362,".\\":3363,"Ġparoxysmaal":3364,"ĠMedtronic":3365,"Pulmon":3366,"lyc":3367,"-,":3368,"gatston":3369,"icus":3370,"anco":3371,"Ġmass":3372,"acet":3373,"GIN":3374,"impl":3375,"Ġokt":3376,"HR":3377,"chocardiografisch":3378,"controle":3379,"ĠMyocard":3380,"alsvenen":3381,"Ġvolle":3382,"Ġli":3383,"leair":3384,"oid":3385,"West":3386,"Ġpacing":3387,"Ġgevonden":3388,"Ġartik":3389,"Ġorthop":3390,"Ġgering":3391,"ronisch":3392,"mpel":3393,"Ġmean":3394,"stolerantie":3395,"Ġdiffuus":3396,"assistent":3397,"Ġost":3398,"contact":3399,"ope":3400,"ocor":3401,"Ġonze":3402,"itief":3403,"ĠLicht":3404,"Ġlongvelden":3405,"amol":3406,"cus":3407,"Ġtroponine":3408,"ouder":3409,"ĠStart":3410,"ĠWij":3411,"Ġverklaring":3412,"zaam":3413,"klier":3414,"Ġvermoeidheid":3415,"Ġia":3416,"ĠVan":3417,"Ġchirurg":3418,"Ġeerdere":3419,"Aantal":3420,"eukocyten":3421,"oen":3422,"ĠdifferentiÃ«le":3423,"Ġachteruit":3424,"ĠCVD":3425,"PA":3426,"Ġjuni":3427,"Ġdoorgemaakt":3428,"Ġapex":3429,"Ġlateraal":3430,"Ġoverleden":3431,"Ġverleden":3432,"?)":3433,"Myocard":3434,"Ġpressure":3435,"derd":3436,"Ġwandbeweg":3437,"Ġnod":3438,"An":3439,"ĠTer":3440,"Ã©":3441,"Ġcapsule":3442,"Ġsecund":3443,"Hypercholesterolemie":3444,"Ġstand":3445,"Ġtel":3446,"Ġaneurysma":3447,"req":3448,"week":3449,"ĠPost":3450,"ongen":3451,"ĠBoston":3452,"Ġgeplande":3453,"ĠMIRADS":3454,"LING":3455,"Ġvaten":3456,"Ġfeb":3457,"Ġmsr":3458,"Kalium":3459,"astolische":3460,"Ã¯d":3461,"ĠCardio":3462,"Ġacute":3463,"ume":3464,"Ġoogt":3465,"ĠSinds":3466,"Hem":3467,"Ġfrequ":3468,"Ġdiabetes":3469,"Ġradiologie":3470,"ĠĊĊĊ":3471,"Ġverk":3472,"wit":3473,"Registratie":3474,"yre":3475,"TIMI":3476,"Ġconversie":3477,"Lead":3478,"ote":3479,"inide":3480,"uld":3481,"Ġartikelen":3482,"Te":3483,"spunt":3484,"ĠTABLET":3485,"Zie":3486,"emoralis":3487,"achycardie":3488,"oeding":3489,"valuatie":3490,"INE":3491,"Ġanat":3492,"get":3493,"actie":3494,"]%).":3495,"IV":3496,"Ġocclusie":3497,"Ġgeeft":3498,"achy":3499,"Ġweten":3500,"geveer":3501,"Ġbelt":3502,"Ġretour":3503,"Ġmilde":3504,"advis":3505,"Ġsegmenten":3506,"lecainide":3507,"ement":3508,"Ġonveranderd":3509,"carcinoom":3510,"dur":3511,"uteur":3512,"Ġmult":3513,"Specialisme":3514,"Ġplaque":3515,"Ġrustig":3516,"opte":3517,"TID":3518,"nestisch":3519,"ĠSotalol":3520,"ctus":3521,"ĠCoronairangiografie":3522,"OL":3523,"meting":3524,"iliteit":3525,"EC":3526,"lig":3527,"Cre":3528,"ĠAoS":3529,"Ġbespreken":3530,"ero":3531,"adenos":3532,"Th":3533,"Geringe":3534,"afrag":3535,"agelijks":3536,"<[":3537,"Ġup":3538,"ĠSP":3539,"ĠInter":3540,"adenoson":3541,"Ġdosering":3542,"ĠMellitus":3543,"andaag":3544,"amm":3545,"Ġhartslag":3546,"Ġepisode":3547,"ĠACS":3548,"Ġintern":3549,"dnison":3550,"Ġadem":3551,"Ġnef":3552,"aemie":3553,"Ġsoepel":3554,"Wire":3555,"aden":3556,"Ġherhalen":3557,"Ġblijft":3558,"lijn":3559,"Ġbere":3560,"-(":3561,"Als":3562,"Ġblok":3563,"Ġontslagen":3564,"Ġbronch":3565,"venbe":3566,"ĠgeÃ¯":3567,"ĠNSTEMI":3568,"Ġhartteam":3569,"uretica":3570,"Ġinfiltraat":3571,"Ġvader":3572,"Ġorig":3573,"Ġvri":3574,"Ġopnam":3575,"kkoord":3576,"Ġeerst":3577,"CR":3578,"gometrie":3579,"hmus":3580,"nc":3581,"Ġpoliklinische":3582,"ĠVP":3583,"vl":3584,"]\\":3585,"ĠPAC":3586,"Status":3587,"isselijk":3588,"Ġcalcific":3589,"ĠSuccesvolle":3590,"uidige":3591,"rogressie":3592,"Ġgemidd":3593,"stma":3594,"Ġlongen":3595,"via":3596,"Ġmaart":3597,"Ġbehouden":3598,"Ġdaarbij":3599,"Ġontw":3600,"oging":3601,"Ġapril":3602,"Ġglobaal":3603,"ister":3604,"stel":3605,"Ġvlgs":3606,"no":3607,"STEL":3608,"Ġist":3609,"Ġmaag":3610,"rempel":3611,"alt":3612,"Ġmnd":3613,"Ġgeduid":3614,"ĠTIA":3615,"angersch":3616,"Ġafgesloten":3617,"STELLING":3618,"ariaat":3619,"RM":3620,"retariaat":3621,"Ġgecompliceerd":3622,"Goede":3623,"rust":3624,"Metoprolol":3625,"versib":3626,"Ġuitgesloten":3627,"Ġ\"":3628,"Ġtraject":3629,"Ġcomplexen":3630,"Ġble":3631,"Ġqu":3632,"tekend":3633,"Nog":3634,"Ġclosure":3635,"Ġech":3636,"komen":3637,"bi":3638,"roep":3639,"imvastatine":3640,"yla":3641,"aine":3642,"allen":3643,".):":3644,"Ġradialis":3645,"aliteit":3646,"ay":3647,"atint":3648,"pass":3649,"Patient":3650,"Contra":3651,"sal":3652,"Ġneemt":3653,"Ġbeoorde":3654,"Ġjuli":3655,"amp":3656,"drachten":3657,"Ġisthmus":3658,"retard":3659,"Ġgedaan":3660,"luoroscopie":3661,"Ġaltijd":3662,"Ġactiv":3663,"Ġlongarts":3664,"PL":3665,"Ġpathologie":3666,"rect":3667,"ĠStop":3668,"Ġgereg":3669,"Ġurine":3670,"gd":3671,"Ġbla":3672,"Ġrisk":3673,"ĠBekende":3674,"Ġir":3675,"zelf":3676,"Ġpolikliniekbezoek":3677,"Ġkw":3678,"Ġwer":3679,"uze":3680,"Ġgesproken":3681,"Ġkortademigheid":3682,"LS":3683,"Nierfunctiestoornis":3684,"oxic":3685,"lycer":3686,"Ġvisueel":3687,"been":3688,"Ġchronische":3689,"Meetwaarden":3690,"Ġatriumflutter":3691,"lak":3692,"raagd":3693,"Ġnet":3694,"veel":3695,"vrij":3696,"ĠTR":3697,"sych":3698,"Ġ?":3699,"Ġspre":3700,"ffusie":3701,"voldoende":3702,"NI":3703,"Ġtav":3704,"VASC":3705,"tern":3706,"Ġmassa":3707,"ĠDiagnose":3708,"ĠNTG":3709,"Ġsterk":3710,"Diagnose":3711,"revalidatie":3712,"ĉĊÂł":3713,"ncope":3714,"ĠDDD":3715,"roef":3716,"ue":3717,"entrale":3718,"ervel":3719,"Ġoud":3720,"Ġdepressie":3721,"ijken":3722,"Ġangio":3723,"Ġresultaat":3724,"Ġtweede":3725,"akte":3726,"vullende":3727,"Ġlongembolie":3728,"ulus":3729,"Allergie":3730,"Ġverdacht":3731,"echo":3732,"Creatie":3733,"Ġri":3734,"Cx":3735,"Ġet":3736,"Ġinj":3737,"Ġtoegenomen":3738,"ĠAd":3739,"Pro":3740,"ĠNog":3741,"Ġvriend":3742,"ytroc":3743,"JEC":3744,"OBJEC":3745,"OBJECTID":3746,"Ġboezemfibrilleren":3747,"Ġzn":3748,"Ġknie":3749,"Ġvert":3750,"wortel":3751,"ĠNF":3752,"Ġcent":3753,"DM":3754,"Creatinine":3755,"Ġverl":3756,"ietsergometrie":3757,"hesie":3758,"ĠSinusritme":3759,"ameters":3760,"unn":3761,"behandeling":3762,"Geb":3763,"Ġlevens":3764,"Hb":3765,"Ġkalk":3766,"ocriet":3767,"Ġimp":3768,"Ġafw":3769,"ĠPols":3770,"LVEF":3771,"Ġverwezen":3772,"Ġverpleegkun":3773,"Ġtoonde":3774,"Ġchol":3775,"DV":3776,"HT":3777,"ĠCCU":3778,"lang":3779,"ĠLD":3780,"Ġdel":3781,"blok":3782,"reef":3783,"BSN":3784,"visie":3785,"ĠHemat":3786,"imeter":3787,"Ġondertekend":3788,"Ġinspanningstolerantie":3789,"Ġhoofdstam":3790,"ĠZij":3791,"Ġeluting":3792,"Ġwacht":3793,"ĠTrombocyten":3794,"Ġpuls":3795,"andig":3796,"Ġthromb":3797,"Ureum":3798,"ĠAoV":3799,"Ġregulier":3800,"Ġalhier":3801,"Ġdrug":3802,"otomie":3803,"Ġhoogte":3804,"Ġmisselijk":3805,"ĠWat":3806,"TTE":3807,"Ġwerden":3808,"Ġsymptomat":3809,"Ġakkoord":3810,"ytrocyten":3811,"Ġgelu":3812,"ovasculaire":3813,"Ġendocarditis":3814,"ĠPL":3815,"merking":3816,"Ġstoornis":3817,"Ġanterior":3818,"orb":3819,"Ġ->":3820,"ZOR":3821,"ĠDeze":3822,"andachtspunt":3823,"Ġbeh":3824,"elefoon":3825,"Ġcontractie":3826,"ai":3827,"Ġip":3828,"Ġgekregen":3829,"Ġgeleid":3830,"Ġbelangrijke":3831,"etisch":3832,"Ġmedicijnen":3833,"tekening":3834,"ĠMogelijk":3835,"uwing":3836,"GINSTELLING":3837,"ZORGINSTELLING":3838,"Auteur":3839,"Ġlucht":3840,"Ġinsufficientie":3841,"sklachten":3842,"raling":3843,"Indien":3844,"Segment":3845,"cler":3846,"Ġaanwijzing":3847,"Hartfrequentie":3848,"Glucose":3849,"Ġverbetering":3850,"hock":3851,"Ġconsol":3852,"Ġbest":3853,"bep":3854,"Ġkrijgt":3855,"centrische":3856,"malig":3857,"Echocardiogram":3858,"ylzuur":3859,"Ġbeen":3860,"ĠHR":3861,"ookt":3862,"Ġgec":3863,"bum":3864,"geleken":3865,"ĠHV":3866,"salic":3867,"Ġarteria":3868,"Ġsituatie":3869,"uleerd":3870,"ĠTijdens":3871,"Ġrechtsdrukken":3872,"ibiot":3873,"arco":3874,"Verwijzer":3875,"ziekte":3876,"olisch":3877,"Ġbellen":3878,"adviseerd":3879,"gr":3880,"WI":3881,"weeg":3882,"racht":3883,"Ġav":3884,"diening":3885,"gment":3886,"pleegkundige":3887,"oeder":3888,"etyl":3889,"Ġfl":3890,"ĠAt":3891,"ĠRBTB":3892,"Ġvaatlijden":3893,"AV":3894,"Ġmorf":3895,"zep":3896,"ĠPijn":3897,"Ġadequaat":3898,"kelet":3899,"Ġdef":3900,"salicylzuur":3901,"Ġongeveer":3902,"Ġophogen":3903,"Ġverst":3904,"ĠAc":3905,"kinesie":3906,"ĠOngewijzigd":3907,"Ġhypokinesie":3908,"ĠBeleid":3909,"inde":3910,"Ġbezocht":3911,"Ġspecialist":3912,"Gaat":3913,"Art":3914,"asis":3915,"Ġovervulling":3916,"des":3917,"wijs":3918,"ĠCHA":3919,"ĠALAT":3920,"Dominance":3921,".)":3922,"atiek":3923,"otale":3924,"Ġgecont":3925,"ĠOhm":3926,"ĠZe":3927,"laatst":3928,"Ġdou":3929,"ĠDat":3930,"ardeffusie":3931,"SH":3932,"poli":3933,"Batterij":3934,"Ao":3935,"ekuur":3936,"ritis":3937,"uari":3938,"esiculair":3939,".[":3940,"Ġkin":3941,"Ġdirect":3942,"gv":3943,"chirurg":3944,"Ġstern":3945,"Ġmediastinum":3946,"Ġhypertrof":3947,"Ġgast":3948,"Ġbent":3949,"][":3950,"uratie":3951,"otische":3952,"Ġpalp":3953,"verende":3954,"infectie":3955,"Ġbro":3956,"Ġminimaal":3957,"Ġdig":3958,"Ġejectiefractie":3959,"relor":3960,"Ġgraft":3961,"indicatie":3962,"Ġvene":3963,"Ġspecialisme":3964,"ĠVG":3965,"ime":3966,"Ġbal":3967,"Onder":3968,"Ġpart":3969,"anks":3970,"elling":3971,"icag":3972,"Pulmones":3973,"Ġhouden":3974,"lijke":3975,"Ġie":3976,"segment":3977,"ĠGoed":3978,"middels":3979,"Gy":3980,"Ġinfilt":3981,"Ġdrie":3982,"Heparine":3983,"Ġgemiddeld":3984,"icagrelor":3985,"erp":3986,"Chronische":3987,"venbevindingen":3988,"Ã¨":3989,"Ġherken":3990,"Ġtegen":3991,"alsnog":3992,"Ġincomp":3993,"binatie":3994,"arit":3995,"Ġvoorsp":3996,"Col":3997,"Eerder":3998,"Neven":3999,"Ġafgenomen":4000,"Ġbelasting":4001,"ĠLM":4002,"Ġanti":4003,"Ġduizelig":4004,"Ġamb":4005,"Blanco":4006,"ucleair":4007,"ĠToe":4008,"dilateerde":4009,"erator":4010,"oraal":4011,"Ġdeels":4012,"Ġoverige":4013,"abel":4014,"Ġzoals":4015,"Ġverdi":4016,"opro":4017,"Ġpaar":4018,"ĠLeukocyten":4019,"ĠLe":4020,"start":4021,"ĠGewicht":4022,"ico":4023,"ĠRegadenoson":4024,"umflex":4025,"omplicatie":4026,"ikt":4027,"Ġns":4028,"Ġhelder":4029,"rub":4030,"isie":4031,"ruiken":4032,"ĠAls":4033,"Ġfietsen":4034,"ĠAVR":4035,"dragen":4036,"ranul":4037,"ĊĠĠ":4038,"ĠMCV":4039,"URL":4040,"Bloed":4041,"utane":4042,"ĠTEE":4043,"Ġafter":4044,"Ġoverzicht":4045,"Ġrecept":4046,"Ġgeschat":4047,"Ġverlopen":4048,"but":4049,"opname":4050,"Verapamil":4051,"ĠSPECT":4052,"ĠCHADS":4053,"Ġperist":4054,"ye":4055,"Ġhypertrofie":4056,"Ġlig":4057,"ĠPatiente":4058,"rager":4059,"Ġhelemaal":4060,"Ġwith":4061,"Ġzeker":4062,"Ġregelmatig":4063,"ĠMB":4064,"ĠPerfusie":4065,"ĠKan":4066,"ĠinsufficiÃ«ntie":4067,"implantatie":4068,"Ġhuid":4069,"Ġmeting":4070,"NIBP":4071,"Ġtoekomst":4072,"XX":4073,"DO":4074,"Ġtricuspid":4075,"matiek":4076,"ĠASAT":4077,"fyla":4078,"Ġnovo":4079,"Ġwo":4080,"Tachy":4081,"Ġbloeding":4082,"zepam":4083,"yspnoe":4084,"ochtend":4085,"was":4086,"inden":4087,"Ġdiafrag":4088,"Ġnit":4089,"Ġdiuretica":4090,"Ġextrasy":4091,"Contrast":4092,"ĠVVI":4093,"Ġindruk":4094,"ĠRecidief":4095,"ĠQT":4096,"Aandachtspunt":4097,"haling":4098,"Ġbepalen":4099,"Ġtricuspide":4100,"Verslag":4101,"vo":4102,"Ġsamen":4103,"Ġhierbij":4104,"Ġanders":4105,"eup":4106,"Ġreden":4107,"rijd":4108,"Ġmaal":4109,"Ġ~":4110,"tb":4111,"Ġgeadviseerd":4112,"bouw":4113,"Toe":4114,"Ġvena":4115,"rokken":4116,"Ġprobleem":4117,"BLED":4118,"Ġkl":4119,"etylsalicylzuur":4120,"scand":4121,"Ġatria":4122,"erkamer":4123,"Abd":4124,"Ġvasc":4125,"Ġdeelcontact":4126,"proble":4127,"ropathie":4128,"Ġdagelijks":4129,"rubine":4130,"Abdomen":4131,"sept":4132,"CAG":4133,"FO":4134,"test":4135,"Ġblanco":4136,"Nevendiagnose":4137,"Ġoverwegen":4138,"ilirubine":4139,"Ġtev":4140,"emisch":4141,"Ġalles":4142,"Alcohol":4143,"yn":4144,"emetrie":4145,"Ġinhal":4146,"plaatsing":4147,"vert":4148,"Ġsluiten":4149,"iezen":4150,"alisatie":4151,"Ġuitslagen":4152,"Ġvat":4153,"ĠLCA":4154,"#[":4155,"Ġafgesproken":4156,"Ġpericardeffusie":4157,"richten":4158,"voe":4159,"ĠVoelt":4160,"othorax":4161,"toond":4162,"Ġgisteren":4163,"Voorgeschiedenis":4164,"hankelijk":4165,"VID":4166,"VAI":4167,"ctief":4168,"Ġtrombus":4169,"Ġfosf":4170,"Ġve":4171,"Ġmedicamenteus":4172,"bere":4173,"Ġischemische":4174,"ĠUitgebre":4175,"Ġdal":4176,"ĠASD":4177,"Ġvo":4178,"Ġvorige":4179,"Ġgesprek":4180,"ĠElekt":4181,"Ġmedische":4182,"Ġgranul":4183,"geleiding":4184,"Ġstij":4185,"Holter":4186,"Ġgebruiken":4187,"gaand":4188,"ĠPC":4189,"ĠLong":4190,"Ġspoed":4191,"enst":4192,"rogram":4193,"Ġvullen":4194,"SA":4195,"ĠAm":4196,"Sinds":4197,"Ġliggend":4198,"ĠPET":4199,"compliceerde":4200,"ixaban":4201,"Ġbegin":4202,"Ġoptimaal":4203,"Ġwijz":4204,"anim":4205,"Ġherstart":4206,"ĠVO":4207,"ereb":4208,"use":4209,"Ad":4210,"Temp":4211,"LD":4212,"Radi":4213,"Ġhypercholesterolemie":4214,"Ġaantoon":4215,"apt":4216,"Ġsite":4217,"COR":4218,"gestuurd":4219,"BL":4220,"Ġrecidi":4221,"ĠVis":4222,"ĠZeer":4223,"ome":4224,"kelijk":4225,"kleuring":4226,"Bijzonderheden":4227,"altiek":4228,"eut":4229,"ositie":4230,"Trombocyten":4231,"ĠBNP":4232,"Ġcc":4233,"agul":4234,"lanke":4235,"Ġsat":4236,"passing":4237,"Ġhuidige":4238,"ĠCTA":4239,"CRP":4240,"oden":4241,"Ġplannen":4242,"Ġsuccesvol":4243,"Ġabd":4244,"Ġtherap":4245,"tage":4246,"ocket":4247,"Ġobstructie":4248,"oudt":4249,"ly":4250,"Ġafname":4251,"esthesie":4252,"Ġgem":4253,"vrager":4254,"Ġdu":4255,"vit":4256,"mine":4257,"Ġext":4258,"vt":4259,"Ġcombinatie":4260,"Ġomdat":4261,"ferentie":4262,"ĠESV":4263,"Ġpositief":4264,"Ġuitst":4265,"ĠWand":4266,"ĠReden":4267,"ĠPAF":4268,"ĠRDP":4269,"iegel":4270,"Ġmoeder":4271,"emo":4272,"isc":4273,"amb":4274,"Vraagstelling":4275,"Patint":4276,"ĠHel":4277,"ĠAO":4278,"icoagul":4279,"Ġra":4280,"ĠHTx":4281,"ĠVR":4282,"Ġmob":4283,"Ġliep":4284,"Ġaangetoond":4285,"Ġpericardvocht":4286,"oedelijk":4287,"vasc":4288,"Ġsclerose":4289,"isoprolol":4290,"Ġstudie":4291,"acetamol":4292,"Ġeci":4293,"prothese":4294,"Ġwilt":4295,"Ġvolledig":4296,"ĠMedic":4297,"ĠOS":4298,"Ġschouder":4299,"iber":4300,"resp":4301,"Access":4302,"stof":4303,"ĠnsVT":4304,"Ġperistaltiek":4305,"patroon":4306,"Ġgal":4307,"Ġblijven":4308,"Ġonvoldoende":4309,"Ġmutatie":4310,"Ġantibiot":4311,"ĠSpoor":4312,"ets":4313,"ĠZie":4314,"ĠAtriumfibrilleren":4315,"Ġgamma":4316,"irc":4317,"AN":4318,"plannen":4319,"PAP":4320,"Soc":4321,"Ġversch":4322,"Ġstopdatum":4323,"Ġdiagon":4324,"Ġplaatse":4325,"oelde":4326,"ĠHemoglobine":4327,"teit":4328,"eGFR":4329,"atase":4330,"Ġlanger":4331,"achten":4332,"Ġgeneeskundige":4333,"houd":4334,"Ġoverdracht":4335,"intigr":4336,"BNP":4337,"Ġkon":4338,"Ġlaterale":4339,"Ġscintigr":4340,"ooit":4341,"bumine":4342,"Ġfosfatase":4343,"chan":4344,"Ġachteruitgang":4345,"Ġwegra":4346,"pitatie":4347,"Ġ@":4348,"ĠAI":4349,"]%),":4350,"zak":4351,"Ġmon":4352,"Ġverwijz":4353,"Ġembolie":4354,"spir":4355,"berr":4356,"DF":4357,"VP":4358,"nemen":4359,"Ġhoesten":4360,"ĠVol":4361,"Ġverwijderd":4362,"Ġdesc":4363,"Ġprednison":4364,"Ġkans":4365,"Ġtoediening":4366,"Ġevaluatie":4367,"Ġanatomie":4368,"Ġsubt":4369,"avond":4370,"Ġlip":4371,"ĠSter":4372,"Am":4373,"Ġinstelling":4374,"Ġneu":4375,"Ġout":4376,"kalische":4377,"ograft":4378,"ĠMDRD":4379,"Ġkla":4380,"Ġechtgen":4381,"fig":4382,"Ġoverge":4383,"Ġtri":4384,"olon":4385,"ato":4386,"intigram":4387,"uisarts":4388,"voegen":4389,"loop":4390,"ense":4391,"Ġspier":4392,"NB":4393,"Ġatm":4394,"Deze":4395,"ĠTotaal":4396,"Ġhyd":4397,"clusief":4398,"Klinisch":4399,"Ġbetrouw":4400,"bling":4401,"ĠMBq":4402,"ĠPE":4403,"edantie":4404,"Ġvalt":4405,"Ġrondom":4406,"agonist":4407,"ypass":4408,"ĠEDV":4409,"indelijk":4410,"Ġinferolateraal":4411,"Ġadv":4412,"ĠCVRM":4413,"Ġpericardi":4414,"ĠLinker":4415,"witch":4416,"Dit":4417,"Ġwervel":4418,"ĠTAP":4419,"ieel":4420,"vragen":4421,"ks":4422,"Ġfreq":4423,"Ġsig":4424,"Â°":4425,"Ġbeeldvorming":4426,"Ġann":4427,"esion":4428,"ĠVoorgeschiedenis":4429,"Ġhartritme":4430,"otensie":4431,"ED":4432,"Ġklinische":4433,"dition":4434,"Ġloopt":4435,"digen":4436,"iditeit":4437,"SpO":4438,"Ġdr":4439,"Ġdissectie":4440,"Ġgraads":4441,"Ġspontaan":4442,"Ġtop":4443,"ĠAdvies":4444,"aattekening":4445,"Ġlijn":4446,"Ġtrap":4447,"PV":4448,"ĠImpl":4449,"ĠLVOT":4450,"alie":4451,"gevo":4452,"kking":4453,"Ġmit":4454,"Ele":4455,"flow":4456,"Tra":4457,"Ġruim":4458,"Normaal":4459,"Ġbespreking":4460,"ĠTroponine":4461,"Ġaantoonbaar":4462,"ĠSten":4463,"ĠMetoprolol":4464,"Ġseptaal":4465,"Ġwee":4466,"Hemoglobine":4467,"odynam":4468,"Ġprogressieve":4469,"nr":4470,"ĠSTEMI":4471,"Ġheden":4472,"ĠHematocriet":4473,"ĠAorta":4474,"iveau":4475,"ĠTAPSE":4476,"Ġelect":4477,"ĠAnalyse":4478,"Ġwanddikte":4479,"zy":4480,"keur":4481,"Ġneus":4482,"Ġvriendelijke":4483,"Ġmonitor":4484,"ake":4485,"igniteit":4486,"ĠBehandeling":4487,"-%":4488,"oxine":4489,"ĠErytrocyten":4490,"Ġverbet":4491,"omt":4492,"Ġmaandag":4493,"ĠAlgemeen":4494,"Naam":4495,"Ġdiagnostiek":4496,"elbaar":4497,"Ġsubling":4498,"cel":4499,"ĠSTT":4500,"Ġbeoordeling":4501,"ju":4502,"oot":4503,"year":4504,"chnicus":4505,"introm":4506,"ismaal":4507,"Ġpersisterende":4508,"Ġlum":4509,"etje":4510,"Ġperfusiedefect":4511,"catheterisatie":4512,"ĠOntslag":4513,"Ġveneuze":4514,"Ġvit":4515,"daar":4516,"ĠAgatston":4517,"AM":4518,"Ġastma":4519,"ulmonaal":4520,"Ġuitleg":4521,"ĠPFO":4522,"Ġjanuari":4523,"Ġdient":4524,"otrop":4525,"Ġlan":4526,"Ġlit":4527,"Ġvolume":4528,"mee":4529,"ĠRed":4530,"Ġdochter":4531,"vel":4532,"Ġricht":4533,"Ġbesloten":4534,"Ġfemoralis":4535,"Ġprofyla":4536,"enen":4537,"Ġvlak":4538,"etsel":4539,"Ġmorfologie":4540,"Ġgeslacht":4541,"Ġdilatation":4542,"emb":4543,"Ġverlaag":4544,"Ġaanhouden":4545,"oprothese":4546,"Ġtest":4547,"Ġgeven":4548,"Ġpulsaties":4549,"SN":4550,"okeen":4551,"ained":4552,"mair":4553,"maals":4554,"ureel":4555,"HB":4556,"Ġsupra":4557,"umber":4558,"ymptomatisch":4559,"ĠQu":4560,"Ġcollab":4561,"Ġbuiten":4562,"ĠGen":4563,"rijdag":4564,"Longen":4565,"Ġqua":4566,"ĠCOVID":4567,"Ġhematoom":4568,"Ġuitgebreid":4569,"ambocor":4570,"ĠHVZ":4571,"Laboratoriumonderzoek":4572,"Ġblock":4573,"Ġhiervoor":4574,"Gest":4575,"hyd":4576,"iging":4577,"otheek":4578,"iew":4579,"Ġmij":4580,"eratieve":4581,"ober":4582,"gezien":4583,"AIOS":4584,"Ġdrukpijn":4585,"ĠACE":4586,"Ġaankleuring":4587,"ĠBeeld":4588,"Ġinhalatie":4589,"Ġfib":4590,"Ġfo":4591,"ĠKlachten":4592,"Kopie":4593,"durend":4594,"Ġvroe":4595,"anide":4596,"ree":4597,"ulance":4598,"icusp":4599,"rine":4600,"Ġbradycardie":4601,"formine":4602,"Ex":4603,"zer":4604,"ĠVSD":4605,"Ġpulmonalis":4606,"ength":4607,"Pl":4608,"Ġhern":4609,"Ġproces":4610,"Ġonbekend":4611,"Ġmn":4612,"Ġheup":4613,"bijv":4614,"Ġvulling":4615,"Ġdarm":4616,"ĠErnstige":4617,"Ġdet":4618,"Ġdik":4619,"hanc":4620,"Ġvoldoende":4621,"plet":4622,"ateerd":4623,"STAT":4624,"RDP":4625,"ificatie":4626,"Ġgerust":4627,"Ġbif":4628,"Ġderhalve":4629,"sul":4630,"sclerose":4631,"Ġperindopril":4632,"anneer":4633,"Length":4634,"ĠMS":4635,"DER":4636,"ompli":4637,"Ġverapamil":4638,"intigrafisch":4639,"asie":4640,"Ġgeheel":4641,"Ġmitralis":4642,"Ġskelet":4643,"ital":4644,"Ġcarotiden":4645,"Ġstandaard":4646,"Ġlok":4647,"Ġballo":4648,"hancement":4649,"Nazorg":4650,"Ġverwijderen":4651,"Ġfmol":4652,"urc":4653,"Ġmamm":4654,"Ġparameters":4655,"zeker":4656,"atuur":4657,"Ġlinkerkamer":4658,"Ġopnamen":4659,"NRT":4660,"lair":4661,"Ġhersen":4662,"aris":4663,"uurstof":4664,"ĠCM":4665,"IT":4666,"Ġtgv":4667,"raten":4668,"Leads":4669,"ĠEchocardiografie":4670,"lastiek":4671,"ĠLinks":4672,"Pantoprazol":4673,"Acenocoumarol":4674,"ricuspid":4675,"off":4676,"Ġbeteken":4677,"Fluoroscopie":4678,"ustus":4679,"ĠNaam":4680,"veneus":4681,"ĠGlucose":4682,"formulier":4683,"Gesproken":4684,"Ġervan":4685,"Ġorde":4686,"imulatie":4687,"ĠDiabetes":4688,"]>":4689,"Ġplots":4690,"Ġpassen":4691,"Ġbovengenoemde":4692,"tak":4693,"Ġsyncope":4694,"Ġgranulocyten":4695,"Gym":4696,"cordi":4697,"Ġwachtlijst":4698,"ĠMCHC":4699,"idose":4700,"Ġaanvullende":4701,"HDL":4702,"ĠmV":4703,"Ġess":4704,"elokeen":4705,"HCA":4706,"vaten":4707,"acro":4708,"ilijk":4709,"merkingen":4710,"ise":4711,"Ġverminderd":4712,"Ġovername":4713,"iodarone":4714,"ĠEchocardiogram":4715,"asting":4716,"omet":4717,"vinding":4718,"Ġregistratie":4719,"valv":4720,"Furosemide":4721,"Ġaangep":4722,"april":4723,"Ġpneumothorax":4724,"Ġdialyse":4725,"Overdracht":4726,"Ġcontroles":4727,"angen":4728,"icuspide":4729,"Belconsult":4730,"Shock":4731,"progressie":4732,"Ġhoofdpijn":4733,"gesprek":4734,"ĠAng":4735,"Ġkaliber":4736,"amnestisch":4737,"ruikt":4738,"Ġlichamelijk":4739,"Ġerv":4740,"inder":4741,"etanide":4742,"oortje":4743,"umor":4744,"ĠSch":4745,"ĠDiastolische":4746,"ding":4747,"nes":4748,"Ġmeet":4749,"sup":4750,"stip":4751,"Ġintact":4752,"itude":4753,"Ik":4754,"ĠAp":4755,"Ġeigenlijk":4756,"Ġostium":4757,"Ġmaligniteit":4758,"Ġlow":4759,"clerotische":4760,"Ġmijn":4761,"Ġnader":4762,"ĠSterk":4763,"Ġtachy":4764,"fore":4765,"Ġtijdelijk":4766,"Ġabdomin":4767,"Med":4768,"ĠHe":4769,"ampon":4770,"DA":4771,"Ġcentimeter":4772,"Ġfraai":4773,"Ġlangs":4774,"Ġbetekenis":4775,"Ġbefore":4776,"Ġinterne":4777,"ĠFollow":4778,"Ġgevolg":4779,"Ġbleek":4780,"Ġwandbewegingsstoornissen":4781,"Ġprimaire":4782,"Ġenhancement":4783,"Ġtensie":4784,"inust":4785,"Ġmicro":4786,"olol":4787,"igne":4788,"deel":4789,"ĠPVI":4790,"inst":4791,"ĠData":4792,"accept":4793,"Ġbeoordeelbaar":4794,"iaire":4795,"aardi":4796,"Ġsoepele":4797,"Ġaortawortel":4798,"Cardiovasculaire":4799,"BB":4800,"viaties":4801,"Nu":4802,"oracaal":4803,"Ġ)":4804,"atrie":4805,"Ġvoort":4806,"Ġanteroseptaal":4807,"etrof":4808,"leen":4809,"Ġstaan":4810,"Ġlaatst":4811,"cg":4812,"Ġeens":4813,"Ġklepvit":4814,"Ġventrikelfunctie":4815,"ĠJR":4816,"Kolom":4817,"Kolomnr":4818,"onge":4819,"Ġopzicht":4820,"Referentie":4821,"reeg":4822,"normaal":4823,"Ġcarotis":4824,"Gestopte":4825,"Ġflecainide":4826,"Ġliggen":4827,"etrofos":4828,"Behandeling":4829,"aanden":4830,"ĠIM":4831,"Ġcode":4832,"geving":4833,"idaties":4834,"Ġdub":4835,"Ġnuchter":4836,"liggend":4837,"Ġavond":4838,"Lin":4839,"wek":4840,"Ġkant":4841,"Ġnumber":4842,"Ġverz":4843,"Ġplat":4844,"ĠHoog":4845,"âĢ¢":4846,"Ġtr":4847,"Par":4848,"licht":4849,"reed":4850,"etrofosmine":4851,"ĠKle":4852,"Ġpalpitatie":4853,"Ġreactie":4854,"Ġklachtenvrij":4855,"Ġgezond":4856,"Ġorigo":4857,"BI":4858,"ĠUn":4859,"animatie":4860,"Ġlaboratorium":4861,"Ġhili":4862,"CTA":4863,"oss":4864,"spraken":4865,"olgen":4866,"Ġref":4867,"aterale":4868,"Ġpositieve":4869,"Ġdominant":4870,"oper":4871,"Ġeventuele":4872,"ĠRVOT":4873,"ildklier":4874,"lood":4875,"antia":4876,"rocardiogram":4877,"Ġcentrale":4878,"ectomie":4879,"ĠGeb":4880,"OK":4881,"Ġbew":4882,"Clopidogrel":4883,"rectie":4884,"Hoofdstam":4885,"Ġannulus":4886,"Ġvaatziekten":4887,"lijnen":4888,"ĠCX":4889,"Ġarterie":4890,"ĠAVNRT":4891,"intigrafie":4892,"Ġelektrofysi":4893,"ĠVAS":4894,"Beloop":4895,"maanden":4896,"Ġlas":4897,"orden":4898,"Ġste":4899,"Referentiedatum":4900,"Ġondanks":4901,"Ġhor":4902,"emm":4903,"ĠWe":4904,"ijde":4905,"Ġhalf":4906,"aroxaban":4907,"Ã¨t":4908,"ĠJude":4909,"ĠRadi":4910,"Ġall":4911,"Ġopzichte":4912,"Ġthe":4913,"Ġprox":4914,"orad":4915,"Ġbypass":4916,"accepteerd":4917,"ĊĊĊĠĊ":4918,"ĠDataLin":4919,"dienst":4920,"Ġstroke":4921,"Acetylsalicylzuur":4922,"ĠHer":4923,"Ġlevenslang":4924,"own":4925,"Ġlijden":4926,"Ġziekte":4927,"Ġgel":4928,"Ġtrombose":4929,"Ġscientific":4930,"Ġmidden":4931,"her":4932,"Ġzwangersch":4933,"Ġspray":4934,"Ġleren":4935,"zo":4936,"Ġklepafwijkingen":4937,"ĠParox":4938,"hypert":4939,"isico":4940,"Ġfocus":4941,"Ġposterior":4942,"Sch":4943,"oÃ¯d":4944,"Ġbehandelen":4945,"Ġaantal":4946,"Ġgastro":4947,"Atriumfibrilleren":4948,"abiel":4949,"Ġvervolgen":4950,"Ġaanmelding":4951,"Ġvolgfrequentie":4952,"Ġverpleegkundige":4953,"rige":4954,"pk":4955,"ilis":4956,"ventriculair":4957,"Ġniets":4958,"compli":4959,"Ġser":4960,"Ġsarco":4961,"ikel":4962,"umetanide":4963,"geh":4964,"ligging":4965,"ĠErgometrie":4966,"Ġcomm":4967,"Ġessentie":4968,"Ġconsolidaties":4969,"Ġshunt":4970,"Ġvind":4971,"Ġveget":4972,"Ġvaak":4973,"Ġpericarditis":4974,"ruari":4975,"Ġochtend":4976,"ĠArt":4977,"ĠOSAS":4978,"Ġpanc":4979,"beleid":4980,"stained":4981,"||":4982,"stij":4983,"ĠAscal":4984,"Ġvooralsnog":4985,"Ġintraveneus":4986,"ĠPR":4987,"Ġsecretariaat":4988,"Link":4989,"port":4990,"Ġjr":4991,"ALAT":4992,"Advies":4993,"spannen":4994,"Ġdrain":4995,"Ġpara":4996,"grote":4997,"Ġapotheek":4998,"Ġproximal":4999,"Ġ~[":5000,"Ġklepvitia":5001,"sis":5002,"Echocardiografie":5003,"Ġamlodipine":5004,"buik":5005,"Ġcollabeert":5006,"Hartfalen":5007,"Ġ&":5008,"Ġperio":5009,"Ġ(%):[":5010,"UST":5011,"ĠAlkalische":5012,"ĠLang":5013,"Ġbeperkte":5014,"Ġpte":5015,"Ġden":5016,"Ġstoornissen":5017,"Ġcollater":5018,"Ġperif":5019,"gevraagd":5020,"Algemeen":5021,"amponade":5022,"Ter":5023,"gebied":5024,"ĠZorg":5025,"ORI":5026,"icoagulantia":5027,"mV":5028,"Ġbroer":5029,"Hoofddiagnose":5030,"Ġgraden":5031,"idingen":5032,"normale":5033,"uidelijk":5034,"Ġbetablokker":5035,"Ġgeplaatst":5036,"lux":5037,"inaat":5038,"standig":5039,"Een":5040,"rter":5041,"Ġopdat":5042,"Ġsubcutaan":5043,"rengen":5044,"erieure":5045,"Ġdelay":5046,"hypertensie":5047,"Ġonderste":5048,"verd":5049,"aut":5050,"uccinaat":5051,"ĠIsch":5052,"ĠPoliklinische":5053,"ĠHierbij":5054,"urele":5055,"Ġstents":5056,"Ġherkenbare":5057,"Ġpsych":5058,"ĠConform":5059,"Ġnevenbevindingen":5060,"antagonist":5061,"Score":5062,"ry":5063,"ericht":5064,"Ġvermoedelijk":5065,"Ġeenmalig":5066,"ductie":5067,"Ġsnr":5068,"Ġlymfe":5069,"Ġschema":5070,"bal":5071,"ĠKN":5072,"mering":5073,"Ġontstaan":5074,"Ġbericht":5075,"Ġou":5076,"iasis":5077,"Ġmoeilijk":5078,"Ġpocket":5079,"kwaliteit":5080,"Ġvv":5081,"Tractus":5082,"kort":5083,"rox":5084,"kin":5085,"ĠLAVI":5086,"Ġinmiddels":5087,"ook":5088,"Ġgeworden":5089,"ĠPVAI":5090,"ĠBi":5091,"ĠfL":5092,"Ġcava":5093,"mmer":5094,"Ġ(/":5095,"Ġreversib":5096,"ĠMatig":5097,"Ġvrijdag":5098,"ĠLCX":5099,"ĠHartfrequentie":5100,"ĠIN":5101,"reerd":5102,"esitas":5103,"ason":5104,"oscop":5105,"hoe":5106,"Ġtoevoegen":5107,"aags":5108,"Ġsecundair":5109,"Ġclopidogrel":5110,"alva":5111,"ĠPoli":5112,"urcatie":5113,"bericht":5114,"Ġongecompliceerd":5115,"ĠScintigrafisch":5116,"beperking":5117,"fic":5118,"Ġhals":5119,"succinaat":5120,"gegeven":5121,"Ġvorm":5122,"Ġect":5123,"Ġspontane":5124,"Ġdefect":5125,"Ġambulance":5126,"Ġakinesie":5127,"ĠEchter":5128,"keken":5129,"OP":5130,"inustachycardie":5131,"Ġkortdurend":5132,"kolom":5133,"Ġdanwel":5134,"Ġrichting":5135,"ypisch":5136,"ĠAortaklep":5137,"Ġvraagstelling":5138,"Ġstenosering":5139,"Ġzieke":5140,"compliant":5141,"ĠPt":5142,"Ġmen":5143,"At":5144,"riglycer":5145,"Ġdegen":5146,"iologie":5147,"gew":5148,"Ġgereguleerd":5149,"Ġactuele":5150,"Ġcalcificaties":5151,"ĠSub":5152,"rechts":5153,"Ġzowel":5154,"Ġballoon":5155,"artrose":5156,"Ġecg":5157,"Ġprecordi":5158,"ĠScientific":5159,"Complicatie":5160,"Ġnood":5161,"Ġinternist":5162,"colleg":5163,"ĠGFR":5164,"Ġrecidiverende":5165,"ĠPre":5166,"ASAT":5167,"Ġtrage":5168,"oview":5169,"Ġzitten":5170,"Ġminimale":5171,"Ġhartinfarct":5172,"Sociaal":5173,"ĠMDL":5174,"Ġopent":5175,"IP":5176,"Ġdecompensatie":5177,"US":5178,"Ġelk":5179,"Ġlongvaattekening":5180,"Ġsens":5181,"Ġstructureel":5182,"Rec":5183,"Ġgegaan":5184,"land":5185,"Ġrechterventrikel":5186,"Ġopgehoogd":5187,"legd":5188,"Ġmechan":5189,"attery":5190,"asaal":5191,"Ġdhr":5192,"bv":5193,"beelde":5194,"GE":5195,"Ġfrequente":5196,"Ġpercutane":5197,"Ġhemodynam":5198,"groep":5199,"Ġpunctie":5200,"uma":5201,"efact":5202,"long":5203,"Ġkatheter":5204,"ositas":5205,"heen":5206,"Ġvolgen":5207,"Ġverleng":5208,"orse":5209,"Ascal":5210,"dec":5211,"calcium":5212,"oename":5213,"epat":5214,"Ġprob":5215,"Ġlek":5216,"emat":5217,"Ġadequate":5218,"chl":5219,"ĠLaboratorium":5220,"Ġsystemische":5221,"Ġdescendens":5222,"Ġritmestoornis":5223,"ĠTV":5224,"rolaps":5225,"Ġelektrische":5226,"HH":5227,"ĠCAD":5228,"Ġhartt":5229,"Ġchem":5230,"ack":5231,"orta":5232,"ĠMy":5233,"ĠER":5234,"wijzigde":5235,"ĠFlow":5236,"ĠAVA":5237,"Ġlongvenen":5238,"Ġoude":5239,"abig":5240,"ikbaar":5241,"TA":5242,"Ġmar":5243,"ionale":5244,"Ġdoet":5245,"ugen":5246,"ĠBekend":5247,"chen":5248,"Ġstuwing":5249,"Ġthrombus":5250,"ĠDCM":5251,"alsalva":5252,"ocyt":5253,"ĠJL":5254,"Ġniveau":5255,"Ġem":5256,"tablet":5257,"-:":5258,"Ġafgebeelde":5259,"Ġaanvang":5260,"maakte":5261,"ĠPatiÃ«nte":5262,"Ã¨tablokker":5263,"itting":5264,"Verder":5265,"Leeftijd":5266,"Ġslaap":5267,"belasting":5268,"Ġleven":5269,"Ġdecember":5270,"Jx":5271,"Ġhog":5272,"ĠSVES":5273,"Huisarts":5274,"Ġcircumflex":5275,"aced":5276,"dil":5277,"inter":5278,"collegiaal":5279,"Ġbezig":5280,"icale":5281,"ĠTDI":5282,"ĠOHCA":5283,"Ġhypotensie":5284,"ularisatie":5285,"Ġcereb":5286,"derline":5287,"rain":5288,"adenopathie":5289,"ovasculair":5290,"Onderzoek":5291,"ostase":5292,"Ġkreeg":5293,"Ġbeelden":5294,"Ġuite":5295,"Ġactiviteit":5296,"zide":5297,"kan":5298,"med":5299,"boven":5300,"mis":5301,"Ġfractuur":5302,"euc":5303,"grens":5304,"atran":5305,"izont":5306,"Ġform":5307,"anto":5308,"Ġmede":5309,"veren":5310,"resto":5311,"Ġogen":5312,"Ġsporten":5313,"Ġtemp":5314,"Ġipv":5315,"ĠaVL":5316,"Ġtricuspidalisklep":5317,"Ġstreef":5318,"Ġoste":5319,"ĠHyp":5320,"abigatran":5321,"ylo":5322,"ĠON":5323,"icul":5324,"Ġglucose":5325,"Ġcolon":5326,"Ġantibiotica":5327,"Ġfact":5328,"ĠStabiele":5329,"Ġrugligging":5330,"Ġ#[":5331,"ĠDR":5332,"icine":5333,"Myocardinfarct":5334,"ĠVervolg":5335,"ineuze":5336,"ĠAnamnese":5337,"uurs":5338,"heath":5339,"known":5340,"asen":5341,"Ġverpleegkundigen":5342,"Ġacenocoumarol":5343,"Ġhartrevalidatie":5344,"aline":5345,"del":5346,"Ġoktober":5347,"ool":5348,"Blood":5349,"Ġvue":5350,"xe":5351,"Ġswitch":5352,"Ġplaatsen":5353,"gezet":5354,"umon":5355,"Ġmaat":5356,"Dominantie":5357,"elect":5358,"wer":5359,"ner":5360,"Ġtwe":5361,"Ġvenen":5362,"Ġthuismedicatie":5363,"iom":5364,"morgen":5365,"vals":5366,"Ġcrit":5367,"ĠÂµg":5368,"Ġmamma":5369,"Ġvoet":5370,"iclo":5371,"Ġauto":5372,"ĉĊÂłĉ":5373,"Spironolacton":5374,"block":5375,"Ġcoronari":5376,"Ġextrasystol":5377,"behand":5378,"duur":5379,"Ġseptember":5380,"arree":5381,"stig":5382,"Ġspironolacton":5383,"atible":5384,"Ġhernia":5385,"gevallen":5386,"elevant":5387,"Ġhandmatig":5388,"weken":5389,"Ġverh":5390,"ife":5391,"ĠDec":5392,"eucocyten":5393,"greep":5394,"Ġsed":5395,"TIA":5396,"Ġproblematiek":5397,"zym":5398,"??":5399,"geruis":5400,"Ġken":5401,"sion":5402,"ĠZD":5403,"sluiting":5404,"ontrole":5405,"Ġmsec":5406,"ĠRPM":5407,"onent":5408,"roleerd":5409,"adol":5410,"ĠgeÃ¯n":5411,"leidingen":5412,"Wat":5413,"pati":5414,"Ġsluit":5415,"enpro":5416,"Ġaandacht":5417,"sne":5418,"olerantie":5419,"merken":5420,"risch":5421,"lavia":5422,"Ġlasix":5423,"Ġorthopnoe":5424,"akker":5425,"Ġsignaal":5426,"oeden":5427,"Ġmogelijke":5428,"face":5429,"Plus":5430,"Ġstructurele":5431,"ĠUnknown":5432,"Ġpitting":5433,"jaar":5434,"Operator":5435,"manent":5436,"Ġincompatible":5437,"rs":5438,"ĠopPlus":5439,"intOperator":5440,"Ġvesiculair":5441,"Opdrachten":5442,"gehele":5443,"Ġadip":5444,"cisie":5445,"ĠAblatie":5446,"ĠEchocardiografisch":5447,"Ġprimair":5448,"Tromb":5449,"odi":5450,"Ġnovember":5451,"Ġlinkerventrikelfunctie":5452,"]%;":5453,"MDRD":5454,"nstig":5455,"sth":5456,"Text":5457,"aritm":5458,"ĠDaarnaast":5459,"fractuur":5460,"Sotalol":5461,"Ġverbeterd":5462,"Ġdominance":5463,"ĠAG":5464,"coumon":5465,"Ġenkels":5466,"Ġarit":5467,"toppen":5468,"stijd":5469,"Ġverdw":5470,"ĠOrg":5471,"ending":5472,"for":5473,"oph":5474,"Ġtherapeut":5475,"ĠPacemaker":5476,"Ġinfiltraten":5477,"Ġblijkt":5478,"Ġwaarop":5479,"Ġlange":5480,"Ġvoorbere":5481,"Ġischaemie":5482,"Ġzout":5483,"Ġperifere":5484,"Ġelektronisch":5485,"Ġrevalidatie":5486,"Ġteam":5487,"Ġverdragen":5488,"com":5489,"iliac":5490,"othyre":5491,"kkage":5492,"Ġzwelling":5493,"Ġlymfadenopathie":5494,"Nazorginst":5495,"illine":5496,"ump":5497,"Ġaugustus":5498,".;":5499,"steking":5500,"Ġmeten":5501,"urale":5502,"enprocoumon":5503,"ĠNadien":5504,"Ġlos":5505,"itieve":5506,"Ġorale":5507,"Ġvraag":5508,"Ġlangzaam":5509,"Ġbra":5510,"Ġprostaat":5511,"Ġface":5512,"Ġanamnestisch":5513,"antwoord":5514,"ĠHDL":5515,"Ġtoenem":5516,"ystectomie":5517,"och":5518,"Ġgeval":5519,"asal":5520,"Ġmaakt":5521,"Ġgecontroleerd":5522,"ĊĊĠ":5523,"Ġzover":5524,"ullen":5525,"Ġpob":5526,"Ġvers":5527,"isicoprofiel":5528,"dr":5529,"azepam":5530,"pre":5531,"gaande":5532,"oriseerd":5533,"riglyceriden":5534,"Nevendiagnoses":5535,"Nazorginstantie":5536,"RO":5537,"ko":5538,"Ġfysi":5539,"Ġspreekuur":5540,"Ġgeaut":5541,"Ġuiteindelijk":5542,"Ġfocale":5543,"oepen":5544,"mGy":5545,"ĠAB":5546,"istreerd":5547,"Ġvoorlop":5548,"oto":5549,"Toegang":5550,"Ġgeautoriseerd":5551,"oeg":5552,"Ġgeaccepteerd":5553,"ĠRUST":5554,"durende":5555,"lass":5556,"Ġechocardiografie":5557,"ossier":5558,"JM":5559,"Ġrustige":5560,"Ġging":5561,"Ġrol":5562,"Ġtamponade":5563,"gradi":5564,"Ġmild":5565,"ĠLO":5566,"Ġniertransplantatie":5567,"Ġregulair":5568,"Resp":5569,"Ġgein":5570,"Ġwaargenomen":5571,"diceerd":5572,"adium":5573,"):>[":5574,"Ġblaas":5575,"!!":5576,"ĠLengte":5577,"Ġfrequent":5578,"piteren":5579,"Ġzuurstof":5580,"SPECT":5581,"ocardiale":5582,"Ġeinde":5583,"lasting":5584,"ĠWil":5585,"osin":5586,"Ġbehoudens":5587,"Ġbeetje":5588,"Ġactueel":5589,"Ġpijnlijk":5590,",[":5591,"Poli":5592,"ĠCTO":5593,"Ap":5594,"icaal":5595,"Ġpoging":5596,"rupp":5597,"Ġhom":5598,"serv":5599,"ĠDyspnoe":5600,"Ġtoegang":5601,"Battery":5602,"zijdige":5603,"UCH":5604,"Ġpalpitatieklachten":5605,"eef":5606,"Ġbetrouwbaar":5607,"oonplaats":5608,"Door":5609,"oradisch":5610,"weginfectie":5611,"Ġhoeveel":5612,"Ingreep":5613,"Ġparoxismaal":5614,"ĠVerhoogd":5615,"Ġondergaan":5616,"ĠCMP":5617,"rip":5618,"Ġrib":5619,"Ġzwangerschap":5620,"ique":5621,"uaal":5622,"Ġafbouw":5623,"zelfde":5624,"Ġmeetwaarden":5625,"STEMI":5626,"AGB":5627,"ĠEjectiefractie":5628,"Ġregionale":5629,"grade":5630,"Ġwaardoor":5631,"ĠLa":5632,"Ġhele":5633,"akantie":5634,"waarde":5635,"Ġdelayed":5636,"Ġget":5637,"Ġcort":5638,"ĠDoor":5639,"izontale":5640,"arge":5641,"Ġdraad":5642,"ĠCardiaal":5643,"Familieanamnese":5644,"isolatie":5645,"Ġwortel":5646,"Ġonrust":5647,"operatieve":5648,"Ġleverfunctie":5649,"Ġlitteken":5650,"Ġlesion":5651,"activ":5652,"hy":5653,"ĠNov":5654,"zymen":5655,"Ġsymptomatische":5656,"ipele":5657,"ĠEch":5658,"Tot":5659,"Ġvooral":5660,"astom":5661,"Ġvindt":5662,"Ġmomenteel":5663,"repen":5664,"ĠOM":5665,"Boston":5666,"vix":5667,"Ġontslagbrief":5668,"Ġkliniek":5669,"ĠStenosis":5670,"Ġamiodarone":5671,"Ġbovenstaande":5672,"orvastatine":5673,"Ġademhaling":5674,"ricuspidale":5675,"Ġlengte":5676,"dosis":5677,"ogn":5678,"verband":5679,"ĠDer":5680,"sluitend":5681,":-":5682,"Matige":5683,"ecystectomie":5684,"BR":5685,"Ġperiode":5686,"orfe":5687,"iti":5688,"Ġreumat":5689,"Meer":5690,"Ġhypo":5691,"ĠInf":5692,"Ġligt":5693,"Ġclin":5694,"ĠAs":5695,"Ġbicuspide":5696,"NA":5697,"bradycardie":5698,"Ġstap":5699,"Ġrichtingen":5700,"Ġorder":5701,"ĊĊĊĊĠĊĊĊ":5702,"Ġbenauwdheid":5703,"Ġaspecifieke":5704,"Ġĉ":5705,"orijden":5706,"Ġide":5707,"Ġsecundaire":5708,"Ġnieren":5709,"leiding":5710,"ĠGenees":5711,"Ġpleister":5712,"Ġwisselend":5713,"Vaat":5714,"rot":5715,"Ġreceptie":5716,"Ġwakker":5717,"En":5718,"âĢĵ":5719,"zijn":5720,"asalaat":5721,"Ġkalium":5722,"ĠCol":5723,"ĠVerpleegkundige":5724,"STATE":5725,"waarschijnlijk":5726,"Ġgesloten":5727,"Ġtevoren":5728,"Ġleveren":5729,"Ġvorig":5730,"fsel":5731,"Ġcrepiteren":5732,"ĠNB":5733,"put":5734,"code":5735,"ĠaVF":5736,"Ġgehele":5737,"lust":5738,"Ġchemotherapie":5739,"NOAC":5740,"Ġgelegen":5741,"abd":5742,"Ġvervaardi":5743,"zijdig":5744,"jr":5745,"XT":5746,"Ġeenheden":5747,"yct":5748,"sh":5749,"quis":5750,"ene":5751,"Ġaangepast":5752,"Rechter":5753,"ĠICC":5754,"Ġventriculair":5755,"MS":5756,"pletie":5757,"vandaag":5758,"Ġbestaat":5759,"Ġkrijgen":5760,"Ġvergrote":5761,"Ġwanneer":5762,"oversie":5763,"ĠSec":5764,"ĠKlinisch":5765,"Ġmetast":5766,"Ġverlaagd":5767,"Ġgrootte":5768,"ateur":5769,"Ġinjectie":5770,"icon":5771,"ĠCx":5772,"ymptomatische":5773,"Ġinplannen":5774,"aliseerd":5775,"Air":5776,"SS":5777,"Ġslagen":5778,"aam":5779,"Ġvervangen":5780,"prazol":5781,"Ġpalpabel":5782,"clus":5783,"Ġallergie":5784,"Ġechtgenote":5785,"Ġafwez":5786,"azol":5787,"gere":5788,"Ġhiervan":5789,"Telefoon":5790,"Ġ-,":5791,"-/":5792,"perfusie":5793,"oidie":5794,"ollings":5795,"Ġfebruari":5796,"Ġkinderen":5797,"ĠMilde":5798,"entage":5799,"NT":5800,"Ġharttransplantatie":5801,"ĠGraag":5802,"Ġtoepassing":5803,"Ġ(+":5804,"problemen":5805,"Ġspiegel":5806,"Ġvar":5807,"stent":5808,"chron":5809,"Licht":5810,"Ġcrepitaties":5811,"aarne":5812,"isor":5813,"Ġresectie":5814,"ĠBSE":5815,"Ġshocks":5816,"doet":5817,"Ġwisselende":5818,"VR":5819,"nucleair":5820,"Ġmilt":5821,"ordt":5822,"ĠMG":5823,"oxicaties":5824,":|":5825,"Ġdiarree":5826,"Ġevents":5827,"ĠAlgemene":5828,"ntgen":5829,"idie":5830,"ĠVerdenking":5831,"Ġzijde":5832,"Ġpunt":5833,"regelen":5834,"vangen":5835,"Ġnaast":5836,"middag":5837,"echt":5838,"ycturie":5839,"Ġbem":5840,"nier":5841,"Opmerkingen":5842,"Ġonderging":5843,"Ġbeeldkwaliteit":5844,"Calcium":5845,"Radiation":5846,"outine":5847,"da":5848,"ĠWaar":5849,"Ġpas":5850,"ament":5851,"ecalc":5852,"insuff":5853,"Ġlipiden":5854,"atriale":5855,"ĠTIMI":5856,"Ġcyste":5857,"Ġcomponent":5858,"respons":5859,"Ġnummer":5860,"Ġbewust":5861,"Ġasymptomatisch":5862,"Ġdilaterende":5863,"intie":5864,"Ġaanp":5865,"Ġuitstraling":5866,"plastiek":5867,"chec":5868,"Ġabdomen":5869,"Ã©n":5870,"================================":5871,"Ġscho":5872,"verwezen":5873,"ĠâĢĵ":5874,"ĠAtypische":5875,"Ġafgrens":5876,"Ġgevol":5877,"Ġartrose":5878,"Hier":5879,"dex":5880,"otricuspidale":5881,"Ġsedatie":5882,"mpedantie":5883,"Ġdiagonaal":5884,"Ġvrijwel":5885,"::":5886,"Ġander":5887,"Ġbisoprolol":5888,"asalaatcalcium":5889,"ĠValsalva":5890,"ĠMeer":5891,"Ġopdrachten":5892,"Ġpau":5893,"Ġaanvraag":5894,"ĠSoms":5895,"Ġradioloog":5896,"valvulaire":5897,"Ġactieve":5898,"tetrofosmine":5899,"quisitie":5900,"Perindopril":5901,"Thorax":5902,"onderdag":5903,"Ġepic":5904,"AoV":5905,"Ġelke":5906,"Ġweekend":5907,"antozol":5908,"alpitaties":5909,"Ġpomp":5910,"mTc":5911,"lechte":5912,"emming":5913,"leet":5914,"blaas":5915,"alcificeerde":5916,"ĠĠĠĠ":5917,"emper":5918,"Ġbatterij":5919,"Ġvoorspeld":5920,"Ġsublinguaal":5921,"ript":5922,"sol":5923,"Ġopin":5924,"Ġtelemetrie":5925,"Ġhepat":5926,"alijden":5927,"iva":5928,"ACE":5929,"ĠSat":5930,"ĠMR":5931,"straat":5932,"Ġzoon":5933,"aas":5934,"Ġrun":5935,"ĠRitme":5936,"Ġanesthesie":5937,"Ġul":5938,"Ġirreg":5939,"ĠDiff":5940,"ĠTSH":5941,"VS":5942,"Ġprop":5943,"ĠGer":5944,"ofiele":5945,"roles":5946,"Ġeet":5947,"Ġgesla":5948,"Ã¯n":5949,"Ġnl":5950,"Ġdoubl":5951,"inale":5952,"ignific":5953,"ept":5954,"gepland":5955,"Ġlate":5956,"meprazol":5957,"Ġpostoperatief":5958,"ĠAA":5959,"ther":5960,"Ġbeweg":5961,"ouwd":5962,"Ġhartcatheterisatie":5963,"endectomie":5964,"balans":5965,"Ġinh":5966,"Ġvari":5967,"Ġvervaardigd":5968,"mmet":5969,"Ġcardiovasculair":5970,"uraal":5971,"ĠRedelijke":5972,",:":5973,"Ġmelden":5974,"Ġhulp":5975,"Ġafwijkende":5976,"Ġnogmaals":5977,"gevoerd":5978,"Ġextrasystolen":5979,"AR":5980,"sluiten":5981,"Ġvakantie":5982,"Ġafhankelijk":5983,"Ġrespons":5984,"ĠMVP":5985,"CMP":5986,"rid":5987,"Ġliet":5988,"ĠEer":5989,"ĠNatrium":5990,"Ġrelatie":5991,"Ġsubtotale":5992,"Ġnauw":5993,"amiliaire":5994,"ĠTABL":5995,"les":5996,"Ġoper":5997,"ompensatio":5998,"LM":5999,"COPD":6000,"Ġhorizontale":6001,"{\\":6002,"Ġwaarvan":6003,"Ġalgemeen":6004,"Ġng":6005,"Ġconcentrische":6006,"Ġhoest":6007,"gank":6008,"Ġatriaal":6009,"arme":6010,"lechter":6011,"ĠHypercholesterolemie":6012,"pe":6013,"Ġopinion":6014,"ulmonale":6015,"NYHA":6016,"Ġbijna":6017,"laesie":6018,"ĠCons":6019,"Nage":6020,"Ġpra":6021,"Collater":6022,"Ġoes":6023,"Sten":6024,"ĠLAB":6025,"Ġcontractiepatroon":6026,"Ġangineuze":6027,"ĠCar":6028,"Ġun":6029,"ĠThoracale":6030,"Ġoss":6031,"Nagekeken":6032,"ptomen":6033,"Spoor":6034,"Ġdoorgemaakte":6035,"verticul":6036,"drempel":6037,"Ġmoeheid":6038,"icintie":6039,"ĠMorgen":6040,"emperatuur":6041,"Time":6042,"LIMA":6043,"ĠMin":6044,"ĠCholesterol":6045,"formed":6046,"Ġplan":6047,"carb":6048,"Ġproef":6049,"Ġfietsergometrie":6050,"cre":6051,"stellen":6052,"Elekt":6053,"Ġwervelkolom":6054,"Ġum":6055,"Ġov":6056,"Ġanastom":6057,"clip":6058,"Eer":6059,"uun":6060,"ĠGedilateerde":6061,"Ġlinkeratrium":6062,"Ġbol":6063,"bp":6064,"laten":6065,"ĠLaat":6066,"ĠDDDR":6067,"Stroke":6068,"Ġsubclavia":6069,"Ġgerookt":6070,"Aberr":6071,"Ġgeob":6072,"ENOS":6073,"Ġopgestuurd":6074,"Ġloop":6075,"ĠPHT":6076,"Ġmoeten":6077,"renaline":6078,"Ġnierinsufficientie":6079,"Ġgeruis":6080,"ĠGUCH":6081,"nov":6082,"ĠHS":6083,"Ġrestri":6084,"+,":6085,"Ġechocardiografisch":6086,"Ticagrelor":6087,"app":6088,"oi":6089,"Ġradiotherapie":6090,"Stenose":6091,"Ġvoeten":6092,"Ġorthopneu":6093,"wekbaar":6094,"Ġaangemeld":6095,"Ġonderliggend":6096,"patie":6097,"jectiv":6098,"Ġevident":6099,"ĠDataLinQ":6100,"Ġwaarde":6101,"Actieve":6102,"ĠKomt":6103,"nieuw":6104,"Ġectopie":6105,"ĠOverweeg":6106,"ĠAdres":6107,"ĠUitgebreide":6108,"scintigrafie":6109,"Ġverrichten":6110,"Ġwet":6111,"klieren":6112,"aling":6113,"Ġrevisie":6114,"ĠKCL":6115,"Ġhard":6116,"zetten":6117,"Ġdigoxine":6118,"ĠHAS":6119,"ving":6120,"butamine":6121,"Ġlekker":6122,"ocale":6123,"verdi":6124,"Ġcalcium":6125,"Ġcirca":6126,"ĠIom":6127,"ĠĠĉ":6128,"Ġicc":6129,"ĠWatt":6130,"Ġelev":6131,"breuk":6132,"elijks":6133,"etour":6134,"metast":6135,"Ġdoc":6136,"Ġmis":6137,"uss":6138,"ĠVergeleken":6139,"Ġbur":6140,"Ġatherosclerotische":6141,"ĠWoonplaats":6142,"Ġtypische":6143,"Ġcr":6144,"Ġnachts":6145,"ĠRoutine":6146,"lichtings":6147,"hes":6148,"Ġvinden":6149,"Ġobesitas":6150,"tedatum":6151,"Ġdors":6152,"Ġgeheugen":6153,"Ġdro":6154,"Ġleads":6155,"Ġconsent":6156,"Ġneuroloog":6157,"Bilirubine":6158,"ĠSlank":6159,"Ġstroom":6160,"VD":6161,"bloed":6162,"bladen":6163,"Medtronic":6164,"Ġboog":6165,"Ġbloedverlies":6166,"ĠRel":6167,"bloeding":6168,"ĠLichte":6169,"Ġij":6170,"egra":6171,"Ġgewricht":6172,"Ġeten":6173,"ĠOpmerking":6174,"Ġontwat":6175,"elateerd":6176,"Ġaanzien":6177,"Ġbasale":6178,"istollings":6179,"Ġproberen":6180,"ĠOnderstaande":6181,"ĠPoliklinisch":6182,"Ġgef":6183,"Ġgelukt":6184,"Ġintrac":6185,"Ġrepolarisatiestoornissen":6186,"alk":6187,"schatte":6188,"Ġcavotricuspidale":6189,"Ġiliac":6190,"Ġaldaar":6191,"Ġbot":6192,"ĠBI":6193,"ĠPTA":6194,"Ġ(<[":6195,"Ġmw":6196,"Ġstenoses":6197,"mcg":6198,"clude":6199,"laire":6200,"Ġlastig":6201,"Vrouw":6202,"Ġhervat":6203,"Postoperatief":6204,"uitslagen":6205,"Ġfibrilleren":6206,"Ġaanhoudende":6207,"Pijn":6208,"Ġzwaar":6209,"Ġcardiac":6210,"Ġzullen":6211,"feb":6212,"Ġacquisitie":6213,"Extra":6214,"dienings":6215,"ycine":6216,"ocardiaal":6217,"otter":6218,"irpatie":6219,"Van":6220,"geleid":6221,"Ġslechts":6222,"Ġwire":6223,"ditionele":6224,"Ġischemisch":6225,"Ġmate":6226,"Ġpm":6227,"Ġchronisch":6228,"cip":6229,"openie":6230,"Ġspecifieke":6231,"Max":6232,"Ġbuikpijn":6233,"Ingepland":6234,"Ġoverslagen":6235,"geschreven":6236,"Ġbehandelaar":6237,"Ġdaags":6238,"Ġalcoholgebruik":6239,"werkend":6240,"dieningsweg":6241,"Ġimm":6242,"Ġontvangen":6243,"Ġneurologie":6244,"Ġheer":6245,"Ġkreatinine":6246,"Ġnitraat":6247,"Function":6248,"Ġdose":6249,"TEXT":6250,"idieven":6251,"SIE":6252,"procedure":6253,"Ġbetrokken":6254,"ĠRW":6255,"ete":6256,"depressie":6257,"Ġnormal":6258,"Ġgede":6259,"insdag":6260,"ĠToedieningsweg":6261,"ĠVandaag":6262,"Ġrect":6263,"Ġletsel":6264,"Ġpatroon":6265,"agen":6266,"ĠMonitor":6267,"Ġsternotomie":6268,"Ġprecordiale":6269,"Ġangi":6270,"servatie":6271,"Ġweet":6272,"ious":6273,"lead":6274,"chemie":6275,"Ġonderwandinfarct":6276,"ESA":6277,"AZ":6278,"missie":6279,"verse":6280,"VF":6281,"theros":6282,"Ġcontroleren":6283,"TEE":6284,"atoire":6285,"ictie":6286,"omatisch":6287,"ĠGro":6288,"Agatston":6289,"__":6290,"ijdig":6291,"ĠEGFR":6292,"RCx":6293,"alg":6294,"scopie":6295,"Ġvas":6296,"suline":6297,"Ġtelefoon":6298,"ĠVisueel":6299,"Ġopvall":6300,"Ġgesch":6301,"reas":6302,"ĠDhr":6303,"rijven":6304,"Ergometrie":6305,"ĠAD":6306,"jan":6307,"gewicht":6308,"Gezien":6309,"]+":6310,"ORDER":6311,"Ġplaqu":6312,"Ġuitgesproken":6313,"Ġax":6314,"ichtlijnen":6315,"Ġvoldoet":6316,"Sec":6317,"osu":6318,"ichaam":6319,"Ġepisodes":6320,"ĠEnd":6321,"ĠBas":6322,"Ġcutaan":6323,"graad":6324,"geroepen":6325,"ACS":6326,"anning":6327,"orbide":6328,"Ġzeg":6329,"ernaal":6330,"rocardioversie":6331,"zout":6332,"Ġingev":6333,"ĠSlanke":6334,"Ġgecon":6335,"Ġvet":6336,"mplitude":6337,"cell":6338,"chting":6339,"HAS":6340,"Schema":6341,"rank":6342,"Medische":6343,"ORAT":6344,"ORIUM":6345,"ORATORIUM":6346,"Halsvenen":6347,"Ġalgehele":6348,"ĠVeel":6349,"Ġgepaced":6350,"itaal":6351,"rill":6352,"overzicht":6353,"rograft":6354,"Ġzus":6355,"Ġafleidingen":6356,"foratie":6357,"houdend":6358,"Ġbereikt":6359,"Ġim":6360,"OC":6361,"Ġhoeveelheid":6362,"Ġgezondheid":6363,"cep":6364,"WK":6365,"etische":6366,"Vaatlijden":6367,"ile":6368,"ĠKreatinine":6369,"ĠEnkele":6370,"iazide":6371,"ĠPTCA":6372,"wogen":6373,"auw":6374,"nu":6375,"ĠIntercollegiaal":6376,"baarheid":6377,"namnestisch":6378,"ĠIS":6379,"Vul":6380,"Ġaortaklepvervanging":6381,"Ġveneus":6382,"analyse":6383,"Ġapicale":6384,"Ġverdikt":6385,"Ġsluiting":6386,"Ġhypertrofische":6387,"]]:":6388,"ralings":6389,"BC":6390,"Ġlekkage":6391,"Ġverkalkte":6392,"mogelijk":6393,"Ġziet":6394,"ĠAtheros":6395,"coronair":6396,"Ġsinustachycardie":6397,"Ġlesie":6398,"bt":6399,"ML":6400,"rth":6401,"clusion":6402,"Ġontlasting":6403,"Leucocyten":6404,"Ġcy":6405,"esc":6406,"gener":6407,"Ġafger":6408,"ront":6409,"vlst":6410,"Ġcoronarialijden":6411,"ĠInjectie":6412,"Ġmisselijkheid":6413,"Ġdiafragmat":6414,"Ġbil":6415,"Ġcogn":6416,"Ġchirurgie":6417,"Ġkamerfunctie":6418,"pleren":6419,"Ġsug":6420,"Ġvastgesteld":6421,"Ġsmal":6422,"gebouwd":6423,"Ġmetingen":6424,"gestelde":6425,"ha":6426,"lycerine":6427,"Ġbifurcatie":6428,"Ġpmol":6429,"Ġdun":6430,"Ġleuk":6431,"Ġetc":6432,"FFR":6433,"tg":6434,"ischemie":6435,"Ġaanget":6436,"ĠAGB":6437,"Ġaortab":6438,"Ġharttoon":6439,"Ġcalcificatie":6440,"meldformulier":6441,"Âµmol":6442,"roglycerine":6443,"Ġprolaps":6444,"Ġdonderdag":6445,"Ġdienst":6446,"ille":6447,"Ġvaliditeit":6448,"Ġarteri":6449,"Ġtumor":6450,"issen":6451,"ricuspide":6452,"Ġautorijden":6453,"heel":6454,"Ġgere":6455,"Ġumol":6456,"Ġelectieve":6457,"Ġpercentage":6458,"fen":6459,"Ġhoud":6460,"beloop":6461,"leb":6462,"Ġent":6463,"zw":6464,"inn":6465,"alapril":6466,"Ġcave":6467,"Ġiniti":6468,"ĠHC":6469,"ĠGE":6470,"gebieden":6471,"Ġok":6472,"Ġbeschreven":6473,"ĠLE":6474,"Ġmitralisklepinsufficientie":6475,"femor":6476,"rikt":6477,"ateriaal":6478,"diabetes":6479,"Ġverpleegkundig":6480,"ĠDerhalve":6481,"ithiasis":6482,"eline":6483,"ĠForse":6484,"stklep":6485,"che":6486,"Ġtechnicus":6487,"Ġlocatie":6488,"Ġnuc":6489,"Ġbehandelend":6490,"Ġongecompliceerde":6491,"vascularisatie":6492,"water":6493,"Memo":6494,"Ġha":6495,"itt":6496,"Ġkuiten":6497,"Ġseconden":6498,"ĠThuis":6499,"Ġartritis":6500,"agde":6501,"gemeld":6502,"pulmonaal":6503,"Ġ'[":6504,"icum":6505,"oh":6506,"iform":6507,"Ġinferoseptaal":6508,"spect":6509,"Ġonduidelijk":6510,"chi":6511,"Ġontwik":6512,"positie":6513,"Ġzod":6514,"deels":6515,"PS":6516,"Ġram":6517,"lopend":6518,"{[":6519,"atorvastatine":6520,"Ġpoly":6521,"spray":6522,"Ġtre":6523,"Ã¶":6524,"Ġdominantie":6525,"Ġsystolisch":6526,"ĠCAR":6527,"ficatie":6528,"]}":6529,"ift":6530,"grootte":6531,"efacten":6532,"Ġrecidieven":6533,"Device":6534,"Sub":6535,"ĠMid":6536,"imus":6537,"Ġbewegen":6538,"ĠTrans":6539,"Ġafbouwen":6540,"Ġduizelingen":6541,"Ġvag":6542,"rochl":6543,"Ġgevallen":6544,"eed":6545,"ijm":6546,"atische":6547,"Ġgestopte":6548,"sted":6549,"Ġaanvallen":6550,"ĠLaatste":6551,"Ohm":6552,"Ġlaesies":6553,"Ġthv":6554,"Ġcla":6555,"Ġinsuff":6556,"Ġkeel":6557,"Ġanastomose":6558,"vious":6559,"sed":6560,"inium":6561,"angi":6562,"Ġintake":6563,"Ġverlagen":6564,"ails":6565,"septum":6566,"post":6567,"erbumine":6568,"ĠPulm":6569,"Ġaden":6570,"Trans":6571,"inopril":6572,"usc":6573,"ensdag":6574,"oorth":6575,"ĠPostoperatief":6576,"uist":6577,"ĠPersist":6578,"Ġcontract":6579,"Ġwerkt":6580,"Adju":6581,"Ġgevo":6582,"gGT":6583,"ĠParoxysmaal":6584,"verdunn":6585,"Ġbegon":6586,"selen":6587,"vedil":6588,"Ġverderop":6589,"Wij":6590,"istollingsbeleid":6591,"Carb":6592,"Ġbesluit":6593,"soon":6594,"Ġelders":6595,"Ġratio":6596,"vedilol":6597,"Vrouwelijk":6598,"hypertrofie":6599,"Ġadditionele":6600,"OM":6601,"TC":6602,"Ġextern":6603,"Anticoagulantia":6604,"PatiÃ«nte":6605,"Ġverdwenen":6606,"Ġplotse":6607,"istof":6608,"Ġprogressief":6609,"Ġhinder":6610,"Ġgevolge":6611,"schijnselen":6612,"Name":6613,"Ġprofylact":6614,"Ġlokale":6615,"Ġvoorafgaand":6616,"naal":6617,"isinopril":6618,"Ġperfusiedefecten":6619,"Adjusted":6620,"ernstige":6621,"Ġ(%/":6622,"Ġmeld":6623,"itieel":6624,"ituatie":6625,"DES":6626,"formeerd":6627,"ole":6628,"Ġthans":6629,"otropie":6630,"ĠFU":6631,"ĠLABORATORIUM":6632,"adolinium":6633,"Stralings":6634,"Ġvoorwandinfarct":6635,"BIO":6636,"metoprolol":6637,"Tijdens":6638,"ectief":6639,"Ġgene":6640,"Ġijzer":6641,"ĠUw":6642,"ĠPerfusiedefect":6643,"Ġsimvastatine":6644,"ĠRest":6645,"armac":6646,"Ġvasculaire":6647,"Ġenig":6648,"kade":6649,"itralisklep":6650,"Ġgeobjectiv":6651,"Ġopwekbaar":6652,"Voelde":6653,"Ġhanden":6654,"proBNP":6655,"ease":6656,"figuratie":6657,"ĠRFR":6658,"Ġmaatregelen":6659,"ĠCD":6660,"aad":6661,"moeid":6662,"ogeen":6663,"ĠIschemie":6664,"Ġbekken":6665,"cy":6666,"raclip":6667,"Gebruikt":6668,"Ġruimte":6669,"Ġstijging":6670,"Val":6671,"Ġsubstraat":6672,"electase":6673,"Ġbiopt":6674,"oordeling":6675,"ĠHeldere":6676,"ĠHoe":6677,"ĠElektrofysi":6678,"ofag":6679,"Ġbemerkt":6680,"FU":6681,"TSH":6682,"Ġuitbre":6683,"nesium":6684,"Ġwegraking":6685,"lichtingsgesprek":6686,"Linker":6687,"ĠMon":6688,"Ġpast":6689,"CORBIO":6690,"Rv":6691,"Ġvlakke":6692,"ĠEB":6693,"ĠWandbeweg":6694,"Ġconclusie":6695,"Ġprin":6696,"ĠArter":6697,"screening":6698,"brengen":6699,"Pressure":6700,"vinden":6701,"Ġsucces":6702,"Ġgeneeskunde":6703,"meer":6704,"Ġbact":6705,"Antistollingsbeleid":6706,"ĠHCM":6707,"ĠCPAP":6708,"Ġadipositas":6709,"lasie":6710,"Ġmicrogram":6711,"bu":6712,"Drug":6713,"Ġpatienten":6714,"nacht":6715,"Ġmedicatieoverzicht":6716,"Ġentresto":6717,"Ġsymptomatisch":6718,"edisch":6719,"chym":6720,"Ġkaak":6721,"Ġverwijs":6722,"Ġplaques":6723,"Ġgeschatte":6724,"Ġdeviaties":6725,"Ġwens":6726,"hankelijke":6727,"Ġnot":6728,"Ġinv":6729,"ofol":6730,"acarcinoom":6731,"Ġschildklier":6732,"ĠPVCs":6733,"Nucleair":6734,"ĠAtherosclerose":6735,"Co":6736,"ĠHNP":6737,"Plan":6738,"Antistolling":6739,"ena":6740,"Ġgadolinium":6741,"plopen":6742,"Nooit":6743,"Follow":6744,"hoogde":6745,"ĠCTR":6746,"Start":6747,"ztb":6748,"olyse":6749,"ĠAbdomen":6750,"ĠMESA":6751,"Uitleg":6752,"Ġpoeder":6753,"roloog":6754,"undelt":6755,"ĠMRA":6756,"Ġwandelen":6757,"MCV":6758,"Lesion":6759,"ĠMw":6760,"Ã©Ã©n":6761,"Artikel":6762,"Ġimplant":6763,"scap":6764,"ĠAH":6765,"ĠLesion":6766,"uin":6767,"isme":6768,"ORA":6769,"opp":6770,"hydratie":6771,"Intoxicaties":6772,"Ġborderline":6773,"vr":6774,"blokker":6775,"undeltak":6776,"Ġoverwogen":6777,"vullen":6778,"Ġreflux":6779,"my":6780,"rochloorth":6781,"PT":6782,"alkscore":6783,"ĠInspanning":6784,"Alg":6785,"Ġfietstest":6786,"ality":6787,"Ġvullings":6788,"Ġdisease":6789,"lij":6790,"Plat":6791,"isende":6792,"emmering":6793,"ick":6794,"Ġrespir":6795,"ĠCTC":6796,"Ġtrop":6797,"Conclusion":6798,"Ġbepaald":6799,"Ġgegener":6800,"Ġergo":6801,"Ġdelen":6802,"Ġbeschikbaar":6803,"Platte":6804,"PI":6805,"werk":6806,"ĠTelefonisch":6807,"ĠRWBS":6808,"Ġcorrectie":6809,"PlatteText":6810,"chicine":6811,"Vasculair":6812,"Ġwegrakingen":6813,"ĠGra":6814,"->":6815,"ienummer":6816,"Ġband":6817,"voorstel":6818,"Ġdegeneratieve":6819,"oedeem":6820,"Ġfla":6821,"Orale":6822,"gankelijk":6823,"ness":6824,"rinken":6825,"Ġpresenteert":6826,"Ġbrad":6827,"ycardi":6828,"ĠTra":6829,"pv":6830,"Ġoptie":6831,"ĠNeg":6832,"Ġmyocarditis":6833,"Ġinitiatief":6834,"rochloorthiazide":6835,"igra":6836,"ĠMult":6837,"scande":6838,"bekende":6839,"Ġcatheter":6840,"Ġ%,":6841,"ĠCON":6842,"Ġfer":6843,"ĠPar":6844,"ĠNooit":6845,"Ġinspanningstest":6846,"Mob":6847,"EM":6848,"Impedantie":6849,"Ġhierna":6850,"Proxim":6851,"Ġwijzend":6852,"Ġkreat":6853,"melden":6854,"Ġbezigheden":6855,"Pols":6856,"Ġvoorkeur":6857,"ĠCo":6858,"aract":6859,"Ġbovenbuik":6860,"Ġmain":6861,"kweek":6862,"usus":6863,"Ġheart":6864,"Ġclinique":6865,"ĠSJM":6866,"Ġclass":6867,"Ġnvt":6868,"ĠKl":6869,"ĠNI":6870,"Ġsupraventriculaire":6871,"Ġlumb":6872,"ĠAfdeling":6873,"oma":6874,"oedeisende":6875,"ĠFys":6876,"Ġlaboratoriumonderzoek":6877,"Relevante":6878,"iri":6879,"III":6880,"ĠBel":6881,"Aandachtspunten":6882,"Ġzelfstandig":6883,"ĠDan":6884,"Ġplek":6885,"Stralingsdosis":6886,"ĠLaesie":6887,"ĠLymf":6888,"onse":6889,"urese":6890,"Ġzorgen":6891,"derom":6892,"mei":6893,"TR":6894,"ĠOrale":6895,"oude":6896,"Ġbelafspraak":6897,"ĠGeneeskundige":6898,"Ġpen":6899,"Ġtand":6900,"Ġvi":6901,"ĠUp":6902,"Ġpancreas":6903,"reversib":6904,"Ġplast":6905,"Ġsintrom":6906,"ĠCRTD":6907,"BD":6908,"ĠVASC":6909,"Ġoverigens":6910,"Ġprincip":6911,"ĠAct":6912,"Ġdinsdag":6913,"Ġhoudt":6914,"Ġvoorheen":6915,"Ġonderkwab":6916,"angrijk":6917,"wangersch":6918,"oes":6919,"ĠRisicoprofiel":6920,"Ġgenomen":6921,"acrog":6922,"Ġneem":6923,"roeg":6924,"Ġuter":6925,"Ġbestaan":6926,"Ġafspraken":6927,"Inlichtingsgesprek":6928,"Ġmoeite":6929,"Ġuitgevoerd":6930,"chef":6931,"Hij":6932,"Ġanterolateraal":6933,"Ġdynam":6934,"scintigram":6935,"Ġprincipe":6936,"dood":6937,"Paracetamol":6938,"Ġcirrose":6939,"Ġrood":6940,"Ġ(=":6941,"Ġlichaam":6942,"Ġgroe":6943,"ĠHartfalen":6944,"Ġins":6945,"Ġleverenzym":6946,"Ġstimulatie":6947,"aise":6948,"ood":6949,"Ġassist":6950,"Ġleeft":6951,"ĠnierinsufficiÃ«ntie":6952,"Ġnadere":6953,"imum":6954,"Ġspec":6955,"Perifeer":6956,"leeftijd":6957,"Ġnav":6958,"mon":6959,"Ġrookt":6960,"ragmin":6961,"hals":6962,"teb":6963,"occlude":6964,"Ġovergang":6965,"iance":6966,"ĠBilirubine":6967,"Ġspoortje":6968,"acrogol":6969,"Ġadvis":6970,"Ã«le":6971,"Ġhartritmestoornissen":6972,"ĠIntact":6973,"patient":6974,"Ġopgeroepen":6975,"antrum":6976,"snede":6977,"liggende":6978,"ecidi":6979,"spirine":6980,"superv":6981,"Ġpleurae":6982,"Ġsternum":6983,"Ġtrac":6984,"plerenon":6985,"ĠGering":6986,"Ġdisper":6987,"CHO":6988,"Ġpermanent":6989,"Ġlinkerhart":6990,"lichting":6991,"TV":6992,"appen":6993,"sters":6994,"Ġlongfunctie":6995,"ĠIVS":6996,"Ġapixaban":6997,"ĠCLS":6998,"Ġmonom":6999,"delen":7000,"Ġcholecystectomie":7001,"Ġsol":7002,"lucht":7003,"Ġoperateur":7004,"Ġstolling":7005,"Ġmeen":7006,"LL":7007,"Ġdouchen":7008,"medic":7009,"igraine":7010,"ĠRisicofactoren":7011,"Ġverkalkingen":7012,"ĠAmiodaron":7013,"Ġactief":7014,"elijst":7015,"ĠHM":7016,"ĠAut":7017,"Ġjet":7018,"ĠMedication":7019,"ĠOm":7020,"Ġbestaande":7021,"otisch":7022,"ĠVolg":7023,"Ġpassag":7024,"odig":7025,"Cardiaal":7026,"Locatie":7027,"gebonden":7028,"Ġsuggest":7029,"Ġoa":7030,"ĠDatum":7031,"ĠXT":7032,"Ġstol":7033,"Ġossale":7034,"minie":7035,"Ã¯dose":7036,"ary":7037,"ivaroxaban":7038,"Ġechografisch":7039,"weefsel":7040,"spro":7041,"Inspanning":7042,"Ġsuperior":7043,"Ġprothese":7044,"ĠEHH":7045,"Ġaangevraagd":7046,"Ġgebe":7047,"risico":7048,"Rechts":7049,"Ġverandering":7050,"Totaal":7051,"Ġcompressie":7052,"ĠProxim":7053,"Ġprogram":7054,"ĠNSVT":7055,"Atorvastatine":7056,"ĠHierna":7057,"Ġreanimatie":7058,"Studie":7059,"duct":7060,"ĠTM":7061,"anisatie":7062,"sverlies":7063,"Ġvoorgeschreven":7064,"inte":7065,"ĠDegen":7066,"spron":7067,"acc":7068,"Ġwaarden":7069,"Ġdispertablet":7070,"gevoel":7071,"cturen":7072,"Ġmultipele":7073,"CE":7074,"Ġdetails":7075,"ournaal":7076,"cardiaal":7077,"ĠGeschatte":7078,"enseerd":7079,"Ġselokeen":7080,"ĠReliance":7081,"Punctie":7082,"ĠVanwege":7083,"Verpleegkundige":7084,"ĠRecent":7085,"Ġstructuur":7086,"ateral":7087,"ated":7088,"Ġbegeleiding":7089,"Beeld":7090,"Ġgeleidings":7091,"ĠRIP":7092,"Ġaanvrager":7093,"Ġfemor":7094,"ĠWaarschijnlijk":7095,"Ġmeenemen":7096,"HCK":7097,"Ġvoel":7098,"Ġcriteria":7099,"Hartteam":7100,"ĠRechter":7101,"Ġmail":7102,"Ġingepland":7103,"viatie":7104,"ĠExpectatief":7105,"icard":7106,"regels":7107,"Ġopnames":7108,"ĠExt":7109,"Ġbewustzijn":7110,"entrum":7111,"Ġ||":7112,"Ġinstabiele":7113,"Ġnauwelijks":7114,"Ġslapen":7115,"onaat":7116,"pri":7117,"huld":7118,"ĠIr":7119,"Ġdrinken":7120,"ĠPri":7121,"Ġgestuurd":7122,"ĠLongen":7123,"Ġgevraagd":7124,"heeft":7125,"Ġvoorspelde":7126,"Ġfem":7127,"ĠDaarbij":7128,"zine":7129,"Ntg":7130,"Ġherhaal":7131,"Buik":7132,"Ġbein":7133,"Ġjicht":7134,"oortedatum":7135,"ĠHulp":7136,"Ġacc":7137,"ellicht":7138,"Ġvaker":7139,"Ġscherp":7140,"UK":7141,"Ġsigm":7142,"ĠmL":7143,"Inter":7144,"Ġonwel":7145,"ĠEnige":7146,"ĠDI":7147,"Ġmedicament":7148,"Ġbegonnen":7149,"neumonie":7150,"Ġorthostase":7151,"iter":7152,"aug":7153,"Ġdoorsnede":7154,"Ġos":7155,"stemming":7156,"ster":7157,"...":7158,"Ġhartdood":7159,"Ġfunctioneel":7160,"bio":7161,"metingen":7162,"Ġingescand":7163,"Ġafgevallen":7164,"chirurgie":7165,"type":7166,"Ġ*":7167,"ĠKNO":7168,"Ġdaling":7169,"diagnost":7170,"PC":7171,"ĠBeiderzijds":7172,"Ġparoxys":7173,"Cardioloog":7174,"Ġmalen":7175,"riax":7176,"ĠAanmeldformulier":7177,"?).":7178,"Ġangst":7179,"ellow":7180,"Ġjuist":7181,"wn":7182,"Simvastatine":7183,"illende":7184,"Ġklacht":7185,"ysie":7186,"GM":7187,"bewijs":7188,"verdikking":7189,"ĠRE":7190,"Ġaangeb":7191,"aking":7192,"Ġbige":7193,"QTc":7194,"Ġsusp":7195,"ĠmitralisklepinsufficiÃ«ntie":7196,"Ġterugverwezen":7197,"Ġvoltage":7198,"lok":7199,"ĠLangwerkend":7200,"acer":7201,"arcering":7202,"vloeden":7203,"Ġveranderd":7204,"Ġhersteld":7205,"dus":7206,"richtlijn":7207,"laag":7208,"riaxon":7209,"Ġeetlust":7210,"ĠDecompensatio":7211,"Pra":7212,"Ġserienummer":7213,"Ġverhogen":7214,"Ġsustained":7215,"Ġrelatief":7216,"Ġstadium":7217,"uig":7218,"Ġmeegegeven":7219,"iferol":7220,"ĠTriglyceriden":7221,"antwoordelijke":7222,"Ġelevatie":7223,"Ġdiam":7224,"epis":7225,"Ġdrukkend":7226,"Ġvoorwaarden":7227,"Ġgerelateerd":7228,"ĠFysicon":7229,"ĠSpO":7230,"Ġmobilis":7231,"Ġaand":7232,"vasculaire":7233,"ĠaortaklepinsufficiÃ«ntie":7234,"ho":7235,"Ġvervolgens":7236,"Ġgecalcificeerde":7237,"Ġovermatige":7238,"Ġsteun":7239,"Rookt":7240,"ularis":7241,"MOD":7242,"Verantwoordelijke":7243,"remmer":7244,"knoop":7245,"Ġinstantie":7246,"gif":7247,"Ġaneurysmat":7248,"Ġervaart":7249,"ĊĊĊĊĊĊ":7250,"Ġ--":7251,"Ġonregelmatig":7252,"Ġgeobjectiveerd":7253,"Ġmalaise":7254,"chronie":7255,"ĠSAM":7256,"nem":7257,"itiv":7258,"Ġrestenose":7259,"Meervatslijden":7260,"Ġrecon":7261,"Ġ%:":7262,"Ġaanw":7263,"Ġnodus":7264,"ĠVolgende":7265,"Ġgeocclude":7266,"Rem":7267,"Ġhypertrofisch":7268,"Ġbeperkingen":7269,"Ġafwachten":7270,"itroglycerine":7271,"ĠAZ":7272,"ongembolie":7273,"CS":7274,"Ġwant":7275,"Ġmond":7276,"Verwijzend":7277,"ĠDef":7278,"waardes":7279,"orig":7280,"Ġwoensdag":7281,"mummer":7282,"Ġleg":7283,"pleegkunde":7284,"Telefoonmummer":7285,"tijdig":7286,"instelling":7287,"Ġhemodynamisch":7288,"zakelijk":7289,"Druk":7290,"Anest":7291,"Ġaritmie":7292,"ecalciferol":7293,"ĠBÃ¨tablokker":7294,"dnisolon":7295,"Ġtevreden":7296,"Ġvir":7297,"Ġopstaan":7298,"rolyten":7299,"ĠSy":7300,"het":7301,"ĠBloed":7302,"Ġleeftijds":7303,"LVH":7304,"portaal":7305,"Ġcortonen":7306,"Ġatorvastatine":7307,"Ġlymfeklieren":7308,"inking":7309,"Ġhypothyre":7310,"Patiente":7311,"Ġrisc":7312,"Ġorigine":7313,"Ġgla":7314,"Ġbezwaar":7315,"Ġverna":7316,"Ġbumetanide":7317,"Ġprikken":7318,"Ġcreat":7319,"ĠNOAC":7320,"NHR":7321,"femoralis":7322,"ĠTen":7323,"ĠHalsvenen":7324,"ĠBSN":7325,"asme":7326,"Ġile":7327,"Ġlijken":7328,"Ġexp":7329,"Ġgeoper":7330,"diast":7331,"Ġq":7332,"Ġtermin":7333,"ĠFors":7334,"Ġsarcoidose":7335,"Ġdevic":7336,"Ġopening":7337,"eth":7338,"ĠHeden":7339,"ĠChol":7340,"Zwangersch":7341,"opath":7342,"PW":7343,"kweken":7344,"rogra":7345,"old":7346,"Ġ%.":7347,"lage":7348,"Ġontwateren":7349,"aritmie":7350,"figuur":7351,"activiteit":7352,"Ġtweemaal":7353,"Ġbeoordeeld":7354,"Ġregelgeving":7355,"Ġautomatisch":7356,"ads":7357,"IR":7358,"ĠDC":7359,"acerb":7360,"erosol":7361,"insufficintie":7362,"Ġbiventriculaire":7363,"Ġperi":7364,"pping":7365,"zekerings":7366,"lateraal":7367,"Klachten":7368,"uncus":7369,"ain":7370,"ĠINRs":7371,"ĠAOI":7372,"Ġbre":7373,"male":7374,"Ġpartner":7375,"eluting":7376,"Ġox":7377,"centrum":7378,"erius":7379,"Ġdieet":7380,"Ġarmen":7381,"ĠmGy":7382,"VL":7383,"Ġgeleidingsstoornissen":7384,"Ġnierfunctiestoornissen":7385,"Ġbreed":7386,"Ġamp":7387,"ĠNieuw":7388,"Ġgrie":7389,"Ġkauw":7390,"Bloeding":7391,"mbol":7392,"Ġrij":7393,"Ġslijm":7394,"Ġbeinvloeden":7395,"Ġnycturie":7396,"Ġleverenzymafwijkingen":7397,"Gedilateerde":7398,"Ġaerosol":7399,"kens":7400,"Ġleverziekte":7401,"MCH":7402,"aged":7403,"Ġkijken":7404,"Ġreversibele":7405,"Ġleft":7406,"Ġhiermee":7407,"Ġindex":7408,"ĠFamilie":7409,"offie":7410,"toe":7411,"Voelt":7412,"Vol":7413,"Ġkenmerken":7414,"ĠBP":7415,"doving":7416,"Ġtpv":7417,"Ġdrempel":7418,"Ġgalblaas":7419,"xtirpatie":7420,"syn":7421,"ĠRIMA":7422,"Desc":7423,"Ġvergeleken":7424,"He":7425,"Ġchron":7426,"Ġmgl":7427,"stolie":7428,"Ġexcentrische":7429,"ĠVER":7430,"Ġbenigne":7431,"minderde":7432,"celcarcinoom":7433,"prob":7434,"neur":7435,"Ġgang":7436,"Ġfunctioneren":7437,"Calcific":7438,"ĠASA":7439,"quentie":7440,"oral":7441,"ureus":7442,"Bent":7443,"Ġvanochtend":7444,"Ġjaarlijk":7445,"Ġgevolgd":7446,"stri":7447,"ptuur":7448,"Ġbio":7449,"lash":7450,"ingsbeeld":7451,"Ġriscofactoren":7452,"Overmatig":7453,"ĠGlobaal":7454,"XXXX":7455,"durig":7456,"Ġonderstaande":7457,"ĠProgressie":7458,"Ġspond":7459,"Ġgekomen":7460,"CLU":7461,"Ġpr":7462,"Atria":7463,"Ġinflow":7464,"Ġgeopereerd":7465,"iose":7466,"ĠTCH":7467,"Ġbeve":7468,"chol":7469,"Ġdocument":7470,"ĠAnamnestisch":7471,"ibrillatie":7472,"Ġmedicatielijst":7473,"oping":7474,"Ġprofylaxe":7475,"zetim":7476,"ephal":7477,"Ġgevoeld":7478,"otte":7479,"ites":7480,"parine":7481,"vats":7482,"inkt":7483,"ĠElect":7484,"MVL":7485,"ĠFietsergometrie":7486,"Ġleeftijdsgroep":7487,"ĠTH":7488,"stress":7489,"years":7490,"Ġvolledige":7491,"Labiele":7492,"Ġwit":7493,"Ġwarme":7494,"inueerd":7495,"uurt":7496,"Ġresponse":7497,"Ġverkl":7498,"ĠGLS":7499,"eftriaxon":7500,"Ġerger":7501,"Ġuurs":7502,"Ġseptale":7503,"veneuze":7504,"Ġminuut":7505,"ernia":7506,"indicaties":7507,"MART":7508,"Control":7509,"ENOSINE":7510,"Ġinfiltratie":7511,"Ġupgrade":7512,"Sens":7513,"ĠEl":7514,"Ġverschillende":7515,"Gelijk":7516,"ĠÃ©Ã©n":7517,"Ġeenmaal":7518,"Ġsamengesteld":7519,"ĠCaps":7520,"Ġinterm":7521,"ower":7522,"ĠDist":7523,"Ġticagrelor":7524,"Ġcan":7525,"Zwangerschaps":7526,"links":7527,"specifieke":7528,"ĠNID":7529,"ĠRichtlijnen":7530,"Ġsnell":7531,"Ġgecontinueerd":7532,"blij":7533,"elaar":7534,"Ġinvullen":7535,"Gelijktijdig":7536,"erop":7537,"Ġrout":7538,"Ġfactor":7539,"Ġrelevant":7540,"plaat":7541,"Ġherhaling":7542,"icontrole":7543,"Secretariaat":7544,"blanco":7545,"inaal":7546,"ilatie":7547,"Ġcongen":7548,"vasculair":7549,"Ġgericht":7550,"Ġschoon":7551,"ĠBSA":7552,"Ġobstructief":7553,"Ġartsen":7554,"arterie":7555,"Ġmitraal":7556,"ĠOrganisatie":7557,"Ana":7558,"Ġmogelijkheid":7559,"Ġbelaste":7560,"ĠRoken":7561,"Ġstapeling":7562,"Geboortedatum":7563,"Tijdstip":7564,"benen":7565,"Belafspraak":7566,"Ġverstuurd":7567,"Scan":7568,"ĠKleine":7569,"Amiodaron":7570,"ĠArts":7571,"istel":7572,"Ġmbt":7573,"septaal":7574,"Ġretro":7575,"ĠAanvrager":7576,"CLUSIE":7577,"Ġalert":7578,"Ġleef":7579,"ĠCapsure":7580,"Ġlinkerb":7581,"Ġidee":7582,"Bloedchemie":7583,"Ġverwijde":7584,"Ġlinkerhartoor":7585,"ĠCalcium":7586,"ĠPS":7587,"Ġinfarcering":7588,"ĠDF":7589,"status":7590,"lecaÃ¯n":7591,"ĠStabiel":7592,"Ġkleppen":7593,"iepen":7594,"Ġstentplaatsing":7595,"zes":7596,"diastin":7597,"Ġsuperius":7598,"Ġserie":7599,"Ġtbv":7600,"Ġapp":7601,"ĠAIOS":7602,"Ġlo":7603,"Ġgaf":7604,"ircumflex":7605,"sub":7606,"uidant":7607,"ĠStent":7608,"ĠBericht":7609,"ription":7610,"Ġabces":7611,"odelijst":7612,"Ġtijde":7613,"lecaÃ¯nide":7614,"dar":7615,"ĊĠĊ":7616,"blad":7617,"izame":7618,"CHD":7619,"Ġactiviteiten":7620,"Ġhev":7621,"Ġgezet":7622,"Ġzat":7623,"EFO":7624,"Ġplas":7625,"ielen":7626,"duc":7627,"ĠSI":7628,"Verwijzing":7629,"Ġsporadisch":7630,"Ġfiets":7631,"gaat":7632,"Ġgerustgesteld":7633,"Carbasalaatcalcium":7634,"kers":7635,"spital":7636,"Ġverloop":7637,"itter":7638,"Ġallerg":7639,"neuropathie":7640,"Ġtechn":7641,"utum":7642,"nie":7643,"regelmatige":7644,"Leef":7645,"Graag":7646,"Ġconfiguratie":7647,"egistreerd":7648,"Amlodipine":7649,"opor":7650,"PG":7651,"Verpleegkunde":7652,"Ġvpk":7653,"Ġontsteking":7654,"rode":7655,"Ġdaarvoor":7656,"klist":7657,"Ġnoodzakelijk":7658,"ĠTambocor":7659,"Hemat":7660,"Ġomgezet":7661,"Ġzachte":7662,"Ġmodi":7663,"ĠVesiculair":7664,"Ġgelaten":7665,"Ġdrukken":7666,"medicamenteus":7667,"Ġdikke":7668,"ilet":7669,"Ġkracht":7670,"ocrin":7671,"inspanning":7672,"Ġwederom":7673,"ĠChronische":7674,"Ġgehoor":7675,"dossier":7676,"ĠNovus":7677,"agement":7678,"Ġthorac":7679,"Ġdyspnoeisch":7680,"Tel":7681,"oralis":7682,"xeerd":7683,"etting":7684,"Ġbeta":7685,"oÃ¯die":7686,"verwijzing":7687,"Ġamylo":7688,"Ġingen":7689,"Ġgesp":7690,"Ġbioprothese":7691,"adv":7692,"Ġacra":7693,"ephalica":7694,"@[":7695,"ĠHoofd":7696,"etal":7697,"ĠFurosemide":7698,"luoroscop":7699,"ĠClopidogrel":7700,"Ġback":7701,"Ġ{\\":7702,"Ġvallen":7703,"omein":7704,"Ġregist":7705,"Ġren":7706,"zijde":7707,"]):[":7708,"Ġbetre":7709,"Ġcommun":7710,"ĠAN":7711,"plo":7712,"ĠVerwijzing":7713,"DC":7714,"Ġug":7715,"ensiteit":7716,"ignificante":7717,"ĠMan":7718,"EA":7719,"Ġvoorlopig":7720,"Ġthoracaal":7721,"Ġpropofol":7722,"ĠFT":7723,"Ġverlengd":7724,"Ġaanval":7725,"Ġaccept":7726,"Ġmonomorfe":7727,"ĠGeregistreerd":7728,"Ġaangetast":7729,"Ġhinderlijke":7730,"Ġport":7731,"Ġmetastasen":7732,"luoroscopy":7733,"Ġgestoorde":7734,"ĠEosin":7735,"izaam":7736,"ĊĠĠĠ":7737,"Catheter":7738,"ition":7739,"Onge":7740,"hyre":7741,"TH":7742,"ĠRes":7743,"Ġinspann":7744,"ĠONT":7745,"Ġsecond":7746,"....":7747,"ystolische":7748,"ervisie":7749,"cent":7750,"amide":7751,"Ġdiverticul":7752,"Ġpan":7753,"Ġbereiken":7754,"Ġovergewicht":7755,"Ġmictie":7756,"Ġrand":7757,"Ġelektrofysiologie":7758,"Ġhi":7759,"Ġweke":7760,"ĠFiet":7761,"diging":7762,"plat":7763,"Ġvd":7764,"ĠNEE":7765,"mmetrisch":7766,"wijzingen":7767,"Ġpiek":7768,"Ġgeble":7769,"slocatie":7770,"ĠLymfocyten":7771,"ave":7772,"Ġbraken":7773,"rent":7774,"omenteel":7775,"Ġobservatie":7776,"veneens":7777,"RES":7778,"Ġdubie":7779,"itivity":7780,"ĠLever":7781,"Ġpatch":7782,"oegd":7783,"episodelijst":7784,"Ġdobutamine":7785,"acerbatie":7786,"Ġopties":7787,"Ġcat":7788,"Ġlukt":7789,"Ġterecht":7790,"Ġroutine":7791,"Ġdoorgankelijk":7792,"Ġinsuline":7793,"DG":7794,"systeem":7795,"Ġingenomen":7796,"bew":7797,"afhankelijke":7798,"Ġformulier":7799,"afhankelijk":7800,"Ġkuur":7801,"Ġduring":7802,"Ġvroeg":7803,"Ġfunctionele":7804,"Ġuitvo":7805,"zt":7806,"Ġnoduli":7807,"Ġlinkerkamerfunctie":7808,"Ġaanpassen":7809,"ĠVent":7810,"mall":7811,"Specialist":7812,"wijf":7813,"entan":7814,"Ġtransp":7815,"Maximum":7816,"Ġcardiologiedossier":7817,"Ġfam":7818,"Kalkscore":7819,"dc":7820,"liggen":7821,"Ġureum":7822,"traging":7823,"Anti":7824,"Ġnitro":7825,"Ġfase":7826,"AllergieÃ«n":7827,"ĠSure":7828,"formatie":7829,"iat":7830,"abetische":7831,"ĠGeri":7832,"Min":7833,"Daar":7834,"Ġdicht":7835,"Ġtraplopen":7836,"ĠOvermatige":7837,"idine":7838,"ipol":7839,"Ġvoortgeleiding":7840,"plex":7841,"oxin":7842,"gevoegd":7843,"ĠEerder":7844,"reekuur":7845,"ĠVmax":7846,"Ġzag":7847,"sproble":7848,"Ġtypisch":7849,"spiratie":7850,"ĠMonocyten":7851,"Ġgister":7852,"clu":7853,"urin":7854,"Tevens":7855,"Prograft":7856,"Ġkwam":7857,"Ġkram":7858,"Ġverdoving":7859,"Ġverwijzers":7860,"arenchym":7861,"aliseren":7862,"Bi":7863,"Sheath":7864,"ĠARV":7865,"sustained":7866,"Ġconsolidatie":7867,"lator":7868,"car":7869,"Ġejectie":7870,"Ġaanleiding":7871,"Ġmammacarcinoom":7872,"Ġhol":7873,"Spreekuur":7874,"Cholesterol":7875,"ĠElektrofysiologie":7876,"Ġverwijzersnummer":7877,"ĠOnt":7878,"Ġextrasystolie":7879,"Ġfe":7880,"ĠEchografisch":7881,"eus":7882,"Ġhartafwijking":7883,"alsartan":7884,"ortaklep":7885,"Ġonbekende":7886,"vankelijk":7887,"Puls":7888,"valsbe":7889,"mede":7890,"ĠBur":7891,"Ġtruncus":7892,"Ġtambocor":7893,"Ġdiffuse":7894,"juni":7895,"Ġstof":7896,"uizeligheid":7897,"ĠMDO":7898,"TS":7899,"Ġoptim":7900,"darm":7901,"Ġinstellingen":7902,"agnesium":7903,"uleerde":7904,"ĠAfwijk":7905,"Ġverwacht":7906,"zins":7907,"Ġpak":7908,"Eerdere":7909,"odule":7910,".|[":7911,"varoxaban":7912,"Ġzware":7913,"Aangemeld":7914,"Ġtachycardi":7915,"Ġgl":7916,"plaatst":7917,"Ġafgrensbare":7918,"Ġ+/":7919,"dering":7920,"Ġprofylactische":7921,"Ġgegenereerd":7922,"Ġmiddag":7923,"Trombo":7924,"[[":7925,"ĠLaboratoriumuitslagen":7926,"Ġspecieel":7927,"Ġchirurgische":7928,"umatische":7929,"ĠDevice":7930,"tachycardie":7931,"Ġdes":7932,"ĠOverig":7933,"ĠgradiÃ«nt":7934,"Ġtoege":7935,"rat":7936,"Ġrep":7937,"overig":7938,"foto":7939,"Ġdenkt":7940,"aritmica":7941,"ovid":7942,"IU":7943,"Ġaard":7944,"ĠĊĊĊĊ":7945,"Ġrem":7946,"ĠGebruikt":7947,"Ġoverlijden":7948,"Ġhogere":7949,"ipiden":7950,"Ġbelastbaarheid":7951,"Zijde":7952,"Wond":7953,"Ġelektrofysiologisch":7954,"Ġplaatsvinden":7955,"Ġiedere":7956,"Ġfysie":7957,"Left":7958,"ĠWas":7959,"Ġdrank":7960,"Ġneuro":7961,"Wilt":7962,"Ġpo":7963,"trans":7964,"ĠtachycardieÃ«n":7965,"rang":7966,"ecidiverende":7967,"ailure":7968,"Ġinjvlst":7969,"Ġdrainage":7970,"ĠMamm":7971,"Ġfit":7972,"Ġmateriaal":7973,"syndroom":7974,"ĠOverleg":7975,"Ġescap":7976,"ĠVerhoogde":7977,"Ġafwezigheid":7978,"Ġpolibezoek":7979,"ĠLAA":7980,"Ġenergie":7981,"Ġoorspron":7982,"Ġinterst":7983,"ruppels":7984,"fiel":7985,"Ġvond":7986,"Ġtoon":7987,"Ġtelefoonnummer":7988,"Ġnarc":7989,"ograf":7990,"gevoerde":7991,"agina":7992,"ĠEBU":7993,"deviaties":7994,"elingen":7995,"Staged":7996,"Ġcorfiguur":7997,"jection":7998,"Ġdood":7999,"ĠBep":8000,"Ġmyoview":8001,"Ha":8002,"Ġcost":8003,"osine":8004,"tendeels":8005,"parenchym":8006,"osorbide":8007,"Ġhervatten":8008,"uGym":8009,"Ġtoenemende":8010,"VO":8011,"Ġsymptomen":8012,"Ġvoelde":8013,"Ġoverweeg":8014,"iche":8015,"ĠEDI":8016,"ward":8017,"Ġmarg":8018,"Ġingesteld":8019,"ĠNeut":8020,"itamine":8021,"ĠSG":8022,"Ġamplitude":8023,"Ġflu":8024,"Ġzon":8025,"umb":8026,"Ġinspannen":8027,"essel":8028,"Ang":8029,"ĠPle":8030,"ixed":8031,"Ġabdominalis":8032,"Ġnp":8033,"Ġerbij":8034,"Ġcontractiliteit":8035,"eropost":8036,"ĠLichamelijk":8037,"ĠPAP":8038,"EL":8039,"Hartslag":8040,"Ġechtgenoot":8041,"Ġepicardiale":8042,"ĠArteriÃ«le":8043,"Ġscintigram":8044,"Ġinfero":8045,"ĠAZN":8046,"durige":8047,"Ġuitle":8048,"Ġdiagnostisch":8049,"AB":8050,"Ox":8051,"Ġ(+)":8052,"Ġhoor":8053,"Ġbev":8054,"Stud":8055,"Ġmediale":8056,"Ġpulmonalisklep":8057,"product":8058,"Ġdiastolisch":8059,"fasc":8060,"Ġjonge":8061,"Ġaanleg":8062,"Ġingevuld":8063,"radine":8064,"Ġmedicijn":8065,"ĠKlein":8066,"Ġslanke":8067,"ĠcLVH":8068,"Ġimpon":8069,"Ġmedicamenteuze":8070,"Ġsinusbradycardie":8071,"Dec":8072,"ĠCHADSVASC":8073,"Ġoverdag":8074,"vul":8075,"Recent":8076,"Ġvitamine":8077,"Ġcine":8078,"corrige":8079,"biopt":8080,"spiegel":8081,"egalie":8082,"otrope":8083,"cement":8084,"Ġverschijnselen":8085,"Ġdem":8086,"Ġprote":8087,"Ġvoorkomen":8088,"Ġinnemen":8089,"ĠPat":8090,"ozen":8091,"PatiÃ«ntnummer":8092,"Ġ-),":8093,"FA":8094,"aalde":8095,"Ġregio":8096,"ĠTc":8097,"abil":8098,"Ġinterna":8099,"Toegangslocatie":8100,"Ġintolerantie":8101,"ĠLoopt":8102,"Ġlangdurig":8103,"orbiditeit":8104,"Ġvle":8105,"juli":8106,"Ġcognitieve":8107,"conform":8108,"Ġkra":8109,"Ġverslechter":8110,"Ġlact":8111,"ĠDiast":8112,"Ġonwaarschijnlijk":8113,"Ġlangere":8114,"FE":8115,"diastolische":8116,"rection":8117,"Ġonderliggende":8118,"Ġmillimeter":8119,"az":8120,"abradine":8121,"Ġkil":8122,"osuvastatine":8123,"Ġgenetisch":8124,"Ġklier":8125,"laesies":8126,"ZO":8127,"Bericht":8128,"BK":8129,"Ġnefroloog":8130,"Ġhoger":8131,"ĠVA":8132,"resectie":8133,"algie":8134,"Ġpremat":8135,"Ġgewoon":8136,"Ġdak":8137,"Ġkeren":8138,"ĠHad":8139,"ovag":8140,"Ġatelectase":8141,"Ġgeluxeerd":8142,"Ġcerv":8143,"Ġechoven":8144,"EK":8145,"Ġaberr":8146,"Ġhist":8147,"Ġcell":8148,"igt":8149,"Besproken":8150,"ĠToen":8151,"BSE":8152,"Ġtip":8153,"Ġovergenomen":8154,"ĠIg":8155,"sinusritme":8156,"HO":8157,"Ġbetrokkenheid":8158,"Closure":8159,"Ġsuspect":8160,"Ġbehoe":8161,"ĠDE":8162,"Ġontst":8163,"Ġbloedbeeld":8164,"Ġcardiologische":8165,"Ġnek":8166,"ci":8167,"Ġwrs":8168,"Ġmitraalklep":8169,"tromb":8170,"thuis":8171,"Ġretrogra":8172,"Ġartsenbezoek":8173,"Ġnucleair":8174,"Ġbovenste":8175,"ring":8176,"Ġdyspno":8177,"enter":8178,"Ġontstaat":8179,"Ġinferopost":8180,"Ġepisoden":8181,"Ġdroog":8182,"Ġtrombosedienst":8183,"inopathie":8184,"uff":8185,"Ġrh":8186,"teparine":8187,"Ġdezelfde":8188,"ĠVrij":8189,"ktijk":8190,"Tacro":8191,"ĠKort":8192,"ella":8193,"Ġabsol":8194,"ĠIntermedi":8195,"etentie":8196,"Bekende":8197,"Ġadviezen":8198,"daat":8199,"RF":8200,"Ġinjection":8201,"Sport":8202,"Ġmat":8203,"pulm":8204,"red":8205,"ventilatie":8206,"Complic":8207,"Ġbeginn":8208,"ardiaal":8209,"Morgen":8210,"Description":8211,"asieve":8212,"Ġinternat":8213,"behandelaar":8214,"laden":8215,"Ġstolsel":8216,"Ġaansluitend":8217,"Controlateral":8218,"Ġwandbewegingen":8219,"ĠUWI":8220,"IEF":8221,"ĠADENOSINE":8222,"Ġvanavond":8223,"stipatie":8224,"Ġplavix":8225,"Ġsuppletie":8226,"ocker":8227,"Previous":8228,"letsel":8229,"ative":8230,"Ġtrauma":8231,"Ġouder":8232,"derland":8233,"oporose":8234,"lamm":8235,"Uitgevoerde":8236,"ematologie":8237,"Ġdaarnaast":8238,"Ġlocale":8239,"ypercholesterolaemie":8240,"Ġpunten":8241,"eenh":8242,"ĠNon":8243,"tot":8244,"Ġfunctioneert":8245,"Ġvoorbereiden":8246,"ĠMeest":8247,"Ġfibrose":8248,"Sensitivity":8249,"Ġemf":8250,"sor":8251,"Ġgeconst":8252,"gebeld":8253,"illair":8254,"afel":8255,"ĠHART":8256,"yseem":8257,"uravocht":8258,"persoon":8259,"ĠErnstig":8260,"wor":8261,"Ġbigeminie":8262,"ococ":8263,"tie":8264,"BBB":8265,"Ġstroomgebied":8266,"Ġdiep":8267,"verend":8268,"Ġberust":8269,"oge":8270,"vm":8271,"usen":8272,"istofscreening":8273,"Ġoutput":8274,"Ġwkn":8275,"Ġgebleven":8276,"Ġinterval":8277,"Ġspierpijn":8278,"Ġkoude":8279,"ĠWordt":8280,"Aorta":8281,"ĠMET":8282,"Ġaangezien":8283,"Ġuren":8284,"Ġpulm":8285,"ĠATPdc":8286,"mnd":8287,"ĠVia":8288,"Ġwerken":8289,"Punctieplaats":8290,"ĠAlleen":8291,"remm":8292,"Ġonregelmatige":8293,"Fluoroscopy":8294,"ĠNIDM":8295,"Ġ%;":8296,"ĠRVP":8297,"Sinus":8298,"ekenen":8299,"Ġverdikte":8300,"roer":8301,"genees":8302,"Divisie":8303,"Ġretard":8304,"Ġga":8305,"Ġopvragen":8306,"Ġaandachts":8307,"Journaal":8308,"ĠEGM":8309,"Ġoplopen":8310,"Ġaortaboog":8311,"abele":8312,"udic":8313,"Ġaa":8314,"idere":8315,"emi":8316,"elend":8317,"edeem":8318,"Ġascites":8319,"functies":8320,"seud":8321,"artefacten":8322,"Ġvier":8323,"Ġinfiltratieve":8324,"Ġntb":8325,"Ġsneller":8326,"aorta":8327,"angrijke":8328,"Ġrivaroxaban":8329,"abloeding":8330,"Ġrespiratoire":8331,"thm":8332,"omegalie":8333,"ĠOngewijzigde":8334,"zi":8335,"Ġsoc":8336,"ĠSlechte":8337,"rek":8338,"Ġplatliggen":8339,"jor":8340,"Ġvanmiddag":8341,"Ġlie":8342,"Ġsaturatie":8343,"probeerd":8344,"Leukocyten":8345,"ĠPulmonaal":8346,"ĠVader":8347,"lijft":8348,"Ġopp":8349,"Ġzakt":8350,"oppl":8351,"Ġextremiteiten":8352,"Ġmoeizaam":8353,"Ġpch":8354,"Ġdienstdoende":8355,"ymp":8356,"Ġlumen":8357,"ophag":8358,"ĠFer":8359,"ĠBMI":8360,"MM":8361,"Ġtransm":8362,"vd":8363,"ĠDiffuus":8364,"zinking":8365,"Ġtrappen":8366,"kloppingen":8367,"ĠKlaring":8368,"]+[":8369,"veld":8370,"Ġuitste":8371,"Ġparavalvulaire":8372,"Ġhalsvenen":8373,"ĠTwee":8374,"ĠEerste":8375,"ĠsarcoÃ¯dose":8376,"](":8377,"Ġonver":8378,"Vervolg":8379,"kkig":8380,"direction":8381,"Ġherhaald":8382,"ISCH":8383,"sproef":8384,"ĠStress":8385,"reen":8386,"Ġsep":8387,"echter":8388,"RAZ":8389,"ices":8390,"geruisen":8391,"Ġondersteun":8392,"opten":8393,"ulitis":8394,"Ġstam":8395,"Ġopget":8396,"Ġopdracht":8397,"ĠDVT":8398,"ĠVerapamil":8399,"Ġabdominale":8400,"Ġ+[":8401,"Ġverkalkt":8402,"Ġimpedantie":8403,"**":8404,"ĠEZ":8405,"vormige":8406,"undeltakblok":8407,"inetisch":8408,"alleen":8409,"Ciclo":8410,"Ġlosartan":8411,"Ġbewegings":8412,"eprazol":8413,"Ġdysf":8414,"Ġbidirection":8415,"ĠThuismedicatie":8416,"Ġversn":8417,"Ġvoorgaande":8418,"Ġpauzes":8419,"Ġcoloscopie":8420,"ronik":8421,"Ġaandachtsgebieden":8422,"Ġpdr":8423,"Mode":8424,"imm":8425,"pra":8426,"Ġinc":8427,"Ġfun":8428,"stijl":8429,"spoed":8430,"Ġlymfeklier":8431,"elevatie":8432,"ĠRv":8433,"%[":8434,"Ġicm":8435,"ORM":8436,"asternaal":8437,"Ġzone":8438,"itatie":8439,"dys":8440,"ether":8441,"ĠMGA":8442,"Ġbeweging":8443,"Ġprofiel":8444,"chtingen":8445,"Ġirregulair":8446,"APT":8447,"Ġgebracht":8448,"Ġverdikking":8449,"ĠRadiologie":8450,"Ġanterieure":8451,"itone":8452,"order":8453,"Ġoesofag":8454,"mak":8455,"Ġpectoralis":8456,"ams":8457,"Ġfenprocoumon":8458,"Ġafgerond":8459,"entanyl":8460,"Ġstructuren":8461,"Ġcoarct":8462,"AVR":8463,"Ġpap":8464,"ĠFDG":8465,"sinds":8466,"Uw":8467,"iotronik":8468,"Ġgroei":8469,"Ġbegrij":8470,"Ġdoublet":8471,"voorbeeld":8472,"Ġhardlopen":8473,"rthop":8474,"QRS":8475,"Ġervaren":8476,"ĠHuis":8477,"Ġgeoccludeerd":8478,"Ġhelaas":8479,"Stop":8480,"ĠMeerdere":8481,"Ġdunne":8482,"metastase":8483,"ĠDag":8484,"Komt":8485,"Ġnab":8486,"oster":8487,"imulatiedrempel":8488,"Ġoverleggen":8489,"Ġjl":8490,"Ġvochtbeperking":8491,"ĠACI":8492,"Ġmapping":8493,"Ġmobiliseren":8494,"sequentie":8495,"Ġfailure":8496,"Vitale":8497,"mocard":8498,"Informed":8499,"ĠBIRADS":8500,"Ook":8501,"TM":8502,"Ġanom":8503,"Ġsputum":8504,"druppels":8505,"omvang":8506,"ĠHiervoor":8507,"Retour":8508,"stijds":8509,"SEN":8510,"Ġhersenen":8511,"Ġmevrouw":8512,"ĠLoh":8513,"Ġanatomy":8514,"Ġinstent":8515,"ostaal":8516,"dilateerd":8517,"adtijd":8518,"snel":8519,"ompensatie":8520,"laatste":8521,"ĠVisite":8522,"oscopische":8523,"olium":8524,"Ġgekozen":8525,"ĠERI":8526,"ĠARVC":8527,"aalt":8528,"Medic":8529,"Ġzorgproduct":8530,"ilep":8531,"hou":8532,"ĠToename":8533,"rium":8534,"Ġramus":8535,"esl":8536,"Andere":8537,"Ġtrache":8538,"uvol":8539,"Ġmeter":8540,"ĠZH":8541,"osen":8542,"Ġheldere":8543,"omm":8544,"pulmonale":8545,"Ġkwaliteit":8546,"ilepsie":8547,"Ġving":8548,"houdendheid":8549,"li":8550,"son":8551,"ritine":8552,"ular":8553,"stoename":8554,"Ġcomplicatie":8555,"Collaterals":8556,"Ġvullingsdrukken":8557,"Aberrant":8558,"ĠMoe":8559,"Reanimatie":8560,"oont":8561,"ochter":8562,"VG":8563,"Ġgesteld":8564,"minente":8565,"elfase":8566,"schema":8567,"oide":8568,"embolie":8569,"att":8570,"ĠTromb":8571,"ĠIH":8572,"Ġaangekomen":8573,"bectomie":8574,"ĠControles":8575,"achtig":8576,"Ġclassificatie":8577,"Nov":8578,"Hierbij":8579,"LDL":8580,"gn":8581,"oliumzuur":8582,"Ġingezet":8583,"Ġtoenemend":8584,"Ġmod":8585,"inatie":8586,"Ġflin":8587,"rax":8588,"ollen":8589,"yndroom":8590,"IDS":8591,"neiging":8592,"Ġbetrouwbare":8593,"ĠDilat":8594,"ae":8595,"INGS":8596,"CF":8597,"Ġaanbrengen":8598,"omeprazol":8599,"corbio":8600,"Ġlux":8601,"yspneu":8602,"Ġperforatie":8603,"Ġbovenkwab":8604,"Ġdrukpijnlijk":8605,"Ġostiaal":8606,"kinetisch":8607,"Functie":8608,"ofielen":8609,"Ġgeri":8610,"Ġvannacht":8611,"ĠScan":8612,"Leefregels":8613,"ĠAtria":8614,"Ġdabigatran":8615,"ĠQs":8616,"Ġbinnenkomst":8617,"Ġluchtweginfectie":8618,"Creat":8619,"IC":8620,"Ġyears":8621,"ĠAcuut":8622,"ĠSla":8623,"Complication":8624,"ĠOpt":8625,"erdag":8626,"oppler":8627,"Red":8628,"ĠDob":8629,"sthma":8630,"Omeprazol":8631,"Ġceftriaxon":8632,"ĠStopreden":8633,"Ġrejectie":8634,"Voorkeur":8635,"uidig":8636,"schien":8637,"Ġstrain":8638,"Ġafgezien":8639,"axt":8640,"Ġinspanningsgebonden":8641,"spier":8642,"ĠNevenbevindingen":8643,"Ontslagbericht":8644,"Ġhomograft":8645,"Ġeffusie":8646,"Ġtrend":8647,"Metformine":8648,"kozen":8649,"ĠOb":8650,"zing":8651,"Haematologie":8652,"Katheter":8653,"Proximal":8654,"TAVI":8655,"Ġgenezen":8656,"geld":8657,"Anaesthesie":8658,"hb":8659,"Goed":8660,"ĠlongembolieÃ«n":8661,"valsbevinding":8662,"Ġinade":8663,"ĠLijkt":8664,"Ġaortae":8665,"Ġaangegeven":8666,"Ġingescande":8667,"entry":8668,"Ġarrest":8669,"Ġatypisch":8670,"Circumflex":8671,"bron":8672,"Ġsubend":8673,"Ġikv":8674,"rint":8675,"Ġballondilatatie":8676,"Ġgeconstateerd":8677,"ĠSinus":8678,"usextirpatie":8679,"text":8680,"Globaal":8681,"Ġfluoroscopie":8682,"Ġintracran":8683,"ĠSept":8684,"ĠScore":8685,"ĠNeur":8686,"Ġdubbel":8687,"udicatio":8688,"Aspirine":8689,"waren":8690,"Ġmetformine":8691,"Ġinspiratie":8692,"opl":8693,"clop":8694,"ĠNaar":8695,"infect":8696,"afd":8697,"Ġwoont":8698,"VEN":8699,"ĠY":8700,"Ġmodificatie":8701,"onderkwab":8702,"ovic":8703,"athether":8704,"Parox":8705,"Ġwellicht":8706,"Mobiel":8707,"Ġassistent":8708,"Ġexams":8709,"Ġeveneens":8710,"ĠRDA":8711,"unctioneel":8712,"Ġvraagt":8713,"Succesvolle":8714,"Ġlijst":8715,"Ġopvallend":8716,"ĠRust":8717,"ĠAAA":8718,"Ġdyspnoeklachten":8719,"Ġfront":8720,"structies":8721,"ĠAtriale":8722,"Mede":8723,"beg":8724,"ropium":8725,"Kathether":8726,"geneeskunde":8727,"Ġwater":8728,"spectrum":8729,"bewaking":8730,"ĠNederland":8731,"Apixaban":8732,"illing":8733,"Ġdiurese":8734,"ĠVolgens":8735,"atenolol":8736,"Ġovereen":8737,"umab":8738,"ĠAlhier":8739,"ĠMob":8740,"Ġlapar":8741,"CHA":8742,"Hel":8743,"ĠSh":8744,"Ġbidirectioneel":8745,"Ġincl":8746,"Ġbijwerking":8747,"Ġgastroscopie":8748,"Ġmitraclip":8749,"besch":8750,"ĠCAPS":8751,"lavix":8752,"zone":8753,"DDR":8754,"bereiding":8755,"iforme":8756,"Ġalsnog":8757,"DE":8758,"Ġinfo":8759,"Ġvoorstel":8760,"Ġieder":8761,"nectie":8762,"Ġkm":8763,"Ġcircum":8764,"ĠVerpleeg":8765,"Res":8766,"Ġlangdurige":8767,"namelijk":8768,"Rust":8769,"ĠPersisterend":8770,"Ġtwijf":8771,"Ġinfuus":8772,"Ġpijnlijke":8773,"Ġaortaklepinsufficientie":8774,"Ġbeste":8775,"ĠHyper":8776,"wond":8777,"ĠZou":8778,"Ġslag":8779,"Operatie":8780,"Ġontwikkel":8781,"ĠSMART":8782,"Ġbehandelingen":8783,"Ġgift":8784,"Ġstuw":8785,"neg":8786,"Ġus":8787,"Ġpromocard":8788,"ĠIntra":8789,"Ġverklaren":8790,"Ġgalwegen":8791,"|-":8792,"ĠGeriatrie":8793,"Ġbinnenkort":8794,"ivm":8795,"rotische":8796,"Ġnoodzaak":8797,"Ġvariant":8798,"ĠPMVL":8799,"Ġgrac":8800,"wijsbrief":8801,"ĠEp":8802,"Ġgebeur":8803,"dert":8804,"ĠFlecainide":8805,"gl":8806,"ability":8807,"uceerde":8808,"drain":8809,"Ġpolyneuropathie":8810,"erapeut":8811,"Ġmerkt":8812,"spectief":8813,"Ġtoestemming":8814,"digd":8815,"utamine":8816,"ĠSup":8817,"KP":8818,"hg":8819,"Ġzelfde":8820,"ĠGebeld":8821,"requente":8822,"ateerde":8823,"ĠExcell":8824,"Zeer":8825,"Ġomhuld":8826,"binnen":8827,"Ġoverplaatsing":8828,"iatie":8829,"ĠMinimale":8830,"acrol":8831,"Ġiliaca":8832,"Ġdiafragmatica":8833,"rocardiografie":8834,"Ġ#":8835,":.":8836,"Ġgeprobeerd":8837,"ĠWilt":8838,"ĠIets":8839,"Ġaanwezige":8840,"sport":8841,"ves":8842,"):\\":8843,"Ġtuss":8844,"armen":8845,"dent":8846,"ĠDefin":8847,"otak":8848,"Nitroglycerine":8849,"Ġzin":8850,"Ġhetgeen":8851,"eerder":8852,"Ġovert":8853,"Ġ(<":8854,"Ġnabloeding":8855,"Arter":8856,"Ġws":8857,"dekt":8858,"able":8859,"Troponine":8860,"Ġjug":8861,"ĠExcellente":8862,"Ġjump":8863,"Ġconclusief":8864,"SD":8865,"quate":8866,"Ġelkaar":8867,"inding":8868,"Ġsindsdien":8869,"Ã¶ntgen":8870,"CRT":8871,"Ġaanpassing":8872,"gewricht":8873,"compenseerd":8874,"maar":8875,"osartan":8876,"Ġontslagbericht":8877,"iro":8878,"rogatie":8879,"Ġhartklep":8880,"Neoral":8881,"steen":8882,"Inplannen":8883,"ĠExtra":8884,"gesloten":8885,"cluder":8886,"Ġwest":8887,"bet":8888,"Hyd":8889,"Ġnamens":8890,"Ġcontinue":8891,"rocyt":8892,"Ġabsoluut":8893,"'[":8894,"omer":8895,"ĠSelokeen":8896,"Ġwattage":8897,"Ġdermat":8898,"ĠToegang":8899,"Ġverzending":8900,"gifte":8901,"'.":8902,"Ġmyocardiale":8903,"odon":8904,"ĠMVR":8905,"ĠImplantatie":8906,"Ġtoegevoegd":8907,"Ġtransmissie":8908,"Ġsigar":8909,"Ġonderbeen":8910,"VAR":8911,"supervisor":8912,"Hoofdstamstenose":8913,"Ġdefin":8914,"recept":8915,"ĠErg":8916,"osie":8917,"Ã¯ne":8918,"Ġanomalie":8919,"ĠSpoedeisende":8920,"hel":8921,"woor":8922,"ĠCre":8923,"atroon":8924,"ĠSpoortje":8925,"ĠScreening":8926,"dose":8927,"rofiele":8928,"ablok":8929,"ofarmac":8930,"Ġlymfoom":8931,"Module":8932,"rologie":8933,"centrisch":8934,"atitude":8935,"rim":8936,"ĠRVEF":8937,"iment":8938,"EMA":8939,"Ġaspir":8940,"WH":8941,"Ġexacerbatie":8942,"klinische":8943,"Ġvegetaties":8944,"Ġbad":8945,"Ġongewijzigde":8946,"Ġgeindiceerd":8947,"ĠKNUK":8948,"verm":8949,"rik":8950,"Ġzegt":8951,"Ġkoffie":8952,"Ġtint":8953,"det":8954,"Ġhooguit":8955,"Procedurevoorstel":8956,"Ġechovensters":8957,"gewrichten":8958,"Ġdiabetische":8959,"ĠPerifeer":8960,"Ġmrt":8961,"ensing":8962,"ĠSureScan":8963,"kla":8964,"checklist":8965,"Ġ+/-":8966,"maild":8967,"Matig":8968,"verkal":8969,"icro":8970,"Actueel":8971,"ount":8972,"Ġdotter":8973,"NSTEMI":8974,"sing":8975,"spreid":8976,"contin":8977,"icarb":8978,"otion":8979,"Ġcalc":8980,"oxicilline":8981,"Ġdrinkt":8982,"ĠLPA":8983,"ĠHals":8984,"acrolimus":8985,"Ġwijzigen":8986,"atoir":8987,"Ġanticoagulantia":8988,"hoofd":8989,"zouten":8990,"Ġeuvol":8991,"Ġverbreed":8992,"Ġirreversib":8993,"ĠFA":8994,"Ġflauw":8995,"ofarmacon":8996,"Car":8997,"Value":8998,"ĠNP":8999,"eerbaar":9000,"Ġontplo":9001,"Ġuitgel":9002,"Ġvisite":9003,"Ġdrupp":9004,"Kle":9005,"Ġdelier":9006,"Ġuiter":9007,"ilisatie":9008,"Ġother":9009,"Ġerosie":9010,"Cl":9011,"onaire":9012,"Ġrevascularisatie":9013,"angiogram":9014,"Anesthes":9015,"etwaardes":9016,"icot":9017,"ĠEndotak":9018,"ractie":9019,"Ġaanmelden":9020,"Ġgroter":9021,"ĠPacing":9022,"hyp":9023,"TP":9024,"ĠLead":9025,"ĠVerminderde":9026,"diend":9027,"------":9028,"ĠAcute":9029,"Ġradic":9030,"rekt":9031,"Ġparacetamol":9032,"Ġfamiliaire":9033,"Ġhigh":9034,"bespreking":9035,"ascore":9036,"PVAI":9037,"Ġgewichtstoename":9038,"Vis":9039,"ĠAMVL":9040,"ĠEH":9041,"Ġmobiel":9042,"ĠOAC":9043,"Ġmeege":9044,"ipl":9045,"ĠOnveranderd":9046,"ĠDruk":9047,"Domein":9048,"CON":9049,"Dhr":9050,"ĠWPW":9051,"ĠPOS":9052,"lobale":9053,"Ġbrengen":9054,"Ġmeestal":9055,"Adenosine":9056,"ĠTotale":9057,"imensie":9058,"ĠPatint":9059,"Ġplus":9060,"ĠOntslagchecklist":9061,"Ġduiden":9062,"sche":9063,"-.":9064,"ĠuGym":9065,"Ġslaapt":9066,"ĠDoet":9067,"reig":9068,"Ġvoorlopige":9069,"LR":9070,"BRIEF":9071,"Ġduizeligheidsklachten":9072,"Ġstellen":9073,"ĠOnbekend":9074,"ppendectomie":9075,"ĠGaarne":9076,"sum":9077,"allergie":9078,"ondag":9079,"))":9080,"ĠAntistofscreening":9081,"Ġlactaat":9082,"freq":9083,"PVI":9084,"Pt":9085,"Ġef":9086,"isf":9087,"tend":9088,"Ġpulmonaalvene":9089,"Ġinclusief":9090,"schrijven":9091,"ĠAfgelopen":9092,"Ġonrustig":9093,"ppm":9094,"ablokkade":9095,"Ġdeviatie":9096,"Ġemboliebron":9097,"ĠpatiÃ«nten":9098,"Daarna":9099,"Ġherkenbaar":9100,"urve":9101,"ycodon":9102,"Ġherstarten":9103,"Ġcircumsc":9104,"sug":9105,"andige":9106,"ffen":9107,"stoel":9108,"Ġvoltages":9109,"Ġafnemen":9110,"nod":9111,"Ġbezwaren":9112,"oek":9113,"Ġtong":9114,"gamma":9115,"axatie":9116,"ining":9117,"aryn":9118,"makoep":9119,"cyste":9120,"astro":9121,"Ġinfect":9122,"uctie":9123,"Ġneurologische":9124,"ĠMY":9125,"Ġdetectie":9126,"Ġtoppen":9127,"ovicolon":9128,"Ġinstroom":9129,"atomie":9130,"ĠAb":9131,"ĠSoep":9132,"Ġcarcinoom":9133,"Drukverband":9134,"uidelijke":9135,"Ġmil":9136,"Rap":9137,"Ġrestfunctie":9138,"Ġzodat":9139,"urinol":9140,"vari":9141,"ĠZorgvraag":9142,"LI":9143,"Ġbrady":9144,"umer":9145,"ĠMSR":9146,"Ġgeregistreerd":9147,"Ġvztb":9148,"ĠPericard":9149,"Ġdisfunctie":9150,"ĠTijd":9151,"ĠHCT":9152,"Ġeinddiastolische":9153,"Ġcarvedilol":9154,"ĠToegangstijd":9155,"darone":9156,"aph":9157,"Zorg":9158,"mL":9159,"Ġinferieure":9160,"teren":9161,"Wel":9162,"omst":9163,"Gescand":9164,"ĠĠĉĠ":9165,"Ġverslechtering":9166,"ĠUitgebreidere":9167,"ĠVerdere":9168,"ĠĠĉĊÂł":9169,"Ġcentraal":9170,"Ġovertuig":9171,"LVG":9172,"segmenten":9173,"Ġplastiek":9174,"Ġhartoor":9175,"Ġappendectomie":9176,"ografische":9177,"Ġheparine":9178,"oening":9179,"ĠBezinking":9180,"Ġgevuld":9181,"ĠFra":9182,"gelicht":9183,"stijging":9184,"Ġfistel":9185,"ĠCascore":9186,"Drempel":9187,"Ġvrije":9188,"Ġsoort":9189,"Ġontvang":9190,"Ġherseninfarct":9191,"older":9192,"crement":9193,"abiliteit":9194,"Ġingrepen":9195,"iwit":9196,"GEN":9197,"longarts":9198,"ĠIntermediaire":9199,"Predilatatie":9200,"ormulier":9201,"ĠGem":9202,"ransth":9203,"ĠVervolgens":9204,"rand":9205,"Ġ(-":9206,"Ġvasovag":9207,"Ġondersteuning":9208,"Impl":9209,"Charge":9210,"ĠÂ":9211,"lopurinol":9212,"zekeraar":9213,"ĠWandonregelmatigheden":9214,"Ġwijd":9215,"rsch":9216,"ISCHE":9217,"ĠMax":9218,"Ġtzt":9219,"Ġoogdruppels":9220,"ffende":9221,"ĠDegeneratieve":9222,"Ġinitieel":9223,"Ġdruppel":9224,"erium":9225,"HF":9226,"ocytaire":9227,"ĠTricuspide":9228,"Ġcreme":9229,"iazem":9230,"mail":9231,"Ġneen":9232,"Ġcoronairangiografie":9233,"Ġdoorgegeven":9234,"Ġgedacht":9235,"derdaad":9236,"ineel":9237,"randen":9238,"ysio":9239,"MK":9240,"Chol":9241,"Sintrom":9242,"Ġzonodig":9243,"ragmat":9244,"Ġtoegediend":9245,"MD":9246,"Ġklepbladen":9247,"Ernstige":9248,"voet":9249,"Ġgy":9250,"Iom":9251,"Ġhierover":9252,"Ġhemor":9253,"plaatsen":9254,"ĠCoronairlijden":9255,"uatie":9256,"mand":9257,"Ġuitgelegd":9258,"ĠPSA":9259,"Ġvoorzicht":9260,"unct":9261,"FUN":9262,"Ġherstelfase":9263,"ĠNIBD":9264,"icarbonaat":9265,"ensiva":9266,"ĠCath":9267,"ĠRD":9268,"emazepam":9269,"ĠPerindopril":9270,"Ġenzymen":9271,"Ġcommunis":9272,"Ġactie":9273,"ĠHD":9274,"ensch":9275,"ORAX":9276,"orige":9277,"Ġdementie":9278,"valueren":9279,"Ġslok":9280,"slaan":9281,"ĠCS":9282,"suvastatine":9283,"ĠBijzonderheden":9284,"Ġfamilieanamnese":9285,"Ġbacterie":9286,"ĠGest":9287,"ĠMyocardiaal":9288,"Ġstijgt":9289,"Ġverhoging":9290,"Ġrectaal":9291,"Ġdiffusie":9292,"itaire":9293,"non":9294,"vir":9295,"NO":9296,"ondentie":9297,"conclusief":9298,"Ġhypokinetisch":9299,"syst":9300,"emmer":9301,"gering":9302,"Ġinterventiecardioloog":9303,"Ġtu":9304,"Ġspl":9305,"Ġgecorrige":9306,"Ġwitte":9307,"Ġafvallen":9308,"Ġdiameters":9309,"ritmestoornissen":9310,"Ġgebieden":9311,"Ġexter":9312,"Neem":9313,"Ġkinder":9314,"Ġtoelichting":9315,"Ġmyel":9316,"vak":9317,"Ġalgemene":9318,"Ġcare":9319,"ĠOP":9320,"Ġvochtbalans":9321,"Ġrelaxatie":9322,"Ġhartlijden":9323,"Ġdiafragma":9324,"Ġtijdelijke":9325,"ĠConsent":9326,"ĠGuidant":9327,"hk":9328,"werking":9329,"Ġmel":9330,"hem":9331,"Ucorbio":9332,"Ġtherapeutisch":9333,"Ġzweten":9334,"Ġnadat":9335,"coronairen":9336,"Ġconsequentie":9337,"ĠOperatie":9338,"ĠBeg":9339,"paraat":9340,"ĠPalpitaties":9341,"locatie":9342,"afname":9343,"komt":9344,"Ġcolchicine":9345,"respondentie":9346,"ĠIHZ":9347,"Ã³":9348,"ramide":9349,"Ġbenader":9350,"volgt":9351,"clerotisch":9352,"ischarge":9353,"enteam":9354,"Ġwaarom":9355,"JS":9356,"chtgen":9357,"Ġdoorgaan":9358,"ĠCreat":9359,"iteindelijk":9360,"Ġbolus":9361,"Ġopgebouwd":9362,"Ġrisicofact":9363,"therapie":9364,"abdomen":9365,"Ġtachycardieen":9366,"Ġused":9367,"Ġcollateralen":9368,"ĠCentrale":9369,"agenoeg":9370,"Ġcephalica":9371,"Ġherbe":9372,"Ġvoorgaand":9373,"aria":9374,"Ġje":9375,"traject":9376,"Ġatenolol":9377,"Laatste":9378,"ĠAtriumflutter":9379,"Ġuitgelokt":9380,"Ġfir":9381,"]},":9382,"ifedipine":9383,"Collateralen":9384,"icotine":9385,"Ġoplos":9386,"Ġcris":9387,"ĠBBL":9388,"Ġforward":9389,"Behandelaar":9390,"iplin":9391,"Ġ-);":9392,"Ġsystol":9393,"ĠMaar":9394,"stor":9395,"Ġgly":9396,"Ġplaquevorming":9397,"Ġsubopt":9398,"veranderingen":9399,"Macrogol":9400,"Ġsigaretten":9401,"Ġnear":9402,"Ġasymptomatische":9403,"summed":9404,"Gekozen":9405,"Ġverlaagde":9406,"glas":9407,"ĠRisk":9408,"checkt":9409,"Ġgeregeld":9410,"ĠBurst":9411,"ZOEK":9412,"ĠMit":9413,"idisc":9414,"okriet":9415,"ĠgeÃ¯ndiceerd":9416,"Ġivabradine":9417,"Vocht":9418,"Ġplotseling":9419,"Waar":9420,"ĠtricuspidalisklepinsufficiÃ«ntie":9421,"ĠEZIS":9422,"stenen":9423,"schade":9424,"Ġzekerheid":9425,"pacing":9426,"Links":9427,"ĠLabwaarde":9428,"Ġvessel":9429,"Ġuitsluiten":9430,"CP":9431,"Ġmechanische":9432,"ĠMoeder":9433,"breed":9434,"deelcontact":9435,"penteam":9436,"ipolair":9437,"ĠHelder":9438,"ĠEN":9439,"zeem":9440,"wat":9441,"idisciplin":9442,"uran":9443,"oorza":9444,"Ġverlies":9445,"Ġoptreden":9446,"Ġverkla":9447,"DERZOEK":9448,"Ġhoorbaar":9449,"Ġph":9450,"Ġlongbeeld":9451,"Ġnr":9452,"ora":9453,"Ġcollaterale":9454,"naar":9455,"didaat":9456,"ĠMen":9457,"Ġbloedverdunn":9458,"Ġdown":9459,"omschrijving":9460,"ĊĊĊĊĊĊĊĊ":9461,"ĠComplicaties":9462,"Ġallemaal":9463,"ĠMild":9464,"Ġverkregen":9465,"Ġligging":9466,"Ġextre":9467,"ergo":9468,"ruim":9469,"Ġdrugs":9470,"amili":9471,"ĠFr":9472,"Ġdegeneratie":9473,"Ġverteb":9474,"ĠUitste":9475,"Ġchronotrope":9476,"origineel":9477,"Ġglyhb":9478,"Ġdorsaal":9479,"ĠRntgen":9480,"Ġrisicofactor":9481,"Ġ+,":9482,"stat":9483,"Ġpassagere":9484,"ĠReveal":9485,"Ġmedicatiewijzig":9486,"inueren":9487,"Ġradial":9488,"Aberrante":9489,"Ġdiverse":9490,"ervla":9491,"Ġescape":9492,"ĠMM":9493,"ĊĊĊĊĊ":9494,"ĠBB":9495,"Ġretinopathie":9496,"akkelijk":9497,"goede":9498,"ĠTemp":9499,"vaat":9500,"ĠBor":9501,"Ġcusp":9502,"Ġpolym":9503,"drug":9504,"mentin":9505,"ĠHeart":9506,"ĠFlash":9507,"Ġradiatie":9508,"Ġfietserg":9509,"indien":9510,"wk":9511,"intern":9512,"ĠGisteren":9513,"vullingsbeeld":9514,"tje":9515,"naec":9516,"Ġorg":9517,"Ġvolgrespons":9518,"Ġgeinformeerd":9519,"Ġurineweginfectie":9520,"ĠpAF":9521,"egd":9522,"ĠNieuwe":9523,"ystol":9524,"actor":9525,"Ġaritm":9526,"Ġverbinding":9527,"ĠWond":9528,"ĠNAG":9529,"Ġuitlok":9530,"ĠAlcohol":9531,"ĠWD":9532,"ĠmIU":9533,"ĠCardiologische":9534,"ĠNier":9535,"Ġkramp":9536,"Ġdubieus":9537,"ĠTr":9538,"eak":9539,"Other":9540,"irculatie":9541,"ĠADL":9542,"acuut":9543,"ĠVerpleegafdeling":9544,"ĠDobutamine":9545,"gers":9546,"Ġkomende":9547,"Ġdon":9548,"oedig":9549,"alf":9550,"Ġtunn":9551,"Telemetrie":9552,"fix":9553,"Ġisthmusafhankelijke":9554,"clox":9555,"Ġbewezen":9556,"Ġbijk":9557,"Ġinotropie":9558,"rens":9559,"atten":9560,"Ġcran":9561,"Ġobstipatie":9562,"Ġdisc":9563,"igoxine":9564,"Overname":9565,"Ġtymp":9566,"Ġgeslaagde":9567,"ĠLatitude":9568,"osa":9569,"Sh":9570,"tijdens":9571,"ĠSCD":9572,"wording":9573,"iff":9574,"Ġmetab":9575,"Ġgeboren":9576,"Ġsuper":9577,"Ġsheath":9578,"Ġantero":9579,"Ġexpl":9580,"ralaterale":9581,"Ġnodulaire":9582,"ĠRecidiverende":9583,"Ġpantoprazol":9584,"ual":9585,"|[":9586,"Ġmaligne":9587,"Ġaanvragen":9588,"hechting":9589,"complex":9590,"Vent":9591,"internist":9592,"ĠRadiation":9593,"Ġfen":9594,"gelegd":9595,"Ġmedisch":9596,"ĠTemperatuur":9597,"ĠUitleg":9598,"ĠDAPT":9599,"fiets":9600,"COM":9601,"Anesthesiologie":9602,"Ġgemaild":9603,"____":9604,"Artikelomschrijving":9605,"Ġechocor":9606,"Rosuvastatine":9607,"Ġvolum":9608,"Straling":9609,"vertraging":9610,"iltiazem":9611,"kousen":9612,"uitslag":9613,"Ġneurologisch":9614,"Ġsteken":9615,"Ġcataract":9616,"Ġtweetal":9617,"Ġuitsluiting":9618,"ĠSomat":9619,"Ġww":9620,"anen":9621,"xdd":9622,"Ġgriep":9623,"Ġontvangt":9624,"Ġgeruststelling":9625,"ĠVERWI":9626,"Ġvoeding":9627,"sugrel":9628,"ademing":9629,"Ech":9630,"Ġrestafwijkingen":9631,"Ġhelpt":9632,"Ġbiv":9633,"ĠWire":9634,"ĠCONCOR":9635,"cir":9636,"ĠHypert":9637,"cline":9638,"Ġfietst":9639,"bes":9640,"eelt":9641,"ĠHuisarts":9642,"maart":9643,"Ġlongembolieen":9644,"ĠAFS":9645,"SEH":9646,"Ġarc":9647,"ĠBK":9648,"Ġwegen":9649,"Aortaklep":9650,"bul":9651,"ctasie":9652,"Ġonc":9653,"bed":9654,"fracturen":9655,"ĠLGE":9656,"Ġnamelijk":9657,"Ġberekenen":9658,"ANN":9659,"Neur":9660,"Ġgrond":9661,"ĠAngina":9662,"best":9663,"Ġdrukkende":9664,"Ġvegetatieve":9665,"ĠIrreg":9666,"VB":9667,"ĠHypok":9668,"Ġmedia":9669,"ĠMitralisklep":9670,"Ġnarcose":9671,"vas":9672,"Ġpy":9673,"zoals":9674,"merg":9675,"ĠStenose":9676,"namen":9677,"beweging":9678,"UCORBIO":9679,"Ġmooi":9680,"napt":9681,"Ġulcus":9682,"Ġondervulling":9683,"Buikomvang":9684,"Hyp":9685,"oÃ¯":9686,"juv":9687,"Ġmoeizame":9688,"Her":9689,"ĠRT":9690,"Ġmiddel":9691,"Ġhierdoor":9692,"Ġvervolgd":9693,"Ġwachten":9694,"SPANN":9695,"ĠAanwijzingen":9696,"ĠVESsen":9697,"erkent":9698,"Ġincompetentie":9699,"Ġtachycardiomyopathie":9700,"ĠVERWIJS":9701,"Ġcysten":9702,"Ġmens":9703,"Ġmeldt":9704,"ĠVERWIJSBRIEF":9705,"stop":9706,"volol":9707,":{[":9708,"Dyspnoe":9709,"Ġcoronairsclerose":9710,"Ġsturen":9711,"Ġrechtszijdige":9712,"Ġverne":9713,"Ġbijvoorbeeld":9714,"KA":9715,"ĠProg":9716,"calciumscore":9717,"Ġbrid":9718,"apid":9719,"ĠIAS":9720,"Ġhalver":9721,"Ġdaardoor":9722,"ĠNierfunctie":9723,"Ġwwsp":9724,"Ġlumbale":9725,"Ġdoubletten":9726,"Ġopbouw":9727,"Ġchec":9728,"ĠPleuravocht":9729,"Ġterechte":9730,"Ġfil":9731,"Ġbedroeg":9732,"ĠSomatom":9733,"ĠHIT":9734,"idisciplinair":9735,"ĠElektrocardiogram":9736,"ĊĠĊĊ":9737,"EMAI":9738,"We":9739,"Ġdiafragmakoep":9740,"Ġbackflow":9741,"Ġdiagnostische":9742,"ĠWandbewegingen":9743,"quaal":9744,"artiment":9745,"LADRES":9746,"ĠNormal":9747,"Analyse":9748,"EMAILADRES":9749,"ĠNegatieve":9750,"plane":9751,"Overlap":9752,"Ġuitval":9753,"lutic":9754,"moeidheid":9755,"irect":9756,"ĠAntistolling":9757,"Studies":9758,"cardiologie":9759,"ĠStopdatum":9760,"Ġhartfalenpoli":9761,"Ġpremature":9762,"ĠToelichting":9763,"lox":9764,"vocatie":9765,"Rivaroxaban":9766,"uigen":9767,"ECHO":9768,"ts":9769,"Ġverschil":9770,"geten":9771,"Bed":9772,"Ġafgebouwd":9773,"Ġmidventriculair":9774,"ĠRetour":9775,"Spoed":9776,"Ġarcus":9777,"ĠApixaban":9778,"Zo":9779,"Ġfellow":9780,"Ġdestijds":9781,"zakking":9782,"End":9783,"Ġconcrement":9784,"Ġpijnst":9785,"Ġwilde":9786,"Ġverdiep":9787,"Ġrunn":9788,"Ġpoliep":9789,"Contralaterale":9790,"luticason":9791,"rast":9792,"Beschrijving":9793,"athologie":9794,"ĠJaar":9795,"Gen":9796,"Ġpauze":9797,"ĠVitale":9798,"Ġtrends":9799,"orapid":9800,"Ernstig":9801,"houds":9802,"Ġbloedkweken":9803,"breken":9804,"Ġmoest":9805,"Ġmes":9806,"ĠResp":9807,"ori":9808,"Ġbronchopathie":9809,"oklep":9810,"idipine":9811,"ieve":9812,"Ġtrombo":9813,"acenocoumarol":9814,"odium":9815,"Ġtherapeutische":9816,"FN":9817,"Ġgevoelig":9818,"Tr":9819,"Ġstenting":9820,"Ġinname":9821,"Ġvernauwing":9822,"haven":9823,"Ca":9824,"NS":9825,"Ġplanning":9826,"eerbare":9827,"ĠAstma":9828,"Ever":9829,"anteerd":9830,"sloping":9831,"Ġintermediair":9832,"Ġdossier":9833,"Ġveroorza":9834,"loopt":9835,"Ġoff":9836,"iscus":9837,"ĠIntacte":9838,"Ġhyperthyre":9839,"agg":9840,"Ġguiding":9841,"desartan":9842,"Ġpantozol":9843,"leaire":9844,"SPANNINGS":9845,"ocus":9846,"Ġapical":9847,"Ġgedecompenseerd":9848,"ipril":9849,"Ġetiologie":9850,"ATP":9851,"ike":9852,"Ġvoornamelijk":9853,"Ġcreatinine":9854,"ĠBovengenoemde":9855,"Ġcentrum":9856,"Ġexcisie":9857,"RACE":9858,"atier":9859,"adenosine":9860,"elateerde":9861,"halen":9862,"itor":9863,"ontsteking":9864,"Guid":9865,"Ġasyn":9866,"Ġsupervisie":9867,"ĠBiotronik":9868,"topprogressie":9869,"ĠInterne":9870,"Uitslagen":9871,"rh":9872,"ĠTot":9873,"ĠOpvall":9874,"onderzoeken":9875,"Ġnachtelijke":9876,"ĠHartrevalidatie":9877,"Ġverwijding":9878,"Ġklaar":9879,"ĠSn":9880,"chtends":9881,"Ġmeth":9882,"Ġversterkte":9883,"ORD":9884,"Ġgelijk":9885,"ĠVTs":9886,"Ġfietsproef":9887,"erieur":9888,"Ġhematurie":9889,"Et":9890,"Ġcontrah":9891,"ĠUrine":9892,"Ġconsequenties":9893,"Ġgewenst":9894,"pus":9895,"situatie":9896,"shock":9897,"kenmerken":9898,"ical":9899,"!)":9900,"abusus":9901,"Ġductus":9902,"VAG":9903,"ĠRedelijk":9904,"Ġliever":9905,"Elektrocardiogram":9906,"istente":9907,"apicaal":9908,"Ã¨re":9909,"ĠNH":9910,"Ġtotaalscore":9911,"Implantatie":9912,"inferior":9913,"ukken":9914,"IDE":9915,"omediastin":9916,"aort":9917,"Ġvoorbe":9918,"Ġblauw":9919,"ĠSyn":9920,"rogramma":9921,"KL":9922,"Ġhouding":9923,"Ġchor":9924,"Ġbestaand":9925,"Ġuitlezen":9926,"Ġhoestklachten":9927,"HD":9928,"ĠProgressieve":9929,"Ġkuren":9930,"ĠIvm":9931,"soriasis":9932,"Ġtakken":9933,"muran":9934,"rechter":9935,"overleg":9936,"VASTAT":9937,"oire":9938,"Opmerking":9939,"inezuur":9940,"stap":9941,"Ġdoorlopend":9942,"Recente":9943,"spagina":9944,"Ġverwijzen":9945,"ĠOverzichtspagina":9946,"Ġcollateraal":9947,"Ġplassen":9948,"Ġdeelname":9949,"ĠWarm":9950,"LBTB":9951,"butamol":9952,"ZorgDomein":9953,"Ġhospital":9954,"Stimulatiedrempel":9955,"CFG":9956,"Ref":9957,"ĠHoudt":9958,"ORIGIN":9959,"Ġsymmetrisch":9960,"ORIGINAL":9961,"Ġtoilet":9962,"Uitslag":9963,"Ġpacemakerimplantatie":9964,"ĠMomenteel":9965,"RAZOL":9966,"Ġbereikbaar":9967,"Ġtoeval":9968,"Ġdex":9969,"ĠIPL":9970,"oodsch":9971,"malling":9972,"ĠVB":9973,"Ġsociale":9974,"Ġdraa":9975,"Ġaankomst":9976,"structuur":9977,"Ġuitstekend":9978,"aliemie":9979,"advies":9980,"Ġjaarcontrole":9981,"ymaal":9982,"--------------":9983,"Vroe":9984,"Ġlager":9985,"Ġembol":9986,"ĠInformed":9987,"Ġhandhaven":9988,"Pulmonaal":9989,"femorale":9990,"Ġreversibiliteit":9991,"Ġzeggen":9992,"Ġchemische":9993,"Calciumcarb":9994,"Ġtherapy":9995,"ECV":9996,"Ġrolstoel":9997,"correctie":9998,"Ġfoto":9999,"Ġopgevraagd":10000,"ĠProtocol":10001,"ouwen":10002,"NL":10003,"Fietsergometrie":10004,"Ġteruggezien":10005,"inet":10006,"Ġ...":10007,"atosis":10008,"Ġtillen":10009,"Ġtricuspidalis":10010,"Ġsm":10011,"Ġaanvankelijk":10012,"ijf":10013,"yrax":10014,"Ġextracardiale":10015,"Ġnatieve":10016,"bovenkwab":10017,"hkv":10018,"Ġcq":10019,"Ġvermeld":10020,"Ġslik":10021,"ĠanomalieÃ«n":10022,"hypertensiva":10023,"houdende":10024,"VASTATINE":10025,"ĠQuad":10026,"spar":10027,"isfeer":10028,"Ġmedicijngebruik":10029,"verla":10030,"Ġmediastinale":10031,"Ġsensor":10032,"ĠPresent":10033,"existent":10034,"Ġwandbewegings":10035,"Ġgelukkig":10036,"Ġpostvak":10037,"Ġvoelen":10038,"polikliniek":10039,"Mol":10040,"Ont":10041,"Ġstoel":10042,"Ġstor":10043,"ations":10044,"mrt":10045,"Functionele":10046,"inen":10047,"Ġstre":10048,"Ġnierfunctiestoornis":10049,"Ġerna":10050,"ryo":10051,"Ġgefaxt":10052,"Ġuitbreiding":10053,"graft":10054,"Ġtintelingen":10055,"ĠDataLinq":10056,"Ġhartst":10057,"ĠZijn":10058,"oplite":10059,"KER":10060,"ice":10061,"Ġcollap":10062,"Ġvoorgenomen":10063,"ĠMerkt":10064,"ĠOvername":10065,"Ġpancreat":10066,"ĠIMA":10067,"CoC":10068,"ĠPass":10069,"Ġduurt":10070,"Ġamyloidose":10071,"ĠflecaÃ¯nide":10072,"Parameter":10073,"Ġovervullingsbeeld":10074,"CDEF":10075,"lasseGuid":10076,"Functionality":10077,"ModuleName":10078,"FUNCDEF":10079,"CoClasseGuid":10080,"FunctionalityName":10081,"={[":10082,"aemische":10083,"ORDERCOM":10084,"FNMK":10085,"Ġgescand":10086,"Meetwaardes":10087,"ĠDefinition":10088,"Ġbeeldbel":10089,"Ġmisschien":10090,"Ġmensen":10091,"Ġverzoeken":10092,"Ġoesophag":10093,"ĠACHD":10094,"ĠTur":10095,"maxim":10096,"ĠExtr":10097,"Ġrollator":10098,"ĠPICC":10099,"Ġmiddenkwab":10100,"stabiele":10101,"Ġinferoposterior":10102,"gesproken":10103,"Ġvroege":10104,"ĠUCORBIO":10105,"ĠPte":10106,"Ġopvallende":10107,"RPM":10108,"Ġrestrictie":10109,"Ġzaterdag":10110,"Belangrijke":10111,"Ġbeginnende":10112,"ked":10113,"blocker":10114,"iciteit":10115,"ronef":10116,"ĠActueel":10117,"ulprit":10118,"furosemide":10119,"Ġplacement":10120,"Ġcongenital":10121,"Ġakinetisch":10122,"Aanmeld":10123,"ĠUiteindelijk":10124,"Ġhydratie":10125,"kas":10126,"ĠOpnieuw":10127,"ĠMoet":10128,"ĠEnt":10129,"behandeld":10130,"Ġatriumf":10131,"ĠGroot":10132,"akken":10133,"ronefrose":10134,"Ġbronchitis":10135,"CONCLUSIE":10136,"Ġhomogene":10137,"ĠThans":10138,"Ġmediaal":10139,"Ġregadenoson":10140,"\".":10141,"Ġcorrespondentie":10142,"ppen":10143,"risk":10144,"Ġopenen":10145,"zocht":10146,"Ġonderhoud":10147,"bach":10148,"Ġrecidiverend":10149,"nef":10150,"klierfunctie":10151,"ĠIntern":10152,"ĠKreat":10153,"zetimib":10154,"Ġergomet":10155,"rocytaire":10156,"ĠBehouden":10157,"Ġsnelheid":10158,"Ġretrograde":10159,"ĠMed":10160,"action":10161,"Mogelijk":10162,"onitraat":10163,"Ġfeit":10164,"FNMKORD":10165,"UP":10166,"Ġlongziekten":10167,"ĠJC":10168,"ĠHoofdstam":10169,"Ġsuggestief":10170,"ius":10171,"Ġafgrensbaar":10172,"Ġdefici":10173,"email":10174,"Ġinspanningen":10175,";[":10176,"Ġomhoog":10177,"ĠSprint":10178,"ĠElectieve":10179,"ĠBumetanide":10180,"Ġbepaling":10181,"VU":10182,"Ġdrukverband":10183,"Kreatinine":10184,"Ġingesproken":10185,"aste":10186,"pool":10187,"Ġremmer":10188,"Ġonzeker":10189,"Ġhalverwege":10190,"Ġafmeting":10191,"ĠSport":10192,"Ġverwijzer":10193,"Ġinstellen":10194,"Ġproject":10195,"Ġavonds":10196,"werd":10197,"Ġafgebeeld":10198,"Ġzouden":10199,"ĠInmiddels":10200,"Ġgenetische":10201,"ripte":10202,"olf":10203,"ĠFont":10204,"Ġker":10205,"lopende":10206,"Ġnefro":10207,"yle":10208,"ĠDNA":10209,"Ġcoarctatio":10210,"bar":10211,"Ġwerkdiagnose":10212,"Ġvoorzichtig":10213,"variatie":10214,"EEL":10215,"olute":10216,"Ġevenwicht":10217,"Ritmestoornissen":10218,"bec":10219,"ĠEvent":10220,"Ġzelfs":10221,"dw":10222,"ecg":10223,"enzymen":10224,"Ġtympan":10225,"beelden":10226,"Ġemfyseem":10227,"onartrose":10228,"gevity":10229,"Hoe":10230,"belconsult":10231,"ĠRCC":10232,"Ġtekening":10233,"VE":10234,"Ġtemperatuur":10235,"Ġribben":10236,"Ġdur":10237,"Ġrugklachten":10238,"Ġonderbenen":10239,"leboog":10240,"Ġtwijfel":10241,"ĠONDERZOEK":10242,"Ġparoxymaal":10243,"Ġbegrens":10244,"ĠTVP":10245,"sneden":10246,"Elect":10247,"Ġapico":10248,"Ġprogramma":10249,"cluderend":10250,"Ġhetzelfde":10251,"Ġontbij":10252,"Ġelektrocardioversie":10253,"Ġcircumscripte":10254,"ildklierfunctie":10255,"Lever":10256,"Ġ(?":10257,"Ġlesies":10258,"indigd":10259,"Ġbevestig":10260,"ĠEplerenon":10261,"Ġhevige":10262,"Ġmigraine":10263,"Ġlinkerboezem":10264,"ĠiCMP":10265,"Ġhypothyreoidie":10266,"continentie":10267,"rijgt":10268,"Ġvatslijden":10269,"Ġcl":10270,"Ġtert":10271,"Relevant":10272,"aie":10273,"Ġgram":10274,"Ġtrig":10275,"amsul":10276,"Ġabl":10277,"Ġalsmede":10278,"Ġmacro":10279,"Hematocriet":10280,"ĠDub":10281,"metastasen":10282,"bo":10283,"Ġarterieel":10284,"Ġcoil":10285,"Ġlangste":10286,"etjes":10287,"ĠAutogen":10288,"ysma":10289,"Ġinderdaad":10290,"Ġvanmorgen":10291,"Ġbijzonder":10292,"ĠManagement":10293,"attro":10294,"gevonden":10295,"ĠAmlodipine":10296,"alli":10297,"Ġperip":10298,"ĠMyoview":10299,"UG":10300,"tv":10301,"Ġpostoperatieve":10302,"ĠEosinofiele":10303,"ĠTend":10304,"erc":10305,"oride":10306,"ĠDrug":10307,"Ġnatrium":10308,"CORE":10309,"obstructie":10310,"Ġgeleidelijk":10311,"reren":10312,"Ġkortdurende":10313,"ocrinologie":10314,"rofysiologisch":10315,"Ġburden":10316,"ĠOngecompliceerde":10317,"Ġklepfuncties":10318,"Ġklieren":10319,"Ġtox":10320,"west":10321,"Ġgedaald":10322,"umaraat":10323,"ĊĠĠĠĠ":10324,"Ġpseud":10325,"hoging":10326,"agelijkse":10327,"etsels":10328,"ĠMammografie":10329,"dosering":10330,"ameth":10331,"Ġinvasieve":10332,"Ġaangeboden":10333,"ischemische":10334,"voer":10335,"ĠAR":10336,"Hals":10337,"senen":10338,"ĠOnd":10339,"ĠBasofiele":10340,"ĠPneumonie":10341,"Ġ//":10342,"ĠSCORE":10343,"Ġprec":10344,"ĠNC":10345,"Ġbul":10346,"Ġ(#[":10347,"Ġcontactpersoon":10348,"osedienst":10349,"ĠMedicamenteus":10350,"Ġcardiovasculaire":10351,"staand":10352,"ĠQS":10353,"Ġtachyaritmie":10354,"Ġmatglas":10355,"ĠSindsdien":10356,"ĠEL":10357,"Ġaortaklepsclerose":10358,"spatroon":10359,"ĠUitstekende":10360,"Ġkweek":10361,"kkingen":10362,"Ġheft":10363,"punt":10364,"Ġinsp":10365,"Ġhartafwijkingen":10366,"Ġbleef":10367,"Ġsr":10368,"Ġwrsch":10369,"problematiek":10370,"verzekeraar":10371,"romy":10372,"Ġverdieping":10373,"atisch":10374,"Ġzorginstelling":10375,"onc":10376,"Ġmeneer":10377,"Ġblokker":10378,"Ġgestegen":10379,"Ġhyperventilatie":10380,"circulatie":10381,"Ġ(-[":10382,"Ġdensiteit":10383,"Ġmixed":10384,"Ġdiepe":10385,"ologen":10386,"Afdeling":10387,"Ġnagenoeg":10388,"rijf":10389,"Ġverbre":10390,"Hartrevalidatie":10391,"egistratie":10392,"LAVI":10393,"----------------------------------------------------------------":10394,"breedte":10395,"septale":10396,"ĠScherp":10397,"pomp":10398,"Ġcardiomediastin":10399,"ruikte":10400,"ĠQuattro":10401,"ombin":10402,"ĠSVG":10403,"ĠNeutrofiele":10404,"Ġnefropathie":10405,"Ġbronchiale":10406,"onchi":10407,"initis":10408,"Kan":10409,"Ġontbijt":10410,"kijken":10411,"Ġzondag":10412,"ĠMIBI":10413,"Ġoperatief":10414,"Ġaureus":10415,"egens":10416,"syncope":10417,"Ġulc":10418,"Ġgezicht":10419,"Zij":10420,"Ġdyssyn":10421,"fasciaal":10422,"Ġinfectieus":10423,"aanvraag":10424,"Ġdiafragmata":10425,"ĠIngevity":10426,"Ġevenals":10427,"Doorlichting":10428,"andaard":10429,"sinus":10430,"Ġrosuvastatine":10431,"ĊĊĊĊĊĊĊĊĠĊĊĊ":10432,"imp":10433,"icemail":10434,"ieke":10435,"Ġdoel":10436,"Frequentie":10437,"Fix":10438,"Ġkandidaat":10439,"fte":10440,"dan":10441,"Ġelectrocardioversie":10442,"Ġkanaal":10443,"amsulosine":10444,"lavic":10445,"Ġcriterium":10446,"RVF":10447,"Aanvullende":10448,"ĠVooralsnog":10449,"Remote":10450,"Ġmonitoring":10451,"iner":10452,"Ġtend":10453,"Ġhorm":10454,"ĠOAS":10455,"uide":10456,"ĠACM":10457,"evaluatie":10458,"ĠGeeft":10459,"OLO":10460,"Ġoperatieve":10461,"Ġmechanoprothese":10462,"Ġasthma":10463,"Alles":10464,"oodschappen":10465,"artsen":10466,"Bedrust":10467,"Ġstekende":10468,"Ġbetreffende":10469,"Imuran":10470,"mean":10471,"ascal":10472,"ĠAndere":10473,"Ġonderhouds":10474,"ĠAanvullend":10475,"ĠPO":10476,"Ġlongvene":10477,"Aanwez":10478,"Ġvoorbehoud":10479,"Ġkunstklep":10480,"Postdilatatie":10481,"ĠIA":10482,"Ġbo":10483,"anis":10484,"ĠSB":10485,"veranderde":10486,"rieve":10487,"Ġconc":10488,"Ġonderschat":10489,"familie":10490,"Ġureter":10491,"Ġtandarts":10492,"ĠHom":10493,"ĠDOAC":10494,"ransplant":10495,"probleem":10496,"Ġlanoxin":10497,"afspraken":10498,"derate":10499,"Ġgeslapen":10500,"dimeer":10501,"Ġvoorgestelde":10502,"ĠDosis":10503,"Familiaire":10504,"ĠCCS":10505,"daling":10506,"Ġgeleide":10507,"Sym":10508,"vindt":10509,"close":10510,"Ġgewone":10511,"Huid":10512,"Ġvoorbereiding":10513,"amethason":10514,"middelen":10515,"ph":10516,"Ġongest":10517,"Ġzaken":10518,"Ġhooggradi":10519,"Ġtib":10520,"ext":10521,"Ġspu":10522,"Visueel":10523,"MMF":10524,"Ġslokdarm":10525,"yrid":10526,"Ġregelen":10527,"ng":10528,"OG":10529,"Ġvegetatie":10530,"Ġbloedings":10531,"erolaterale":10532,"Ġomt":10533,"belemmering":10534,"Ġgetrig":10535,"Ġbeperking":10536,"detectie":10537,"erkomst":10538,"Ġelektrolyten":10539,"ilstand":10540,"ata":10541,"let":10542,"ledig":10543,"osfaat":10544,"Ġgemetastase":10545,"Long":10546,"Ġregulatie":10547,"Ġaortic":10548,"Ġag":10549,"Ġroodheid":10550,"oprenaline":10551,"ĠOF":10552,"Ġgehoord":10553,"right":10554,"Ġgecombin":10555,"otherapeut":10556,"Ġdrager":10557,"Ġ=>":10558,"ĠFVT":10559,"Ġvanzelf":10560,"aduw":10561,"Ġlongparenchym":10562,"odg":10563,"Ġoutflow":10564,"Ġoksel":10565,"Ġbewegingsartefacten":10566,"Ġnv":10567,"mononitraat":10568,"Sociale":10569,"ĠAOS":10570,"ME":10571,"Ġcompleet":10572,"Ġgereguleerde":10573,"Ġcompl":10574,"Ġmast":10575,"Pravastatine":10576,"ĠHierop":10577,"Ġvirale":10578,"vader":10579,"eriode":10580,"Ġposterolateraal":10581,"gemidd":10582,"Ġneuropathie":10583,"Mw":10584,"Ġinflamm":10585,"kels":10586,"Ġiemand":10587,"Ġfalen":10588,"riprieve":10589,"Ġclip":10590,"Ġdynamiek":10591,"Ġbroers":10592,"antrumisolatie":10593,"Ġuitbreiden":10594,"hypercholesterolemie":10595,"Vroegere":10596,"Ġradiofarmacon":10597,"ingsdatum":10598,"Ġontdekt":10599,"Ġspm":10600,"Uitgebre":10601,"Ġsubfasciaal":10602,"astenose":10603,"zond":10604,"Ġhypertensief":10605,"Ġnazorg":10606,"arn":10607,"itair":10608,"Evero":10609,"intest":10610,"rofumaraat":10611,"Rapa":10612,"ĠBuik":10613,"/(":10614,"Atriale":10615,"My":10616,"Ġsigmoid":10617,"ĠAspecifieke":10618,"venbevinding":10619,"etup":10620,"Leeftijdscore":10621,"only":10622,"Ġcompartiment":10623,"ĠUI":10624,"pak":10625,"Ġcardiogene":10626,"Ġsteunkousen":10627,"ĠÃ":10628,"ĠSl":10629,"Ġihkv":10630,"ockt":10631,"Ġpleurale":10632,"Aanmeldingsdatum":10633,"Ġochtends":10634,"Ġring":10635,"rofische":10636,"lopig":10637,"ĠGuiding":10638,"registratie":10639,"opathische":10640,"Ġgrotendeels":10641,"ĠPantoprazol":10642,"odgkin":10643,"arese":10644,"Ġaangeprikt":10645,"Ġspurium":10646,"ĠConservatief":10647,"ĠRPL":10648,"Ġtoevalsbevinding":10649,"Ġventric":10650,"jectief":10651,"ĠSignificante":10652,"Ġwk":10653,"ales":10654,"Ġstrum":10655,"Discharge":10656,"sm":10657,"Ġdoorlopen":10658,"Ġrechtsdruk":10659,"Ġontwater":10660,"ĠTT":10661,"Ġhalve":10662,"ĠMar":10663,"Ġbuikklachten":10664,"KCL":10665,"dik":10666,"Ġepilepsie":10667,"Ġident":10668,"Ġvloe":10669,"Ġintens":10670,"Ġmorgenochtend":10671,"Ġverkalking":10672,"ĠLater":10673,"Ġmaagklachten":10674,"ĠLVE":10675,"Ġoverweging":10676,"ĠWandbewegings":10677,"NF":10678,"movicolon":10679,"INISCHE":10680,"RvO":10681,"Ġass":10682,"Ġkind":10683,"igingen":10684,"PET":10685,"ĠCapsurefix":10686,"Colecalciferol":10687,"',":10688,"Ġvasculair":10689,"ĠVoorbereiding":10690,"ĠQTC":10691,"Ġsubtotaal":10692,"chniek":10693,"ĠSA":10694,"ĠZorgverzekeraar":10695,"Ġbegrepen":10696,"Ġgaarne":10697,"Ġuterus":10698,"slip":10699,"verkalkingen":10700,"osorbidemononitraat":10701,"Ġtympanie":10702,"idd":10703,"ĠLongv":10704,"Ġoesofagus":10705,"Ġobstru":10706,"protocol":10707,"Geleid":10708,"Ġtaal":10709,"Ġbang":10710,"Ġtetrofosmine":10711,"dynam":10712,"OLD":10713,"msec":10714,"vlies":10715,"onale":10716,"Ġrijbewijs":10717,"iÃ«mie":10718,"ĠPrognose":10719,"oeningen":10720,"Ġliter":10721,"Ġgecirc":10722,"Ġinsult":10723,"ĠAM":10724,"Ġbevinding":10725,"kaart":10726,"Ġklop":10727,"apar":10728,"Ġlinkszijdige":10729,"ket":10730,"oezemfibrilleren":10731,"Ġsterke":10732,"Ġvertelt":10733,"Ġaccess":10734,"shunt":10735,"Short":10736,"sturen":10737,"ĠiCVA":10738,"Artikelnummer":10739,"Ġspreken":10740,"Ġhydronefrose":10741,"elink":10742,"ĠBen":10743,"inurie":10744,"TransText":10745,"ĠpT":10746,"GRACE":10747,"icatie":10748,"roductie":10749,"LAX":10750,"Ġleefstijl":10751,"Ġbridging":10752,"albutamol":10753,"Ġinduc":10754,"Ġkalkscore":10755,"Ġgrafts":10756,"Ġcommon":10757,"daan":10758,"Ġbijgeruisen":10759,"annulus":10760,"volume":10761,"Ġdevices":10762,"monitor":10763,"ĠAdv":10764,"Ġschouderbladen":10765,"ats":10766,"LAA":10767,"programma":10768,"ĠSporadisch":10769,"Ġspondyl":10770,"Ġgewichtsverlies":10771,"Ġspasme":10772,"Ġbuurt":10773,"elefonische":10774,"Ġfysio":10775,"Oedeem":10776,"Ġdim":10777,"ulse":10778,"hoest":10779,"sedatie":10780,"ĠPulmon":10781,"Ġspeelt":10782,"pla":10783,"TEN":10784,"pulmonaalvenen":10785,"Ġderde":10786,"ĠAlbumine":10787,"Ġpatinte":10788,"ush":10789,"Ġmemo":10790,"Ġvervroe":10791,"Ġ-.":10792,"ĠCMV":10793,"Ġevalueren":10794,"ĠDirect":10795,"wacht":10796,"Ġgenorm":10797,"Ze":10798,"ĠVerm":10799,"Ġpresenteerde":10800,"kebach":10801,"ralis":10802,"ĠPh":10803,"Ġbiopten":10804,"ĠCOR":10805,"Ġambu":10806,"Ġenalapril":10807,"Ġglobale":10808,"Ġparasternaal":10809,"ystrofie":10810,"ĠCent":10811,"ekt":10812,"];[":10813,"stapeling":10814,"VPK":10815,"itim":10816,"Tricuspide":10817,"Ġontwikk":10818,"ĠBlijft":10819,"romyalgie":10820,"Ġgehal":10821,"Ġsensing":10822,"amycine":10823,"vv":10824,"ĠBesproken":10825,"icardi":10826,"Ġgestenose":10827,"Ġepicardiaal":10828,"FORM":10829,"ifest":10830,"ange":10831,"Ġhartfunctie":10832,"ĠSecure":10833,"HC":10834,"Ġcag":10835,"dimensie":10836,"Ġjaarlijkse":10837,"Ġvermoeidheidsklachten":10838,"arth":10839,"Ġsom":10840,"pos":10841,"Ġcaud":10842,"Ġrustiger":10843,"Ġpolicontrole":10844,"ARB":10845,"Ġ+/+":10846,"Urine":10847,"wrijven":10848,"Ġechografie":10849,"opsie":10850,"ĠBicarbonaat":10851,"jun":10852,"arteri":10853,"Ġdrievatslijden":10854,"Ġroot":10855,"Ġremod":10856,"ĠFormulier":10857,"geval":10858,"linker":10859,"Ġfietsergo":10860,"ubitus":10861,"Ġafstand":10862,"stellende":10863,"Ġhartziekten":10864,"Ġaanhoudend":10865,"ĠgeÃ¯nformeerd":10866,"Ġamputatie":10867,"======":10868,"RVSP":10869,"KLINISCHE":10870,"Ġbuis":10871,"Ġhoren":10872,"Ġdagelijkse":10873,"Ġgecirculeerd":10874,"Ġchemo":10875,"ident":10876,"Ġslow":10877,"Ġremissie":10878,"ĠHernia":10879,"ĠProte":10880,"Ġcontext":10881,"ĠLVP":10882,"meter":10883,"stoon":10884,"Ġthuiszorg":10885,"rectomie":10886,"ĠTUR":10887,"stroom":10888,"Orthop":10889,"ĠDabigatran":10890,"ĠTotaalscore":10891,"Ġdiverticulitis":10892,"Ġmicrovasculair":10893,"Ġbotstructuur":10894,"ĠHbA":10895,"adiging":10896,"Ġaanmerking":10897,"Ġverdachte":10898,"RBTB":10899,"ĠOD":10900,"uf":10901,"ota":10902,"Ġaritmogene":10903,"ĠHalsvaten":10904,"Ġmomenten":10905,"dend":10906,"Ġ================================":10907,"Ġsuik":10908,"imensies":10909,"ignificant":10910,"Ġemotion":10911,"psis":10912,"Ġafgez":10913,"tenolol":10914,"punctie":10915,"Ġovergeplaatst":10916,"ĠDeel":10917,"ĠĊĠĠ":10918,"Ongewijzigd":10919,"roepbaar":10920,"requent":10921,"dist":10922,"zeer":10923,"uret":10924,"Ġacceptabel":10925,"Ġidem":10926,"Ġclaudicatio":10927,"wijzen":10928,"Ġvisus":10929,"malige":10930,"ĠGold":10931,"Ġaccep":10932,"uizelingen":10933,"Ġuitstral":10934,"Ġfysiotherapie":10935,"Ġverbeteren":10936,"sproblemen":10937,"mmetrische":10938,"Ġcontracties":10939,"esloten":10940,"Cath":10941,"femoral":10942,"Ġperim":10943,"ĠVragen":10944,"Ġlegitim":10945,"ULE":10946,"Ġwerv":10947,"ocaine":10948,"Ġvel":10949,"Ġflink":10950,"Ġgespannen":10951,"Ġhepatis":10952,"aggreg":10953,"Ġquo":10954,"Ġomgeving":10955,"CLS":10956,"Ġruns":10957,"umatisch":10958,"Ġpijnstilling":10959,"ktie":10960,"annacht":10961,"Ġhemisfeer":10962,"ĠODS":10963,"Ġverbreding":10964,"Ġlisinopril":10965,"ruis":10966,"baan":10967,"Ġpatent":10968,"starten":10969,"Ġventraal":10970,"Ġruptuur":10971,"Overleg":10972,"heids":10973,"Ġvacc":10974,"geleide":10975,"doorsneden":10976,"ĠPAT":10977,"Ġadenoom":10978,"Ġvolgend":10979,"Vergeleken":10980,"RvC":10981,"werda":10982,"ominant":10983,"len":10984,"Volg":10985,"Ġasdoorsneden":10986,"ĠSpironolacton":10987,"Herkomst":10988,"Ġhiel":10989,"enuw":10990,"ĠAfspraak":10991,"groe":10992,"Erytrocyten":10993,"Ġaanwezigheid":10994,"gradient":10995,"Ġmcg":10996,"ĠHili":10997,"Ġflex":10998,"remmers":10999,"Fr":11000,"chnisch":11001,"ĊĊĊĠĊĊĊ":11002,"PR":11003,"Ġroute":11004,"Ġwijde":11005,"werkingen":11006,"actieve":11007,"Ġscopie":11008,"ĠWBS":11009,"Ġmajor":11010,"Ġabnormale":11011,"rex":11012,"ontt":11013,"ĠNative":11014,"Ġmyocardscintigrafie":11015,"vp":11016,"ĠSchildklier":11017,"ĠcoronairinsufficiÃ«ntie":11018,"ician":11019,"efzol":11020,"Ġaltern":11021,"unctionele":11022,"heelkundige":11023,"ĠRQ":11024,"unstklep":11025,"oÃ¯de":11026,"klinisch":11027,"Ġsuggestie":11028,"ĠWandbewegingsanalyse":11029,"sieke":11030,"ĠVocht":11031,"perindopril":11032,"ĠICU":11033,"Ġhartgrootte":11034,"Ġtijden":11035,"ocktail":11036,"ĠDen":11037,"Ġvlees":11038,"ison":11039,"abetica":11040,"Palpitaties":11041,"oo":11042,"Ġgeind":11043,"asp":11044,"Ġejectiegeruis":11045,"fici":11046,"ialis":11047,"Ġafkomst":11048,"ieswerda":11049,"==============":11050,"pret":11051,"Ġreguliere":11052,"Ġhemodynamische":11053,"slaat":11054,"Ġvele":11055,"ysician":11056,"]?":11057,"ler":11058,"Ġveroorzaakt":11059,"Ġrot":11060,"Ġkweken":11061,"oliose":11062,"Ġvooruit":11063,"ĠLCx":11064,"ietsen":11065,"ĠRPA":11066,"fib":11067,"ocarcinoom":11068,"Ġoppervla":11069,"aandag":11070,"goed":11071,"ĠOste":11072,"pectomie":11073,"ĠCom":11074,"Ġplaatsgevonden":11075,"np":11076,"Kern":11077,"Ġnaam":11078,"Consult":11079,"Ġverwijdering":11080,"Ġcorona":11081,"kanalisatie":11082,"Ġsinusar":11083,"Ġvariatie":11084,"ĠHis":11085,"agl":11086,"Dialyse":11087,"yridamol":11088,"ĠANIOS":11089,"Kerndeel":11090,"ingle":11091,"Ġventrikelfibrilleren":11092,"Ġpathologisch":11093,"Ġmyocardscintigram":11094,"costaal":11095,"Ġdoord":11096,"Diastolische":11097,"Ġmot":11098,"ĠMede":11099,"Ġjodium":11100,"ĠAug":11101,"Ġimmuun":11102,"Vandaag":11103,"EV":11104,"Ġontwatering":11105,"otis":11106,"etero":11107,"dysfunctie":11108,"ĠMedisch":11109,"Ġverwachten":11110,"Ġuroloog":11111,"ĠRivaroxaban":11112,"Ġliesbreuk":11113,"ĠAngio":11114,"amiliair":11115,"Overigen":11116,"Ġnitrospray":11117,"ĠUitgebreid":11118,"Ġdroge":11119,"Ġcip":11120,"ĠAv":11121,"Ġhartcentrum":11122,"Ġziekten":11123,"Ġkeur":11124,"Ġcyt":11125,"Ġwoon":11126,"ĠFunctie":11127,"ĉĉĉ":11128,"stadium":11129,"halsvenen":11130,"verloop":11131,"ĠOLVG":11132,"Ġmetastase":11133,"Zwangerschapshypertensie":11134,"Ġ================================================================":11135,"Ontslagdatum":11136,"ĠSC":11137,"Ġepig":11138,"lectie":11139,"icoagulation":11140,"ystitis":11141,"cave":11142,"Ġovertuigende":11143,"Ġgenot":11144,"Ġarch":11145,"retentie":11146,"ĠPerclose":11147,"kop":11148,"parameters":11149,"Ġongestoord":11150,"imal":11151,"ĠAtorvastatine":11152,"Magnesium":11153,"arks":11154,"ĠNSA":11155,"DDD":11156,"snelheid":11157,"katheterisatie":11158,"orst":11159,"Ġjaarlijks":11160,"itraten":11161,"pel":11162,"Ġtransmuraal":11163,"Ġverlengde":11164,"Ġneusspray":11165,"Interval":11166,"Ġwelk":11167,"Ġbehoren":11168,"------------------------------------------------------------------------------":11169,"ysteem":11170,"Ġincisie":11171,"cap":11172,"Ġdingen":11173,"Ġgeriatrie":11174,"oemd":11175,"Ġcox":11176,"spasme":11177,"diment":11178,"aanvr":11179,"Ġcollapsen":11180,"Remarks":11181,"Ġfluclox":11182,"Ġverslagdatum":11183,"Ġbezoekdatum":11184,"Ġ==============================================================================":11185,"Risicoprofiel":11186,"ĠILR":11187,"ĠPACs":11188,"uleren":11189,"afragma":11190,"Ġboodschappen":11191,"Ġgynaec":11192,"ĠHt":11193,"ĠHartteam":11194,"isol":11195,"Ġdobu":11196,"erve":11197,"ĠSimvastatine":11198,"raad":11199,"vermogen":11200,"idiabetica":11201,"Ġdriet":11202,"Ġuterusextirpatie":11203,"MCHC":11204,"valider":11205,"ĠOMT":11206,"Ġbehalve":11207,"Ġuro":11208,"actaat":11209,"Ġprik":11210,"Ġvarices":11211,"Ġgrove":11212,"Ġwaardes":11213,"Ġverhaal":11214,"PO":11215,"deff":11216,"Ġgun":11217,"ĠEC":11218,"opy":11219,"Fam":11220,"Ġgda":11221,"Echocardiografisch":11222,"CVRM":11223,"Ġwed":11224,"Ġhepatitis":11225,"sternaal":11226,"sura":11227,"lit":11228,"ada":11229,"ĠDus":11230,"ĊĊĊĠĊĊ":11231,"site":11232,"Ġouders":11233,"cocktail":11234,"ostoma":11235,"stoonissen":11236,"ĠEchtgen":11237,"Ġfractie":11238,"ĠSeg":11239,"Ġcou":11240,"Ġhypertrofe":11241,"gerust":11242,"Ġzacht":11243,"KERN":11244,"Ġverspreid":11245,"offen":11246,"control":11247,"Cathkamer":11248,"dipositas":11249,"ĠCathkamer":11250,"DVT":11251,"ager":11252,"Ġuiteraard":11253,"ergering":11254,"ĠCollaps":11255,"Ġergometrische":11256,"umen":11257,"kopp":11258,"stabiel":11259,"Ġintrapulmonale":11260,"Ġ}":11261,";}":11262,"VER":11263,"Ġprostaatcarcinoom":11264,"ĠCAPSULE":11265,"ĠNSAID":11266,"Ġgehaald":11267,"Geleidingsstoornissen":11268,"opamine":11269,"Ġbacteriemie":11270,"Ġpolar":11271,"Ġpot":11272,"Prednisolon":11273,"Ġtrachea":11274,"someprazol":11275,"ÂµGym":11276,"Ġenerg":11277,"Geplande":11278,"iere":11279,"Ġbeenmerg":11280,"ĠAsc":11281,"ĠSegoe":11282,"itiÃ«le":11283,"Basis":11284,"arch":11285,"Ġrechteronderkwab":11286,"ansi":11287,"THORAX":11288,"erm":11289,"Pantozol":11290,"embolische":11291,"Ġdaarop":11292,"rtf":11293,"Ġfocaal":11294,"Ġhalveren":11295,"Ġjeuk":11296,"Ġfitness":11297,"moe":11298,"Ġstim":11299,"Zwangerschapsdiabetes":11300,"fontt":11301,"Ġhypertensieve":11302,";}}":11303,"fonttbl":11304,"ĠWerkt":11305,"Ġdefibrillatie":11306,"Ġdalend":11307,"juvante":11308,"Ġiliacaal":11309,"ongeerde":11310,"Anticoagulation":11311,"collaps":11312,"Ġaccepteren":11313,"Ġroker":11314,"ĠEver":11315,"ĠĠĠĠÂł":11316,"Ġprominente":11317,"ometer":11318,"Geslachtscore":11319,"ĠarteriÃ«le":11320,"ĠECHO":11321,"Ġgeprikt":11322,"aggregatier":11323,"dobutamine":11324,"Ġspondylo":11325,"ĠVitamine":11326,"Ġforamen":11327,"Ġangiografisch":11328,"].[":11329,"ĠMAZ":11330,"loos":11331,"Ġbloeddrukmeting":11332,"Ġwsl":11333,"Ġaortak":11334,"Ġbijkom":11335,"Ġsin":11336,"Ġ(%):":11337,"Ġalsof":11338,"orant":11339,"Ġpsychi":11340,"Ġdiafragmakoepels":11341,"ĠPOL":11342,"ĠÂ±":11343,"Volgende":11344,"reng":11345,"TAP":11346,"lijkt":11347,"immuun":11348,"ĠMAZE":11349,"ĠTHP":11350,"asix":11351,"Ġwandverdikking":11352,"Ġmindere":11353,"Ġantagonist":11354,"Ġnefrologie":11355,"ĠNazorg":11356,"Ġaccessoire":11357,"lebitis":11358,"Ġongemoeid":11359,"ĠSlaapt":11360,"EART":11361,"reenend":11362,"ĠCave":11363,"ĠLongembolie":11364,"ĠAbd":11365,"Ġonwelwording":11366,"Lipiden":11367,"obasaal":11368,"hythm":11369,"cons":11370,"ĠWMA":11371,"gemiddeld":11372,"Ġgelopen":11373,"Ġmyocardperfusie":11374,"itatief":11375,"Ġlichamelijke":11376,"Ġingelicht":11377,"abdomin":11378,"ĠConditie":11379,"Ġtranspir":11380,"gebrek":11381,"ĠHartcatheterisatie":11382,"Ġeczeem":11383,"Ġontbreken":11384,"Flecainide":11385,"olyt":11386,"suppletie":11387,"Ġinguin":11388,"Ġbelde":11389,"ĠSpont":11390,"verdunning":11391,"ĠHeparine":11392,"clopidogrel":11393,"Wil":11394,"Ġharde":11395,"Ġprecordiaal":11396,"Ġovv":11397,"ONA":11398,"Ġbijlage":11399,"Ġaortastenose":11400,"Ġttv":11401,"):{\\":11402,"Ġdyspnoisch":11403,"lagen":11404,"rote":11405,";}}\\":11406,"Ġkauwtablet":11407,"Ġopmerking":11408,"ĠLife":11409,"Ġdame":11410,"ĠPLN":11411,"weer":11412,"Ġlagere":11413,"Ġdeath":11414,"icilline":11415,"Ġgenormaliseerd":11416,"alteparine":11417,"ĠAK":11418,"Ġdox":11419,"SU":11420,"Ġorthost":11421,"Ġkast":11422,"dendum":11423,"ĠHIV":11424,"PVC":11425,"ĠTendril":11426,"amule":11427,"Ġmogelijkheden":11428,"Ġvw":11429,"Ġzenuw":11430,"inex":11431,"aglif":11432,"iks":11433,"olpen":11434,"Ġactiviteits":11435,"ima":11436,"Huidige":11437,"Ġtempo":11438,"Doorlichtingstijd":11439,"ĠTrop":11440,"Ġduoden":11441,"ktober":11442,"ĠMevrouw":11443,"ĠVVIR":11444,"ĠAuteur":11445,"Ġgeholpen":11446,"oft":11447,"Ġcs":11448,"ĠAfname":11449,"ilaat":11450,"Ġcatheterisatie":11451,"ĠInspannings":11452,"ĠResolute":11453,"Ġribfracturen":11454,"amuleau":11455,"Ġvalsartan":11456,"Ġsemi":11457,"Gebruikte":11458,"barri":11459,"Ġmode":11460,"Veel":11461,"draden":11462,"ĠLF":11463,"Ġdalende":11464,"ĠGedilateerd":11465,"VENS":11466,"Ġuitlokkende":11467,"ĠMag":11468,"Ġcholec":11469,"Ġinadequate":11470,"Ġhartziekte":11471,"voorrang":11472,"geraakt":11473,"ĠBent":11474,"Ġbetablokkade":11475,"Ġcirculatie":11476,"osus":11477,"Ġwanden":11478,"ĠAssist":11479,"Ġarter":11480,"Ġbetere":11481,"rec":11482,"Ġasynchronie":11483,"Mitralisklep":11484,"Ġonderzoekafd":11485,"ramadol":11486,"ĠGecompliceerd":11487,"Ġdata":11488,"Ġcongenitale":11489,"Ġgewrichts":11490,"ĠSystolische":11491,"embran":11492,"Oproepbaar":11493,"ĠVolume":11494,"Ġfuro":11495,"Neurologisch":11496,"weegt":11497,"ĠgeÃ«":11498,"Ġmediastinaal":11499,"Ġscintigrafie":11500,"rk":11501,"Ġfysieke":11502,"Ġwie":11503,"Korte":11504,"aanvullend":11505,"komend":11506,"ĠCoron":11507,"Ġreumatoloog":11508,"undel":11509,"Ġtriplet":11510,"Ġslechter":11511,"ĠLVED":11512,"standen":11513,"ĠHaar":11514,"ĠNCC":11515,"Ġrechteratrium":11516,"ĠBl":11517,"ĠMaximale":11518,"Ġpolariteit":11519,"Ġpravastatine":11520,"Ġcordarone":11521,"ĠUP":11522,"Ġhilair":11523,"Ġvisu":11524,"ĠRX":11525,"Ġreag":11526,"Ġantihypertensiva":11527,"LLEN":11528,"huisarts":11529,"tig":11530,"acine":11531,"Ġweefsel":11532,"ococcus":11533,"Ġexplantatie":11534,"Ġct":11535,"Ġverklaard":11536,"laatsing":11537,"Ġidi":11538,"Ġindic":11539,"geet":11540,"area":11541,"besartan":11542,"Ġstra":11543,"Ġpancreatitis":11544,"Ġgenerator":11545,"eringen":11546,"ĠVerkal":11547,"Ġhartfalenmedicatie":11548,"Ġheupprothese":11549,"Ġtracing":11550,"IM":11551,"Ġostiale":11552,"kkige":11553,"Ġtertiaire":11554,"ĠProximale":11555,"TAPSE":11556,"ĠCBR":11557,"Ġgenetica":11558,"ĠPrednison":11559,"Ġepigast":11560,"Ġacht":11561,"entieel":11562,"Ġrectum":11563,"ĠEvera":11564,"Ġbevestigd":11565,"roninezuur":11566,"ĠGesla":11567,"luen":11568,"Ġvarkens":11569,"ifurcatie":11570,"ĠHB":11571,"bestaande":11572,"ĠLongvaattekening":11573,"Ġvalv":11574,"Helder":11575,"Ġgemetastaseerd":11576,"Sense":11577,"ĠSte":11578,"Ġbiventriculair":11579,"Resultaat":11580,"Ġkoud":11581,"emmers":11582,"elcelcarcinoom":11583,"Ġcovid":11584,"Ġstil":11585,"ĠNeemt":11586,"Ġvaatchirurg":11587,"simvastatine":11588,"Ġcardiop":11589,"niveau":11590,"ĠPersisterende":11591,"ĠEVAR":11592,"Redelijke":11593,"beter":11594,"Ġvolw":11595,"ĠDyspneu":11596,"fr":11597,"GS":11598,"Ġgelaat":11599,"ĠsPAP":11600,"vention":11601,"ĠmMol":11602,"afil":11603,"hyrox":11604,"oint":11605,"Ġluchthoudendheid":11606,"ĠElders":11607,"lever":11608,"ucoom":11609,"Inotropie":11610,"Ġverblij":11611,"Ġsys":11612,".).":11613,"oler":11614,"Controles":11615,"zetrol":11616,"colecalc":11617,"anoom":11618,"Ġomeprazol":11619,"Stoppen":11620,"werp":11621,"Ġfragmin":11622,"ĠKnie":11623,"Ġirregulaire":11624,"Ġharttonen":11625,"IDd":11626,"Ġlongven":11627,"Ġgewrichten":11628,"drempelig":11629,"evt":11630,"ĠAansluitend":11631,"iste":11632,"Ġoplopend":11633,"halte":11634,"ulator":11635,"ocytose":11636,"emmen":11637,"Ġpericardwrijven":11638,"hese":11639,"Ġcoronairangiogram":11640,"ĠSe":11641,"Ġdefecten":11642,"arynx":11643,"FT":11644,"mn":11645,"WER":11646,"erig":11647,"extra":11648,"Totale":11649,"advise":11650,"Ġvingers":11651,"ĠNo":11652,"Ġdevicete":11653,"oxische":11654,"ĠToch":11655,"Ġdyskinesie":11656,"isselend":11657,"ĠGestart":11658,"ĠBisoprolol":11659,"ĠDev":11660,"lastische":11661,"GAD":11662,"ĠSLE":11663,"ĠPerc":11664,"aO":11665,"ĠSnel":11666,"nesota":11667,"ithme":11668,"?),":11669,"reigende":11670,"odem":11671,"Ġtraag":11672,"Ġstraal":11673,"CHADSVASC":11674,"Ġfactoren":11675,"ZU":11676,"ĠGOLD":11677,"Pulsaties":11678,"Ġzittend":11679,"uz":11680,"Ġomtrent":11681,"Ġgerec":11682,"rant":11683,"ĠAoi":11684,"Ġlaadtijd":11685,"voltage":11686,"Ġhuishoud":11687,"Ġholos":11688,"eens":11689,"issing":11690,"Ġbloedingen":11691,":<[":11692,"scontrole":11693,"Aug":11694,"ĠZN":11695,"anamnestisch":11696,"Ġthoraxbeeld":11697,"cav":11698,"Ġgedocument":11699,"Kort":11700,"km":11701,"ĠKlep":11702,"Ġthoracalis":11703,"spunten":11704,"Ġhoogstand":11705,"Ġstenosegraad":11706,"onitis":11707,"Ġvh":11708,"Ġbijnier":11709,"generie":11710,"Ġthor":11711,"Ġmediaan":11712,"Ġaangesloten":11713,"Cardiogene":11714,"Beoordeling":11715,"renicus":11716,"ĠSkelet":11717,"Fer":11718,"wens":11719,"amin":11720,"Sept":11721,"ĠProximaal":11722,"Ġvertebralis":11723,"Ġbekijken":11724,"ĠRDW":11725,"ĠDaags":11726,"ĠGedurende":11727,"erence":11728,"Ġannulusdilatatie":11729,"han":11730,"toen":11731,"Ġaangeboren":11732,"PQ":11733,"ICC":11734,"Ġasy":11735,"ĠPositie":11736,"Ġdevicetechnicus":11737,"Ġverliep":11738,"Ġtandheelkundige":11739,"bipolair":11740,"ĠLi":11741,"Ġvasthouden":11742,"Ġhierop":11743,"Ġvroeger":11744,"Ġgrad":11745,"osuctie":11746,"Ġmusc":11747,"ĠĠĠĊ":11748,"ĠSpecialist":11749,"ĠEerst":11750,"Ġsepsis":11751,"Ġgestenoseerd":11752,"tachy":11753,"Ġonsch":11754,"Ġtunnel":11755,"Ġpartieel":11756,"gerd":11757,"Ġventrikelrespons":11758,"Ġinterrogatie":11759,"Ġbon":11760,"gehalte":11761,"Ġhoudings":11762,"VULLEN":11763,"ĠWeet":11764,"fus":11765,"Ġwenst":11766,"ĠTensie":11767,"ĠVanaf":11768,"ibe":11769,"Ġbestraling":11770,"arcoumar":11771,"ĠAneur":11772,"ynt":11773,"ĠHY":11774,"Ġneiging":11775,"spreek":11776,"Ġkantoor":11777,"Ġvolumina":11778,"Ġbilaterale":11779,"ĠHoge":11780,"Ġbuitenland":11781,"ĠParoxismaal":11782,"Ġvleeskal":11783,"ORAAL":11784,"isu":11785,":*":11786,"Ġparoxysmale":11787,"ĠXECG":11788,"oegde":11789,"kanker":11790,"ĠElectrische":11791,"Ġvleeskalveren":11792,"Ġwrijven":11793,"verw":11794,"minste":11795,"sprak":11796,"LN":11797,"Soms":11798,"Mei":11799,"blokkers":11800,"Ġdecomp":11801,"Se":11802,"Ġpalpatie":11803,"Ġbeats":11804,"ilus":11805,"rosis":11806,"Ġspann":11807,"Ġhartkatheterisatie":11808,"gep":11809,"roker":11810,"Ġhypokaliemie":11811,"Ġooit":11812,"Ġosteoporose":11813,"Ventriculaire":11814,"Ġverzorg":11815,"Ġdilated":11816,"ieerd":11817,"Ġtuin":11818,"lext":11819,"Ġhoeft":11820,"Pulsbreedte":11821,"Afgelopen":11822,"ĠBeperkte":11823,"RIMA":11824,"ĠDagbehandeling":11825,"Ġbegele":11826,"Ġkar":11827,"streef":11828,"SPV":11829,"uceerd":11830,"orbus":11831,"Amplitude":11832,"Ġangstig":11833,"ĠTelemetrie":11834,"ĠLaag":11835,"ĠPart":11836,"Atrium":11837,"Losartan":11838,"ĠOMH":11839,"Ġhond":11840,"part":11841,"gend":11842,"Ġklepvervanging":11843,"otoxic":11844,"incl":11845,"ĠSaturatie":11846,"ĠRisico":11847,"Slank":11848,"mate":11849,"sat":11850,"Ġmbv":11851,"ension":11852,"halings":11853,"Ġsignalen":11854,"Ġtabletten":11855,"RAN":11856,"Ġamoxicilline":11857,"eekend":11858,"ĠDochter":11859,"denken":11860,"Ġleuc":11861,"Ġsingle":11862,"odialyse":11863,"Ġrestrictief":11864,"Ġwandbewegingsstoonissen":11865,"ĠAcenocoumarol":11866,"ĠUr":11867,"diastolisch":11868,"ĠVPK":11869,"Ġpathogene":11870,"ĠNef":11871,"Ġhoofdstamstenose":11872,"ĠREGAD":11873,"Ġregurg":11874,"kliniek":11875,"akter":11876,".%":11877,"moeder":11878,"roepen":11879,"ĠLinkerventrikel":11880,"dimensies":11881,"Ġfrontaal":11882,"ibiliteit":11883,"ENOSON":11884,"Ġhebt":11885,"ĠQuality":11886,"Ġconstri":11887,"relatie":11888,"naud":11889,"ophage":11890,"Vochtbalans":11891,"Ġohm":11892,"LVAD":11893,"Ġjugularis":11894,"Ir":11895,"Ġbesl":11896,"ardeh":11897,"Ġdaarvan":11898,"Ġartefacten":11899,"ĠRet":11900,"zaken":11901,"elo":11902,"GIE":11903,"Ġverbeterde":11904,"GAT":11905,"aritmien":11906,"Ġrill":11907,"Ġonderzocht":11908,"Alkalische":11909,"LT":11910,"Ġschade":11911,"Ġfacet":11912,"maand":11913,"pathologie":11914,"Ġdoorgenomen":11915,"Ġdepressies":11916,"platting":11917,"ĠVerzoek":11918,"Diuretica":11919,"Ġgevisu":11920,"Ġrefill":11921,"ew":11922,"Ġtub":11923,"ĠLeucocyten":11924,"ĠVaat":11925,"estenose":11926,"calcificeerde":11927,"Ġisthmusblock":11928,"eflow":11929,"Ġarry":11930,"Ġculprit":11931,"Ġpalpabele":11932,"Ġgastritis":11933,"Ġallergische":11934,"Ġdehydratie":11935,"ĠPH":11936,"ĠOog":11937,"Ġatrofie":11938,"Ġwandverdunning":11939,"erle":11940,"ilept":11941,"Ġkauwtb":11942,"ĠSieswerda":11943,"Ġpoplite":11944,"Ġrugpijn":11945,"rio":11946,"ĠWervel":11947,"ea":11948,"Ġretrop":11949,"Oxazepam":11950,"ĠREGADENOSON":11951,"Ġmening":11952,"zn":11953,"Ġprojecterend":11954,"UT":11955,"Ġnierinsufficintie":11956,"iteits":11957,"asse":11958,"Ġdraden":11959,"Ġslap":11960,"spoedpatient":11961,"ĠLWI":11962,"ĠBevindingen":11963,"Ġabusus":11964,"arly":11965,"Ġfysiek":11966,"Ġnormalisatie":11967,"bra":11968,"ĠIAP":11969,"Ġrecompensatie":11970,"atriumfibrilleren":11971,"ĠIrregulaire":11972,"Toevoegen":11973,"aggregatieremmers":11974,"iseerd":11975,"sotalol":11976,"ije":11977,"raject":11978,"Ġantist":11979,"Ġspanning":11980,"rux":11981,"Ġlinkerarm":11982,"Ġcoronarius":11983,"aus":11984,"Ġlonge":11985,"bloeddruk":11986,"Invulling":11987,"Ġbene":11988,"hoek":11989,"Ġmargin":11990,"Ġerosieve":11991,"CTR":11992,"Ġlog":11993,"ĠLow":11994,"Wordt":11995,"Ġzorgvraag":11996,"ĠBesloten":11997,"valvulair":11998,"Ġimponeert":11999,"stens":12000,"Subdiagnose":12001,"Calc":12002,"Forse":12003,"nl":12004,"alcificaties":12005,"hydrox":12006,"AAN":12007,"endruk":12008,"ptom":12009,"Ġsil":12010,"Ġvitale":12011,"ikoorts":12012,"ĠZuurstof":12013,"AO":12014,"compaction":12015,"putting":12016,"okter":12017,"Ġcombi":12018,"woorden":12019,"Ġdoch":12020,"Ġlaparoscopische":12021,"Ġfilm":12022,"ĠAortawortel":12023,"ĠDaarom":12024,"Jaar":12025,"Lisinopril":12026,"ĠGeplande":12027,"Ġreconstructie":12028,"pantoprazol":12029,"Vena":12030,"Ġtraumatische":12031,"Dou":12032,"Ġniks":12033,"Ġgemiddelde":12034,".(":12035,"Radialis":12036,"ĠLok":12037,"omplex":12038,"Ġallen":12039,"Ġtussent":12040,"Ġtur":12041,"cta":12042,"Ġsubendocardiale":12043,"cf":12044,"Ġgevisualiseerd":12045,"ese":12046,"wiss":12047,"ĠFax":12048,"school":12049,"Ġloc":12050,"Ġminor":12051,"Ġklin":12052,"ĠFam":12053,"Ġlokaal":12054,"Ġsuspecte":12055,"ĠBehand":12056,"Ġgeruisen":12057,"isory":12058,"Ġtransplantatie":12059,"Ġthrill":12060,"Ġorgaan":12061,"uplex":12062,"ĠMultidisciplinair":12063,"ialen":12064,"ĠTri":12065,"Ġaugmentin":12066,"CAL":12067,"Ġdyslipidemie":12068,"rome":12069,"Ġcomorbiditeit":12070,"oumarine":12071,"GEVENS":12072,"Ġgecorrigeerd":12073,"Ġsystolic":12074,"Ġoptimaliseren":12075,"verandering":12076,"maximaal":12077,"rocedureel":12078,"ĠintracraniÃ«le":12079,"ĠIDM":12080,"hold":12081,"ĠIVUS":12082,"ĠTerug":12083,"Ġbiom":12084,"Ġeffectief":12085,"ĠPlavix":12086,"verwijsbrief":12087,"ipel":12088,"Ġgenoteerd":12089,"Ġaandoeningen":12090,"Ġontregel":12091,"ĠAlle":12092,"profiel":12093,"aliseerde":12094,"becularisatie":12095,"Ġafwezig":12096,"Ġregulaire":12097,"Ġverdeling":12098,"ĠCarelink":12099,"ĠMeestal":12100,"lot":12101,"Flow":12102,"ĠMAP":12103,"Ġnicotine":12104,"yloc":12105,"Non":12106,"ditioneel":12107,"Ġy":12108,"Ġcoll":12109,"hn":12110,"aanvrager":12111,"Ã¨tablokkers":12112,"ricuspidalisklep":12113,"Calciumscore":12114,"Ġdaarmee":12115,"VC":12116,"ĠMC":12117,"rolithiasis":12118,"ĠSymptomatische":12119,"osynt":12120,"ĠStreef":12121,"stre":12122,"Ġgecombineerd":12123,"veerd":12124,"Ġcrisiss":12125,"Ġweggeraakt":12126,"Ġcrisissituatie":12127,"ĠCardiomyopathie":12128,"ĠLinkeratrium":12129,"ĠarteriÃ«n":12130,"Ġhechtingen":12131,"Ġtno":12132,"Ġcardioversies":12133,"ĠStra":12134,"Ġonderv":12135,"Ġmeermaals":12136,"Ġlobectomie":12137,"ĠGEGEVENS":12138,"vet":12139,"ĠLIN":12140,"Ġreveal":12141,"asmen":12142,"acter":12143,"vuldig":12144,"mutatie":12145,"ellcept":12146,"ser":12147,"Ġfunctionerende":12148,"Ġvasculitis":12149,"Ġjunctioneel":12150,"Moet":12151,"Ġbepaalde":12152,"ĠTrig":12153,"ichew":12154,"Ġbrachi":12155,"maag":12156,"ctiva":12157,"ĠPLCx":12158,"Ven":12159,"verteb":12160,"mo":12161,"Ġkleppenteam":12162,"ĠĊĊĠ":12163,"Vast":12164,"ĠgeÃ¯nd":12165,"Ġhypon":12166,"ĠZelf":12167,"Ġallergisch":12168,"Ġschildklierfunctie":12169,"Ġopgetrokken":12170,"Ġfasc":12171,"ulent":12172,"Ġtepel":12173,"Ġaangewezen":12174,"Ġheen":12175,"Ġatten":12176,"Feb":12177,"Longembolie":12178,"ĠNuchter":12179,"Ġol":12180,"Ġnatief":12181,"Ġsedert":12182,"schouder":12183,"Special":12184,"Ġcervicale":12185,"Ġopport":12186,"ĠWL":12187,"Ġantegra":12188,"opend":12189,"heim":12190,"Enalapril":12191,"Ġpakje":12192,"ĠChirurg":12193,"Ġva":12194,"nieren":12195,"Ġwachttijd":12196,"Ġcond":12197,"Ġtafel":12198,"luenza":12199,"Ġtranspireren":12200,"ejectiefractie":12201,"ĠJT":12202,"ĠIgG":12203,"Ġachterwand":12204,"ĠCORONA":12205,"Ġsuiker":12206,"arget":12207,"Ġileus":12208,"Ġoptimalisatie":12209,"Ġmgr":12210,"ĠcT":12211,"ectio":12212,"aging":12213,"lozine":12214,"Ġposttra":12215,"Ġklierweefsel":12216,"ĠAdrenaline":12217,"fL":12218,"procedureel":12219,"Reference":12220,"Ġhartstilstand":12221,"ify":12222,"Ġmac":12223,"alco":12224,"Ġarth":12225,"nex":12226,"Ġkarakter":12227,"ars":12228,"Ġbaden":12229,"pols":12230,"veis":12231,"Ġstuwings":12232,"ĠMamma":12233,"Ġcolitis":12234,"Ġintermitt":12235,"aalarts":12236,"Ġdiagonale":12237,"ĠAMI":12238,"Ġextreme":12239,"ĠVVR":12240,"ĠFactor":12241,"ropsych":12242,"Ġoorsprong":12243,"ziens":12244,"vdH":12245,"rocort":12246,"Bas":12247,"Ġtachyaritmien":12248,"Twee":12249,"Medicatiegebruik":12250,"Ġpoliepen":12251,"ĠAmpl":12252,"profyla":12253,"fmol":12254,"atriemie":12255,"Ġoorspronkelijk":12256,"umerus":12257,"ubb":12258,"Ġuitstralend":12259,"ruct":12260,"Ġlac":12261,"ylocain":12262,"anemie":12263,"Ġstatines":12264,"Vader":12265,"acilline":12266,"Ġinfarcten":12267,"ĠFosfaat":12268,"idente":12269,"knapt":12270,"atose":12271,"ĠsigmoÃ¯d":12272,"Ġdgn":12273,"yth":12274,"ĠMP":12275,"antagonisten":12276,"-)":12277,"Ġintroductie":12278,"haar":12279,"Trombocytenaggregatieremmers":12280,"reshold":12281,"Ġbevindt":12282,"Ġvolgde":12283,"ĠHeel":12284,"Ġmorfine":12285,"patiÃ«nt":12286,"Ġgebeurd":12287,"ĠDBC":12288,"zetimibe":12289,"Ġpiep":12290,"ĠLDH":12291,"operfusie":12292,"uwde":12293,"bivolol":12294,"ĠMeneer":12295,"Ġburs":12296,"Ġgeleidingsvertraging":12297,"orine":12298,"Ġsim":12299,"ĠHypokinesie":12300,"Ġverkouden":12301,"ĠVanochtend":12302,"Ġgraciel":12303,"kuur":12304,"Vpk":12305,"Ġbijdragen":12306,"kins":12307,"tal":12308,"ĠgeÃ¯sol":12309,"Dabigatran":12310,"agliflozine":12311,"ĠDepressie":12312,"Ġadviseren":12313,"issectie":12314,"axa":12315,"ĠDuur":12316,"iefst":12317,"Trombosedienst":12318,"ĠFEV":12319,"perforatie":12320,"Paroxysmaal":12321,"Douchen":12322,"totaal":12323,"Ġresult":12324,"ĠVerwij":12325,"ĠRx":12326,"hist":12327,"ĠLo":12328,"rombose":12329,"Ġlittekenvorming":12330,"LOL":12331,"verlagers":12332,"Ġbiomar":12333,"szins":12334,"ĠBrug":12335,"hi":12336,"Ġtran":12337,"Bevindingen":12338,"Ġtrombolyse":12339,"elekt":12340,"ouders":12341,"informatie":12342,"ĠZit":12343,"ĠVermoeidheid":12344,"ĠaVR":12345,"Ġcrestor":12346,"Ġpraktijk":12347,"GATED":12348,"ĠEigen":12349,"hyper":12350,"Ġopladen":12351,"Ġfemoral":12352,"reactiviteit":12353,"ondanks":12354,"Dilat":12355,"geringe":12356,"rexaat":12357,"spees":12358,"ĠmitralisinsufficiÃ«ntie":12359,"antus":12360,"Ġcuff":12361,"reeds":12362,"ĠChamuleau":12363,"Ġobl":12364,"Ġrecorder":12365,"Ġalbumine":12366,"Ġthyre":12367,"opties":12368,"OPRO":12369,"Ġrechterbovenkwab":12370,"ĠCapsureFix":12371,"orfologie":12372,"ĠPLCX":12373,"Ġbevest":12374,"ĠJJ":12375,"radaxa":12376,"Medicijn":12377,"Ġgonartrose":12378,"ĠEet":12379,"gekomen":12380,"redelijke":12381,"zyg":12382,"Ġeenheid":12383,"Hyper":12384,"Ġimpuls":12385,"hydroxide":12386,"itraat":12387,"ial":12388,"Ġafgegeven":12389,"Ġoptimale":12390,"ĠTwe":12391,"ĠMedi":12392,"Ġinstroombelemmering":12393,"standige":12394,"denafil":12395,"enc":12396,"Ġzomer":12397,"ĠLocatie":12398,"ĠHO":12399,"alin":12400,"dem":12401,"Ġoesophagus":12402,"Ġlonggeneeskunde":12403,"Ġprecies":12404,"ĠLage":12405,"Ġgetriggerd":12406,"Ġdenken":12407,"Ġcerebri":12408,"Ġpoplitea":12409,"dyspnoe":12410,"ory":12411,"Ġbeademing":12412,"Ġzwanger":12413,"Dep":12414,"hepat":12415,"Ġgenoeg":12416,"Ġconcrementen":12417,"Ġcorpus":12418,"ĠMetformine":12419,"maken":12420,"Ġdysplasie":12421,"Ġocc":12422,"ĠAkinesie":12423,"sv":12424,"Ġcolonoscopie":12425,"ĠCP":12426,"Ġpassende":12427,"Ġecc":12428,"valueerd":12429,"ĠOFF":12430,"ctasieÃ«n":12431,"Ġkilo":12432,"ĠMedical":12433,"ĠHMC":12434,"itoneaal":12435,"din":12436,"Regel":12437,"Ġvoelbaar":12438,"Ġintermitter":12439,"ASD":12440,"ĠCONCLUSIE":12441,"Astma":12442,"uthyrox":12443,"Ġliezen":12444,"gevoegde":12445,"iem":12446,"spironolacton":12447,"ratropium":12448,"Ġ(?)":12449,"ĠrÃ¶ntgen":12450,"bespreken":12451,"Ġrichtlijnen":12452,"Ġattenuatie":12453,"ergy":12454,"ulose":12455,"Ġacetylsalicylzuur":12456,"Ġlinkszijdig":12457,"Ġinzicht":12458,"Ġhf":12459,"Ġuitputting":12460,"Ġwerkzaam":12461,"Ġhemodialyse":12462,"Ġzorgp":12463,"Thoracale":12464,"ĠCCN":12465,"Ġbelastbaar":12466,"aynaud":12467,"Ġwsch":12468,"Ġelleboog":12469,"Heden":12470,"Ġcoronairinsufficientie":12471,"maat":12472,"Ġhartklachten":12473,"ingang":12474,"Telefonisch":12475,"serie":12476,"irus":12477,"revisie":12478,"apien":12479,"Ġovale":12480,"ĠVena":12481,"uliere":12482,"wen":12483,"rate":12484,"Ġaandoening":12485,"Ġdikte":12486,"Ġrechterkamer":12487,"vaart":12488,"itatiefractie":12489,"Ġintermittens":12490,"standigheden":12491,"Ġtechnisch":12492,"Centrale":12493,"ĠBasaal":12494,"ĠCarb":12495,"entiÃ«le":12496,"otab":12497,"Ġboezemflutter":12498,"hemat":12499,"onef":12500,"Ġcardioth":12501,"Eerste":12502,"Ġklepblad":12503,"ĠGeneeskunde":12504,"GO":12505,"anuari":12506,"sensing":12507,"Ġonduidelijke":12508,"Ġ.[":12509,"omeen":12510,"Ġstro":12511,"Ġstille":12512,"ĠGerust":12513,"WP":12514,"asisch":12515,"klemm":12516,"ĠME":12517,"Ġbiatriale":12518,"Ġperiprocedureel":12519,"ĠOne":12520,"Ġafgeraden":12521,"Ġdiltiazem":12522,"igtail":12523,"Ġaspecifiek":12524,"Ġprevious":12525,"Ġtricuspidalisklepinsufficientie":12526,"ĠMultipele":12527,"Ġaneurysmata":12528,"olerant":12529,"Ġpersisteren":12530,"Ġepigastrio":12531,"otrexaat":12532,"anterior":12533,"Ġinconclusief":12534,"Ġonderdruk":12535,"Ġafmetingen":12536,"Ġsomber":12537,"ĠVoorstel":12538,"Ġdragen":12539,"Ġbib":12540,"Ġanest":12541,"ĠRS":12542,"AH":12543,"Ġuitgesteld":12544,"Laborant":12545,"Ġvermoe":12546,"Ġmitralisklepstenose":12547,"ĠParacetamol":12548,"ĠHartkloppingen":12549,"arnidipine":12550,"Fenprocoumon":12551,"Ġadenocarcinoom":12552,"Pump":12553,"plicht":12554,"bs":12555,"ĠSpoed":12556,"ĠFerritine":12557,"agd":12558,"edel":12559,"ĠMaag":12560,"zalf":12561,"ĠPDA":12562,"Ġgebrek":12563,"Ġhoofdingang":12564,"Verwijs":12565,"ativa":12566,"Ġwatt":12567,"ĠHematokriet":12568,"Ã«mie":12569,"Alleen":12570,"voerder":12571,"Ġsyn":12572,"era":12573,"alpitatie":12574,"ĠProtecta":12575,"aanval":12576,"Ġadmin":12577,"ĠVCS":12578,"Ġprol":12579,"Ġsetting":12580,"ĠVal":12581,"Ġnec":12582,"ĠPJ":12583,"illectomie":12584,"ransthoracaal":12585,"cepten":12586,"Terug":12587,"Ġlevercir":12588,"Ġbesprak":12589,"kkeling":12590,"die":12591,"reductie":12592,"Ġoproepen":12593,"Verdere":12594,"ĠHartbewaking":12595,"ĠArtikel":12596,"tel":12597,"dwandig":12598,"Ġmilrin":12599,"basaal":12600,"ĠNE":12601,"Ġcostomy":12602,"Inspannings":12603,"kant":12604,"Ġafplatting":12605,"Ġsclerotisch":12606,"wijl":12607,"ĠGastro":12608,"ĠVerwezen":12609,"ĠBeide":12610,"Ġregistreren":12611,"ometason":12612,"Ġvs":12613,"ADL":12614,"Ġmarkers":12615,"Kleplijden":12616,"Ġopa":12617,"Screening":12618,"Maximale":12619,"Ġcongenitaal":12620,"Verwezen":12621,"profylaxe":12622,"Ġges":12623,"Ġrekanalisatie":12624,"ĠACIDO":12625,"ĠBorderline":12626,"rist":12627,"Ġmonitorzone":12628,"ĠNeurologie":12629,"Houdt":12630,"Ġovergezet":12631,"ernale":12632,"ĠIE":12633,"Ġgepaard":12634,"Ġcryo":12635,"ĠGeef":12636,"ĠBroer":12637,"ĠATPx":12638,"otiden":12639,"Ġ-/-":12640,"ĠQU":12641,"Ġlevervenen":12642,"laviculair":12643,"ged":12644,"Ġventrikels":12645,"Ġbovenbeen":12646,"undaire":12647,"reactie":12648,"Psych":12649,"ferrine":12650,"Ġrestrictieve":12651,"Ġaspiratie":12652,"ĠLCC":12653,"Ġbijhouden":12654,"thmie":12655,"IPV":12656,"juist":12657,"Telefoonnummer":12658,"isters":12659,"Ġvoicemail":12660,"Ġdonor":12661,"ĠLumb":12662,"iculaire":12663,"interval":12664,"Vrij":12665,"Heart":12666,"thoracaal":12667,"Eenmalig":12668,"Ġpartus":12669,"sues":12670,"Jicht":12671,"Ġneut":12672,"Ġkortademigheidsklachten":12673,"alingen":12674,"bloedingen":12675,"Ġaxil":12676,"><":12677,"Ġgluc":12678,"Ġischemiedetectie":12679,"Ġzichzelf":12680,"Ġbronchus":12681,"Verwijsdatum":12682,"Ġheropname":12683,"ractuur":12684,"Dag":12685,"chloride":12686,"Ġcompet":12687,"Ġmitralisklepplastiek":12688,"Ġzalf":12689,"iliter":12690,"ĠDistaal":12691,"Ġgeleidingsstoornis":12692,"yline":12693,"ĊĊĊĊĊĊĊĊĠĊĊĊĊ":12694,"volgens":12695,"zame":12696,"RCX":12697,"Ġparoxysmen":12698,"Ġtoestand":12699,"Ġlaagdrempelig":12700,"Mee":12701,"Ġbewegingen":12702,"lowing":12703,"idiafragma":12704,"ĠMean":12705,"ACHD":12706,"Ġoverlegd":12707,"ĠLast":12708,"heugen":12709,"Ġbacteri":12710,"Ġreuma":12711,"lextachycardie":12712,"icla":12713,"amputatie":12714,"ĠType":12715,"Ġdri":12716,"onsillectomie":12717,"iveren":12718,"opau":12719,"ĠDistale":12720,"lumen":12721,"Ġnabep":12722,"Ġcarb":12723,"Coronairangiografie":12724,"OHO":12725,"ĠVC":12726,"idon":12727,"ouffle":12728,"ĠWegens":12729,"Calcifications":12730,"Ġcardiomediastinale":12731,"Ġneer":12732,"Ġdalteparine":12733,"algeen":12734,"Ġontplooid":12735,"Ġbv":12736,"Regie":12737,"Ġsize":12738,"ikte":12739,"geschat":12740,"ĠApicaal":12741,"opyramide":12742,"Werk":12743,"ĠAfib":12744,"ĠVit":12745,"Ġpaniek":12746,"Ġpersoon":12747,"Ġimmun":12748,"Ġcollapsneiging":12749,"Ġmilliliter":12750,"Ġholteronderzoek":12751,"geluk":12752,"Digoxine":12753,"amlodipine":12754,"oesophage":12755,"ĠCentraal":12756,".),":12757,"ĠPresentatie":12758,"collab":12759,"Ġmitralisinsufficientie":12760,"hom":12761,"Ġ!":12762,"ĠDIS":12763,"zekeringsnummer":12764,"ois":12765,"Ġhis":12766,"ĠAureus":12767,"QC":12768,"Ġwandelt":12769,"aciteit":12770,"Ġpolymorfe":12771,"dro":12772,"ĠVSM":12773,"iclazide":12774,"Ġbukken":12775,"BÃ¨tablokkers":12776,"Ġpack":12777,"Ġao":12778,"Ġafgifte":12779,"ĠSintrom":12780,"alse":12781,"adenoom":12782,"roof":12783,"Hydrochloorthiazide":12784,"ĠSwitch":12785,"Ġelectrische":12786,"Ġnoch":12787,"uwen":12788,"orthop":12789,"abase":12790,"apr":12791,"Ġstruma":12792,"scor":12793,"ergen":12794,"OLOGIE":12795,"Ġkamerlucht":12796,"fellow":12797,"CMO":12798,"ocardial":12799,"Ġvoorschrijven":12800,"Sup":12801,"Ġstond":12802,"INSPANNINGS":12803,"Ġberekend":12804,"ĠGraad":12805,"Ġenter":12806,"Ġincompleet":12807,"ĠGrote":12808,"Ġaberrante":12809,"Ġgeldt":12810,"ĠBetreft":12811,"ĠinterstitiÃ«le":12812,"ĠEntresto":12813,"ĠBMS":12814,"omateuze":12815,"ĠCovid":12816,"Ġgisteravond":12817,"Ġzwangerschaps":12818,"ĠRitmestoornissen":12819,"Ġthuissituatie":12820,"kinson":12821,"Ġalarm":12822,"Bumetanide":12823,"Ġtransplant":12824,"Wanneer":12825,"aande":12826,"Ġembolisatie":12827,"Ġneven":12828,"Bep":12829,"erentiaal":12830,"Aut":12831,"oir":12832,"Ġvensters":12833,"Ġmeniscus":12834,"ĠNegatief":12835,"sep":12836,"hartfalen":12837,"ĠAAI":12838,"Lipidenverlagers":12839,"Ġconstrictiva":12840,"IREN":12841,"ĠGeslaagde":12842,"Ġoverall":12843,"mpje":12844,"Ġschatten":12845,"ĠMaakt":12846,"Ġster":12847,"iÃ«ctasieÃ«n":12848,"focus":12849,"dipyridamol":12850,"Isch":12851,"Ġgehalveerd":12852,"coronaire":12853,"Ġmultiforme":12854,"Ġbenadering":12855,"Ġrhe":12856,"ĠBekken":12857,"ademigheid":12858,"ĠLWK":12859,"aca":12860,"ĠLBBB":12861,"Ġdiastologie":12862,"Gegevens":12863,"scop":12864,"Oxycodon":12865,"Lichte":12866,"Ġoverweg":12867,"Ġinguinalis":12868,"Ġoxazepam":12869,"Bisoprolol":12870,"Ġscl":12871,"uitgang":12872,"Aanwezige":12873,"ĠCORONAIREN":12874,"ĠCoA":12875,"herapie":12876,"AAT":12877,"Ġpers":12878,"Ġsonde":12879,"rocortison":12880,"Ġtro":12881,"Ġbaso":12882,"ĠWervelkolom":12883,"ĠDagelijks":12884,"assoc":12885,"ĠAnemie":12886,"ĠPlan":12887,"Ġbiplane":12888,"Ġangiogram":12889,"SSS":12890,"AZN":12891,"HM":12892,"fort":12893,"Ġfemur":12894,"Ġcoxartrose":12895,"imit":12896,"ĠVESSEN":12897,"Ġtherapeutic":12898,"./":12899,"loze":12900,"schap":12901,"Ġpyel":12902,"lem":12903,":_":12904,"neus":12905,"veline":12906,"AA":12907,"ĠGeleid":12908,"Ġreductie":12909,"VH":12910,"ĠWT":12911,"deviatie":12912,"Fragmin":12913,"Ġnebivolol":12914,"ĠProx":12915,"ĠSoepel":12916,"Ġzichtbare":12917,"adsvasc":12918,"Dimensies":12919,"Ġzwak":12920,"Ġnifedipine":12921,"Ġabdominaal":12922,"Hist":12923,"TDI":12924,"zit":12925,"alcificeerd":12926,"iclovir":12927,"ioseal":12928,"Ġtraden":12929,"EMIE":12930,"adrant":12931,"pora":12932,"thuismedicatie":12933,"ĠTBC":12934,"achter":12935,"Ġpg":12936,"Ġhooggradig":12937,"resten":12938,"pneumonie":12939,"Ġrit":12940,"vormig":12941,"ĠDenkt":12942,"ĠElektrocardiografie":12943,"iotens":12944,"Ġprogrammering":12945,"Retourreden":12946,"iseerde":12947,"Ġbru":12948,"Nitraten":12949,"Ġwenselijk":12950,"Ġlongveneflow":12951,"ĠPassag":12952,"gebruikt":12953,"oeling":12954,"diagnostisch":12955,"Ġzinvol":12956,"stim":12957,"ĠBF":12958,"ĠBoven":12959,"YL":12960,"ĠBar":12961,"ĠOverigens":12962,"Ġpulmonaalven":12963,"Ġinspanningsonderzoek":12964,"Ġstep":12965,"Anatomie":12966,"Ġcardiologisch":12967,"ĠFemor":12968,"ĠOpvallend":12969,"Huidhechting":12970,"Ġequaal":12971,"verdeling":12972,"ĠHyd":12973,"Elektrofysiologisch":12974,"Ġaxillair":12975,"Ġomstandigheden":12976,"Ġrhonchi":12977,"ucht":12978,"Scar":12979,"Ġadipeus":12980,"Ġknieprothese":12981,"ody":12982,"Ġfysiotherapeut":12983,"Ġhevig":12984,"Oper":12985,"holte":12986,"verteerd":12987,"irium":12988,"Ġgediagnost":12989,"Ġextractie":12990,"Ġpostuur":12991,"rinsieke":12992,"Proximale":12993,"Ġintercollegiaal":12994,"ĠDur":12995,"Ġgedocumenteerd":12996,"ĠNederlandse":12997,"ĠNO":12998,"Moe":12999,"Ġgroep":13000,"Slechte":13001,"Ġpalli":13002,"Ġatriumfibrillatie":13003,"mob":13004,"Ġkaken":13005,"Ġoverslag":13006,"Ġverticale":13007,"Ġcarcin":13008,"interventie":13009,"vocatietest":13010,"AST":13011,"dissectie":13012,"Ġhyperreactiviteit":13013,"/|":13014,"Ġvoorste":13015,"jaag":13016,"Ġaanspreek":13017,"sief":13018,"point":13019,"OSAS":13020,"ĠZiek":13021,"Temazepam":13022,"Ġbrug":13023,"Ġbijkomende":13024,"Ġbank":13025,"Ġgehouden":13026,"iotensine":13027,"Ġmmhg":13028,"ĠRookt":13029,"ardig":13030,"para":13031,"ĠIABP":13032,"]=":13033,"Ġzoutbeperking":13034,"Ġguid":13035,"Ġinziens":13036,"ĠVerzekeringsnummer":13037,"ĠContact":13038,"ietst":13039,"SJM":13040,"ĠEosinofielen":13041,"lon":13042,"Ġsubple":13043,"ĠDrie":13044,"Ġvalve":13045,"ĠWeinig":13046,"onefritis":13047,"Ġirreversibel":13048,"andesartan":13049,"iceerd":13050,"]'":13051,"ĠDuizeligheid":13052,"wissel":13053,"boog":13054,"Ġbeoordelend":13055,"ompenseerd":13056,"Ġtenminste":13057,"Ġwervels":13058,"Ġgold":13059,"Ġpuf":13060,"Ġgecompliceerde":13061,"deri":13062,"Ġplekken":13063,"Ġzoveel":13064,"Ġverbeterend":13065,"Ġrithme":13066,"Ġcompartimenten":13067,"by":13068,"Ġisoprenaline":13069,"ZUUR":13070,"ĠBronch":13071,"eem":13072,"Ġbeiden":13073,"restor":13074,"ĠDA":13075,"Depressie":13076,"Ġstuwingskenmerken":13077,"Ezetimib":13078,"snr":13079,"beperkt":13080,"Ġnaald":13081,"Ġzwart":13082,"Ġmelanoom":13083,"Calcificaties":13084,"Ġfirma":13085,"Ġbijdragend":13086,"atriaal":13087,"Ġhypox":13088,"Ster":13089,"Ġsouff":13090,"Ġtabl":13091,"enshuis":13092,"Ġrechtszijdig":13093,"ĠEnergen":13094,"Ġreconnectie":13095,"Orthopedisch":13096,"Ġfusie":13097,"Ġintraventriculaire":13098,"derivaten":13099,"Ġvoren":13100,"Ġdiscus":13101,"Ġdiagonal":13102,"RIL":13103,"Ġneo":13104,"Ġld":13105,"gebreks":13106,"existente":13107,"Nuchter":13108,"Ġdownsloping":13109,"Ġverdwijnen":13110,"tr":13111,"idol":13112,"Ep":13113,"SG":13114,"haald":13115,"atoren":13116,"proxim":13117,"Calciumantagonisten":13118,"Ġtroponines":13119,"Ġimaging":13120,"ĠWest":13121,"oxazol":13122,"Ġgedi":13123,"Ġdefinitieve":13124,"Ġbewustzijnsverlies":13125,"Minimal":13126,"Ġtachycard":13127,"Ġgecollab":13128,"Ġsclerotische":13129,"Ġdyssynchronie":13130,"gegaan":13131,"endroninezuur":13132,"ĠJicht":13133,"analyseerd":13134,"Ġborstkas":13135,"Ġontwaterd":13136,"Ġopgeknapt":13137,"vloe":13138,"MCG":13139,"bele":13140,"ience":13141,"patch":13142,"rond":13143,"Ġopportuun":13144,"iemie":13145,"verschijnselen":13146,"Coumarine":13147,"otrim":13148,"Ġurologie":13149,"apine":13150,"Ġcombinatieafspraak":13151,"rouwd":13152,"matische":13153,"Ġslaapap":13154,"ubatie":13155,"raakt":13156,"Ġmol":13157,"Ġhechting":13158,"raagde":13159,"Ġregistry":13160,"Appendectomie":13161,"tumor":13162,"etiek":13163,"Ġverward":13164,"Ġstreven":13165,"Ġparese":13166,"Ġteveel":13167,"ĠDopamine":13168,"Ġfunktie":13169,"uided":13170,"rogrammering":13171,"Ġbloedonderzoek":13172,"Ġpraten":13173,"neemt":13174,"Ġspecialistische":13175,"Ġwijzigingen":13176,"Ġsuboptimaal":13177,"Ġhetero":13178,"mper":13179,"oestand":13180,"SY":13181,"Ġzelden":13182,"Ġbegrensd":13183,"No":13184,"HG":13185,"dekken":13186,"comma":13187,"Ġenigszins":13188,"gevoeligheid":13189,"Ġmi":13190,"gedurende":13191,"ĠFL":13192,"ucleaire":13193,"TVR":13194,"Ġpolsfrequentie":13195,"Ġvlot":13196,"ĠBehoudens":13197,"kram":13198,"emd":13199,"issuur":13200,"Ġfebr":13201,"Ġfout":13202,"Ġgeschikt":13203,"Ġischem":13204,"Ġcef":13205,"EDV":13206,"ĠOut":13207,"aptatie":13208,"aled":13209,"ĠCataract":13210,"ĠPCM":13211,"ervisor":13212,"Ġartefact":13213,"Ġadviseerde":13214,"Ġvasovagale":13215,"Ġeenmalige":13216,"ĠSyst":13217,"ĠPermanent":13218,"Ġocclusies":13219,"Ġbeneden":13220,"ĠAFC":13221,"RAAG":13222,"ĠMitraclip":13223,"pes":13224,"Ġleuko":13225,"dagen":13226,"Ġviraal":13227,"Prasugrel":13228,"Ġdos":13229,"Ġlumbaal":13230,"Ġkilometer":13231,"Ġvernevel":13232,"Coumarinederivaten":13233,"Ġlegitimatie":13234,"Ġhydrochloorthiazide":13235,"Ġhinge":13236,"Ġhernieuw":13237,"ĠBasofielen":13238,"contour":13239,"Ġimmob":13240,"sdatum":13241,"Werkt":13242,"ĠSchouder":13243,"ĠInstabiele":13244,"riteria":13245,"edie":13246,"ĠbeÃ«":13247,"Ġpret":13248,"Ġtoegestuurd":13249,"Ġlongvaat":13250,"Ġeiwit":13251,"Ġdivert":13252,"Ġspiro":13253,"Ġvervolgafspraak":13254,"inetijd":13255,"Ġomslag":13256,"Ġintraveneuze":13257,"kans":13258,"kanaal":13259,"ĠTeligen":13260,"ittend":13261,"chte":13262,"Ġtacrolimus":13263,"Ġbloedverdunners":13264,"Ġbijzondere":13265,"rac":13266,"edemen":13267,"Ġcontraherende":13268,"iotropium":13269,"ision":13270,"Ġlegitimatiebewijs":13271,"Ġbijv":13272,"Ġduren":13273,"Antidiabetica":13274,"ĠCap":13275,"ekte":13276,"Intervalanamnese":13277,"\",":13278,"Ġbee":13279,"ĠAMO":13280,"Ġinfecties":13281,"bod":13282,"Ġoplopende":13283,"passingen":13284,"ranolol":13285,"Ġbibasaal":13286,"Ġrunnetjes":13287,"ĠOptis":13288,"Ġwekelijk":13289,"Ġvaatlumen":13290,"ware":13291,"ĠLies":13292,"Verdenking":13293,"Ġnefrectomie":13294,"Ġexterna":13295,"related":13296,"Ġvragenlijst":13297,"speriode":13298,"Ġspecifiek":13299,"zending":13300,"ĠPPI":13301,"ĠMicro":13302,"Ġduplex":13303,"Ablatie":13304,"Ġhypoperfusie":13305,"Ã¯sch":13306,"ĠDoel":13307,"ĠVOD":13308,"Ġcrux":13309,"anje":13310,"ĠUl":13311,"ĠVermoedelijk":13312,"Vitamine":13313,"schatting":13314,"Ġinzakking":13315,"zakkingen":13316,"Beoordelingsdatum":13317,"versmalling":13318,"Ġthuismeting":13319,"middel":13320,"Ġfilmom":13321,"corder":13322,"ĠFietst":13323,"MIC":13324,"ĠShop":13325,"tre":13326,"ĠRevascularisatie":13327,"Angiotensine":13328,"ĠDilatatie":13329,"enteritis":13330,"OAS":13331,"Ġcyst":13332,"Ġwork":13333,"paal":13334,"stoestand":13335,"Ġverlenging":13336,"Ġhoofdbehandelaar":13337,"Regievoerder":13338,"zuigen":13339,"Ġverergering":13340,"ĠAspirine":13341,"ĠOnvoldoende":13342,"toediening":13343,"Ġbedragen":13344,"Ġopsturen":13345,"Ġalwaar":13346,"Ġcontractiele":13347,"Ġposterieur":13348,"ĠDiagnost":13349,"wandverdikking":13350,"Angiotensineblokkers":13351,"ilmpje":13352,"ĠBentall":13353,"ssss":13354,"Ġhumerus":13355,"late":13356,"Ġuitspraak":13357,"Voorstel":13358,"ĠBet":13359,"Ġirr":13360,"ĠExtremiteiten":13361,"Ġhalsvaten":13362,"Ġuitvoerder":13363,"Ġgeanalyseerd":13364,"Ġbehulp":13365,"ĠGel":13366,"Ġoplosbaar":13367,"Ġeccentr":13368,"ĠPVR":13369,"Slanke":13370,"ijnt":13371,"Ġlv":13372,"dikten":13373,"Ġorthostatische":13374,"ĠBil":13375,"edocard":13376,"Risico":13377,"Richtlijnen":13378,"Ġhilaire":13379,"Ġtransfusie":13380,"jaagd":13381,"ĠAanvullende":13382,"ĠAppendectomie":13383,"Hoeveel":13384,"pakket":13385,"rohn":13386,"Ġlinkerventrikelhypertrofie":13387,"ĠEchocor":13388,"ĠFrequente":13389,"Biopt":13390,"Ġscoliose":13391,"PLCx":13392,"ragmatisch":13393,"zette":13394,"grond":13395,"Ġgecalcificeerd":13396,"aregistratie":13397,"ĠAchter":13398,"etine":13399,"Ġdataregistratie":13400,"Ġhaarden":13401,"ructureel":13402,"arine":13403,"icol":13404,"Ġtransfemorale":13405,"Ġconcentrisch":13406,"Ġsinusitis":13407,"ĠNot":13408,"ĠPrimair":13409,"recent":13410,"ĠPCR":13411,"Ġantibiotische":13412,"begrepen":13413,"extr":13414,"ĠFeb":13415,"fenac":13416,"Ġopgetreden":13417,"ĠhypothyreoÃ¯die":13418,"gemaakt":13419,"enden":13420,"ĠVo":13421,"ĠAssistant":13422,"Ġdm":13423,"boek":13424,"Ġonderbuik":13425,"vloed":13426,"endoor":13427,"mmhg":13428,"Ġgecollabeerd":13429,"nemend":13430,"slaande":13431,"Ġ++":13432,"Ġvoeren":13433,"Boven":13434,"ĠROK":13435,"Ġreactiv":13436,"NVT":13437,"prolaps":13438,"Ġgegeten":13439,"?,":13440,"holter":13441,"tussen":13442,"ĠSaO":13443,"ĠAMS":13444,"ĠRep":13445,"Ġborstklachten":13446,"Ġvalvulaire":13447,"osynthese":13448,"rogramm":13449,"LMWH":13450,"Ġterwijl":13451,"Contact":13452,"omon":13453,"Ġomzetten":13454,"waarvoor":13455,"Allergieen":13456,"ĠCHEMIE":13457,"ĠRaynaud":13458,"Ġmammogram":13459,"aec":13460,"ĠLMWH":13461,"laad":13462,"zaal":13463,"Ġconvention":13464,"omedic":13465,"Ġdrukmeting":13466,"loxacine":13467,"Ġsterie":13468,"Ġhematoloog":13469,"gestie":13470,"ĠFemorales":13471,"cessus":13472,"Ġobstructieve":13473,"onsc":13474,"sign":13475,"ĠBrugada":13476,"Verricht":13477,"Ġpulmonaalvenestenose":13478,"ĠRH":13479,"ĠPhysician":13480,"ximab":13481,"ulant":13482,"essie":13483,"Ġhuidig":13484,"Ġsein":13485,"Âµg":13486,"Ġberusten":13487,"As":13488,"Gro":13489,"Ġwa":13490,"ĠES":13491,"Ġelevaties":13492,"Ġreagerend":13493,"Ġnadenken":13494,"Ġpreren":13495,"Ġbegrijpt":13496,"Ġlift":13497,"blokkade":13498,"Ġcerebrale":13499,"Ġuitno":13500,"ĠNA":13501,"POS":13502,"Ġuitgang":13503,"chroon":13504,"ling":13505,"ĠVraag":13506,"Ontslaande":13507,"exc":13508,"Ġtap":13509,"Ġbehoefte":13510,"ĠLactaat":13511,"ratief":13512,"Lies":13513,"Ġverdraagt":13514,"Ġfraaie":13515,"ĠPeak":13516,"Ġinjv":13517,"Ġhaal":13518,"Endocrinologie":13519,"oplastiek":13520,"Ġgedet":13521,"Ġleaf":13522,"Ġherkent":13523,"afleidingen":13524,"ĠRBK":13525,"gerekte":13526,"ĠRvO":13527,"Ġhyperthyreoidie":13528,"Ġinduceerbaar":13529,"Ġzwemmen":13530,"COVID":13531,"Ġschedel":13532,"Ġdeficientie":13533,"Ġhypercholesterolaemie":13534,"Ġschrijven":13535,"Ġvaccinatie":13536,"Ġinm":13537,"Ġeindstadium":13538,"ĠATR":13539,"lotte":13540,"Ġmedicatiewijzigingen":13541,"oret":13542,"ĠRVH":13543,"riptyline":13544,"rieven":13545,"Ġintacte":13546,"ton":13547,"Ġaccel":13548,"Ġbelastingstest":13549,"ĠGER":13550,"ĠsO":13551,"ĠKinder":13552,"annuleerd":13553,"allot":13554,"Ġdiscopathie":13555,"$%":13556,"Ġpropofolsedatie":13557,"Ġhypof":13558,"Ġiat":13559,"abine":13560,"TT":13561,"ĠOc":13562,"paratie":13563,"Ġclassific":13564,"Ġhemopt":13565,"ĠContrast":13566,"ross":13567,"ificeerd":13568,"angio":13569,"Ġsportschool":13570,"ĠpartiÃ«le":13571,"acus":13572,"waarts":13573,"Ġeea":13574,"ĠJvdH":13575,"Ġcur":13576,"racy":13577,
[...]
