#version: 0.2
e n
e r
a n
i n
▁ v
d e
i e
o r
g e
a t
e t
s t
▁ de
o n
c h
▁ m
a l
i j
e l
▁v an
▁ b
i s
▁ h
▁ d
a r
▁ o
▁ t
▁ w
r e
in g
▁ e
▁ en
i t
▁ ge
r o
▁ p
▁ in
o or
▁ a
d en
l e
▁ s
▁ (
▁ n
c t
▁v er
d er
▁e en
o l
▁ c
▁ z
▁m et
o m
▁h et
t e
▁b e
▁ k
g en
l a
▁ D
at ie
r a
d i
is ch
a ar
ij k
o e
a s
▁o p
i d
er d
▁v oor
t en
▁ on
▁ C
i c
a m
u l
al e
isch e
o t
ch t
en t
▁ l
▁ re
u r
▁ 1
u s
▁ g
▁ st
▁t e
i l
▁a an
o g
ij n
v er
s ch
k en
▁ A
i g
s e
▁ is
h e
u n
▁ f
▁ -
▁ P
▁D e
l en
e e
o p
in e
▁ H
u m
e er
▁ E
▁ al
ct ie
v en
▁ S
s p
r u
de l
i m
▁ u
▁ I
v e
▁ 2
i k
▁o m
▁b ij
▁d ie
er en
▁w or
▁ M
at i
e m
▁ T
▁ .
▁ B
o s
▁d at
ing en
z e
an t
▁z ijn
a g
a al
i f
e s
▁o f
o c
▁d oor
or m
ë n
▁ N
ie t
▁on der
el e
s en
l ijk
▁ R
▁ O
▁ G
st e
t er
▁u it
a k
a p
▁w erd
en .
he id
▁ L
▁ V
▁p ro
▁w er
it e
a b
e p
▁ r
u t
▁c on
i re
▁al s
an d
an g
s ie
p er
el ijk
▁ [
ite it
▁ge en
▁n iet
d u
d t
h o
▁w aar
f f
▁ge b
▁t ot
u w
i st
e g
ati ën
ol og
ie k
re s
▁ 3
a ct
h an
el d
i on
ul t
i r
ar t
▁a f
▁o ver
r i
l o
▁wor den
oe d
f t
e ct
▁ le
▁wer den
0 0
i ge
▁n a
e erd
a c
▁p er
i v
▁on t
▁p atiën
e en
▁wor dt
i er
i de
▁m o
k er
o f
a d
▁w as
▁s p
a at
▁ an
u d
▁ W
▁I n
l u
▁ er
i cht
ge lijk
w ij
▁ la
i ch
v al
om en
u ur
r an
b e
n en
o k
ar di
a an
ie s
▁g ro
a st
▁de ze
- 1
▁ F
or t
er e
▁ 4
k t
y m
▁onder z
eer de
o se
A T
▁ 0
o on
el len
m in
if ic
▁ 5
▁z o
y p
▁s u
▁k an
ing s
n e
v ol
) .
O N
en ,
v o
E R
t ra
e c
) ,
▁e x
▁ gen
r on
▁w e
han del
der e
s .
ru ik
at en
e d
cht er
om p
on der
▁t oe
di g
i en
m en
as e
▁H et
in d
t ro
r ij
c on
er de
▁E r
s ult
▁ver sch
▁ ch
m a
w ee
i den
olog ie
w e
i p
a f
atie s
▁h o
▁ j
ent ie
am e
u i
▁e ff
e ctie
▁m g
o st
▁v ol
oe k
el l
▁geb ruik
▁b l
er s
▁d i
▁h e
ij d
la ire
c u
b b
m e
c l
en de
o d
ig n
h er
at er
as s
i a
ar en
il len
i b
y n
: C
▁ 6
S O
▁be handel
elijk e
q u
o x
k e
▁n aar
l in
ing .
▁patiën ten
▁n e
▁ ant
▁st ud
y st
on d
us sen
P ER
p ro
▁ U
▁ver b
al y
# #
▁m e
▁m aar
m er
SO ON
PER SOON
▁ge m
y l
s el
al s
▁in ter
▁n orm
▁ K
us ie
g er
▁ im
ent r
ge ven
▁s ch
▁d an
res sie
▁b et
s c
an der
' s
ep t
U M
di ge
▁versch illen
▁( (
▁l in
▁b el
a ak
p t
▁o ok
▁h er
ij den
b aar
k el
- c
ï n
c e
i ë
or g
del ijk
s m
▁( )
N A
iv iteit
▁in f
▁t er
re ven
a ctie
k ing
▁s ign
d .
▁e er
▁ 9
A R
a ire
▁k un
▁2 0
▁t ussen
am en
▁he bb
▁ Z
di c
▁ ro
i ve
▁ 7
ee ft
or en
▁uit ge
▁0 ,
la at
▁be sch
▁ge z
▁ont w
at h
p en
- 2
un ctie
w el
r ie
D AT
k ken
o ven
atie ve
s la
o en
p l
▁1 0
▁ 8
▁w aren
an n
▁t wee
ar e
DAT UM
e el
w it
▁C on
ro m
aly se
s ,
▁De ze
▁m in
▁onderz oek
u is
▁E en
▁e i
▁m eer
▁kun nen
▁hebb en
ie den
▁eff ect
id del
▁ver ho
i o
I N
ie uw
▁G een
on en
▁h eeft
de len
i um
r ijk
it ie
▁W e
er ing
ati on
▁n o
▁be v
▁patiën t
o el
y t
▁d it
▁re sult
▁bel ang
y c
tro le
du c
▁c omp
r en
z ig
o le
h ul
▁al le
▁verschillen de
a am
z en
▁ x
o gen
▁h y
ge l
y s
▁ver ander
di en
t oon
- ge
▁a ct
g ro
ardi ologie
ing ,
▁ge d
c es
at e
ag n
▁A n
▁ontw ik
ar m
▁stud ie
▁g er
▁bl oed
▁ver gelijk
PERSOON ]
on den
DATUM ]
▁m a
v an
al is
▁t ran
▁p re
w er
▁be st
▁sign ific
geven s
m m
p ressie
en s
er t
▁A l
sch ap
▁lin ker
ic ro
ch ten
▁h art
▁aan ge
her ap
m et
▁w at
ijden s
ië le
min der
▁verho og
▁k le
▁z e
o om
▁h ad
▁ ra
a cht
ie .
st er
▁p ol
og ra
- e
▁ at
u b
▁V er
d ro
ive a
en te
on g
olog ische
il l
▁c or
▁[ PERSOON]
a der
v ing
h y
- t
▁ver minder
▁an dere
▁su b
▁re c
▁v ro
s s
▁C T
m ent
▁re chter
E N
▁behandel ing
h al
a ge
▁belang rijk
▁ 's
l et
▁result aten
e k
▁ver k
▁gebruik t
or st
v l
▁b as
▁re g
▁z onder
▁( 1
u c
▁n ieuw
▁mo gelijk
cl usie
w oor
. .
e f
▁O m
▁ontwik kel
iek te
- 3
▁O n
ru ct
el f
gen omen
▁h un
eren .
2 1
sla g
▁ =
an te
at ten
ge st
sch reven
▁t ijdens
▁verb et
eren de
ul atie
▁m m
d ru
u ro
▁ el
hul p
n ame
d at
yp e
we zig
den .
▁ or
I E
et en
▁z ich
▁d ag
ar d
v orm
▁d a
▁j aar
▁be hulp
n el
i ale
▁p ijn
b are
▁h oe
▁1 2
- in
▁k w
▁zo als
iek e
al en
T E
▁k lin
k elijk
▁[ DATUM]
f ie
▁m ee
p p
▁a b
▁t oon
ee m
vol g
▁ +
t .
an is
a -
val u
▁ <
i ën
▁ei wit
res s
t ie
▁g oed
k om
I S
de m
ct ion
ge b
▁( P
le x
▁m an
▁c el
▁b in
st ell
sch ieden
A D
b ij
schieden is
der en
) )
ken .
e ft
et er
val len
oor z
▁s yst
it is
- p
er atie
▁ Q
I C
s :
▁norm ale
▁. ..
▁m icro
at eg
u it
▁c ol
ra cht
▁con trole
w aar
5 0
f er
ce du
ra m
- b
ge v
o b
▁be p
g ger
▁c ellen
▁le ver
ge le
gen .
de el
he den
ec if
et ische
C T
▁l ong
▁ge ïn
▁D it
k te
u re
▁b orst
▁b i
▁w ee
t ific
is ic
c entr
▁f unctie
ar i
o ten
▁p ar
▁om schreven
cu laire
, 5
gen de
▁be oor
▁c o
u den
▁S t
z ien
▁u ur
e st
o cht
▁ /
at or
- s
▁ ##
id delen
os itie
▁in tra
) :
▁nieuw e
▁v orm
▁aan wezig
▁ ru
1 0
▁re sp
▁p la
d ra
v oor
vo erd
ind ingen
▁be g
▁st er
▁im m
ie erd
▁su gger
▁(( )
l an
ig heid
▁m on
L O
▁te gen
c ellen
- m
u g
atie .
u le
at ische
ten .
▁b ere
ab let
▁hy per
:C ardiologie
▁p ost
▁t oen
▁e chter
te st
f sel
▁uitge voerd
du ctie
▁norm aal
A L
I D
▁B ij
gro ep
▁s c
▁act iviteit
ken d
a ch
or ie
cedu re
cht s
a x
h or
st ig
▁h yp
vo el
ur en
r im
on e
gen s
c o
▁ver toon
- re
:C AR
▁p laat
▁z iekte
atie f
▁k la
j es
▁re s
▁vro uw
▁bas is
▁20 1
eer t
IN G
▁l ich
▁h em
t al
er g
oe de
▁( C
▁c om
▁eer ste
n is
0 ,
▁G e
on t
▁ver oorz
A M
c in
▁b en
▁ #
▁ art
u p
▁de el
t ing
ik el
at uur
ie ,
d o
▁bin nen
▁ge ï
▁ge v
▁P ro
um or
sp ro
▁zo wel
▁c ardi
ass oc
f orm
▁ >
▁t ra
r it
os f
▁Con sult
▁b le
d ,
ele kt
▁ver wij
▁r isic
e u
▁gro ep
o -
ch n
▁ro l
▁1 .
▁bet ro
▁n ivea
▁ and
▁ge p
▁klin ische
▁ho og
▁e p
re k
▁s yn
▁verander ingen
m on
C H
wij l
st ige
wij s
c ept
u te
▁ho ge
▁t ijd
/ L
▁v eel
w ijk
▁a cu
▁z w
o ch
ra g
lijk e
h uis
am il
un ction
▁n u
( )
stell ing
▁An t
ie ken
▁a m
v el
▁1 1
▁verhoog de
2 )
▁signific ant
▁k in
▁ge gevens
s us
2 0
▁re actie
ym f
a ir
a ,
▁d rie
▁M et
al l
ri um
▁ge volg
k an
sch ijn
b re
v at
▁ge w
▁s nel
▁w ij
▁d is
▁wer k
ur ende
▁ ar
st en
▁l ang
ge m
▁onderz oe
▁R e
▁d oel
o ï
u de
as sen
▁st ab
▁an alyse
▁1 9
l ic
▁gro ot
. 0
ecif ieke
re gen
▁st ruct
▁di agn
* *
▁1 ,
om e
▁ter wijl
herap ie
os is
▁1 00
▁r el
▁stud ies
L E
em en
▁d ui
▁vergelijk ing
▁b oven
▁s amen
act or
▁a d
▁s ym
▁v ia
▁waar genomen
t ;
- 4
delijk e
▁niet -
▁er n
del ing
▁ver m
▁mee st
M P
at us
I I
or e
▁s le
dic atie
qu entie
ingen .
w eg
b le
k s
v ul
oor t
▁E x
u k
▁con t
▁L V
b in
sch rij
▁1 4
▁1 3
i ver
▁C O
c ul
▁s er
a .
▁m l
v as
▁N a
▁e valu
▁ge st
I L
act iviteit
lo w
▁n og
▁me ch
▁( S
▁a c
em b
▁aan tal
in ale
▁met ho
▁ge assoc
of d
on clusie
▁effect en
z uur
ateg orie
ken de
it h
/ min
▁B oven
E G
du ct
woor d
▁be wijs
an alyse
an c
E S
id ing
schijn lijk
dru k
- f
n a
ind ing
r el
▁[ (
uc le
▁en d
▁b re
▁ge k
o og
al c
▁B e
ater ale
y ten
0 %
al iteit
▁a p
t h
A S
an e
▁ne uro
m p
▁T he
▁signific ante
▁p at
un d
▁g ra
▁( N
▁t en
v la
x im
▁onder ste
▁ elekt
act er
ge schiedenis
▁2 .
af han
i -
▁k en
▁m il
▁in t
AT IE
aan de
▁ge le
A B
▁h og
gest eld
▁1 5
ati ge
l os
c omp
l ijn
▁ J
▁wee fsel
▁h aar
▁ "
g ang
▁geassoc ieerd
▁b lo
▁no dig
▁b il
er v
▁h ij
la st
▁O ver
k elijke
▁p ositie
▁d if
▁a ort
▁waar bij
▁m ens
aak t
▁kle ine
schrij ving
ic iën
eft ijd
▁O p
▁da gen
▁be per
▁mo del
ur g
▁ge voel
2 ,
ie l
u id
▁gen ee
c el
em ische
R I
▁ &
▁besch reven
c ent
ann eer
▁onderz ocht
▁< PERSOON
▁ ]
st and
▁- )
k omen
er atieve
▁ged urende
st of
▁betro kken
▁op t
▁d aar
eren ,
A P
ra ag
▁gro te
op en
z ym
▁min der
ke ur
per im
▁Ant woord
▁ et
▁m en
am ine
u ele
▁The ma
▁C ategorie
▁plaat s
▁Om schrijving
ro om
E D
per vla
ver sie
sp re
▁( M
▁o b
op t
op ro
▁ex tra
r ische
▁2 00
▁P o
▁mg /
el de
▁ org
e i
z icht
ctie ve
m g
A -
ie d
o od
▁ge de
▁alle en
atie ,
m o
duc eerde
z et
▁imm un
▁ iden
▁Boven dien
▁p oten
or te
▁acu te
s se
m at
▁t umor
v ent
▁le eftijd
lu c
▁g l
ten sie
▁c yt
▁pro ces
f unctie
▁v rij
st r
e x
▁im p
is s
E F
:Cardiologie ,
▁Categorie :Cardiologie,
ond heid
▁ver z
▁C h
▁m oe
▁n eg
▁mo le
ge gevens
n am
▁af wijk
o ol
▁aan d
▁1 6
▁n ier
▁l ymf
▁h el
l at
▁P C
▁ex pressie
▁belangrijk e
T -
st ru
▁tran s
▁op ge
▁ra di
ron ische
ogra fie
0 .
▁f or
ran s
▁h ui
▁m aan
o u
▁2 4
▁bl ij
el den
▁her sen
▁c m
ro p
r et
ion :
▁e ch
B C
am in
- C
▁1 8
a di
z el
is atie
é n
R NA
▁d ru
u laire
▁pro g
i aal
baar heid
▁vol le
▁inf ectie
m b
▁M e
▁te st
▁z eer
st an
▁le ven
at um
▁z org
▁D NA
1 )
▁toe ge
vl oed
▁ontwikkel ing
▁v ast
▁aange toon
▁waar schijnlijk
k l
▁risic o
2 -
op ath
ï ne
▁t ype
il iteit
ken ,
▁I V
or f
▁z elf
▁u w
op p
▁m y
▁bep aal
gev eer
▁D is
O R
ra ak
▁I C
▁v it
M M
▁con s
▁t o
▁l ijk
-c ellen
▁S p
▁hui dige
▁I N
der s
res ent
k un
1 ,
ten ,
he se
▁Consult ,
1 .
lu laire
▁T ablet
ine ,
n o
el at
on s
▁bev indingen
▁- D
1 -
ogen e
▁ge con
▁o or
▁C ardiologie
▁ei gen
erd .
▁ge h
act oren
ee d
oor nis
ij f
▁la ge
▁genee sm
C G
▁eer der
▁v ari
▁sym pt
▁be ide
▁aan zien
▁f unction
▁p le
ie ën
u cht
l ant
i ot
▁V oor
gen e
en d
▁s ec
ine -
5 %
▁s la
▁t he
eerd .
sch e
▁verminder de
2 .
r in
▁m id
: N
ro f
s )
▁m iddel
z oek
▁con tra
/ -
oc yten
p ar
ele id
▁( n
ass a
le g
▁N o
▁Omschrijving :CAR
▁N e
el en
den ,
▁verk regen
ic a
ui zen
▁A an
ur ale
▁w el
▁d osis
v ang
▁m ult
▁3 .
▁v oed
▁gem iddel
▁mech anis
▁kla chten
▁- A
y cl
é én
iet s
▁p rim
P M
▁ ang
ho uden
▁r et
y ch
p ass
om y
▁toen ame
te ct
▁( D
it y
▁ge vallen
2 5
▁w eer
ge en
▁w anneer
O S
A C
▁ ur
om en.
▁( E
k ele
▁aanwezig heid
be handel
▁m ed
▁( H
g ing
▁e ven
▁iden tific
▁ één
▁c ar
▁be ïn
vo u
▁s om
▁per s
ie le
▁0, 0
ir us
▁on geveer
▁voor geschiedenis
▁re m
ir urg
ic al
▁4 0
ie erde
▁gez ien
▁con centr
▁ken mer
vl oe
▁a ut
aar d
▁3 0
▁S TE
▁st im
l t;
sc ri
▁te chn
den tific
: 1
▁on ge
ectie v
▁H ij
▁t onen
m ie
▁comp lex
T I
▁ver w
▁## #
ne um
e ut
p h
o uw
c ur
▁had den
ectiev elijk
▁mens elijke
▁be eld
▁gez ondheid
pt ie
j ectie
▁diagn ose
▁mo et
i wit
▁ter ug
om et
▁l ucht
d oor
▁z ieken
s ul
we ge
z elf
D -
f ect
▁( con
/ p
▁d arm
ele ct
o ff
▁sugger eren
lo k
▁h uis
3 0
▁we ken
/ m
▁en kele
▁w ater
▁2 5
▁ X
▁( p
kan ker
▁kan ker
▁el k
▁v entr
-e x
mer kt
▁me di
ant ie
s ych
▁ex perim
rek king
▁toon de
▁Z e
▁h ier
▁ge s
t a
▁waar onder
3 ,
▁( T
st el
▁A b
▁l icht
▁maan den
la ir
Y Y
▁aangetoon d
▁g oede
▁r atten
k g
be eld
un t
▁lich aam
yn am
▁r icht
▁P O
▁voor sp
eu ze
ee 

de eld
▁1 7
o de
w assen
d ag
v erd
st ers
▁D A
▁ iets
sp ann
le p
re g
▁( B
▁ho ofd
h yl
▁D aar
▁gev onden
▁d ist
▁w il
ingen ,
▁inter actie
▁blo ot
▁ge c
▁[PERSOON] :C
oor ten
- 6
▁ge di
▁zo u
i atie
re at
f in
▁d er
▁la es
▁w ith
p laat
▁d ra
i eren
▁H ier
▁pro cedure
▁la at
ijn en
- 9
▁l ig
▁ern stige
▁cor on
▁pro ble
vul len
gen ,
C A
▁ble ek
l ig
▁st aat
▁d o
▁( L
j ect
▁ch ronische
▁geï dentific
▁com bin
H g
▁ge ë
ol ische
- N
▁op pervla
▁f ol
alc ium
ib r
ve el
▁op name
wij z
k in
l ies
▁ |
a z
▁z al
▁( R
p le
re quentie
hor ax
▁resp ectievelijk
▁(con versie
▁(conversie gegevens
yst eem
▁inf orm
▁la ag
a de
afhan kelijke
▁C D
vol gens
i x
ho ud
▁zieken huis
▁[PERSOON]:C onclusie
▁h uid
▁(conversiegegevens ),
▁en zym
▁s e
▁v ier
▁voor komen
▁v is
▁be ve
▁v aak
vorm ing
▁m it
▁ '
wer k
g ra
▁over een
s ing
A G
a ag
ogra f
rom b
r y
lu or
schap pen
▁b ot
▁H oe
um ,
▁v o
u ik
▁on ze
▁P M
▁A d
G F
▁la b
▁+ /-
▁2 ,
▁-D atum
ich te
ter n
emb ra
amil ie
ne se
l ij
he el
▁( F
▁geneesm iddelen
▁gro ter
MM ING
▁im pl
▁v e
orm ale
▁na uw
▁gemiddel de
▁l ip
il ich
ma ak
▁onderzoe ken
i al
▁5 0
▁v as
▁R R
▁ge ven
u st
3 )
3 .
he er
IL Y
▁B LO
os it
% )
i gen
▁tot ale
- 8
m iddel
▁nivea u
▁geb ied
▁I I
▁sp ecifieke
▁nivea us
▁op eratie
er den
▁st r
▁ un
on de
▁meer dere
▁ ische
s or
al ing
schap p
▁bet rekking
▁p neum
▁a ss
m aal
▁ra pp
▁( A
▁<PERSOON >
n em
▁verhoog d
ver ander
in t
▁a s
af g
sp lant
v id
ol oog
▁v l
▁aand oen
▁vol wassen
▁t herap
▁be kend
n ivea
▁m ut
▁v ar
c op
ab et
l y
ach te
▁a sp
▁metho de
▁bere ik
v entie
st :
▁h ep
▁DA ILY
t ,
h ol
▁in di
▁verwij der
in us
▁rec ept
▁ver der
:N ee

an ge
▁dui delijk
gem een
▁verb and
ie f
▁f osf
1 4
▁om dat
f usie
▁o u
P -
hy dro
▁belangrijk ste
U R
cl er
▁zijn .
oc ardi
lo b
t hese
▁STE MMING
j e
w icht
▁4 .
▁D i
ar ige
m .
▁aanzien lijk
▁ge val
P R
en ten
lu it
zelf de
fer ent
e ur
deel t
▁t h
A N
r ale
ion ele
r .
▁b acter
r atie
a v
l ine
on ale
ro se
▁veroorz aakt
ic iteit
▁op los
ar ct
▁te ken
kom st
▁waar door
t re
io de
▁art ikel
▁ch rom
ker s
▁met ab
stru ctie
▁or aal
▁( 2
▁eff ectie
-e iwit
▁lijk t
▁l o
▁ont hul
▁n ucle
st ruct
▁st am
luc ose
or der
▁besch ik
k w
▁hoe veel
▁ged rag
▁sympt omen
▁van wege
▁p ul
A )
it er
ing :
gele ken
am er
1 2
oï de
▁ge sch
ek s
ire ct
▁behandel d
it u
is me
ind s
z aam
▁hy dro
▁Hoe wel
sen te
o di
▁reg ul
O D
embra an
dro om
in f
ic ale
C V
s ma
▁- ()
b el
▁m uizen
▁a dem
oornis sen
i .
om ie
▁onderste un
ot ische
▁E CG
t ische
o ver
in u
con centr
▁V an
u un
▁op n
z onder
S -
ON :
I V
ot or
stan dig
] ,
ine .
▁d u
olog isch
- up
▁stab iel
em ie
l yc
z org
▁med ische
▁g ast
ys i
- j
: 4
at ed
▁kin deren
▁& lt;
▁C V
[ DATUM]
▁p lan
am et
o ire
▁el ke
▁over le
- k
▁ver st
▁ab d
▁toon den
sc op
▁ver t
ig h
▁le id
z iekte
▁l ok
▁voor t
▁P atiën
ut ie
v is
. 

▁h ist
▁in c
▁A t
▁su c
T R
▁st atus
▁d irect
▁gem eten
P O
▁combin atie
▁f en
▁R V
▁geb as
▁cor rel
▁ne ur
▁ge lijk
ath eter
in den
ron en
en e
6 ,
ten s
▁t ablet
▁b la
ap p
▁re cht
▁me dic
ik lin
ar y
▁ver d
7 ,
▁z ij
▁sp ec
▁mo eten
qu ent
M I
▁E n
▁inform atie
8 ,
mo del
5 ,
in ig
eer den
H U
l ot
abet es
ri cht
▁b ron
▁contra st
▁v al
eed s
▁prim aire
per s
em m
▁p t
▁blij ft
▁beve stig
xim ale
▁vertoon den
ge men
▁ge geven
H -
duc eerd
▁vertoon de
▁gro e
▁sugger eert
▁M RI
▁vl oe
▁hog ere
R -
▁p sych
▁tran scri
C -
▁C ardi
LO C
4 ,
slag ader
u ra
e de
ati ent
▁c ent
ul te
▁s oorten
iver ing
5 )
▁st en
▁P T
▁a chter
K EN
re en
▁p resent
it me
▁hyper tensie
im m
▁besch rij
▁d us
gemen e
▁f oc
▁(1 )
▁t r
▁groot te
cin oom
▁re chts
▁toe pass
ar ak
▁uitge bre
ist ent
c lu
1 1
▁o x
▁ch em
▁aan wijz
▁On der
▁mole culaire
arak ter
in s
▁ch irurg
ig :
Z IE
i or
g aan
LOC ATIE
▁m ar
im ale
▁af han
g te
▁indi vid
▁n et
▁- B
▁kenmer ken
▁re mm
▁onderzoek :
▁k re
▁- C
HU IS
7 .
KEN HUIS
tie el
v .
sp ie
ZIE KENHUIS
▁waar voor
▁n an
▁vergelijk baar
w n
▁laat ste
il d
▁hog er
p ijn
▁g al
▁teken en
m ige
k k
▁c entr
▁p op
▁rec ente
ri p
cent age
-ge ïn
▁be spro
▁versch il
▁- S
▁eer dere
ul p
ic ulaire
▁evalu atie
t ran
met ho
l oed
a den
▁0 .
ap s
▁z ien
▁( m
▁k on
▁m atige
▁pro te
4 )
/ l
op la
▁l oc
cept or
ch te
low -up
dra gen
it al
▁mogelijk e
▁On ze
eren d
▁- T
▁vit ro
ang er
i z
▁mm Hg
▁c ir
in ge
▁b uik
u ze
▁M CH
ff ect
te gen
▁vrouw en
▁volle dig
▁dru k
at ine
▁voor afg
▁beoor deeld
itie ve
▁ge schiedenis
o sp
▁ster k
+ )
▁( I
▁at rium
l op
▁ser um
▁ver volgens
m per
ose .
ic e
a y
▁min u
▁f ase
▁is .
a ken
al f
rie f
▁T ot
▁syst eem
r ine
▁bil aterale
▁gem een
or y
▁res ulte
▁dif ferent
▁z iek
▁twee de
gelijk e
ple eg
v ar
os cop
l if
- ##
▁( G
-1 0
O 2
im e
% ,
ra at
▁on s
▁even als
gen omen.
u eel
eut ische
oc yt
▁h and
la ag
ra gen
▁R D
▁n on
v atten
ak er
▁v et
vou dige
l og
00 0
▁in spann
▁ver e
at rium
▁p ath
ept ide
I )
an den
▁st eeds
▁m at
ATIE :
▁struct uur
▁Antwoord :CAR
sp ecifieke
▁suc ces
ome in
e ge
ol /L
ru i
l ip
▁f actor
te g
▁Dis p
▁ver geleken
c ar
E :
S )
us .
▁er van
▁sle chts
▁poten t
ra kt
▁C a
▁U it
▁best ude
▁N iet
U L
▁al gemeen
▁S ig:
▁Thema :Cardiologie
▁lich te
▁ben ader
▁neg atief
a and
or ator
wij zig
▁ma ag
H T
ill ig
y per
▁geïdentific eerd
▁k er
▁lin k
C C
▁a g
▁st and
▁aanwijz ingen
▁in vloed
▁kle in
re sp
▁da gelijk
▁p anc
▁A F
i der
▁eiwit ten
et ten
▁ru im
▁k ort
is eerd
P C
- test
at isch
ra al
▁I L
l and
▁verm ogen
▁3 ,
▁afhan kelijk
▁6 0
ibr ill
▁kre eg
** ]
b i
▁verander ing
▁function ele
▁t romb
▁l aten
▁cont act
ib iot
u ff
5 .
ro on
IC ATIE:
g t
ron d
d an
nese :
▁A S
tegen woor
▁P h
-j arige
▁A T
ie w
▁ge maak
I T
▁z uur
y sp
▁comp lic
a in
▁al l
▁op en
▁opn ieuw
P )
▁A D
▁P t
is eerde
▁z en
▁P R
k eld
om ische
▁5 .
sie ke
▁( 3
▁k om
▁m el
-1 9
▁s /p
▁ant ilich
▁b ijn
▁mee ste
▁st ress
off en
▁eigen schappen
a ad
6 0
▁imm uun
um e
▁z icht
- st
A ,
▁be h
▁h ulp
▁s ele
▁Al s
▁wee k
- g
▁pro t
us ,
▁pol ym
l ing
z ij
▁no od
▁ma ken
▁aan be
om ent
te ctie
▁hoe wel
er o
▁m ater
8 0
op eratieve
an ische
cur sus
1 9
▁b ieden
6 .
S :
p ast
cel lulaire
l or
▁n ut
erg ie
oc ard
am p
▁beg in
▁snel heid
▁P er
▁A m
▁m assa
O M
ijd :
gel s
▁a ctieve
▁normaal .
▁gew icht
▁geë valu
▁geb rui
▁o og
▁beïn vloe
▁kw ant
- d
▁t herapie
g ere
▁mg/ d
▁C R
D ICATIE:
▁mid den
▁Antwoord :
i le
▁sp ier
▁ iv
gen en
▁k racht
tro l
▁beoor delen
▁op genomen
k la
▁re st
iv o
sp raak
▁stim ul
art s
ent ele
n t
an ten
f en
-in f
elat eerde
▁gen en
▁rapp ort
aal de
iciën tie
z en.
▁zen uw
st .
z iek
▁vast gesteld
▁b io
▁B P
▁[ ZIEKENHUIS
▁int act
p e
E L
ol om
▁gro ei
o ut
c c
▁hem at
er ie
▁ant i-
▁( t
▁aort a
▁beper kt
alis atie
▁su per
ress ion:
▁st e
g ram
▁gevoel igheid
y la
p ak
CT -
b la
▁om ge
acht ige
oc iale
▁n ame
d ing
▁poten tieel
ist of
o v
s ole
vullen d
▁R NA
4 0
▁gen etische
t ijd
▁adem hal
am elijk
▁be kken
min o
▁v ivo
▁( d
▁f ib
er m
eleid :
ar ge
a gen
▁m al
▁al f
▁m oment
f ic
▁n ee
t ig
4 .
▁l iter
arm ac
▁h om
on gen
▁bepaal d
id atie
a il
el t
▁nauw keur
at oire
F -
m ische
▁wer vel
▁prog ressie
oc k
▁de zelfde
behandel ing
▁ge sla
am eter
▁ontwik keld
▁verbet ering
▁reg io
▁per iode
standig heden
t r
▁vol gende
▁vro ege
la mm
ol er
onder zoek
▁IN DICATIE:
▁C H
ecif iek
te x
▁ont de
▁groep en
s lo
▁m ate
▁fol low-up
▁m orf
1 5
▁le iden
▁waar van
ater aal
cedure :
▁recept or
▁o ste
: 3
▁pro ef
▁r ele
i di
ede em
▁m ann
J D
▁som mige
▁en /
gro ot
mat ig
▁Thema :
- v
hal te
ole ster
▁G en
▁diagn ost
▁verz am
▁8 0
s ysteem
ra ctie
om in
▁d icht
▁oraal ;
▁zw anger
▁ger icht
st room
▁en/ of
m iddelen
▁per if
▁cont inu
▁bet er
▁m is
m an
▁bloed druk
▁rel atie
▁ver dere
▁k n
kl ier
1 6
. 
▁hoeveel heid
it te
▁f luor
d it
▁f ot
ver s
es c
▁geï sole
ur ele
▁ech o
▁- K
▁ar ter
▁pro ductie
▁L AD
7 0
dru kt
▁leven s
hor ac
b ere
- di
▁richt lijn
ag on
alis eerde
oe m
amet ers
▁toon t
▁s inds
ac e
▁sign aal
vol le
▁af ge
do ende
ich ten
s -
t ale
▁ver tegenwoor
▁c alcium
▁H R
▁na am
a e
▁v ir
sen .
▁positie ve
-geïn duceerde
an ce
▁lin ks
in ter
▁mechanis men
ho u
▁v en
-ex pressie
▁gede tect
▁s h
▁f actoren
▁l ange
▁in ge
▁st ellen
9 ,
it or
ra ct
nam elijk
▁w and
-## >
▁S T
a ste
verd racht
or b
8 .
▁oor z
▁ant i
D )
▁tot aal
▁beoor deling
▁ur ine
▁centr ale
▁a ctie
▁f requentie
dat um
▁pat ho
▁resp ons
▁we inig
▁RD W
▁ge deelt
1 3
- n
TI JD
l ang
▁Over zicht
EF TIJD
▁v ijf
st oornissen
( 21
▁vol gens
▁bloot stelling
▁ver sus
▁la gere
▁k oort
im eter
▁d uur
▁te mper
▁vorm en
: 0
as p
LE EFTIJD
▁hyp ot
illig ram
G y
▁toe dien
de x
▁H e
ist entie
▁be spre
▁gezondheid s
T :
▁k l
sche iden
atiën ten
▁m illigram
st re
▁gevolg d
ro s
▁kw aliteit
a dem
▁k at
oc ol
t ij
- M
▁org anis
▁pol y
▁sec und
r il
ak kelijk
▁m ond
it ale
co hol
l ut
- pro
▁meest al
▁afwijk ingen
▁verbet erde
waar de
▁gep re
▁a pp
▁U n
s luit
▁voor namelijk
▁ont ste
um ent
as en
▁col leg
ies .
▁vrij e
ine s
k ingen
▁veroorz aak
▁ge ken
agn ose
▁a x
▁m RNA
▁st room
▁volle dige
▁m embraan
- S
▁bi ologische
▁h um
▁dat um,
weg ing
▁Al le
▁in sul
▁A c
▁a den
- 5
▁bep alen
▁snel le
opath ie
amen vat
re e
▁be w
▁hep at
▁geken merkt
D I
▁P ol
▁concentr atie
T )
f ibrill
i delijk
: 00
▁imp ression:
is sie
um b
% .
/m l
▁A f
▁vere ist
S .
MP AR
w and
es s
▁dis c
▁7 .
▁chrom os
▁H ist
▁pre st
ox iciteit
▁o edeem
om a
▁E ch
if te
gest elde
▁m iddelen
ver b
▁cel lulaire
at en.
pl ic
waar den
S C
f te
MPAR IS
o chten
m iss
f us
▁man ier
en gte
▁m ac
R )
▁g aat
1 8
▁( V
▁impl ant
▁be kende
▁potent iële
u ter
▁A M
re actie
m atige
1 7
▁f y
ot herapie
aar dig
gel open
▁A P
▁Z o
yc ard
A .
▁neg atieve
t o
▁waar in
▁en kel
v iew
afhan kelijk
▁ass oc
ific atie
: 5
▁PC I
▁H C
▁vorm ing
▁( c
▁Al l
▁mechanis me
▁on be
ac cin
▁L ab
▁ant ibiot
▁ ,
schapp elijke
▁Patiën t
as is
▁al gemene
▁b ra
▁pro duct
▁gepre sente
a dig
t rans
▁bev at
▁k al
rakt ijk
te el
▁s inus
r ist
cht :
9 0
▁k arakter
▁gl yc
ogra m
▁dui delijke
oe der
▁L e
sp ron
- A
▁pul mon
▁N ormale
l ol
re as
▁elekt ro
wee fsel
▁men sen
uit en
oe g
st ud
▁ger eg
) ;
▁liter atuur
geb ruik
ex pressie
orator ium
▁zwanger schap
n n
ox y
ri ale
▁c ort
B P
ox ide
▁blij ven
▁gecon trole
▁gem eld
( 2)
me di
▁sp ra
sp ectie
▁Me dic
il ijk
▁m ass
de .
▁f orm
p ol
▁gedi lat
dan ks
▁m Gy
elat eerd
▁ Y
▁f amilie
MPARIS ON:
s er
gene se
▁IC D
E T
l ijden
▁z etten
▁(( 21
p ut
r ic
: 2
onclusie :
ver lies
igh t
▁leid t
ig ing
o et
▁gemaak t
▁af gele
▁ru g
▁A L
▁geb ieden
▁re gel
vas culaire
▁best aande
f osf
▁d ien
y ste
men de
▁BLO ED
▁waar genomen.
id ine
D L
a ven
or ale
▁klin isch
C )
▁dist ale
▁C or
▁op z
ge len
▁[PERSOON] :
▁k orte
▁st op
▁cardi ale
▁o ude
] .
▁c ere
▁pla sm
▁d ysp
▁h als
▁M I
ac et
- 7
▁ y
▁k eer
b ine
ger elateerde
ie ve
▁vas culaire
▁<PERSOON -##>
ose ,
▁ge pro
▁U R
re den
aly s
▁vari ab
z ame
b o
di gen
nivea u
▁ventr ikel
▁geh ad
ul f
an s
▁v ocht
at ale
▁W BC
▁'s )
we gen
▁B ID
▁therap eutische
YY YY
▁hart f
▁f em
la ss
ase -
▁ver ster
E M
▁waar de
▁geëvalu eerd
el s
ograf ische
▁me dicatie
▁r ond
▁mo d
▁bl oe
s erv
CT- CT-
we zen
act iv
S ,
▁ )
c um
▁stand aard
▁s ens
ot ype
▁cent imeter
g t;
l oc
op eratie
- ,
▁( 4
▁l et
▁ge analyse
st it
ul len
▁sp ect
▁reactie s
ant woor
▁af gelopen
▁af wezig
▁act ivering
ion ale
ell ing
op last
▁S c
▁zijn ,
ri b
▁R ec
ule erde
ren g
▁minu ten
i en.
▁ab n
▁ret ro
▁CO MPARISON:
▁ver volg
▁ :
kun dige
▁p l
▁beïn vloed
a )
ule erd
▁b inding
la g
▁4 ,
c ip
▁m es
opro te
▁gep laat
▁der gelijke
- D
▁t um
▁af name
ab le
▁pol iklin
▁gesch ik
h el
iteit en
▁e mb
m ijn
or gen
▁proef pers
▁g ren
-c el
▁ho uden
▁c ell
▁ple ura
▁A C
▁ge sp
ul aties
emm ing
▁is ol
▁be d
▁sch e
er ior
in dt
ol ie
▁di abetes
▁k omen
▁om vatten
▁cons istent
och ond
▁s eg
S I
▁d ynam
quent ies
st aat
- P
ie dt
▁per ic
agn ost
▁9 0
▁voor al
_ _
▁ro ute
D ,
ik kel
▁is ,
6 )
▁-Datum :
k ings
▁6 .
og n
ij st:
oc >
▁ver spre
le ct
-test -test
yp ische
om yc
▁A V
eu zel
lif eratie
ra z
▁-K euzel
▁-Keuzel ijst:
▁Con clusie
le ment
▁bev atten
gen er
on ent
▁CT -
▁c ult
aan se
▁( 9
heid ,
opro lol
▁b iedt
ati st
▁besch ouw
▁zuur stof
et isch
▁panc reas
▁inc iden
▁t huis
▁oor spron
▁on op
▁positie f
▁d im
▁onderz ochten
▁col la
ac em
▁gedetect eerd
atie s.
or s
ter min
▁I g
sc ore
N I
▁V ers
▁coron air
u iv
wer king
▁ap opt
ysi ologische
▁sc reen
▁de pressie
ot horax
▁H T
st ,
▁end ot
il i
▁pro duc
▁N E
gen eratieve
▁ve il
k ant
at ing
pro duct
rit me
▁iv m
▁syn droom
▁H g
▁de tectie
▁g ere
▁geïn duceerde
▁e ss
y r
▁C om
▁-T ijd:
9 .
yn th
x y
nem ers
LEEFTIJD ]
▁proble men
am ma
-1 2
▁ch emische
ic ul
de ,
▁remm ing
▁le uk
▁opz ichte
▁  
d aag
la cht:
▁T e
▁p atient
C .
▁2 2
osp ital
▁experim entele
▁z eld
▁om vat
L P
▁k ool
▁gen er
▁di eren
ed ieerde
ten is
el ing
al en.
em ent
▁T en
▁con trol
▁b uiten
te .
g ader
▁toedien ing
er ia
▁zicht baar
▁beschik baar
sp ir
y se
ge wicht
▁( 5
ol f
od y
b en
con sult
pro ductie
( 2
al p
è t
oor d
/ kg
▁ver l
▁r itme
▁ger elateerd
▁in jectie
ati o
▁n atuur
ee k
▁z es
oe p
DATUM >
os ine
▁c ycl
er p
▁S R
op sie
ind ings
▁a mino
▁verb indingen
erd ,
▁effectie f
▁het er
-N EG
- B
▁zetten :
▁nood z
▁D oor
▁m aakt
▁str ateg
▁ver lies
men ten
m it
▁l ine
▁-B eleid:
in ine
▁sp ecifiek
▁pla sma
▁19 9
▁du bb
▁voed ings
acem aker
p at
▁ %
aps ule
▁uitgebre ide
er .
is sel
van te
ol isme
sse s
sm ent
▁k g
▁w ar
▁moe ilijk
N P
▁st of
▁s itu
E P
▁2 3
▁P lan
▁t ach
id u
▁l aterale
la v
k le
k olom
▁ver pleeg
a u
▁voorkomen de
▁s oort
▁oppervla kte
▁foc ale
▁t horac
ardi ale
▁v ragen
▁g aan
▁app ar
k lep
▁man nen
mer g
▁ μ
omen teel
agon ist
▁groter e
▁- L
▁toe stand
▁voor kom
▁h ele
▁onthul de
▁concentr aties
▁T wee
▁ex p
▁gez icht
▁lok ale
▁k rij
▁de tect
ru g
n ing
▁gebas eerd
sses sment
▁[ LOCATIE
▁wer eld
▁Ne uro
▁laes ies
M )
un g
w ater
▁bepaal de
v entr
▁tran sp
na uw
eem t
-2 0
▁spra ke
lin ische
▁w eten
▁D ate
O P
▁0, 5
te chn
lig gende
b een
▁hersen en
▁ 
▁asp ect
▁kle ur
▁All erg
▁v aat
C I
▁O ne
▁m agn
IN E
es .
▁verminder d
ui ste
▁In ter
▁Daar om
R S
/ o
▁pneum othorax
▁syst olische
▁k ru
S H
nam nese:
t ub
ol on
▁C K
▁be en
▁toege past
▁Ab d
▁de fin
▁e in
z o
um .
▁bla as
d ur
▁her stel
▁b o
▁beg on
▁de len
▁c ap
d d
▁g lucose
fie l
▁om standigheden
▁f e
▁sp eel
yn these
af wijk
ch e
▁best aan
st am
▁toege dien
op er
o ur
▁be heer
▁st adi
▁s im
▁inter ne
z w
▁ver s
▁[ZIEKENHUIS ]
ou der
▁mm ol/L
ië ren
xim aal
▁la ger
ase .
▁j aren
▁c ru
▁die et
or pen
og lob
aar t
▁H yper
▁e m
ar b
▁v irus
▁acu ut
▁al cohol
▁temper atuur
( s)
ult aten
AB G
▁metho den
▁f amil

 A
o ft
heid .
▁d ro
1 /
- 0
te ,
▁beschrij ven
▁kin der
▁syst em
vou dig
form atie
▁transcri ptie
▁0, 00
▁intra ven
orm aal
▁opge merkt
▁ple urale
▁a sc
▁vergelijk bare
▁gra den
▁toepass ing
ose s
▁( 2)
▁g rond
ak lep
▁ne ut
▁dra in
2 4
ta il
▁mon sters
st ellen
▁ge eft
re gel
▁p assen
▁sp elen
r al
▁ge l
▁ver tra
▁eff usie
z ing
▁geb eur
v oe
▁d ys
miss ion
▁ver h
- de
fer entie
k king
▁BLO OD
ost er
o den
lu id
ro l
▁verm oe
o us
omet rie
s is
▁mit ochond
▁identific eren
▁be elden
▁voorgeschiedenis :
▁met ast
▁k no
▁struct urele
- l
met hyl
▁-A namnese:
▁re eks
o ge
-t ype
▁daar om
▁d il
▁ble ef
▁H IV
▁mg/d L
▁j a
splant atie
i ,
D .
- H
/ d
op h
ken ing
8 %
e in
i at
▁correl atie
con trole
▁b lijk
▁5 00
▁zw ak
/ C
▁Q u
▁cardi o
qu e
se ctie
▁en ige
▁en ergie
▁ ion
▁( bij
m icro
aar dige
▁te mp
▁f armac
▁t ri
▁M on
▁-C onclusie:
▁uitge drukt
ox id
datum :
▁boven ste
▁2 1
R ,
▁link se
▁u p
▁sle chte
▁moe der
▁-A an
▁p H
▁prog n
sch illen
olester ol
sp ect
▁van af
▁O 2
F )
▁betro uw
kan aal
ro uw
voor beeld
ro c
▁l ater
▁gez onde
v ast
alis eerd
l it
▁( O
un ten
▁lichaam s
op pervla
oe ken
▁ma ximale
▁wervel kolom
▁on verander
▁bev order
- ant
▁aand acht
e den
▁stab iele
7 )
▁( b
inf arct
clu deren
▁her h
le s
▁org an
▁rel atief
I n
struct uur
▁t oel
▁sla gader
he sie
▁[ LEEFTIJD]
▁ker n
te erd
▁kom t
▁M D
▁inf arct
it atieve
isch arge
EN :
ó ó
▁ge test
▁sub st
▁7 0
▁perif ere
iciën t
▁vol ume
▁bijn a
os cler
óó r
E q
z ijn
▁d ik
-ge m
▁bre ed
st emming
▁j uiste
l t
in a
groep en
7 5
ar c
me ch
▁st atist
- L
▁in duc
as eerde
ie p
▁A B
▁cru c
▁k atheter
▁laes ie
▁overle ving
▁min im
▁b eleid
▁Date :
▁vro eg
▁werk zaam
yl ering
▁zelf s
sen ,
▁best aat
▁de c
▁d d
▁la st
▁( f
ent er
lu iden
▁m aat
od ynam
og ing
i )
▁co de
▁5 ,

 B
kom stige
7 %
ra di
▁ ing
▁R A
▁al tern
▁risic of
kla chten
kel et
nel heid
▁beg rij
▁8 .
F O
▁ge wee
on ge
▁verminder ing
▁complic aties
l ar
▁-Aan vullend
▁m Eq
▁A r
▁gebrui ken
▁mann elijke
▁V ol
r if
▁gec or
r itis
▁mg/ kg
van gen
▁ontwikkel en
ge zet
▁voed sel
la b
er ge
m un
slo ten
▁techn iek
▁bre uk
▁C omp
v rij
▁pro f
▁ver antwoor
-re ceptor
▁s ept
▁voorsp ellen
lang s
▁( s
▁St atus
▁T ijdens
l atie
▁af g
-ge b
in k
ad ru
vol gende
-3 .
sor ptie
scop ie
▁f il
rit eria
6 %
se c
▁e vol
▁1 50
▁R es
▁d on
▁2 8
▁proble em
2 2
▁onderzocht .
▁I II
▁in it
▁l engte
esc entie
▁T I
d is
ul ar
▁aan pak
pro ces
▁v or
yn droom
o h
g or
1 ).
z er
on en.
du idelijk
houden de
▁speel t
)) )
t el
erie ure
▁in teg
▁sele ctie
▁H art
ro ute
▁C .
O B
i la
ist ente
▁w /
▁pop ulatie
ch ym
▁m i
actie ve
f actor
▁wij zen
c ycl
▁s n
▁z achte
t jes
▁gelijk tij
▁7 5
▁voorafg aande
cul en
▁An dere
▁p raktijk
▁me et
▁p art
▁individ uele
▁direct e
0, 0
▁s cler
▁d un
R A
o op
c ult
sla gen
▁c ogn
▁gedeelt elijk
▁bil ateraal
olog y
▁ ij
de erd
il laire
▁(( ()
Q U
▁chirurg ische
L L
2 +
▁act iv
▁ver laag
▁a st
▁proefpers onen
om bin
▁v raag
se m
is ie
▁complex e
▁ qu
et s
▁N S
ut ane
▁resulte erde
lamm atoire
▁s ociale
▁re p
▁C he
▁Hist ory
/min ,
9 %
- gen
▁R BC
n ia
it heel
▁st ap
ur s
ul c
▁per centage
▁a ff
▁v óór
er ings
▁H ct
ym pt
▁vert onen
▁par ameters
R E
ziek ten
▁C AG
onen ten
o del
▁abd omen
oede em
concentr aties
▁let sel
ox ische
▁c yst
▁eer st
agnost ic
8 )
▁ische mie
▁sub c
▁prest aties
b raak
he den.
▁aort aklep
▁ ult
▁P V
▁sle cht
▁vol doende
-1 1
▁verantwoor delijk
▁- O
▁ep is
▁[PERSOON] ,
▁vloe istof
▁dagelijk s
r um
▁D r.
▁z ullen
▁bi om
▁gede fin
op los
den de
▁at her
▁ern stig
▁C P
▁verbet eren
▁R CA
il is
ro o
cu lair
▁Ex amin
▁afwezig heid
▁atrium fibrill
▁con st
▁p aar
▁hel pen
b oven
▁inter ventie
t elijke
ase ,
▁bron ch
ho og
▁pneum on
▁P E
▁10 .
▁ac et
▁Z ij
▁[( (
- ch
w ak
▁lang dur
k al
a a
▁van daag
ar s
/ c
▁beg rip
op name
▁ma x
▁struct uren
▁- (
	 [DATUM]
▁l og
PR N
aal d
▁mil de
▁S P
es ,
▁colleg iale
▁D ischarge
b et
pl an
▁lab oratorium
▁sp ont
▁Di agnose
ac iteit
▁( 21
re ct
▁oorz aak
▁d omein
▁H em
-e ff
▁n atrium
▁D M
▁my ocard
▁bij zonder
▁t her
▁aanbe vol
U S
▁C 5
▁uit ein
▁E D
▁om vang
ge halte
▁l ijn
H )
▁S V
▁functie s
c g
EG EG
▁aandoen ing
▁gest art
/ 6
▁bespro ken
▁k regen
▁was .
▁model len
ys ma
ar ine
▁wij ten
i od
▁ver nauw
▁functie .
▁inciden tie
▁in st
▁verk al
▁2 6
re ft
▁sten ose
▁karakter is
▁T N
ge voel
r ele
ra y
ra s
▁impl ic
-1 )
▁be z
kw ab
[ PERSOON]
de d
r at
dru kken
▁ex tre
clusie f
▁R ef
▁9 .
P ro
le den
O L
wijzig d
▁di ver
pl ant
9 )
▁h ol
▁ ik
▁w arm
O T
▁in vas
▁re f
- en
ich amelijk
ï de
▁intra c
▁D D
▁gebas eerde
▁G ro
org anis
▁afg ifte
▁ru st
▁lang s
om atische
p m
hal ve
o ot
▁ben adru
b um
k amer
▁f re
cul ar
di p
-gem edieerde
▁hel der
I :
▁P ar
▁ver di
▁in dien
re p
mech anis
▁Pro cedure:
▁ische m
▁ou der
er ol
▁p as
▁ken nis
ies :
uit gang
amenvat ting
app orte
ur sus
i ze
k ten
▁k ost
▁insul ine
▁n am
n aam
icht ing
U N
▁te k
a ve
▁nut tig
▁g la
id iteit
▁voor gesteld
concentr atie
▁O ok
▁B le
▁lijk en
yt ische
▁A ct
▁C X
HT X

 C
▁n emen
▁ne urale
3 %
men s
▁syst emen
r alis
us p
▁DNA -
▁R E
es lacht:
▁kw ab
▁st ent
▁beeld vorming
nivea us
▁transcri pt
e ,
▁present eren
▁ ort
sp er
▁geanalyse erd
▁an ders
▁cere b
▁sla ap
▁bere i
▁( 6
▁ _
az ol
▁huis arts
▁gebeur tenis
▁bevestig d
▁( 0
he u
in en
u be
▁t ub
▁weefsel s
▁p eptide
▁S ub
acht ing,
it one
- h
▁geïsole erd
▁3 5
stell ingen
f al
▁stim ulatie
▁reg ulatie
ui ver
▁bij werk
▁p r
▁effectie ve
▁result aat
p ath
val entie
▁fy sieke
v raag
▁0 5
v ari
F ,
▁inspann ing
▁h orm
▁Con t
-c omp
/ P
▁sc ore
at oren
▁& gt;
▁voor ste
▁behandel ings
ri x
▁su p
s kun
la ge
k .
H :
r and
▁[DATUM] :
▁k o
-1 ,
▁pre ventie
▁ ±
▁De cursus
in atie
▁o verdracht
▁6 ,
▁mat ig
▁om gev
▁m otor
▁P A
I P
▁emb ry
ycard ie
▁uit dag
▁l os
▁d erde
en c
▁[LOCATIE ]
um mer
eerd ,
cellen .
om er
ot ide
▁LV EF
vullen de
ild klier
ab el
▁neur onen
▁f oet
▁bestude erd
ro fie
g aande
ol aire
▁C C
▁beper kte
▁assoc iatie
▁pers onen
▁onderzoek .
ol l
▁onop vallen
▁9 5%
om bine
it atie
S P
▁onder gaan
▁T er
▁( in
ver m
ige en
▁v accin
▁neuro log
ab iliteit
aat ste
▁kan s
▁geh ele
▁Allerg ieën
sm et
S T
spro ken
3 -
re erd
st aan
ub lic
▁hoog achting,
b ep
ation ele
▁patiënten .
▁d .
ositie ve
▁mon ster
▁an eur
▁lo op
▁er var
w ogen
▁5 0%
opla sm
▁l ongen
▁a ard
▁P re
▁groot ste
t s
▁d oc
▁geïn duceerd
▁m ig
▁M CV
vo er
itis .
3 5
em d
▁m aal
▁beh oe
▁ventr iculaire
▁bij dragen
o und
▁kle p
▁kla sse
▁ademhal ings
▁sec ret
n es
▁dil at
▁activiteit en
▁prot ocol
ept iden
▁gevoel ig
▁k rit
▁di ast
▁min imale
▁le dem
c or
m en.
ot yp
metho de
raz ol
▁be han
emb ran
▁vertoon t
] ]
▁s ,
▁voorafg aand
▁v oel
▁Cardi ale
▁ster ke
ail y
▁thorac ale
▁gemeen schappelijke
▁beschouw d
car cinoom
w .
on ine
kom stig
▁tum oren
con t
wer p
▁ve zel
u lair
▁m omenteel
▁or ale
A V
▁ter mijn
▁veroorzaak te
▁rel atieve
di d
▁onderzoe ken.
▁toen em
se quentie
E H
▁Me dicatie
▁metab ole
▁st ij
▁ang i
▁col on
- ver
▁ges elect
▁interactie s
▁sch aal
vast atine
z .
▁pers oon
▁bespro ken.
v ice
▁asp ir
S V
r isch
NI QU
▁ziek ten
-s ign
▁geb racht
▁best u
▁g ist
le erde
R .
▁Vers lag
▁M g
▁af spraak
os om
▁o ut
▁een voudige
▁ ;
▁aange b
èt a-
▁afgele id
ist ische
▁de fect
cu b
▁d omin
ox ine
▁bereik t
▁different iatie
▁syn th
r d
▁e c
▁pat roon
▁C alcium
▁E er
▁ged aan
▁d ier
▁ge vol
▁Over ige
▁bacter iën
▁N -
o geen
NIQU E:
▁ox id
▁verzam eld
▁uit komst
▁MCH C
▁plan ten
▁dru g
mun ic
▁waar den
▁gesla cht
▁vrouw elijke
as c
tens iteit
D e
▁W ij
▁uitgevoerd .
▁pro ximale
▁h an
▁vor ige
comp lex
ten d
- G
▁D LP
▁natuur lijke
om inale
[ ID
▁f ysiologische
vent ionele
▁imp act
▁ob serv
▁aandoen ingen
g lyc
E )
▁per c
▁tra um
▁be weg
ast ing
ren gen
▁epis ode
heid s
▁vis uele
g d
S D
n oe
▁con sult
ac k
f ot
i ologie
wer ken
▁S C
▁Tot al
▁geplaat st
7 3
▁diagnost ische
▁ont slag
▁M eer
▁cyt ok
geb racht
▁v eld
cedu res
▁c erv
ul l
be elden
ER K
▁4 8
4 %
spie gels
▁ i
indings :
▁M ult
▁se quentie
▁koort s
w issel
▁Omschrijving:CAR :
▁A ssessment
▁ma and
' s.
▁p alp
▁ather oscler
▁coron aire
▁M ED
9 9
-in ter
▁ge gener
▁alf a-
id ief
▁d os
▁seg ment
2 %
▁ver gro
▁k ant
N E
▁antilich aam
▁C o
-inf ectie
▁verbet eren.
▁over zicht
▁abn ormale
or ter
D NA
lo op
se ud
▁- R
comp lic
▁cellen .
▁re view
▁arter iële
▁pro staat
▁ven euze
he em
▁elk aar
3 8
▁p ap
▁gedi agnostic
kt .
▁dun ne
▁e v
1 %
▁Ech o
spie gel
▁my el
▁C ar
O C
▁gepresente erd
▁an at
et ra
z uren
▁gl ut
am ide
▁F unction
▁2 ,5
▁w ond
▁post operatieve
▁v ent
▁mGy -c
m ee
▁Ver der
p re
▁bespre ken
- T
▁ver onder
▁s lot
sche id
▁4 5
u ig
▁pro liferatie
ide m
sie ve
▁E R
▁vertegenwoor dig
▁gek wee
▁art s
▁gec ombine
▁individ u
er ,
▁C ABG
ast in
▁onder liggende
▁bacter iële
oï den
g de
▁evalu eren
▁R eg
ic i
▁7 ,
▁12 0
ar is
iciën te
▁min ste
▁Ab s
at en,
met ab
e .
▁t ij
it us
▁na ast
▁per fusie
aar m
o id
us ies
▁wel ke
▁ *
▁Re den
▁ i.
▁V eren
▁P lt
eer bare
▁terug k
▁B loed
▁S ch
▁c lu
▁P D
-p atiënten
T U
▁zo ut
cu ul
ar yn
▁pre sente
▁ger apporte
i alen
t )
▁de generatieve
CH NIQUE:
2 3
▁gra ad
st im
▁on afhankelijk
▁M il
-e ffect
▁benader ing
ering :
▁ex c
▁zeld zame
ge z
▁gem et
▁T -cellen
. ,
▁path ologische
▁verminder en
▁IC U
▁r ij
ff er
▁ne f
's ,
▁m er
▁d oses
▁mil t
▁2 7
▁1 ,5
▁P L
▁rapport eren
ograf isch
▁pulmon ale
ente gen
in nen
▁actie f
▁gele id
y an
▁pre valentie
▁st art
▁ver len
gram ma
mg ;
▁gen omen
▁d en
▁toenem ende
▁secund aire
▁bas ale
▁syst emische
▁ontwikkel de
ul mon
▁e ind
voe ging
fect eerde
▁inter val
▁bij dra
▁besch erm
reat inine
▁wer king
b ri
▁( h
geb ied
om at
▁gast heer
▁on middel
ab y
▁langdur ige
l i
-2 .
▁st offen
ia ire
▁- -
& lt;
▁een maal
p s
▁hartf alen
▁T h
▁borst kanker
el ,
▁blijk t
▁opt reden
▁N M
ff en
▁medic ijn
▁rele vante
g an
in iteit
du ur
▁rec ombin
▁mater iaal
▁AT P
▁Onder zoek
▁hart slag
c us
du le
▁nucle aire
plaat jes
▁er g
aties ,
( +)
▁k ind
j u
▁antilich amen
: 30
g ren
vorm ige
▁aanzien lijke
ken d.
▁t and
2 /
▁cogn itieve
▁resulte ert
▁in b
▁d op
▁voor ge
▁inf il
▁syn these
ent ale
al ering
▁H P
p ret
mon sters
▁H er
ur en.
inf ectie
e iden
▁at elect
▁mGy-c m.
▁gesch at
▁Diagnose :
▁kw aad
ra c
▁mil ie
R ES
▁veroorz a
▁I MP
▁W anneer
▁G er
em a
▁na cht
▁proces sen
▁pro b
ip p
▁ess entie
k n
ge geven
ron tale
o te
▁w eg
or ten
4 5
▁werkzaam heid
S TE
aat ,
▁v aste
H ospital
▁p iek
am m
▁uitgebre id
▁s luit
▁s il
▁continu e
▁P .
on en,
▁behandel de
oï d
▁behan delen
▁t oler
dra g
l l
S A
▁her hal
▁A o
d arm
b ul
▁tran sm
▁geschik t
▁wereld wij
ge luiden
▁verk rij
▁be vol
▁c lass
en sie
▁E F
ak elijk
I R
ogene se
▁A R
- R
on ucle
/ O
▁screen ing
k ,
▁s m
ole culaire
▁sch ade
▁kun t
▁een heden
ch emische
▁verbet erd
▁N AD
▁niet -ge
lu x
re gelen
▁her st
▁pro p
vo cht
in n
▁sch ildklier
▁la ct
M ,
vl ies
heu gen
and om
▁t op
▁aanbe vel
▁mogelijk heid
le ar
▁inter n
▁mech anische
ag de
▁aan houdende
▁antibiot ica
▁ep itheel
b orst
▁s eks
yc lo
5 ).
▁gast ro
5 3
zet ting
2 7
▁ge co
E -
m otor
▁k rist
ys ical
J a
▁deel tjes
▁g un
▁intra -
▁re den
ud ing
2 6
. )
▁an der
opla sma
▁in dic
▁Ver schillen
▁F indings:
ken s
▁Disp osit
▁behandel ing.
▁recht se
ect or
V )
te s
▁gepro duceerd
F R
act ive
▁in ductie
le keur
et rie
ol ip
re m
▁fosf or
▁Ref ill
▁opt im
c ell
lij m
s ver
-m ut
e ven
▁h al
▁ontste kings
▁intra cellulaire
▁vervolg consult
▁o l
▁b er
▁Allergieën :
u la
y lo
sc an
▁toegedien d
ym met
▁resp on
▁N ame
▁ger inge
▁ontw orpen
b ruik
in ,
▁f rag
▁P resent
p la
▁rec ent
C P
oor deling
l oor
hy per
u us
aly tische
▁in clusief
▁ble ken
be d
▁an al
▁ou dere
▁2 9
T ,
ro t
ch ol
▁met ingen
▁c a
▁t ele
▁( 8
▁apopt ose
▁vir ale
am nese
w ikkel
▁Daar na
▁c yste
▁gem akkelijk
▁toe gang
▁IN R
▁m ic
qu enc
le ver
▁g ran
▁deel nemers
aat .
le iding
t :
P D
▁verw acht
▁w itte
4 -
▁mult ip
s l
▁aneur ysma
han ol
ot herap
▁v le
▁A .
▁R adi
▁gecor rele
ar ch
▁voor keur
▁O R
▁cons ol
▁k opp
▁O r
- specifieke
▁1 )
▁experim enten
▁betrokken heid
▁10 (
2 O
ann ing
▁re ct
▁n ot
or ische
▁Plan :
P S
▁S .
▁E l
cum ulatie
▁kort adem
▁v inden
gem akkelijk
▁ge f
imm un
ö rd
▁on danks
▁con ventionele
▁stab iliteit
-1 .
▁dagelijk se
ter ne
opath ie.
▁Un it
▁Refill s:
▁Pro te
f .
▁8 ,
/ g
o .
mer ik
▁en ig
ro ss
on ,
gev oeg
et h
yst emen
▁con tex
▁B M
▁aan van
le en
▁mel an
▁E chter
r ing
▁gek opp
▁g af
▁overeen stemming
p unt
▁n it
▁k amer
▁a de
ers ,
ut ion
▁tegen stelling
▁f low
w en
▁On t
▁N O
▁con form
▁op mer
o it
C L
▁de m
ins uff
▁di ameter
k et
▁M o
▁die p
r id
ag eren
ood s
el la
▁a cht
k ent
nt gen
k eerd
▁b ol
▁verwijder d
T P
▁K le
▁oorspron g
▁I k
st oornis
▁identific atie
ce fal
geb onden
▁G eslacht:
▁ge vorm
▁bloed plaatjes
u al
▁m ag
▁N aam
▁m ui
▁H aar
▁(1 0
▁ter men
▁geneesm iddel
▁voor delen
int ig
▁Examin ering:
ik stof
▁gecorrele erd
▁hy d
▁mo b
▁risicof actoren
eer baar
▁ver gemakkelijk
▁pro cent
activ eerde
pp ort
▁p lat
ert ,
iss elijk
▁dif f
▁pleura -eff

 T
ob acter
▁(( (21
▁ang io
▁verk lar
▁c c
▁j onge
▁v onden
3 6
▁ij zer
▁Z ijn
## #
z en,
u e
▁an alys
ze p
▁jaar .
re gen.
▁Ad mission
SI ON:
ie ten
der land
▁n ab
mm un
i ol
▁3 6
rijk e
b ouw
if actor
iek :
▁on langs
▁present atie
▁an n
ific iteit
st atus
ma x
▁ch olesterol
▁D rie
ch ar
▁T E
▁P ost
▁l umb
ator y
▁bev indt
▁onder scheiden
v ir
▁st oornissen
▁drain age
g /ml
▁verwijder ing
F N
▁onder g
▁dicht heid
g reg
▁s et
▁Com ment
k racht
re mp
▁o ct
stud ies
▁controle s
ct or
▁P G
▁kru is
t ing,
op ril
▁sele ctieve
▁gecontrole erd
di cht
▁e vent
▁endot heel
▁subst raat
▁k onden
\ line
▁z acht
y tro
anc er
▁aanbevol en
▁geb rek
▁car b
▁bloot gesteld
ne u
m ol
t atie
▁H el
▁hals slagader
▁g ang
▁volwassen en
▁hebb en.
D :
▁dim ensie
▁over gang
▁s in
er ing.
▁0 2
▁zo uden
gen d
1 00
/min .
oscop ie
▁secund air
▁in s
▁o ud
▁v at
▁mac rof
▁r en
▁hum ane
s ub
GF R
eek pro
e di
▁R ele
b iële
▁T F
▁sym met
▁p unt
▁huis art
oem de
▁b ro
est ion
▁verwij st
▁r ib
resp ons
idu en
gen eratie
▁rec idief
▁Hg b
▁gen expressie
▁O P
▁afwijk ing
▁wil lekeur
M G
M A
verm ogen
er te
h a
▁kla s
▁ontde kten
it ude
ö ntgen
om eg
3 4
b ron
▁mil d
▁iden t
▁intraven euze
L AR
▁P P
▁lip ide
-ge assoc
- r
▁af braak
▁Ne derland
▁par as
ven s
▁ondersteun en
▁gezondheids zorg
2 8
▁medic ijnen
▁elekt ronen
▁essentie el
▁oppervla k
▁vo et
d nis
▁con f
ati ve
▁lymf aden
▁Ge zien
lij st
product en
m l
-s ub
▁a ute
v irus
y ,
lut ter
U C
▁12 .
▁ arm
5 /
kin ase
▁uit er
r ingen
▁s per
p op
▁borst ,
an en
cept oren
stel sel
▁o c
▁re kening
▁bijwerk ingen
▁U rine
eg atieve
▁kwant itatieve
▁fib ro
▁Mil de
N ame
▁(B ody
at tern
pro te
▁onopvallen d.
gel aten
ie m
▁comp onenten
▁klachten .
▁opt imale
u ken
vang ing
▁vari atie
S S
- O
ho ofd
▁ex terne
operatie f
ge w
▁aan t
▁Re sp
aarm oeder
▁ech ocardi
age ment
▁mut aties
▁do wn
▁S erv
k ing.
▁gep aard
▁aan vullende
▁C apsule
ar ing
▁oplos sing
▁s .
eld .
F .
a ut
▁amino zuur
▁tra in
▁19 8
▁ang st
emen ten
or ing
▁k ader
▁act iver
aal .
▁gereg ist
▁gebruikt .
▁line aire
▁transp ort
▁E T
▁cerv icale
▁T R
ge zien
oor te
f requentie
A CT
y g
▁uur .
he p
▁cor tex
▁vit amine
▁2 50
▁gen e
model len
▁slot te
ologie .
II )
o ofd
▁V T
▁opge lo
/ u
mm Hg
▁m uc
▁Verschillen de
▁pla ce
▁cyt ot
▁intrac ran
▁mEq /L
ac char
▁P atient
▁stam men
▁mitochond riale
nn nn
▁l and
b loed
C l
▁Conclusie :
▁CT A
rij ven
omet rische
▁( 7
if orm
▁hoog ste
▁ontw erp
▁uit vo
sp laat
Pro cedure:
▁de cursus
▁b aarmoeder
▁m ot
▁Ph ysical
▁3 7
▁gewee st
▁w v
il isatie
▁l on
▁M R
ch lor
▁mit ralis
▁besch er
▁11 .
▁# ,
▁hoeveel heden
▁hoog te
▁gen oom
▁G lucose
▁I s
groot te
▁voed ing
▁m ort
▁R X
▁ze ven
ynth et
oorz aak
▁a der
** )
▁blo kk
▁ondersteun ing
▁ern st
▁geïdentific eerd.
▁M ed
▁m uis
test inale
kken .
oc a
▁(d oc>
▁res on
▁Pol iklin
▁aff initeit
ul ine
▁be ste
▁s ite
▁hypot hese
YYYY YYYY
▁alf a
ou ff
▁b ero
is .
CT-CT- CT-CT-
▁100 %
▁mal ign
m s
▁MCHC -3
▁In vas
▁T C
ië r
itis ,
/ /
/L ;
< DATUM>
▁versch eiden
▁rug gen
▁n eemt
▁s at
▁daar op
al ol
e ken
▁her ken
▁extra cellulaire
▁verho gen
oprote ïne
v ings
▁H E
oglob ine
▁veil igheid
I .
▁On danks
▁different iële
▁H ep
▁begrij pen
▁gedefin ieerd
k no
oc ar
str ateg
▁Echter ,
▁b aby
▁Om dat
▁C are
▁bet ere
▁sch at
▁techn ieken
▁T H
se g
hy d
▁N ormaal
as ,
▁on duidelijk
▁f lex
▁di ar
▁voor lop
▁test s
▁0, 4
aren chym
omy opathie
▁Con trole
▁t oxiciteit
sch ik
▁mon itor

 H
handel ing
▁Qu estion
▁vol gt
M S
rom at
h m
3 7
▁(N I)
▁ontwikkel ings
▁g aven
▁o lig
▁s ouff
▁( r
s on
at a
oc oc
▁comp onent
bel oven
▁MED IC
: Ja
▁bi opsie
▁ne us
▁ho u
r ik
▁H L
▁o est
▁tran splant
▁oxid atieve
sem ide
▁het zelfde
▁gediagnostic eerd
▁UR INE
▁s em
spectie f
all el
▁con cept
▁Daar entegen
▁magn etische
-b inden
oscop ische
▁' s.
ERK LAR
▁ge tro
-p ositieve
▁af stand
▁chromos oom
- 0.
▁veel beloven
▁F ol
▁wil d
▁re age
▁p osit
▁verz wak
▁medi astin
▁zo og
▁rele v
▁voor gestelde
di mens
-test-test -test-test
▁ma ximaal
ation :
la es
▁gebruik ten
ver w
L )
ver slag
▁gezicht s
y ros
ich aam
v aardig
▁voorge schreven
▁zoog di
ct en
▁met en
▁toe komstige
▁ont staan
lu cht
st ok
▁s ol
▁herh aalde
▁uit bre
▁Ver volgens
▁leeftijd s
ation al
con structie
or es
▁c al
ust zijn
▁p ort
▁appar aat
il ity
/ dag
▁100 0
omyc ine
druk king
b inding
I ,
▁comp uter
V ID
▁been merg
▁S inds
▁s ep
▁Naam :
▁stadi um
is ol
▁fem orale
ol utie
▁com munic
▁( 0,
▁M a
▁loc atie
ventr ikel
▁p rin
- activiteit
den s
b u
▁I m
▁s oft
ent .
▁pneumothorax .
ru cht
▁( z
▁be halve
▁F amilie
▁geschiedenis :
fot o
▁IMP RES
geb ieden
▁G oede
▁t yp
- E
( 1)
▁noodz akelijk
hydro xy
▁wij st
▁lever en
uur t
▁g ing
2 9
a ort
pl er
▁A N
▁ab latie
al a
▁m isselijk
▁voor uitgang
▁C l
▁I ll
▁versch ijn
▁d. d.
▁( W
t t
re ceptor
▁aange eft
▁gevol gen
▁af zonder
▁sch imm
pl et
b reng
bere ik
v le
▁toe voeging
▁D op
act ivering
hep atische
▁z eg
▁op er
▁b ar
-re sp
▁ziekte .
▁verk la
ed ieerd
▁ob structie
\ b
p .
fus e
ap tische
▁p o
ist en
▁verander de
um er
▁L in
m ar
▁C AD
10 ^
▁g luc
▁Serv ice
b ra
▁gemeen schap
t oe
▁bet eken
or rel
▁opt ische
▁cort icale
▁5 -
oten sie
▁beïnvloe den.
▁st eekpro
▁K linische
▁p h
▁met oprolol
▁mort aliteit
▁sc an
▁hyp ox
am nese:
▁aan vallen
▁[( 21
▁Patiën ten
la m
▁neur onale
▁dag .
b last
▁d aalde
TU UR
sul f
es it
▁Ge schiedenis
be weg
▁van uit
4 4
▁st oel
▁G I
ologie ,
▁vol to
▁inter vent
▁z it
en z
as ale
▁s ig
▁prog ram
▁ade qu
▁kno bb
▁mm ol
▁F e
d s
oods oorzaak
▁M V
▁mat rix
G e
v indingen
▁toe gelaten
▁ruim telijke
▁S ex
▁st ikstof
m eld
di ën
ste st
▁dysp noe
hy ro
ase- activiteit
▁h en
ert .
in al
▁l ate
dit ion
▁V raag
▁ruim te
▁pro min
▁neurolog ische
di fic
yst em
al en,
ang i
▁hyper tro
j or
- )
▁be weging
▁car cinoom
▁ax iale
▁voor bere
▁C M
5 AM
▁dubb ele
▁antibiot ic
▁sch ijn
3 9
▁da gen.
▁M S
▁B el
▁reg ressie
ge drag
▁2 +
ge dragen
▁s kelet
▁con cluderen
z ijd
deelt jes

 D
▁Hyper tensie
▁r at
▁c ur
ag it
E .
▁a v
▁strateg ieën
orb iditeit
▁leid de
H ,
g sel
▁poliklin iek
O 3
E ,
iver s
▁nauwkeur igheid
▁0, 8
L ,
▁c ross
▁veroorz aken
▁ %,
▁cruc iaal
▁E .
v oed
2 :
▁ge men
▁s lok
L C
▁em ot
r yp
▁beschik bare
t yp
▁IMPRES SION:
▁lymf ek
slag :
houd ing
-1 5
LOCATIE >
▁t ak
▁in tro
ie zen
ri è
ol ol
ell itus
▁net werk
▁ro ut
▁C ond
/ A
▁milie u
▁fosf at
ï nen
▁richt ing
ole sc
▁te sten
▁de tail
b .
▁afwijk ingen.
ken ingen
▁hart -
EN T:
H .
L aatste
▁n ieren
▁gele den
▁z ie
re ep
men te
▁M .
f ractie
ble men
▁l ys
▁n ec
ul i
▁hoofd pijn
y .
vrij e
t ia
4 :
▁B orst
ter ing
al th
h ort
▁ver deling
▁voorkom en.
▁of wel
▁voorsp ell
▁ische mische
a zep
▁contex t
m ale
resp on
▁chem otherapie
l ,
▁prote ïne
▁ch ron
▁kn ie
▁de s
V T
▁twee maal
B S
▁analyse s
ie el
▁nauwkeur ig
▁un ieke
▁E N
▁cardio vasculaire
in der
▁gelijktij dige
ERKLAR ING
▁toe gevoeg
▁benader ingen
▁m cg
it es
▁borst .
▁implant atie
▁lumb ale
▁progressie ve
▁CV :
▁rem mende
EN T
▁fluor escentie
ct omie
▁mens elijk
▁t al
▁vernauw ing
UL TUUR
▁aan pass
▁onderzoek s
▁met hyl
▁gebruik te
▁b èta-
is ,
▁ster fte
ver len
- V
er ase
▁inf lammatoire
▁T -cel
▁ein de
▁p .
▁verscheiden heid
▁4 00
ur en,
▁Ig G
▁dynam ische
▁kost en
▁bo dem
r ig
▁( **
▁aanvan kelijk
c ap
▁spec ificiteit
k eerde
▁controle groep
▁ β
-re g
on air
ot rop
▁ge heugen
▁vloe ib
d itie
n er
eg rip
▁beschreven .
▁on vol
▁in dex
sten ose
t ingen
▁in dicatie
▁omge ving
▁3 00
▁som s
M ER
alis eren
6 7
-c -c
ker e
▁kool stof
▁m aak
▁z u
deel s
ag ing
▁< LOCATIE>
/ uur
▁cardi oloog
gro ei
▁Abd omen
▁dubb el
▁aspect en
▁Sex :
B )
▁-L ichamelijk
▁nier functie
f il
odi um
x tra
▁g olf
der ing
ar te
▁voor dat
/ H
▁var iëren
▁n amen
p ress
▁motor ische
bum ine
▁g as
▁e ier
ont wikkel
v ies
▁goed .
▁2 )
H H
B L
-geassoc ieerde
▁ant ist
lo x
oloog )
▁geïsole erde
▁p en
spro ces
ol ym
▁3 8
▁uitein delijk
▁r un
▁e mp
▁enzym en
▁aangeb oren
▁verst re
6 5
▁S amen
▁elekt rische
▁ter min
( t)
K )
▁plaat sen
▁[DATUM] ,
▁At tend
▁pol s
▁be houden
H: PRN
i an
uro semide
▁aut o-
- afhankelijke
do eld
▁col i
▁s l
n aire
▁bere id
▁aanwezig .
▁(Body )
r iet
▁werk groep
▁succes volle
▁be smet
▁he cht
M .
O )
-t ran
ot alol
▁s oc
▁tr ic
P ,
▁in str
▁p an
▁< DATUM>
P A
▁ch ol
▁sp re
▁spont ane
I G
▁over wogen
ï d
▁M y
▁ECG :
▁op een
▁p eptiden
ipp oc
▁i. v.
-1 00
▁6 5
j un
▁slok darm
▁ontste king
▁201 5
a chten
▁o ef
be sch
▁L ung
▁org anische
c m
ag t
▁C ol
▁C N
▁j e
ocardi ocardi
▁bi os
let sel
▁l at
NA L
remp el
▁uit sluit
▁st uden
sch at
n ier
▁CX R
? :
▁toel ating
wee k
1 ),
/ 5
▁patiënt .
hal am
▁201 6
▁v aker
▁af komstig
▁statist isch
▁reg ionale
/ h
▁dui zel
▁micro gram
is en
▁r öntgen
▁d ood
▁kwant ific
▁gem edieerd
ac c
▁ ide
▁- P
▁veronder st
▁d ors
▁no ch
▁A g
B ,
alf a
uw en
gez ondheid
st ri
ct er
▁b uurt
ien de
▁w onden
of en
vers iteit
ab iele
h op
ed s
s il
- res
▁Rele ase
▁stabiel .
plic atie
è ta
▁Attend ing:
skun de
nes s:
ippoc amp
me dic
▁post erior
vol ume
▁In dicatie
▁ant igeen
▁war en.
c ement
▁S oc
N UM
▁behoe fte
▁v ag
ien e
▁H eeft
ten deels
▁h ome
tra st
▁c riteria
▁St ud
z ende
▁le ad
▁p y
lu lair
▁versch uiv
▁onder ging
▁bet reft
▁(D aily
on ische
▁C -
▁al tijd
oh ist
▁verk regen.
le uk
p oten
▁res istentie
d heid
▁v la
m od
richt ing
in er
datum: 	[DATUM]
▁kracht ige
▁be doeld

 R
k opp
▁( v
▁k et
▁Ble ood
s nelheid
▁3 2
ologie ën
verander ingen
▁( K
▁ac cumulatie
ru im
▁En d
▁E p
▁beschrij ft
(2 +)
D S
ree dt
▁te am
▁l id
▁ver plaat
▁program ma
m aat
zij de
▁behandel ingen
cellen ,
ont re
-1 -
le erd
▁gekopp eld
▁1 dd
b asis
▁toepass ingen
3 3
▁vent il
▁c alc
dit ionele
▁t rop
▁extre m
▁hum aan
▁gedilat eerde
▁daarop volgende
f or
▁verminder en.
9 5
▁f er
odynam ische
▁gep ublic
▁S 1
▁h onden
▁verpleeg kun
9 8
▁B i
▁f rontale
u pp
▁T TE
if est
▁P ert
▁Disposit ion:
s z
▁ ir
ok in
ole c
▁atriumfibrill eren
D R
een heid
▁t el
▁sche del
▁N G
▁a sse
▁(N ame
▁Daarna ast
▁geb onden
E C
itone ale
ar ten
▁be gele
▁rout ine
E V
▁er op
- I
▁Ca 2+
▁horm oon
▁kw am
▁0 1
del ingen
m en,
▁ ulc
▁ischem ie.
is u
ar isatie
▁H ol
▁uit ste
▁mar ker
bep er
oplos sing
ap par
▁pro cedures
▁st re
▁abd ominale
m ole
▁p seud
▁di ent
▁c re
tran splantatie
her sen
a- a-
▁p acemaker
▁RDW -1
▁S om
b s
▁/ /
f ort
▁kortadem igheid
ater iaal
▁Ill ness:
NUM MER
▁Pro duct
▁mod ul
la p
m ut
▁ver groot
▁ge lok
▁L D
- F
▁kwaad aardige
▁mole culen
iek .
▁krij gen
▁tele f
ol yse
▁gro tendeels
c yt
st aande
▁gez ien.
▁t ren
f iciëntie
▁in name
▁mole cuul
▁opgemerkt .
▁f ractie
▁inb egrip
im er
aal ,
ox ic
▁V it
on .
7 6
▁14 0
-c o
▁wild -type
▁onder deel
▁C B
▁inter pret
amenvatting :
▁pla st
m el
▁r h
metab olisme
▁g amma
▁### ;
er ingen
sch ade
▁p ak
▁N C
▁b ru
▁w ie
▁v ele
▁D if
odi fic
▁C AR
▁Aan gezien
▁org aan
ing le
▁CO VID
uc ces
asp ect
▁patiën te
▁Pert in
le kt
▁D P
4 8
▁f ract
▁effect iviteit
▁vergelijk en
▁de comp
▁inter medi
P attern
▁9 ,
▁et iologie
▁verho uding
▁z orgen
w. z.
w onden
or iën
▁N P
▁bij voorbeeld
▁on c
▁aute urs
mechanis me
▁(E )
▁bep alen.
loc atie
gen oemde
▁gemiddel d
▁ult ra
▁ges ynthet
gem iddel
7 8
▁beper kingen
Y P
▁t horax
amenvat ting,
▁procedure :
▁lig and
et ic
▁M ild
waar schijnlijk
▁m elden
▁gen oem
ver z
▁f und
▁Ex tre
u gger
▁mm .
▁her nia
▁ge deel
▁Q 6
st offen
dimens ionale
B T
s ol
▁H CT
▁minim aal
ar de
▁No (t)
▁non -
▁dis functie
▁p lant
ab etische
omeg al
- AL
▁sp lit
▁gran ul
ro geen
▁gedeelt elijke
▁groe ifactor
▁1, 0
len gte
ap t
▁cellen ,
c .
r is
▁P IC
os ide
▁uit gang
▁c av
▁oplos s
kt ,
yla x
ur atie
▁met h
▁d ig
o verdracht
ist er
▁cort ic
▁re ductie
▁pre c
B .
as es
▁x 10^
▁K lin
▁B S
▁mut atie
e us
ation ale
V AL
:Nee
 C
it el
ol isch
ces s
et ,
spann ing
yla se
ohist och
▁re par
▁C L
▁S e
▁polym orf
▁recept oren
sper centage
▁beoordelen .
▁er ytro
oom .
▁altern atieve
▁eier stok
▁hulp middel
▁metab olisme
eer t.
/ M
m is
▁s elect
▁T rans
oppervla k
om atisch
▁D rug
ance :
▁la s
▁p ac
▁met aal
▁PT T
pl and
z em
▁onthul den
▁oct roo
▁ademhal ing
ES :
▁zenuw stelsel
▁f ys
▁C I
▁steekpro ef
▁noodz aak
▁E uro
▁h ippocamp
▁Ch ir
▁tra c
▁- H
ie ven
▁doc ument
▁en ter
▁sch a
▁ge houden
▁( 3)
▁hyp otensie
F T
▁D oodsoorzaak
ies ,
H A
in st
▁d aling
ster kte
▁A p
▁3 3
▁s lijm
▁h alf
▁gevorm d
ide mie
▁T em
▁gren zen.
▁Doodsoorzaak :
ge h
▁reson antie
▁cult uur
os omen
▁bep aling
▁ver do
▁bere kend
▁B lo
: 20
▁ont bre
▁k rans
M e
ur ing
N ,
▁diar ree
▁l um
▁fe it
▁13 0
8 5
▁d oen
ect omie
isic o
▁gev isu
el lect
▁C r
spectie ve
▁ad olesc
( (
hydro x
▁pop ulaties
V er
ia ,
7 7
/ s
▁p lot
▁in zicht
▁berei ken
▁wer ken
▁gebeurtenis sen
al t
stan den
ph a
▁T oe
▁N ieuw
▁wij zig
▁patho genese
g rond
▁S er
▁daar na
esit as
▁th is
i en,
▁3 4
U T
▁N T
et hyl
▁mi R
▁V S
▁rapp orte
▁betrouw baarheid
▁ev iden
och te
▁M icro
▁lip iden
er s.
ific eerd
ist ratie
▁beve st
hou den.
- af
og ingen
▁5 5
▁Be ide
▁o sse
▁-S amenvatting:
▁(( (
H S
-t horax
ri chten
h en
▁ast ma
▁n r.
▁control eren
▁Q T
ir ale
one ,
▁veroorza ken.
ne ur
C D
▁b ent
mb lage
▁pleura-eff usie
e ase
▁b al
▁W .
h oe
n emen
▁peric ardiale
yl )
▁er yt
ol en
ë ff
vat ting
O2 :
▁1 10
am :
▁be sl
▁k D
m oe
▁met ing
▁malign iteit
▁STEMMING :
▁an est
fie len
▁N ee
▁Zo wel
▁I mmun
▁HT X
▁T ra
▁E X
▁bloed ing
▁f usie
la ct
et iek
▁W at
▁g lob
yc ine
kom sten
▁D el
se d
▁regel matig
it ion
▁201 7
▁Ger inge
▁ger emd
I M
▁functie ,
▁T ele
IC U
▁201 3
ment atie
▁onverander d
n iet
ch irurg
qu ente
▁ges ugger
h and
▁cm ;
ve zel
ste un
▁micro g
▁on afhankelijke
▁Z ie
cycl us
▁gereg uleerd
o ide
▁gal bla
w are
▁Ma jor
o z
▁foc us
] )
▁B .
▁over leg
gevoel igheid
▁S T-
b ar
▁var ie
il ar
an yl
▁Invas ive
▁3 )
▁presente ert
b uis
O X
▁ α
▁krist al
▁infectie s
▁sh ock
TE LE
▁was ,
▁toe genomen
▁d rin
-re m
of ag
▁imp lement
▁z waar
▁Q RS
H R
3 2
▁8 1
be st
ac ine
▁Kle ine
▁c an
ol ytische
▁g u
pl itude
ro scop
sie s
oca ïne
vloe istof
it s
- sp
▁No :
▁dist rib
ad r
▁op ac
▁h igh
▁op eratieve
/ T
- an
▁kan aal
ig de
▁the or
be weging
▁verb inding
▁alle maal
▁3 1
d oc>
onder z
▁r ichten
▁P S
ont ste
▁nan o
FO ON
b rid
▁ther m
▁CT DI
am ent
C ,
▁be houd
▁geschik te
▁man ifest
▁cir c
ge ving
▁pat ronen
▁water stof
▁ger andom
▁Nederland se
geb oren
▁over gebracht
afwijk ingen
( -1)
▁H oofd
▁4 0%
or ph
▁inter fer
gele ide
▁L DL
▁micro -
▁Chir g
▁C reat
AD S
e kt
um enten
▁c ardiologie
FOON NUMMER
re um
TELE FOONNUMMER
▁ro de
▁rel aties
t ocol
▁psych iat
p ositie
b al
▁v ader
▁ion en
P .
m al
▁e ct
▁L A
▁s ulf
▁[DATUM] .
▁C ULTUUR
b er
▁g o
f alen
embran en
oc y
4 9
▁st rom
▁studie .
om ografie
▁patiënten ,
reg ul
ri ene
al ium
▁HC O3
▁bet a
▁strateg ie
▁v ing
▁G L
▁verander d
▁verspre iding
▁men ing
ver wij
LL ING
kl opp
stelling :
▁[ DATUM
▁lang er
ith el
▁lucht weg
▁waar nem
▁ant ic
▁mui zen.
▁A ort
▁geb oorte
▁Thema: HTX
▁super ie
STE LLING
▁Decursus :
▁( met
l ijf
ig ne
lijn en
res ultaten
▁AL T
▁o var
▁ver deeld
▁k op
ent iële
fer ase
ation s
▁lig gen
▁wor tel
B I
ri ge
-f osf
▁weer stand
/ N
▁product en
4 7
f ib
hor ende
se .
▁begon nen
▁over wegen
ol oge
schapp elijk
sp ort
▁le g
▁P AC
▁H S
▁G R
▁ @
ro ep
▁Van wege
▁AB G
▁sp i
▁Ph os
c y
▁aange tro
▁ver la
▁car cin
▁dik ke
▁ger ichte
▁activiteit .
[ID ],
kw aliteit
-eiwit ten
▁( radi
▁(bij voorbeeld
▁f eed
active erd
▁kan did
st ip
os oom
▁CTDI vol
v rouw
ure el
▁A ctie
g ressie
n stige
er cul
▁diast olische
▁se quenties
▁Dop pler
▁tach ycardie
▁aanbevel ingen
▁hoe st
et .
▁ass ay
▁( [DATUM]
l ingen
▁regul ering
-binden de
▁no oit
sche iding
▁hoog st
a uw
if t
▁gegener eerd
▁pijn .
: 10
▁U V
▁n em
ken mer
▁f rom
▁rest erende
f actoren
yros ine
ole y
▁20 10
▁he up
▁R ep
ant agonist
▁j ong
actie s
▁10 ,
of il
▁onderzoe ken,
▁vol gen
▁Status :
iod ar
▁onmiddel lijk
merik aanse
▁c l
▁die pe
▁begin nen
clu deerd
m assa
▁verb onden
ch o
▁mar kers
G )
plaat s
E CT
g .
▁rem mer
G E
-3 0
▁na dat
ri al
▁re ferentie
▁dro og
▁(z ie
▁Con cluderen
▁Geslacht: man
ab d
7 9
el ine
▁( un
▁pol yp
▁h ard
ad ren
▁zo dat
os yl
AS T
hy leen
/ R
▁long oedeem
▁geselect eerde
' d
4 6
L .
la s
▁sign alen
inus ritme
▁T 1
EGEG EGEG
re st
▁13 .
▁c are
▁r ight
geschiedenis :
▁l eren
▁pijn ,
▁[ **
▁geb le
▁C S
▁Be handeling
▁t ube
acht ig

 S
( 1
▁f ra
▁cm .
▁B as
▁plaats v
▁NE UR
▁verlaag d
▁beïnvloe dt
▁effusie .
▁t re
▁H F
▁ch lor
▁jaar ,
behandel de
▁gecombine erde
▁o gen
▁oc clusie
b ol
▁( mm
▁in tensiteit
el .
▁verspre id
os a
▁201 8
-2 ,
▁levens vat
wee g
O :
▁bijdra ge
we st
▁fen otype
▁onderz ochte
▁gecontrole erde
▁inf erieure
▁res olutie
I F
▁d w
▁COVID -19
C M
re erde
it m
ob last
▁z on
▁colla geen
Y :
▁[ ]
▁waar mee
▁bio chemische
-m odel
▁( on
▁ ~
▁st aan
▁T 2
▁I FN
▁oef en
▁ant im
▁Ge achte
▁evol utie
▁her zien
IN STELLING
▁H yp
/ D
it ro
▁end ogene
iv ity
▁M atige
▁sc ala
▁lymf ocyten
▁ra dic
AR T
on isch
▁ag ressie
▁g ram
▁grond slag
▁s agit
▁gest im
▁N u
▁Meer dere
-re mm
▁mmol/L ;
▁synth etische
▁pol i
▁intracran iële
der heid
▁( 20
▁beeld vorm
t ype
▁v ond
▁beoor deel
▁pl us
B -
▁N H
▁biom ar
▁[LEEFTIJD] -jarige
hy re
▁ ‘
▁diff uus
▁hel ft
▁kun st
▁pre -
▁E S
5 PM
car b
2 00
os s
▁ruggen merg
▁vastgesteld .
de s
▁mmol /l
ion s
▁ver wer
w ort
ra in
▁af beeld
▁cruc iale
▁art sen
▁cap aciteit
▁as ympt
olester ole
▁kal ib
▁k olon
▁op vallen
▁( e
▁eff iciënte
▁p ain
▁samen stelling
▁ il
or ele
▁[ TELEFOONNUMMER
▁bij be
▁morf ologische
▁ver richt
l im
▁foet ale
3 /
▁c lin
t herapie
se quenties
▁IL -1
pro duc
▁nauwkeur ige
▁maan den.
▁cyt os
ron ic
ee ee
▁Res ultaten
▁evalu eren.
▁verd achte
▁d raag
▁Ver hoog
n ummer
▁vit ale
p o
IN D
▁C A
▁toe komst
os in
▁m entale
▁t w
▁ge complic
▁ver vangen
ococ cus
afg ifte
de fect
▁t aak
▁'s ,
/ k
▁richtlijn en
▁myocard infarct
▁lig t
▁even wicht
▁b y
ic ine
h oek
▁B et
▁af deling
per atie
▁implic aties
▁doel wit
▁don or
met ingen
▁souff le
▁mediastin um
gen ee
▁en t
▁1 x
ri ën
em mer
▁rechter kant
▁f ac
▁gevoel ige
▁ledem aten
▁end omet
l ering
ec k
( en
▁vloeib are
▁gehad .
standig heden.
▁D R
▁Dis c
▁status :
▁ge te
9 6
- achtige
m id
▁as ymmet
▁kin ase
ic ot
ent al
ven .
▁bestu deren
▁at riale
__ __
▁aan toon
▁R C
▁N F
▁produc eren
▁V eel
on aat
▁O b
▁( voor
gor itme
▁route s
▁bin dt
▁cereb rale
▁sp inale
▁L ong
ic s
analyse s
▁Ech ocardi
▁mitralis klep
▁therap eut
▁H b
▁beschik baarheid
▁vermoe id
▁l open
▁Service :
▁2 -
▁hart klopp
▁form ul
ar in
▁Uit slag:
▁ont slagen
▁An g
▁een heid
at ter
▁hepat itis
se ,
▁z uiver
k atheter
-geb aseerde
▁opeen volgende
▁E CV
▁uiter lijk
ok ken
um ente
▁B rief
▁g /d
entie l
▁201 9
re ctie
▁Ver geleken
▁ervar ing
▁rem de
oster on
iden .
▁beteken is
▁medi ale
ol ,
▁dif fuse
▁pro ximaal
ten der
▁bijbe horende
▁Chirg ical
▁fosfor ylering
▁sinus ritme
C K
▁et h
▁re d
▁CD 4
▁N ot
▁integ r
us e
i alis
▁gener eren
▁h oor
▁aange past
f ace
oel ichting
geh ele
gen ase
▁aangetoon d.
▁z ien.
metho den
p unten
val idatie
der en.
▁st res
ur ie
▁ro od
▁(un )
▁Pro cedure
▁dien en
▁col or
dicht heid
struct uren
▁Actie :
▁( ge
on trole
▁An alyse
ist r
▁m eld
( 3)
ch olesterole
-C o
▁w ak
▁voor bij
h als
rom etrie
▁m ur
▁negatief .
▁ratten .
▁s ur
▁ro ken
▁gele idelijk
▁af w
▁P ul
▁r atio
▁I D
sp at
van c
um at
per iode
der iv
ol ling
or deren
stud ie
▁Ver gelijk
▁tra che
▁di alyse
▁re ageren
▁ont kent
-cellen .
▁de genen
▁wil de
▁c yclo
la den
ym ph
b lok
elf unctie
▁sch atten
▁Met oprolol
▁mmHg ,
▁leuk emie
/ S
▁t ib
me dicatie
2 ).
E A
▁Ac id
sor b
▁aan gren
-t rans
ogen iteit
▁the orie
om ie.
▁T oen
▁re sectie
▁relev ant
2 ;
o ken
▁intervent ies
oplast ische
/ t
▁Re spir
▁onvol doende
osom ale
▁med isch
▁mes enter
7 4
f act
▁cor dis
▁verh oging
▁R F
▁S D
igen en
▁tek ort
- be
H 2O
perim enten
▁assoc i
▁rem men
▁on regel
-AL -AL
6 8
▁schimm el
sch rif
▁ess entiële
▁st ro
▁b pm
den d
▁geïn fecteerde
▁ver dra
stru ctieve
▁studen ten
▁onge wijzigd
all on
ien ivea
rose .
ok l
▁gele iding
▁voort gezet
▁place bo
oe st
,5 %
▁sp in
▁controle s.
s ne
▁waar op
▁we ken.
▁elekt rof
▁intact e
▁b and
▁ °
d omein
▁gelijktij dig
▁O F
sch er
chlor ide
▁E valu
▁History :
OR T
ac u
▁He alth
▁th ym
▁A spir
ar g
di lat
sec ret

 E
▁wij ze
▁er v
ill ine
▁t ar
3 1
▁L .
pro gramma
▁t ab
▁zw are
▁een voudig
▁invas ieve
▁L ine
ectie ve
ver en
ia .
uur d
▁therapie ën
edi at
▁geregist reerd
▁A :
▁3 D
▁isol aten
ot h
▁voorkom t
▁toege schreven
p en.
▁T AB
ot he
▁ml /min
et ica
p atiënten
sch aal
ou ten
▁gegevens :
▁x10^ 9
▁C ON
ati ente
▁gede tail
▁isol atie
▁gewicht s
as .
▁geïn ject
9 7
yc od
▁doel en
-2 00
▁Disp :
om standigheden
ite ct
▁Question naire
ge t
or d
x )
- con
imm uun
n ale
pat roon
no wn
▁vers le
is k
af rag
sp ier
▁h aal
▁gren zen
▁m M
▁niet .
ol ogen
ven en
per centage
▁men gsel
all y
▁eff iciëntie
▁W aar
▁anat omische
▁(( ))
iv al
▁intact .
at ig
▁intra m
ier e
▁ge t
/ re
▁nodig .
▁M C
ert ijd
▁b ren
▁A cu
▁over gedragen
ly se
t ratie
▁maat regelen
▁ge lab
un del
lo os
de la
▁bev orderen
ie d.
bri de
N )
:4 0
▁radi o
heem se
▁progn ose
iek ,
i gende
▁vla k
▁pro motor
al ine
▁S ociale
▁bevol king
▁gemen gde
▁In tra
▁M T
▁gek arakter
▁Geschiedenis :
▁M A
▁Concluderen d
ant h
tran splant
cub atie
▁0, 1
▁H ENT:
ente el
▁b rand
▁S BP
een heden
er :
▁H B
▁l itte
- on
ffer entie
▁ou ders
ee st
ig uur
▁k aart
▁le den
ug h
▁m ellitus
di gen.
▁m orbiditeit
▁afgele ide
el ingen
▁s oep
▁re eds
▁mel k
oc riene
-rem mer
▁omgev ings
▁Rec ente
▁voor deel
▁T est
▁( i
atie :
▁b rengen
II I
ion al
pro liferatie
▁O S
qu is
gra de
▁het ero
▁metho d
▁gebruikt ,
▁S ec
▁anti oxid
▁leeftijd ,
▁gesugger eerd
▁Prote in
▁peric ard
▁tra ditionele
▁ep idem
aand oen
▁afzonder lijke
▁(radi oloog)
▁ben eden
den king
aryn x
▁verwij deren
ize d
▁n at
0 6
▁ver rijk
▁R h
▁worden .
mit t
▁init iële
h eren
-4 .
▁reactie ve
▁over t
ic ulair
k ru
▁meer derheid
▁koort s,
▁( gemiddel
▁A mb
ysi ologie
▁in z
adig ing
▁diver t
te am
▁const ip
▁et hanol
ger ing
8 8
p aste
u ste
c om
▁linker ventrikel
IS T
▁c apsule
lan k
▁( w
R D
u il
▁function eel
G ap
▁kat alyse
▁be zorg
▁comp lement
▁medi ane
▁zw elling
▁aangren zende
▁ob esitas
▁besl iss
▁M in
iv ari
1 :
▁di versiteit
▁hyd ron
▁P :
▁M AP
micro scopie
▁ver erg
▁de l
▁Al k
s ign
as se
i asis
oe fen
▁tric usp
C O
ve stig
▁P K
▁k euze
▁T P
▁v ul
▁stop pen
L A
▁mo dific
sp ec
▁G U
▁zichtbaar .
▁(Name Pattern
reg ulatie
▁pre dnis
▁aan vang
orm al
he s
▁gew or
▁mech an
e :
▁[( (21
▁( [
▁opt reedt
▁terugk erende
▁gez amen
o ,
sz ins
▁K ort
b and
▁Ch irurg
▁el im
ffect en
t her
olie ten
g ave
ocar cinoom
▁He art
met ast
▁([DATUM] )
o ok
▁duidelijk .
▁uit zonder
▁sp oren
EL V
▁ ele
h orm
▁episode s
▁ab sorptie
▁ne on
▁ob ject
▁Di abetes
▁voor af
actie f
sel en
▁perif eer
/ F
▁pneumon ie
▁I mp
▁complex en
d urende
▁Aan meld
▁ver vanging
▁ne gen
ul us
▁ziekenhuis opname
▁gem odific
G -
▁zeld zaam
▁Q 4
▁Hol ter
a i
di agnose
▁chirurg ie
ro scopie
▁H ospital
▁P I
▁s oor
▁e con
▁we gens
iv a
▁ge pland
▁overeen komstige
▁system atische
: 50
▁( de
▁regul erende
▁re al
baar .
▁ab ces
▁C u
m ot
▁t och
act iver
▁m ast
▁s ingle
▁gedrag s
opt im
▁immun os
cur r
di kte
▁ver leden
▁Sp ec
▁aan v
c yten
aar s
▁co hort
▁veelbeloven de
▁e cht
▁verkrij gen
▁gest opt
N T
▁tran splantatie
▁G ene
ine zuur
gelijk ertijd
▁mig ratie
▁lichaams gewicht
ress or
ben ader
▁gen eratie
▁0, 6
▁transm issie
▁sch u
u res
▁op ger
▁bero erte
h r
▁gedeel te
ik et
▁<PERSOON> ,
▁## %
▁m s
ch ron
▁var kens
▁ont vang
oc ale
of ren
▁re delijke
▁vertra agde
ol .
▁ro bu
▁infil tr
as on
a ff
▁spec iale
▁nucle otide
▁sn ell
▁bre de
: O
▁An Gap
D A
▁hou dt
▁( een
▁weer spiegel
▁O K
▁krans slagader
▁b yp
▁contra ctie
ich ia
it atief
▁b ul
is in
▁ne iging
-l ymf
- uit
it aire
elt jes
riè re
▁com fort
▁fot o
▁een s
▁n m
▁3 -
▁S M
▁s ed
▁int ub
▁per cept
▁t ien
.. .
▁la ser
▁loc aties
▁In f
se ction
as er
▁toel at
I A
ant ilich
▁succes vol
▁ar ch
▁vorm t
i ologische
▁intraven eus
▁class ificatie
▁7 2
at in
c al
▁flex ib
▁mater ialen
▁L act
▁onderzoek ,
▁oorspron kelijke
▁14 .
▁st ier
▁domin ante
▁dro ge
pop ulatie
de hy
▁In dien
▁inc isie
▁ver en
▁PR N
▁kal ium
▁ma ken.
▁hebb en,
st ij
-1 6
ch romat
▁par allel
▁L 5
termin ale
Y S
▁CO PD
▁zu ige
▁immun ohistoch
B M
▁gesp ec
▁De vice
▁hand h
of yse
ok ine
▁-R eden
oc on
▁rechter boven
▁lang zaam
dip ine
▁L eeft
▁te v
▁indi rect
▁(t itel
ent anyl
▁el ementen
▁gekwee kt
p an
▁D er
s et
▁v oe
▁A G
▁ber oep
om on
▁O x
om eer
st ijd
▁MCH -2
seg ment
▁o verd
art im
▁Ter wijl
▁detect eren
▁T w
n et
▁ther mische
op o
▁bra d
om ale
i que
-v irus
▁t an
▁stadi a
▁hyp o
▁oorz aken
/u L
▁E M
▁medi um
w ant

 L
jectie ve
k ort
▁f lu
▁regul eren
▁t ime
▁hep arine
▁op .
L R
▁atheroscler otische
ch em
▁r ate
- groep
▁ge activeerd
▁normaal ,
▁atelect ase
lip idemie
▁di abetische
id yl
▁18 0
ontwikkel ing
amen te
▁CT- scan
▁la par
▁j an
▁ge wijzigd
▁bi ologisch
▁veil ig
gen etische
▁S EH
▁v s.
▁ult ras
-in vas
▁al gehele
▁Comment s:
▁m us
▁( U
▁wereldwij de
▁H D
op razol
io om
▁() )
komen de
▁(bij v.
he m
▁heeft .
▁vol g
▁P ain
kom t
▁spont aan
▁infectie .
id og
sie k
▁su g
eld ood
▁seks uele
▁ontwikkel den
▁MCH -3
▁pro v
▁9 9
▁he b
 20
▁wer kt
4 /
▁S ign
▁dilat atie
ion en
▁m amm
▁plaats ing
-comp lex
ocyt ose
in c
▁Act ivity
▁c DNA
▁daar van
cult uur
▁train ing
vorm en
▁IV F
l ong
▁c lear
▁al kal
oler antie
▁W er
▁K /uL
▁Be oordeling
▁H ome
▁milligram .
ili ac
▁he den
▁gew oon
ome di
bre uk
▁s onde
▁onverander d.
▁t etra
▁C ancer
▁D E
▁Veren iging
-inf lammatoire
▁V CI
▁tr ig
ELV IS
4 3
kk ige
▁lon gem
▁ver werking
rin sieke
een de
▁man agement
▁Al ert
ut um
▁calcium score
▁T el
▁Verslag :
- analyse
▁S le
▁_ -
mer c
reat ment
it ter
slo ten.
▁p rakt
▁[ x
▁in heemse
▁eff iciënt
▁μ m
ei z
art an
in ium
▁V is
4 1
▁onthul len
▁e et
▁groep en.
▁verw ond
▁re delijk
▁ge est
▁ret in
▁experim enteel
▁gesynthet iseerd
▁ver tro
▁art ritis
▁neut rofie
t on
▁dop amine
▁decomp ens
p ing
eek sel
▁mmHg .
▁C an
▁kom st:
▁16 0
▁vloe ist
▁c yan
& gt;
▁ge trans
▁Ge en.
▁Al gemeen
▁best and
on eel
lu enz
he en
▁enig szins
▁over expressie
▁Lin ker
▁beïnvloe den
▁sp ann
ol i
▁b ib
ort ic
Hospital 1
▁per i
ge vallen
s k
oe pen
▁Ver ander
▁samen vatting
▁D OS
▁a ug
▁karakteris ering
▁variab ele
k ker
z i
▁ ip
ten t
▁lymfaden opathie.
ub l
▁function eren
▁L C
▁ch olec
▁3 9
Me dicatie
▁bescherm ing
▁acet yl
▁be mon
▁goed ,
plet ie
am aat
ic ,
▁onbe kende
▁or de
▁D oc
assa y
▁h or
▁verwijder d.
ob ob
▁i.v. m.
ch i
▁Lab s
▁dec en
st itu
▁c ran
ra ad
isin opril
▁sagit tale
nam es
▁weten schappelijke
▁Ex am:
ill us
▁bilateraal .
▁ep ider
at ch
▁uitdag ing
▁A u
waar t
▁car ot
▁selectie f
▁gla d
bi opsie
▁omge keerde
▁ver dragen
▁( CT
wissel ing
▁rol len
▁C lin
▁w et
▁aange geven
ider zijd
G een
▁val len
▁am bul
▁at ypische
ijden .
▁cir cul
▁CR P
▁D C
o o
▁T ran

 O
▁onder werp
le d
▁201 4
ot ypische
ap en
▁macrof agen
▁pers ist
▁vrij w
oe stand
▁n eer
E HTX
▁ort hop
▁angi ografie
f ase
D E
▁ver ouder
( S
art ic
▁aan .
▁waargenomen ,
▁b if
▁Sc ale
ver we
strateg ieën
▁gemet ast
▁voorsp elde
▁dos ering
▁tub ercul
▁pulmon aal
oplast ic
▁gen etisch
▁cytok ine
▁ag greg
▁co örd
3 H
▁post -
▁tromb ose
i laire
scher ichia
ge maak
▁onder scheid
otyp en
▁cons erv
▁t ypische
▁ge scheiden
▁duizel igheid
▁best ond
▁bijn ier
K G
▁cm H2O
▁sin ussen
▁verschillen d
▁dra gen
se s
▁c is
▁or iën
▁2 x
6 9
▁L AB
▁benadru kken
▁w an
gra ad
▁g ron
▁consol idatie
▁variab elen
▁sup ra
▁Er nstige
▁ge ad
-in testinale
▁af genomen
▁ver slag
▁3 ,5
▁0,0 5).
▁bet a-
D ER
ver houding
▁ko ude
gro e
▁uitbre iding
reactie s
▁sp ieren
▁diver se
▁pla que
▁uitdag ingen
▁lang ere
▁[x ]
j ug
▁m orgen
▁H y
▁rep resent
ijk en
▁aanpass ing
▁mon okl
▁vis u
▁ze ker
ontre inig
▁y es
▁patiënt ,
▁P la
test s
et a
ut aan
och room
▁uitste kende
▁gerapporte erde
/ G
▁bre uken
▁n amelijk
ic k
te mper
as ed
ver deling
▁dat ,
hou et
ep hal
▁tot dat
▁ad vies
ra che
con s
▁Cardi o
▁intermedi aire
ess ant
▁ins uff
-p atiën
azep am
▁n n
hol te
b l
C R
▁C ode
f lex
sp ace
▁las ix
▁1, 3
▁onbe kend
▁in houd
▁analys eren
▁Som mige
▁Medic ation
0 3
▁met alen
▁var ieerde
- >
▁res iduen
▁W H
▁gete ste
▁sch iz
▁geh oor
ul erende
str al
zij dige
iden ,
um ab
▁statist ische
7 2
▁vaat ziekten
▁retro per
Y R
an k
▁ont vangen
▁uur )
pro cedure
▁g on
▁gevonden .
sie .
▁k ra
▁l op
ograf ie.
▁gen omische
lyc er
▁(n aam
▁pas geboren
▁kw al
▁onge wijzig
▁willekeur ig
is e
▁ q
ha af
c ardi
▁Cont inu
- al
▁20 20
▁T rop
▁0 9
gen tie
h ab
▁altern atief
▁ster kte
▁passen d
acet yl
-f unctie
ec ursus
5 6
▁in se
▁prin cip
▁hy brid
▁( #
▁ech ografie
▁(E .
▁pro ject
▁c eldood
aal f
ia e
▁progn ost
' ,
▁c at
▁P H
ver sch
scri pt
▁ar g
▁ it
▁d ip
▁E scherichia
▁H A
ra pport
co ëff
▁be zoek
c an
st reng
and aard
per fusie
-b uis
▁F amil
ide ,
▁Blo od
st adi
peratie verslag
▁J ap
▁beweg ings
▁sep sis
K -
us s
▁morf ologie
▁perc entiel
onder steun
▁( II)
▁p ector
▁( OR
▁h iel
▁gev order
▁be sluit
quenc ing
▁h oek
▁f ist
▁w illen
▁bl ot
ab ase
▁r and
▁( a)
▁monitor ing
ath ion
▁hist ologische
ziek ten.
▁Ge z
0 7
▁an amnese:
8 6
▁vo erden
- out
▁tr yp
▁[TELEFOONNUMMER ]
▁oste op
▁dien st
comp onent
▁M an
▁he el
▁4 2
▁verster kt
▁ing reep
▁verschuiv ing
▁kracht ig
▁d end
▁onder w
▁leven de
s niveau
z on
▁verpleeg kundige
if e
o w
idi ver
▁Abdomen :
▁distrib utie
isch ,
▁gemeld .
▁der mat
4 2
▁lok alisatie
▁AS T
x ine
▁Na ast
▁w ijd
▁inter leuk
bel asting
▁3 0%
▁L ast
f ol
ger ichte
▁ziekte ,
▁S N
' -
▁ob v
[ID ]
▁veranderingen .
▁long kanker
ici entie
▁inter mitt
: [DATUM]
▁(n iet
he x
▁beoordeeld .
n en.
breng st
▁onder drukt
▁sle ut
s inter
▁Z n
▁temper at
▁bere ken
▁uitge sproken
▁( ###
AD ,
▁bin den
▁identific eerden
-re ceptoren
▁bl an
▁Omschrijving :N
tensie ve
A A
▁tablet (s)
ept or
▁In sul
▁ch ange
ed ische
▁klas sieke
A l
▁6 00
▁struct ureel
h uid
▁ant it
▁I M
-ant ilich
oom ,
▁gesla chts
▁verhoog t
ON E
▁[ZIEKENHUIS ],
t age
▁PV C
te erde
a ec
-b inding
▁ag on
▁do chter
T .
di eren
▁op lever
/ w
▁hulp middelen
of ie
▁dynam iek
-m on
▁aan komst
▁toegevoeg d
AS C
z he
/ V
▁V ier
amin ofen
▁farmac ologische
▁re constructie
▁bespre ekt
1 ;
d oel
ul ose
ur on
ic us
ringen de
▁onderg ingen
ation .
▁uur ,
▁resp ir
▁- N
oor den
▁bev inding
ge d
iden t
▁nan op
de erde
▁Poliklin iek:
H C
▁K alium
ant oprazol
▁RR :
it ies
s ystemen
it ud
v aat
▁e qu
ule ert
▁n or
▁communic atie
waart se
▁uitgang s
▁b allon
a vanc
oc umente
aspect rometrie
▁individu en
adr ant
▁sens orische
▁st ee
ine erde
wer vel
cult uren
▁com merc
▁hypertensie .
▁av ond
/ b
▁In di
per t
▁aan val
▁omge zet
▁neuro path
▁C F
op ische
▁5 6
▁chrom at
▁9 5
▁volto o
▁path ologie
▁X -thorax
▁bloed stroom
c et
s be
ijn e
▁af val
▁E lekt
diën t
▁therapeut isch
ast en
▁Ac et
▁hypertensie ,
▁E G
r aling
▁gekwee kte
B e
▁bel asting
▁be val
▁In t
▁ver duidelijk
stit iële
▁l an
▁a dip
▁Reden :
▁Neuro log
▁T GF
▁[ ID
▁P sych
▁onder houd
ine f
oc omp
ze ker
lox acine
le id
▁gew richt
ol len
▁f l
▁con gest
▁geïn teg
▁v rucht
▁bevestig de
om al
y len
▁micro M
ontste king
▁variab iliteit
▁gun stige
ro ken
f ac
▁n g
uc c
▁secret ie
▁t yrosine
▁promin ente
▁experim ent
▁L ip
voed ing
▁kandid aat
▁s )
er al
▁dif fusie
▁sug gest
▁(mm ):
▁4 1
▁goed aardige
AT I
ver se
ot omie
▁stimul i
te d
ologie )
f spraak
▁amino zuren
ri en
H D
▁byp ass
▁9 6
▁0,0 5)
-2 5
stit utie
ocardi ale
▁Lab oratorium
▁9 8
ho sp
um ar
st em
▁1, 2
▁a gen
▁ ?
▁zorg verlen
▁p oging
▁sp or
▁I GF
▁her stellen
▁t it
▁elekt ron
▁plot sel
▁dat as
▁ein dig
▁vertegenwoor digen
▁Aspir ine
▁er f
▁adequ ate
ep razol
▁vari ant
kenmer ken
▁4 6
▁toege wezen
at s
op a
▁ren ale
▁organ en
▁in du
▁result erende
[PERSOON] ,
(en ):
do wn
▁v es
▁b ic
▁lucht wegen
▁p ri
ap amil
▁b is
-t -t
▁hier van
i cter
ine erd
▁f in
j a
tra ctie
▁hyp oden
▁st elt
▁gevisu aliseerde
▁geselect eerd
▁-B rief
▁bestude erd.
▁p ediat
▁C lip
▁coronair lijden
ul d
▁bescher mende
- gerelateerde
schapp en.
▁Mon itor
▁panc reat
pol arisatie
▁s otalol
ar ter
-n egatieve
▁variëren d
an ine
▁all erg
▁z ee
le b
▁6 4
▁gen oeg
-s yndroom
verb indingen
▁de vice
▁verander en
ste chn
▁z ak
▁me i
▁k eten
sen s
▁endomet rium
ific aties
▁(1 ,
▁200 9
▁Thema :CAR
▁15 .
▁embry onale
▁syn aptische
▁of f
-c ell
▁nab ij
▁superie ure
oxy sm
ING EN:
▁0, 2
▁opn emen
▁> )
t elijk
▁u ro
▁gepresente erd.
-D NA
of iele
▁cre ë
▁z elden
ve al
fect eerd
▁kanker .
ken ning
▁( d.
▁ver wezen
▁BP :
▁defin itieve
▁k west
U E
i eren.
O OR
INSTELLING >
a- aort
7 /
yper tensie
T ER
im plant
▁5 8
▁schijn bare
▁cult uren
m :
▁micro biële
▁colleg a,
▁Al zhe
idog rel
ic es
▁L ink
( ))
▁Jap an
opro fiel
▁consol id
g lut
sp or
le ctie
stoornissen .
▁al lo
in aal
▁am plitude
-2 -
e ff
▁12 5
▁disc us
▁pleura vocht
▁C YP
▁il lu
s in
▁su ik
▁wak ker
▁verbet ert
▁geïn tub
▁onze ker
reen ing
▁be middelen
ziekte .
▁Omschrijving:N one,
olog ic
▁Al gemene
vle es
▁MCV -9
▁poliklin isch
▁poliklin ische
vol um
str aling
▁oplos bare
▁gl omer
▁str aling
▁all el
▁ged ocumente
▁gedefin ieerde
▁mel dt
ffer ent
onderz oeken
f o
▁onderw orpen
▁( Z
▁Antwoord: B
▁d al
ycod one
amet h
▁stap pen
▁kn ock
▁bron nen
ast om
acht ing
▁M P
▁mg/d l
▁S h
b uter
▁R ight
▁11 ,
▁L eu
▁c ath
▁verhoog d.
▁verm eld
▁repar atie
d a
cip lin
▁gun stig
G R
D ecursus
▁D en
▁vertegenwoordig t
A 1
▁gedilat eerd
▁vo eren
▁gek regen
▁m ijn
▁l anden
-s ysteem
ine d
▁verm eende
▁dra ad
on aal
▁sub str
space %
▁(Daily ).
▁a min
AM P
be ur
-1 8
▁G em
▁anest hesie
▁ver denking
▁v s
▁con curr
▁bew ustzijn
▁Tem p
▁Neuro :
▁cyt oplasm
▁str al
▁c ef
lo on
▁T M
-2 4
▁f ix
▁CP AP
▁( en
▁9 0%
ivari ate
cholesterole mie
adig de
▁el ement
▁kat alytische
▁Ver wer
▁Medic al
< PERSOON
▁a ssessment
y :
vorm ing.
p hy
acchar ide
▁benadru kt
▁aden osine
▁klin iek
▁C el
▁divert icul
▁] ]
▁N ut
m embraan
stit ut
▁DOS E:
▁krit ische
/ f
▁Pertin ent
▁pul s
▁A merikaanse
▁P ELVIS
▁le v
▁am iodar
▁geïn tro
al g
▁type :
▁oedeem .
▁herhal ing
▁handh aven
ee s
▁verz org
▁cell ijn
▁lever ,
▁heter ogene
a as
chol ine
er ale
A F
▁(( **
cap aciteit
▁gezamen lijke
▁geëvalu eerd.
▁p al
▁Vraag stelling:
▁trans form
▁S K
▁G AB
▁( ##
▁bel ast
▁g rij
 
▁L ichamelijk
▁contrast .
▁Aanmeld ing
app a
▁m ol
▁ad ap
▁bin dende
-p olym
▁(d. w.z.
▁dem entie
▁gerandom iseerde
▁kw amen
▁ge aut
▁verminder t
ei ste
ov irus
nnnn nnnn
▁verd wen
▁onge acht
or vastatine
▁K an
▁re produc
▁ge heel
▁8 5
fosf aat
▁opmer kelijk
ab an
o der
in ol
9 3
▁gebruik elijke
ve s
▁polym eer
▁antim icro
▁uitge sloten
▁C d
ryp t
▁2 .0
▁l u
▁4 3
mechanis men
▁o chten
▁gecon cludeerd
dig ing
ven de
jectie fractie
▁onder drukken
▁f luid
▁p iep
id ase
▁mm ,
▁vezel s
▁Veren igde
▁organis atie
▁gecomplic eerd
&lt; 0,0
is ciplin
es ium
▁h /o
f ten
▁Acu te
▁l ij
▁risicof actor
iform e
ion eel
spie gelen
▁sens or
em ie.
▁pro st
▁4 4
▁verst or
os ale
▁comp ressie
on ie
t ige
um ad
▁gedi fferentie
▁weer spiegelen
▁Cor :
▁( Q
mo id
▁observ atie
of age
▁e ic
of actoren
M -
▁I P
let e
ation ,
f s
▁T .
a ys
▁Thema: Decursus
▁Decursus ,
▁Antwoord:B rief
▁Thema:Decursus ,
ep er
▁Tablet (s)
▁hoor n
9 4
▁de x
▁fosf olip
▁Hem at
0 .0
▁tumor cellen
i ent
▁be iderzijd
8 /
d oen
▁m yc
ole cular
▁par an
vul ling
% space%
▁12 ,
ks gezondheid
d )
▁voorsp eld
i ing
▁Ca (2+)
▁beg rep
▁D S

 P
▁rem t
▁gem ute
le c
▁elekt ronische
itie f
▁RDW SD
▁onmiddel lijke
ati b
▁Euro pe
▁cross -
▁(R adi
kken ,
6 /
▁ab sol
AT E
▁voort plant
▁decursus :
dig heid
▁ ×
▁D I
▁S O
le ,
▁M L
▁le ft
C a
ly k
▁ontde kking
la se
▁gez uiv
▁bevest igen
ster n
ro g
▁a er
▁schiz ofren
▁embry o
om eren
▁gedetail leerde
▁ang ina
▁vari anten
▁implement atie
▁s en
j aar
and haaf
▁t aal
mb er
ten ded
ed ,
▁uitgevoerd ,
-1 4
▁Tablet ,
rim in
▁onbe kend.
▁verd w
▁w issel
▁induc eert
▁j un
▁n g/ml
sch ak
▁in sp
▁we zen
▁< INSTELLING>
▁st ri
▁d ij
ig .
ff usie
▁S S
raak been
▁geh andhaaf
▁Amb ul
lif eratieve
▁erv aren
▁frag ment
▁stam cellen
▁onder drukking
▁en erg
lo ten
per atuur
▁0 3
▁PC R
al ,
▁lich amelijk
▁verlaag de
▁onderzoe kt
▁fluor esc
▁extra ctie
ho d
▁veronderst eld
hy dra
▁k orrel
▁S ol
▁ble ven
▁prognost ische
▁onderzoe kers
tie ve
▁M M
nel heden
▁sleut el
ia z
▁16 .
av irus
5 5
▁vas cul
▁S kin
u ari
g lucose
p art
▁ad hesie
▁t ip
▁p arenchym
▁mi RNA
▁M O
▁p 53
▁uitvo eren
ine se
▁uit slag
▁LV AD
x .
▁F i
hyre oïd
▁leuk ocyten
luor escentie
▁c ategorie
▁μ g
▁verdi kking
▁-- >
▁bloe den
▁chem otherap
▁G lyc
▁gecombine erd
▁verkla ard
▁na druk
▁### )
▁versle chter
▁emot ionele
▁A ut
▁ant agonist
▁U /L
▁di ë
▁On langs
▁geïn ter
▁on d
o zen
▁dors ale
▁tach ycard
▁uitge sloten.
▁comp et
▁proces .
▁lymfek l
▁ge avanc
▁vers n
▁ho of
-g amma
an im
j arige
▁op slag
▁chron isch
il aterale
▁ge activeerde
- (
▁mut ant
▁(I nt
▁traum a
C. )
▁(n =
e ar
m ateriaal
rit ische
▁en do
act e
▁g tt
ast ische
▁sign alering
▁Ge gevens
▁kenmer k
▁cardi omyopathie
du id
lop idogrel
▁F low
▁seg menten
6 6
ost ase
▁[( Name
▁z oek
▁st oornis
▁verst oring
▁geval ide
▁6 8
▁in structie
▁W el
ab ele
m ):
▁zich zelf
▁b rief
▁extrem iteit
▁sch ool
▁6 0%
spro blemen
▁Algemeen :
▁( 4)
o ctor
▁herh aal
N F
buter ol
▁(9 5%
N OS
ijden ,
YYYYYYYY YYYYYYYY
▁gelok aliseerd
temper atuur
O H
▁evol ution
▁S inusritme
▁b ouw
il and
D M
▁ge sc
▁bel oop
▁genee skunde
▁patho f
▁a z
CT-CT-CT-CT- CT-CT-CT-CT-
▁klein ere
▁TN F-
best rij
▁oedeem ,
▁voorbij gaande
▁ge halte
s n
▁betrouw bare
-resp on
s oorten
▁r ing
wer pen
▁ne k
▁geschat te
▁operatie .
▁An amnese
sen de
afwijk ing
▁be waar
▁gele gen
rief :
mm on
▁aspir atie
tran sp
▁verpleegkun digen
▁z et
▁controle .
0, 00
wort el
s yndroom
qu it
▁Ver richting
i aanse
▁ste un
st ering
▁ iliac
▁inter stitiële
▁water ige
▁1 :
▁Verrichting (en):
▁ger elateerde
▁linker borst
▁verbet erd.
▁D O
B R
▁E os
7 1
ne c
▁waar na
▁oest rogeen
▁soc iaal
▁der iv
▁er voor
▁fy lo
verander ing
▁willekeur ige
ol iet
▁Nieuw e
▁la gen
▁ver v
iner es
id s
del ings
ab lok
der d
▁theor etische
respon sen
f ,
▁st uk
-C OM
▁b uis
zuur ,
▁R S
▁bescher men
▁remm ers
ate uze
▁ziek ten.
▁8 0%
▁a ud
▁ra s
▁Le v
▁Product )
▁mogelijk heden
▁Doc ument
▁(Int ellect
ant al
▁P ulmon
ost en
▁de termin
▁gang l
▁v aardig
▁jaar )
▁7 0%
▁Klin iek:
l ichaam
▁opgelo st
'd 'd
▁z in
s ynthese
t ings
▁om k
▁R ES
▁Ver dere
qu ê
▁<PERSOON-##> ,
▁sil ic
▁stoel gang
▁organis men
▁out put
▁F inding
▁prof ess
▁le er
▁mic rom
V oor
▁Urine :
▁achter grond

B e
kken de
om een
g g
v ragen
▁H oog
- end
p el
▁Hgb -1
-sign alering
▁ide e
EH EH
oor de
▁(c )
f iciënte
- methyl
▁man ip
▁pla cent
▁mult if
▁zwak ke
cont act
▁neon atale
▁cent raal
▁5 '
et ro
ger uis
tra ct
▁cel cyclus
▁lever t
u ut
▁e val
-test-test-test-test -test-test-test-test
▁ver eiste
wijz ing
▁n as
▁clu ster
ver spre
▁K lacht:
▁long itud
al ity
▁fre quente
▁b p
dien st
▁S H
▁psychiat rische
ang ere
pat ronen
▁sch ouder
▁tand heel
▁t ax
st ap
he erd
▁en ,
ren ch
▁Te chn
ont ale
IS CH
▁uitzonder ing
▁in cubatie
on ol
▁spec ial
▁E C
▁inf usie
w an
ra f
▁< doc>
AR S
▁associ aties

 N
▁drug s
\b 0
▁l ar
-2 6
▁Eer dere
▁auto- immuun
v ale
▁am ylo
▁Bel ang
▁d rempel
▁heeft ,
▁leeftijd .
▁p ass
 H
atter ij
▁tij delijk
▁o cc
op y
▁toegedien d.
▁st ere
▁subc lav
▁Verslag datum:	[DATUM]
▁zacht ,
▁cor rectie
-19 -19
▁at t
▁-D i
▁geplaat st.
▁( resp
▁mil j
b ut
▁E EG
▁instr ument
▁RBC -3.
▁schat ting
▁kno opp
bla sten
▁hyp ofyse
et ers
▁gastro -intestinale
: 25
▁N eem
▁e GFR
▁reg urg
V .
▁b d
sp ar
▁en cefal
n ieuw
regel matig
m ine
▁polym erase
og lyc
▁hydron ef
▁vir ussen
▁P Q
▁0 4
-COM -COM
▁A den
▁A MP
▁mesenter ische
▁H .
lo ze
ra b
▁geassoc ieerde
▁M atig
▁dys functie
open ie
▁T umor
it raat
w ay
▁l ood
▁implant atie,
▁3 25
se arch
▁V oort
kl ieren
▁stee g
▁0 7
▁gezuiv erd
▁geco deerd
▁hem odynam
▁l im
igen schappen
▁huisart sen
or ven
lan co
▁voel t
▁H um
▁frequentie ,
g luc
▁spect rum
cel carcinoom
um oren
▁te gelijkertijd
▁behandel ing,

 M
c ed
▁veren ig
h om
▁geë xtra
▁- In
ne a
▁Fol low-up
i lep
ulatie .
▁intra hepatische
▁D aily
arc oom
▁c asp
▁temp orale
zym en
▁w it
op ie
▁Zo als
-m ole
- AT
▁mo dule
▁verw achte
▁CV A
▁cytot oxische
el in
▁bepaal d.
▁Assessment :
▁identific eren.
▁in stelling
▁hypot halam
▁scler ose
8 3
▁TN M
▁b ind
▁B I
UN G
ur t
( 3
▁5 4
▁V ijf
N O
▁immun iteit
▁H un
▁oppervla kkige
▁N K
▁G aat
n ess
▁ver g
▁plasm ac
at .
8 4
▁200 8
alis eren.
▁bol us
er pen
▁verho gen.
V D
ir st
b ,
▁cons um
P H
▁ant ip
▁[PERSOON] .
▁0 8
2 "
▁ver er
▁Te vens
▁hippocamp us
▁temp orele
▁emp ir
▁middel ste
▁integ ratie
di fferent
▁hypertro f
▁complic aties.
-ge activeerde
N R
▁pediat rische
▁melan oom
▁v ullen
▁perc utane
A 2
▁( re
▁( AP
▁bevorder en.
ique :
8 7
p en,
▁verb lijf
m atische
▁v re
▁pijn klachten
▁F L
▁con c
ile pt
▁fil m
▁tren d
▁N PO
▁ech te
te keningen
v eld
▁organis me
▁z ink
-6 .
ucces volle
oplos s
ne st
▁be k
tij dige
▁D VT
▁Aan vraag
id ale
sp ra
▁A K
▁( AD
▁metab olieten
is erende
h yp
ON TR
▁plasm am
▁(resp ectievelijk
▁mEq /l
f ract
▁nut tige
▁5 2
kin son
t ing.
▁ben en
behandel ing.
em ie,
or de
P h
▁micro s
geb re
▁post erieure
i RNA
▁B innen
az ine
 -
▁M omenteel
▁diagnost iek
▁arch itect
D 1
▁6 6
▁tij delijke
s yn
ur ine
▁int rinsieke
, #
oe zem
▁kon ijnen
▁lok aal
IC D
▁infectie uze
▁p all
as en.
▁ma xim
▁L -
dehy de
de ma
▁hypox ie
. :
▁aangetro ffen
- 50
▁S im
▁u ter
or ylering
r ar
▁kw ets
▁P rim
▁se di
▁inf ect
: PRN
mer king
▁ant erior
▁Verhoog de
▁pro duceerde
ep h
pro p
v aten
at ic
▁(f rench
▁-S ize
▁(french ):
orm aliteit
/ 1.
▁verschil den
we gen.
be zoek
▁over w
lop ende
▁geest elijke
os iteit
▁link s.
▁artikel en
st rie
lo ot
AV I
▁Vers ion
b rale
sch a
▁C re
ist ieke
▁R isic
▁v indt
▁h eer
-t h
▁code ert
▁Hct -3
( -1
ar ia
/ sec
: 	[DATUM]
▁bezorg dheid
▁201 2
ter mijn
▁Sp O2:
her stel
▁spect rale
▁gewichts verlies
▁rechter borst
up pressie
▁onder wijs
y le
▁MEDIC E
▁T romb
▁(titel )
▁krij gt
-1 3
▁s ulc
▁had .
kno op
▁situ atie
▁aan vullend
i eren,
re pen
▁Be vindingen
▁k week
▁L Y
▁D ien
pro gressie
gevoel ige
▁over ig
▁pers oneel
▁L E
▁Z uid
▁radi ale
w ustzijn
omon as
▁levensvat baarheid
cl usies
ad ol
▁Familie geschiedenis:
▁On ge
ect ale
▁vermoe delijk
▁bas aal

B rief:
▁ret icul
▁Ch ronische
▁cycl ische
▁meer voudige
▁H CV
▁e st
▁gedilat eerd,
▁door gaan
▁na del
aad pleeg
ress ion
▁c la
dru kte
in den.
▁B R
▁T ype
▁stimul us
▁E KG
▁j a,
▁geïnject eerd
▁1, 4
-invas ieve
ag ul
▁hem oglobine
▁studies .
3H ]
▁buik pijn
▁dis s
▁-( ()
plan de
rop ath
▁trans gene
et rische
▁le ek
op ulmon
▁re productie
▁heter ogeniteit
▁co her
▁PC P
▁ontbre ken
m ur
▁sept um
▁beschrij ving
am en.
▁verbet eren,
▁S al
▁M en
uiver de
▁fin anc
D EN
▁vari aties
▁gew en
▁sympt omen.
▁micro scop
/ 2
▁b ut
▁jan uari
▁van c
d ynam
▁Med isch
▁V P
▁cyst ische
geb aseerde
:00 AM
ed .
▁p H-
▁hep atische
▁domein en
omen ,
▁M MM
▁C ursus
▁In tel
is el
wer kt
beur tenis
▁omvat te
▁10 %
▁klachten ,
▁gest eld
▁klein er
▁gra ag
fibrill eren
▁Q 8
6 4
ri a
wij ze
bet a
▁verklar ing
▁voorbere id
an nen
di st
▁z ure
▁n icot
▁9 7
iciënt ie.
▁4 9
▁long slagader
at eerd
▁bez it
▁P ers
weg ingen
▁Con cept
om isch
o os
op s
▁vertegenwoor digen.
▁bij geluiden
kl aring
▁W /O
▁4 7
▁w ell
-remm ers
L V
t umor
▁complic atie
/p acemaker
▁me de
▁t im
▁S ter
▁Intel lect
vatten de
l icht
▁E P
▁d.d. :	[DATUM]
. b.
T S
▁H uis
is h
▁antimicro biële
▁symmet risch
m 2
b ack
▁bla d
om geving
lo og
▁dru pp
▁17 .
▁z one
▁in tens
▁ur in
p arenchym
lu st
ocy ten.
▁Famil y
▁neuro p
x ,
in name
ijf ers
cont in
ar iteit
▁c ase
ar r
▁vorm en.
▁0, 7
▁voorspellen de
▁wervelkolom .
▁psych ologische
B D
▁lact aat
▁9 8,
en ten.
▁per man
▁hypertro fie
▁f alen
O x
▁ont last
▁Verander ingen
▁j on
▁h ilar
am b
sch ien
▁cyt ochroom
it ion:
gan kelijk
kanker .
ver e
t isch
▁ge vestig
▁T ri
F A
▁ben z
▁ge laden
f re
ur al
▁an amnese
▁ICD /pacemaker
▁is o
▁kl im
ving er
▁d ram
c ir
▁b èta
uren d
ic aal
▁( of
alf a-
/re veal
▁A ,
▁beper king
p assen
▁gev aar
▁ICD/pacemaker /reveal
▁hy bride
▁p unten
ak te
or i
▁piep ende
8 9
▁C ,
▁verkal king
t rek
▁glut athion
▁al .
▁uitsluit end
▁(### )
idiver ende
▁jaar lijk
▁gemetast aseerde
-c-c -c-c
cl ip
▁par ameter
▁sten os
▁inz ichten
gen aam
▁ma ch
▁verwij zing
on -
5 ),
horm oon
▁ge luid
ui gen
+ +
▁Nut rit
kan alen
▁medi a
zet ten
▁gemodific eerde
▁be wij
stell ing.
▁uit stre
oc riet
▁F ac
▁verw ante
oxid ase
▁geavanc eerde
▁in hal
▁E t
trans ferase
or onair
▁mole culair
▁( IL
al erings
▁E B
▁Aan vullend
lo dipine
der ende
a-aort a-aort
▁zo ver
▁depressie ve
▁E O
▁5 9
▁Cor onair
chromat ografie
▁O SH
▁5 3
▁E vent
arm oede
▁j arige
▁NEUR O:
eiz oen
▁omge keerd
" ,
▁mitochond riën
▁I U
▁ac id
▁sche iding
▁0, 9
▁N I
consult atie
iden de
▁bij ge
ibr il
▁hydro x
▁bew ak
-4 ,
-f ase
y sm
▁I .
▁D .
-m uizen
▁L M
▁cardi omy
▁om standigheden.
▁Vol gens
▁ver loop
▁st aart
sen sus
ot her
▁sp eeksel
waar ts
B B
▁cardi aal
▁(L V
▁vol ksgezondheid
▁warm te
spro gramma
groep .
▁Inter essant
▁a k
▁ge wijzig
▁decompens atio
ret e
▁colla p
herap ie.
b ic
▁6 3
▁con tro
▁mod ulatie
▁#, ##
▁neutrofie len
▁L ymf
▁waar uit
▁w acht
ol ys
▁cytot oxiciteit
▁nanop artic
▁ox idatie
▁du ct
-f en
in tensiteit
▁U w
6 3
▁hol te
en chym
▁di ur
▁C reatinine
▁Ch inese
sulf aat
art sen
▁6 9
-2 9
▁( van
▁S OB
▁gebrui ken.
▁On s
mm ol/L
▁best raling
rim inatie
▁ving er
ed isch
V ,
▁nef ro
ho st
▁L 4
▁HR :
n ee

▁inf erior
▁conf ig
oc i
insuff iciëntie
▁1 %
osf aat
▁af ter
▁Pro f
▁uit st
PC I
▁recombin ant
▁tw aalf
▁split sing
i os
▁met a-
as ix
▁MCV -8
ysi ologisch
▁vol um
r isico
ri pt
▁gepublic eerde
▁NE CK
▁zorg vul
▁(C ell
▁begrep en.
▁G el
▁A ss
c alc
off en.
l iot
▁glad de
s om
dig d
- w
-in dex
al pha
▁d ose
e )
V P
▁N Y
▁res istent
u per
▁dis sectie
▁aut ofag
▁6 7
sie ,
▁cor p
▁an deren
techn iek
ieken huis
▁PO D
▁invas ie
▁ger aadpleeg
o yl
▁on volle
▁re plicatie
onol act
w intig
▁recht s.
▁( ver
▁ap icale
-ge halte
on regelmatig
▁0 .0
▁z ieke
en se
▁enzym atische
ne x
-1 7
▁fen omeen
sch ema
▁rapp orten
▁a ure
▁vrijw illig
▁bevatten .
▁Bloed druk
OR M
▁bestu deren.
ox idatie
▁studie ,
2 ),
k at
▁vertra ging
▁- M
▁pr ikkel
▁zorg .
▁aan leiding
▁mg/dL ,
▁ad ju
▁aanwezig ,
at o
▁pro fiel
-r atten
YR OM
-M B
▁cardio versie
ië tale
ri chts
-s ynthese
-t ime
opath ische
▁pla cement
ker n
▁onduidelijk .
lin isch
 C
d der
en is
▁kopp eling
▁ker nen
▁palp it
▁Un ivers
▁W il
▁aspir ine
▁CD 8
▁aange zien
-2 3
▁per ip
▁kinder en.
i bb
▁rem issie
▁ser ot
▁on g
▁p il
▁war en,
▁fe b
LEEFTIJD >
M E
▁on ver
am entele
▁5 7
D P
▁Tele consultatie
▁over ige
liot he
▁bla uw
▁lever de
▁v oren
▁wereldwij d
▁getro ffen
-geïn fecteerde
▁dag ).
re mm
p osit
us h
( ()
▁gele verd
ress ure
▁tra ject
▁TE CHNIQUE:
▁bil iaire
▁200 0
▁ne oplasma
▁B ili
▁ge plande
ialis me
laes ies
▁s ac
▁litte ken
▁intro ductie
▁B acter
▁f la
▁fem or
▁f iet
ort icale
▁hoogst waarschijnlijk
ot rof
▁ver te
▁c as
ction :
▁intro duc
▁P UL
▁Continu e
▁Sp ir
▁samen gesteld
opath ie,
bron nen
▁overeen komt
▁I H
in de
▁8 8
▁vrouw en.
ound s:
▁sympt omatische
▁la min
ded :
▁gerapporte erd
der en,
▁weten schap
o- 0.
| |
▁sugger eerden
▁moe st
▁al goritme
▁typ isch
▁Bet reft
▁Ex t:
▁ex amin
▁13 ,
l .
 S
▁result eren
▁comp artim
▁200 7
ot rans
▁inf luenz
▁gegeven .
▁log in,
▁E ven
▁m n
▁lat ere
▁Clin ical
ag greg
▁st em
st herapie
ge ster
in .
▁tijd stip
▁p atiente
vel op
▁interleuk ine
zen uw
▁inf lamm
▁bestude erden
▁C 3
▁eigen schap
agn etische
▁H 2
▁ur eter
▁an astom
▁im aging
▁an icter
v ig
▁immun oglob
▁dis ease
ocardiocardi ocardiocardi
▁lo w
otrop e
verb et
▁techn ische
▁bloed armoede
-2 1
S amenvatting
P L
ell ingen
▁ou deren
▁Ge wicht
oorz icht
▁onge w
▁su pport
▁pat ch
▁long basis
▁N atrium
▁risic oprofiel
▁ro t
oï ne
▁h i
otor ische
▁M ut
el en.
▁B al
▁inspann ingen
▁f ec
▁tromb us
▁verd acht
▁P ath
▁trans formatie
▁RR R,
activ atie
▁ann u
ag s
▁abn ormaal
▁n umer
h uizen
▁S ulf
s al
▁ge luiden
▁HL A-
-ge voel
▁werk ings
▁h ap
▁asc it
agen tia
▁CAG :
c )
▁opger oepen
▁G ast
A :
▁aut or
▁const ante
▁H DL
▁Cursus :
be oordeling
▁econ omische
roc yten
▁M B
al k
t rium
▁20 %
p ,
jes .
▁a s,
spect rum
▁mob iliteit
ee ded:
ucc eeded:
ot isch
se quent
▁ ile
pt ies:
▁osse euze
▁snell er
-2 8
▁cycl us
dela ar
▁mar g
- el
▁k orter
▁correl aties
ent ,
al :
▁laes ies.
▁-O pties:
▁bij werken
▁al ert
▁per io
appar aat
▁F FR
et hyleen
▁m ij
▁c op
▁af gest
▁nano deeltjes
▁vrij wel
▁onregel matige
▁oploss ingen
▁per me
▁ac cess
serv eerde
▁fund amentele
den t
▁D at
▁ac cept
▁en orm
i raal
▁Leeft ijd:
▁recombin ante
▁min st
▁L UNG
ul s
▁di eren.
no v
▁P eptide
▁intact ,
it amine
▁S ystem
- op
▁m L
▁S ur
▁[ 3H]
en dens
▁en e
0 4
▁st arten
uk ary
▁berei ken.
▁7 6
i delijke
om ie,
activiteit .
H- H-
amin o
vis ie
▁termin ale
▁m embranen
▁analyse .
▁L aatste
▁af scheid
▁circul erende
▁ser ie
uit slag
▁eindig t
▁versch ijnen
ak e
▁paran asale
or rag
▁In tern
▁ are
▁Ch ief
ct omy
▁varie erden
▁un ivers
n ect
ziekte ,
d :
ve olaire
▁asse mblage
yn aec
▁voor zien
▁zeg gen
▁K en
ele ctieve
G T
▁prakt ische
io us
v ing.
PC R
▁Ge b
▁groe iende
. 000
- 7.
h ib
▁ges loten
poten t
ore se
▁m u
▁P F
or k
▁Gen ome
S E
▁agressie ve
m ate
▁hist opath
▁inter view
▁Cond ition:
▁ster oïde
n at
▁con ditie
▁M entale
▁RDWSD -4
m iteiten
▁S m
▁s al
▁n od
▁op w
▁5- HT
▁cere bel
▁Z eer
▁op sp
▁per itoneale
▁no vo
▁fib rose
▁201 1
▁( g
▁ \b
a w
u ken.
▁mut anten
▁levens duur
av ond
▁p i
los ure
▁D V
▁control eren.
▁vergro te
▁z aad
▁s o
▁radi ografie
▁com m
▁gestim uleerd
ot iden
▁Calcium score
▁dag ,
-3 ,
▁t .
▁( 50
▁geb lok
on at
▁gra f
▁St abiele
▁le uc
▁geleiding st
ë le
▁II ,
▁transplant aat
▁6 2
▁geanalyse erd.
P :
▁aan genomen
miss ion:
▁Aort a
▁St ress
▁0, 3
▁Resp on
▁k b
sp ieren
▁zuige lingen
▁ondergaan .
▁door d
▁( IC
ie d,
▁re bo
▁14 ,
▁symmet rische
▁aangeb racht
▁k raakbeen
▁T O
▁V anc
▁P ac
▁R en
▁I R
▁con formatie
ithel iale
▁ontwikkel ingen
-2 2
▁b ip
aat st
▁S uccesvolle
▁detail s
▁gek ozen
▁vier de
form eerde
▁ver sie
▁persoon lijke
▁geneesmiddelen .
▁Boven genoemde
▁V AG
af deling
▁S amenvatting,
angi ografie
▁Z es
es se
ul eren
▁con clusie
▁interpret atie
▁Antwoord: Samenvatting
S amenvatting,
▁Thema: Samenvatting,
pl at
-b ased
as h
▁therap ie.
c ol
▁biomar kers
oc o
an gen
ne uro
▁ep ilep
▁a .
▁Cor on
▁Be wustzijn
vezel s
▁fosfat ase
▁veroorzaak t.
v a
▁sper ma
ij fer
aties :
be hoe
T H
▁an emie
▁metast ase

T oelichting
en en
E CG
▁pro spectieve
stru eerd
▁B lanco
▁massa -effect
▁Ver leden
▁ad vis
▁n aald
▁( +)
▁uitein delijke
om ,
▁pre operatieve
yr id
met ing
kle ur
▁infarct .
▁domin ant
▁jun i
▁ad ren
b iot
▁Ex perim
ken nen
▁cell ijnen
▁ovar ium
is p
8 1
▁de let
▁re umat
- is
▁L ang
▁p m
▁ap ex
▁verminder d.
▁18 ,
ten se
▁appar aten
▁v ene
se pt
▁in put
us pen
- II
▁prim air
▁milligram .
s lijden
▁longitud inale
▁gev raag
h ang
▁over heer
▁gecor rige
▁complex iteit
▁ch ond
be vindingen
▁zwangerschap s
▁fosf aat
t omografie
AT ,
radi ol
▁1. 0
▁A P)
▁over vloe
if tig
▁analyse erden
▁M G
▁onderste und
▁G ed
▁ elect
▁de generatie
’ s
▁( +
le ur
▁hor iz
a-a- a-a-
▁ol ie
oll ings
▁echocardi ogram
▁f urosemide
▁M it
▁e osin
▁P a
▁be de
lo of
▁gest uurd
▁cel proliferatie
▁n ummer
▁farmac okin
▁T herap
ynth etische
▁QT c
▁cm ,
▁symptomen ,
▁niet- line
▁k olom
▁sc ores
▁or ig
MI ,
▁Q HS
▁V F
il le
▁inspann ings
▁gez uiverde
L D
▁krit ieke
▁A CT
▁Eer der
▁lange termijn
▁-T ype
hydro genase
▁v ector
▁Sign ific
▁sub t
▁onderste unt
▁ge optim
ati er
▁M IC
▁su pp
splaat s
▁te vens
▁net werken
▁Re chts
h art
▁gead vis
▁D ist
▁l ijnen
IT AL
v accin
▁vo ert
▁( zo
▁ziekte verwe
▁Cond itie
k linische
▁kalib er
/ 1
 P
▁antioxid ant
is eren
▁Na -1
▁con versie
amp ;
▁B o
▁dat um
ve isel
▁systeem .
▁effect .
i i
▁antist olling
▁F I
▁aud itieve
im ulatie
H art
▁re form
▁lymf oom
▁al d
▁hydro fo
ob il
▁betrouw baar
ver st
▁stij ging

A l
ol sel
▁set ting
is c
f unction
▁Betreft :
▁geneesmiddelen :
am ol
v et
▁al k
▁procedure .
ro e
▁v ide
b or
▁mo der
▁de mon
▁gez ichten
os ens
de tectie
▁minu ten.
et je
ie ken.
▁U /L;
tender ,
▁k eel
▁( l
medic ijnen
▁o kt
▁betrouwbaarheid sinter
▁9 8%
▁L eft
b es
oc ortic
VAL VAL
▁1, 6
systeem .
ak om
▁kle pl
-m -m
wervel de
oe ien
vaardig d
ran k
▁IL -6
▁pre par
-cellen ,
▁system atisch
pop ulaties
▁per iod
▁substr aten
▁erf elijke
▁intermitt erende
▁B IL
▁D ES
▁ret inale
L -
:1 5
ar io
▁cir rose
▁s es
5 "
▁w oon
of ol
▁T ach
le eftijd
neur onen
K ,
▁kat alys
▁h am
▁co deren
▁f ung
▁k ip
▁glut amaat
▁recht s,
▁telef onisch
d osis
▁p ut
id ae
▁#, #
-d omein
▁m or
▁patho gene
aryn ge
▁20 ,
▁M MP
▁inc is
as eerd
▁bloed ingen
vas culair
▁krist all
▁p omp
▁aut on
▁hemat opo
▁middel s
er b
complex en
▁f out
▁inspann ing.
er a
▁sch rijven
▁stral ings
cl us
▁W arm
▁R os
▁bd z
▁( x)
▁t anden
tens ine
- voudig
▁blo k
▁ond oorzicht
▁Gro te
I -
▁7 8
▁bew ust
▁mg .
▁stop gezet
▁ap ril
el den.
UM :
gor it
oph ila
met h
▁t oxische
▁aan b
▁scha delijke
▁CO 2
▁persoon lijk
▁-O ver
▁bloed cellen
▁R icht
▁ont van
▁vir ul
i abetes
▁in testinale
yt hm
▁de mp
▁be houden.
EG F
ijn s
kopp elde
gev at
▁c reatinine

 De
▁aort a-
▁in duceerde
▁(gemiddel de
▁hyp og
os yn
▁eviden ce
▁Q6 H:PRN
▁c T
▁overeen komen
la chten
del ing.
▁be sloten
stim ulatie
-af geleide
k ingen.
▁medic amente
▁super ior
▁L S
▁b èt
splaat sen
▁b ur
▁verster king
▁o st
functie .
ph one
▁mg ,
plan :
▁vis c
▁neuro de
▁CK -MB
ge keur
▁O rale
f un
▁induc eren
▁waarnem ingen
▁[( Laatste
▁me is
m )
▁b oezem
▁E én
▁over vloed
▁mis schien
C S
ver schillen
▁na vel
▁f lav
▁Ambul atory
▁b ood
▁(C D
▁uit komsten
▁bil i
al act
▁veroorza ken,
ru bine
▁S yn
scri ptie
▁s ectie
AL Y
▁over b
:00 PM
▁D ata
▁event ueel
▁gewor den
▁geb ied.
hou dt
▁radi otherapie
gra d
▁lichaam .
▁15 ,
B 1
▁sp oor
▁verkal kingen
ap opt
d urend
off en,
▁Respir atory
▁u bi
p y
▁op io
▁ont staat
▁pijn st
ie et
it r
▁ing u
▁1, 8
▁p ublic
▁interactie f.
-resp ons
▁milj oen
ox yl
▁In c
▁c um
▁afbeeld ing
▁mult id
▁monokl onale
▁bijdra agt
▁m as
▁kin etiek
▁Con trol
o- elekt
in a.
▁H O
▁dosis afhankelijke
▁M olecular
▁3 1.
▁verer gering
▁K +
▁knobb el
plaat sing
▁pneumon ie.
▁beweg ingen
weefsel s
▁L PS
ziek ten,
▁I S
▁- U
▁R A.
▁gewoon lijk
▁micro tub
▁af st
▁k oper
heden ,
ic a,
▁v est
▁Con tra
▁p ren
▁s lang
▁A A
spro ble
▁M ar
▁vloeist offen
▁fol low
ocyten ,
0 9
▁sten ose.
▁t we
▁dagen ,
▁sim ulatie
wij f
▁gemet en.
on nen
cel lulair
▁op komende
str eren
a id
▁L ongen
▁p ad
▁Chirurg ische
▁f asen
-t op
av ir
spre king
▁gecon serveerde
▁cyt oplasma
nec rose

 V
▁pol s:
▁7 4
f et
▁evalu eerden
M B
▁respir atoire
form ul
▁fem ur
▁reden en
▁vere isen
▁adolesc enten
mon ster
▁ontw erpen
▁ad sorptie
▁( -)
- elekt
▁gemute erde
▁T SH
oppervla kte
oprote ïnen
▁Onderzoek datum:	[DATUM]
par ameters
▁Hep arin
M et
▁afhankelijk heid
▁am p
waar dige
▁herzien ing
ienivea us
▁sp anning
g olf
▁plan nen
ikel s
w eer
ac illus
ast rische
▁transcriptie factor
ho ut
▁Stud ies
▁k iem
H Y
▁bil ater
sniveau :
ympt omen
▁afwijk ende
vas cular
▁200 6
n al
▁he x
▁gra ft
entr iculaire
▁en quê
▁ven a
▁0,00 1).
▁geïntro duceerd
▁pat int
r h
un it
huis medicatie
-st am
▁respectievelijk .
A b
▁8 6
▁warm ,
▁s eizoen
oe kt
on centr
▁C ho
▁sp .
▁(1 00
▁mass aspectrometrie
t ast
▁ar te
▁ge oriën
di b
an ,
▁p e
- of
▁No te
▁cor rect
▁Re search
▁g a
▁re plic
▁hier boven
▁sp raak
▁be wezen
▁colla ps
om orf
N .
▁2 D
ventr iculaire
▁( el
▁ex tub
▁coron ale
▁lang zame
▁c ursus
ab il
n ee
▁bacter ie
emb er
▁elektro l
z yg
▁U l
R P
▁par oxysm
▁hybrid isatie
▁centimeter .
c riteria
▁ro ok
▁N eemt
▁ap othe
sc ores
amen stelling
▁y o
▁vol gor
- ray
ylax e
ot omy
-ch olesterol
▁5 %
▁ **]
ail ure
▁absol ute
▁b ack
▁Bewustzijn sniveau:
▁hemat oma
▁( at
cu le
/ 10
▁- >
▁vis ueel
jun ct
O ,
▁Abd :
S TR
abd ominale
lin k
▁class ific
▁he ad
▁St art
▁man ieren
▁B re
▁karakteris eren
▁adap tieve
sc ill
▁con sensus
▁gespec i
▁an a
m cg
/1. 73
▁knobb eltjes
▁5 1
el z
▁preventie ve
▁fre quent
▁ver ontreinig
▁( k
5% )
▁hypertensie ve
▁F A
▁we ke
▁A s
▁kinder tijd
stre eks
▁linker boven
▁hem odynamische
▁line air
pro tocol
▁laag ste
▁nadel ige
▁M oleculaire
0 8
▁r isk
n .
▁cytoplasm atische
▁K w
▁0, 000
▁kin etische
▁dif ferentie
" .
▁ont h
▁l ies
▁t hyro
b olie
▁R .
schijn lijke
▁van :
op re
in et
5 9
50 )
▁toe .
▁Hel der
▁an alytische
ting reactie

H art
▁verw orven
ardi omyopathie
▁mater nale
▁f asc
▁Res ult
▁dik te
miteiten :
- uur
▁Che m
▁af geb
▁t rim
▁functie )
mole culen
la y
ucle otide
lij ft
▁activ eert
▁H CC
▁a mmon
st oestand
▁ident iteit
▁B uik
▁Alzhe imer
▁wijd verspre
▁mg/d l,
▁Europe se
poten tieel
▁uit .
st aties
ofage ale
▁over matige
▁gest aakt
▁deel s
roscop ische
▁tra d
ol y
▁reg ime
▁vaccin atie
OS E
▁gist eren
▁voor heen
i qu
▁beïnvloe den,
▁Beoordeling :
▁Vit amine
V :
▁G oed
▁re hab
▁constip atie
▁ste ig
▁cyst en
▁Echo :
g as
▁l iet
au ge
▁opvallen d
▁syn cop
ort ing
▁voor beeld
val ente
▁Medication s:
un ct
▁aant rek
▁CT AB
▁stimul eren
1 3.
▁N ational
activiteit en
▁C lear
▁St re
▁20 21
tran sm
▁telef oon
pro fielen
▁hart as,
k op
▁f yt
em de
T A
▁(N )
▁aort a.
▁activiteit ,
▁vet zuren
▁p ig
▁aandoen ingen.
-sign aal
▁N et
ok okken
▁goed gekeur
ox is
ic an
tro p
▁tandheel kundige
ol ven
▁bevatten ,
omegal ie
▁bekken .
▁beh oren
▁stam cel
▁voor schrif
ad y
E K
▁e ukary
▁re gelen
och emische
▁prot on
▁ver le
▁ver gele
micro scop

R R
▁[( **
path ische
op te
▁An ders
▁lo opt
▁2 dd
) ]
▁poly (
▁commerc iële
▁(P C
ol ic
▁V AD
▁L ymph
ib ele
▁ant igenen
▁verz oek
an al
▁do en.
▁U N
adig ma
HH HH
l open
-b lok
▁wand onregelmatig
▁ant ib
be heer
▁gewee st.
▁slagader s
▁Ab n
re ceptoren
▁Re act
▁ca ud
▁end ocard
▁naar mate
▁aanbevol en.
▁moe ite
el low
▁hoe st,
▁Pul m:
ë in
V ERKLARING
▁N og
▁G ec
be kend
bum in
▁asymmet rische
▁16 ,
▁mRNA -
ver di
▁aantal len
model lering
ect atief
▁uit lijn
▁un iek
▁bios ynthese
▁lum en
route s
▁kunst matige
c yst
▁zicht bare
▁sp oel
▁mogelijk .
er n
▁[ID ]
▁prednis on
ge erde
▁di afrag
▁z oeken
▁M yc
sch al
ik elfunctie
▁S L
secret ie
▁ant erieure
▁n ul
jes ,
gele gd
▁optim aal
ellen .
▁El ke
▁(V )
pl ante
eer baarheid
▁nem en.
beeld vorming
▁result aten.
▁evolution aire
▁cardi opulmon
ering ,
▁kl onen
▁plaat s.
▁in d
▁adem geruis
ap er
▁F ib
▁ge sproken
l oe
b ot
▁gemaak t.
insuff icientie
▁P seud
▁extra ct
▁overle vings
▁geïn fecteerd
▁linker kant
▁pla veisel
ik e
▁comp ut
Ph os
▁Verwer vings
▁F oley
▁pro jectie
▁stier f
ic a.
▁niet- specifieke
▁kwaad aardig
▁em issie
osit ol
iv irale
▁V AP
▁Soc ial
ruct ure
o :
▁atelect ase.
▁K nown
▁geb oren
( 4)
app ing
0% )
▁geïntub eerd
▁3 '
▁octroo i
fosf ory
▁V as
▁subc utane
ap ent
▁hydro lyse
IS S
z ak
er ine
▁n akom
▁ep it
▁achter ste
▁over lijden
▁oriën tatie
▁sugger eerde
▁nec rose
▁moe ders
▁G I:
▁4 ,5
▁c ry
v ic
( -)
▁Gen eral
ot oxiciteit
▁tra ch
▁GU :
CV A
▁passen de
▁verslechter ing
▁-( (()
▁( 2,
▁a deren
▁maak te
he mat
▁zout oplossing
	 mmol/L
▁ver niet
▁sp len
▁neut rale
/ E
▁atheroscler ose
V I
▁B C
techn ieken
V -
he ers
9 1
k eten
▁( AC
▁-S ucceeded:
▁ge he
▁B MI
▁R itme
▁geï mp
▁gen aam

C onclusie:
▁bev re
pro ble
▁V al
▁fract uur
vo et
ob structie
▁7 3
▁([ ZIEKENHUIS
▁lucht cellen
:C ontrole
▁L asix
▁t ong
▁( al
order line
▁dysp neu
duct ase
▁P N
ij ft
▁ter m
▁gec lass
deriv aten
b acter
pro blemen
▁vag inale
▁zw angere
p g
ES T
▁bevindingen .
▁2, 4
▁soft ,
▁a kk
▁herst eld
if en
▁S W
▁At rium
▁Dif ferent
D octor
han s
▁onge complic
▁st atine
▁HIV -1
▁o scill
▁tab ak
d ings
re x
▁aden ocarcinoom
inding )
▁Uit gebre
▁J .
af name
ende d,
ro ei
▁t un
le ving
▁j uli
▁V and
schapp en,
u iding
te min
▁apopt otische
▁som atische
foto 's
/ 3
ogra ph
▁0 6
▁hartf requentie
▁PIC C
ron ch
amen :
du bb
F P
ium ,
▁morf ine
▁drie dimensionale
le et
▁seks ueel
▁toen emen
▁aanv aard
▁recht streeks
▁v acu
dic ap
▁N .
▁He ad
▁eiwit ten.
▁S B
▁behandel d.
▁ochten d
▁geven .
▁natuur lijk
▁hecht ing
6 2
▁p res
▁d urende
▁Ad mission:
▁myel oïde
▁boven staande
▁() ))
-t ri
▁verh ogingen
▁access oire
-3 -
ic um
( II)
▁spann ings
ocyt aire
d on
▁vragen lijst
▁post operatief
▁prob eren
et te
▁1 -
▁techn ologie
rem mende
▁F urosemide
▁D a
▁micro- organis
v ingen
▁bestude erde
um atische
▁ ie
▁Mult ip
▁MEDIC AL
ru it
4 "
p as
-t oe
▁be zig
▁discus sie
umad in
f amilie
ation aire
▁1, 7
isciplin aire
hel ft
▁re validatie
oc yst
▁Fac ility
▁prostaat kanker
▁ident iek
▁eiwit ten,
strateg ie
▁ventrikel s
▁40 mg
S 2
▁mid line
bel ast
▁aange tast
▁ster f
▁par ac
▁CO P
sm iddelen
▁indirect e
▁stabiel ,
▁model l
-in jectie
ge beurtenis
analyse .
st il
▁M el
-st ate
▁door gemaak
du it
-2 )
▁bereik te
m ass
▁intra per
▁J a
i ak
▁A sc
oc el
▁dist aal
im age
▁ne o
▁hom ogene
▁c ocaïne
▁toe stemming
▁my ocardiale
am ycine
▁7 7
▁Le ver
mo gelijk
▁b last
▁( i)
ycl ische
▁ref lex
▁CV D
▁S A
▁be dra
▁verander t
▁P NA
3 ;
▁samen werking
▁9 9%
▁ant er
let en
▁eryt heem
▁weefsel s.
▁gevallen .
af e
▁gesla chten
ost on
▁sch ema
▁gek lo
n ings
▁rebo und
▁pre mat
▁ster n
▁ongewijzig d.
organis atie
▁gew richts
▁ubi quit
▁S oft
ch rom
uur de
▁toler antie
os c
ion .
EGEGEGEG EGEGEGEG
is atie.
ac yl
▁mui zen,
▁niveau .
onucle aire
AT )
▁zelf m
ag land
p ort
▁Skin :
▁d aal
▁sch oon
▁j u
i ders
gem ak
# )
asse mblage
M O
▁Tot B
age ert
▁sch erp
ver vanging
▁G ram
▁minu ut
at ure
▁8 4
▁ged ra
- K
▁2 5%
▁v rijk
▁verdra gen.
▁verzam eling
▁linker nier
f lu
ar ray
▁bel emm
▁epider male
x :
-g lyc
duc erende
▁waar om
▁stab ilis
▁t ox
-t o-
-6 0
▁gedetect eerd.
▁D o
▁binnen ste
ger eg
er um
BT B
▁v lucht
st on
gester on
▁I dentific
▁real -time
▁NS TE
pro fiel
▁kleur ing
min istr
▁verla gen
▁cerebel laire
▁ –
M T
osom aal
od on
C '
▁P en
▁18 .
▁r ijk
▁man ,
S F
▁remm en.
G ,
oen ame
ort able
omp lic
z ige
ion ,
benader ing
fer ische
▁n ationale
▁verklar en.
▁B -cel
voe gen
▁bek ijken
▁best eed
mon oxide
c a
▁bereik t.
▁f o
▁f oley
O LO
et e
on zuur
stre am
▁l ateraal
▁infectie ,
▁μm ol/L
▁exp ress
-c ode
▁ax illaire
8 2
▁b undel
▁Z org
3 ).
rop n
▁vergemakkelijk en.
▁gekarakter iseerd
▁3 .0
sen d
h .
▁hol ter
▁hem odi
▁krit isch
z ing.
▁ervan .
▁f ibrill
sper iode
▁dw ars
▁fra ction
▁verh inder
▁MI .
▁< LEEFTIJD>
hy la
werk ings
uc cin
i atief
▁bevat te
▁rij ping
p atiën
▁samen gestelde
-ge w
s sen
▁gro ene
eeee eeee
▁S E
▁norm al
▁C yt
▁pol ys
▁o es
▁sper mat
▁behoe ften
▁l ijden
▁gegeven s.
▁ge tra
▁A x
U D
▁CC U
▁L P
ac ry
▁cap illaire
ucle aire
▁f ila
▁aan tekeningen
g kin
la pp
f rag
▁verander en.
▁t ol
▁gest andaard
▁bas eline
aar de
▁K in
▁gra diënt
▁sp utum
is ende
▁Eer ste
▁l ot
ym p
of arynx
▁rect um
▁ondoorzicht igheid
og roep
▁activ ity
IND INGEN:
▁200 5
▁Alk Phos
te it
▁herken ning
▁LV F
▁h x
▁D 1
▁er ger
▁lo zing
is men
f lutter
▁buik ,
A Y
▁bekken s
b eerd
▁immun ore
▁ondersteun en.
▁famil iele
▁ass ays
di um
m ,
ide .
▁w h
res istentie
▁hydrofo be
▁(c m):
▁mult i-
es :
▁inst antie
▁[ datum
▁met en.
▁aure us
▁o sm
ant ia
AS ON
valu atie
it eren
ost omy
▁at ri
▁sp ort
/ B
▁uit put
▁ver pak
▁Che st
▁geïdentific eerde
ik ken
▁re con
▁dien sten
▁retro spectieve
▁- F
TE IT
ace ae
▁huid uitslag
▁Risic ofactoren
sla gen.
▁we der
▁geï m
ron t
▁fen otypische
▁bloed verlies
▁or b
lyk emie
▁gro f
▁kl ier
▁O pt
▁De el
▁eff usies
▁actie s
ont werp
▁sec onden
▁verschil t
▁decen nia
▁/ min
▁se quent
B AT
▁Function )
▁on behandelde
▁carot is
emm ers
▁pijn lijke
rij f
gele id
▁l uc
▁P ijn
▁bero er
▁her inn
▁fol l
▁ml /m
▁bloe dt
▁differentie el
as al
en ario
▁C 4
▁p ool
▁GL UC
▁gehad ,
V AD,
▁9 4
orb ide
▁We stern
▁t et
9 /
▁N oord
▁d ox
▁ged acht
▁wel zijn
gen t
▁arte fact
om ere
▁bet re
▁Par kinson
S D-
▁ontde kt
▁sed atie
▁ch loor
▁Per if
gen itale
▁HP V
functie s
▁han del
▁k ation
▁Op name
▁her schik
▁verk l
<PERSOON >
▁E FO
dt ronic
▁f un
▁sim ulaties
▁op genomen.
ig ,
omy el
ylen ol
▁op brengst
▁gevorder de
▁D et
n atale
ero be
ë ro
m us
a chter
▁vol gen.
▁casp ase
▁A &
▁op ,
▁B io
hyreoïd ie
▁(C K
▁ventr ale
AN C
f amil
▁p ed
▁v iew
▁( geen
erie ur
▁verhoog d,
ver h
▁gek want
J ,
▁CH est
▁aut o
4 50
R R
is ering
▁Thema: VAD,
▁antit umor
▁ ≥
▁lever ing
▁verbet eringen
▁trans fer
▁gen otype
n eem
N -
▁kan alen
▁grij ze
▁St aten
▁onder drukte
om gev
id azol
on :
i us
ose pt
▁Leu k
mon ella
▁sil houet
▁insp /min
▁mic ron
5 7
▁niet -invasieve
om eter
▁be middel
▁a us
oc ation
3 "
▁color ectale
▁Ver pleeg
rel atie
di ent
4 ;
oven de
▁B eleid
▁r onde
dien ing
▁Hier in
▁In :
▁F ull
▁manier .
▁Q 12
ker ing
ieën .
▁corp us
▁overle den
er bare
 N
▁resultaten :
▁r iv
▁M n
▁V itale
▁draag t
▁conserv atief
▁B ilaterale
et ine
▁verouder ing
▁NY HA
▁P ER
af spraak
typ es
▁ges im
▁event uele
▁Conditie :
▁cor :
▁Ad mit
j ab
▁bi ofil
ap ine
▁(t ot
▁U S
▁overle ven
▁ar be
▁( ).
as ische
▁x en
▁gew one
o zo
enchym ale
a vel
▁P antoprazol
onder d
▁immun ode
rom us
▁n l
▁On geveer
asc ade
em aal
▁Medic ijnen
▁kanker cellen
f ibril
▁G est
kun de
▁uit drukken
-AL-AL -AL-AL
ter s
- X
oc iatie
▁diagnost ic
ablok ker
pol aris
ib iliteit
▁vet zuur
▁schat tingen
i ac
ings in
me el
5 ;
is eerd.
▁ep igen
▁CAR DI
▁lichaam ,
▁comp ens
▁agon ist
l ymf
▁vol doen
▁ver waar
comp onenten
6 ;
▁muc osale
▁(E. C.)
▁T -lymf
▁1, 1
▁S ounds:
▁geïdentificeerd ,
▁e jectiefractie
▁sch ak
▁ant ine
▁zwak te
b )
oloog ,
oe s
▁geaut omat
▁verzam elen
▁f ab
x t
4 ).
▁centr um
▁immuun respons
structie s:
ang schik
▁it em
▁rapporte erden
org an
spect ra
zw ollen
▁gevraag d
▁karakter istieke
▁weer gegeven
ran sport
▁p up
yla ct
ar men
di gende
▁ 
- oedeem
spercentage s
▁St ap
- ep
▁diagnose :
G eslacht:
▁trans locatie
▁pro -inflammatoire
ap ro
▁onth ult
▁stre pt
▁verminder en,
▁bed re
▁lever .
AP T
▁F YROM
▁achter uitgang
P T
bin dende
▁syn dro
besch adiging
▁H oge
ader s
▁volgor de
5 8
- β
i ste
▁zoogdi eren
▁rest ri
▁res idu
cur sor
um a
▁multip le
▁f outen
▁cortic oster
-en zym
aan ,
na ag
▁exc it
▁Re chter
▁6 1
im us
▁protocol .
vat slijden
▁kwal itatieve
▁gelab eld
▁Peptide ,
▁aan deel
▁tek st
▁mis bruik
▁di ure
▁verwij ding
▁Tablet PO
▁V ES
de pen
▁In it
groep en.
▁ ic
▁re activiteit
volum es
▁N ormal
▁9 7%
▁gelijk enis
ip rof
▁On verander
-mut atie
▁f ag
▁na chts
▁suik er
▁immuun systeem
▁s ar
▁p a
▁aan merking
▁(S p
▁galbla as
▁zeg t
▁GAB A
-8 ,
▁vergelijk ende
D D
of yl
▁R el
st uk
ater ialen
G G
ad )
hyd r
ivea u
vlees klier
he et
▁eer stel
ver t
▁7 9
▁t aken
▁asc ites
▁buiten ste
ang io
▁ idi
▁inst abiliteit
▁(d w
▁par a
▁mis lu
▁B LE
er ve
ep ro
wit ch
different iatie
▁produc eert
▁bren gen.
reg io
▁veil ige
▁t om
re d
derd aad
▁molecuul gewicht
 B
▁sh unt
▁kwant itatief
ab iel
+ ,
▁SK IN
▁tev reden
la sie
-Co V
▁blaas jes
stan ce
▁Echocardi ogram
▁lig anden
▁boven genoemde
b eleid
6 1
▁la ding
▁s lan
ium .
sie f
▁17 0
▁( J
▁Per r
j pg
emb ry
▁defect en
▁presente erde
▁se quencing
▁fibro blast
▁ster oïden
om a.
▁N V
-f rag
▁niet -co
▁dend ritische
vul d
▁g r
ameth ason
ings -
ongen itale
ran splant
▁hetero zyg
▁immunos uppressie
el en,
O -
w on
▁verkl aren
inef rine
ane ur
▁sluit en
▁sc intig
we ken
i oc
▁p aren
▁I ,
voor sp
▁Waar schijnlijk
e bri
▁(** 21
del inge
▁vle es
m ie,
▁ge per
oz yg
▁erytro cyten
▁verho ud
hydra at
3 %)
be v
▁S ten
▁Spec ial
▁7 1
i atie.
▁PC R-
▁C ell
▁zoogdi er
▁per spectief
u im
▁ob structieve
▁pla qu
▁alcohol gebruik
stell ing,

D atum
▁clu sters
am en,
▁endotheel cellen
▁basis lijn
▁reactie :
p raktijk
se :
▁som at
▁G ra
ect ine
▁k ran
ic yl
▁geadvis eerd
▁voor behandeling
▁gepublic eerd
▁Alle en
le ster
eren /
▁8 00
▁G S
▁activer en
▁T max
▁ep ilept
▁voor beelden
▁regul eren.
▁gedilat eerd.
▁groe ien
/ K
▁g ynaec
/l ;
iket tering
of ib
▁asympt omatisch
▁Ex tended
▁t ro
▁0,00 1)
▁geclass ificeerd
-9 .
▁mer k
U B
be vel
▁p t.
ati bel
▁bra ken
yst er
ï s
pass ing
G A
▁[datum ]
a ined
versch uiv
-p ositie
( -
▁gevalide erd
▁p ent
▁Pro p
▁buik .
▁weten schappelijk
i erd
▁nit ro
▁fix atie
rache ale
s h
▁temperat uren
▁H Y
iz ation
-4 0
-c ardiale
beper king
oco umar
▁darm .
▁vroeg tijdige
ific eerde
▁2, 3
id op
cell ige
r ,
▁voorlop ige
▁S en
▁darm geluiden
stadi um
▁is ot
▁vat baar
di ale
▁snelheid s
▁rec idiverende
▁hier voor
▁S cler
5 4
be oor
- waarden
▁select iviteit
▁Fol low
a em
umb er
▁PE EP
▁betrouwbaarheidsinter val
▁geleid ings
▁dimensie s
tr :
▁A ction:
/- )
res ult
-V ERKLARING
▁beheer sen
▁hersen en.
▁chrom atine
▁pro xim
▁verwij d
kk age
▁4 )
ation eel
▁R T
▁patient s
▁par iëtale
▁s ites
▁ep id
-t umor
▁c utane
▁c ann
▁sp ir
▁defin iëren
▁eerder .
-b èta
▁fist el
▁sch apen
-f lutter
▁rug pijn
8 ;
▁(el ke
▁gebrui ken,
▁geraadpleeg d
▁ritme :
▁C t
▁ben auw
6 "
handel plan:
▁zw arte
▁Disposit ion
▁(dw z
▁oppervla kken
▁fylo genetische
▁dilat atie.
techn ologie
▁dig itale
▁post natale
▁U reum
beweg ingen
▁routine matige
▁evalu atie.
-p ar
▁Hy dro
▁gelab elde
▁pac ing
▁m embra
▁Z elf
-m icro
bla as
▁voorkomen ,
▁(zo als
ën t
▁st aken
▁veelbeloven d
▁(M e
▁RE ASON
▁lymfaden opathie
chirurg ie
-ge gevens
▁produc eren.
▁gere con
▁h ab
▁e iland
▁verw ant
geven de
= 0,
ab sorptie
▁geïn cub
stam men
▁fre quenties
ator ,
▁2. 5
▁bevestig den
▁feed back
▁CR E
ros ophila
▁r ibb
▁geëxtra heerd
▁Belang rijk
-pro ductie
-ge wogen
st ress
od gkin
sten en
ab apent
form ine
 A
▁immun ologische
▁Ne w
▁antic on
c ,
omyc es
▁p or
/ 4
en ocoumar
l er
3 K
st ro
verwij der
▁Af rik
▁G a
▁ABG :
▁(H e
ep en
dra in
en ce
▁tumor en.
▁Der gelijke
▁be ëin
▁beperkt .
at ho
▁O :
▁gedifferentie erde
▁kD a
vl ie
▁Contra st:
▁maar t
or iseerd
▁beval ling
▁g/d L
▁o k
ele ctie
▁gem ak
▁beoordelen ,
▁ —
▁f ull
uur .
▁long ontsteking
ruim te
▁vivo .
spra ken
▁[ image
▁cel typ
▁( >
- 0,
▁ervar ingen
▁Aan vullende
m ie.
loc aties
min er
▁ref lux
▁pijnst ill
▁CM V
▁G P
▁Intellect ueel
▁kwant um
▁onderzocht ,
▁m ill
7 %)
ac ute
▁intern ationale
coëff iciënt
O W
▁gehandhaaf d
▁stellen .
▁echt gen
ar ach
▁deel name
▁w is
▁om zetting
▁W N
ind opril
p a
en zym
▁ont st
it s,
ant i
in ere
▁L at
▁Q PM
▁fy siek
▁gev oed
p on
▁on line
▁R T-
▁T ID
spat roon
▁gastro -
▁tum org
▁diep te
▁coher ent.
▁alkal ische
lo ïde
▁mig r
▁voort durende
▁- Procedure:
▁v ouw
▁v rien
▁modific atie
▁frag menten
▁net vlies
tro f
ri v
▁M ac
ot te
▁verst roo
▁wand dikte
▁ex tern
▁B eg
▁(Daily )
▁beoordeel den
▁chromos of
▁T A
hy se
▁amiodar on
▁reage erden
mar k
▁horiz ontale
▁familie geschiedenis
le .
▁hart infarct
▁gez ond
▁d /c
h ist
:30 AM
ur c
▁g ar
▁act ine
▁reage erde
on chi
▁H V
ier s
aan .
▁k atten
▁last name
ARS -CoV
dra chten
▁d ress
▁sterf gevallen
▁N R
▁c lip
▁vergelijk ingen
▁varie ert
▁St able
▁Allerg ies
▁bep alen,
-in dic
▁zieken huizen
▁vaardig heden
▁progn ose.
▁ge transp
▁opgelo ste
- le
▁GLUC OSE
▁premat ure
▁9 3
▁asympt omatische
▁beg int
▁an aly
▁O ste
2 %)
mer ican
▁Facility :
▁Vol le
9 ;
▁& amp;
▁oplos middel
▁land bouw
▁werk nemers
S 2,
▁dec ember
▁bot ten
d urale
sem ble
▁r RNA
▁mon ocyten
er der
▁sympt oom
▁percentage s
▁genaam d
ro de
▁do et
t ak
producten :
H et
cept ie
▁combin eren
▁al bumine
▁verander ing.
SC '
▁const ant
we zige
▁Ble ed
▁8 3
ind ing.
stoornissen ,
-b èta-
ropn T-
▁Cardiologie ,
▁instructie s
▁er kend
I UM
▁da ags
▁part ner
▁p sor
▁weefsel .
▁massa 's
▁ex t
▁di abet
▁(LV EF
▁S 2,
▁E V
▁wor k
▁V S:
▁poten tie
▁Nutrit ion:
▁verl oren
ouw d
▁D rosophila
▁N eck
▁ret entie
▁ontwikkeld .
▁vertro uwen
▁ge vo
he orie
ro ugh
▁Om eprazol
▁fib rin
l ing.
▁f it
▁afge sloten
bal ans
▁k naag
di er
▁klim aat
▁max illaire
v it
▁afw achting
oronair lijden
▁al vleesklier
▁fluoresc erende
ig d
l ichting
▁20 .
▁chromos omale
-uur s
6 %)
c k
▁hel emaal
u an
▁8 9
▁Cardi oloog
ab ility
▁S odium
gan gen
▁epidem iologische
acc ep
▁angio genese
▁eigen schappen.
▁CR T-
▁A dem
est ic
▁toe gankelijk
▁h anden
▁vol do
t je
▁Acid ,
wij d
▁L 3
▁disc rete
▁p ubl
▁uitge scheiden
▁str and
/ W
spect roscopie
▁an ion
▁c lo
e sp
ven ,
os ol
▁M aar
▁hist on
as en,
em ic
▁daar bij
el ings
▁act uele
▁in gebracht
d ate
▁collap s.
le y
-ex perimenten
▁t arge
ru st
n it
▁P AR
▁be urt
fibril eren/
▁Pertin ente
fibrileren/ -flutter
▁N A
ge luid
▁l ob
he sen
▁biomar ker
- voor
r t
M C
▁plasmam embraan
▁2 1.
▁red ox
▁comfort abel
▁reage ert
▁Ser um
ep ten
ve d
▁gene zing
▁N on
i ro
Y ,
▁T B
▁ex ogene
ast olische
k rist
ul laire
dro eg
▁G H
▁LAD ,
ver houd
▁opac ificatie
▁vermoeid heid
.
 De
▁d yst
▁8 7
▁be adem
▁pector is
▁numer ieke
▁con clusies
ot hyro
activiteit ,
-v accin
▁con structie
▁wijzig ing
▁pro these
▁R out
▁per for
▁R am
sor pt
▁echocardi ografie
l us
▁opge zwollen
▁Signific ante
ar act
vent il
al dehyde
▁ste ady
▁d. w.z.
▁gren s
▁S NP
▁Creat -0.
▁regul ator
men teerd
ab latie
di gen,
▁Ge bruik
= 0,0
antilich amen
▁ru stig
▁genoem d
▁plotsel inge
▁ant ivirale
▁robu uste
ant woord
▁In depen
gorit men
▁AC E
▁terugk eer
▁nauw e
il la
:4 5
▁ho ud
uur d.
acet aat
▁special ist
/kg /dag
▁ziek ten,
▁mass a,
-patiën ten.
ct u
▁B -cellen
▁trop onine
V E
▁slijm vlies
▁dra a
▁opge we
▁p yl
▁b ody
▁LY MP
▁MI R
▁re anim
▁radic ale
▁nanopartic les
▁AF GE
▁end ocriene
▁ ingen
o agul
▁relev antie
▁vert icale
▁syn erge
kw adrant
▁perme abiliteit
▁metab oliet
▁c reat
k ap
▁geïn dic
▁t wijf
▁Me et
▁neuro transm
▁b oog
▁longem bolie
▁B AL
▁run der
▁un it
- /
▁klas sen
▁10 1
▁t reatment
▁co un
▁D oel
oede isende
▁T horax
ine )
▁D atum
tt p
▁plat form
▁in druk
▁ne u
▁Kort om,
▁afzonder lijk
▁in nov
jpg ]
▁voor waarden
y e
sten ose.
ob ut
7 ;
▁plasm ide
▁jaarlijk se
▁geble ken
▁O u
termin al
▁p ressure
▁val t
▁st a
▁hel pt
▁gla s
**] ]
▁na der
▁W eer
▁ho uding
d reven
il i-
▁R et
isch .
8 %)
▁rechter nier
▁n .
▁zelfm oord
ogen iciteit
▁lij st
ra chte
▁robu ust
▁asc endens
▁extra cten
bre ed
▁PM H
▁Lab :
T OR
f ectie
▁metast asen
▁observ aties
▁foet us
PR EHTX
▁fibro blasten
gra at
▁om ringende
▁bij lage
▁ml/min /1.73
▁boven dien
ië mie
▁N B
▁bez ocht
▁octroo i.
ac erb
▁verschil de
▁longoedeem .
▁verd un
▁aange vuld
hyd rat
:Nee
 D
ol d
▁E GF
▁le pt
▁prest atie
men d
▁Rec ent
▁c oc
▁lid ocaïne
▁ant is
▁ru we
▁r andom
▁V ragen
▁cas us
▁opmer kelijke
▁l ytische
▁mob iele
v ige
▁e e
▁et n
▁V ent
▁studies ,
ier functie
▁col l
▁epitheel cellen
aat regelen
▁gem at
▁E L
ys lipidemie
di ff
▁H z
▁zorgverlen ers
ver werking
▁ster iele
ab ole
▁soor ten.
▁w ens
▁Indicatie :
▁gesp rek
4 %)
▁extra hepatische
▁cereb ell
▁verander d.
STR ACT
u z
▁leven .
▁Comp lic
▁9 6%
DEN )
▁computer tomografie
▁bieden .
▁creë ren
▁syst olisch
▁T S
ine sc
it ting
▁ge wervelde
▁regio '
▁mig ra
▁niet-line aire
▁T LR
v ing,
verw ante
l on
▁st at
ro tische
l ationele
er isatie
▁signaal trans
▁L T
▁b os
▁ac adem
▁(i i)
▁on aan
▁S I
▁0,0 1)
▁H IST
▁adequ aat
G uiding
▁ontstekings remmende
-4 )
▁B eleid:
▁loc i
▁2, 2
▁cereb ro
▁ge ografische
▁F D
or al
di en,
▁volto oid
▁am b
▁WBC -1
obacter ium
▁be weeg
▁gaan .
▁RC X
▁a qu
A ),
▁gene zen
▁pat ent
ast inale
it on
▁glob ale
▁A chter
▁c ancer
ID E
▁osteop or
▁sh if
U CT
▁het zij
ic illine
▁akk oord
▁verkal kte
( AB
:30 PM
▁( AL
en :
▁bevorder t
of luorescentie
ent wintig
▁gevestig de
▁-Di ameter
▁exc isie
▁Stre pt
▁lig ament
▁AFGE K
w eten
vorm ing,
▁P le
▁Sub stance
▁c atheter
ker ,
▁IV C
▁W OOR
▁endot hel
▁zwaar lij
▁oppervlakte actieve
▁Sle chts
▁cir cu
stest s
▁ \line
▁( bereik
▁n s
verb ruik
▁synth et
EL L
sch ouder
▁Au stral
▁sm al
▁Stud y
m y
contin entie
5% .
▁hart .
▁(F inding)
▁Re cht
▁ro tatie
alis eerd.
▁N ad
al og
▁inge deeld
▁B r
▁v aten
É É
5 1
▁sig moid
▁in te
▁con nect
▁occ ip
P E
▁WOOR DEN)
9 2
▁8 2
▁cytok ines
o dule
AT H
ch loor
▁on gebruik
▁w oorden
ology )
▁vrouw en,
▁opname .
▁cort isol
▁Tw o
t ijden
ad a
▁[ D
▁dat ab
n og
G .
▁hemodi alyse
▁Ac quis
▁MRI -
▁in spir
(AB STRACT
g l
▁over lapp
▁abd omin
amin en
▁RNA -
ant ies
▁behandelen .
▁al veolaire
▁scler otische
/ v
▁t halam
spat ronen
ke ken
als :
▁l ute
woor den
▁psych ische
▁Ar t
▁v lo
▁( op
▁ser a
▁var ken
▁9 7.
▁geblok keerd
g ingen
▁on gemak
▁ex on
7 "
▁r s
▁W h
▁wijzig ingen
een d
▁inter ageren
▁Extre mit
ant igeen
▁bev inden
▁bijn ieren
schal ige
ve ment
▁lymf klier
a ï
ui zen.
0 2
ijn en.
re igende
▁2 :
▁w en
▁(2 00
▁E GFR
▁gebrui kend
▁contra ct
▁st reng
▁ec ologische
iot ische
▁sub jectieve
▁result erend
▁pri or
▁At orvastatine
▁long vel
in yl
▁- Ver
▁2 e
▁TAB PO
▁0,0 1).
▁Hem oglobine
▁werk elijke
▁P EG
h t
▁gelok aliseerde
i atieve
▁B en
iwit ten
▁kip pen
▁verwond ingen
▁V rouw
▁super oxide
us ies.
▁(N e
▁ch or
▁(S )
▁prote ïn
▁[image 00
▁HIST OR
▁sp ij
▁ox y
▁herst elde
afe ïne
onolact on
ig ratie
▁gespeci aliseerde
▁ulc er
▁f entanyl
▁T -
▁begrij pen.
▁link s,
▁tach y
on yl
st oename
▁( IS
-8 0
▁at m
controle erde
n R
▁ge toon
▁dru kken
▁bloe duit
▁mon delinge
▁ar itm
och rom
▁reproductie ve
infectie s
vir ale
▁genoem d.
▁weer gave
▁- ))
▁indic ator
▁hel dere
▁enorm e
▁F S
sluit ing
▁C ent
▁NSTE MI
▁( 25
▁hard ware
▁in stellingen
▁tek orten

Al gemene
▁C Z
▁ritme ,
obob obob
▁kost ene
re c
x pressie
▁bra ken,
- alfa
▁best rij
8 "
▁T CHNIQUE:
▁bevol kings
▁evol u
st ra
▁RDW SD-
▁d ent
▁sp oed
ati en
um en
ver gelijk
r g
ob er
▁hoofdpijn ,
ant ische
▁geco örd
om ateuze
wer kers
centr um
▁we bs
ont ane
W I
tra at
▁loc us
▁integr iteit
▁p ur
▁worden ,
▁C al
richt lijn
▁ontwikkel ende
▁voor zicht
[ LOCATIE
metho de.
▁z ien,
▁end oscopische
▁Be kende
am elijke
▁Admit ting
▁St ool
▁kl aring
▁trig lycer
▁p aden
p es
▁End ot
▁fec ale
VAL UE
im es
▁imp ression
d rempel
14 0
la sten
▁gem edieerde
▁th i
▁ver tal
▁hou den.
▁be wegen
▁plast iciteit
▁mon o
▁A rab
▁prost agland
trium fibrileren/-flutter
▁huid ,
▁- W
aar ten
▁DNA- schade
▁cardi omedi
▁C ir
▁arter i
▁D u
ogra ft
▁re polarisatie
▁F re
▁gebruik ers
▁immunoglob uline
▁Sal monella
▁b ellen
▁onder huid
▁misselijk heid
▁famil ies
▁device :
▁l us
▁B AT
Ge wicht
▁vast ge
Y C
ei wit
▁datas et
▁- V
▁Link se
n amen
▁bedra agt
▁Extre miteiten:
▁(b )
▁En ter
im in
▁techn ique:
M D
▁tim ing
▁geïm plante
▁c il
▁H G
▁virul entie
▁n ale
▁niet ,
aser emmer
h n
▁Imp ression:
▁mult ic
sp ecifiek
fus ies
▁verspre ide
▁besluit vorming
▁jong ere
roc ardi
▁voedings middelen
ation )
▁bronch iale
▁detect eerbaar
- met
: S
▁'s ),
amine ,
▁voort vloe
b il
▁test osteron
▁voorsp elling
▁R N
▁Ox ycodone
os kelet
▁pren atale
ul se
liothe ek
genee skunde
▁ak oest
▁sterfte c
rop last
▁verwacht ing
R eg
over een
▁A I
▁psych os
ou ch
▁E 2
ik t
ical iën
b erg
▁( %
▁kanker ,
▁onder wand
▁1 -2
arynge ale
he d
▁cholec yst
▁sch ijf
▁gra dient
▁d ichte
y laat
ist isch
▁huisart s.
▁helder .
ile vel
▁hypoden s
▁My ocard
▁all er
▁[ZIEKENHUIS ].
▁zit ten
3. 5
▁komen de
▁P ET
10 )
s lijm
▁zwangerschap .
▁cum ul
ax iale
▁verzwak te
am .
t eren
assa ys
laes ie
▁(Intellect ueel
▁ant igen
gro te
medi um
▁ar omatische
▁tegen over
n c
▁mult ivariate
or ptie
▁th romb
▁toe gest
▁Radi ology
AR )
▁placent a
O ver
▁sub groep
clu de
f luor
percentage s
▁R oken
riè res
▁geneesmiddelen ,
▁onop ge
ol g
▁vers nel
▁over wegingen
▁vl ie
:1 2
▁f ibr
▁af ger
▁L EF
ath y
▁D rain
▁10 5
LE T
▁haal baarheid
del ing,
▁P t.
tro mb
▁ __
ad hesie
s yst
▁beschikbaar .
▁L isinopril
▁der gelijk
▁traum atische
ire d
▁voor waarde
▁go uden
▁ten zij
X )
vorm ingen
▁mg/kg )
▁Bloed producten:
▁onder te
▁sulc i
▁gew richten
3 :
▁emb ol
▁RV SP
atib iliteit
▁ver re
▁Dis ease
in ing
▁(( )))
▁aanbevel ing
▁G lu
▁Gast ro
plaat sen
▁2 -3
▁kwantific ering
▁verstre kt
os an
proces sen
ucces vol
▁nier falen
▁l ith
/ 20
▁A -
oc or
-c ult
▁aanwijz ing
res iduen
▁Mon os
st ante
▁PR EHTX
▁Thema: PREHTX
▁vijf de
▁col itis
ate chol
prote ïne
▁( 0.
▁ad nex
▁AD D
▁19 .
pol ym
▁modul eren
▁pl ate
▁con sequent
▁verwij z
t ine
▁Boven dien,
▁nit raat
O .
- hydroxy
▁sec .
▁[ *
▁(S inus
▁amylo ïde
▁1 e
▁parallel le
▁groep .
▁zo dan
/ 80
▁routine matig
O b
▁vet weefsel
▁V AL
▁A sp
iciën ten
:O peratieverslag
▁sub tie
▁urin aire
▁Categorie :Operatieverslag
▁indu strie
▁geïnteg reerde
▁k e
▁kleine ,
stitu eerde
-p re
▁ant rum
at roon
▁tijd .
▁NECK :
▁farmac eutische
▁sep te
▁nakom elingen
▁per iv
b indingen
▁sche id
▁Event s:
▁extre em
h etische
bestrij ding
▁C AP
▁st u
▁tri al
▁at oom
▁( 30
▁P r
▁Pol y
▁Z acht
▁Examin ation
la u
▁5 .0
▁inf er
▁V en
▁all el,
▁verstre kken
▁O peratieverslag
K K
dien sten
▁exp ectatief
o ud
ie pen
▁7 ,5
▁eiwit ,
res istente
▁instr umenten
▁subc utaan
▁ge accep
▁ontwikkel ing.
iër en.
besch erm
▁h ang
▁V ro
1 "
▁geïmp le
▁toe standen
▁( ER
▁F entanyl
2- V
st raat
ven euze
ra d
ust us
▁r ig
▁hem orrag
▁beeldvorm ings
duc eerd.
▁geb eld
mo dific
▁F er
9 "
▁9 2
▁a u
▁moder ne
▁re vers
ed antie
▁mod aliteit
▁lab s:
▁asse ss
▁antine oplastische
▁Lin ks
bar st
▁ge fosfory
▁ eten
▁me st
it aal
▁comp atibel
la sm
▁T AVI
▁gluc ocortic
otyp es
▁kleur stof
▁comp lete
amen s
▁st ijf
▁bewaar d
f eren
m eer
▁fil ms
▁terug ge
/ n
▁gevol ge
-antilich aam
▁maan den,
▁polymorf isme
▁cir kel
▁sig ar
ver zorg
o ct
ibiot ica
ic :
▁bere kende
▁consult :
1 %)
-gevoel ige
▁[LOCATIE ],
hal ing
▁S upp
▁coörd in
▁be we
p r
▁G TP
▁b uff
▁terug val
▁hier bij
▁on waarschijnlijk
ic lo
R T
▁f lutter
▁gez ien,
in ib
▁i om
▁T r
ar k
▁allerg ische
▁S -
▁Z iekenhuis
lam ide
▁parenchym ale
ider ende
▁kenmer kend
au z
▁l isinopril
▁tricusp id
▁be antwoor
grad atie
( 7
ystem en.
▁beïnvloedt .
14 .
▁-A fspraak
▁ad v
▁je jun
▁geïncub eerd
▁for se
▁S otalol
▁bet ek
▁pro gesteron
▁C entr
M RI
bla d
▁magn esium
▁t rem
▁res istente
oel ing
ule erd.
▁voorlop er
▁anat omie
▁consum ptie
▁gesc re
▁P U
▁veroorzaak ten
an ker
▁vari antie
▁inter face
▁Vanc omycine
vorm ende
▁geslacht ,
▁voorgeschreven .
struct ion
▁atriumfibrill eren.
▁1, 9
ac cumulatie
▁kla ar
-geb onden
/ r
▁operatie f
gew richt
▁we ken,
p lex
dit ive
A I
▁regel matige
▁tumor .
▁2 %
▁stimul erende
▁cir cum
▁tromb ocyt
▁ge acht
▁spij sver
▁plast ic
trans fer
pro f
▁comput ationele
▁Be oor
▁O M
sne de
▁(m l
or aal
lo ïd
( 6
▁individ ueel
▁Aden osine
▁begele iding
▁do ub
▁sch er
▁ver van
ur ie,
▁beper ken
ura al
▁sch ro
▁mon ol
▁- 1
▁correl eerde
▁er os
▁an omal
▁- Medicatie
▁ver kennen
K nown
horac ale
▁z oon
▁pas sieve
te kort
de ficiëntie
▁(m oleculaire
g ine
ab in
▁aut ologe
▁'s ).
▁S yst
ay ed
o- emb
▁Tot aal
▁doorgaan s
▁proteïne kinase
▁G C
▁rij st
P P
▁identific eerde
▁CT .
▁sym pathische
sens ib
▁( &gt;
B as
▁p ept
▁baarmoeder hals
▁coörd inatie
▁hab it
▁infil tratie
▁M agn
▁gecontrole erd.
▁S a
▁verenig baar
oler ant
[ID], [ID]
▁L et
n ers
beweg ings
o )
▁ascit es.
▁N OS
▁Q12 H
▁a )
men ten.
▁model lering
ëro be
▁ins ert
▁stud y
fen yl
▁optim alisatie
ie ft
▁hier na
▁vlak ke
bb en
▁S te
II I)
▁d uid
2. 5
ofie len
▁Acet aminofen
▁React ions
is m
H E
▁Er g
al ph
▁( kg
▁nier ziekte
▁AS A
▁tal rijke
▁zij de
▁Me di
▁s ament
▁fract uren
▁cT ropnT-
▁s arc
▁Ul tra
ee p
o i
▁Her h
ient ific
▁ro ze
▁(1 9
▁verl icht
ion aal
▁geautomat iseerde
/F ax
▁bloeduit st
▁2, 6
▁con dition
( C
▁verlen ging
olog ical
▁MMM ,
raag bare
▁abn ormaliteit
▁ac c
▁geïnter pret
▁polyp eptide
▁Resp :
b p
0 )
▁gewen ste
▁gek omen
ato ir
 D
▁onder werpen
▁st ra
▁factor en,
ropath ie
ïne zuur
▁implic eert
▁evalu eren,
M :
▁epilep sie
▁tubercul ose
▁In dex
▁vle kken
▁auton ome
▁path ologisch
▁s maak
volg ing
▁An amnese:
▁beschreven ,
▁Even zo
▁Ver sie
▁Mo gelijk
ar ning
-c arb
▁F orm
▁manifest aties
se ffecten
bar rière
▁trans fusie
▁R IG
▁B NP
last ische
▁ „
▁injectie s
▁verplaat sing
▁tak ken
▁B oston
▁enquê te
▁" h
ver vang
▁Insul in
sp unt
icyl zuur
▁princip e
▁pro even
▁G M
▁IV -
ep s
▁wor t
i gen.
baar ,
▁combin aties
▁verb re
T 1
u in
z one
▁ve get
▁STEMMING ,
▁famil iale
te mp
▁vertra ag
L S
bi ologie
▁C E
▁vert onen.
▁besmet ting
oc us
ati fic
iaz ide
▁R o
▁sch aar
▁Controle er
▁fot os
kn ie
▁In fus
scha ft
-s h
▁mass a.
▁lab orator
▁vergro ten
▁o e
acter iële
ADS 2
▁niveaus .
O V
lif er
▁code ert,
▁waarschijnlijk heid
ta ste
▁grootte .
IE W
▁ant ide
▁plasmac oncentr
▁spect ra
▁C ro
AS c
▁ra ad
▁ort h
▁bespre king
opt imale
▁kinder en,
▁opsp oring
-b and
alis ering
ic ide
op olys
ö per
▁verd ovende
▁do delijke
▁a ir
▁leg gen
▁sla gen
▁posit ion
sequentie :
w ond
ineres istentie
con trast
▁B A
▁een mal
hersen en
▁C 2
▁( a
▁vrijwillig ers
▁an te
▁inhal atie
gev onden
▁k ou
▁epid urale
enocoumar ol
▁fen yl
▁over ge
he up
▁eerstel ijns
▁Pro ces
stim uleerde
▁P 450
▁middelen .
▁bevat .
▁positie .
() ()
▁3 6,
▁s ap
▁verzwak t
▁z ijk
▁ged ateerd
or ub
▁langdur ig
▁herken nen
▁M ellitus
▁hartklopp ingen
inter actie
▁gluc os
▁el leb
▁(NamePattern 1)
▁implant aat
▁g t
▁neut ro
▁Voor geschiedenis
▁ver f
r atten
▁method ologie
▁onder v
▁sluit ing
▁P art
▁n eem
▁z us
▁souff les
▁Q ID
▁bere keningen
it onale
▁eic ellen
( 4
b ro
▁afwijk end
pre par
kla sse
stem peratuur
iem and
▁interfer on
▁lab s
oc atie
▁D il
▁op tie
mente erde
▁g ering
▁mg a
▁leeftijds gebonden
▁ru is
▁con ver
▁stres s.
▁Na +
▁M ICU
art ritis
▁b ad
▁b oom
▁me an
▁TN F
-k appa
▁Ad ditive
de c
▁hom ozyg
-f il
▁vrucht baarheid
▁operatie verslag
sul ine
amin erge
i per
▁ont le
▁TI .
▁TE E
us c
ic on
▁gestim uleerde
eert ig
▁S u
▁pen et
▁M er
▁d '
▁12 ,5
str atie
▁verdwen en
▁T 1-
ol ine
implant atie
▁defin itie
▁1 +
ru ari
▁aandoen ingen,
▁k ie
ker s.
ic ill
▁Cardio vasculaire
▁krij gen.
▁empir ische
▁hom ologe
▁verwijder d,
amp on
" )
▁ziekenhuis .
it atie.
▁produc eerden
▁ant h
▁Al buterol
▁im pro
▁anti hyper
▁ge organis
▁t a
▁lapar oscopische
▁erg ometrie
▁proble men.
▁techn ologieën
▁cav ia
▁g yr
ma ken
hal en
▁c aps
▁perman ente
▁transcript ies
t rekking
▁tun nel
om otorische
▁ste delijke
rar ood
▁(p ortable
-3 )
▁waar schijnlijke
▁Den ies
▁am .
yste ïne
▁lymf oïde
-t ijd
:1 6
▁waarde volle
tect or
ger y
stan ten
N S
X ,
m ing
▁ontwikkel en.
▁gemeen schappen
erol ateraal
▁f ijne
h ar
▁gebracht .
ra ction
▁hang t
▁macrof aag
▁Indepen den
▁voorbere iding
▁verlen gde
im en
▁re ces
▁voorspellen .
▁bloed st
▁ratten ,
z am
▁A merican
v i
▁M id
▁PELVIS :
▁bar rière
▁omgev ingen
▁L o
▁M al
▁cholec yste
2 *
ri ë
▁gevoelig er
▁St op
▁Me dtronic
▁C arb
TE S
▁mult i
▁mac ro
▁afval water
inter acties
▁assess mente
nem ende
1- gen
m orf
od ale
teg r
▁verminder t.
O G
▁Hel dere
▁longem bol
▁percept ie
▁D ysp
▁autofag ie
- at
▁ur eth
▁el ast
▁op :
▁vrij gegeven
▁R CT
/min uut
▁S ER
▁re kru
m issie
▁S ARS-CoV
▁III ,
ve il
IM A-
MG ,
▁daar entegen
▁Extremit ies:
▁twijf el
inf il
▁R est
▁] )
aandoen ingen
▁Infus ies:
▁hist ory
▁- 2
▁(M D)
l id
▁ge vangen
▁indic atoren
▁Deel nemers
str ument
te :
oe f
▁PP I
▁elim inatie
-polym erase
▁betek ent
se en
▁gestandaard iseerde
▁SV C.
▁be etje
▁aange paste
▁reg istratie
▁Klin isch
-t-t -t-t
▁opac iteiten
▁ondersteun ende
▁chem isch
▁n mol
▁M RS
▁l up
▁familiele den
hyl ococcus
▁(on geveer
▁overheer sende
iden d
bra ken
ul ator
▁deriv aten
▁resp ectieve
▁detect eren.
▁v als
▁aan ,
1 A
( #)
▁acetyl choline
▁voel de
yn chron
▁A st
▁neurode generatieve
▁n eed
▁bro er
-fosf aat
▁ us
▁on verw
▁voortplant ings
▁activiteit en.
▁G T
▁ab l
ich ten.
▁min er
stij l
t am
of ys
d racht
▁(f iguur
▁perio den
▁lucht .
▁metho den.
zen d
▁(C R
▁verster ken
phone /Fax
ker s,
▁kwaliteit s
'- '-
▁p ast
ral aterale
▁reform aties
▁geregist re
▁mg/ dag
▁out :
▁] .
▁f /u
q .
▁Door gaan
▁bra ch
kun dig
▁DV T:
gra mm
▁inciden t
▁hart ,
▁kru k
▁W or
iër arch
elekt rof
▁b /l
lan ge
▁af .
p omp
▁HT N,
ith i
ol ar
-de ficiënte
▁a V
of orm
ject :
▁meer .
▁gest uw
▁getro kken
▁tr ill
▁Ig M
▁neuro t
AT :
▁linker kamer
▁(G ene
▁( 3,
w w.
▁l ieten
▁volwassen en.
▁doel stellingen
▁voor .
▁val iditeit
▁veranderingen ,
A g
gew oon
▁Independen t.
▁EX AM
F F
▁drupp el
ol yt
▁had den.
▁gez ocht
▁epigen etische
▁hyper in
▁immunohistoch emische
H ij
▁twee dimensionale
▁pap er
be se
▁sedi ment
▁pol yc
▁Q6 H
▁breuk .
pers oon
g n
T 3
▁L aatst
▁c afeïne
▁LEF T
▁mil t,
▁Na Cl
▁glyc oproteïne
▁ uren
▁overwogen .
▁nucle air
▁ident ieke
s nelheden
▁restri ctie
▁ruim telijk
▁beoor delingen
▁angio tensine
sne den
ië .
▁gez in
▁prote in
▁toe voegen
▁Gen etische
▁PO B
st rij
▁vereist .
▁webs ite
▁categorie ën
con to
▁dag )
dilat atie
▁ontlast ing
▁hyp okine
al an
▁at rofie
op auz
▁rechter hand
▁V IEW
▁Volle dige
▁korter e
▁(kg ):
▁s on
▁MI ,
▁Bal ance:
waar den.
▁dat a
▁zodan ig
or en.
ff en.
g amma
▁week .
▁CARDI AC
▁B ,
ste en
ure au
rem mer
▁afhan kelijke
f ron
verbet ering
op ress
▁vermoe delijke
▁vrouw ,
necrose factor
- W
▁plaatsv indt
▁verrijk t
▁t ap
klep afwijking
▁sper m
-pro cedure
▁eviden te
▁ec os
▁toe pas
▁ver val
▁ver pl
▁lymfekl ieren
▁tricusp ide
▁Con trast
▁U ro
▁vergroot .
▁fung eren
▁S G
▁ep ig
▁lymf atische
▁L a
▁Del ayed
▁prof ylaxe
▁Medicatie :
▁Rep ort
L Y
o- o-
▁ex acte
ass istent
▁verschijn selen
▁bloed ,
▁ong un
od ay
▁17 ,
▁tren ds
▁prop ofol
▁bal ans
▁al pha
▁proces ,
▁ver apamil
▁3 x
Ob ject:
▁-Afspraak Object:
10 ,
▁radi ologische
een s
aat )
el y
▁del ta
▁TotB ili-
▁breed te
▁voorspell ers
ï den
▁Al cohol
▁C 6
fosf at
D O
▁Gro up
▁bul k
▁aggreg atie
▁persist erend
▁l y
▁uitge st
▁risicoprofiel .
▁letsel s
ienivea u
▁e duc
▁Fi O2:
OLO G
▁o v
▁Verwervings sequentie:
▁gekwant ificeerd
dru g
▁kortademigheid ,
con stante
CH O
▁aant onen
▁mus cul
ec eptor
▁. 0
zon dere
▁hemat ologische
h ier
▁cent ra
me de
▁reticul um
r gentie
ket tingreactie
▁vandaag .
▁v atten
di ende
ien ce
▁(1 5
▁n M
am ,
▁sch ede
s ion
ivea us
▁+ /
stil stand
▁Flow s
▁gevallen ,
rom ide
▁intra- abdominale
kle uring
▁den ken
-4 1.
du laire
afwijk ingen.
▁ge comp
org anische
▁sten ose,
c yc
▁ingu inale
▁B cl
▁inse ct
▁p unctie
othyro xine
▁kenmer ken.
ot o
▁sm all
la d
▁hist ologisch
z ine
nnnnnnnn nnnnnnnn
▁enkel voudige
▁inse cten
▁correl eren
N :
b r
▁lich amelijke
in on
en g
▁arter ie
▁Japan se
ind ing,
dem ie
▁mRNA -expressie
▁SKIN :
▁ap pen
ap h
? )
▁ser ine
ix aban
▁middel .
▁In stellingen
ynth ase
▁Ex tr:
▁Al bumin
▁pathof ysiologie
-ge lab
▁hap lot
iets erg
▁pancreat itis
▁in comp
tia zem
al len
▁vertoonde .
▁(1 2
▁ev t
st oel
____ ____
▁implant aten
▁drin ken
:1 8
▁F actor
lut ic
▁soep el,
▁clin ici
▁linker zijde
- over
ver schijn
▁monster .
adren erge
ran e
▁L /min
▁gro ve
▁ho sp
ir ussen
of osf
o ien
▁V AN
▁bereken en
▁strom ale
▁extre me
▁2, 0
▁U ran
r f
▁kwest ies
▁sub eenheden
▁diagnost isch
▁anal ge
ant ,
▁3 6.
▁tib iale
▁S LE
▁nicot ine
▁in ject
▁hersen en,
at uratie
▁goed aardig
▁hart ziekte
▁am y
▁gek leur
▁ex plic
st ent
▁Acquis ition
▁de kking
iet y
▁B D
▁on vermogen
▁gebruik .
▁inge bed
▁L I
w ard
▁( s)
rop ium
▁zichtbaar ,
▁AC S
um m
oc al
▁bi ologie
▁bloed ing,
e ffect
orator y
▁imm ob
▁besliss ing
▁com ment
functie ,
▁le es
▁aanzienlijk .
f em
▁t rof
▁k aak
in igende
uccesvol ?:
la gen
▁Hier bij
▁mes enchymale
-in ductie
▁paras iet
▁# *
▁schizofren ie
▁geïn itie
-effect en
▁posit ies
or ,
▁wer v
▁Uitgebre ide

A fspraak
im p
s upp
f arine
▁(S D
▁gon ad
▁onder arm
T M
▁dra ger
▁twaalf vinger
ut ing
▁G auge
p un
▁toestand .
on ing
▁1. 1
▁voorgesteld .
ING :
▁gepro beerd
men gsel
▁bevat ,
▁vo er
▁vo gels
▁voert uig
▁c rep
ve erd
▁effectie ver
houden d
▁I E
▁ser iële
▁micro M)
▁los sen
-t herapie
▁De pressie
▁levens bed
▁comm and
ul sen
-pro te
onderzoek .
▁ruggen graat
▁adju vante
▁uit leg
- D-
▁re generatie
be en.
▁ch it
▁S 1,
os us
om ic
▁ventil atie
agen t
▁stikstof monoxide
▁8, 6
▁Drain s:
2. jpg]
▁transp orter
▁min dere
▁c er
▁hist amine
▁( be
▁kom st
-p laat
ip ro
▁gedocumente erd
▁zorg t
▁B UN
▁effect en.
osp or
▁vanc omycine
▁activ atie
▁de ed
▁gescre end
▁fil ter
▁(Radi ologie)
▁in -v
ar it
▁secret oire
ra dic
▁identific eren,
▁sc anning
▁endocard itis
-mut aties
▁diss ociatie
▁TF :
▁follow-up .
▁helder ,
our ce
▁mal igne
▁1, 25
▁( groep
▁mut a
ation aal
▁IVF :
▁zorgvul dig
▁N F-
▁fys iot
▁ledem aat
▁V oel
▁T rig
ogen etische
▁blauw e
▁financ iële
se ffect
▁cytos kelet
d agen
▁bestand deel
▁V G
▁Ar ter
▁l iep
▁H ER
▁P 2
▁T i
▁bevestig ing
g ron
▁afwijk ingen,
ox etine
▁T 4
▁glob aal
▁fractie s
0 ,5
▁kal k
▁vast stellen
ast er
3 ),
▁IL -2
▁bi op
▁gewijzig de
p ine
vo erde
D- EP
▁select eren
▁Spir al
▁L H
▁st een
▁(C H
▁Capsule ,
:1 4
▁kenmer ken,
ric usp
▁0,0 5
▁10 4
▁vaccin s
▁Sp O2
▁24 ,
▁k wij
ialisme :
ISCH E
▁onderzoek 
▁AD mission
▁Ex tra
▁( X
▁hepat ocyten
pre staties
▁afge schaft
▁verkrij gen.
-t etra
▁onder k
▁f oss
st atische
▁x10^9 /L
▁hemodynam isch
▁M H
▁tra ge
z ol
xim ab
▁dier modellen
at alyse
▁gecon ju
ug in
▁P neum
▁p oeder
▁V II
▁U TI
▁ru st.
9 %)
▁(s erie
▁verdo ving
▁s uspen
▁gen orm
▁M oeder
▁geklo ond
▁groep en,
▁AFGEK APT
▁jon ger
▁Z al
▁Pseud omonas
▁co öper
sm aatregelen
▁t oday
- per
aag se
▁AT P-
▁St and
▁10 9
sc oop
▁PCI :
▁opge tre
l ante
▁elim in
▁hal ve
▁to v
ite d
▁decen n
▁Stap hylococcus
pl os
▁G lob
ylact ische
▁-S uccesvol?:
▁z iet
- waarde
ze en
or n
orph ine
▁belang .
▁part iële
▁voor wand
▁B lijft
▁no ve
▁t ent
▁L icht
▁flexib ele
▁eiwit .
prote ïnen
▁D ig
▁ ist
▁proefpers onen.
▁sch rif
ule s
in formatie
▁( IV
C h
▁comp ress
▁besliss ingen
▁2 2,
( 8
jectie f
▁x10^9 /L;
iprof loxacine
i i)
elijk s
dra gende
stell ings
▁Abs Bas
▁N- terminale
▁uitlijn ing
▁( -
▁gewicht stoename
log ie

R eden
▁S ens
▁c oel
-AT -AT
▁v ak
▁b orderline
-1 20
▁ob jectieve
-g olf
▁uitput ting
▁hartf alen.
▁t onen,
stri ële
▁eiwit synthese
es ultaten
arach n
ir ur
▁reumat oïde
eff ort
▁3 D-
ur k
ocyten :
adol inium
▁operatie ,
em isch
▁-D omin
▁hypothalam us
oïd ale
rom y
- immun
▁rond om
ge erd
▁v elden
▁ass ist
ur ie.
v oorz
▁o t
▁ep ic
▁profess ionele
▁Huis arts
▁circ adi
▁kregen ,
▁wijdverspre ide
m atie
or :
▁[DATUM] .
du w
▁bev elen
r ies
▁ent iteit
ulf ide
▁vergro ting
▁prov inc
ontre inigende
▁De generatieve
▁0, 25
▁cell ul
▁dis per
ell iet
3 -200
▁K -3.
sel ing
▁10 mg
▁voedings stoffen
: 1.
▁percentiel :
▁I J
i of
▁lever den
▁gu an
▁u reum
eg ment
▁B ay
▁cel oppervlak
▁Neck :
▁Ch ild
▁( EF
▁19 ,
▁net to
▁foc i
▁hart sil
▁knock -out
▁dynam isch
▁Trop on
icht ing:
▁Richt lijnen
-inter actie
▁gekopp elde
▁asc al
ud ie
▁af bre
▁le ken
▁aan vulling
▁im age
behandel ingen
▁Niet -cardiale
▁re perfusie
ben z
f ig
▁bla deren
▁kra chten
▁init iatie
▁doord ren
ar ly
I ON
[ LEEFTIJD]
▁pro fielen
▁verm oed
A ID
▁cur ve
[LOCATIE ]
▁M ax
▁B est
c utane
▁verhoud ingen
▁vergelijk ing.
▁ben ige
▁visu alisatie
mole cuul
ch emie
3. 8
▁(CT )
▁met all
▁F or
▁f ruit
1 25
▁promin ent
▁dram atisch
-binden d
acet amol
▁dem ografische
- as
val ent
▁sub durale
/ 8
pro cedures
C ]
il it
▁PO :
▁fol lic
▁- E
▁al om
▁25 ,
itu atie
▁C ef
▁gem an
▁F irst
ië ,
se quenc
antilich aam
▁HC K
▁cycl i
▁Q4 H:PRN
AR D
▁aange bo
▁for s
▁mass ale
▁t or
.b. v.
▁sub type
▁Ged urende
▁diagnose .
▁herst art
cent reerd
▁mg )
▁Be eld
▁twaalfvinger ige
▁LD H
ma .
▁vergemakkelijk en
▁uiter st
yt h
▁in gesteld

 U
▁pro liferatieve
▁inter ferentie
▁A AN
▁kwantific eren
▁aandoen ing.
▁horm onale
ival ente
▁C 1
▁- 0,
▁sub set
▁re agentia
m aten
6 ),
▁sept ale
▁gen en,
ampon ade
▁diarree ,
▁sub eenheid
vloe den
▁A cht
▁hep ar
in erge
pers onen
idop sis
oscop y
▁niet s
▁chromos omen
▁reg uleert
▁situ aties
▁1 d
▁prec ie
▁# <DATUM>
▁la c
▁V ER
▁c rit
m ann
▁c atechol
▁oste oc
▁her pes
▁onder wij
▁gepresente erde
▁daal den
+ /
▁( na
▁chromat ografie
▁Hct -2
X X
▁Ritme :
▁kre gen.
▁D uit
▁K L
▁op geb
- behandeling
▁T OT
▁R OM
-C ONTR
▁Sen na
▁gere cht
-k amer
ger elateerd
▁(P D
l ussen
▁Blanco ,
z out
p lo
▁sla cht
▁W ar
▁ ul
▁dië ten
▁gerandom iseerd
▁voor ,
▁B ON
▁ap o
(1) ]
▁bel angen
▁colleg a
▁Rh ythm
▁ap icaal
▁ST AT
▁rechter -
▁rect ale
G P
▁IFN -gamma
▁(D )
▁cath .:
kno wn
▁rapporte erde
▁Control :
▁Operatieverslag ,
▁Wer k
▁op ent
▁we gen
▁Omschrijving :Cardiologie
▁hart ritme
▁nab oot
▁t oxine
▁ondergaan ,
▁le eft
▁ben igne
▁prec isie
▁groot schalige
OS P
▁c .
▁du oden
▁spect roscopie
y leerde
der tig
:1 3
▁(h et
- genen
der ings
▁pall iatieve
▁microg l
▁SV T
ste in
O H)
er vo
▁syn ov
▁afbeeld ingen
LE D
▁ •
▁SP ECT
▁b ac
▁continu eren
▁201 4:
▁int r
▁par od
co h
▁sar co
ute ur

 In
n bekend
▁(P A
▁( <
▁onvolle dig
▁bre uken.
▁chromos ofie
▁V .
▁sugger eert.
▁toegepast .
-6 )
▁over gewicht
weging /
-b loed
1/ 2
e ster
▁6 50
▁A P-
▁Geslacht: vrouw
v ant
▁lang .
vo uw
▁paroxysm aal
▁c rac
▁microscop ische
▁LAD .
ect omy
ot hel
vo le
e gen
▁niet -m
▁geïnterpret eerd
▁cyste ïne
▁snel heden
▁lymfekl ier
▁bip olaire
▁S tro
▁gevonden ,
▁24 0
▁opt ies
▁alle s
▁cons istente
:Nee
 P
▁S up
▁hematopo ë
car cin
ro gene
▁naam )
▁sc enario
▁navel streng
▁P b
▁verhoog t.
R :
on ium
▁fund amen
ieën ,
▁don ker
ated .
▁voort durend
▁gedrag .
▁V ASC
▁in val
▁Le ad
'd'd 'd'd
b pm
ra fie
▁Tmax :
ma and
▁G l
d om
▁t RNA
ver te
ij en
-c riteria
▁gemen gd
▁F luid
pijn ,
▁gesp eend
▁Glyc emic
▁spi raal
▁H 2O
ibr atie
▁pan el
 R
G AN
▁Concept )
der s.
▁meta- analyse
▁spor ad
behandel d
▁X L
▁voorspell ingen
▁op komst
▁P ANC
▁oefen ing
y ocard
ib le
▁op names
▁r /o
▁in .
coh olische
▁her kend
aden os
iër ende
▁knock down
K 1
at ston
zaam heid
( 5
▁st raal
▁cel lulair
▁gek regen.
▁determin anten
▁4 -
▁z a
▁polymorf ismen
rol imus
lij sten
▁steady -state
▁199 9
▁lymfek n
▁dat abase
▁zenuw en
▁h ip
del ta
dib ulaire
ATI ON
:1 9
▁wervel s
▁circ ulatie
il lair
ras send
U V
▁mon oc
▁recombin atie
▁onderhuid se
▁boven arm
wer ving
▁zo genaam
▁U L
▁ret our
▁ver vaardigd
▁in tensieve
ati v
&lt; 0,00
yper ing
: 2.
▁verminder den
v inding
▁persist erende
afhankelijk heid
icul ar
ell ing,
:1 1
ge wijze
▁Dif fuse
▁analys eren.
ren s
▁DNA -re
▁schimm els
tij dig
▁boven kwab
-f amilie
▁P IP
▁bestand delen
om standigheden.
▁le ef
▁maag .
▁Pre dnis
▁par adigma
an .
umer ic
▁onge wen
▁( AT
▁S F
e -
am pl
ic ol
o int
▁oorspron kelijk
▁opge hel
▁mur mur
▁Ken nis
▁oplos sen
streng s
in ase
▁toe zicht
pl atine
▁Ass oci
▁o ss
cont inu
ogra phy
▁pl anning
▁Ex amen:
al ende
▁ziekteverwe kker
ve ill
▁Stool :
▁zorg ,
1 *
IS C
om k
▁hepat ocel
ic il
do od
art aat
v ag
ogenese .
-COM-COM -COM-COM
▁aute ur
▁mar iene
▁Rout ine
on omische
▁c x
▁g lu
▁bespro ken,
▁f ailure
▁ref ract
▁uter us
▁geïnteg reerd
▁diur etica
▁(B )
T ele
▁tijd s
▁Pac ing:
▁inb rengen
▁pro spectief
▁Hep at
am nest
▁4 .0
-in name
▁tra p
▁9 1
▁intracran iale
5 2
oren s
▁com bine
▁function eert
di ameter
cip itatie
▁exp ir
▁elleb oog
▁feb ruari
▁uit voer
erv atie
▁gegeven s,
▁connect iviteit
▁p pm
▁sleutel rol
n eemt
aa aa
▁2015 :
z u
▁(M )
rgentie :
▁p ogingen
▁proces sen.
▁M ET
O F
▁lip oproteïne
ated ,
▁( ES
▁(gemiddel d
▁brad ycardie
▁w t
▁ge form
▁A J
▁had ,
▁k alf
onucle otide
ide d
ap ril
00 .
Guiding )
-E CG
d ym
▁Vent il
h ,
heren te
▁vitro .
▁geleidingst ijden,
▁gecon strueerd
▁gemeen schappelijk
wer kende
ycl us
UL AR
▁af sch
AS E
it en
▁port aal
▁opvallen de
n s
▁nale ving
▁gen omen.
▁neur on
▁Ver wij
▁pleura-effusie .
▁c f
an ten.
▁( ret
L 1
▁L age
▁laes ie.
lag yl
▁bloed -
▁introduc eren
▁T 3
▁septe mber
▁aer ugin
niveau .
▁ca us
▁onder ver
ie te
atie ven
▁gesim uleerde
▁demp ing
▁goedgekeur d
be wak
▁Refills: "
unction ele
▁U A
▁[ Ca
EHEH EHEH
roc yt
3 *
▁verwer kt
▁ge oxide
▁( &lt;
la mp
atiën t
cholesterolemie :
▁(CK D-EP
▁aug ustus
▁gro et,
▁c ad
m s,
▁men sen.
▁M r.
ra ys
ac ar
id ieven
▁over name
▁mm )
oxy gen
▁hersen stam
▁HISTOR Y:
pro motor
V ER
re ef
▁dist al
all erg
oï den,
ator ische
i op
it ol
▁k rom
▁B -
▁emb olie

L engte
digen d
ar en.
▁serot onine
E MI
it oren
▁neurop sych
▁2013 :
▁201 2:
cin tig
-1 50
oc ic
▁vorm .
▁Car cin
▁or ofarynx
(S ):
▁blijk baar
ol ig
YYYYYYYYYYYYYYYY YYYYYYYYYYYYYYYY
▁bloed .
▁geb rachte
ma ch
0. 000
▁3, 4
▁Z w
▁omgev ing.

 F
▁micro-organis men
-s yn
▁gen en.
▁okt ober
toe stand
▁hypertrof ische
▁NS AID
▁Line s:
▁Device :
as ie
▁f lap
▁T T
▁bloot gestelde
▁G ep
3-200 3-200
opro p
▁bro ers
▁d ich
r atio
▁verl ichting
▁ver gez
▁ger ust
gereg uleerde
▁ge ver
▁hartklopp ingen,
▁verpleeg afdeling
▁down stream
g aand
naam )
▁Respon se:
▁(E C
▁kool hydraat
▁G raad
▁mann en.
otherap ie.
-19-19 -19-19
▁cat aract
▁L FT
-d aagse
middel s
▁patho genen
▁CO X
▁inf uus
▁vastgesteld ,
▁( AM
em issie
ster se
onderz oe
men opauz
▁niet -p
G O
▁c lopidogrel
▁indu striële
▁10 3
ter ings
▁Ver minder
▁P B
-eff iciëntie
/ 70
▁la g
▁dress ing
▁10 2
▁paras ieten
5% ).
▁v 8
▁retro grade
ff ende
▁elektronen microscopie
▁beeld kwaliteit
aan den
F U
▁neurotransm itter
▁blokk ade
▁We st
▁G AP
gren s
▁gegener aliseerde
gele iding
▁zuurstof soorten
▁B :
sp lit
▁laat st
▁psychos ociale
▁Genome )
▁röntgen foto
elat onine
y f
/ 90
▁gew eld
▁train ings
▁Arab idopsis
overeen komstig
▁Om ge
A AL
▁p p
▁3, 3
aneur ysma
▁geb ied,
▁gecon fron
verd un
▁on gelijk
▁oper aties
▁soft ware
stre erd
CT-CT-CT-CT-CT-CT-CT-CT- CT-CT-CT-CT-CT-CT-CT-CT-
is o
▁k omen.
▁aange dreven
king ,
:4 5AM
: 21
▁diagnose ,
ine- achtige
▁V o
▁men stru
omen :
▁overeen komsten
g ing.
aties nelheid
▁am lodipine
▁RIG HT
- art
▁L engte
▁infarct ,
▁cytok inen
▁verz adig
-test-test-test-test-test-test-test-test -test-test-test-test-test-test-test-test
ram ine
pla sie
\ fs
IE :
▁4 50
mm ,
BAT BAT
ator .
▁zwangerschap ,
▁h il
▁na dien
▁CS F
▁J our
st raal
▁ast rocyten
° C
▁( aan
n ie
▁Reg ul
▁intub atie
▁op ho
- 5.
▁GR AD
imm el
▁factor en.
** ],
-t ot
▁c /b
▁hydronef rose
▁elektro chemische
▁exc itatie
▁suc rose
k ade
▁precie ze
▁W eten
or etische
▁soor ten,
▁s ound
bre uken
▁R AP
▁karakteris eren.
yr idine
▁paar den
-b loot
re ction
▁1. 5
p ool
▁cumul atieve
H ypertensie
▁be kend.
▁aange duid
gen en.
▁manip ulatie
ot ing
▁berei ken,
oprote ïn
ge heugen
▁P at
▁kD A)
▁mid dag
W est
▁protocol len
i ologisch
9 *
glyc ol
▁Release )
▁blan co
▁controlegroep .
▁vo eren.
( )))
▁mon onucleaire
- J
in a,
▁col le
▁El is
▁plaveisel celcarcinoom
lec ain
▁veronderst elden
orie :
▁ee uw
▁cav a
ia ale
▁ont slagen.
-c aten
ine uze
alys is
▁per in
▁signaaltrans ductie
▁z aak
ografie :
▁apopt ose.
▁tijd ,
▁antib acteriële
▁reg istr
mat rix
▁B raz
▁D N
▁door :
▁O f
sp inale
m ic
U /L
▁mit otische
▁[** 21
ip s
▁risico .
mm obil
ab sorb
▁PE T-
net werk
▁retro spectief
at ur
isch -ch
▁N i
e ve
el vis
▁inter esse
AT ER
▁ver men
▁osteop hy
r s
+ /-
▁sign alerings
▁overwegen d
▁chirurg isch
▁sp ond
cell ijn
sp unten
-9 0
z apine
▁monster s.
▁antide press
r )
oc yan
model .
oc ine
▁M R-
▁gemeenschap s
▁II .
ogram men
▁vorm en,
▁oplos middelen
vol utie
fosf orylering
▁sequent iële
▁open ing
▁atheroscler ose.
▁ac yl
▁negatief ,
▁histopath ologische
de hydrogenase
per oxide
▁Coronair angiografie
▁detectie lim
r oren
▁T ube
▁ ib
p 1
▁voor hoofd
▁Ver bet
oph il
▁verwijder en.
▁st ate
▁re verse
▁polymerase kettingreactie
▁dier lijke
wissel ings
▁RR R
▁NM R
▁t am
▁milligram ;
ogen en
ge ïn
▁vol de
▁wee s
T- IN
▁plotsel ing
verz adigde
▁praktijk en
s gebonden
-ge stimuleerde
▁M ental
▁P atch
▁comp os
▁g ood
▁D L
▁Er ytro
▁sten en
▁Reg ular
▁(H R
zij dig
b rief
▁significant .
▁toenemen d
▁intram urale
ot rex
▁2 L
▁gangl ion
▁aanvan kelijke
▁sn ij
-19 )
▁verm eld.
▁le ct
ste d
▁asymmet rie
/ 7
▁A z
▁anal oog
ing )
▁c /o
ot t
dra ad
▁maxim um
▁c AMP
▁C x
▁RV :
▁Invas ieve
▁3 7,
, ##
▁gestart .
▁bind weefsel
▁Det ail
A K
▁TI A
ot oxische
▁akoest ische
▁pla s

C onclusie
▁ist hm
▁cere vis
▁d' effort
comp ressie
▁24 -uurs
▁Vergelijk ing
▁h iërarch
o uren
:Nee
 A
▁k oeien
lo od
▁( NA
▁immun ofluorescentie
▁Identific ation
▁correl eert
▁dex amethason
▁P attern
:1 7
▁Ch ronic
waarde tijd
if er
ën .
▁c rypt
▁in j
▁Met ho
-reg ulatie
▁t ur
▁V t
▁b ran
▁ isch
-inter val
▁toe val
▁nier transplantatie
▁hoorn vlies
▁linker ventr
ip ar
▁O ri
▁st emm
4 *
a :
▁ra c
▁op gele
c ardiale
k ra
▁Vand aag
▁ge lijke
as ure
▁B 4
n egatieve
▁p ieken
he ad
ucle air
geb ied.
▁tar ieven
P V
▁ultras one
▁N SC
vas cul
▁-Over weging/
▁pla k
▁dos s
▁end oplasm
cc /uur
▁uitbre id
▁m embran
▁lymf klieren
▁groe if
14 )
▁cont ralaterale
▁delet ie
erol aterale
▁bloed som
AG E
TI MI
C E
sal icylzuur
ine sie
▁LAB S:
▁pleuravocht .
d rom
▁UR NE
▁multid isciplinaire
▁af stam
vl iezen
▁onthul d
umor ale
▁subtie le
▁be droeg
▁(( Name
▁dagen )
se x
▁Sc reening
▁atrium flutter
▁h ond
▁ge lu
▁Pla sm
▁deel nemen
on ef
▁t hal
▁bre iden
▁per ist
▁princip es
s- assistent
▁anal ogen
▁Sp utum
▁long knoop
▁ma ken,
▁vis sen
▁D -
▁h ct
▁werkings mechanisme
▁ontwikkel t
▁ne oplasm
▁Un known
▁(P )
▁segment ale
gebeurtenis sen
▁# )
▁sp p.
ak elijke
▁stroom af
 Ge
▁m V
▁daar door
▁ver de
st at
up lex
▁antibiotic a.
▁herhal en
▁z il
▁ra p
▁(L F)
▁intra operatieve
cht ere
iz umab
vol gen
de pressie
▁opge slagen
▁end oc
▁bevestig d.
▁AV R
▁TAB LET
sp orter
▁B L
▁(E x
▁Sp oor
▁TotBili- 0.
oort s
▁Disc rimin
▁geïndic eerd
▁immunode ficiëntie
▁T och
en ten,
▁C5 7
glyc erol
▁10 6
deel de
z ien.
g aven
▁- cellen
▁uit wisseling
T c
5% ,
▁bloed vat
▁ritme stoornissen
ru is
/L ,
▁gever if
▁H uid
▁ker atin
cyt ometrie
ch et
▁toepass ingen.
y elin
▁oog t
mer kelijk
▁begrij pen,
▁schu ine
medi ate
act ion
s ine
▁ter t
lav ix
stit ute
▁ge ur
▁ms r
vallen .
:1 5AM
▁clu bb
▁verw ar
▁mar ge
ut ie.
AP )
▁El k
▁wil den
ic .
▁koort s.
ar itm
▁S i
▁fundamen teel
▁stres s,
▁uit ,
▁( "
h ome
▁ch ole
▁gecorrige erd
▁bijzonder heden.
▁ge oper
▁psor iasis
▁circadi ane
as ilaire
▁voorschrif t
▁c ost
▁ion ische
▁c ard
▁in stroom
▁201 1:
 E
▁kanker s
▁tumor necrosefactor
▁B er
▁(M RI
▁genee skun
rij p
▁mo di
her oscler
▁CD4 +
▁c eft
▁AF ,
ac rof
ol iklin
▁mannen ,
▁inspanning st
▁hydro xy
om a,
act ische
▁P ort
▁intens ive
▁eigen lijk
sp rek
▁jong eren
▁ex pert
▁mg/ ml
▁bru to
c it
▁sp ie
daag se
defect en
b c
form eerd
pl anten
k lin
▁-C on
▁[ ()
κ B
ge gaan
▁e ster
▁vere is

 .
/ 100
ervo ir
-1 30
b uik
▁W ee
▁no te
um inium
▁act in
ui del
▁mach ine
▁h arde
:40 AM
▁ch eck
▁uit scheiding
▁han dicap
vir ussen
▁diure se
▁t je
▁bilateraal ,
▁tel em
▁bloedsom loop
▁zon ne
▁op leiding
alis klep
pro fen
▁artikel en,
M on
▁En gel
▁TH E
▁schu if
▁LUNG S:
▁voorspell er
▁Min im
▁CRT- D
groep ,
pro these
▁M RA
▁Soc iaal
▁consolid atie,
▁middel bare
▁theor etisch
a. v.
aort a
▁hom ologie
▁kw art
▁lup us
▁val idatie
▁L i
ab l
ic ag
▁min .
:20 AM
▁ iemand
▁vrijk omen
▁Special isten
▁c losure
▁s lank
▁plaat s,
▁gereg uleerde
▁([ZIEKENHUIS ]
cul en.
▁c all
▁HC l
▁marg inale
▁groe is
▁micro scopie
▁ge waarde
▁S UR
▁literatuur .
ag glut
▁ER K
▁[image00 2.jpg]
▁1 21
▁L os
▁zogenaam de
▁fosfat idyl
▁ouder lijke
▁bloed ing.
▁lever functie
▁ader en.
▁sigar etten
▁le arning
▁beleid .
ot ax
-b ut
▁Me ch
▁verkla art
▁T c
ific ation
A IL
▁verwaar loos
▁cont ouren
▁doorgemaak t
glyc erine
struct urele
▁aan passen
ot is
in dex
▁drie maal
' .
u ite
ach ycardie
▁immuun responsen
ver tra
▁Voel t
▁Ont slag
▁ort host
-Co A
-antilich amen
▁w oord
▁verm ijden
▁bif urc
▁sub arachn
S ).
v rucht
▁l en
▁G u
▁CT CA
▁mg/ l
drain age
▁bemon st
▁st atische
▁linker atrium
2 A
▁aneur ysm
▁medicamente uze
▁diabetes ,
and acht
AN D
▁M HC
▁Bij ge
CC )
s im
ster fte
z uiver
▁S inus
▁minim um
▁voe den
tro fie
Reg istratie
▁sens ib
▁M ann
▁mast oide
or azepam
▁superie ur
verb inding
gele gen
du idelijke
B A
us )
▁transcriptie ve
▁LYMP H
:0 1
az ool
▁s iRNA
6 *
▁vergez eld
▁middelen ,
▁ongun stige
▁z uig
▁NT G
▁cel wand
▁migra ine
▁an is
▁vertoon den.
▁F OL
▁Insul ine
ou ders
▁Be kend
▁operatie kamer
om t
▁B T
▁glomer ulaire
o qu
vascular isatie
▁horm onen
▁effusie ,
▁hydronef rose.
st abiliteit
▁nauw elijks
iel d
D '
▁config uratie
▁H al
▁3 0,
r ent
▁maligniteit .
re par
ary :
▁sluit en.
ijk omen
/ [PERSOON]
CT )
N e
p )
▁j ongen
▁toe genomen.
▁int ron
iat rische
-v ari
▁P atiente
▁z ussen
-X II
▁academ ische
hydro gen
▁Brief 
Brief:
▁B aby
▁ei eren
▁huid .
▁ver vorm
▁ect op
di oxide
▁st opp
k osten
▁+ B
▁beh oort
is atie,
ot s
▁vl g
▁Vragen lijst
eren te
▁( AS
▁MCHC-3 2.
con trol
▁Ch lor
▁t au
▁ab ort
se ct
▁pleura-eff usies
▁antibiotica :
▁neuropath ie
▁hier onder
▁ge gaan
N G
be vattende
▁inter fac
▁- G
▁over weging
s land
v ious
▁in clusie
eerbaar .
▁overeen komst
▁non- tender,
▁pasgeboren en
ox aban
▁Uran ium
A2 DS
▁bede kt
ab ine
▁verho gen,
▁bevestig t
ver kal
ri aal
▁induc eren.
▁soep ele
▁(F R)
▁ge ste
-c-c-c-c -c-c-c-c
▁lever ziekte
▁(R e
▁elektrol yten
▁knoopp unten
▁f ysiologisch
▁toe ,
▁A H
▁K on
▁2 8.
▁maak t.
▁p s
▁HB V
▁St age
7 :
b an
▁bar rières
▁Prof ylax
p te
▁R ho
▁hyper t
▁struct uren.
▁toe komstig
of oor
▁re ag
▁CRE AT
▁resp onden
AS :
▁## <DATUM>
kno bb
- ec
igheid ,
▁lon gen.
ig ra
▁shif t.
▁niet -c
▁bloed glucose
▁arbe id
▁flu ctu
is per
▁Sim vastatine
▁aangetoon d,
▁Q 24
-b eta
or .
▁g b
▁port ale
▁eigen schappen,
ar me
▁A O
ion ine
▁pre cursor
sc reening
▁ont spanning
reg ime
v iol
cons um
▁I D:
omer ase
▁darm ,
ocic ept
ust ained
- min
J ECT
▁VAP :
den se
OR G
▁Ze ven
▁tan dem
▁g adolinium
ire :
▁H SV
inter ventie
▁w inter
▁S OD
▁aange pak
▁pseud o
sp annen
i gens
▁weefsel s,
klachten .
▁belang stelling
oos heid
ist ar
metast asen
▁b iv
ycl ine
▁controle ,
▁ob ser
ver gro
▁oe dem
t umoren
vla k
▁medic atie.
▁uit barst
▁STE MI
▁elektro de
▁(P &lt;0,0
▁toelat ing,
TR O
sla cht
▁period ieke
▁ster ker
▁be moe
regel ing
▁kon ijn
-2 7
▁omstandigheden ,
▁-P ost
▁Kw aliteit
▁genee s
i ven
ru k
▁laborator ia
l d
▁le vel
▁5 )
schap s
▁pre klinische
▁hersen gebieden
▁stroom op
▁V loe
han gende
rij e
▁ip sil
ject en
▁ze kere
▁S oort
▁occip itale
▁HE ENT:
▁c ut
▁glyc os
▁eff iciën
▁verkregen ,
▁con stru
▁beiderzijd s
▁f acet
▁h yster
▁vergele ken.
▁5 ,5
:0 8
▁we kelijk
▁voor uit
oel ating
▁gede eld
▁Sec und
ant i-
blast oom
a ur
stechn ieken
▁geï mmobil
co de
▁peric ardi
▁idi opathische
ar ium
fet amine
▁S EM
l ite
▁sp oedeisende
as one
ve st
▁b anden
:50 AM
W )
omet h
▁l ens
▁oplos baarheid
is on
▁f us
merkt .
▁(He ad)
▁moment .
▁urine weg
▁rec idieven
oplast iek
▁F our
- voudige
▁(c ardi
▁ge lat
▁t ool
▁D F
▁Stand ard
as me
▁verw achten
(2) O
▁2, 7
▁PANC RE
▁B ro
▁in nemen
ru chten
▁ch im
z amer
▁Rhythm )
-k D
▁Soft ,
▁cel m
om an
el lo
▁werv ell
▁[DATUM] )
▁tran sc
-geb ied
▁( min
▁depressie ,
▁( 0,0
y lin
▁ant ik
▁Hoog te:
▁borstkanker .
▁(I n
▁10 8
▁ar men
▁B eper

O ver
:0 6
▁m ug
▁co umadin
▁insul ineresistentie
▁U P
-in fusie
▁system en.
▁U p
▁CV R
ron g
▁Dien st:
-A merik
in -
▁allo gene
▁we ig
▁vergemakkelijk t
▁gewee st,
he pat
▁lar ven
nauw keur
ari aat
sp ray
▁MIR ADS
▁me vrouw
▁g ift
h h
▁T-lymf ocyten
▁P e
▁M E
▁vertal ing
oor ten.
▁gest abil
▁oplos baar
▁cons istentie
▁(P T
▁wervel slagader
▁neurolog isch
ijft ig
ü m
▁LAD :
▁-O p
▁in gev
ee ch
rom osoom
▁m eg
▁m ell
▁2 6.
▁d s
▁tra den
8 *
-C -C
▁inter ageert
proces .
▁retroper itonale
▁H N
- la
▁tablet ten
▁2 3,
-geb ruik
al bumine
▁D H
▁rel ax
-h als
:2 3
▁Gez amen
0 1
▁linker b
▁(Radi ology)
▁osse ous
▁anal oge
du les
▁sp ut
▁Proces s)
-1 1)
▁c ijfers
▁Di agnost
c r
diën ten
▁aut omatisch
schat ting
▁p oort
▁anastom ose
▁2010 :
▁di eren,
▁gem on
▁elektro cardi
▁illu streren
di vid
E os
herap ie,
▁ma ïs
activ ator
d in
▁ge ometrie
▁voor -
▁na delen
tran sport
▁k eren
▁grootte ,
▁Neurolog ic:
▁levensbed reigende
▁om zet
ge ert
▁ged aald
U K
et jes
ide -
▁Onverander de
▁in hib
▁model .
af stand
▁2016 :
▁vest ib
▁antist oll
f low
▁S PO
▁t omografie
▁georiën teerd
▁dij been
▁(A mino
mar kers
ot ox
et an
velop ment
▁2 1,
gezondheid s
elz ucht
▁suggest ief
f rontale
▁oste omyel
t ic
spor ine
▁AF .
▁un iform
▁( als
her kenning
ff iciëntie
▁V EGF
lip idem
n )
- clip
ant s
▁( 60
▁Ch ina
▁cel groei
▁lig gend
 T
▁ne ven
rie p
▁alom tegenwoor
:0 2
▁O ct
▁up date
▁impression ion:
dru pp
▁polym eren
opolys accharide
-tran scriptie
▁syn chron
con omische
▁wordt .
▁Cl -10
▁C AL
iss ue
▁11 5
▁re section
▁F en
▁sp el
maat regelen
▁wit hout
▁kwest ie
in den,
▁maak ten
▁aneurysma .
w ite
remm ers
t of
▁st elde
con dition
▁H EM
▁F T
▁hem idi
▁gew ogen
inesc entie
▁hiel d
▁radi alis
vari anten
at es
▁p ub
▁Meet waarden
▁verla ging
▁Ver tra
▁d r
▁am put
o in
veill ance
ill er
-f luor
▁u re
ax el
▁Phos -3.
▁gem odule
▁( di
▁Ram an
▁op gaande
▁f x
s ;
ant iële
ol aterale
ur ige
4 00
os m
re ek
her n
om od
▁versnel de
▁(1 .
▁stab le
2-V ASc
-s oorten
or p
▁kw adrant
▁E D,
/sec .
amnest isch
▁k oel
rin cip
▁24 .
▁regurg itatie
ag ulatie
:2 4
S t
▁C EN
▁ge duid
▁gel digheid
▁bemon stering
▁object en
P 1
sc en
AC E
▁chem icaliën
▁alk yl
ve di
rache al
▁A mino
▁el astische
▁2, 8
te kening
▁vrouw tjes
var ium
▁mon itoren
B ij
up pletie
▁qu a
▁sectie s
▁] ,
▁ST OP
an o
▁J VP
▁in stellen
▁w rijven
w ww.
▁k iezen
isol aten
▁aange taste
▁formul ering
▁stim uleert
▁gel dt
▁ze bra
▁tum orm
C ),
▁K lachten
▁K want
opt ies
▁ant rop
aryn g
▁exp an
ser veerd
▁spre ek
▁sch et
▁kolon ie
ect oren
▁concurr entie
▁ar ach
▁pulmonaal venen
▁PG E
▁dra st
▁weerspiegelen .
AB LE
▁cont our
▁ij z
▁ol factor
▁opio ïde
kundige )
▁bij zondere
oel ichting:
▁all elen
▁norm en
▁PR BC
▁on g.
et hy
arde ffusie
▁reactie f
:5 8
et her
u gel
p ra
v oeg
re dig
▁vre emde
▁eierstok ken
ant igenen
▁Cor onale
l ys
▁verhoog den
▁aort asten
▁geïmple menteerd
▁cult urele
▁3 :
▁gebieden .
gg gg
osit ion
ho of
CA )
▁p lex
▁hoofd stam
▁config ur
ro kken
ati onen
▁ongewen ste
▁hemat oom
-s ite
-8 .
▁maag darm
▁neur onen.
qu ired
7 *
▁on omk
▁omvatten .
zi atische
▁eth ische
▁N orm
▁en han
▁wort els
▁ge elzucht
▁med ul
▁decenn ium
-t o
der ,
▁gal bul
▁getransp lante
▁SARS-CoV -2
▁pig ment
▁In ch
ac a
:4 8
▁s elen
▁T ien
:2 8
▁b atterij
▁radi ologie)
▁s ek
▁cytos olische
mg ,
▁P FO
▁2 7.
▁mut ante
▁verw arm
▁Gen :
▁plaqu es
▁periode .
▁tre kken
▁home ostase
:2 6
▁vergro ten.
▁met :
▁O H
ra ger
2+ ]
:0 7
os ering
ver wezen
ierfunctie stoornis
▁opt re
▁vermoe den
▁geluiden ,
▁-( Guiding)
▁contra st:
▁blan ke
kanker ,
// www.
▁in derdaad
▁tar we
▁hui dig
▁ant woord
▁Al ert,
▁Gen ee
▁beïnvloed .
▁Mult iv
▁13 7
▁m alen
▁don kere
▁biofil m
▁sign al
-pro motor
an ten,
-t he
spann ings
▁G E
▁pro lifer
▁M eest
wee gt
rom ycine
ium zuur
▁overvloe dig
U )
▁bestu deren,
▁maand ag
c ulatie
▁stab ilisatie
:10 AM
-ant igeen
▁radi ografisch
st rom
um ol
▁ontwikkeld ,
▁plate au
▁AC h
▁respon sen
:3 3
▁C BC
part um
( 19
▁uitvo ering
▁rechter ventrikel
▁Scler a
de kking
▁G al
id on
▁(1 3
▁nu chtere
▁Niet temin
▁N- acetyl
▁geregistre erd.
▁### -##
▁sche iden
▁verbet erden
▁vereist en
▁overt ui
ran olol
AR Y
▁intern ist
-9 9
▁obstructie .
▁fys ische
▁gen .
hoog te
▁ar rest
▁Niet -
on ch
▁k il
:2 2
▁stro men
▁## ,#
ill ige
▁Al bumine
rit or
ap ar
▁K -4.
▁sept ische
bloed ing
▁on even
dem on
▁blijk en
1. 5
▁stra k
▁borst voeding
▁NM R-
ine- afhankelijke
▁CH F
:Nee
P acemaker
▁mo de
op brengst
ru b
je .
▁alle en.
IL L
▁uitstre kt
▁geverif ieerd
▁vertro uw
▁ γ
▁hemat ocriet
F 1
w in
centr ische
uur :
▁controle s,
▁kruis ing
▁ontstekings reactie
iteit .
▁van avond
▁N EG
▁c r
▁analyse ,
rug gen
▁(T N
n g
▁best uur
▁gest ructure
▁2 2.

Be handelplan:
▁T huismedicatie
H-H- H-H-
▁kopp elen
sp raktijk
▁waarde vol
▁nacht elijke
▁optim aliseren
▁R -
mat ch
▁t abel
▁Abs Eos
eld ,
g alact
▁HT N
▁ag ar
bep aling
▁G .
-eiwit ,
▁gedaan .
:0 9
la ps
TR IC
2 D
▁getest .
▁dop aminerge
( 9
▁ontvang ers
mmHg ,
ietserg ometrie
▁sol ide
ob lasten
▁n asale
kanaal .
▁C- terminale
▁ep itheliale
er ium
vorm ig
▁I sch
min ste
▁overw innen
:2 7
▁hypoden se
▁over gezet
- RNA
op ulatie
▁sub groepen
c er
▁L 1
▁hartslag ,
r isic
▁re duc
▁tumorg roei
▁radi oloog
▁Profylax e:
deel ,
▁be mid
▁P anc
▁# "
or ac
um p
▁I tal
▁slecht ere
▁ne oplastische
▁-K linische
score :
oc clusie
ru vaat
am plitude
▁trans vers
en )
:0 4
▁bloed vaten
▁reanim atie
▁laag .
▁lead :
▁de lt
▁F ran
▁represent atieve
▁for amin
B NP
▁M Y
Z ORG
▁z ui
▁k ath
▁NH G
▁mis vorming
▁f lux
▁Intern ational
▁Prim aire
▁O D
( +
-re actie
▁pres yn
▁zw avel
-p ost
▁opname :
▁PP AR
▁sla pel
▁ER CP
▁hoog waardige
▁R P
▁syndro me
rag ers
▁he art
▁be elden.
▁ledem aten.
▁effect or
▁( per
▁ac cum
iat rie
▁tub ulaire
▁emp hyse
▁C G
ï teit
ul ation
uit wisseling
in jectie
-p an
▁gere kru
mut aties
▁and rogeen
▁fen ol
▁afwijk ing.
:3 8
▁nove mber
▁onge voel
▁vastge houden
menopauz ale
ocardiocardiocardiocardi ocardiocardiocardiocardi
] :
▁f ace
▁behandel d,
▁0. 5
= [ID],
▁11 2
▁A /
:0 3
▁stoornissen .
▁rood heid
:Nee
 Hart
▁soort gelijke
-res istente
A ).
▁th at
▁hom oloog
met hy
▁( 5)
▁item s
▁Ont kent
ee f
▁NF -kappa
▁l i
▁voldo et
▁DD D
▁p orie
▁gerapporte erd.
▁Nad at
mmHg .
w ork
L ast
▁(D F
l la
oten sieve
S p
ch ond
▁AJ CC
▁radic alen
ocon stri
B :
- niveaus
als nog
▁zo dra
▁linker -
▁S y
we gen,
A2DS 2-VASc
▁bij gedragen
il lo
▁geë x
ttp s:
▁subst antiële
aal :
▁activ ator
▁bevre digende
▁16 S
▁CH EST
ot a
▁zw em
▁s w
▁pers istentie
ker .
▁m aten
( III)
▁diabetes .
▁gere gel
ar d.
▁mengsel s
aarm ate
ne ut
 [DATUM]
▁beg repen
▁Disc la
re ductie
▁darm lussen
▁Procedure )
▁Discrimin ation
▁3, 2
▁Ne ut
▁I le
ere d
i deren
▁P y
▁I de
▁metast atisch
▁afgest emd
▁RS BI
▁13 8
▁MD CT
▁mn d
▁( 6)
fract uur
h am
▁re visie
▁pro -
insuff iciëntie.
▁z we
▁vaat lijden
asp ie
▁Med ische
ar kers
al .
▁nucle us
▁wervelkolom ,
▁dal ingen
omegal ie.
▁A BC
ende d
▁- I
-e igenschappen
t et
▁t reedt
▁t av
len .
▁c ris
M ),
▁sh ift
▁ele v
▁gal act
▁Hemat ocriet
▁En kele
▁v .
F e
▁In hal
▁Wer eld
op or
kom en.
▁membra ane
cur s
an at
nummer :
▁b or
▁v ra
n d
▁25 .
c id
▁w inst
▁ontwikkel ing,
▁kla cht
▁t ac
▁(ret ard
▁N aarmate
ass ist
▁R I
▁al t
es is
▁datas ets
embry o
▁(1 1
F E
▁pre cor
▁isthm us
▁Aan bevel
▁h iv
▁toen eem
▁verster kte
▁beroep s
▁verkrij g
▁T G
▁NAD P
▁D 2
▁vre emd
▁panc re
▁polikliniek bezoek
gra ft
LO W
▁opgewe kt
▁th iol
opa que
▁plaat se
▁NG T
L ocation
▁gehoor verlies
▁o .b.v.
▁uit slagen
▁( 4,
▁0,0 1
:Nee
 ICD
▁LV H
▁celtyp en
6 ).
▁EB V
D H
▁St ruct
▁19 0
▁hyd rat
▁(Intellect ual
▁TTE :
▁buik wand
dic al
re validatie
vatten d
N K
▁Vol gende
▁on mark
▁insuff iciëntie
▁ver zeker
▁Tot ale
ion als
▁mmol/l ;
▁geoptim aliseerd
▁Vis ual
▁Bas o-0.
▁mac rom
-s er
gest uurde
▁ischem ie,
▁hetero geen
len g
:4 7
/ z
▁men s.
▁mis sen
▁ICU -
▁RCA :
d aan
▁D irect
▁UV -
DAT E
▁ker at
▁B acillus
▁kool water
▁M odel
ch olesterol
K linische
/ 60
▁sens atie
lig and
-1 10
▁in cons
▁bereik ten
▁dal ende
▁cross- section
▁ref lectie
a-aorta-aort a-aorta-aort
g ,
▁( klaring
▁ur ine.
▁amy gd
perim ent
V R
te ken
▁CABG :
ati ere
▁Lip ase
▁cis platine
vol u
quis itie
▁f mol
▁meld de
▁immun isatie
▁int rat
▁un der
▁bel emmer
▁col lectie
/ e
▁disc rimin
medic ijn
▁V als
ot oxine
▁13 5
4 ),
▁p g/ml
agonist en
▁Lact aat
▁ep ithel
▁verdo of
▁[(( (
▁architect uur
▁onder houden
▁de scri
▁toege paste
▁veel gebruik
▁onver kla
▁getoon d
A Z
oc ulaire
cur ve
g ov
▁slacht off
is sen
▁oste o
▁-S t
▁foto 's
k ingen,
▁verdwen en.
▁prepar aten
arb onaat
▁Mg -2.
t om
▁v iel
ro me
▁rem den
LE :
s uik
▁systeem ,
▁vloeib aar
▁beoordeeld ,
over gang
▁bere kening
-infectie .
▁nucle otiden
itu ut
▁6 ,5
▁(Ne oplastic
▁verl open
RI UM
-g luc
▁d acht
i kende
▁O edeem
▁op roep
▁( int
op slag
▁beeld .
▁In dic
verwij dering
tr ig
- aan
ell igen
▁Abs Mon
▁Leeft ijd
▁arter ia
▁on duidelijke
H O
M R
▁sem i-
▁ongew one
▁vaat ziekten.
T EN
▁Discla imer
▁Sc ore
o al
▁L O
▁12. 5
lox ac
▁D ISCH
▁On c
OSP ITAL
▁re gen
u ken,
▁hoofd stuk
-en ergie
▁weerspiegel t
▁v ee
ak ing
▁Evalu eer
mod aliteit
p ad
▁minu ten,
▁neutro pen
▁begele id
lecain ide
▁F F
p itheel
▁In struction
▁en dem
ter e
▁apothe ek
▁colon oscopie
▁G y
im etrie
et a-
/ ab
▁z agen
▁EG D
▁schrif telijke
os arcoom
:3 2
▁method ologische
di a
▁un iforme
is )
-reg io
▁risico 's
:2 9
▁H ui
▁p ic
▁Vro ege
e b
:4 4
▁Gem iddel
▁neut ralis
▁palpit aties
▁methode .
▁pol it
▁I r
it em
▁water .
▁CD 3
:4 5PM
▁conf li
▁geplaat st,
hyper trofie
▁Be handel
icag rel
aan s
o assay
C N
fib rose
▁verhinder de
os ac
if ug
▁le kkage
st art
▁Cro hn
▁15 %
ings systeem
▁micro RNA
isch-ch emische
tro kken
▁no w
▁anicter ic,
▁Or g
▁s odium
plan nen
▁gal wegen
:5 7
▁gele ide
1 =
▁proxim al
▁stim uleerde
oï den.
▁dram atische
l lu
le menten
▁F EN:
▁magn et
o un

 Gewicht
▁( MP
on y
▁eet lust
alt ime
▁AM L
▁gez ins
of loxacine
S ),
lig gend
oliklin ische
▁con jug
▁boven zijde
▁In stitute
▁do ele
oxy genase
▁Can did
▁uit een
▁geman ip
er c
aff initeit
-m-m -m-m
2- jarige
▁voor schrij
▁syn ap
▁init iëren
▁letsel .
▁h arten
▁200 4
- Z
er ste
▁t rek
obacter iën
ish man
▁skelet spier
z igen
▁P OS
breed te
r yl
id a
vo ering
EL ING
ol in
▁veroorzaakt ,
-st atus
▁(klaring ):
▁haal baar
▁[PERSOON]: Medicatie
it air
opla sie
▁daar mee
:4 6
▁verst oorde
▁V ari
ant .
▁or der
▁vul ling
▁At heroscler
s onde
▁ger ep
▁G abapent
odi lat
ellect ueel
lass ificatie
▁H als
ier ,
▁Com munic
▁S ymmet
:5 9
▁laten te
:3 7
▁don oren
▁V O2
im ens
▁micro vasculaire
ge tatie
nel le
▁t amponade
▁onzeker heid
▁Soc iety
▁W istar
▁fac iliteit
▁ver du
ab olisme
▁multif ocale
▁T ISS
▁Al d
▁ad duct
ial en.
▁Cre atie
▁(NamePattern 4)
it t
▁minst ens
▁Univers ity
▁ongew oon
▁mar kt
▁gele den.
▁199 8
▁beweeg lijk
▁macrof a
▁farmacokin etische
▁hersen sch
ess ante
▁3, 0
▁weder zijd
▁Blo ot
▁Con s
rel aties
▁x 2
▁do den
ten tie
▁hart ziekten
▁bl ock
▁test ten
▁aan ra
▁le s
con stanten
▁hand matig
▁Aan van
▁DLP :
▁screen en
ot on
▁lichaams beweging
▁re modellering
▁verpleegkun dig
hydro lyse
in aat
alis atie.
▁gecon dition
lam y
,5 %)
▁( ex
▁[ C
▁fluor es
▁m apping
▁S 2
di versiteit
▁blokk eren
▁pak ken,
▁peric ardeffusie
▁all ergie
▁rele ase
k laag
▁besch eiden
ri de
▁long ziekte
▁M am
ome ch
▁d y
arch itect
▁F c
▁overvloe dige
on afhankelijke
▁sat s
ronen microscopie
▁hart team
▁O N
▁herh aald
▁sub types
▁Evalu atie
coëff iciënten
▁hom ogeen
▁soc iaale
mid dag
▁ongecomplic eerde
▁L EG
armac ologic
▁C och
ig er
:4 9
▁foll ikel
▁sulf aat
con jug
▁A NI
f rik
▁verdu ist
▁glut amine
▁hydro cefal
ne a,
▁N ur
▁ro mp
sp lan
:1 5PM
▁conserv atieve
:4 2
s ).
s u
▁al .,
as oom
▁( ED
▁chol inerge
gene zing
▁hydro c
▁AL AT
▁verschijn t
at ings
F I
▁oriën t
- niveau
:5 3
▁p lu
v eertig
▁temp o
▁N ,
lin king
versch il
▁verk eerd
▁pl ann
mis bruik
H L
OB JECT
ik keld
-ex press
▁voor kant
▁risicofactoren :
▁be kle
▁S amenvatting
ve ctor
▁act ueel
▁ter ritor
▁10 7
embran e
acchar omyces
ne us
▁b ijkomen
▁pancreas ,
▁ex em
▁In structies:
zonder heden
:4 3
▁express ieniveaus
asp ir
▁RBC -2.
▁Verhoog d
OBJECT ID
▁result aten,
▁Ao I
ondersteun ing
▁ele ctieve
at t
▁bew on
L AD
▁ie der
▁( 80
▁met formine
▁hyp oxische
▁ges ub
▁stimul eren.
ox iderende
te k
ct omie.
ocomp atibiliteit
▁niet -re
▁f eeds
▁Im ag
▁sta af
▁DNA .
▁n al
▁13 9
▁con junct
▁M K
aris on:
▁n arc
behoe fte
:5 6
re sectie
▁bewak ing
▁S ympt
▁G FR
af beeld
▁mogelijk ,
rect omie
C- lijn
d r
▁path ologie.
▁respon s.
▁evidence -based
gen en,
ock et
▁tromb o-emb
▁AS D
▁conc epten
▁zebra vis
-fen yl
-NEG -NEG
eren ce
▁toege diende
act rim
ben zo
▁cor rig
spreking :
▁hart katheter
lamm ing
I g
▁B 1
▁O 2-
▁verniet iging
▁contractie le
▁Fe der
kwab .
▁syncop e
▁be d.
om b
verz am
▁bas en
▁bepaal den
CVA :Nee

▁c AM
ad mission
acry lamide
:3 9
▁kamer temperatuur
▁F GF
▁N aar
▁m t
I K
tra umatische
a-a-a-a- a-a-a-a-
▁f les
entie .
▁B MP
▁BON ES:
▁beschouw d.
▁M oe
▁orb itale
st ab
▁microgram /ml
▁Ter min
▁ch irur
▁° C
▁EO MI,
i atie,
ram idale
▁infil traat
▁hecht ingen
▁L CA
▁k nel
▁R AD
z in
▁transcriptie factoren
▁Q8 H:PRN
▁x 1
▁sim vastatine
▁bekken -
▁sup rac
▁flexib iliteit
▁T ussen
▁stri atum
▁Erg ometrie
▁op tra
▁vo eten
( 6)
▁### ,
▁3 -4
eert ,
▁K .
▁v aten.
▁we sterse
▁S Q
d ing.
osept aal
▁S la
▁Instruction s:
- 70
▁Q24 H
ide s
▁best raal
la sse
form ance
( 10
le m
▁5 mg
▁prof ylactische
▁al hier
▁N eu
7, 8
▁T AP
▁G nR
▁F in
form at
▁kwets baarheid
▁bev onden
-ge koppelde
▁correl eerden
ook t
oten t
Voor naam
c atheter
▁L BTB
▁inspann ing,
:5 4
-b re
▁ambul ance
▁uur ).
▁k am
▁H is
▁paras itaire
▁G elijk
▁voorlop ig
▁recht op
▁ ia
ital op
p eptide
▁C /
▁mell it
▁re -
:5 2
▁In vent
/ 50
:3 6
▁st olsel
R 1
▁Sec ret
- ->
▁immunohistoch emie
▁h eem
potent iaal
▁houden d
alis eren,
▁( waar
▁pak ken.
-mole culen
▁al ert,
▁ongebruik elijke
▁L5 -S
▁appar atuur
▁aut osomaal

M eest
om mel
▁(M D
uter iene
▁ged om
ath orac
ot ic
▁N eg
c yste
▁com orbiditeit
il y
▁zo et
▁golf lengte
▁gemodific eerd
▁voor naam
▁verminder d,
▁(F )
▁gevisu aliseerd
▁verl iezen
▁pass age
:Nee
C ardiomyopathie
▁uitkomst maten
▁p estic
▁Qu ality
▁Experim ent
▁SN :
osf eer
-di st
▁toelat ing:
▁verdw ijn
▁DI AG
▁onvolle dige
B el
▁a pen
▁-A nt
ys is
VALUE 1=
▁hel ix
▁transm embraan
fol ders
ont an
▁C I:
▁e isen
▁hippocamp ale
CP K)
▁s ho
▁n oor
▁syndroom .
:Nee
C ABG
▁wand bewegings
▁fe ite
▁art h
▁verbet erd,
▁subc orticale
▁open baar
let tend
▁50 mg
ORM AL
▁co -
▁defin itief
cell ijnen
▁gekarakter iseerd.
:3 4
▁Myc obacterium
▁p itting
▁ax onen
▁RDW-1 5.
▁C57 BL
▁bloeddruk ,
▁Gro ep
B AN
▁ziekenhuis cursus
▁kla agde
▁gemodule erd
▁inter essante
▁radio actief
▁influenz a
-clip -clip
▁sl ib
▁dos erings
id ische
-n it
▁P IV
▁t reft
ozo a
▁G olg
▁Ar g
▁pre frontale
▁agen t
▁resulte erden
UR L
sel s
heers ing
▁20 mg
▁PK C
▁W W
az ijn
▁olfactor ische
▁[( Hospital
▁elektron isch
▁verwij de
▁met hanol
▁W AS
omp lex
adren oc
▁pyl ori
aser emmers
▁bas ilaire
nc RNA
▁Borst :
▁at rof
vent ies
lact am
▁tumor i
▁modul eren.
antie :
lester ol
▁st omp
▁scher pe
L ymp
b iv
fib ro

 Geslacht:
▁we an
oagul antia
▁A ORT
kl ist
▁kostene ff
weer stand
route .
OBJECTID =[ID],
▁geï llu
ule ert.
▁verbet ering.
ob lot
▁C lo
▁dis loc
v ulaire
ent ies
ZORG INSTELLING
▁Poliklin ische
▁LV F,
ept oren
OBJECTID=[ID], VALUE1=
▁dox orub
▁lig gende
▁ro bot
▁Herh aalde
con azol
▁oste oblast
▁ammon iak
sen sor
▁norm .
▁fys isch-chemische
▁retroper itoneale
▁( SO
lau did
▁2, 1
slijm vlies
▁C ox
regen eratie
▁cor resp
▁O ral
over leving
▁per spectie
acchar iden
▁Rec idief
o -c
▁misselijk heid,
▁voortplant ing
▁R a
us :
▁(S et
ien cy
fosf amide
▁procedure ,
▁hist orische
LE EN:
in delijk
▁complement aire
▁inter vallen
▁diast :
I AL
ri end
▁drainage .
▁stier ven
ster ase
▁pol sen
ich amen
▁Radi ologie
bev order
 [PERSOON],
▁Samen gevat
-b en
O TE
▁M 0
behandel ing,
▁geï mmun
:Nee
C ongenitale
teg ratie
loed druk
t ussen
▁tussen liggende
ï eve
ubl ieft
▁B SA
▁post syn
▁aant ast
▁hem is
▁lith ium
app el
▁linker hand
() ]
▁geschikt heid
▁s ets
bi ologische
iver y
isme ,
▁V oed
▁kool hydr
▁D T
af geleide
▁kandid aten
▁Patiën te
▁hartklopp ingen.
▁v ull
▁brad y
▁r ill
oek om
▁x -ray
st ublieft
ib el
gel ,
▁Function ele
▁door gegeven
▁intra cellulair
▁( j
▁knoopp unt
▁ge sequenc
▁UR EA
m ium
▁1dd 1
▁antibiotic um
▁up regulatie
▁mot iv
f oon
▁MRI .
-be vattende
-s electieve
▁S t.
▁beeldvorm ing.
▁Chem ical
▁opgemerkt ,
verh oging
▁rechts drukken
▁7 50
I T-
itor ing
▁ “
formul ier
▁snell ere
▁al uminium
▁halsslagader s
▁beginnen de
▁m sec
-3 1
▁Som s
▁verf ijn
▁borst wand
-N eut
▁uit straling
▁ten minste
-b ere
▁Per fusie
▁endot racheale
▁type: P
▁hemorrag ische
▁z at
cc /kg
▁st il
▁o ther
ol aat
ver g
▁overlapp ende
apopt otische
▁E CM
▁open en
( CPK)
schat te
▁duid t
▁Antwoord :1
▁St ationaire
-P A
▁bevol king.
k week
▁nor ep
af el
▁HE AD
▁prob eerden
im et
▁m elatonine
/ (
▁disc riminatie
▁et ikettering
c ale
▁kant oor
z uren,
▁wandonregelmatig heden
▁h ers
▁chemotherap ie.
▁(F iguur
▁go ud
▁vocht afname
▁ne w
▁( 5,
▁le zen
▁geleid baarheid
▁Fi O2
▁Al kal
▁(C O
▁lan delijke
U .
an amnese
▁B 4-
▁com mun
inn en.
y b
▁tumor en,
▁Ren ale
▁bio actieve
▁b ase
▁regio .
▁comment aar
vent ion
▁sub segment
Ox 3,
▁fun geert
▁therap ie,
▁K ore
▁in won
sm ateriaal
sproces sen
▁gest uurd.
▁UN IT
at ran
▁Protein )
▁MCH-2 9.
▁con stitut
▁prote ïnen
▁Abs Lymp
ad her
▁stijf heid
▁vert ak
▁stent s
▁bios ynthetische
▁disc rep
▁kwal itatief
▁Substance )
▁vir t
▁(I m
f )
▁en z.
AT P
▁maag ,
▁sonde s
z ,
▁indic aties
ar oxaban
sche ur
breng sten
▁ana erobe
▁samen gevat
:3 1
▁B B
▁klepl ijden
- lijn
▁bru ine
▁[ H
▁Aort aklep
▁gele idelijke
▁k eerde
▁pathof ysiologische
▁BLE ED
or eg
ri ax
▁F EV
▁Ig E
nt slag
▁(i ii)
A E
N eut
o omp
▁gro ss
j j
elect iviteit
▁ar ray
▁patho geen
ver werving
▁f as
vari atie
on ad
fie le
▁(Sp ontane
▁P lavix
▁j icht
g reep
oor d.
k olon
-m od
-A frik
▁f atale
▁w ho
▁vlucht ige
▁long functie
▁fase .
▁vlg s.
▁glyc erol
▁Ant i-
kun digen
▁subclav i
Y N
op t.
▁gar ander
▁hydrox yl
am ot
p aren
▁Tromb ocyten
▁af ebri
g ru
▁gev uld
▁extra -
ole culen
▁Recht se
▁H ou
▁elekt risch
▁Act uele
ad ju
▁art s-assistent
▁beheer sen.
▁((** 21
dat abase
▁monokl onaal
▁V ader
▁NAD ,
an ium
lact ine
id ylin
▁insuff icientie
▁7 5%
▁geboorte gewicht
▁vertegenwoordig t.
▁on vrucht
▁midden oor
otrans ferase
▁( 40
test .
VALVAL VALVAL
▁bere iding
▁ch est
▁HG B
▁B la
▁up regul
▁ver me
▁bo ot
▁H M
▁g ap
U ES:
C O2
▁z ag
ie uze
et hanol
▁hier in
il t
▁(1 4
▁structuur .
▁hartsil houet
▁sociaale conomische
▁D us,
▁s jab
▁40 mg;
c ine
:5 1
▁gevorder d
▁achter naam
um inale
▁ad ditie
▁DM ,
▁W T
▁A 1
▁Ag atston
▁art s,
▁syst :1
▁verzorg ing
ond .
▁sc oli
▁rechter long
. 20
3. 6
▁Omschrijving :
▁st uw
▁###; ##
▁T V
▁beiderzijd s.
▁radi of
▁NG :
▁p ract
▁C )
pass ingen
- z
rom itte
▁detect eerbare
▁(Set ):
-AT P
▁ if
▁wil t
iteit ,
▁uitste kend
▁darm g
▁bre dere
▁G V
▁k ijk
iën t
▁w in
nivea us.
▁prec ies
▁glucos et
E r
▁bood schap
▁(d ie
5 -
▁sub cellulaire
▁PANCRE AS:
as semble
▁b u
▁3 7.
▁long volumes
▁ho ut
▁glomer ul
▁datab ases
org anen
▁O c
▁toen eemt
▁pol arisatie
:4 1
▁hier mee
▁Q8 H
▁2 6,
▁V R
▁activer ings
iet rouw
▁f ysiologie
▁T D
ondersteun de
weefsel .
▁vocht .
▁hypot hyreoïdie
▁anti -inflammatoire
▁V I
▁st offen.
▁N ort
▁DIAG NOS
▁V EN
▁t onen.
▁ver ontreinigende
▁pijnstill ers
s ):
pla sm
▁T oekom
▁mg/kg ,
▁gem elde
ul de
▁zeg gen,
▁aantrek kelijk
mut atie
ac iteiten
▁Ex pressie
ite erd
▁gesp leten
i ct
-C SF
18 )
▁de b
▁mal aria
dist rib
▁responden ten
▁k ui
▁waar sch
▁z n
▁opname ,
▁Verpleeg kundige
▁cardio vasculair
▁ver een
▁re mo
lob uline

 K
▁best onden
-st im
▁Ne gen
▁p 38
▁verstor ingen
-b is
▁opgelo st.
elektrof orese
▁b ruik
▁lo zing.
▁vascul atuur
▁t /m
▁Hum an
▁h a
▁ET T
log ische
▁dieet .
h i
▁verwij zen
arte fact
▁proces sen,
▁gedrag ,
▁F .
▁te en
▁ver sla
▁Erytro cyten
▁p 5
/ mg
▁ge han
pat ho
▁kw ik
▁immunosuppressie ve
▁ver se
▁IV ,
tro m
▁k ust
-8 )
▁di vers
▁respectievelijk ,
le ven
/ do
▁(CKD-EP I)
▁h ar
▁U ite
▁FL U
▁Me de
▁anti gene
▁L ys
0 5
▁(E .)
▁geïnitie erd
▁onder bouw
▁bijwerk ingen.
3 A
▁ax on
▁H SP
▁suggest ie
▁Secund aire
▁test en,
u ige
▁(1 99
▁altern atieven
spann ingen
gele ider
▁19 90
▁diep gaande
▁j odium
▁serot on
▁voor ouder
▁leven d
▁klepl ijden.
▁B and
▁ax onale
-con trast
▁E lect
oes ofageale
▁Imag ing:
▁bij werking
odi azep
ch le
▁Bloot stelling
ist hese
▁mult ilevel
. v.
▁at yp
▁f on
▁interview s
▁B lijf
g ing,
▁bijwerk ingen,
ichaam s
deriv aat
te erd.
▁De x
▁metast atische
▁pa uze
▁ontvan gen.
B 2
▁EX TR
groe ifactor
▁duur zame
▁e sc
AT O
▁my ocardi
▁seizoen sgebonden
spro ken.
ere brale
▁(A I
0, 4
ar es
ival ent
il ine
otrop ie
▁gez innen
▁trans fectie
▁la mb
▁down regulatie
▁na use
3 00
▁onder stre
▁ve getatie
art h
HHHH HHHH
▁war me
▁silic ium
▁ECG .
▁(P P
am id
▁res ol
sp in
▁bloed lichaam
se quencing
fre quente
▁de f
anc er.
v reden
▁verb ale
▁famil ie.
▁el ders
▁litte kens
▁mechan istische
ven wicht
▁test iculaire
▁ho urs
▁tr is
▁extra syst
▁atriumfibrill eren,
laag de
▁W ith
▁subt ot
▁2009 :
f ix
▁IN F
▁ge ometrische
▁Strept ococcus
ater al
▁strom ing
▁niet -b
▁belangrijk er
▁wonden .
▁disc ip
▁rechter kamer
▁CK D
▁Over weeg
▁ver los
▁afspraak :Controle
▁z int
▁we et
v ee
▁pap ill
▁bevest igen.
im etrische
cip it
▁V erd
-k atheter
▁W /C
▁o ede
▁p in
▁bez oeken
▁ster kere
ost ruct
▁Q AM
▁comp onen
▁B atterij
▁volgt :
▁biom edische
▁2 20
▁gezondheid stoestand
▁meth otrex
▁stop zetting
▁sterftec ijfer
f ore
et itieve
aal d.
▁G D
ing er
▁functie s.
it .
▁ulc er:
▁R M
▁hepatocel lulair
▁C AT
w th
▁meis jes
▁geconfron teerd
▁g amm
▁diagnose s
g iën
▁C a-
lok alisatie
-t ube
▁max .
▁3 3,
sign aal
ru pt
ep ime
us -
▁(0 ,5
z oeken
▁st ad
s amenstelling
▁tegen strij
▁T :
:0 5
art iculaire
ma ,
- -
▁open bare
stim ul
sp el
▁k loon
-gelab elde
b lin
pijn .
▁INR :1
▁tijdstip pen
ist eren
▁nier insufficiëntie
▁gedifferentie erd
-receptor antagonist
▁neuro -end
▁PAC S.
F ),
▁W ell
ver pleeg
cul en,
medicijnen :
▁test en.
▁ipsil aterale
▁dis ulfide
▁CON TR
▁flav on
▁AbsBas o-
waar dig
▁2 7,
gang s
▁S l
la c
italop ram
oen en
▁voor z
g :
▁structuur ,
▁h itte
▁gefosfory leerd
g re
▁G es
▁(1 8
is ed
▁her vatten
▁Leuk ocyten
▁orthop edische
▁100 mg
▁hand matige
▁femorale ,
osis ,
s nel
▁vernauw ing.
▁a a,
▁K l
▁progressie f
▁ver vang
▁Coron aire
- 5,
▁flow cytometrie
▁0. 9
▁V ar
▁in tense
▁her vat
ke uren
opy ran
ed ullaire
▁nabij heid
▁tr if
▁tra be
▁hersen letsel
▁multip ele
▁gecomplic eerde
▁maal tijd
transplant atie.
▁g ingen
A1 c
-geassoc ieerd
▁Four ier
▁bloed culturen
▁D ag
▁implic eren
▁levensvat bare
m orgen
▁voor gaande
al ingen
▁4, 0
▁ovar iële
isch :
▁con d
▁tevreden heid
▁stroom .
▁inf ra
obut amine
▁voltoo iing
▁v 7
▁(w as
▁af genomen.
N a
re a
y leen
oe gen
P ATI
▁illu stre
▁mot ief
▁immunore activiteit
▁ged achten
u if
-k et
:3 5
▁( medi
▁ged o
▁trac ering
stand aard
▁hypot hesen
▁l ief
▁binding splaatsen
▁acet ab
▁U C
▁ml .
▁af nam
▁pak ken
▁systemen :
▁kristal len
▁wij zigen
▁omvat .
du strie
▁gewor den.
aggreg atie
- wit
ic ip
▁plan ten.
▁C ap
▁schatten .
M V
oo oo
onat rië
▁Mellitus :
ui zen,
▁DNA- methyl
▁SR ,
▁antik anker
▁even eens
productie .
yclo vir
▁log istische
▁bloed suik
▁Da gelijk
verb and
▁op we
ke uze
▁T ab
k orrel
opt ische
▁ex acerb
▁Lev othyroxine
▁neu romus
-r -r
▁gen der
▁vorm den
▁verk eerde
z ichten
▁r itm
▁uitein de
▁p ij
g if
▁PI 3K
L T
▁## ,
▁gec re
O OD
ft al
W ,
▁cl on
ling u
▁gastro- enter
▁leven ,
▁c a.
rij s
aak t.
le )
▁corticoster oïden
ra me
▁ex tens
▁rh in
▁gecon serveerd
▁product )
▁gl i
re cht
- score
▁Disc riminatie
la zen
matie k
rom agnetische
5 00
es ie
gluc os
▁bloeddruk .
▁ber icht
▁in komen
▁P acemaker
▁toe passen
▁E mb
▁toegevoeg de
▁geë lim
▁deel contact
▁Ge dilat
▁9 8.
▁laesies ,
's )
▁L y
N 1
▁am t
▁( door
AL E
▁lon gen,
▁f ront
▁nor adren
mass a.
om ics
at omen
id ose
▁Reg adenos
▁re gels
▁( ook
▁druk .
▁blokk eerde
▁pul l
an it
▁elektro den
▁granul ocyten
▁be dien
▁aminozuur sequentie
▁synerge tische
▁T ylenol
▁neuro loog
▁vervolgconsult :Controle
verander ingen.
▁schijn baar
▁pijn lijk
▁(P R
at aal
- ma
▁Sulf ate
or en,
-b p
▁zuiver ing
erg ische
V E:
genese .
▁gevoel loos
▁IC A
:40 PM
▁sup pletie
▁Hel aas
▁- TIMI
▁medi aan
▁pol aire
.0 "
▁not a
▁SO FT
▁bib liotheek
▁zo veel
▁MAP K
▁bewe gende
▁prostagland ine
geïn duceerde
A- A-
▁Cont act
▁Bo wel
▁ammon ium
r atific
Y )
▁inflamm atie
▁B ere
L C-
▁beper ken.
▁ge ac
ad ox
▁dysp nea
▁aangetro ffen.
i ra
termin us
P S)

D iabetes
▁HV Z
▁Perif ere
patiën ten.
i ater
ul um
▁spec iaal
▁( ch
▁gem odel
▁radi opaque
▁du al
p neum
▁IL -10
verhoud ingen
1 50
of actor
▁gezondheid .
▁TNF- α
-indic aties
▁A /P
▁l ib
han kelijk
z ingen
▁contact en
▁CR T
▁T RA
▁Lung s:
▁opho gen
▁Inter val
eng th
▁kalib er.
▁gangl ia
▁hypog lykemie
▁B K
▁T ub
▁j eu
▁at orvastatine
▁( BC
herap eutische
▁Ex p
▁zorgvul dige
ket ens
ost atine
qu in
▁vas opress
▁Omge keerd

B MI
▁cogn itie
biot a
b loot
ver zeker
z eem
il ,
▁w k
▁U NE
▁uit drukking
zuur .
▁gede comp
▁t oxic
▁op aciteit
▁tegenover gestelde
▁chromosof ische
▁k cal
G I
wijd te
▁cycl ine
ings vermogen
▁over gevoeligheid
▁zon es
▁gestabil iseerd
ger apporte
▁(1 6
kwab ,
▁ol d
▁Comment :
struct uren.
▁long vaat
-sign alerings
ten de
▁sp lic
▁con gen
-de ficiëntie
▁vert onen,
▁zuiver e
0% .
maak t
▁lip opolysaccharide
▁Roken :
▁op gesteld
is :
▁v ectoren
ocyt ische
▁STE CHNIQUE:
▁dwars door
▁aantoon t
▁op zet
Z ie
▁tert iaire
in dic
ab elen
▁MCH-3 0.
b undel
wite xpressie
▁vergelijk en.
fin anc
ator s
on ic
is ion
▁ch irale
▁remm en,
▁gl ioom
▁intr athorac
▁p ra
▁techniek .
▁onregel matig
▁aortaklep stenose
▁coron avirus
▁mur m
U P
og astrische
▁f aag
▁(Im mediate
▁B is
▁Gez ondheid
kk ing.
▁( over
ringen d
▁3, 6
▁I T
▁A pp
▁bacteriën .
▁(t oelating
▁aorta wortel
▁empir isch
▁Immun ohistoch
▁Q D
▁[ ZORGINSTELLING
i :
▁contro versie
▁vast gestelde
▁Abs Neut
▁over lap
comp ens
de fin
ant el
-g lut
▁o dd
▁LV ,
gebruik .
▁2017 :
▁brand wonden
▁nan om
op names
▁perman ent
▁Onge wijzigd
omeg aly
▁bloot stellings
an den.
▁CH A2DS2-VASc
▁geaut oriseerd
hyper tensie
▁ ≤
▁b aat
▁ES RD
▁test is
ig vul
▁hoofd ader
ur ve
▁ontde kken
▁N ier
g )
ontste king.
▁integr eren
▁gen ,
▁O B
▁ge or
▁R G
▁Mg ++
op ter
iet ische
ac y
po int
it ril
▁p mol
▁blijven .
▁ver vorming
at eerde
aa i
▁Met ast
▁had den,
▁Bijge volg
▁l ing
▁PVC 's
▁M ens
▁pancreas .
▁tar ief
▁aerugin osa
▁gediagnostic eerde
OS )
▁Gezamen lijk
▁H odgkin
▁am pl
▁15 00
▁M w
▁mod us
assist eerde
▁Di astolische
ic o
▁B a
▁ap pro
▁drain ing
▁Atrium fibrilleren
os en
▁RC x
▁genoem d,
ob arb
▁fosfor yl
H 2
▁onder kant
▁C 7
▁bloe den.
▁hers ent
▁werkgroep leden
▁bra chten
/ in
▁lang zamer
▁da ad
▁prote olytische
▁( he
▁neuro f
▁tryp tof
▁Longen :
▁cell ulose
-4 8
▁ ))
▁T K
▁T2 -gewogen
▁3 %
stip atie
ity :
▁le eg
onef ritis
▁( <PERSOON>
▁verbindingen .
▁U RI
▁therap ietrouw
▁W/C ONTR
▁omk eerbare
▁sl ik
cycl ine
▁dys f
▁stre ef
-expressie .
▁RDW 13.
▁plant aardige
▁w achten
oorte datum:
et al
▁Ad v
▁sin ust
▁n umber
lij ven
▁-P re
▁reproduc eerbaarheid
c alcium
lo ven
▁t ort
nem en.
▁status .
▁[ ].
ogra m.
▁ {
▁A β
▁over sch
:20 PM
▁nodig ,
stell ingen.
▁geë volu
▁Mo gelijke
▁stat ine.
iden :
▁ur eters
▁therap y
kw ater
▁overle ef
▁B es
-c ar
▁hematopoë tische
▁I B
aa ier
ECG :
res ss
-7 )
ith iasis
ge koppelde
Z )
▁weefsel ,
hydrox ylase
orf y
▁verduidelijk en
vl ies.
▁and ro
▁SP LEEN:
▁de positie
werk ing.
aspie gels
ij st
▁je ug
▁diagnostic eren
▁int erd
▁circum flex
▁afw eer
▁F em
▁H ad
-mon sters
▁e ut
▁resultaat :
▁moeilijk e
è me
▁populatie .
werk ingen
▁cerevis iae
▁o gen,
▁non -H
6 -
A X
or h
▁Col le
▁(toelating ):
▁(cardi oloog)
▁m olaire
▁afst oting
▁-W ire:
▁Respir ator
▁perip anc
▁farmacokin etiek
▁Uite indelijk
= 0,00
men ten,
vari ant
▁variab el
-in duc
monster s.
▁waarnem ing
lat ing
▁β -
▁geïmplante erd
▁2 9.
el ing.
▁form ule
▁G -eiwit
AS )
▁ex tr
D- test
▁der halve
zw elling
d ieet
▁(C S
:3 5AM
▁in activatie
▁mg /L
▁echo .
▁ru st:
▁den kt
fal en,
▁af metingen
▁MRS A
rib u
▁d oc>
▁verplaat st
sm iddel
B EV
▁(S t
▁Ad ministr
▁9 9.
eeeeeeee eeeeeeee
▁P ur
▁aan verwante
▁En zym
**] )
▁bevorder en,
▁ein dige
▁S1 S2
▁FI NAL
▁af voer
seg menten
verschuiv ing
cent ra
▁C s
▁ \fs
L Q
▁spect roscopische
alis eert
M S)
▁Therap y
▁wervell ichaam
▁Ad vies
▁regul ier
et ale
▁slijm vliezen
▁M N
wer kte
▁vlo er
▁Ori ente
▁op leid
▁infectie s.
▁Coch rane
el laire
es ion
b ili
▁A Z
▁afgeb roken
▁gen otypen
▁coronair en
▁hoof d,
▁b indings
sch alen
▁sla pen
▁f ood
ist .
▁di hydro
▁TNF- alfa
▁ex amine
r c
M ).
▁toegest aan
con tractie
▁NM DA
▁per indopril
▁bren gt
ochten d
▁endoplasm atisch
ver ontreinig
▁st offen,
▁Im aging
▁perist alt
▁ses sie
▁B4- West
▁on verzadigde
-p ath
▁reces sieve
& W
▁spie gel
▁malign iteiten
o is
▁S1 S2,
▁Refills:" 0
▁immun otherapie
' )
▁gebruik elijk
are se
▁ide ale
sm atige
▁bi as
▁bemon ster
lu cin
zw ak
▁tra ct
her nia
▁dieet ,
orf e
▁stij gende
▁L ok
▁Flows heet
res idu
-C O
ocar cin
▁bre ath
▁Aanvan kelijk
systeem ,
spec ificiteit
▁Voort gezet
▁ver if
at rix
ap pen
▁B ar
▁gamma -G
▁Kan ker
-gew richten
t b
krist all
ro us
▁P SA
▁gew assen
▁O .
▁gen oemde
▁E OS
▁endothel iale
▁w ave
oph ag
▁korrel s
▁cyan ose
fen ol
▁gemeld ,
▁aut opsie
▁micro array
uur ,
▁lop en.
AS S
▁goed keur
sch erm
▁ischem isch
▁war farine
▁los sen.
metho xy
▁k off
p ende
ij de
▁L LL
▁neurolog ie
▁bili rubine
▁M UC
orf ine
▁Ant ibiotica
▁cap t
▁habit at
▁sch een
▁L id
▁koolhydr aten
▁uit oefen
▁h as
J .
▁half waardetijd
gra al
carb ox
▁P an
▁gra den.
▁ **)
▁s lij
techn iek.
conto uren
▁verk eer
▁bloeduitst ort
▁W gt
▁Comp lex
isen se
▁Cardi omedi
▁ab er
ant um
3. 3
▁plasmaconcentr aties
are are
▁PIC C-lijn
▁vo gel
oppervla kken
sch ool
▁beoordeel de
▁se qu
remp els
yp en
m es
re onine
rat ropium
▁ann ule
▁Medic ations
▁palp atie
kel s

H ypertensie
▁s witch
-s ulf
▁C lopidogrel
gen oten
▁kan sen
▁Dis order
▁modell eren
1- jarige
▁m s,
V C
▁contra sten
-m ot
▁interventie .
▁E v
▁d rif
▁3 50
sil on
▁ 00
▁uitgangs vraag
/ I
of osfaat
▁at om
AS -B
▁[ URL
▁MB q
ellen ,
▁2, 9
4. 5
- orde
▁water ,
▁compet itieve
DATE ]
stitutie ve
▁d in
▁p ron
vo eren
▁13 6
▁persoonlijk heids
▁c os
▁kamer lucht
▁bevorder de
▁(S T
▁gyr us
▁onderver deeld
▁geaccep teerd
▁oper ationele
in en,
▁tachycard ie,
▁3 5%
▁my osine
ver de
▁congest ie
▁verpl icht
▁afscheid ingen
-de oxy
-4 50
▁aanpass ingen
▁Man agement
el ementen
▁(naam )
▁onder d
▁D ys
▁hernia .
▁n yst
▁W/O -CONTR
-f amil
▁scha delijk
▁Ca ++
ofil ie
▁verzwak king
▁voltoo iden
ad ine
▁ongewijzig de
idylin ositol
▁groei ,
▁(n )
ho ff
▁Ne ven
▁Be vinding
on c
▁transvers ale
▁L R
▁de v
▁(L eft
▁m ix
▁tra ag
▁bre ast
ur n
▁Jour nal
▁9 9,
▁ru w
▁di ameters
TEIT EN:
▁be oog
:5 5
▁D ie
▁s ize
▁veronder stellen
▁radi ograph
▁gecre ë
▁elektronen microscop
ttps: //www.
▁lymfekn open
▁maag kanker
▁benadru kt.
▁b eleid:
idi dym
▁epidem iologie
ES S
▁etn ische
ont vang
▁jaar ).
▁op dracht
▁r ijden
▁vol gde
▁h ave
▁om gaan
▁Ster k
ran ten
her ken
▁aan wezige
▁PTT -2
ocy te
▁D iver
g d.
▁g all
spar ameters
ol air
▁(int ellectueel
ster s.
gra diënt
-an al
▁ir rit
▁g ig
P ),
▁BR CA
▁V EG
r us
▁modific aties
▁aan vraag
▁NE UT
▁c ase-
▁O or
▁verbet ert.
▁penet ratie
▁herhaal delijk
▁Spec ialisme:
▁compartim ent
oor ten,
▁pneumon iae
▁n =
▁D ose
u v
▁S AM
▁katalys ator
▁gla uc
▁biom assa
▁morf ologisch
W N
▁let ter
▁X-thorax :
▁verwar ring
▁(con trole
▁spier cellen
adi um
▁sem i
▁H sp
-ge co
▁beschrijven .
▁st aande
ost atische
-AL-AL-AL-AL -AL-AL-AL-AL
▁radi ografische
▁H IF
▁3 0.
b oom
tex t
▁ont sn
ente se
▁spec ialisme
▁Abn ormale
▁c ascade
-stam men
vedi lol
▁E SV
-remm ing
▁200 3
/ab out
▁gener eren.
IV )
▁COP D,
▁verlen gd
7 ).
▁St atist
▁ge open
▁9 4%
▁wand verdi
▁vertraag d
▁CO R
▁kop ieën
▁ben en.
is functie
▁N itro
▁hy al
stit ution
▁d om
(-1 ).
▁opgehel der
▁ang st,
▁O ut
- eenheid
ur an
▁dis locatie
EGEGEGEGEGEGEGEG EGEGEGEGEGEGEGEG
▁gal weg
▁syn apt
▁F H
▁Pla sma
/m 2
▁net wer
▁mer kt
▁pop lite
metho den.
ver y
▁produc eren,
▁hoe st.
▁Te gen
-1 60
diff ractie
▁Vertra agde
▁verm ijd
▁osteopor ose
▁V L
OB IL
▁ne st
▁betre ffende
▁inst abiele
▁n ieren.
▁ambul ante
n acht
▁laag ,
▁B ijn
▁g len
- onderzoek
▁wel k
▁galbla dder
▁99 m
▁NS R
as ing
▁AAN BEV
▁immun omod
▁be fore
X .
▁F R
▁G A
PC I:
▁AS AT
▁pericard vocht
▁z oekt
▁mat ch

C oronairlijden
▁examin ation:
% ).
g v
alc if
▁An emie
-ex tractie
▁kortademigheid .
▁al goritmen
▁benauw d
▁atrium .
▁onderk aak
▁M ex
▁p ure
▁carb oxyl
▁concurr erende
▁Post operatief
▁abd omen.
mer ing
▁super nat
b rand
▁E R-
▁vertegenwoor digen,
-mut ant
▁element aire
▁sament rekking
▁X -ray
▁plan :
▁reactie s.
▁kortadem ig
dela ars
▁praktijk .
-st udie
ogn itieve
- do
▁Di agnostic
▁(5 00
▁200 2
ist ry
▁EO MI
▁TC O2
-e ch
▁( leeftijd
▁Pol i
▁anti- H
▁IC D-
:50 PM
▁lever -
▁triglycer iden
▁tach yp
▁b ureau
atib ele
▁uit stroom
▁R emming
▁geoptim aliseerde
▁hartf alen,
▁CAD ,
▁gec lust
▁con clude
-1 40
▁toelat ing.
▁m ent
▁μ g/ml
▁H om
os ynthese
▁han delen
spro fiel
it s.
▁ge heu
▁aandacht s
▁al stublieft
▁(radioloog) 
Conclusie:
ik te
▁wand beweging
▁waren :
▁Che f
▁verdo ofd
▁elektro statische
▁sim ul
▁p. o.
▁immunodeficiëntie virus
▁CXR :
▁Tra ce
▁foss a
h av
▁ontvang er
▁Inf ectie
arine :
- methode
▁RCA .
▁M ater
▁Hem odynamische
▁init iatief
▁Hist orie:
▁sinds dien
E BL
▁chlor ide
-VERKLARING -VERKLARING
▁Org anis
▁an organische
▁T a
: OBJECTID=[ID],VALUE1=
▁stij gingen
aandoen ing
▁tev oren
▁[(( (21
ver la
t i
▁kl ieren
▁100 .
▁trache ale
▁LV OT
it aminen
▁r if
▁populatie s.
▁L umb
▁tromb ine
▁verwij d,
ly )
bere iding
▁Ch ol
▁bekend ,
▁myel oom
▁mit ogeen
ïd ose
( N
▁ged ro
▁kg .
▁L N
▁MIC R
or isch
▁S n
▁bacteriën ,
orb id
▁voorsp el
▁annule erte
▁gluc agon
b :
▁aangebo den
dition eel
consum ptie
ap ap
▁h elling
▁f ruct
▁O hm
▁gl io
▁non -comp
kopp eling
▁gesynthet iseerde
leg gen
▁linker arm
▁overt uig
▁Am ylase
▁per one
▁B ra
▁voorzicht ig
▁N ucle
▁at ax
10 .
ET AIL
stro men
▁( TE
▁Kon ink
▁spra y
▁Vit als:
▁S accharomyces
▁ju ist
f eer
▁los se
posit ion
▁ventrikel .
▁sec ond
ip oten
▁N D
ro w
▁por euze
al cohol
] ].
▁rect aal
G lu
▁F l
▁Hou dt
▁goed kop
ystem en,
▁dis mut
▁fol ders
▁v order
▁F INDINGEN:
▁g if
▁verdi kte
EBL IN
▁co dering
ar ingen
▁die per
▁gerekru teerd
▁nauw lettend
iër en,
p aal
▁on e
▁geïn formeerde
▁Sp ecifiek
▁transp ar
▁ultra viol
▁1 D1
in ine,
ron en.
▁elektrof ysiologische
L a
:Nee
Hart klepafwijking
-sub eenheid
2 0,
▁G F
▁de p
▁Laboratorium onderzoek
domein en
▁h arm
opro these
▁prote ase
G Y
um on
▁d ragers
/r /g
▁resultaat .
ks uele
rit ine
▁bren gen,
▁o bese
▁i cter
L I
▁apparaat )
oploss ingen
ën ,
▁groep ,
▁ro oster
analyse ,
▁(e )
▁s no
r or
kk ig
▁richt ingen
he cht
ct uele
▁100 ,
tens ive
▁19 7
at eren
▁OR GAN
▁nec rot
▁int elligen
er entie
▁neer slag
▁foet ussen
/kg /min
▁x anth
▁sub s
▁CK (CPK)
▁DNA -synthese
▁gepro gramm
▁dysp lasie
lutic asone
▁fiet sen
K .
3. 1
▁fab ric
▁t. a.v.
ly ,
klachten ,
PATI ENT
▁ro kers
▁em ul
▁voor vallen
▁T 2-
▁congest ief
ale ,
▁1. 4
▁bev roren
▁spec ific
▁[URL ]
▁bestaan .
di eren.
-A merikaanse
▁UNE AN
con fig
sm odel
▁verwij d.
mm .
c ost
-ch loor
▁geble ven.
plic aties
D-test re
2 C
▁(L ab
▁Q R
▁pro m
▁ST- segment
:5 5AM
▁Con form
▁intram us
▁c ave
▁z omer
▁sympt omatisch
ab ig
▁hart as.
▁prof il
▁2008 :
m embranen
▁Question )
▁werk ple
▁postsyn aptische
-kD a
ent ijd
▁af nemende
-caten ine
orb ent
▁dosis .
de ficiënte
▁mechan isch
▁enzym activiteit
▁Experim entele
▁car ina.
▁mensen ,
▁jon gens
et ho
▁geb oden
▁w ant
-1 1.
t ube
or gen.
▁bijzonder heden
p leg
▁bl ik
▁( st
ofys ische
- #
▁asc orb
chem isch
▁C57BL /6
▁ge we
▁ademhal ing.
re constructie
id ,
▁N asal
 De
▁Her sen
V A
▁F SH
▁Associ ation
-respon sen
herap eut
▁ch ec
▁ver richten
▁RV .
▁O T
▁pijn bestrijding
▁Hui dige
▁F M
▁gesp lit
▁Ao I.
▁kopp elings
▁b racht
▁toepas baarheid
▁f ok
▁opgetre den
▁vrij dag
a ken.
e z
▁wer ken.
▁vereis en.
als /
▁S EP
▁k ationen
em p
-model len
▁agon isten
▁commerc ieel
▁in middels
8 ).
P I
▁Carcin oma
an ol
▁k ijken
gov /about
▁ing ang
▁res ervoir
▁typ en
kle in
▁ont vingen
▁draag bare
- concentraties
-th rough
▁Bay es
▁c ement
1 20
hersen helft
ox isch
▁complicaties ,
▁[(( Hospital1
F :
▁stimul i.
▁niveau ,
▁place b
▁MRI :
▁wer kte
▁han gende
▁techn ieken.
groep en,
dema :
▁p unct
▁fib ron
im ent
bre de
s ),
OD ES:
▁in actieve
▁Techn ique:
ag er
concentr aties.
▁steig ers
▁gl ijden
▁Int act
▁veelgebruik te
▁Een heid
ive d
b indings
▁dis order
▁ib u
▁200 1
sm ol
▁II -XII
i als
wijz ingen
▁Af ib
test inal
-S t
- a
▁aut isme
LO R
▁detectielim iet
▁bev rucht
▁sle chter
▁besch adigde
an s,
▁her zien.
▁intra- uteriene
-m y
et i
▁ant woorden
c ancer.
▁Kin deren
▁deel nem
▁199 6
▁spin del
▁S cintig
▁Candid a
▁cardiopulmon aire
ob al
▁t ere
id ol
▁wis kundige
o-elekt rische
at oom
dan set
▁sound s
▁mechanis men.
▁ziekenhuis ,
▁da ily
sten ose,
▁aange wezen
▁hemat oma.
it ische
▁ad d
oc ephal
▁( AG
▁F us
danset ron
▁Hg .
▁sen escentie
▁on bep
/6 5
▁Invent ory
atie t
▁gemat chte
▁ge schreven
▁4, 2
▁b aan
▁EXAM :
-l -l
▁onverkla ar
▁M aag
▁e u
ier .
g ran
▁mult im
▁pop ul
▁ademhaling sproblemen
▁RE NAL
▁antip sych
▁ribb re
fun deerd
ot actische
▁ving ers
▁onverw achte
▁af standen
ute s
▁gep aarde
▁l ign
w al
▁ger es
t rial
LD H)
▁2 8,
land se
▁lip osomen
▁Hypertensie :
- assay
▁pneumon ie,
▁bewaar d.
cancer. gov/about
cor rige
▁Unit s
▁st aten
▁spiraal vormige
▁geb oekt
spro tocol
▁BID :PRN
ell ing.
▁f lank
ra den
▁ledem aten,
p ij
( E.
▁A 2
▁c ateg
un c
▁. 00
zw eer
tra ining
r ate
▁W nt
▁met at
▁GRAD E
rag ue
olip ide
▁11 3
▁( cc
S R
ografie ,
▁M AG
▁Sle chte
▁con ve
ster oïde
▁11 6
k kers
m oleculaire
tran scri
orm en
▁Daar bij
L in
/ CT
-0 .0
▁vertoon t.
▁metab ool
▁M orphine
▁M es

S oort
▁R EM
▁versch enen
ysteem .
(1 ))
▁bloedst olsel
▁X R
it iviteit
opro st
▁Pulmon es:
▁ac ceptor
behandel ings
▁AK T
en yl
G MP
re activiteit
▁pl ur
voorz ien
▁d ringende
▁consolid atie.
/m ol
- amin
b oek
▁b ele
▁ge houden.
os iden
▁(E n
▁hyper cholesterolemie
ode s
ot ub
▁gek atalyse
h aar
▁knel punten
▁Link s:
▁aort a,
▁herstel .
▁zint uig
▁vermen igvul
kla cht:
▁metast ase.
▁199 5
▁Te gelijkertijd
l oort
▁3, 7
CL US
▁wacht lijst
▁Alzhe im
▁onmark eerbaar.
▁D ert
▁Cho lesterol
▁(S C
▁m /r/g
▁3 8,
▁expan sie
▁st af
n -NEG
▁n r
▁calc ificatie
▁vas culair
▁re pe
ro op
▁onderte kend.
aw ley
operatie .
▁D 3
▁AR DS
▁sub optimale
▁midden rif
:25 AM
▁P op
▁boezem fibrilleren
verz adiging
▁k iller
▁ret ard
NA R
▁microtub ule
▁LV F.
o- en
▁w ijn
▁stopp en.
▁symmet rie
▁C p
▁temp or
▁Van co
▁fluor oscopische
▁C erv
ri or
▁kenmer kende
C ON
luor oscopie
▁H ulp
ag ina
▁gele den,
▁onder ling
▁uitsluit ing
▁m M)
( OH)
ier eg
▁af spraken
▁bespre ken.
▁door verwezen
f yse
▁T-cellen .
▁n ieren,
ger icht
▁visc ositeit
▁14 1
arg inine
▁aange moe
▁activer en.
▁Ex perimenten
▁C Y
ACT ER
per me
▁avond s
IN S
raf isch
ge sloten
▁st aps
▁eff lux
maal s
▁t on
ch icine
slo ten,
▁n oem
▁er toe
(- /-)
b aan
▁plaatsv inden
ir ium
- spiegels
▁eff usies.
▁L IMA-
▁Col or
omen ten
▁da y
▁P ast
▁groe ire
ut ie,
▁NG -buis
▁re altime
▁stenos en
▁M ,
iden ce
baarheid ,
▁"h ttps://www.
(E. C.)
▁diabet esp
▁D us
▁ge absorb
▁geb ogen
14 ,
c cess
▁90 e
▁voor gelegd
oden dro
▁ $
▁different iatie.
▁C -re
oc ef
abig atran
▁Hart frequentie
E erste
▁ger angschik
▁HP I:
▁Or der
on or
▁v eer
▁overd ag
▁RA :
▁mond ,
▁All ergie
N '
/l ,
▁mit rale
▁hi atale
ger ust
ore x
▁( onder
veil igheid
▁geb oor
▁implement eren
▁O2 -s
▁ect opische
oc rine
▁ver we
▁vergroot ,
▁att itude
sc intig
ar ,
dig de
▁ver dubb
▁imp uls
: Geen
et entie
▁meis je
]] ]
ran iële
▁Verminder de
▁CARDIAC :
▁post trans
▁C amp
▁groeif actoren
▁6 )
it ,
ader ,
an z
▁y /o
:0 5AM
ten t:
▁m TOR
st oe
gem edieerde
▁(MRI )
▁C at
▁AD P
▁ST ART
▁assessment :
▁clubb ing,
▁Sp rague
p ec
/k its,
▁B E
▁P ub
▁R LL
▁niet-co derende
( LDH)
▁ox ycodone
▁trombocyt openie
last ic
▁de lay
▁-Domin ance:
▁f ijn
▁ger em
▁uitge voerde
▁Min imale
c ombin
▁uit braak
▁verk le
▁<INSTELLING> ,
▁temperatuur ,
-S P
▁reactie .
▁weg ra
▁versch een
▁metab ol
ag ne
os ferische
▁kort durende
v uil
▁h een
(2 ))
▁retro cardiale
▁dicht heids
c oc
▁volde den
▁cerebell um
▁K et
▁recht s:
▁(in clusief
▁d uplex
▁bre ak
▁linkerventr ikelfunctie
▁per oxis
▁Perif eer
▁In d
▁oest ro
▁overleven den
▁nieuwe ,
2 ):
lin ks
h ock
▁Chirurg ie
▁S ingle
ur onen
structuur .
ra pp
▁bed rijf
o zym
▁be d,
▁[ X
▁t yros
▁medicijn en,
▁wens elijk
▁al coholische
▁voor be
▁gepresente erd,
▁k ary
▁cAM P-
-on afhankelijke
▁cerebro spinale
▁N AS
AR DI
-in t
sc ans
▁IGF -I
▁C ellen
▁Mel k
▁U r
▁( 2-
curs oren
▁T al
▁immun ost
▁PL T
▁ben ut
cor d
▁rep ort
▁gest opt.
al anine
▁al bic
▁refract aire
▁ket ens
▁voed ing.
▁S ep
▁Am lodipine
▁ge her
ian a
▁geh ol
▁P ap
one :
▁neutrofie le
▁V ERKLARING
val id
▁kop ie
▁verlen en
▁A de
▁weerspiegel d
▁dig oxine
▁N or
▁no v
▁function aliteit
- sequentie
▁fen otyp
▁suspen sie
▁mid azol
▁fen otypen
▁inf rarood
plat form
P 3
▁midden -
▁sch alen
sp oel
▁vas oconstri
▁aut omatische
osis .
du ction
▁MD RD
▁domin antie
▁(m aar
uss entijd
art s,
re eks
▁[ P
min istratie

O p
oide s
▁gegeven ,
▁beoor delings
% ),
tel and
▁verwer ving
▁visc erale
▁R öntgen
f alen.
▁zelf standig
gegeven s.
eu ten
▁ech ogeniciteit
▁beschouw en
▁kw ad
▁S ert
▁ingen omen
▁R atten
▁nier slagader
as k
▁ aten
▁(titel s)
▁in n
▁behandel ingen.
▁best ral
▁scintig r.
hou der
▁aus cul
C ).
▁type:P oliklinische
▁ann ulus
▁hepat op
▁(B re
▁aanvallen .
ositie :
▁verdw ijnen
▁b anen
▁j ur
▁geregel d
▁verander den
▁pleura-effusie ,
▁Comp uter
▁OS AS
▁niet -t
▁vererg erd
▁verspre iden
▁verw ard
2 ]
▁N och
▁CTAB ,
ab e
▁incis ies
▁tekort kom
n ,
▁( dag
▁post er
▁pneumothorax ,
▁eenmal ig
▁75 e
▁p g
▁vol tage
-Neut s:
v aar
▁"https://www. cancer.gov/about
▁Am iodar
od yl
▁mortaliteit .
▁ser ologische
▁G AL
▁toegedien d,
ID S
lan aire
-f actor
▁levens lang
▁zachte ,
▁er kenning
▁μmol/L ;
00 ,
▁con stitutieve
▁ge loof
▁R B
g o
▁daad wer
-ge le
um etan
-fosf orylering
▁rapporte ert
▁bezit ten
▁Trop onine
ee ,
▁compress ibiliteit
▁d ak
sch ijf
▁Ig A
ass aspectrometrie
▁X en
▁Belang rijke
▁alt hans
▁bijkomen de
▁prop ranolol
▁even redig
▁extra vas
▁E ffect
▁vrijw illige
▁route .
▁lop ende
z oe
▁h inder
▁ontde kte
▁bloedlichaam p
▁graad s
is cus
▁l ist
idi um
▁door ge
▁long arts
▁ob st
▁( [PERSOON]
script ion
▁R US
▁aer osol
▁2 3.
eg a
▁stro ke
C o
ast ine
▁gev acc
▁manifest atie
## )
cyc lase
▁targe ting
- PO
er wijs
▁wereld .
▁k r
geb rek
▁L ichte
▁opgenomen ,
▁af scheiding
/minuut ,
▁gift ige
▁tijd schrif
m uc
▁s he
▁(% ):
▁depressie .
▁vrien delijke
op tie
▁m ang
▁voortgezet .
▁geble ven
▁TI ,
▁stop datum:
▁o oit
▁Not ch
▁Post operatieve
ne vel
▁I F
▁uit dro
os um
▁hydro gel
stud ies.
k am
concentr atie.
▁smal le
▁end oscop
▁versle cht
▁11 4
▁drin kwater
▁Elis a
▁11 8
▁af stem
▁Hem odynam
proble em
C 1
-k eten
spro duct
▁VAL VE:
tensie f
:10 PM
w ann
▁ont kende
▁duct ale
▁4, 8
Q )
▁Sp iraal
▁Alkal ische
▁over vul
lo opt
▁R A,
▁En do
▁ant isch
iden tific
▁sub acute
▁borst -
▁aan meld
▁nef rot
a antal
▁I -
▁TGF -β
▁huis hou
z inn
▁L 2
▁dil tiazem
▁mmol/l ,
▁colla b
▁Sp ecifieke
▁ger uis
▁demon streren
ok ines
▁perfor atie
▁14 5
l c
▁( stroom
ram adol
▁de skun
▁kg ,
il s
**] .
▁inf erolateraal
▁bouw en
▁defect e
ve y
▁ch ild
▁part ners
H V
▁micro calc
▁sub unit
▁medicamente us
▁F E
▁discip line
▁st ationaire
▁Device )
▁no dule
▁Or th
▁respons iviteit
i R
-c ancer
-c adher
ae ,
▁K wij
▁qu ad
▁( AR
▁dubbel blin
▁M c
▁20 22
▁11 1
▁E D.
▁## -##
▁Che w
▁function al
▁perin atale
▁Voor geschiedenis:
bla den
b roken
▁presentatie :
ect omie.
roscop ie.
▁polym ere
▁tumor cellen.
-ex tract
▁ongevoel ig
regul ering
-frag ment
▁O ost
▁T o
-f ib
▁gemak kelijke
▁regel gev
▁e d
▁Pa O2
pre ventie
▁An at
▁epilept ische
▁ use
oploss ing.
▁verl aten
os arc
a h
on ieke
oxic illine
▁cyclo fosfamide
EN S
▁E CHO
ens is
mm ing
bb bb
▁O og
▁CABG .
▁Zacht ,
3, 4
▁CV P
press ion
Tele phone/Fax
yp es
it aties
▁Z v
ver ster
▁dim eer
▁mach ines
▁micro- omgeving
▁[Ca 2+]
sch il
▁hart stilstand
▁verricht .
TE D
▁co valente
▁voedsel inname
21 .
▁genomen ,
▁pers istente
▁hartfalen :Nee

i ose
▁sinussen ,
▁waterstof peroxide
con ditie
Z E
▁cel membraan
activer ende
▁retroper itone
link ed
▁organ isch
AS-B LED
▁mann etjes
▁subarachn oïde
z uren.
uw e
▁tumor ,
▁R -top
▁cardi omegalie
▁F O
at her
▁imp edantie
▁ap ic
w ire
▁V E
▁geform uleerd
kin etiek
▁beïnvloed de
▁trac king
▁CD8 +
▁inval iditeit
▁F armac
▁d ens
qu ate
▁lead s
▁maagdarm kanaal
▁medicatie :
▁ep ididym
▁Na (+)
▁LV -functie
or adi
▁lat entie
▁(R os
zw art
▁Voor naam
d ol
▁H U
▁RES P:
-9 ,
ot opische
▁R PM
ab ces
▁verbindingen ,
▁di agon
▁A er
metast ase
▁geven ,
▁ver luid
▁B ic
-m RNA
▁bloed monsters
▁afbre ek
iv ale
yst rofie
▁educ atieve
▁U OP
▁hyper g
▁et c
▁TC R
-cell ijn
▁drie voudige
0% ,
beper kende
▁V VI
▁micro b
▁hiel den
▁CV D:
▁80 mg
▁W as
▁dop pler
elekt ro
h ronische
▁meld ing
DATUM -##>
▁defin ities
▁anti oxiderende
▁w /o
▁Re view
▁[( Hospital1
▁ch el
▁bet ablokker
▁O OB
▁mann elijk
▁nem en,
▁omk eerbaar
:Nee
A triumfibrileren/-flutter
▁effect ,
orte d
▁system en,
▁en anti
hel ix
▁j ug
▁B ed
/ 9
▁LAB S
▁fosfolip ase
▁NI BP
▁op i
cc /k
er nstige
▁t ijden
op .
re flex
bet rokken
orte x
▁in ,
▁k uur
asure ment
▁medicijn en.
▁par enter
▁HL A
▁T or
▁X -
ie len
▁orig in
▁clin ical
▁onopvallen d
ot ypering
act ine
▁rol stoel
▁Del ta
▁vide o
behoe ften
C lip
▁nodig ;
▁pol ariteit
▁leid den
▁ ),
▁Af ro
▁mmol/L ,
▁ **
-3 6
-e -e
-eiwit .
▁run deren
▁Rec eptor
sign alering
▁bewij smateriaal
RE NAL
▁opge zet
▁re ferent
ent ing
▁SPO 2:
ge sprek
▁gev oede
▁su ï
an je
iftig ing
l iss
▁S TR
▁vloeistof .
ge ver
k arakter
groot te.
▁the ma
N EG
▁( =
R e
▁Ex am
▁L aag
▁verander ende
▁uitge leg
▁gecoörd ineerde
▁descri bed
▁atriumfibrill atie
or a
▁eierstok kanker
▁no v.
▁hy dra
▁bios ens
dilat atie.
▁case- control
▁innov atieve
▁percept uele
▁odd s
/k linisch
ign aal
21 )
▁echter ,
▁bemiddelen .
▁S /P
▁bloedt rans
y raat
ho ge
( 50)
▁onverander de
vascul atuur
▁verluid t
▁uit dagen
▁sch aam
rel ated
EN TI
er den.
ië ct
▁Feder atie
▁organ en.
▁Chew able
▁Pol s
elin elin
-e ind
/t reatment
usp ide
ar en,
verlies .
▁gerecht vaardigd
-6 ,
▁gen itale
▁voel en
▁M uc
ig ingen
▁zoogdi eren.
▁NSC LC
▁zijn :
ept idase
w or
▁25 mg
▁R ating
▁overzicht :
B /c
▁( ),
▁peri operatieve
▁[D ETAIL
▁pers onen.
▁DNA ,
▁achter gron
▁acet on
▁kwij ting
▁H EP
▁( dat
gew richten
ie ert
▁Mens elijke
af braak
▁M s.
▁PIP :
g r
▁L ichaams
A p
▁mass aspect
▁plat teland
▁om hul
r :
▁n v
▁k lok
▁h umorale
ut ies
b uff
-tri als/
▁opn amen
▁intraper itone
baarheid .
-mut anten
verschijn selen
▁M F
▁Hart :
▁decomp ressie
▁Prote ïne
▁poly ethyleen
▁aggreg aten
▁overle ving.
▁hyper plasie
▁week ,
W S
▁Pre ventie
▁aff ectieve
▁femor alis
▁fylo gen
▁toen am
▁[ DATE]
▁zet meel
▁ac quisitie
▁slagader .
▁veronder stelling
▁muta genese
▁k wee
▁M DL
▁M amm
▁K orte
▁regressie analyse
▁fla gel
▁w anden
ische ,
▁Phos -2.
gen te
▁clu stering
G 2
▁extrem iteiten
ings middelen
gra dige
▁m elen
▁prakt isch
7 ),
▁rec or
id ine-
▁(Lab oratory
ox ifen
▁L im
gine ering
▁S ustained
-s onde
▁ch emie
▁geïllu streerd
▁lys osomale
▁9 0,
▁eiwit kinase
▁o .
▁stroomop waarts
- IN
ra an
▁meld ingen
▁(P E
▁en velop
▁k ap
omorf e
gest uurd
▁hemidi afrag
h ing
▁zenuwstelsel .
id ine,
▁plaats gevonden
▁gen otyp
▁verv uil
▁Magn esium
▁(p &lt;0,0
	 U/L
▁Dien overeenkomstig
ular iteit
▁CZ S
▁verst oord
▁s it
CI UM
▁bib asilaire
▁of fic
▁heterozyg ote
▁ontwikkel en,
▁ant ir
▁namen s
▁zeker heid
▁t i
▁gecorrige erde
▁dis pla
▁disper sie
▁profess ionals
▁radi o-
▁catechol amine
un es
▁ont mo
▁prog ra
▁ko ud
w ar
OR AC
▁<LOCATIE> ,
. |
▁gevorm de
▁Hoofd klaag
▁PC A
i- i-
▁subsegment ale
▁slaap ap
▁Be wijs
▁gead sorb
▁var ic
▁verschuiv ingen
▁post menopauzale
M 1
▁(ml /min
▁compos iet
▁ra den
▁evalu aties
ar rest
▁cross-section ele
bescherm ing
 200
▁c ister
ot er
▁arg inine
▁W and
▁respon se
▁W ill
bet a-
opre cipitatie
▁bed rij
zet tingen
▁Hepat itis
▁m os
▁ge ob
kken d
uit bre
▁-C omplic
▁sur gery
isol atie
▁grote ,
▁Present ),
▁G G
d op
ver minder
▁mg/kg /dag
▁s arcoom
▁moeilijk heden
	 mmHg
vari abelen
cyst en
▁achter kant
der de
▁2 30
▁enhan cement
io ïde
chirurg ische
rin siek
act u
AY AY
▁c ijfer
▁mitochond riaal
/ 12
.
 Geslacht:
urg ical
▁BA SO
▁ch aper
▁soep el
P AP
RI AL
inere ceptor
▁steig er
gerapporte erde
▁LV -
▁5 000
▁lucht ,
▁onopge merkt.
um inescentie
ati ble
-tran script
▁CTCA E
he erde
ten sor
▁P LE
▁trim ester
▁appen dic
▁3, 8
▁nem at
end ing
▁3, 1
▁(cc ):
▁daar uit
NA c
▁termijn .
9 ).
▁AbsMon o-0.
▁suprac lav
▁O xy
▁op nam
um in
▁radi al
▁mal a
l ing,
▁aanb rengen
ist offen
▁intraper itoneale
▁stimul i,
activer ing.
	mmHg 	
P ORT
▁w ig
st ract
▁spijsver terings
AB P
▁gew ichten
▁voor alsnog
▁- %
iv an
▁ben zo
y )
▁hem opt
▁gedeel de
oxis maal
▁trans duc
h oor
it ive
▁glyc ine
▁IN TER
al goritme
▁0,0 2
verst roo
▁ver werkings
ge en,
▁vascul itis
▁verl ichten
▁follic ulaire
▁T op
▁L LE
▁bevindingen ,
▁op richting
mer kingen
test inaal
▁public atie
▁chirur gen
▁signaal routes
▁voor stel
▁a ders
▁geste gen
yl salicylzuur
	 bpm
▁k ik
▁ap ical
▁organis aties
b a
ym e
▁EXTR EMI
	bpm 	
▁ion isatie
▁ Δ
▁gast ritis
mo di
▁darm micro
▁drast isch
▁b erg
▁observ ationele
▁Vergelijk bare
▁14 2
▁art rose
▁centimeter ,
▁H aem
-1 2)
▁P l
▁tij de
▁Afrik aanse
▁re k
▁PTT -3
ol us
▁riv ier
▁et hyleen
▁O G
▁onderd omp
- ad
art ikel
▁in versie
▁-L engte
oven ox
▁(F armacologic
p ub
1. 2
▁bereik t,
ar yl
sp ons
ac odyl
▁st och
- off
AC )
▁prop ort
ab ric
▁E iwit
▁ge ën
▁sinusritme .
▁e .
▁vragen lijsten

A uteur
:N iet
▁lamin a
▁VASC ULAR
▁moe sten
m ob
▁ad ministr
etro virale
▁(n amen
▁( 6,
▁K (
▁re polaris
▁ho op
▁gron d,
▁gevolg d.
vent ig
▁3, 9
▁1 /2
▁s x
▁onder druk
▁99m Tc
▁Per ic
▁T her
▁constitut ief
t herapie.
oppervla k.
▁hart dood
▁de hydrogenase
▁herken bare
▁AD RENAL
▁observ eerden
osis :
M ON
neuro path
▁wan delen
▁end oscopie
▁1. 6
▁kal ibratie
ich ten,
,5 ,
alcif erol
- alfa-
▁inge zet
▁mislu kte
olym eer
▁bin aire
▁duizeligheid ,
▁J R
▁( iv
G ym
groot tes
oskelet ale
▁bre id
▁niveaus ,
D C
▁or gel
8. 6
▁Hals venen
▁metho den,
▁steekpro even
- onder
▁rij p
▁benz odiazep
▁gecon centreerd
▁R v
▁25 e
▁af ib
▁x10^ 12
▁2007 :
besch adig
stan den.
▁4, 4
▁ventr ikelfunctie
▁ST- T
▁mob ilis
▁voorsp elt
▁M orgen
▁in vloeden
▁skelet spieren
▁d oodsoorzaak
▁gef ix
rapport age
▁lar vale
el ok
▁AD HD
▁voort zetting
an den,
vol wassen
▁form ele
▁groep s
▁inform eren
▁t ussentijd
beweg ing.
k ool
▁Tach y:
▁12 8
▁druk ,
▁groei hormoon
▁eind punt
▁sym b
▁O pen
▁pulmon alis
▁elektrof orese
▁G r
▁borst foto
▁van middag
l ock
▁gebieden ,
▁maat st
▁immunos orbent
▁blijft .
-p eptide
▁50% .
▁concentr ische
-di lat
▁psychiat rie
▁ort ho
▁t ons
gemeen schap
▁sub lingu
sch erp
▁0,0 3
▁(R )
▁ns VT
-gew richt
at int
50 ,
ommel ingen
▁hypokine sie
- route

 -
▁perspectie ven
▁l ussen
▁gehandhaaf d.
▁+B S,
▁vas odilat
IS :
▁regul iere
▁aantrek kelijke
-d oel
▁F P
h anger
p ulmon
▁aortasten ose
16 )
▁functie s,
▁onverklaar bare
-c yt
▁IU /L,
▁V OOR
e uro
act am
▁Braz il
▁ost ium
obobobob obobobob
▁stroomaf waarts
c ore
▁groei .
▁(A )
▁F AC
▁wer kende
ent ra
▁wen sen
▁inform atie.
▁vis ie
▁rep orter
la ding
(-1 ))
▁clip s
▁2 10
▁Spiraal verwerving

A antal
ak ers
▁duur de
rom eter
▁No v
▁Der mat
2- gen
▁L ater
-1 ),
▁karakteris eren,
produc erende
▁publ iek
der s,
▁mot ieven
▁Ao V
▁nee ,
▁DAILY :PRN
▁[LOCATIE ].
▁angio :
in vas
▁al buterol
▁ste at
ific atie.
-en cefal
▁zwaarlij v
▁sil ica
▁interpret eren
▁nu chter
vari abiliteit
▁myel ine
▁uit da
open em
▁kolon isatie
-4 -
▁over igens
▁cel .
Be kend
▁AV NR
▁gekleur d
beeld .
▁Mo dule
▁sat uratie
ich i
▁exem pl
IC AL
▁(1 7
stri dium
▁P alp
▁In jectie
▁sub stitutie
oel de
▁ST UD
▁AN D
▁goedkeur ing
▁Wee fsel
▁Ast ma
lan den
▁"https://www.cancer.gov/about -cancer
▁(R R
▁d rank
ferent iële
ram ide
▁trans lationele
E en
doel en
▁K CL
▁ventil ation
▁struct uren,
▁wee kend
inst ituut
▁af lopende
▁bescherm d
▁carcin omen
h )
▁gedi st
benader ingen
onderzoek ,
home ostase
ers ne
▁niet- f
▁frag mentatie
▁O X
▁hersen bloed
▁bere kend.
op hor
▁geb ouw
ard ing
▁geanalyse erde
▁in eff
es )
ep arine:
-N E
ventil atie
▁st ollings
▁nauwkeurig er
▁cordis .
▁T ijd
▁( pro
G EN
▁tachycard ie.
▁gehe cht
lor a
▁adem geluiden
-ge vallen
▁Ge deelt
25 )
▁chol ine
▁architect urale
▁con dens
▁bescherm t
▁gev ar
▁kristal structuur
alg ie
▁rel ig
▁hem olytische
▁trig ger
▁hoe sten
▁eosin ofielen
▁A ir
genee smiddelen
▁sch erm
▁L G
▁P SV
oph age
lipidem ie,
rac il
▁S hort
ED UR
-0 6
▁kwets bare
▁aus cult
▁Duit sland
hal ings
s ymptomen
▁R u
▁immun oblot
anit idine
on sters
▁onvol wassen
▁Sociaal :
▁remmen d
dynam iek
▁nyst ag
vle kken
▁ml/min/1.73 m
▁prob eert
▁bewij zen
-0 7
▁at rop
▁gehe mel
op us
UL L
▁uitge daag
▁12 3
▁3. 8
▁b ig
▁tijd sver
-1 1-
▁CB D
SI ON
▁proliferatie ,
A c
▁te xt
▁stopgezet .
▁subclavi ane
▁Bas eline
▁(I FN
▁groepen :
▁E MG
▁muis model
▁lept ine
▁in geb
▁cal cul
▁beroer te.
▁vaat ziekten,
▁gev aren
K :
▁getra ind
▁Bcl -2
▁toestand ,
▁statist ieken
▁later .
▁cardiomy opathie.
5 *
▁ge transcri
PC R-
▁H MG
vat tingen
▁ANI ON
du idend
▁inf erieur
▁encefal opathie
▁ham ster
▁accept atie
▁iso vormen
▁volledig .
▁Sc ientific
▁gron dig
▁g aten
▁model ,
bo dem
amb ocor
te m
▁act u
▁Weten schap
r ine,
▁bijge werkt
▁p oriën
▁product iviteit
-k le
▁acid ose
ill ing
▁micro p
20 )
B G
-p oly
du i
▁hal lucin
▁N- methyl
▁IC C
oder m
al ase
▁brad ycard
▁ze i
▁nood s
▁ruim tes
-di methyl
e ffecten
oe id
▁k m
▁d alen
▁angi ogram
▁-S egment
ich e
▁werk ,
im aging
▁olig odendro
ei gen
▁L ife
 O
▁Ph armac
▁HB s
HY HY
athy ro
ram es
▁mon ocyt
▁α -
▁Me vrouw
▁slapel oosheid
▁impl .
▁productie ve
▁CON CLUS
▁met af
▁Verwer ving
mid den
▁C MP
is bruik
▁Mg -1.
▁I mm
▁probleem .
ak t
▁ont lu
▁vertegenwoordig d
te kracht
oll ige
ch ange
de f
a- n
▁non -d
▁verdi kt
▁calc ificaties
▁13 3
azijn zuur
yl ine
ist ,
m uizen
▁synth etisch
▁cortex ,
▁nat ure
N ES
▁cardioloog .
▁onc ogene
▁f alc
at elliet
N ee

-infectie s
▁exp onent
▁gevoeligheid ,
▁multip el
▁olig os
est hesie
▁huisart s,
▁k auw
▁af ,
▁z aden
▁RDWSD- 5
▁rij pe
▁verdi kt.
-through put
▁kristall ijne
um :
▁d /t
▁lo wer
ge ,
▁g riep
▁beper kende
geb ied,
▁graf een
▁P D-
▁J ude
▁immuun respon
component )
▁Sc reen
▁(Me dical
▁3 e
▁zoekt ocht
▁Do wn
▁ro of
▁micro g/ml
/c m
▁(m eer
▁rapport age
▁kwantific eren.
▁n oe
▁explic iet
▁opge wonden
a ant
re ert
▁r it
m itte
▁tussen product
ode ode
▁1 :1
▁compartim enten
art raat
▁laes ie,
ef erentie
▁vereen voudig
L ),
▁s qu
▁Art sen
▁ernstig er
▁auto- immun
se p
▁beweeglijk heid
▁her nieuw
ker nen
kin asen
▁concentr eren
▁hoof d.
antwoord ing
▁re pressie
▁georganis eerd
▁P BM
▁el uting
▁-( ))
he ma
▁op in
▁ip v
▁Vals al
▁Multiv itaminen
▁om liggende
▁nee ;
▁kwab ,
▁Endot racheal
bi om
▁L AT)
▁geb roken
▁wederzijd se
▁for amen
▁lo z
▁oplever en
▁plaats elijke
▁stof ,
▁spre ken
▁E ff
▁beoordeeld )
▁(min ):
eiz ersne
▁st olling
▁In form
-in tensiteit
ex t
ox ie
▁tryptof aan
▁onderdrukken .
S e
omet risch
h ale
ide tector
▁minim aliseren
▁Asp erg
sp ijn
▁verdra gen,
▁lich amen
▁be oefen
▁af leid
▁w a
▁diast olisch
▁Elekt rof
ox on
▁A sse
▁effect en,
▁b rug
( 2-
▁LD (LDH)
P A)
/ Q
▁Af wijk
▁p od
▁Release (E.C.)
▁chit osan
- down
▁(Bre ath
di fferentie
▁(stroom ):
ron idazol
▁voor waar
▁G EN:
f out
▁oes ofag
5) ;
sign alen
▁( ziekte
at ,
▁R LE
n aal
▁mening itis
ist ers
▁FD G
▁beschermen d
▁schak el
-to- face
frag menten
▁la dings
▁geb ouwd
▁m .
▁(AI OS
▁N ek
cycl us.
▁A CC
▁fol iumzuur
▁gezondheidszorg .
▁r angschik
▁S in
- mm
▁af b
▁F ys
▁CD K
+ :
lop ur
▁rekru tering
.
 Be
▁G raag
▁long .
/ml )
▁regul eren,
▁hart :
▁c ec
▁menstru atie
och emie
▁d rijven
▁op port
▁af nemen
▁T W
ale s,
kan s
▁aden ovirus
▁(naam Pattern
▁M CA
ië teit
▁M SC
▁[ZIEKENHUIS] :
▁est radiol
mar ker
▁ml /kg
▁modellen .
▁(O )
▁T am
▁diafrag ma
▁waarsch uw
▁PA IN
▁inter essant
▁verander en,
▁CD4 (+)
sul osine
▁gew onde
h r.
▁Konink rijk
▁onderg aat
i ated
▁af wissel
rat is
17 )
mens ionale
ox yn
▁II -
glyc os
[...]
