{"<s>":0,"</s>":1,"<pad>":2,"<unk>":3,"<mask>":4,"\u0000":5,"\u0001":6,"\u0002":7,"\u0003":8,"\u0004":9,"\u0005":10,"\u0006":11,"\u0007":12,"\b":13,"\t":14,"\n":15,"\u000b":16,"\f":17,"\r":18,"\u000e":19,"\u000f":20,"\u0012":21,"\u0014":22,"\u0015":23,"\u0016":24,"\u0018":25,"\u0019":26,"\u001f":27,"!":28,"\"":29,"#":30,"$":31,"%":32,"&":33,"'":34,"(":35,")":36,"*":37,"+":38,",":39,"-":40,".":41,"/":42,"0":43,"1":44,"2":45,"3":46,"4":47,"5":48,"6":49,"7":50,"8":51,"9":52,":":53,";":54,"<":55,"=":56,">":57,"?":58,"@":59,"A":60,"B":61,"C":62,"D":63,"E":64,"F":65,"G":66,"H":67,"I":68,"J":69,"K":70,"L":71,"M":72,"N":73,"O":74,"P":75,"Q":76,"R":77,"S":78,"T":79,"U":80,"V":81,"W":82,"X":83,"Y":84,"Z":85,"[":86,"\\":87,"]":88,"^":89,"_":90,"`":91,"a":92,"b":93,"c":94,"d":95,"e":96,"f":97,"g":98,"h":99,"i":100,"j":101,"k":102,"l":103,"m":104,"n":105,"o":106,"p":107,"q":108,"r":109,"s":110,"t":111,"u":112,"v":113,"w":114,"x":115,"y":116,"z":117,"{":118,"|":119,"}":120,"~":121,"":122,"":123,"":124,"":125,"":126,"¡":127,"¢":128,"£":129,"¤":130,"¥":131,"¦":132,"§":133,"©":134,"«":135,"¬":136,"­":137,"®":138,"°":139,"±":140,"¶":141,"·":142,"»":143,"¿":144,"À":145,"Á":146,"Â":147,"Ã":148,"Ä":149,"Å":150,"Æ":151,"Ç":152,"È":153,"É":154,"Ê":155,"Ë":156,"Ì":157,"Í":158,"Î":159,"Ï":160,"Ð":161,"Ñ":162,"Ò":163,"Ó":164,"Ô":165,"Õ":166,"Ö":167,"×":168,"Ø":169,"Ù":170,"Ú":171,"Û":172,"Ü":173,"Þ":174,"ß":175,"à":176,"á":177,"â":178,"ã":179,"ä":180,"å":181,"æ":182,"ç":183,"è":184,"é":185,"ê":186,"ë":187,"ì":188,"í":189,"î":190,"ï":191,"ð":192,"ñ":193,"ò":194,"ó":195,"ô":196,"õ":197,"ö":198,"÷":199,"ø":200,"ù":201,"ú":202,"û":203,"ü":204,"ý":205,"þ":206,"ÿ":207,"Ā":208,"ā":209,"ă":210,"ą":211,"ć":212,"ĉ":213,"Č":214,"č":215,"Đ":216,"đ":217,"ē":218,"ė":219,"ę":220,"ě":221,"ĝ":222,"ğ":223,"Ġ":224,"ġ":225,"ĥ":226,"Ħ":227,"ħ":228,"ĩ":229,"Ī":230,"ī":231,"İ":232,"ı":233,"ĵ":234,"ĸ":235,"ļ":236,"ľ":237,"Ł":238,"ł":239,"Ń":240,"ń":241,"ņ":242,"ň":243,"ŋ":244,"Ō":245,"ō":246,"Ő":247,"ő":248,"Œ":249,"œ":250,"Ř":251,"ř":252,"Ś":253,"ś":254,"Ş":255,"ş":256,"Š":257,"š":258,"ţ":259,"ť":260,"ū":261,"ŭ":262,"ů":263,"ű":264,"Ų":265,"ų":266,"Ÿ":267,"ź":268,"Ż":269,"ż":270,"Ž":271,"ž":272,"Ə":273,"Ɛ":274,"ƒ":275,"ƙ":276,"ƴ":277,"ǁ":278,"ǂ":279,"ǎ":280,"ǔ":281,"ǫ":282,"ȁ":283,"ȗ":284,"ș":285,"ț":286,"ɑ":287,"ɔ":288,"ɕ":289,"ə":290,"ɛ":291,"ɜ":292,"ɡ":293,"ɣ":294,"ɤ":295,"ɨ":296,"ɪ":297,"ɯ":298,"ʃ":299,"ʌ":300,"ʻ":301,"ʼ":302,"ʾ":303,"ʿ":304,"˂":305,"˃":306,"ˆ":307,"ˉ":308,"ː":309,"˿":310,"̀":311,"́":312,"̃":313,"̄":314,"̆":315,"̇":316,"̈":317,"̊":318,"̋":319,"̓":320,"̧":321,"̳":322,"̶":323,"ͳ":324,"Ά":325,"Α":326,"Β":327,"Γ":328,"Δ":329,"Ε":330,"Η":331,"Θ":332,"Ι":333,"Κ":334,"Λ":335,"Μ":336,"Ν":337,"Ξ":338,"Ο":339,"Π":340,"Ρ":341,"Σ":342,"Τ":343,"Υ":344,"Φ":345,"Χ":346,"Ψ":347,"Ω":348,"ά":349,"έ":350,"ή":351,"ί":352,"α":353,"β":354,"γ":355,"δ":356,"ε":357,"ζ":358,"η":359,"θ":360,"ι":361,"κ":362,"λ":363,"μ":364,"ν":365,"ξ":366,"ο":367,"π":368,"ρ":369,"ς":370,"σ":371,"τ":372,"υ":373,"φ":374,"χ":375,"ψ":376,"ω":377,"ϊ":378,"ό":379,"ύ":380,"ώ":381,"Є":382,"А":383,"Б":384,"В":385,"Г":386,"Д":387,"Е":388,"Ж":389,"З":390,"И":391,"Й":392,"К":393,"Л":394,"М":395,"Н":396,"О":397,"П":398,"Р":399,"С":400,"Т":401,"У":402,"Ф":403,"Х":404,"Ц":405,"Ш":406,"Ъ":407,"Ю":408,"Я":409,"а":410,"б":411,"в":412,"г":413,"д":414,"е":415,"ж":416,"з":417,"и":418,"й":419,"к":420,"л":421,"м":422,"н":423,"о":424,"п":425,"р":426,"с":427,"т":428,"у":429,"ф":430,"х":431,"ц":432,"ч":433,"ш":434,"щ":435,"ъ":436,"ы":437,"ь":438,"ю":439,"я":440,"ё":441,"і":442,"ї":443,"ְ":444,"ִ":445,"ֹ":446,"ּ":447,"־":448,"ׄ":449,"א":450,"ב":451,"ג":452,"ד":453,"ה":454,"ו":455,"ז":456,"ח":457,"י":458,"כ":459,"ל":460,"ם":461,"מ":462,"ן":463,"נ":464,"ס":465,"ע":466,"פ":467,"צ":468,"ר":469,"ש":470,"ת":471,"׳":472,"״":473,"،":474,"ء":475,"أ":476,"ا":477,"ب":478,"ة":479,"ت":480,"ث":481,"ج":482,"ح":483,"خ":484,"د":485,"ذ":486,"ر":487,"ز":488,"س":489,"ش":490,"ص":491,"ض":492,"ط":493,"ظ":494,"ع":495,"ـ":496,"ق":497,"ك":498,"ل":499,"م":500,"ن":501,"ه":502,"و":503,"ي":504,"٠":505,"١":506,"٤":507,"٦":508,"پ":509,"ژ":510,"ی":511,"ۛ":512,"ं":513,"आ":514,"क":515,"ग":516,"च":517,"छ":518,"ज":519,"ड":520,"ण":521,"त":522,"द":523,"न":524,"प":525,"फ":526,"ब":527,"म":528,"र":529,"ल":530,"ळ":531,"व":532,"श":533,"स":534,"़":535,"ा":536,"ी":537,"ू":538,"ो":539,"्":540,"॥":541,"௠":542,"ಟ":543,"ಪ":544,"ಶ":545,"ಿ":546,"್":547,"ก":548,"ค":549,"ง":550,"ช":551,"ต":552,"บ":553,"ฟ":554,"ม":555,"ร":556,"ล":557,"ศ":558,"ษ":559,"ห":560,"อ":561,"ั":562,"า":563,"แ":564,"โ":565,"ใ":566,"็":567,"่":568,"้":569,"์":570,"་":571,"ག":572,"ད":573,"ན":574,"བ":575,"འ":576,"ར":577,"ུ":578,"ྩ":579,"ྭ":580,"ྱ":581,"ᄡ":582,"ᅟ":583,"Ḍ":584,"ḍ":585,"ḗ":586,"ḥ":587,"ṅ":588,"ṇ":589,"ṛ":590,"ṣ":591,"ṭ":592,"ṯ":593,"ả":594,"ế":595,"ệ":596,"ổ":597,"ỗ":598,"ứ":599,"ữ":600,"ỹ":601,"ἀ":602,"ἄ":603,"ἅ":604,"ἐ":605,"ἔ":606,"ἠ":607,"ἡ":608,"ἰ":609,"ἱ":610,"ἴ":611,"ἷ":612,"Ἱ":613,"ὀ":614,"ὁ":615,"ὄ":616,"Ὁ":617,"ὐ":618,"ὑ":619,"ὔ":620,"ὕ":621,"ὖ":622,"ὠ":623,"ὤ":624,"ὲ":625,"ὶ":626,"ὸ":627,"ᾠ":628,"ᾰ":629,"ῆ":630,"ῖ":631,"ῥ":632,"ῦ":633,"ῶ":634,"ῷ":635,"​":636,"‍":637,"‎":638,"‐":639,"‒":640,"–":641,"—":642,"―":643,"‖":644,"‘":645,"’":646,"‚":647,"“":648,"”":649,"„":650,"‟":651,"†":652,"‡":653,"•":654," ":655," ":656,"‬":657,"‰":658,"′":659,"‹":660,"›":661,"⁄":662,"₤":663,"€":664,"ⅎ":665,"←":666,"↑":667,"→":668,"↓":669,"↔":670,"↕":671,"↙":672,"↦":673,"↲":674,"↷":675,"⇄":676,"⇆":677,"⇋":678,"⇌":679,"⇐":680,"⇑":681,"⇒":682,"⇓":683,"⇔":684,"⇝":685,"⇨":686,"∆":687,"∏":688,"∑":689,"−":690,"∗":691,"∙":692,"√":693,"∝":694,"∞":695,"∠":696,"∥":697,"∼":698,"≈":699,"≠":700,"≤":701,"≥":702,"≪":703,"≫":704,"≲":705,"≺":706,"⊕":707,"⊖":708,"⊝":709,"⊥":710,"⋅":711,"⋠":712,"⎡":713,"⎢":714,"⎣":715,"⎤":716,"⎥":717,"⎦":718,"⏐":719,"─":720,"│":721,"┤":722,"┬":723,"┴":724,"═":725,"║":726,"╪":727,"▁":728,"░":729,"▒":730,"▓":731,"■":732,"□":733,"▪":734,"▲":735,"△":736,"▴":737,"▵":738,"▶":739,"▷":740,"▸":741,"►":742,"▼":743,"▽":744,"▾":745,"◆":746,"◊":747,"○":748,"◎":749,"●":750,"◦":751,"◯":752,"◻":753,"◽":754,"★":755,"☆":756,"☐":757,"☑":758,"☓":759,"☺":760,"♀":761,"♂":762,"♦":763,"♭":764,"♯":765,"⚥":766,"⚪":767,"⚫":768,"✓":769,"✔":770,"✕":771,"✠":772,"✧":773,"✴":774,"✶":775,"➔":776,"➙":777,"➝":778,"➞":779,"➡":780,"➢":781,"➤":782,"⟂":783,"⟦":784,"⟧":785,"⟨":786,"⟩":787,"⟶":788,"⟷":789,"⠀":790,"⠩":791,"⠬":792,"⠳":793,"⠺":794,"⥠":795,"⦁":796,"⨁":797,"⩽":798,"⬜":799,"⬠":800,"⬰":801,"⮚":802,"ⱡ":803,"⿬":804,"⿿":805,"、":806,"。":807,"〈":808,"〉":809,"》":810,"「":811,"」":812,"【":813,"】":814,"〔":815,"〕":816,"〖":817,"〗":818,"〜":819,"〞":820,"〠":821,"か":822,"き":823,"こ":824,"な":825,"に":826,"ひ":827,"も":828,"り":829,"ん":830,"ア":831,"オ":832,"カ":833,"ガ":834,"ギ":835,"ク":836,"コ":837,"シ":838,"タ":839,"デ":840,"ナ":841,"ミ":842,"メ":843,"リ":844,"ル":845,"レ":846,"・":847,"ー":848,"㠀":849,"中":850,"人":851,"介":852,"仙":853,"会":854,"佳":855,"依":856,"俣":857,"健":858,"元":859,"冈":860,"冬":861,"凸":862,"出":863,"切":864,"利":865,"医":866,"呦":867,"員":868,"唇":869,"四":870,"国":871,"土":872,"夏":873,"大":874,"契":875,"女":876,"姫":877,"子":878,"字":879,"学":880,"孫":881,"宇":882,"富":883,"対":884,"山":885,"岡":886,"崇":887,"崎":888,"川":889,"巫":890,"帝":891,"平":892,"引":893,"弟":894,"德":895,"怖":896,"患":897,"拝":898,"救":899,"文":900,"斑":901,"料":902,"新":903,"日":904,"明":905,"春":906,"智":907,"書":908,"本":909,"李":910,"村":911,"校":912,"株":913,"桂":914,"水":915,"海":916,"湖":917,"滑":918,"灾":919,"熊":920,"犀":921,"现":922,"病":923,"症":924,"白":925,"皇":926,"盲":927,"磨":928,"神":929,"第":930,"等":931,"策":932,"素":933,"约":934,"缕":935,"能":936,"腹":937,"花":938,"草":939,"菇":940,"蕲":941,"虫":942,"蛇":943,"蟲":944,"衆":945,"行":946,"西":947,"語":948,"训":949,"语":950,"逸":951,"郎":952,"郡":953,"金":954,"院":955,"霊":956,"青":957,"駆":958,"马":959,"高":960,"黃":961,"꙱":962,"ꝉ":963,"ꭕ":964,"븅":965,"삼":966,"":967,"":968,"":969,"":970,"":971,"":972,"":973,"":974,"":975,"":976,"":977,"":978,"":979,"":980,"":981,"":982,"":983,"":984,"":985,"":986,"":987,"":988,"":989,"":990,"":991,"":992,"":993,"":994,"":995,"":996,"":997,"":998,"️":999,"﻿":1000,"￼":1001,"�":1002,"📞":1003,"🔴":1004,"en":1005,"er":1006,"an":1007,"in":1008,"▁v":1009,"de":1010,"ie":1011,"or":1012,"ge":1013,"at":1014,"et":1015,"st":1016,"▁de":1017,"on":1018,"ch":1019,"▁m":1020,"al":1021,"ij":1022,"el":1023,"▁van":1024,"▁b":1025,"is":1026,"▁h":1027,"▁d":1028,"ar":1029,"▁o":1030,"▁t":1031,"▁w":1032,"re":1033,"ing":1034,"▁e":1035,"▁en":1036,"it":1037,"▁ge":1038,"ro":1039,"▁p":1040,"▁in":1041,"oor":1042,"▁a":1043,"den":1044,"le":1045,"▁s":1046,"▁(":1047,"▁n":1048,"ct":1049,"▁ver":1050,"der":1051,"▁een":1052,"ol":1053,"▁c":1054,"▁z":1055,"▁met":1056,"om":1057,"▁het":1058,"te":1059,"▁be":1060,"▁k":1061,"gen":1062,"la":1063,"▁D":1064,"atie":1065,"ra":1066,"di":1067,"isch":1068,"aar":1069,"ijk":1070,"oe":1071,"as":1072,"▁op":1073,"id":1074,"erd":1075,"▁voor":1076,"ten":1077,"▁on":1078,"▁C":1079,"ic":1080,"am":1081,"ul":1082,"ale":1083,"ische":1084,"ot":1085,"cht":1086,"ent":1087,"▁l":1088,"▁re":1089,"ur":1090,"▁1":1091,"us":1092,"▁g":1093,"▁st":1094,"▁te":1095,"il":1096,"▁aan":1097,"og":1098,"ijn":1099,"ver":1100,"sch":1101,"ken":1102,"▁A":1103,"ig":1104,"se":1105,"▁is":1106,"he":1107,"un":1108,"▁f":1109,"▁-":1110,"▁P":1111,"▁De":1112,"len":1113,"ee":1114,"op":1115,"ine":1116,"▁H":1117,"um":1118,"eer":1119,"▁E":1120,"▁al":1121,"ctie":1122,"ven":1123,"▁S":1124,"sp":1125,"ru":1126,"del":1127,"im":1128,"▁u":1129,"▁I":1130,"ve":1131,"▁2":1132,"ik":1133,"▁om":1134,"▁bij":1135,"▁die":1136,"eren":1137,"▁wor":1138,"▁M":1139,"ati":1140,"em":1141,"▁T":1142,"▁.":1143,"▁B":1144,"os":1145,"▁dat":1146,"ingen":1147,"ze":1148,"ant":1149,"▁zijn":1150,"ag":1151,"aal":1152,"if":1153,"es":1154,"▁of":1155,"oc":1156,"▁door":1157,"orm":1158,"ën":1159,"▁N":1160,"iet":1161,"▁onder":1162,"ele":1163,"sen":1164,"lijk":1165,"▁R":1166,"▁O":1167,"▁G":1168,"ste":1169,"ter":1170,"▁uit":1171,"ak":1172,"ap":1173,"▁werd":1174,"en.":1175,"heid":1176,"▁L":1177,"▁V":1178,"▁pro":1179,"▁wer":1180,"ite":1181,"ab":1182,"ep":1183,"▁r":1184,"ut":1185,"▁con":1186,"ire":1187,"▁als":1188,"and":1189,"ang":1190,"sie":1191,"per":1192,"elijk":1193,"▁[":1194,"iteit":1195,"▁geen":1196,"▁niet":1197,"du":1198,"dt":1199,"ho":1200,"▁waar":1201,"ff":1202,"▁geb":1203,"▁tot":1204,"uw":1205,"ist":1206,"eg":1207,"atiën":1208,"olog":1209,"iek":1210,"res":1211,"▁3":1212,"act":1213,"han":1214,"eld":1215,"ion":1216,"ult":1217,"ir":1218,"art":1219,"▁af":1220,"▁over":1221,"ri":1222,"lo":1223,"▁worden":1224,"oed":1225,"ft":1226,"ect":1227,"▁le":1228,"▁werden":1229,"00":1230,"ige":1231,"▁na":1232,"eerd":1233,"ac":1234,"▁per":1235,"iv":1236,"▁ont":1237,"▁patiën":1238,"een":1239,"▁wordt":1240,"ier":1241,"ide":1242,"▁mo":1243,"ker":1244,"of":1245,"ad":1246,"▁was":1247,"▁sp":1248,"aat":1249,"▁an":1250,"ud":1251,"▁W":1252,"▁In":1253,"lu":1254,"▁er":1255,"icht":1256,"gelijk":1257,"wij":1258,"▁la":1259,"ich":1260,"val":1261,"omen":1262,"uur":1263,"ran":1264,"be":1265,"nen":1266,"ok":1267,"ardi":1268,"aan":1269,"ies":1270,"▁gro":1271,"ast":1272,"▁deze":1273,"-1":1274,"▁F":1275,"ort":1276,"ere":1277,"▁4":1278,"kt":1279,"ym":1280,"▁onderz":1281,"eerde":1282,"ose":1283,"AT":1284,"▁0":1285,"oon":1286,"ellen":1287,"min":1288,"ific":1289,"▁5":1290,"▁zo":1291,"yp":1292,"▁su":1293,"▁kan":1294,"ings":1295,"ne":1296,"vol":1297,").":1298,"ON":1299,"en,":1300,"vo":1301,"ER":1302,"tra":1303,"ec":1304,"),":1305,"▁ex":1306,"▁gen":1307,"ron":1308,"▁we":1309,"handel":1310,"dere":1311,"s.":1312,"ruik":1313,"aten":1314,"ed":1315,"chter":1316,"omp":1317,"onder":1318,"▁toe":1319,"dig":1320,"ien":1321,"men":1322,"ase":1323,"▁Het":1324,"ind":1325,"tro":1326,"rij":1327,"con":1328,"erde":1329,"▁Er":1330,"sult":1331,"▁versch":1332,"▁ch":1333,"ma":1334,"wee":1335,"iden":1336,"ologie":1337,"we":1338,"ip":1339,"af":1340,"aties":1341,"▁ho":1342,"▁j":1343,"entie":1344,"ame":1345,"ui":1346,"▁eff":1347,"ectie":1348,"▁mg":1349,"ost":1350,"▁vol":1351,"oek":1352,"ell":1353,"▁gebruik":1354,"▁bl":1355,"ers":1356,"▁di":1357,"▁he":1358,"ijd":1359,"laire":1360,"cu":1361,"bb":1362,"me":1363,"cl":1364,"ende":1365,"od":1366,"ign":1367,"her":1368,"ater":1369,"ass":1370,"ia":1371,"aren":1372,"illen":1373,"ib":1374,"yn":1375,":C":1376,"▁6":1377,"SO":1378,"▁behandel":1379,"elijke":1380,"qu":1381,"ox":1382,"ke":1383,"▁naar":1384,"lin":1385,"ing.":1386,"▁patiënten":1387,"▁ne":1388,"▁ant":1389,"▁stud":1390,"yst":1391,"ond":1392,"ussen":1393,"PER":1394,"pro":1395,"▁U":1396,"▁verb":1397,"aly":1398,"##":1399,"▁me":1400,"▁maar":1401,"mer":1402,"SOON":1403,"PERSOON":1404,"▁gem":1405,"yl":1406,"sel":1407,"als":1408,"▁inter":1409,"▁norm":1410,"▁K":1411,"usie":1412,"ger":1413,"▁im":1414,"entr":1415,"geven":1416,"▁sch":1417,"▁dan":1418,"ressie":1419,"▁bet":1420,"sc":1421,"ander":1422,"'s":1423,"ept":1424,"UM":1425,"dige":1426,"▁verschillen":1427,"▁((":1428,"▁lin":1429,"▁bel":1430,"aak":1431,"pt":1432,"▁ook":1433,"▁her":1434,"ijden":1435,"baar":1436,"kel":1437,"-c":1438,"ïn":1439,"ce":1440,"ië":1441,"org":1442,"delijk":1443,"sm":1444,"▁()":1445,"NA":1446,"iviteit":1447,"▁inf":1448,"▁ter":1449,"reven":1450,"actie":1451,"king":1452,"▁sign":1453,"d.":1454,"▁eer":1455,"▁9":1456,"AR":1457,"aire":1458,"▁kun":1459,"▁20":1460,"▁tussen":1461,"amen":1462,"▁hebb":1463,"▁Z":1464,"dic":1465,"▁ro":1466,"ive":1467,"▁7":1468,"eeft":1469,"oren":1470,"▁uitge":1471,"▁0,":1472,"laat":1473,"▁besch":1474,"▁gez":1475,"▁ontw":1476,"ath":1477,"pen":1478,"-2":1479,"unctie":1480,"wel":1481,"rie":1482,"DAT":1483,"kken":1484,"oven":1485,"atieve":1486,"sla":1487,"oen":1488,"pl":1489,"▁10":1490,"▁8":1491,"▁waren":1492,"ann":1493,"▁twee":1494,"are":1495,"DATUM":1496,"eel":1497,"wit":1498,"▁Con":1499,"rom":1500,"alyse":1501,"s,":1502,"▁Deze":1503,"▁min":1504,"▁onderzoek":1505,"uis":1506,"▁Een":1507,"▁ei":1508,"▁meer":1509,"▁kunnen":1510,"▁hebben":1511,"ieden":1512,"▁effect":1513,"iddel":1514,"▁verho":1515,"io":1516,"IN":1517,"ieuw":1518,"▁Geen":1519,"onen":1520,"▁heeft":1521,"delen":1522,"ium":1523,"rijk":1524,"itie":1525,"▁We":1526,"ering":1527,"ation":1528,"▁no":1529,"▁bev":1530,"▁patiënt":1531,"oel":1532,"yt":1533,"▁dit":1534,"▁result":1535,"▁belang":1536,"yc":1537,"trole":1538,"duc":1539,"▁comp":1540,"ren":1541,"zig":1542,"ole":1543,"hul":1544,"▁alle":1545,"▁verschillende":1546,"aam":1547,"zen":1548,"▁x":1549,"ogen":1550,"▁hy":1551,"gel":1552,"ys":1553,"▁verander":1554,"dien":1555,"toon":1556,"-ge":1557,"▁act":1558,"gro":1559,"ardiologie":1560,"ing,":1561,"▁ged":1562,"ces":1563,"ate":1564,"agn":1565,"▁An":1566,"▁ontwik":1567,"arm":1568,"▁studie":1569,"▁ger":1570,"▁bloed":1571,"▁vergelijk":1572,"PERSOON]":1573,"onden":1574,"DATUM]":1575,"▁ma":1576,"van":1577,"alis":1578,"▁tran":1579,"▁pre":1580,"wer":1581,"▁best":1582,"▁signific":1583,"gevens":1584,"mm":1585,"pressie":1586,"ens":1587,"ert":1588,"▁Al":1589,"schap":1590,"▁linker":1591,"icro":1592,"chten":1593,"▁hart":1594,"▁aange":1595,"herap":1596,"met":1597,"▁wat":1598,"ijdens":1599,"iële":1600,"minder":1601,"▁verhoog":1602,"▁kle":1603,"▁ze":1604,"oom":1605,"▁had":1606,"▁ra":1607,"acht":1608,"ie.":1609,"ster":1610,"▁pol":1611,"ogra":1612,"-e":1613,"▁at":1614,"ub":1615,"▁Ver":1616,"dro":1617,"ivea":1618,"ente":1619,"ong":1620,"ologische":1621,"ill":1622,"▁cor":1623,"▁[PERSOON]":1624,"ader":1625,"ving":1626,"hy":1627,"-t":1628,"▁verminder":1629,"▁andere":1630,"▁sub":1631,"▁rec":1632,"▁vro":1633,"ss":1634,"▁CT":1635,"ment":1636,"▁rechter":1637,"EN":1638,"▁behandeling":1639,"hal":1640,"age":1641,"▁belangrijk":1642,"▁'s":1643,"let":1644,"▁resultaten":1645,"ek":1646,"▁verk":1647,"▁gebruikt":1648,"orst":1649,"vl":1650,"▁bas":1651,"▁reg":1652,"▁zonder":1653,"▁(1":1654,"uc":1655,"▁nieuw":1656,"▁mogelijk":1657,"clusie":1658,"woor":1659,"..":1660,"ef":1661,"▁Om":1662,"▁ontwikkel":1663,"iekte":1664,"-3":1665,"▁On":1666,"ruct":1667,"elf":1668,"genomen":1669,"▁hun":1670,"eren.":1671,"21":1672,"slag":1673,"▁=":1674,"ante":1675,"atten":1676,"gest":1677,"schreven":1678,"▁tijdens":1679,"▁verbet":1680,"erende":1681,"ulatie":1682,"▁mm":1683,"dru":1684,"uro":1685,"▁el":1686,"hulp":1687,"name":1688,"dat":1689,"ype":1690,"wezig":1691,"den.":1692,"▁or":1693,"IE":1694,"eten":1695,"▁zich":1696,"▁dag":1697,"ard":1698,"vorm":1699,"▁da":1700,"▁jaar":1701,"▁behulp":1702,"nel":1703,"iale":1704,"▁pijn":1705,"bare":1706,"▁hoe":1707,"▁12":1708,"-in":1709,"▁kw":1710,"▁zoals":1711,"ieke":1712,"alen":1713,"TE":1714,"▁klin":1715,"kelijk":1716,"▁[DATUM]":1717,"fie":1718,"▁mee":1719,"pp":1720,"▁ab":1721,"▁toon":1722,"eem":1723,"volg":1724,"▁+":1725,"t.":1726,"anis":1727,"a-":1728,"valu":1729,"▁<":1730,"iën":1731,"▁eiwit":1732,"ress":1733,"tie":1734,"▁goed":1735,"kom":1736,"IS":1737,"dem":1738,"ction":1739,"geb":1740,"▁(P":1741,"lex":1742,"▁man":1743,"▁cel":1744,"▁bin":1745,"stell":1746,"schieden":1747,"AD":1748,"bij":1749,"schiedenis":1750,"deren":1751,"))":1752,"ken.":1753,"eft":1754,"eter":1755,"vallen":1756,"oorz":1757,"▁syst":1758,"itis":1759,"-p":1760,"eratie":1761,"▁Q":1762,"IC":1763,"s:":1764,"▁normale":1765,"▁...":1766,"▁micro":1767,"ateg":1768,"uit":1769,"▁col":1770,"racht":1771,"▁controle":1772,"waar":1773,"50":1774,"fer":1775,"cedu":1776,"ram":1777,"-b":1778,"gev":1779,"ob":1780,"▁bep":1781,"gger":1782,"▁cellen":1783,"▁lever":1784,"gele":1785,"gen.":1786,"deel":1787,"heden":1788,"ecif":1789,"etische":1790,"CT":1791,"▁long":1792,"▁geïn":1793,"▁Dit":1794,"kte":1795,"ure":1796,"▁borst":1797,"▁bi":1798,"▁wee":1799,"tific":1800,"isic":1801,"centr":1802,"▁functie":1803,"ari":1804,"oten":1805,"▁par":1806,"▁omschreven":1807,"culaire":1808,",5":1809,"gende":1810,"▁beoor":1811,"▁co":1812,"uden":1813,"▁St":1814,"zien":1815,"▁uur":1816,"est":1817,"ocht":1818,"▁/":1819,"ator":1820,"-s":1821,"▁##":1822,"iddelen":1823,"ositie":1824,"▁intra":1825,"):":1826,"▁nieuwe":1827,"▁vorm":1828,"▁aanwezig":1829,"▁ru":1830,"10":1831,"▁resp":1832,"▁pla":1833,"dra":1834,"voor":1835,"voerd":1836,"indingen":1837,"▁beg":1838,"▁ster":1839,"▁imm":1840,"ieerd":1841,"▁sugger":1842,"▁(()":1843,"lan":1844,"igheid":1845,"▁mon":1846,"LO":1847,"▁tegen":1848,"cellen":1849,"-m":1850,"ug":1851,"atie.":1852,"ule":1853,"atische":1854,"ten.":1855,"▁bere":1856,"ablet":1857,"▁hyper":1858,":Cardiologie":1859,"▁post":1860,"▁toen":1861,"▁echter":1862,"test":1863,"fsel":1864,"▁uitgevoerd":1865,"ductie":1866,"▁normaal":1867,"AL":1868,"ID":1869,"▁Bij":1870,"groep":1871,"▁sc":1872,"▁activiteit":1873,"kend":1874,"ach":1875,"orie":1876,"cedure":1877,"chts":1878,"ax":1879,"hor":1880,"stig":1881,"▁hyp":1882,"voel":1883,"uren":1884,"rim":1885,"one":1886,"gens":1887,"co":1888,"▁vertoon":1889,"-re":1890,":CAR":1891,"▁plaat":1892,"▁ziekte":1893,"atief":1894,"▁kla":1895,"jes":1896,"▁res":1897,"▁vrouw":1898,"▁basis":1899,"▁201":1900,"eert":1901,"ING":1902,"▁lich":1903,"▁hem":1904,"tal":1905,"erg":1906,"oede":1907,"▁(C":1908,"▁com":1909,"▁eerste":1910,"nis":1911,"0,":1912,"▁Ge":1913,"ont":1914,"▁veroorz":1915,"AM":1916,"cin":1917,"▁ben":1918,"▁#":1919,"▁art":1920,"up":1921,"▁deel":1922,"ting":1923,"ikel":1924,"atuur":1925,"ie,":1926,"do":1927,"▁binnen":1928,"▁geï":1929,"▁gev":1930,"▁Pro":1931,"umor":1932,"spro":1933,"▁zowel":1934,"▁cardi":1935,"assoc":1936,"form":1937,"▁>":1938,"▁tra":1939,"rit":1940,"osf":1941,"▁Consult":1942,"▁ble":1943,"d,":1944,"elekt":1945,"▁verwij":1946,"▁risic":1947,"eu":1948,"▁groep":1949,"o-":1950,"chn":1951,"▁rol":1952,"▁1.":1953,"▁betro":1954,"▁nivea":1955,"▁and":1956,"▁gep":1957,"▁klinische":1958,"▁hoog":1959,"▁ep":1960,"rek":1961,"▁syn":1962,"▁veranderingen":1963,"mon":1964,"CH":1965,"wijl":1966,"stige":1967,"wijs":1968,"cept":1969,"ute":1970,"▁hoge":1971,"▁tijd":1972,"/L":1973,"▁veel":1974,"wijk":1975,"▁acu":1976,"▁zw":1977,"och":1978,"rag":1979,"lijke":1980,"huis":1981,"amil":1982,"unction":1983,"▁nu":1984,"()":1985,"stelling":1986,"▁Ant":1987,"ieken":1988,"▁am":1989,"vel":1990,"▁11":1991,"▁verhoogde":1992,"2)":1993,"▁significant":1994,"▁kin":1995,"▁gegevens":1996,"sus":1997,"20":1998,"▁reactie":1999,"ymf":2000,"air":2001,"a,":2002,"▁drie":2003,"▁Met":2004,"all":2005,"rium":2006,"▁gevolg":2007,"kan":2008,"schijn":2009,"bre":2010,"vat":2011,"▁gew":2012,"▁snel":2013,"▁wij":2014,"▁dis":2015,"▁werk":2016,"urende":2017,"▁ar":2018,"sten":2019,"▁lang":2020,"gem":2021,"▁onderzoe":2022,"▁Re":2023,"▁doel":2024,"oï":2025,"ude":2026,"assen":2027,"▁stab":2028,"▁analyse":2029,"▁19":2030,"lic":2031,"▁groot":2032,".0":2033,"ecifieke":2034,"regen":2035,"▁struct":2036,"▁diagn":2037,"**":2038,"▁1,":2039,"ome":2040,"▁terwijl":2041,"herapie":2042,"osis":2043,"▁100":2044,"▁rel":2045,"▁studies":2046,"LE":2047,"emen":2048,"▁dui":2049,"▁vergelijking":2050,"▁boven":2051,"▁samen":2052,"actor":2053,"▁ad":2054,"▁sym":2055,"▁via":2056,"▁waargenomen":2057,"t;":2058,"-4":2059,"delijke":2060,"▁niet-":2061,"▁ern":2062,"deling":2063,"▁verm":2064,"▁meest":2065,"MP":2066,"atus":2067,"II":2068,"ore":2069,"▁sle":2070,"dicatie":2071,"quentie":2072,"ingen.":2073,"weg":2074,"ble":2075,"ks":2076,"vul":2077,"oort":2078,"▁Ex":2079,"uk":2080,"▁cont":2081,"▁LV":2082,"bin":2083,"schrij":2084,"▁14":2085,"▁13":2086,"iver":2087,"▁CO":2088,"cul":2089,"▁ser":2090,"a.":2091,"▁ml":2092,"vas":2093,"▁Na":2094,"▁evalu":2095,"▁gest":2096,"IL":2097,"activiteit":2098,"low":2099,"▁nog":2100,"▁mech":2101,"▁(S":2102,"▁ac":2103,"emb":2104,"▁aantal":2105,"inale":2106,"▁metho":2107,"▁geassoc":2108,"ofd":2109,"onclusie":2110,"▁effecten":2111,"zuur":2112,"ategorie":2113,"kende":2114,"ith":2115,"/min":2116,"▁Boven":2117,"EG":2118,"duct":2119,"woord":2120,"▁bewijs":2121,"analyse":2122,"anc":2123,"ES":2124,"iding":2125,"schijnlijk":2126,"druk":2127,"-f":2128,"na":2129,"inding":2130,"rel":2131,"▁[(":2132,"ucle":2133,"▁end":2134,"▁bre":2135,"▁gek":2136,"oog":2137,"alc":2138,"▁Be":2139,"aterale":2140,"yten":2141,"0%":2142,"aliteit":2143,"▁ap":2144,"th":2145,"AS":2146,"ane":2147,"▁neuro":2148,"mp":2149,"▁The":2150,"▁significante":2151,"▁pat":2152,"und":2153,"▁gra":2154,"▁(N":2155,"▁ten":2156,"vla":2157,"xim":2158,"▁onderste":2159,"▁elekt":2160,"acter":2161,"geschiedenis":2162,"▁2.":2163,"afhan":2164,"i-":2165,"▁ken":2166,"▁mil":2167,"▁int":2168,"ATIE":2169,"aande":2170,"▁gele":2171,"AB":2172,"▁hog":2173,"gesteld":2174,"▁15":2175,"atige":2176,"los":2177,"comp":2178,"lijn":2179,"▁J":2180,"▁weefsel":2181,"▁haar":2182,"▁\"":2183,"gang":2184,"▁geassocieerd":2185,"▁blo":2186,"▁nodig":2187,"▁bil":2188,"erv":2189,"▁hij":2190,"last":2191,"▁Over":2192,"kelijke":2193,"▁positie":2194,"▁dif":2195,"▁aort":2196,"▁waarbij":2197,"▁mens":2198,"aakt":2199,"▁kleine":2200,"schrijving":2201,"iciën":2202,"eftijd":2203,"▁Op":2204,"▁dagen":2205,"▁beper":2206,"▁model":2207,"urg":2208,"▁gevoel":2209,"2,":2210,"iel":2211,"uid":2212,"▁genee":2213,"cel":2214,"emische":2215,"RI":2216,"▁&":2217,"▁beschreven":2218,"cent":2219,"anneer":2220,"▁onderzocht":2221,"▁<PERSOON":2222,"▁]":2223,"stand":2224,"▁-)":2225,"komen":2226,"eratieve":2227,"▁gedurende":2228,"stof":2229,"▁betrokken":2230,"▁opt":2231,"▁daar":2232,"eren,":2233,"AP":2234,"raag":2235,"▁grote":2236,"open":2237,"zym":2238,"▁minder":2239,"keur":2240,"perim":2241,"▁Antwoord":2242,"▁et":2243,"▁men":2244,"amine":2245,"uele":2246,"▁Thema":2247,"▁Categorie":2248,"▁plaats":2249,"▁Omschrijving":2250,"room":2251,"ED":2252,"pervla":2253,"versie":2254,"spre":2255,"▁(M":2256,"▁ob":2257,"opt":2258,"opro":2259,"▁extra":2260,"rische":2261,"▁200":2262,"▁Po":2263,"▁mg/":2264,"elde":2265,"▁org":2266,"ei":2267,"zicht":2268,"ctieve":2269,"mg":2270,"A-":2271,"ied":2272,"ood":2273,"▁gede":2274,"▁alleen":2275,"atie,":2276,"mo":2277,"duceerde":2278,"zet":2279,"▁immun":2280,"▁iden":2281,"▁Bovendien":2282,"▁poten":2283,"orte":2284,"▁acute":2285,"sse":2286,"mat":2287,"▁tumor":2288,"vent":2289,"▁leeftijd":2290,"luc":2291,"▁gl":2292,"tensie":2293,"▁cyt":2294,"▁proces":2295,"functie":2296,"▁vrij":2297,"str":2298,"ex":2299,"▁imp":2300,"iss":2301,"EF":2302,":Cardiologie,":2303,"▁Categorie:Cardiologie,":2304,"ondheid":2305,"▁verz":2306,"▁Ch":2307,"▁moe":2308,"▁neg":2309,"▁mole":2310,"gegevens":2311,"nam":2312,"▁afwijk":2313,"ool":2314,"▁aand":2315,"▁16":2316,"▁nier":2317,"▁lymf":2318,"▁hel":2319,"lat":2320,"▁PC":2321,"▁expressie":2322,"▁belangrijke":2323,"T-":2324,"stru":2325,"▁trans":2326,"▁opge":2327,"▁radi":2328,"ronische":2329,"ografie":2330,"0.":2331,"▁for":2332,"rans":2333,"▁hui":2334,"▁maan":2335,"ou":2336,"▁24":2337,"▁blij":2338,"elden":2339,"▁hersen":2340,"▁cm":2341,"rop":2342,"ret":2343,"ion:":2344,"▁ech":2345,"BC":2346,"amin":2347,"-C":2348,"▁18":2349,"adi":2350,"zel":2351,"isatie":2352,"én":2353,"RNA":2354,"▁dru":2355,"ulaire":2356,"▁prog":2357,"iaal":2358,"baarheid":2359,"▁volle":2360,"▁infectie":2361,"mb":2362,"▁Me":2363,"▁test":2364,"▁zeer":2365,"stan":2366,"▁leven":2367,"atum":2368,"▁zorg":2369,"▁DNA":2370,"1)":2371,"▁toege":2372,"vloed":2373,"▁ontwikkeling":2374,"▁vast":2375,"▁aangetoon":2376,"▁waarschijnlijk":2377,"kl":2378,"▁risico":2379,"2-":2380,"opath":2381,"ïne":2382,"▁type":2383,"iliteit":2384,"ken,":2385,"▁IV":2386,"orf":2387,"▁zelf":2388,"▁uw":2389,"opp":2390,"▁my":2391,"▁bepaal":2392,"geveer":2393,"▁Dis":2394,"OR":2395,"raak":2396,"▁IC":2397,"▁vit":2398,"MM":2399,"▁cons":2400,"▁to":2401,"▁lijk":2402,"-cellen":2403,"▁Sp":2404,"▁huidige":2405,"▁IN":2406,"ders":2407,"resent":2408,"kun":2409,"1,":2410,"ten,":2411,"hese":2412,"▁Consult,":2413,"1.":2414,"lulaire":2415,"▁Tablet":2416,"ine,":2417,"no":2418,"elat":2419,"ons":2420,"▁bevindingen":2421,"▁-D":2422,"1-":2423,"ogene":2424,"▁gecon":2425,"▁oor":2426,"▁Cardiologie":2427,"▁eigen":2428,"erd.":2429,"▁geh":2430,"actoren":2431,"eed":2432,"oornis":2433,"ijf":2434,"▁lage":2435,"▁geneesm":2436,"CG":2437,"▁eerder":2438,"▁vari":2439,"▁sympt":2440,"▁beide":2441,"▁aanzien":2442,"▁function":2443,"▁ple":2444,"ieën":2445,"ucht":2446,"lant":2447,"iot":2448,"▁Voor":2449,"gene":2450,"end":2451,"▁sec":2452,"ine-":2453,"5%":2454,"▁sla":2455,"▁the":2456,"eerd.":2457,"sche":2458,"▁verminderde":2459,"2.":2460,"rin":2461,"▁mid":2462,":N":2463,"rof":2464,"s)":2465,"▁middel":2466,"zoek":2467,"▁contra":2468,"/-":2469,"ocyten":2470,"par":2471,"eleid":2472,"▁(n":2473,"assa":2474,"leg":2475,"▁No":2476,"▁Omschrijving:CAR":2477,"▁Ne":2478,"elen":2479,"den,":2480,"▁verkregen":2481,"ica":2482,"uizen":2483,"▁Aan":2484,"urale":2485,"▁wel":2486,"▁dosis":2487,"vang":2488,"▁mult":2489,"▁3.":2490,"▁voed":2491,"▁gemiddel":2492,"▁mechanis":2493,"▁klachten":2494,"▁-A":2495,"ycl":2496,"één":2497,"iets":2498,"▁prim":2499,"PM":2500,"▁ang":2501,"houden":2502,"▁ret":2503,"ych":2504,"pass":2505,"omy":2506,"▁toename":2507,"tect":2508,"▁(D":2509,"ity":2510,"▁gevallen":2511,"25":2512,"▁weer":2513,"geen":2514,"▁wanneer":2515,"OS":2516,"AC":2517,"▁ur":2518,"omen.":2519,"▁(E":2520,"kele":2521,"▁aanwezigheid":2522,"behandel":2523,"▁med":2524,"▁(H":2525,"ging":2526,"▁even":2527,"▁identific":2528,"▁één":2529,"▁car":2530,"▁beïn":2531,"vou":2532,"▁som":2533,"▁pers":2534,"iele":2535,"▁0,0":2536,"irus":2537,"▁ongeveer":2538,"▁voorgeschiedenis":2539,"▁rem":2540,"irurg":2541,"ical":2542,"▁40":2543,"ieerde":2544,"▁gezien":2545,"▁concentr":2546,"▁kenmer":2547,"vloe":2548,"▁aut":2549,"aard":2550,"▁30":2551,"▁STE":2552,"▁stim":2553,"lt;":2554,"scri":2555,"▁techn":2556,"dentific":2557,":1":2558,"▁onge":2559,"ectiev":2560,"▁Hij":2561,"▁tonen":2562,"mie":2563,"▁complex":2564,"TI":2565,"▁verw":2566,"▁###":2567,"neum":2568,"eut":2569,"ph":2570,"ouw":2571,"cur":2572,"▁hadden":2573,"ectievelijk":2574,"▁menselijke":2575,"▁beeld":2576,"▁gezondheid":2577,"ptie":2578,"jectie":2579,"▁diagnose":2580,"▁moet":2581,"iwit":2582,"▁terug":2583,"omet":2584,"▁lucht":2585,"door":2586,"▁zieken":2587,"sul":2588,"wege":2589,"zelf":2590,"D-":2591,"fect":2592,"▁(con":2593,"/p":2594,"▁darm":2595,"elect":2596,"off":2597,"▁suggereren":2598,"lok":2599,"▁huis":2600,"30":2601,"▁weken":2602,"/m":2603,"▁enkele":2604,"▁water":2605,"▁25":2606,"▁X":2607,"▁(p":2608,"kanker":2609,"▁kanker":2610,"▁elk":2611,"▁ventr":2612,"-ex":2613,"merkt":2614,"▁medi":2615,"antie":2616,"sych":2617,"▁experim":2618,"rekking":2619,"▁toonde":2620,"▁Ze":2621,"▁hier":2622,"▁ges":2623,"ta":2624,"▁waaronder":2625,"3,":2626,"▁(T":2627,"stel":2628,"▁Ab":2629,"▁licht":2630,"▁maanden":2631,"lair":2632,"YY":2633,"▁aangetoond":2634,"▁goede":2635,"▁ratten":2636,"kg":2637,"beeld":2638,"unt":2639,"▁lichaam":2640,"ynam":2641,"▁richt":2642,"▁PO":2643,"▁voorsp":2644,"euze":2645,"ee\n":2646,"deeld":2647,"▁17":2648,"ode":2649,"wassen":2650,"dag":2651,"verd":2652,"sters":2653,"▁DA":2654,"▁iets":2655,"spann":2656,"lep":2657,"reg":2658,"▁(B":2659,"▁hoofd":2660,"hyl":2661,"▁Daar":2662,"▁gevonden":2663,"▁dist":2664,"▁wil":2665,"ingen,":2666,"▁interactie":2667,"▁bloot":2668,"▁gec":2669,"▁[PERSOON]:C":2670,"oorten":2671,"-6":2672,"▁gedi":2673,"▁zou":2674,"iatie":2675,"reat":2676,"fin":2677,"▁der":2678,"▁laes":2679,"▁with":2680,"plaat":2681,"▁dra":2682,"ieren":2683,"▁Hier":2684,"▁procedure":2685,"▁laat":2686,"ijnen":2687,"-9":2688,"▁lig":2689,"▁ernstige":2690,"▁coron":2691,"▁proble":2692,"vullen":2693,"gen,":2694,"CA":2695,"▁bleek":2696,"lig":2697,"▁staat":2698,"▁do":2699,"▁(L":2700,"ject":2701,"▁chronische":2702,"▁geïdentific":2703,"▁combin":2704,"Hg":2705,"▁geë":2706,"olische":2707,"-N":2708,"▁oppervla":2709,"▁fol":2710,"alcium":2711,"ibr":2712,"veel":2713,"▁opname":2714,"wijz":2715,"kin":2716,"lies":2717,"▁|":2718,"az":2719,"▁zal":2720,"▁(R":2721,"ple":2722,"requentie":2723,"horax":2724,"▁respectievelijk":2725,"▁(conversie":2726,"▁(conversiegegevens":2727,"ysteem":2728,"▁inform":2729,"▁laag":2730,"ade":2731,"afhankelijke":2732,"▁CD":2733,"volgens":2734,"ix":2735,"houd":2736,"▁ziekenhuis":2737,"▁[PERSOON]:Conclusie":2738,"▁huid":2739,"▁(conversiegegevens),":2740,"▁enzym":2741,"▁se":2742,"▁vier":2743,"▁voorkomen":2744,"▁vis":2745,"▁beve":2746,"▁vaak":2747,"vorming":2748,"▁mit":2749,"▁'":2750,"werk":2751,"gra":2752,"▁overeen":2753,"sing":2754,"AG":2755,"aag":2756,"ograf":2757,"romb":2758,"ry":2759,"luor":2760,"schappen":2761,"▁bot":2762,"▁Hoe":2763,"um,":2764,"▁vo":2765,"uik":2766,"▁onze":2767,"▁PM":2768,"▁Ad":2769,"GF":2770,"▁lab":2771,"▁+/-":2772,"▁2,":2773,"▁-Datum":2774,"ichte":2775,"tern":2776,"embra":2777,"amilie":2778,"nese":2779,"lij":2780,"heel":2781,"▁(F":2782,"▁geneesmiddelen":2783,"▁groter":2784,"MMING":2785,"▁impl":2786,"▁ve":2787,"ormale":2788,"▁nauw":2789,"▁gemiddelde":2790,"▁lip":2791,"ilich":2792,"maak":2793,"▁onderzoeken":2794,"ial":2795,"▁50":2796,"▁vas":2797,"▁RR":2798,"▁geven":2799,"ust":2800,"3)":2801,"3.":2802,"heer":2803,"ILY":2804,"▁BLO":2805,"osit":2806,"%)":2807,"igen":2808,"▁totale":2809,"-8":2810,"middel":2811,"▁niveau":2812,"▁gebied":2813,"▁II":2814,"▁specifieke":2815,"▁niveaus":2816,"▁operatie":2817,"erden":2818,"▁str":2819,"▁un":2820,"onde":2821,"▁meerdere":2822,"▁ische":2823,"sor":2824,"aling":2825,"schapp":2826,"▁betrekking":2827,"▁pneum":2828,"▁ass":2829,"maal":2830,"▁rapp":2831,"▁(A":2832,"▁<PERSOON>":2833,"nem":2834,"▁verhoogd":2835,"verander":2836,"int":2837,"▁as":2838,"afg":2839,"splant":2840,"vid":2841,"oloog":2842,"▁vl":2843,"▁aandoen":2844,"▁volwassen":2845,"▁therap":2846,"▁bekend":2847,"nivea":2848,"▁mut":2849,"▁var":2850,"cop":2851,"abet":2852,"ly":2853,"achte":2854,"▁asp":2855,"▁methode":2856,"▁bereik":2857,"ventie":2858,"st:":2859,"▁hep":2860,"▁DAILY":2861,"t,":2862,"hol":2863,"▁indi":2864,"▁verwijder":2865,"inus":2866,"▁recept":2867,"▁verder":2868,":Nee\n":2869,"ange":2870,"▁duidelijk":2871,"gemeen":2872,"▁verband":2873,"ief":2874,"▁fosf":2875,"14":2876,"▁omdat":2877,"fusie":2878,"▁ou":2879,"P-":2880,"hydro":2881,"▁belangrijkste":2882,"UR":2883,"cler":2884,"▁zijn.":2885,"ocardi":2886,"lob":2887,"these":2888,"▁STEMMING":2889,"je":2890,"wicht":2891,"▁4.":2892,"▁Di":2893,"arige":2894,"m.":2895,"▁aanzienlijk":2896,"▁geval":2897,"PR":2898,"enten":2899,"luit":2900,"zelfde":2901,"ferent":2902,"eur":2903,"deelt":2904,"▁th":2905,"AN":2906,"rale":2907,"ionele":2908,"r.":2909,"▁bacter":2910,"ratie":2911,"av":2912,"line":2913,"onale":2914,"rose":2915,"▁veroorzaakt":2916,"iciteit":2917,"▁oplos":2918,"arct":2919,"▁teken":2920,"komst":2921,"▁waardoor":2922,"tre":2923,"iode":2924,"▁artikel":2925,"▁chrom":2926,"kers":2927,"▁metab":2928,"structie":2929,"▁oraal":2930,"▁(2":2931,"▁effectie":2932,"-eiwit":2933,"▁lijkt":2934,"▁lo":2935,"▁onthul":2936,"▁nucle":2937,"struct":2938,"▁stam":2939,"lucose":2940,"order":2941,"▁beschik":2942,"kw":2943,"▁hoeveel":2944,"▁gedrag":2945,"▁symptomen":2946,"▁vanwege":2947,"▁pul":2948,"A)":2949,"iter":2950,"ing:":2951,"geleken":2952,"amer":2953,"12":2954,"oïde":2955,"▁gesch":2956,"eks":2957,"irect":2958,"▁behandeld":2959,"itu":2960,"isme":2961,"inds":2962,"zaam":2963,"▁hydro":2964,"▁Hoewel":2965,"sente":2966,"odi":2967,"▁regul":2968,"OD":2969,"embraan":2970,"droom":2971,"inf":2972,"icale":2973,"CV":2974,"sma":2975,"▁-()":2976,"bel":2977,"▁muizen":2978,"▁adem":2979,"oornissen":2980,"i.":2981,"omie":2982,"▁ondersteun":2983,"otische":2984,"▁ECG":2985,"tische":2986,"over":2987,"inu":2988,"concentr":2989,"▁Van":2990,"uun":2991,"▁opn":2992,"zonder":2993,"S-":2994,"ON:":2995,"IV":2996,"otor":2997,"standig":2998,"],":2999,"ine.":3000,"▁du":3001,"ologisch":3002,"-up":3003,"▁stabiel":3004,"emie":3005,"lyc":3006,"zorg":3007,"▁medische":3008,"▁gast":3009,"ysi":3010,"-j":3011,":4":3012,"ated":3013,"▁kinderen":3014,"▁&lt;":3015,"▁CV":3016,"[DATUM]":3017,"▁plan":3018,"amet":3019,"oire":3020,"▁elke":3021,"▁overle":3022,"-k":3023,"▁verst":3024,"▁abd":3025,"▁toonden":3026,"scop":3027,"▁vert":3028,"igh":3029,"▁leid":3030,"ziekte":3031,"▁lok":3032,"▁voort":3033,"▁Patiën":3034,"utie":3035,"vis":3036,".\n":3037,"▁hist":3038,"▁inc":3039,"▁At":3040,"▁suc":3041,"TR":3042,"▁status":3043,"▁direct":3044,"▁gemeten":3045,"PO":3046,"▁combinatie":3047,"▁fen":3048,"▁RV":3049,"▁gebas":3050,"▁correl":3051,"▁neur":3052,"▁gelijk":3053,"atheter":3054,"inden":3055,"ronen":3056,"ene":3057,"6,":3058,"tens":3059,"▁tablet":3060,"▁bla":3061,"app":3062,"▁recht":3063,"▁medic":3064,"iklin":3065,"ary":3066,"▁verd":3067,"7,":3068,"▁zij":3069,"▁spec":3070,"▁moeten":3071,"quent":3072,"MI":3073,"▁En":3074,"▁informatie":3075,"8,":3076,"model":3077,"5,":3078,"inig":3079,"eerden":3080,"HU":3081,"lot":3082,"abetes":3083,"richt":3084,"▁bron":3085,"▁contrast":3086,"▁val":3087,"eeds":3088,"▁primaire":3089,"pers":3090,"emm":3091,"▁pt":3092,"▁blijft":3093,"▁bevestig":3094,"ximale":3095,"▁vertoonden":3096,"gemen":3097,"▁gegeven":3098,"H-":3099,"duceerd":3100,"▁vertoonde":3101,"▁groe":3102,"▁suggereert":3103,"▁MRI":3104,"▁vloe":3105,"▁hogere":3106,"R-":3107,"▁psych":3108,"▁transcri":3109,"C-":3110,"▁Cardi":3111,"LOC":3112,"4,":3113,"slagader":3114,"ura":3115,"ede":3116,"atient":3117,"▁cent":3118,"ulte":3119,"▁soorten":3120,"ivering":3121,"5)":3122,"▁sten":3123,"▁PT":3124,"▁achter":3125,"KEN":3126,"reen":3127,"▁present":3128,"itme":3129,"▁hypertensie":3130,"imm":3131,"▁beschrij":3132,"▁dus":3133,"gemene":3134,"▁foc":3135,"▁(1)":3136,"▁tr":3137,"▁grootte":3138,"cinoom":3139,"▁rechts":3140,"▁toepass":3141,"arak":3142,"▁uitgebre":3143,"istent":3144,"clu":3145,"11":3146,"▁ox":3147,"▁chem":3148,"▁aanwijz":3149,"▁Onder":3150,"▁moleculaire":3151,"arakter":3152,"ins":3153,"▁chirurg":3154,"ig:":3155,"ZIE":3156,"ior":3157,"gaan":3158,"LOCATIE":3159,"▁mar":3160,"imale":3161,"▁afhan":3162,"gte":3163,"▁individ":3164,"▁net":3165,"▁-B":3166,"▁kenmerken":3167,"▁remm":3168,"▁onderzoek:":3169,"▁kre":3170,"▁-C":3171,"HUIS":3172,"7.":3173,"KENHUIS":3174,"tieel":3175,"v.":3176,"spie":3177,"ZIEKENHUIS":3178,"▁waarvoor":3179,"▁nan":3180,"▁vergelijkbaar":3181,"wn":3182,"▁laatste":3183,"ild":3184,"▁hoger":3185,"pijn":3186,"▁gal":3187,"▁tekenen":3188,"mige":3189,"kk":3190,"▁centr":3191,"▁pop":3192,"▁recente":3193,"rip":3194,"centage":3195,"-geïn":3196,"▁bespro":3197,"▁verschil":3198,"▁-S":3199,"▁eerdere":3200,"ulp":3201,"iculaire":3202,"▁evaluatie":3203,"tran":3204,"metho":3205,"loed":3206,"aden":3207,"▁0.":3208,"aps":3209,"▁zien":3210,"▁(m":3211,"▁kon":3212,"▁matige":3213,"▁prote":3214,"4)":3215,"/l":3216,"opla":3217,"▁loc":3218,"ceptor":3219,"chte":3220,"low-up":3221,"dragen":3222,"ital":3223,"▁mogelijke":3224,"▁Onze":3225,"erend":3226,"▁-T":3227,"▁vitro":3228,"anger":3229,"iz":3230,"▁mmHg":3231,"▁cir":3232,"inge":3233,"▁buik":3234,"uze":3235,"▁MCH":3236,"ffect":3237,"tegen":3238,"▁vrouwen":3239,"▁volledig":3240,"▁druk":3241,"atine":3242,"▁voorafg":3243,"▁beoordeeld":3244,"itieve":3245,"▁geschiedenis":3246,"osp":3247,"▁sterk":3248,"+)":3249,"▁(I":3250,"▁atrium":3251,"lop":3252,"▁serum":3253,"▁vervolgens":3254,"mper":3255,"ose.":3256,"ice":3257,"ay":3258,"▁minu":3259,"▁fase":3260,"▁is.":3261,"aken":3262,"alf":3263,"rief":3264,"▁Tot":3265,"▁systeem":3266,"rine":3267,"▁bilaterale":3268,"▁gemeen":3269,"ory":3270,"▁resulte":3271,"▁different":3272,"▁ziek":3273,"▁tweede":3274,"gelijke":3275,"pleeg":3276,"var":3277,"oscop":3278,"lif":3279,"-##":3280,"▁(G":3281,"-10":3282,"O2":3283,"ime":3284,"%,":3285,"raat":3286,"▁ons":3287,"▁evenals":3288,"genomen.":3289,"ueel":3290,"eutische":3291,"ocyt":3292,"▁hand":3293,"laag":3294,"ragen":3295,"▁RD":3296,"▁non":3297,"vatten":3298,"aker":3299,"▁vet":3300,"voudige":3301,"log":3302,"000":3303,"▁inspann":3304,"▁vere":3305,"atrium":3306,"▁path":3307,"eptide":3308,"I)":3309,"anden":3310,"▁steeds":3311,"▁mat":3312,"ATIE:":3313,"▁structuur":3314,"▁Antwoord:CAR":3315,"specifieke":3316,"▁succes":3317,"omein":3318,"ege":3319,"ol/L":3320,"rui":3321,"lip":3322,"▁factor":3323,"teg":3324,"▁Disp":3325,"▁vergeleken":3326,"car":3327,"E:":3328,"S)":3329,"us.":3330,"▁ervan":3331,"▁slechts":3332,"▁potent":3333,"rakt":3334,"▁Ca":3335,"▁Uit":3336,"▁bestude":3337,"▁Niet":3338,"UL":3339,"▁algemeen":3340,"▁Sig:":3341,"▁Thema:Cardiologie":3342,"▁lichte":3343,"▁benader":3344,"▁negatief":3345,"aand":3346,"orator":3347,"wijzig":3348,"▁maag":3349,"HT":3350,"illig":3351,"yper":3352,"▁geïdentificeerd":3353,"▁ker":3354,"▁link":3355,"CC":3356,"▁ag":3357,"▁stand":3358,"▁aanwijzingen":3359,"▁invloed":3360,"▁klein":3361,"resp":3362,"▁dagelijk":3363,"▁panc":3364,"▁AF":3365,"ider":3366,"▁eiwitten":3367,"etten":3368,"▁ruim":3369,"▁kort":3370,"iseerd":3371,"PC":3372,"-test":3373,"atisch":3374,"raal":3375,"▁IL":3376,"land":3377,"▁vermogen":3378,"▁3,":3379,"▁afhankelijk":3380,"▁60":3381,"ibrill":3382,"▁kreeg":3383,"**]":3384,"bi":3385,"▁verandering":3386,"▁functionele":3387,"▁tromb":3388,"▁laten":3389,"▁contact":3390,"ibiot":3391,"uff":3392,"5.":3393,"roon":3394,"ICATIE:":3395,"gt":3396,"rond":3397,"dan":3398,"nese:":3399,"▁AS":3400,"tegenwoor":3401,"▁Ph":3402,"-jarige":3403,"▁AT":3404,"iew":3405,"▁gemaak":3406,"IT":3407,"▁zuur":3408,"ysp":3409,"▁complic":3410,"ain":3411,"▁all":3412,"▁open":3413,"▁opnieuw":3414,"P)":3415,"▁AD":3416,"▁Pt":3417,"iseerde":3418,"▁zen":3419,"▁PR":3420,"keld":3421,"omische":3422,"▁5.":3423,"sieke":3424,"▁(3":3425,"▁kom":3426,"▁mel":3427,"-19":3428,"▁s/p":3429,"▁antilich":3430,"▁bijn":3431,"▁meeste":3432,"▁stress":3433,"offen":3434,"▁eigenschappen":3435,"aad":3436,"60":3437,"▁immuun":3438,"ume":3439,"▁zicht":3440,"-st":3441,"A,":3442,"▁beh":3443,"▁hulp":3444,"▁sele":3445,"▁Als":3446,"▁week":3447,"-g":3448,"▁prot":3449,"us,":3450,"▁polym":3451,"ling":3452,"zij":3453,"▁nood":3454,"▁maken":3455,"▁aanbe":3456,"oment":3457,"tectie":3458,"▁hoewel":3459,"ero":3460,"▁mater":3461,"80":3462,"operatieve":3463,"anische":3464,"cursus":3465,"19":3466,"▁bieden":3467,"6.":3468,"S:":3469,"past":3470,"cellulaire":3471,"lor":3472,"▁nut":3473,"ergie":3474,"ocard":3475,"amp":3476,"▁begin":3477,"▁snelheid":3478,"▁Per":3479,"▁Am":3480,"▁massa":3481,"OM":3482,"ijd:":3483,"gels":3484,"▁actieve":3485,"▁normaal.":3486,"▁gewicht":3487,"▁geëvalu":3488,"▁gebrui":3489,"▁oog":3490,"▁beïnvloe":3491,"▁kwant":3492,"-d":3493,"▁therapie":3494,"gere":3495,"▁mg/d":3496,"▁CR":3497,"DICATIE:":3498,"▁midden":3499,"▁Antwoord:":3500,"ile":3501,"▁spier":3502,"▁iv":3503,"genen":3504,"▁kracht":3505,"trol":3506,"▁beoordelen":3507,"▁opgenomen":3508,"kla":3509,"▁rest":3510,"ivo":3511,"spraak":3512,"▁stimul":3513,"arts":3514,"entele":3515,"nt":3516,"anten":3517,"fen":3518,"-inf":3519,"elateerde":3520,"▁genen":3521,"▁rapport":3522,"aalde":3523,"iciëntie":3524,"zen.":3525,"▁zenuw":3526,"st.":3527,"ziek":3528,"▁vastgesteld":3529,"▁bio":3530,"▁BP":3531,"▁[ZIEKENHUIS":3532,"▁intact":3533,"pe":3534,"EL":3535,"olom":3536,"▁groei":3537,"out":3538,"cc":3539,"▁hemat":3540,"erie":3541,"▁anti-":3542,"▁(t":3543,"▁aorta":3544,"▁beperkt":3545,"alisatie":3546,"▁super":3547,"ression:":3548,"▁ste":3549,"gram":3550,"▁gevoeligheid":3551,"yla":3552,"pak":3553,"CT-":3554,"bla":3555,"▁omge":3556,"achtige":3557,"ociale":3558,"▁name":3559,"ding":3560,"▁potentieel":3561,"istof":3562,"ov":3563,"sole":3564,"vullend":3565,"▁RNA":3566,"40":3567,"▁genetische":3568,"tijd":3569,"▁ademhal":3570,"amelijk":3571,"▁bekken":3572,"mino":3573,"▁vivo":3574,"▁(d":3575,"▁fib":3576,"erm":3577,"eleid:":3578,"arge":3579,"agen":3580,"▁mal":3581,"▁alf":3582,"▁moment":3583,"fic":3584,"▁nee":3585,"tig":3586,"4.":3587,"▁liter":3588,"armac":3589,"▁hom":3590,"ongen":3591,"▁bepaald":3592,"idatie":3593,"ail":3594,"elt":3595,"▁nauwkeur":3596,"atoire":3597,"F-":3598,"mische":3599,"▁wervel":3600,"▁progressie":3601,"ock":3602,"▁dezelfde":3603,"behandeling":3604,"▁gesla":3605,"ameter":3606,"▁ontwikkeld":3607,"▁verbetering":3608,"▁regio":3609,"▁periode":3610,"standigheden":3611,"tr":3612,"▁volgende":3613,"▁vroege":3614,"lamm":3615,"oler":3616,"onderzoek":3617,"▁INDICATIE:":3618,"▁CH":3619,"ecifiek":3620,"tex":3621,"▁ontde":3622,"▁groepen":3623,"slo":3624,"▁mate":3625,"▁follow-up":3626,"▁morf":3627,"15":3628,"▁leiden":3629,"▁waarvan":3630,"ateraal":3631,"cedure:":3632,"▁receptor":3633,"▁oste":3634,":3":3635,"▁proef":3636,"▁rele":3637,"idi":3638,"edeem":3639,"▁mann":3640,"JD":3641,"▁sommige":3642,"▁en/":3643,"groot":3644,"matig":3645,"▁Thema:":3646,"-v":3647,"halte":3648,"olester":3649,"▁Gen":3650,"▁diagnost":3651,"▁verzam":3652,"▁80":3653,"systeem":3654,"ractie":3655,"omin":3656,"▁dicht":3657,"▁oraal;":3658,"▁zwanger":3659,"▁gericht":3660,"stroom":3661,"▁en/of":3662,"middelen":3663,"▁perif":3664,"▁continu":3665,"▁beter":3666,"▁mis":3667,"man":3668,"▁bloeddruk":3669,"▁relatie":3670,"▁verdere":3671,"▁kn":3672,"klier":3673,"16":3674,".\r":3675,"▁hoeveelheid":3676,"itte":3677,"▁fluor":3678,"dit":3679,"▁fot":3680,"vers":3681,"esc":3682,"▁geïsole":3683,"urele":3684,"▁echo":3685,"▁-K":3686,"▁arter":3687,"▁productie":3688,"▁LAD":3689,"70":3690,"drukt":3691,"▁levens":3692,"horac":3693,"bere":3694,"-di":3695,"▁richtlijn":3696,"agon":3697,"aliseerde":3698,"oem":3699,"ameters":3700,"▁toont":3701,"▁sinds":3702,"ace":3703,"▁signaal":3704,"volle":3705,"▁afge":3706,"doende":3707,"ichten":3708,"s-":3709,"tale":3710,"▁vertegenwoor":3711,"▁calcium":3712,"▁HR":3713,"▁naam":3714,"ae":3715,"▁vir":3716,"sen.":3717,"▁positieve":3718,"-geïnduceerde":3719,"ance":3720,"▁links":3721,"inter":3722,"▁mechanismen":3723,"hou":3724,"▁ven":3725,"-expressie":3726,"▁gedetect":3727,"▁sh":3728,"▁factoren":3729,"▁lange":3730,"▁inge":3731,"▁stellen":3732,"9,":3733,"itor":3734,"ract":3735,"namelijk":3736,"▁wand":3737,"-##>":3738,"▁ST":3739,"aste":3740,"verdracht":3741,"orb":3742,"8.":3743,"▁oorz":3744,"▁anti":3745,"D)":3746,"▁totaal":3747,"▁beoordeling":3748,"▁urine":3749,"▁centrale":3750,"▁actie":3751,"▁frequentie":3752,"datum":3753,"▁patho":3754,"▁respons":3755,"▁weinig":3756,"▁RDW":3757,"▁gedeelt":3758,"13":3759,"-n":3760,"TIJD":3761,"lang":3762,"▁Overzicht":3763,"EFTIJD":3764,"▁vijf":3765,"stoornissen":3766,"(21":3767,"▁volgens":3768,"▁blootstelling":3769,"▁versus":3770,"▁lagere":3771,"▁koort":3772,"imeter":3773,"▁duur":3774,"▁temper":3775,"▁vormen":3776,":0":3777,"asp":3778,"LEEFTIJD":3779,"▁hypot":3780,"illigram":3781,"Gy":3782,"▁toedien":3783,"dex":3784,"▁He":3785,"istentie":3786,"▁bespre":3787,"▁gezondheids":3788,"T:":3789,"▁kl":3790,"scheiden":3791,"atiënten":3792,"▁milligram":3793,"stre":3794,"▁gevolgd":3795,"ros":3796,"▁kwaliteit":3797,"adem":3798,"▁kat":3799,"ocol":3800,"tij":3801,"-M":3802,"▁organis":3803,"▁poly":3804,"▁secund":3805,"ril":3806,"akkelijk":3807,"▁mond":3808,"itale":3809,"cohol":3810,"lut":3811,"-pro":3812,"▁meestal":3813,"▁afwijkingen":3814,"▁verbeterde":3815,"waarde":3816,"▁gepre":3817,"▁app":3818,"▁Un":3819,"sluit":3820,"▁voornamelijk":3821,"▁ontste":3822,"ument":3823,"asen":3824,"▁colleg":3825,"ies.":3826,"▁vrije":3827,"ines":3828,"kingen":3829,"▁veroorzaak":3830,"▁geken":3831,"agnose":3832,"▁ax":3833,"▁mRNA":3834,"▁stroom":3835,"▁volledige":3836,"▁membraan":3837,"-S":3838,"▁biologische":3839,"▁hum":3840,"▁datum,":3841,"weging":3842,"▁Alle":3843,"▁insul":3844,"▁Ac":3845,"▁aden":3846,"-5":3847,"▁bepalen":3848,"▁snelle":3849,"opathie":3850,"amenvat":3851,"ree":3852,"▁bew":3853,"▁hepat":3854,"▁gekenmerkt":3855,"DI":3856,"▁Pol":3857,"▁concentratie":3858,"T)":3859,"fibrill":3860,"idelijk":3861,":00":3862,"▁impression:":3863,"issie":3864,"umb":3865,"%.":3866,"/ml":3867,"▁Af":3868,"▁vereist":3869,"S.":3870,"MPAR":3871,"wand":3872,"ess":3873,"▁disc":3874,"▁7.":3875,"▁chromos":3876,"▁Hist":3877,"▁prest":3878,"oxiciteit":3879,"▁oedeem":3880,"oma":3881,"▁Ech":3882,"ifte":3883,"gestelde":3884,"▁middelen":3885,"verb":3886,"▁cellulaire":3887,"aten.":3888,"plic":3889,"waarden":3890,"SC":3891,"fte":3892,"MPARIS":3893,"ochten":3894,"miss":3895,"fus":3896,"▁manier":3897,"engte":3898,"▁mac":3899,"R)":3900,"▁gaat":3901,"18":3902,"▁(V":3903,"▁implant":3904,"▁bekende":3905,"▁potentiële":3906,"uter":3907,"▁AM":3908,"reactie":3909,"matige":3910,"17":3911,"▁fy":3912,"otherapie":3913,"aardig":3914,"gelopen":3915,"▁AP":3916,"▁Zo":3917,"ycard":3918,"A.":3919,"▁negatieve":3920,"to":3921,"▁waarin":3922,"▁enkel":3923,"view":3924,"afhankelijk":3925,"▁assoc":3926,"ificatie":3927,":5":3928,"▁PCI":3929,"▁HC":3930,"▁vorming":3931,"▁(c":3932,"▁All":3933,"▁mechanisme":3934,"▁onbe":3935,"accin":3936,"▁Lab":3937,"▁antibiot":3938,"▁,":3939,"schappelijke":3940,"▁Patiënt":3941,"asis":3942,"▁algemene":3943,"▁bra":3944,"▁product":3945,"▁gepresente":3946,"adig":3947,"trans":3948,"▁bevat":3949,"▁kal":3950,"raktijk":3951,"teel":3952,"▁sinus":3953,"rist":3954,"cht:":3955,"90":3956,"▁karakter":3957,"▁glyc":3958,"ogram":3959,"▁duidelijke":3960,"oeder":3961,"▁Le":3962,"spron":3963,"-A":3964,"▁pulmon":3965,"▁Normale":3966,"lol":3967,"reas":3968,"▁elektro":3969,"weefsel":3970,"▁mensen":3971,"uiten":3972,"oeg":3973,"stud":3974,"▁gereg":3975,");":3976,"▁literatuur":3977,"gebruik":3978,"expressie":3979,"oratorium":3980,"▁zwangerschap":3981,"nn":3982,"oxy":3983,"riale":3984,"▁cort":3985,"BP":3986,"oxide":3987,"▁blijven":3988,"▁gecontrole":3989,"▁gemeld":3990,"(2)":3991,"medi":3992,"▁spra":3993,"spectie":3994,"▁Medic":3995,"ilijk":3996,"▁mass":3997,"de.":3998,"▁form":3999,"pol":4000,"▁gedilat":4001,"danks":4002,"▁mGy":4003,"elateerd":4004,"▁Y":4005,"▁familie":4006,"MPARISON:":4007,"ser":4008,"genese":4009,"▁ICD":4010,"ET":4011,"lijden":4012,"▁zetten":4013,"▁((21":4014,"put":4015,"ric":4016,":2":4017,"onclusie:":4018,"verlies":4019,"ight":4020,"▁leidt":4021,"iging":4022,"oet":4023,"▁gemaakt":4024,"▁afgele":4025,"▁rug":4026,"▁AL":4027,"▁gebieden":4028,"▁regel":4029,"vasculaire":4030,"▁bestaande":4031,"fosf":4032,"▁dien":4033,"yste":4034,"mende":4035,"▁BLOED":4036,"▁waargenomen.":4037,"idine":4038,"DL":4039,"aven":4040,"orale":4041,"▁klinisch":4042,"C)":4043,"▁distale":4044,"▁Cor":4045,"▁opz":4046,"gelen":4047,"▁[PERSOON]:":4048,"▁korte":4049,"▁stop":4050,"▁cardiale":4051,"▁oude":4052,"].":4053,"▁cere":4054,"▁plasm":4055,"▁dysp":4056,"▁hals":4057,"▁MI":4058,"acet":4059,"-7":4060,"▁y":4061,"▁keer":4062,"bine":4063,"gerelateerde":4064,"ieve":4065,"▁vasculaire":4066,"▁<PERSOON-##>":4067,"ose,":4068,"▁gepro":4069,"▁UR":4070,"reden":4071,"alys":4072,"▁variab":4073,"zame":4074,"bo":4075,"digen":4076,"niveau":4077,"▁ventrikel":4078,"▁gehad":4079,"ulf":4080,"ans":4081,"▁vocht":4082,"atale":4083,"▁WBC":4084,"▁'s)":4085,"wegen":4086,"▁BID":4087,"▁therapeutische":4088,"YYYY":4089,"▁hartf":4090,"▁fem":4091,"lass":4092,"ase-":4093,"▁verster":4094,"EM":4095,"▁waarde":4096,"▁geëvalueerd":4097,"els":4098,"ografische":4099,"▁medicatie":4100,"▁rond":4101,"▁mod":4102,"▁bloe":4103,"serv":4104,"CT-CT-":4105,"wezen":4106,"activ":4107,"S,":4108,"▁)":4109,"cum":4110,"▁standaard":4111,"▁sens":4112,"otype":4113,"▁centimeter":4114,"gt;":4115,"loc":4116,"operatie":4117,"-,":4118,"▁(4":4119,"▁let":4120,"▁geanalyse":4121,"stit":4122,"ullen":4123,"▁spect":4124,"▁reacties":4125,"antwoor":4126,"▁afgelopen":4127,"▁afwezig":4128,"▁activering":4129,"ionale":4130,"elling":4131,"oplast":4132,"▁Sc":4133,"▁zijn,":4134,"rib":4135,"▁Rec":4136,"uleerde":4137,"reng":4138,"▁minuten":4139,"ien.":4140,"▁abn":4141,"▁retro":4142,"▁COMPARISON:":4143,"▁vervolg":4144,"▁:":4145,"kundige":4146,"▁pl":4147,"▁beïnvloed":4148,"a)":4149,"uleerd":4150,"▁binding":4151,"lag":4152,"▁4,":4153,"cip":4154,"▁mes":4155,"oprote":4156,"▁geplaat":4157,"▁dergelijke":4158,"-D":4159,"▁tum":4160,"▁afname":4161,"able":4162,"▁poliklin":4163,"▁geschik":4164,"hel":4165,"iteiten":4166,"▁emb":4167,"mijn":4168,"orgen":4169,"▁proefpers":4170,"▁gren":4171,"-cel":4172,"▁houden":4173,"▁cell":4174,"▁pleura":4175,"▁AC":4176,"▁gesp":4177,"ulaties":4178,"emming":4179,"▁isol":4180,"▁bed":4181,"▁sche":4182,"erior":4183,"indt":4184,"olie":4185,"▁diabetes":4186,"▁komen":4187,"▁omvatten":4188,"▁consistent":4189,"ochond":4190,"▁seg":4191,"SI":4192,"▁dynam":4193,"quenties":4194,"staat":4195,"-P":4196,"iedt":4197,"▁peric":4198,"agnost":4199,"▁90":4200,"▁vooral":4201,"__":4202,"▁route":4203,"D,":4204,"ikkel":4205,"▁is,":4206,"6)":4207,"▁-Datum:":4208,"kings":4209,"▁6.":4210,"ogn":4211,"ijst:":4212,"oc>":4213,"▁verspre":4214,"lect":4215,"-test-test":4216,"ypische":4217,"omyc":4218,"▁AV":4219,"euzel":4220,"liferatie":4221,"raz":4222,"▁-Keuzel":4223,"▁-Keuzelijst:":4224,"▁Conclusie":4225,"lement":4226,"▁bevatten":4227,"gener":4228,"onent":4229,"▁CT-":4230,"▁cult":4231,"aanse":4232,"▁(9":4233,"heid,":4234,"oprolol":4235,"▁biedt":4236,"atist":4237,"▁beschouw":4238,"▁zuurstof":4239,"etisch":4240,"▁pancreas":4241,"▁inciden":4242,"▁thuis":4243,"▁oorspron":4244,"▁onop":4245,"▁positief":4246,"▁dim":4247,"▁onderzochten":4248,"▁colla":4249,"acem":4250,"▁gedetecteerd":4251,"aties.":4252,"ors":4253,"termin":4254,"▁Ig":4255,"score":4256,"NI":4257,"▁Vers":4258,"▁coronair":4259,"uiv":4260,"werking":4261,"▁apopt":4262,"ysiologische":4263,"▁screen":4264,"▁depressie":4265,"othorax":4266,"▁HT":4267,"st,":4268,"▁endot":4269,"ili":4270,"▁produc":4271,"▁NE":4272,"generatieve":4273,"▁veil":4274,"kant":4275,"ating":4276,"product":4277,"ritme":4278,"▁ivm":4279,"▁syndroom":4280,"▁Hg":4281,"▁detectie":4282,"▁gere":4283,"▁geïnduceerde":4284,"▁ess":4285,"yr":4286,"▁Com":4287,"▁-Tijd:":4288,"9.":4289,"ynth":4290,"xy":4291,"nemers":4292,"LEEFTIJD]":4293,"▁problemen":4294,"amma":4295,"-12":4296,"▁chemische":4297,"icul":4298,"de,":4299,"▁remming":4300,"▁leuk":4301,"▁opzichte":4302,"▁\u0000":4303,"daag":4304,"lacht:":4305,"▁Te":4306,"▁patient":4307,"C.":4308,"▁22":4309,"ospital":4310,"▁experimentele":4311,"▁zeld":4312,"▁omvat":4313,"LP":4314,"▁kool":4315,"▁gener":4316,"▁dieren":4317,"edieerde":4318,"tenis":4319,"eling":4320,"alen.":4321,"ement":4322,"▁Ten":4323,"▁control":4324,"▁buiten":4325,"te.":4326,"gader":4327,"▁toediening":4328,"eria":4329,"▁zichtbaar":4330,"▁beschikbaar":4331,"spir":4332,"yse":4333,"gewicht":4334,"▁(5":4335,"olf":4336,"ody":4337,"ben":4338,"consult":4339,"productie":4340,"(2":4341,"alp":4342,"èt":4343,"oord":4344,"/kg":4345,"▁verl":4346,"▁ritme":4347,"▁gerelateerd":4348,"▁injectie":4349,"atio":4350,"▁natuur":4351,"eek":4352,"▁zes":4353,"oep":4354,"DATUM>":4355,"osine":4356,"▁cycl":4357,"erp":4358,"▁SR":4359,"opsie":4360,"indings":4361,"▁amino":4362,"▁verbindingen":4363,"erd,":4364,"▁effectief":4365,"▁heter":4366,"-NEG":4367,"-B":4368,"▁zetten:":4369,"▁noodz":4370,"▁Door":4371,"▁maakt":4372,"▁strateg":4373,"▁verlies":4374,"menten":4375,"mit":4376,"▁line":4377,"▁-Beleid:":4378,"inine":4379,"▁specifiek":4380,"▁plasma":4381,"▁199":4382,"▁dubb":4383,"▁voedings":4384,"acemaker":4385,"pat":4386,"▁%":4387,"apsule":4388,"▁uitgebreide":4389,"er.":4390,"issel":4391,"vante":4392,"olisme":4393,"sses":4394,"sment":4395,"▁kg":4396,"▁war":4397,"▁moeilijk":4398,"NP":4399,"▁stof":4400,"▁situ":4401,"EP":4402,"▁23":4403,"▁Plan":4404,"▁tach":4405,"idu":4406,"▁laterale":4407,"lav":4408,"kle":4409,"kolom":4410,"▁verpleeg":4411,"au":4412,"▁voorkomende":4413,"▁soort":4414,"▁oppervlakte":4415,"▁focale":4416,"▁thorac":4417,"ardiale":4418,"▁vragen":4419,"▁gaan":4420,"▁appar":4421,"klep":4422,"▁mannen":4423,"merg":4424,"▁μ":4425,"omenteel":4426,"agonist":4427,"▁grotere":4428,"▁-L":4429,"▁toestand":4430,"▁voorkom":4431,"▁hele":4432,"▁onthulde":4433,"▁concentraties":4434,"▁Twee":4435,"▁exp":4436,"▁gezicht":4437,"▁lokale":4438,"▁krij":4439,"▁detect":4440,"rug":4441,"ning":4442,"▁gebaseerd":4443,"ssessment":4444,"▁[LOCATIE":4445,"▁wereld":4446,"▁Neuro":4447,"▁laesies":4448,"M)":4449,"ung":4450,"water":4451,"▁bepaalde":4452,"ventr":4453,"▁transp":4454,"nauw":4455,"eemt":4456,"-20":4457,"▁sprake":4458,"linische":4459,"▁weten":4460,"▁Date":4461,"OP":4462,"▁0,5":4463,"techn":4464,"liggende":4465,"been":4466,"▁hersenen":4467,"▁\u0007":4468,"▁aspect":4469,"▁kleur":4470,"▁Allerg":4471,"▁vaat":4472,"CI":4473,"▁One":4474,"▁magn":4475,"INE":4476,"es.":4477,"▁verminderd":4478,"uiste":4479,"▁Inter":4480,"▁Daarom":4481,"RS":4482,"/o":4483,"▁pneumothorax":4484,"▁systolische":4485,"▁kru":4486,"SH":4487,"namnese:":4488,"tub":4489,"olon":4490,"▁CK":4491,"▁been":4492,"▁toegepast":4493,"▁Abd":4494,"▁defin":4495,"▁ein":4496,"zo":4497,"um.":4498,"▁blaas":4499,"dur":4500,"▁herstel":4501,"▁bo":4502,"▁begon":4503,"▁delen":4504,"▁cap":4505,"dd":4506,"▁glucose":4507,"fiel":4508,"▁omstandigheden":4509,"▁fe":4510,"▁speel":4511,"ynthese":4512,"afwijk":4513,"che":4514,"▁bestaan":4515,"stam":4516,"▁toegedien":4517,"oper":4518,"our":4519,"▁beheer":4520,"▁stadi":4521,"▁sim":4522,"▁interne":4523,"zw":4524,"▁vers":4525,"▁[ZIEKENHUIS]":4526,"ouder":4527,"▁mmol/L":4528,"iëren":4529,"ximaal":4530,"▁lager":4531,"ase.":4532,"▁jaren":4533,"▁cru":4534,"▁dieet":4535,"orpen":4536,"oglob":4537,"aart":4538,"▁Hyper":4539,"▁em":4540,"arb":4541,"▁virus":4542,"▁acuut":4543,"▁alcohol":4544,"▁temperatuur":4545,"(s)":4546,"ultaten":4547,"ABG":4548,"▁methoden":4549,"▁famil":4550,"\nA":4551,"oft":4552,"heid.":4553,"▁dro":4554,"1/":4555,"-0":4556,"te,":4557,"▁beschrijven":4558,"▁kinder":4559,"▁system":4560,"voudig":4561,"formatie":4562,"▁transcriptie":4563,"▁0,00":4564,"▁intraven":4565,"ormaal":4566,"▁opgemerkt":4567,"▁pleurale":4568,"▁asc":4569,"▁vergelijkbare":4570,"▁graden":4571,"▁toepassing":4572,"oses":4573,"▁(2)":4574,"▁grond":4575,"aklep":4576,"▁neut":4577,"▁drain":4578,"24":4579,"tail":4580,"▁monsters":4581,"stellen":4582,"▁geeft":4583,"regel":4584,"▁passen":4585,"▁spelen":4586,"ral":4587,"▁gel":4588,"▁vertra":4589,"▁effusie":4590,"zing":4591,"▁gebeur":4592,"voe":4593,"▁dys":4594,"mission":4595,"▁verh":4596,"-de":4597,"ferentie":4598,"kking":4599,"▁BLOOD":4600,"oster":4601,"oden":4602,"luid":4603,"rol":4604,"▁vermoe":4605,"ous":4606,"ometrie":4607,"sis":4608,"▁mitochond":4609,"▁identificeren":4610,"▁beelden":4611,"▁voorgeschiedenis:":4612,"▁metast":4613,"▁kno":4614,"▁structurele":4615,"-l":4616,"methyl":4617,"▁-Anamnese:":4618,"▁reeks":4619,"oge":4620,"-type":4621,"▁daarom":4622,"▁dil":4623,"▁bleef":4624,"▁HIV":4625,"▁mg/dL":4626,"▁ja":4627,"splantatie":4628,"i,":4629,"D.":4630,"-H":4631,"/d":4632,"oph":4633,"kening":4634,"8%":4635,"ein":4636,"iat":4637,"▁correlatie":4638,"controle":4639,"▁blijk":4640,"▁500":4641,"▁zwak":4642,"/C":4643,"▁Qu":4644,"▁cardio":4645,"que":4646,"sectie":4647,"▁enige":4648,"▁energie":4649,"▁ion":4650,"▁(bij":4651,"micro":4652,"aardige":4653,"▁temp":4654,"▁farmac":4655,"▁tri":4656,"▁Mon":4657,"▁-Conclusie:":4658,"▁uitgedrukt":4659,"oxid":4660,"datum:":4661,"▁bovenste":4662,"▁21":4663,"R,":4664,"▁linkse":4665,"▁up":4666,"▁slechte":4667,"▁moeder":4668,"▁-Aan":4669,"▁pH":4670,"▁progn":4671,"schillen":4672,"olesterol":4673,"spect":4674,"▁vanaf":4675,"▁O2":4676,"F)":4677,"▁betrouw":4678,"kanaal":4679,"rouw":4680,"voorbeeld":4681,"roc":4682,"▁later":4683,"▁gezonde":4684,"vast":4685,"aliseerd":4686,"lit":4687,"▁(O":4688,"unten":4689,"▁lichaams":4690,"oppervla":4691,"oeken":4692,"▁maximale":4693,"▁wervelkolom":4694,"▁onverander":4695,"▁bevorder":4696,"-ant":4697,"▁aandacht":4698,"eden":4699,"▁stabiele":4700,"7)":4701,"▁(b":4702,"infarct":4703,"cluderen":4704,"▁herh":4705,"les":4706,"▁organ":4707,"▁relatief":4708,"In":4709,"structuur":4710,"▁toel":4711,"▁slagader":4712,"hesie":4713,"▁[LEEFTIJD]":4714,"▁kern":4715,"teerd":4716,"▁komt":4717,"▁MD":4718,"▁infarct":4719,"itatieve":4720,"ischarge":4721,"EN:":4722,"óó":4723,"▁getest":4724,"▁subst":4725,"▁70":4726,"▁perifere":4727,"iciënt":4728,"▁volume":4729,"▁bijna":4730,"oscler":4731,"óór":4732,"Eq":4733,"zijn":4734,"▁dik":4735,"-gem":4736,"▁breed":4737,"stemming":4738,"▁juiste":4739,"lt":4740,"ina":4741,"groepen":4742,"75":4743,"arc":4744,"mech":4745,"▁statist":4746,"-L":4747,"▁induc":4748,"aseerde":4749,"iep":4750,"▁AB":4751,"▁cruc":4752,"▁katheter":4753,"▁laesie":4754,"▁overleving":4755,"▁minim":4756,"▁beleid":4757,"▁Date:":4758,"▁vroeg":4759,"▁werkzaam":4760,"ylering":4761,"▁zelfs":4762,"sen,":4763,"▁bestaat":4764,"▁dec":4765,"▁dd":4766,"▁last":4767,"▁(f":4768,"enter":4769,"luiden":4770,"▁maat":4771,"odynam":4772,"oging":4773,"i)":4774,"▁code":4775,"▁5,":4776,"\nB":4777,"komstige":4778,"7%":4779,"radi":4780,"▁ing":4781,"▁RA":4782,"▁altern":4783,"▁risicof":4784,"klachten":4785,"kelet":4786,"nelheid":4787,"▁begrij":4788,"▁8.":4789,"FO":4790,"▁gewee":4791,"onge":4792,"▁vermindering":4793,"▁complicaties":4794,"lar":4795,"▁-Aanvullend":4796,"▁mEq":4797,"▁Ar":4798,"▁gebruiken":4799,"▁mannelijke":4800,"▁Vol":4801,"rif":4802,"▁gecor":4803,"ritis":4804,"▁mg/kg":4805,"vangen":4806,"▁ontwikkelen":4807,"gezet":4808,"▁voedsel":4809,"lab":4810,"erge":4811,"mun":4812,"sloten":4813,"▁techniek":4814,"▁breuk":4815,"▁Comp":4816,"vrij":4817,"▁prof":4818,"▁verantwoor":4819,"-receptor":4820,"▁sept":4821,"▁voorspellen":4822,"langs":4823,"▁(s":4824,"▁Status":4825,"▁Tijdens":4826,"latie":4827,"▁afg":4828,"-geb":4829,"ink":4830,"adru":4831,"volgende":4832,"-3.":4833,"sorptie":4834,"scopie":4835,"▁fil":4836,"riteria":4837,"6%":4838,"sec":4839,"▁evol":4840,"▁150":4841,"▁Res":4842,"▁don":4843,"▁28":4844,"▁probleem":4845,"22":4846,"▁onderzocht.":4847,"▁III":4848,"▁init":4849,"▁lengte":4850,"escentie":4851,"▁TI":4852,"dis":4853,"ular":4854,"▁aanpak":4855,"proces":4856,"▁vor":4857,"yndroom":4858,"oh":4859,"gor":4860,"1).":4861,"zer":4862,"onen.":4863,"duidelijk":4864,"houdende":4865,"▁speelt":4866,")))":4867,"tel":4868,"erieure":4869,"▁integ":4870,"▁selectie":4871,"▁Hart":4872,"route":4873,"▁C.":4874,"OB":4875,"ila":4876,"istente":4877,"▁w/":4878,"▁populatie":4879,"chym":4880,"▁mi":4881,"actieve":4882,"factor":4883,"▁wijzen":4884,"cycl":4885,"▁sn":4886,"▁zachte":4887,"tjes":4888,"▁gelijktij":4889,"▁75":4890,"▁voorafgaande":4891,"culen":4892,"▁Andere":4893,"▁praktijk":4894,"▁meet":4895,"▁part":4896,"▁individuele":4897,"▁directe":4898,"0,0":4899,"▁scler":4900,"▁dun":4901,"RA":4902,"oop":4903,"cult":4904,"slagen":4905,"▁cogn":4906,"▁gedeeltelijk":4907,"▁bilateraal":4908,"ology":4909,"▁ij":4910,"deerd":4911,"illaire":4912,"▁((()":4913,"QU":4914,"▁chirurgische":4915,"LL":4916,"2+":4917,"▁activ":4918,"▁verlaag":4919,"▁ast":4920,"▁proefpersonen":4921,"ombin":4922,"▁vraag":4923,"sem":4924,"isie":4925,"▁complexe":4926,"▁qu":4927,"ets":4928,"▁NS":4929,"utane":4930,"▁resulteerde":4931,"lammatoire":4932,"▁sociale":4933,"▁rep":4934,"▁Che":4935,"▁History":4936,"/min,":4937,"9%":4938,"-gen":4939,"▁RBC":4940,"nia":4941,"itheel":4942,"▁stap":4943,"urs":4944,"ulc":4945,"▁percentage":4946,"▁aff":4947,"▁vóór":4948,"erings":4949,"▁Hct":4950,"ympt":4951,"▁vertonen":4952,"▁parameters":4953,"RE":4954,"ziekten":4955,"▁CAG":4956,"onenten":4957,"odel":4958,"▁abdomen":4959,"oedeem":4960,"concentraties":4961,"▁letsel":4962,"oxische":4963,"▁cyst":4964,"▁eerst":4965,"agnostic":4966,"8)":4967,"▁ischemie":4968,"▁subc":4969,"▁prestaties":4970,"braak":4971,"heden.":4972,"▁aortaklep":4973,"▁ult":4974,"▁PV":4975,"▁slecht":4976,"▁voldoende":4977,"-11":4978,"▁verantwoordelijk":4979,"▁-O":4980,"▁epis":4981,"▁[PERSOON],":4982,"▁vloeistof":4983,"▁dagelijks":4984,"rum":4985,"▁Dr.":4986,"▁zullen":4987,"▁biom":4988,"▁gedefin":4989,"oplos":4990,"dende":4991,"▁ather":4992,"▁ernstig":4993,"▁CP":4994,"▁verbeteren":4995,"▁RCA":4996,"ilis":4997,"roo":4998,"culair":4999,"▁Examin":5000,"▁afwezigheid":5001,"▁atriumfibrill":5002,"▁const":5003,"▁paar":5004,"▁helpen":5005,"boven":5006,"▁interventie":5007,"telijke":5008,"ase,":5009,"▁bronch":5010,"hoog":5011,"▁pneumon":5012,"▁PE":5013,"▁10.":5014,"▁acet":5015,"▁Zij":5016,"▁[((":5017,"-ch":5018,"wak":5019,"▁langdur":5020,"kal":5021,"aa":5022,"▁vandaag":5023,"ars":5024,"/c":5025,"▁begrip":5026,"opname":5027,"▁max":5028,"▁structuren":5029,"▁-(":5030,"\t[DATUM]":5031,"▁log":5032,"PRN":5033,"aald":5034,"▁milde":5035,"▁SP":5036,"es,":5037,"▁collegiale":5038,"▁Discharge":5039,"bet":5040,"plan":5041,"▁laboratorium":5042,"▁spont":5043,"▁Diagnose":5044,"aciteit":5045,"▁(21":5046,"rect":5047,"▁oorzaak":5048,"▁domein":5049,"▁Hem":5050,"-eff":5051,"▁natrium":5052,"▁DM":5053,"▁myocard":5054,"▁bijzonder":5055,"▁ther":5056,"▁aanbevol":5057,"US":5058,"▁C5":5059,"▁uitein":5060,"▁ED":5061,"▁omvang":5062,"gehalte":5063,"▁lijn":5064,"H)":5065,"▁SV":5066,"▁functies":5067,"cg":5068,"EGEG":5069,"▁aandoening":5070,"▁gestart":5071,"/6":5072,"▁besproken":5073,"▁kregen":5074,"▁was.":5075,"▁modellen":5076,"ysma":5077,"arine":5078,"▁wijten":5079,"iod":5080,"▁vernauw":5081,"▁functie.":5082,"▁incidentie":5083,"▁inst":5084,"▁verkal":5085,"▁26":5086,"reft":5087,"▁stenose":5088,"▁karakteris":5089,"▁TN":5090,"gevoel":5091,"rele":5092,"ray":5093,"ras":5094,"▁implic":5095,"-1)":5096,"▁bez":5097,"kwab":5098,"[PERSOON]":5099,"ded":5100,"rat":5101,"drukken":5102,"▁extre":5103,"clusief":5104,"▁Ref":5105,"▁9.":5106,"Pro":5107,"leden":5108,"OL":5109,"wijzigd":5110,"▁diver":5111,"plant":5112,"9)":5113,"▁hol":5114,"▁ik":5115,"▁warm":5116,"OT":5117,"▁invas":5118,"▁ref":5119,"-en":5120,"ichamelijk":5121,"ïde":5122,"▁intrac":5123,"▁DD":5124,"▁gebaseerde":5125,"▁Gro":5126,"organis":5127,"▁afgifte":5128,"▁rust":5129,"▁langs":5130,"omatische":5131,"pm":5132,"halve":5133,"oot":5134,"▁benadru":5135,"bum":5136,"kamer":5137,"▁fre":5138,"cular":5139,"dip":5140,"-gemedieerde":5141,"▁helder":5142,"I:":5143,"▁Par":5144,"▁verdi":5145,"▁indien":5146,"rep":5147,"mechanis":5148,"▁Procedure:":5149,"▁ischem":5150,"▁ouder":5151,"erol":5152,"▁pas":5153,"▁kennis":5154,"ies:":5155,"uitgang":5156,"amenvatting":5157,"apporte":5158,"ursus":5159,"ize":5160,"kten":5161,"▁kost":5162,"▁insuline":5163,"▁nam":5164,"naam":5165,"ichting":5166,"UN":5167,"▁tek":5168,"ave":5169,"▁nuttig":5170,"▁gla":5171,"iditeit":5172,"▁voorgesteld":5173,"concentratie":5174,"▁Ook":5175,"▁Ble":5176,"▁lijken":5177,"ytische":5178,"▁Act":5179,"▁CX":5180,"HTX":5181,"\nC":5182,"▁nemen":5183,"▁neurale":5184,"3%":5185,"mens":5186,"▁systemen":5187,"ralis":5188,"usp":5189,"▁DNA-":5190,"▁RE":5191,"eslacht:":5192,"▁kwab":5193,"▁stent":5194,"▁beeldvorming":5195,"niveaus":5196,"▁transcript":5197,"e,":5198,"▁presenteren":5199,"▁ort":5200,"sper":5201,"▁geanalyseerd":5202,"▁anders":5203,"▁cereb":5204,"▁slaap":5205,"▁berei":5206,"▁(6":5207,"▁_":5208,"azol":5209,"▁huisarts":5210,"▁gebeurtenis":5211,"▁bevestigd":5212,"▁(0":5213,"heu":5214,"inen":5215,"ube":5216,"▁tub":5217,"▁weefsels":5218,"▁peptide":5219,"▁Sub":5220,"achting,":5221,"itone":5222,"-h":5223,"▁geïsoleerd":5224,"▁35":5225,"stellingen":5226,"fal":5227,"▁stimulatie":5228,"▁regulatie":5229,"uiver":5230,"▁bijwerk":5231,"▁pr":5232,"▁effectieve":5233,"▁resultaat":5234,"path":5235,"valentie":5236,"▁fysieke":5237,"vraag":5238,"▁05":5239,"vari":5240,"F,":5241,"▁inspanning":5242,"▁horm":5243,"▁Cont":5244,"-comp":5245,"/P":5246,"▁score":5247,"atoren":5248,"▁&gt;":5249,"▁voorste":5250,"▁behandelings":5251,"rix":5252,"▁sup":5253,"skun":5254,"lage":5255,"k.":5256,"H:":5257,"rand":5258,"▁[DATUM]:":5259,"▁ko":5260,"-1,":5261,"▁preventie":5262,"▁±":5263,"▁Decursus":5264,"inatie":5265,"▁overdracht":5266,"▁6,":5267,"▁matig":5268,"▁omgev":5269,"▁motor":5270,"▁PA":5271,"IP":5272,"▁embry":5273,"ycardie":5274,"▁uitdag":5275,"▁los":5276,"▁derde":5277,"enc":5278,"▁[LOCATIE]":5279,"ummer":5280,"eerd,":5281,"cellen.":5282,"omer":5283,"otide":5284,"▁LVEF":5285,"vullende":5286,"ildklier":5287,"abel":5288,"▁neuronen":5289,"▁foet":5290,"▁bestudeerd":5291,"rofie":5292,"gaande":5293,"olaire":5294,"▁CC":5295,"▁beperkte":5296,"▁associatie":5297,"▁personen":5298,"▁onderzoek.":5299,"oll":5300,"▁onopvallen":5301,"▁95%":5302,"ombine":5303,"itatie":5304,"SP":5305,"▁ondergaan":5306,"▁Ter":5307,"▁(in":5308,"verm":5309,"igeen":5310,"▁vaccin":5311,"▁neurolog":5312,"abiliteit":5313,"aatste":5314,"▁kans":5315,"▁gehele":5316,"▁Allergieën":5317,"smet":5318,"ST":5319,"sproken":5320,"3-":5321,"reerd":5322,"staan":5323,"ublic":5324,"▁hoogachting,":5325,"bep":5326,"ationele":5327,"▁patiënten.":5328,"▁d.":5329,"ositieve":5330,"▁monster":5331,"▁aneur":5332,"▁loop":5333,"▁ervar":5334,"wogen":5335,"▁50%":5336,"oplasm":5337,"▁longen":5338,"▁aard":5339,"▁Pre":5340,"▁grootste":5341,"ts":5342,"▁doc":5343,"▁geïnduceerd":5344,"▁mig":5345,"▁MCV":5346,"voer":5347,"itis.":5348,"35":5349,"emd":5350,"▁maal":5351,"▁behoe":5352,"▁ventriculaire":5353,"▁bijdragen":5354,"ound":5355,"▁klep":5356,"▁klasse":5357,"▁ademhalings":5358,"▁secret":5359,"nes":5360,"▁dilat":5361,"▁activiteiten":5362,"▁protocol":5363,"eptiden":5364,"▁gevoelig":5365,"▁krit":5366,"▁diast":5367,"▁minimale":5368,"▁ledem":5369,"cor":5370,"men.":5371,"otyp":5372,"methode":5373,"razol":5374,"▁behan":5375,"embran":5376,"▁vertoont":5377,"]]":5378,"▁s,":5379,"▁voorafgaand":5380,"▁voel":5381,"▁Cardiale":5382,"▁sterke":5383,"aily":5384,"▁thoracale":5385,"▁gemeenschappelijke":5386,"▁beschouwd":5387,"carcinoom":5388,"w.":5389,"onine":5390,"komstig":5391,"▁tumoren":5392,"cont":5393,"werp":5394,"▁vezel":5395,"ulair":5396,"▁momenteel":5397,"▁orale":5398,"AV":5399,"▁termijn":5400,"▁veroorzaakte":5401,"▁relatieve":5402,"did":5403,"▁onderzoeken.":5404,"▁toenem":5405,"sequentie":5406,"EH":5407,"▁Medicatie":5408,"▁metabole":5409,"▁stij":5410,"▁angi":5411,"▁colon":5412,"-ver":5413,"▁geselect":5414,"▁interacties":5415,"▁schaal":5416,"vastatine":5417,"z.":5418,"▁persoon":5419,"▁besproken.":5420,"vice":5421,"▁aspir":5422,"SV":5423,"risch":5424,"NIQU":5425,"▁ziekten":5426,"-sign":5427,"▁gebracht":5428,"▁bestu":5429,"▁gist":5430,"leerde":5431,"R.":5432,"▁Verslag":5433,"▁Mg":5434,"▁afspraak":5435,"osom":5436,"▁out":5437,"▁eenvoudige":5438,"▁;":5439,"▁aangeb":5440,"èta-":5441,"▁afgeleid":5442,"istische":5443,"▁defect":5444,"cub":5445,"▁domin":5446,"oxine":5447,"▁bereikt":5448,"▁differentiatie":5449,"▁synth":5450,"rd":5451,"▁ec":5452,"▁patroon":5453,"▁Calcium":5454,"▁Eer":5455,"▁gedaan":5456,"▁dier":5457,"▁gevol":5458,"▁Overige":5459,"▁bacteriën":5460,"▁N-":5461,"ogeen":5462,"NIQUE:":5463,"▁oxid":5464,"▁verzameld":5465,"▁uitkomst":5466,"▁MCHC":5467,"▁planten":5468,"▁drug":5469,"munic":5470,"▁waarden":5471,"▁geslacht":5472,"▁vrouwelijke":5473,"asc":5474,"tensiteit":5475,"De":5476,"▁Wij":5477,"▁uitgevoerd.":5478,"▁proximale":5479,"▁han":5480,"▁vorige":5481,"complex":5482,"tend":5483,"-G":5484,"▁DLP":5485,"▁natuurlijke":5486,"ominale":5487,"[ID":5488,"▁fysiologische":5489,"ventionele":5490,"▁impact":5491,"▁observ":5492,"▁aandoeningen":5493,"glyc":5494,"E)":5495,"▁perc":5496,"▁traum":5497,"▁beweg":5498,"asting":5499,"rengen":5500,"▁episode":5501,"heids":5502,"▁visuele":5503,"gd":5504,"SD":5505,"noe":5506,"▁consult":5507,"ack":5508,"fot":5509,"iologie":5510,"werken":5511,"▁SC":5512,"▁Total":5513,"▁geplaatst":5514,"73":5515,"▁diagnostische":5516,"▁ontslag":5517,"▁Meer":5518,"▁cytok":5519,"gebracht":5520,"▁veld":5521,"cedures":5522,"▁cerv":5523,"ull":5524,"beelden":5525,"ERK":5526,"▁48":5527,"4%":5528,"spiegels":5529,"▁i":5530,"indings:":5531,"▁Mult":5532,"▁sequentie":5533,"▁koorts":5534,"wissel":5535,"▁Omschrijving:CAR:":5536,"▁Assessment":5537,"▁maand":5538,"'s.":5539,"▁palp":5540,"▁atheroscler":5541,"▁coronaire":5542,"▁MED":5543,"99":5544,"-inter":5545,"▁gegener":5546,"▁alfa-":5547,"idief":5548,"▁dos":5549,"▁segment":5550,"2%":5551,"▁vergro":5552,"▁kant":5553,"NE":5554,"▁antilichaam":5555,"▁Co":5556,"-infectie":5557,"▁verbeteren.":5558,"▁overzicht":5559,"▁abnormale":5560,"orter":5561,"DNA":5562,"loop":5563,"seud":5564,"▁-R":5565,"complic":5566,"▁cellen.":5567,"▁review":5568,"▁arteriële":5569,"▁prostaat":5570,"▁veneuze":5571,"heem":5572,"▁elkaar":5573,"38":5574,"▁pap":5575,"▁gediagnostic":5576,"kt.":5577,"▁dunne":5578,"▁ev":5579,"1%":5580,"▁Echo":5581,"spiegel":5582,"▁myel":5583,"▁Car":5584,"OC":5585,"▁gepresenteerd":5586,"▁anat":5587,"etra":5588,"zuren":5589,"▁glut":5590,"amide":5591,"▁Function":5592,"▁2,5":5593,"▁wond":5594,"▁postoperatieve":5595,"▁vent":5596,"▁mGy-c":5597,"mee":5598,"▁Verder":5599,"pre":5600,"▁bespreken":5601,"-T":5602,"▁veronder":5603,"▁slot":5604,"scheid":5605,"▁45":5606,"uig":5607,"▁proliferatie":5608,"idem":5609,"sieve":5610,"▁ER":5611,"▁vertegenwoordig":5612,"▁gekwee":5613,"▁arts":5614,"▁gecombine":5615,"▁individu":5616,"er,":5617,"▁CABG":5618,"astin":5619,"▁onderliggende":5620,"▁bacteriële":5621,"oïden":5622,"gde":5623,"▁evalueren":5624,"▁Reg":5625,"ici":5626,"▁7,":5627,"▁120":5628,"aris":5629,"iciënte":5630,"▁minste":5631,"▁Abs":5632,"aten,":5633,"metab":5634,"e.":5635,"▁tij":5636,"itus":5637,"▁naast":5638,"▁perfusie":5639,"aarm":5640,"oid":5641,"usies":5642,"▁welke":5643,"▁*":5644,"▁Reden":5645,"▁i.":5646,"▁Veren":5647,"▁Plt":5648,"eerbare":5649,"▁terugk":5650,"▁Bloed":5651,"▁Sch":5652,"▁clu":5653,"▁PD":5654,"-patiënten":5655,"TU":5656,"▁zout":5657,"cuul":5658,"aryn":5659,"▁presente":5660,"▁gerapporte":5661,"ialen":5662,"t)":5663,"▁degeneratieve":5664,"CHNIQUE:":5665,"23":5666,"▁graad":5667,"stim":5668,"▁onafhankelijk":5669,"▁Mil":5670,"-effect":5671,"▁benadering":5672,"ering:":5673,"▁exc":5674,"▁zeldzame":5675,"gez":5676,"▁gemet":5677,"▁T-cellen":5678,".,":5679,"▁pathologische":5680,"▁verminderen":5681,"▁ICU":5682,"▁rij":5683,"ffer":5684,"▁nef":5685,"'s,":5686,"▁mer":5687,"▁doses":5688,"▁milt":5689,"▁27":5690,"▁1,5":5691,"▁PL":5692,"▁rapporteren":5693,"ografisch":5694,"▁pulmonale":5695,"entegen":5696,"innen":5697,"▁actief":5698,"▁geleid":5699,"yan":5700,"▁prevalentie":5701,"▁start":5702,"▁verlen":5703,"gramma":5704,"mg;":5705,"▁genomen":5706,"▁den":5707,"▁toenemende":5708,"▁secundaire":5709,"▁basale":5710,"▁systemische":5711,"▁ontwikkelde":5712,"ulmon":5713,"▁eind":5714,"voeging":5715,"fecteerde":5716,"▁interval":5717,"▁bijdra":5718,"▁bescherm":5719,"reatinine":5720,"▁werking":5721,"bri":5722,"▁(h":5723,"gebied":5724,"omat":5725,"▁gastheer":5726,"▁onmiddel":5727,"aby":5728,"▁langdurige":5729,"li":5730,"-2.":5731,"▁stoffen":5732,"iaire":5733,"▁--":5734,"&lt;":5735,"▁eenmaal":5736,"ps":5737,"▁hartfalen":5738,"▁Th":5739,"▁borstkanker":5740,"el,":5741,"▁blijkt":5742,"▁optreden":5743,"▁NM":5744,"ffen":5745,"▁medicijn":5746,"▁relevante":5747,"gan":5748,"initeit":5749,"duur":5750,"▁recombin":5751,"▁materiaal":5752,"▁ATP":5753,"▁Onderzoek":5754,"▁hartslag":5755,"cus":5756,"dule":5757,"▁nucleaire":5758,"plaatjes":5759,"▁erg":5760,"aties,":5761,"(+)":5762,"▁kind":5763,"ju":5764,"▁antilichamen":5765,":30":5766,"gren":5767,"vormige":5768,"▁aanzienlijke":5769,"kend.":5770,"▁tand":5771,"2/":5772,"▁cognitieve":5773,"▁resulteert":5774,"▁inb":5775,"▁dop":5776,"▁voorge":5777,"▁infil":5778,"▁synthese":5779,"entale":5780,"alering":5781,"▁HP":5782,"pret":5783,"monsters":5784,"▁Her":5785,"uren.":5786,"infectie":5787,"eiden":5788,"▁atelect":5789,"▁mGy-cm.":5790,"▁geschat":5791,"▁Diagnose:":5792,"▁kwaad":5793,"rac":5794,"▁milie":5795,"RES":5796,"▁veroorza":5797,"▁IMP":5798,"▁Wanneer":5799,"▁Ger":5800,"ema":5801,"▁nacht":5802,"▁processen":5803,"▁prob":5804,"ipp":5805,"▁essentie":5806,"kn":5807,"gegeven":5808,"rontale":5809,"ote":5810,"▁weg":5811,"orten":5812,"45":5813,"▁werkzaamheid":5814,"STE":5815,"aat,":5816,"▁vaste":5817,"Hospital":5818,"▁piek":5819,"amm":5820,"▁uitgebreid":5821,"▁sluit":5822,"▁sil":5823,"▁continue":5824,"▁P.":5825,"onen,":5826,"▁behandelde":5827,"oïd":5828,"▁behandelen":5829,"▁toler":5830,"drag":5831,"ll":5832,"SA":5833,"▁herhal":5834,"▁Ao":5835,"darm":5836,"bul":5837,"▁transm":5838,"▁geschikt":5839,"▁wereldwij":5840,"geluiden":5841,"▁verkrij":5842,"▁bevol":5843,"▁class":5844,"ensie":5845,"▁EF":5846,"akelijk":5847,"IR":5848,"ogenese":5849,"▁AR":5850,"-R":5851,"onucle":5852,"/O":5853,"▁screening":5854,"k,":5855,"▁sm":5856,"oleculaire":5857,"▁schade":5858,"▁kunt":5859,"▁eenheden":5860,"chemische":5861,"▁verbeterd":5862,"▁NAD":5863,"▁niet-ge":5864,"lux":5865,"regelen":5866,"▁herst":5867,"▁prop":5868,"vocht":5869,"inn":5870,"▁schildklier":5871,"▁lact":5872,"M,":5873,"vlies":5874,"heugen":5875,"andom":5876,"▁top":5877,"▁aanbevel":5878,"▁mogelijkheid":5879,"lear":5880,"▁intern":5881,"▁mechanische":5882,"agde":5883,"▁aanhoudende":5884,"▁antibiotica":5885,"▁epitheel":5886,"borst":5887,"▁seks":5888,"yclo":5889,"5).":5890,"▁gastro":5891,"53":5892,"zetting":5893,"27":5894,"▁geco":5895,"E-":5896,"motor":5897,"▁krist":5898,"ysical":5899,"Ja":5900,"▁deeltjes":5901,"▁gun":5902,"▁intra-":5903,"▁reden":5904,"uding":5905,"26":5906,".)":5907,"▁ander":5908,"oplasma":5909,"▁indic":5910,"▁Verschillen":5911,"▁Findings:":5912,"kens":5913,"▁Disposit":5914,"▁behandeling.":5915,"▁rechtse":5916,"ector":5917,"V)":5918,"tes":5919,"▁geproduceerd":5920,"FR":5921,"active":5922,"▁inductie":5923,"lekeur":5924,"etrie":5925,"olip":5926,"rem":5927,"▁fosfor":5928,"▁Refill":5929,"▁optim":5930,"cell":5931,"lijm":5932,"sver":5933,"-mut":5934,"even":5935,"▁hal":5936,"▁ontstekings":5937,"▁intracellulaire":5938,"▁vervolgconsult":5939,"▁ol":5940,"▁ber":5941,"▁Allergieën:":5942,"ula":5943,"ylo":5944,"scan":5945,"▁toegediend":5946,"ymmet":5947,"▁respon":5948,"▁Name":5949,"▁geringe":5950,"▁ontworpen":5951,"bruik":5952,"in,":5953,"▁frag":5954,"▁Present":5955,"pla":5956,"▁recent":5957,"CP":5958,"oordeling":5959,"loor":5960,"hyper":5961,"uus":5962,"alytische":5963,"▁inclusief":5964,"▁bleken":5965,"bed":5966,"▁anal":5967,"▁oudere":5968,"▁29":5969,"T,":5970,"rot":5971,"chol":5972,"▁metingen":5973,"▁ca":5974,"▁tele":5975,"▁(8":5976,"▁apoptose":5977,"▁virale":5978,"amnese":5979,"wikkel":5980,"▁Daarna":5981,"▁cyste":5982,"▁gemakkelijk":5983,"▁toegang":5984,"▁INR":5985,"▁mic":5986,"quenc":5987,"lever":5988,"▁gran":5989,"▁deelnemers":5990,"aat.":5991,"leiding":5992,"t:":5993,"PD":5994,"▁verwacht":5995,"▁witte":5996,"4-":5997,"▁multip":5998,"sl":5999,"▁aneurysma":6000,"hanol":6001,"otherap":6002,"▁vle":6003,"▁A.":6004,"▁Radi":6005,"▁gecorrele":6006,"arch":6007,"▁voorkeur":6008,"▁OR":6009,"▁consol":6010,"▁kopp":6011,"▁Or":6012,"-specifieke":6013,"▁1)":6014,"▁experimenten":6015,"▁betrokkenheid":6016,"▁10(":6017,"2O":6018,"anning":6019,"▁rect":6020,"▁not":6021,"orische":6022,"▁Plan:":6023,"PS":6024,"▁S.":6025,"▁El":6026,"cumulatie":6027,"▁kortadem":6028,"▁vinden":6029,"gemakkelijk":6030,"▁gef":6031,"immun":6032,"örd":6033,"▁ondanks":6034,"▁conventionele":6035,"▁stabiliteit":6036,"-1.":6037,"▁dagelijkse":6038,"terne":6039,"opathie.":6040,"▁Unit":6041,"▁Refills:":6042,"▁Prote":6043,"f.":6044,"▁8,":6045,"/g":6046,"o.":6047,"merik":6048,"▁enig":6049,"ross":6050,"on,":6051,"gevoeg":6052,"eth":6053,"ystemen":6054,"▁contex":6055,"▁BM":6056,"▁aanvan":6057,"leen":6058,"▁melan":6059,"▁Echter":6060,"ring":6061,"▁gekopp":6062,"▁gaf":6063,"▁overeenstemming":6064,"punt":6065,"▁nit":6066,"▁kamer":6067,"▁ade":6068,"ers,":6069,"ution":6070,"▁tegenstelling":6071,"▁flow":6072,"wen":6073,"▁Ont":6074,"▁NO":6075,"▁conform":6076,"▁opmer":6077,"oit":6078,"CL":6079,"▁dem":6080,"insuff":6081,"▁diameter":6082,"ket":6083,"▁Mo":6084,"▁diep":6085,"rid":6086,"ageren":6087,"oods":6088,"ella":6089,"▁acht":6090,"kent":6091,"ntgen":6092,"keerd":6093,"▁bol":6094,"▁verwijderd":6095,"TP":6096,"▁Kle":6097,"▁oorsprong":6098,"▁Ik":6099,"stoornis":6100,"▁identificatie":6101,"cefal":6102,"gebonden":6103,"▁Geslacht:":6104,"▁gevorm":6105,"▁bloedplaatjes":6106,"ual":6107,"▁mag":6108,"▁Naam":6109,"▁mui":6110,"▁Haar":6111,"▁(10":6112,"▁termen":6113,"▁geneesmiddel":6114,"▁voordelen":6115,"intig":6116,"▁Examinering:":6117,"ikstof":6118,"▁gecorreleerd":6119,"▁hyd":6120,"▁mob":6121,"▁risicofactoren":6122,"eerbaar":6123,"▁vergemakkelijk":6124,"▁procent":6125,"activeerde":6126,"pport":6127,"▁plat":6128,"ert,":6129,"isselijk":6130,"▁diff":6131,"▁pleura-eff":6132,"\nT":6133,"obacter":6134,"▁(((21":6135,"▁angio":6136,"▁verklar":6137,"▁cc":6138,"▁jonge":6139,"▁vonden":6140,"36":6141,"▁ijzer":6142,"▁Zijn":6143,"###":6144,"zen,":6145,"ue":6146,"▁analys":6147,"zep":6148,"▁jaar.":6149,"regen.":6150,"▁Admission":6151,"SION:":6152,"ieten":6153,"derland":6154,"▁nab":6155,"mmun":6156,"iol":6157,"▁36":6158,"rijke":6159,"bouw":6160,"ifactor":6161,"iek:":6162,"▁onlangs":6163,"▁presentatie":6164,"▁ann":6165,"ificiteit":6166,"status":6167,"max":6168,"▁cholesterol":6169,"▁Drie":6170,"char":6171,"▁TE":6172,"▁Post":6173,"▁lumb":6174,"atory":6175,"▁bevindt":6176,"▁onderscheiden":6177,"vir":6178,"▁stoornissen":6179,"▁drainage":6180,"g/ml":6181,"▁verwijdering":6182,"FN":6183,"▁onderg":6184,"▁dichtheid":6185,"greg":6186,"▁set":6187,"▁Comment":6188,"kracht":6189,"remp":6190,"▁oct":6191,"studies":6192,"▁controles":6193,"ctor":6194,"▁PG":6195,"▁kruis":6196,"ting,":6197,"opril":6198,"▁selectieve":6199,"▁gecontroleerd":6200,"dicht":6201,"▁event":6202,"▁endotheel":6203,"▁substraat":6204,"▁konden":6205,"\\line":6206,"▁zacht":6207,"ytro":6208,"ancer":6209,"▁aanbevolen":6210,"▁gebrek":6211,"▁carb":6212,"▁blootgesteld":6213,"neu":6214,"mol":6215,"tatie":6216,"▁Hel":6217,"▁halsslagader":6218,"▁gang":6219,"▁volwassenen":6220,"▁hebben.":6221,"D:":6222,"▁dimensie":6223,"▁overgang":6224,"▁sin":6225,"ering.":6226,"▁02":6227,"▁zouden":6228,"gend":6229,"100":6230,"/min.":6231,"oscopie":6232,"▁secundair":6233,"▁ins":6234,"▁oud":6235,"▁vat":6236,"▁macrof":6237,"▁ren":6238,"▁humane":6239,"sub":6240,"GFR":6241,"eekpro":6242,"edi":6243,"▁Rele":6244,"biële":6245,"▁TF":6246,"▁symmet":6247,"▁punt":6248,"▁huisart":6249,"oemde":6250,"▁bro":6251,"estion":6252,"▁verwijst":6253,"▁rib":6254,"respons":6255,"iduen":6256,"generatie":6257,"▁recidief":6258,"▁Hgb":6259,"▁genexpressie":6260,"▁OP":6261,"▁afwijking":6262,"▁willekeur":6263,"MG":6264,"MA":6265,"vermogen":6266,"erte":6267,"ha":6268,"▁klas":6269,"▁ontdekten":6270,"itude":6271,"öntgen":6272,"omeg":6273,"34":6274,"bron":6275,"▁mild":6276,"▁ident":6277,"▁intraveneuze":6278,"LAR":6279,"▁PP":6280,"▁lipide":6281,"-geassoc":6282,"-r":6283,"▁afbraak":6284,"▁Nederland":6285,"▁paras":6286,"vens":6287,"▁ondersteunen":6288,"▁gezondheidszorg":6289,"28":6290,"▁medicijnen":6291,"▁elektronen":6292,"▁essentieel":6293,"▁oppervlak":6294,"▁voet":6295,"dnis":6296,"▁conf":6297,"ative":6298,"▁lymfaden":6299,"▁Gezien":6300,"lijst":6301,"producten":6302,"ml":6303,"-sub":6304,"▁aute":6305,"virus":6306,"y,":6307,"lutter":6308,"UC":6309,"▁12.":6310,"▁arm":6311,"5/":6312,"kinase":6313,"▁uiter":6314,"ringen":6315,"▁sper":6316,"pop":6317,"▁borst,":6318,"anen":6319,"ceptoren":6320,"stelsel":6321,"▁oc":6322,"▁rekening":6323,"▁bijwerkingen":6324,"▁Urine":6325,"egatieve":6326,"▁kwantitatieve":6327,"▁fibro":6328,"▁Milde":6329,"Name":6330,"▁(Body":6331,"attern":6332,"prote":6333,"▁onopvallend.":6334,"gelaten":6335,"iem":6336,"▁componenten":6337,"▁klachten.":6338,"▁optimale":6339,"uken":6340,"vanging":6341,"▁variatie":6342,"SS":6343,"-O":6344,"hoofd":6345,"▁externe":6346,"operatief":6347,"gew":6348,"▁aant":6349,"▁Resp":6350,"aarmoeder":6351,"▁echocardi":6352,"agement":6353,"▁mutaties":6354,"▁down":6355,"▁Serv":6356,"king.":6357,"▁gepaard":6358,"▁aanvullende":6359,"▁Capsule":6360,"aring":6361,"▁oplossing":6362,"▁s.":6363,"eld.":6364,"F.":6365,"aut":6366,"▁aminozuur":6367,"▁train":6368,"▁198":6369,"▁angst":6370,"ementen":6371,"oring":6372,"▁kader":6373,"▁activer":6374,"aal.":6375,"▁geregist":6376,"▁gebruikt.":6377,"▁lineaire":6378,"▁transport":6379,"▁ET":6380,"▁cervicale":6381,"▁TR":6382,"gezien":6383,"oorte":6384,"frequentie":6385,"ACT":6386,"yg":6387,"▁uur.":6388,"hep":6389,"▁cortex":6390,"▁vitamine":6391,"▁250":6392,"▁gene":6393,"modellen":6394,"▁slotte":6395,"ologie.":6396,"II)":6397,"oofd":6398,"▁VT":6399,"▁opgelo":6400,"/u":6401,"mmHg":6402,"▁muc":6403,"▁Verschillende":6404,"▁place":6405,"▁cytot":6406,"▁intracran":6407,"▁mEq/L":6408,"acchar":6409,"▁Patient":6410,"▁stammen":6411,"▁mitochondriale":6412,"nnnn":6413,"▁land":6414,"bloed":6415,"Cl":6416,"▁Conclusie:":6417,"▁CTA":6418,"rijven":6419,"ometrische":6420,"▁(7":6421,"iform":6422,"▁hoogste":6423,"▁ontwerp":6424,"▁uitvo":6425,"splaat":6426,"Procedure:":6427,"▁decursus":6428,"▁baarmoeder":6429,"▁mot":6430,"▁Physical":6431,"▁37":6432,"▁geweest":6433,"▁wv":6434,"ilisatie":6435,"▁lon":6436,"▁MR":6437,"chlor":6438,"▁mitralis":6439,"▁bescher":6440,"▁11.":6441,"▁#,":6442,"▁hoeveelheden":6443,"▁hoogte":6444,"▁genoom":6445,"▁Glucose":6446,"▁Is":6447,"grootte":6448,"▁voeding":6449,"▁mort":6450,"▁RX":6451,"▁zeven":6452,"ynthet":6453,"oorzaak":6454,"▁ader":6455,"**)":6456,"▁blokk":6457,"▁ondersteuning":6458,"▁ernst":6459,"▁geïdentificeerd.":6460,"▁Med":6461,"▁muis":6462,"testinale":6463,"kken.":6464,"oca":6465,"▁(doc>":6466,"▁reson":6467,"▁Poliklin":6468,"▁affiniteit":6469,"uline":6470,"▁beste":6471,"▁site":6472,"▁hypothese":6473,"YYYYYYYY":6474,"▁alfa":6475,"ouff":6476,"▁bero":6477,"is.":6478,"CT-CT-CT-CT-":6479,"▁100%":6480,"▁malign":6481,"ms":6482,"▁MCHC-3":6483,"▁Invas":6484,"▁TC":6485,"iër":6486,"itis,":6487,"//":6488,"/L;":6489,"<DATUM>":6490,"▁verscheiden":6491,"▁ruggen":6492,"▁neemt":6493,"▁sat":6494,"▁daarop":6495,"alol":6496,"eken":6497,"▁herken":6498,"▁extracellulaire":6499,"▁verhogen":6500,"oproteïne":6501,"vings":6502,"▁HE":6503,"oglobine":6504,"▁veiligheid":6505,"I.":6506,"▁Ondanks":6507,"▁differentiële":6508,"▁Hep":6509,"▁begrijpen":6510,"▁gedefinieerd":6511,"kno":6512,"ocar":6513,"strateg":6514,"▁Echter,":6515,"▁baby":6516,"▁Omdat":6517,"▁Care":6518,"▁betere":6519,"▁schat":6520,"▁technieken":6521,"▁TH":6522,"seg":6523,"hyd":6524,"▁Normaal":6525,"as,":6526,"▁onduidelijk":6527,"▁flex":6528,"▁diar":6529,"▁voorlop":6530,"▁tests":6531,"▁0,4":6532,"arenchym":6533,"omyopathie":6534,"▁Controle":6535,"▁toxiciteit":6536,"schik":6537,"▁monitor":6538,"\nH":6539,"handeling":6540,"▁Question":6541,"▁volgt":6542,"MS":6543,"romat":6544,"hm":6545,"37":6546,"▁(NI)":6547,"▁ontwikkelings":6548,"▁gaven":6549,"▁olig":6550,"▁souff":6551,"▁(r":6552,"son":6553,"ata":6554,"ococ":6555,"▁component":6556,"beloven":6557,"▁MEDIC":6558,":Ja":6559,"▁biopsie":6560,"▁neus":6561,"▁hou":6562,"rik":6563,"▁HL":6564,"▁oest":6565,"▁transplant":6566,"▁oxidatieve":6567,"semide":6568,"▁hetzelfde":6569,"▁gediagnosticeerd":6570,"▁URINE":6571,"▁sem":6572,"spectief":6573,"allel":6574,"▁concept":6575,"▁Daarentegen":6576,"▁magnetische":6577,"-binden":6578,"oscopische":6579,"▁'s.":6580,"ERKLAR":6581,"▁getro":6582,"-positieve":6583,"▁afstand":6584,"▁chromosoom":6585,"-0.":6586,"▁veelbeloven":6587,"▁Fol":6588,"▁wild":6589,"▁reage":6590,"▁posit":6591,"▁verzwak":6592,"▁mediastin":6593,"▁zoog":6594,"▁relev":6595,"▁voorgestelde":6596,"dimens":6597,"-test-test-test-test":6598,"▁maximaal":6599,"ation:":6600,"laes":6601,"▁gebruikten":6602,"verw":6603,"L)":6604,"verslag":6605,"▁gezichts":6606,"yros":6607,"ichaam":6608,"vaardig":6609,"▁voorgeschreven":6610,"▁zoogdi":6611,"cten":6612,"▁meten":6613,"▁toekomstige":6614,"▁ontstaan":6615,"lucht":6616,"stok":6617,"▁sol":6618,"▁herhaalde":6619,"▁uitbre":6620,"▁Vervolgens":6621,"▁leeftijds":6622,"ational":6623,"constructie":6624,"ores":6625,"▁cal":6626,"ustzijn":6627,"▁port":6628,"▁apparaat":6629,"ility":6630,"/dag":6631,"▁1000":6632,"omycine":6633,"drukking":6634,"binding":6635,"I,":6636,"▁computer":6637,"VID":6638,"▁beenmerg":6639,"▁Sinds":6640,"▁sep":6641,"▁Naam:":6642,"▁stadium":6643,"isol":6644,"▁femorale":6645,"olutie":6646,"▁communic":6647,"▁(0,":6648,"▁Ma":6649,"▁locatie":6650,"ventrikel":6651,"▁prin":6652,"-activiteit":6653,"dens":6654,"bu":6655,"▁Im":6656,"▁soft":6657,"ent.":6658,"▁pneumothorax.":6659,"rucht":6660,"▁(z":6661,"▁behalve":6662,"▁Familie":6663,"▁geschiedenis:":6664,"foto":6665,"▁IMPRES":6666,"gebieden":6667,"▁Goede":6668,"▁typ":6669,"-E":6670,"(1)":6671,"▁noodzakelijk":6672,"hydroxy":6673,"▁wijst":6674,"▁leveren":6675,"uurt":6676,"▁ging":6677,"29":6678,"aort":6679,"pler":6680,"▁AN":6681,"▁ablatie":6682,"ala":6683,"▁misselijk":6684,"▁vooruitgang":6685,"▁Cl":6686,"▁Ill":6687,"▁verschijn":6688,"▁d.d.":6689,"▁(W":6690,"tt":6691,"receptor":6692,"▁aangeeft":6693,"▁gevolgen":6694,"▁afzonder":6695,"▁schimm":6696,"plet":6697,"breng":6698,"bereik":6699,"vle":6700,"▁toevoeging":6701,"▁Dop":6702,"activering":6703,"hepatische":6704,"▁zeg":6705,"▁oper":6706,"▁bar":6707,"-resp":6708,"▁ziekte.":6709,"▁verkla":6710,"edieerd":6711,"▁obstructie":6712,"\\b":6713,"p.":6714,"fuse":6715,"aptische":6716,"▁po":6717,"isten":6718,"▁veranderde":6719,"umer":6720,"▁Lin":6721,"mar":6722,"▁CAD":6723,"10^":6724,"▁gluc":6725,"▁Service":6726,"bra":6727,"▁gemeenschap":6728,"toe":6729,"▁beteken":6730,"orrel":6731,"▁optische":6732,"▁corticale":6733,"▁5-":6734,"otensie":6735,"▁beïnvloeden.":6736,"▁steekpro":6737,"▁Klinische":6738,"▁ph":6739,"▁metoprolol":6740,"▁mortaliteit":6741,"▁scan":6742,"▁hypox":6743,"amnese:":6744,"▁aanvallen":6745,"▁[(21":6746,"▁Patiënten":6747,"lam":6748,"▁neuronale":6749,"▁dag.":6750,"blast":6751,"▁daalde":6752,"TUUR":6753,"sulf":6754,"esit":6755,"▁Geschiedenis":6756,"beweg":6757,"▁vanuit":6758,"44":6759,"▁stoel":6760,"▁GI":6761,"ologie,":6762,"▁volto":6763,"▁intervent":6764,"▁zit":6765,"enz":6766,"asale":6767,"▁sig":6768,"▁program":6769,"▁adequ":6770,"▁knobb":6771,"▁mmol":6772,"▁Fe":6773,"ds":6774,"oodsoorzaak":6775,"▁MV":6776,"▁matrix":6777,"Ge":6778,"vindingen":6779,"▁toegelaten":6780,"▁ruimtelijke":6781,"▁Sex":6782,"▁stikstof":6783,"meld":6784,"diën":6785,"stest":6786,"▁dyspnoe":6787,"hyro":6788,"ase-activiteit":6789,"▁hen":6790,"ert.":6791,"inal":6792,"▁late":6793,"dition":6794,"▁Vraag":6795,"▁ruimte":6796,"▁promin":6797,"▁neurologische":6798,"dific":6799,"ystem":6800,"alen,":6801,"angi":6802,"▁hypertro":6803,"jor":6804,"-)":6805,"▁beweging":6806,"▁carcinoom":6807,"▁axiale":6808,"▁voorbere":6809,"▁CM":6810,"5AM":6811,"▁dubbele":6812,"▁antibiotic":6813,"▁schijn":6814,"39":6815,"▁dagen.":6816,"▁MS":6817,"▁Bel":6818,"▁regressie":6819,"gedrag":6820,"▁2+":6821,"gedragen":6822,"▁skelet":6823,"▁concluderen":6824,"zijd":6825,"deeltjes":6826,"\nD":6827,"▁Hypertensie":6828,"▁rat":6829,"▁cur":6830,"agit":6831,"E.":6832,"▁av":6833,"▁strategieën":6834,"orbiditeit":6835,"▁leidde":6836,"H,":6837,"gsel":6838,"▁polikliniek":6839,"O3":6840,"E,":6841,"ivers":6842,"▁nauwkeurigheid":6843,"▁0,8":6844,"L,":6845,"▁cross":6846,"▁veroorzaken":6847,"▁%,":6848,"▁cruciaal":6849,"▁E.":6850,"voed":6851,"2:":6852,"▁gemen":6853,"▁slok":6854,"LC":6855,"▁emot":6856,"ryp":6857,"▁beschikbare":6858,"typ":6859,"▁IMPRESSION:":6860,"▁lymfek":6861,"slag:":6862,"houding":6863,"-15":6864,"LOCATIE>":6865,"▁tak":6866,"▁intro":6867,"iezen":6868,"riè":6869,"olol":6870,"ellitus":6871,"▁netwerk":6872,"▁rout":6873,"▁Cond":6874,"/A":6875,"▁milieu":6876,"▁fosfat":6877,"ïnen":6878,"▁richting":6879,"olesc":6880,"▁testen":6881,"▁detail":6882,"b.":6883,"▁afwijkingen.":6884,"keningen":6885,"▁hart-":6886,"ENT:":6887,"H.":6888,"Laatste":6889,"▁nieren":6890,"▁geleden":6891,"▁zie":6892,"reep":6893,"mente":6894,"▁M.":6895,"fractie":6896,"blemen":6897,"▁lys":6898,"▁nec":6899,"uli":6900,"▁hoofdpijn":6901,"y.":6902,"vrije":6903,"tia":6904,"4:":6905,"▁Borst":6906,"tering":6907,"alth":6908,"hort":6909,"▁verdeling":6910,"▁voorkomen.":6911,"▁ofwel":6912,"▁voorspell":6913,"▁ischemische":6914,"azep":6915,"▁context":6916,"male":6917,"respon":6918,"▁chemotherapie":6919,"l,":6920,"▁proteïne":6921,"▁chron":6922,"▁knie":6923,"▁des":6924,"VT":6925,"▁tweemaal":6926,"BS":6927,"▁analyses":6928,"ieel":6929,"▁nauwkeurig":6930,"▁unieke":6931,"▁EN":6932,"▁cardiovasculaire":6933,"inder":6934,"▁gelijktijdige":6935,"ERKLARING":6936,"▁toegevoeg":6937,"▁benaderingen":6938,"▁mcg":6939,"ites":6940,"▁borst.":6941,"▁implantatie":6942,"▁lumbale":6943,"▁progressieve":6944,"▁CV:":6945,"▁remmende":6946,"ENT":6947,"▁fluorescentie":6948,"ctomie":6949,"▁menselijk":6950,"▁tal":6951,"▁vernauwing":6952,"ULTUUR":6953,"▁aanpass":6954,"▁onderzoeks":6955,"▁methyl":6956,"▁gebruikte":6957,"▁bèta-":6958,"is,":6959,"▁sterfte":6960,"verlen":6961,"-V":6962,"erase":6963,"▁inflammatoire":6964,"▁T-cel":6965,"▁einde":6966,"▁p.":6967,"▁verscheidenheid":6968,"▁400":6969,"uren,":6970,"▁IgG":6971,"▁dynamische":6972,"▁kosten":6973,"▁bodem":6974,"rig":6975,"▁(**":6976,"▁aanvankelijk":6977,"cap":6978,"▁specificiteit":6979,"keerde":6980,"▁controlegroep":6981,"▁β":6982,"-reg":6983,"onair":6984,"otrop":6985,"▁geheugen":6986,"▁vloeib":6987,"ditie":6988,"ner":6989,"egrip":6990,"▁beschreven.":6991,"▁onvol":6992,"▁index":6993,"stenose":6994,"tingen":6995,"▁indicatie":6996,"▁omgeving":6997,"▁300":6998,"▁soms":6999,"MER":7000,"aliseren":7001,"67":7002,"-c-c":7003,"kere":7004,"▁koolstof":7005,"▁maak":7006,"▁zu":7007,"deels":7008,"aging":7009,"▁<LOCATIE>":7010,"/uur":7011,"▁cardioloog":7012,"groei":7013,"▁Abdomen":7014,"▁dubbel":7015,"▁aspecten":7016,"▁Sex:":7017,"B)":7018,"▁-Lichamelijk":7019,"▁nierfunctie":7020,"fil":7021,"odium":7022,"xtra":7023,"▁golf":7024,"dering":7025,"arte":7026,"▁voordat":7027,"/H":7028,"▁variëren":7029,"▁namen":7030,"press":7031,"▁motorische":7032,"bumine":7033,"▁gas":7034,"▁eier":7035,"ontwikkel":7036,"vies":7037,"▁goed.":7038,"▁2)":7039,"HH":7040,"BL":7041,"-geassocieerde":7042,"▁antist":7043,"lox":7044,"oloog)":7045,"▁geïsoleerde":7046,"▁pen":7047,"sproces":7048,"olym":7049,"▁38":7050,"▁uiteindelijk":7051,"▁run":7052,"▁emp":7053,"▁enzymen":7054,"▁aangeboren":7055,"▁verstre":7056,"65":7057,"▁Samen":7058,"▁elektrische":7059,"▁termin":7060,"(t)":7061,"K)":7062,"▁plaatsen":7063,"▁[DATUM],":7064,"▁Attend":7065,"▁pols":7066,"▁behouden":7067,"H:PRN":7068,"ian":7069,"urosemide":7070,"▁auto-":7071,"-afhankelijke":7072,"doeld":7073,"▁coli":7074,"▁sl":7075,"naire":7076,"▁bereid":7077,"▁aanwezig.":7078,"▁(Body)":7079,"riet":7080,"▁werkgroep":7081,"▁succesvolle":7082,"▁besmet":7083,"▁hecht":7084,"M.":7085,"O)":7086,"-tran":7087,"otalol":7088,"▁soc":7089,"▁tric":7090,"P,":7091,"▁instr":7092,"▁pan":7093,"▁<DATUM>":7094,"PA":7095,"▁chol":7096,"▁spre":7097,"▁spontane":7098,"IG":7099,"▁overwogen":7100,"ïd":7101,"▁My":7102,"▁ECG:":7103,"▁opeen":7104,"▁peptiden":7105,"ippoc":7106,"▁i.v.":7107,"-100":7108,"▁65":7109,"jun":7110,"▁slokdarm":7111,"▁ontsteking":7112,"▁2015":7113,"achten":7114,"▁oef":7115,"besch":7116,"▁Lung":7117,"▁organische":7118,"cm":7119,"agt":7120,"▁Col":7121,"▁CN":7122,"▁je":7123,"ocardiocardi":7124,"▁bios":7125,"letsel":7126,"▁lat":7127,"NAL":7128,"rempel":7129,"▁uitsluit":7130,"▁studen":7131,"schat":7132,"nier":7133,"▁CXR":7134,"?:":7135,"▁toelating":7136,"week":7137,"1),":7138,"/5":7139,"▁patiënt.":7140,"halam":7141,"▁2016":7142,"▁vaker":7143,"▁afkomstig":7144,"▁statistisch":7145,"▁regionale":7146,"/h":7147,"▁duizel":7148,"▁microgram":7149,"isen":7150,"▁röntgen":7151,"▁dood":7152,"▁kwantific":7153,"▁gemedieerd":7154,"acc":7155,"▁ide":7156,"▁-P":7157,"▁veronderst":7158,"▁dors":7159,"▁noch":7160,"▁Ag":7161,"B,":7162,"alfa":7163,"uwen":7164,"gezondheid":7165,"stri":7166,"cter":7167,"▁buurt":7168,"iende":7169,"▁wonden":7170,"ofen":7171,"versiteit":7172,"abiele":7173,"hop":7174,"eds":7175,"sil":7176,"-res":7177,"▁Release":7178,"▁stabiel.":7179,"plicatie":7180,"èta":7181,"▁Attending:":7182,"skunde":7183,"ness:":7184,"ippocamp":7185,"medic":7186,"▁posterior":7187,"volume":7188,"▁Indicatie":7189,"▁antigeen":7190,"▁waren.":7191,"cement":7192,"▁Soc":7193,"NUM":7194,"▁behoefte":7195,"▁vag":7196,"iene":7197,"▁Heeft":7198,"tendeels":7199,"▁home":7200,"trast":7201,"▁criteria":7202,"▁Stud":7203,"zende":7204,"▁lead":7205,"▁py":7206,"lulair":7207,"▁verschuiv":7208,"▁onderging":7209,"▁betreft":7210,"▁(Daily":7211,"onische":7212,"▁C-":7213,"▁altijd":7214,"ohist":7215,"▁verkregen.":7216,"leuk":7217,"poten":7218,"▁resistentie":7219,"dheid":7220,"▁vla":7221,"mod":7222,"richting":7223,"iner":7224,"datum:\t[DATUM]":7225,"▁krachtige":7226,"▁bedoeld":7227,"\nR":7228,"kopp":7229,"▁(v":7230,"▁ket":7231,"▁Bleood":7232,"snelheid":7233,"▁32":7234,"ologieën":7235,"veranderingen":7236,"▁(K":7237,"▁accumulatie":7238,"ruim":7239,"▁End":7240,"▁Ep":7241,"▁beschrijft":7242,"(2+)":7243,"DS":7244,"reedt":7245,"▁team":7246,"▁lid":7247,"▁verplaat":7248,"▁programma":7249,"maat":7250,"zijde":7251,"▁behandelingen":7252,"cellen,":7253,"ontre":7254,"-1-":7255,"leerd":7256,"▁gekoppeld":7257,"▁1dd":7258,"basis":7259,"▁toepassingen":7260,"33":7261,"▁ventil":7262,"▁calc":7263,"ditionele":7264,"▁trop":7265,"▁extrem":7266,"▁humaan":7267,"▁gedilateerde":7268,"▁daaropvolgende":7269,"for":7270,"▁verminderen.":7271,"95":7272,"▁fer":7273,"odynamische":7274,"▁gepublic":7275,"▁S1":7276,"▁honden":7277,"▁verpleegkun":7278,"98":7279,"▁Bi":7280,"▁frontale":7281,"upp":7282,"▁TTE":7283,"ifest":7284,"▁Pert":7285,"▁Disposition:":7286,"sz":7287,"▁ir":7288,"okin":7289,"olec":7290,"▁atriumfibrilleren":7291,"DR":7292,"eenheid":7293,"▁tel":7294,"▁schedel":7295,"▁NG":7296,"▁asse":7297,"▁(Name":7298,"▁Daarnaast":7299,"▁gebonden":7300,"EC":7301,"itoneale":7302,"arten":7303,"▁begele":7304,"▁routine":7305,"EV":7306,"▁erop":7307,"-I":7308,"▁Ca2+":7309,"▁hormoon":7310,"▁kwam":7311,"▁01":7312,"delingen":7313,"men,":7314,"▁ulc":7315,"▁ischemie.":7316,"isu":7317,"arisatie":7318,"▁Hol":7319,"▁uitste":7320,"▁marker":7321,"beper":7322,"oplossing":7323,"appar":7324,"▁procedures":7325,"▁stre":7326,"▁abdominale":7327,"mole":7328,"▁pseud":7329,"▁dient":7330,"▁cre":7331,"transplantatie":7332,"hersen":7333,"a-a-":7334,"▁pacemaker":7335,"▁RDW-1":7336,"▁Som":7337,"bs":7338,"▁//":7339,"fort":7340,"▁kortademigheid":7341,"ateriaal":7342,"▁Illness:":7343,"NUMMER":7344,"▁Product":7345,"▁modul":7346,"lap":7347,"mut":7348,"▁vergroot":7349,"▁gelok":7350,"▁LD":7351,"-F":7352,"▁kwaadaardige":7353,"▁moleculen":7354,"iek.":7355,"▁krijgen":7356,"▁telef":7357,"olyse":7358,"▁grotendeels":7359,"cyt":7360,"staande":7361,"▁gezien.":7362,"▁tren":7363,"ficiëntie":7364,"▁inname":7365,"▁molecuul":7366,"▁opgemerkt.":7367,"▁fractie":7368,"▁inbegrip":7369,"imer":7370,"aal,":7371,"oxic":7372,"▁Vit":7373,"on.":7374,"76":7375,"▁140":7376,"-co":7377,"▁wild-type":7378,"▁onderdeel":7379,"▁CB":7380,"▁interpret":7381,"amenvatting:":7382,"▁plast":7383,"mel":7384,"▁rh":7385,"metabolisme":7386,"▁gamma":7387,"▁###;":7388,"eringen":7389,"schade":7390,"▁pak":7391,"▁NC":7392,"▁bru":7393,"▁wie":7394,"▁vele":7395,"▁Dif":7396,"odific":7397,"▁CAR":7398,"▁Aangezien":7399,"▁orgaan":7400,"ingle":7401,"▁COVID":7402,"ucces":7403,"aspect":7404,"▁patiënte":7405,"▁Pertin":7406,"lekt":7407,"▁DP":7408,"48":7409,"▁fract":7410,"▁effectiviteit":7411,"▁vergelijken":7412,"▁decomp":7413,"▁intermedi":7414,"Pattern":7415,"▁9,":7416,"▁etiologie":7417,"▁verhouding":7418,"▁zorgen":7419,"w.z.":7420,"wonden":7421,"oriën":7422,"▁NP":7423,"▁bijvoorbeeld":7424,"▁onc":7425,"▁auteurs":7426,"mechanisme":7427,"▁(E)":7428,"▁bepalen.":7429,"locatie":7430,"genoemde":7431,"▁gemiddeld":7432,"▁ultra":7433,"▁gesynthet":7434,"gemiddel":7435,"78":7436,"▁beperkingen":7437,"YP":7438,"▁thorax":7439,"amenvatting,":7440,"▁procedure:":7441,"▁ligand":7442,"etic":7443,"▁Mild":7444,"waarschijnlijk":7445,"▁melden":7446,"▁genoem":7447,"verz":7448,"▁fund":7449,"▁Extre":7450,"ugger":7451,"▁mm.":7452,"▁hernia":7453,"▁gedeel":7454,"▁Q6":7455,"stoffen":7456,"dimensionale":7457,"BT":7458,"sol":7459,"▁HCT":7460,"▁minimaal":7461,"arde":7462,"▁No(t)":7463,"▁non-":7464,"▁disfunctie":7465,"▁plant":7466,"abetische":7467,"omegal":7468,"-AL":7469,"▁split":7470,"▁granul":7471,"rogeen":7472,"▁gedeeltelijke":7473,"▁groeifactor":7474,"▁1,0":7475,"lengte":7476,"apt":7477,"▁cellen,":7478,"c.":7479,"ris":7480,"▁PIC":7481,"oside":7482,"▁uitgang":7483,"▁cav":7484,"▁oploss":7485,"kt,":7486,"ylax":7487,"uratie":7488,"▁meth":7489,"▁dig":7490,"overdracht":7491,"ister":7492,"▁cortic":7493,"▁reductie":7494,"▁prec":7495,"B.":7496,"ases":7497,"▁x10^":7498,"▁Klin":7499,"▁BS":7500,"▁mutatie":7501,"eus":7502,"ationale":7503,"VAL":7504,":Nee\nC":7505,"itel":7506,"olisch":7507,"cess":7508,"et,":7509,"spanning":7510,"ylase":7511,"ohistoch":7512,"▁repar":7513,"▁CL":7514,"▁Se":7515,"▁polymorf":7516,"▁receptoren":7517,"spercentage":7518,"▁beoordelen.":7519,"▁erytro":7520,"oom.":7521,"▁alternatieve":7522,"▁eierstok":7523,"▁hulpmiddel":7524,"▁metabolisme":7525,"eert.":7526,"/M":7527,"mis":7528,"▁select":7529,"▁Trans":7530,"oppervlak":7531,"omatisch":7532,"▁Drug":7533,"ance:":7534,"▁las":7535,"▁pac":7536,"▁metaal":7537,"▁PTT":7538,"pland":7539,"zem":7540,"▁onthulden":7541,"▁octroo":7542,"▁ademhaling":7543,"ES:":7544,"▁zenuwstelsel":7545,"▁fys":7546,"▁CI":7547,"▁steekproef":7548,"▁noodzaak":7549,"▁Euro":7550,"▁hippocamp":7551,"▁Chir":7552,"▁trac":7553,"▁-H":7554,"ieven":7555,"▁document":7556,"▁enter":7557,"▁scha":7558,"▁gehouden":7559,"▁(3)":7560,"▁hypotensie":7561,"FT":7562,"▁Doodsoorzaak":7563,"ies,":7564,"HA":7565,"inst":7566,"▁daling":7567,"sterkte":7568,"▁Ap":7569,"▁33":7570,"▁slijm":7571,"▁half":7572,"▁gevormd":7573,"idemie":7574,"▁Tem":7575,"▁grenzen.":7576,"▁Doodsoorzaak:":7577,"geh":7578,"▁resonantie":7579,"▁cultuur":7580,"osomen":7581,"▁bepaling":7582,"▁verdo":7583,"▁berekend":7584,"▁Blo":7585,":20":7586,"▁ontbre":7587,"▁krans":7588,"Me":7589,"uring":7590,"N,":7591,"▁diarree":7592,"▁lum":7593,"▁feit":7594,"▁130":7595,"85":7596,"▁doen":7597,"ectomie":7598,"isico":7599,"▁gevisu":7600,"ellect":7601,"▁Cr":7602,"spectieve":7603,"▁adolesc":7604,"((":7605,"hydrox":7606,"▁populaties":7607,"Ver":7608,"ia,":7609,"77":7610,"/s":7611,"▁plot":7612,"▁inzicht":7613,"▁bereiken":7614,"▁werken":7615,"▁gebeurtenissen":7616,"alt":7617,"standen":7618,"pha":7619,"▁Toe":7620,"▁Nieuw":7621,"▁wijzig":7622,"▁pathogenese":7623,"grond":7624,"▁Ser":7625,"▁daarna":7626,"esitas":7627,"▁this":7628,"ien,":7629,"▁34":7630,"UT":7631,"▁NT":7632,"ethyl":7633,"▁miR":7634,"▁VS":7635,"▁rapporte":7636,"▁betrouwbaarheid":7637,"▁eviden":7638,"ochte":7639,"▁Micro":7640,"▁lipiden":7641,"ers.":7642,"ificeerd":7643,"istratie":7644,"▁bevest":7645,"houden.":7646,"-af":7647,"ogingen":7648,"▁55":7649,"▁Beide":7650,"▁osse":7651,"▁-Samenvatting:":7652,"▁(((":7653,"HS":7654,"-thorax":7655,"richten":7656,"hen":7657,"▁astma":7658,"▁nr.":7659,"▁controleren":7660,"▁QT":7661,"irale":7662,"one,":7663,"▁veroorzaken.":7664,"neur":7665,"CD":7666,"▁bent":7667,"mblage":7668,"▁pleura-effusie":7669,"ease":7670,"▁bal":7671,"▁W.":7672,"hoe":7673,"nemen":7674,"▁pericardiale":7675,"yl)":7676,"▁eryt":7677,"olen":7678,"ëff":7679,"vatting":7680,"O2:":7681,"▁110":7682,"am:":7683,"▁besl":7684,"▁kD":7685,"moe":7686,"▁meting":7687,"▁maligniteit":7688,"▁STEMMING:":7689,"▁anest":7690,"fielen":7691,"▁Nee":7692,"▁Zowel":7693,"▁Immun":7694,"▁HTX":7695,"▁Tra":7696,"▁EX":7697,"▁bloeding":7698,"▁fusie":7699,"lact":7700,"etiek":7701,"▁Wat":7702,"▁glob":7703,"ycine":7704,"komsten":7705,"▁Del":7706,"sed":7707,"▁regelmatig":7708,"ition":7709,"▁2017":7710,"▁Geringe":7711,"▁geremd":7712,"IM":7713,"▁functie,":7714,"▁Tele":7715,"ICU":7716,"▁2013":7717,"mentatie":7718,"▁onveranderd":7719,"niet":7720,"chirurg":7721,"quente":7722,"▁gesugger":7723,"hand":7724,"▁cm;":7725,"vezel":7726,"steun":7727,"▁microg":7728,"▁onafhankelijke":7729,"▁Zie":7730,"cyclus":7731,"▁gereguleerd":7732,"oide":7733,"▁galbla":7734,"ware":7735,"▁Major":7736,"oz":7737,"▁focus":7738,"])":7739,"▁B.":7740,"▁overleg":7741,"gevoeligheid":7742,"▁ST-":7743,"bar":7744,"▁varie":7745,"ilar":7746,"anyl":7747,"▁Invasive":7748,"▁3)":7749,"▁presenteert":7750,"buis":7751,"OX":7752,"▁α":7753,"▁kristal":7754,"▁infecties":7755,"▁shock":7756,"TELE":7757,"▁was,":7758,"▁toegenomen":7759,"▁drin":7760,"-rem":7761,"ofag":7762,"▁implement":7763,"▁zwaar":7764,"▁QRS":7765,"HR":7766,"32":7767,"▁81":7768,"best":7769,"acine":7770,"▁Kleine":7771,"▁can":7772,"olytische":7773,"▁gu":7774,"plitude":7775,"roscop":7776,"sies":7777,"ocaïne":7778,"vloeistof":7779,"its":7780,"-sp":7781,"▁No:":7782,"▁distrib":7783,"adr":7784,"▁opac":7785,"▁high":7786,"▁operatieve":7787,"/T":7788,"-an":7789,"▁kanaal":7790,"igde":7791,"▁theor":7792,"beweging":7793,"▁verbinding":7794,"▁allemaal":7795,"▁31":7796,"doc>":7797,"onderz":7798,"▁richten":7799,"▁PS":7800,"ontste":7801,"▁nano":7802,"FOON":7803,"brid":7804,"▁therm":7805,"▁CTDI":7806,"ament":7807,"C,":7808,"▁behoud":7809,"▁geschikte":7810,"▁manifest":7811,"▁circ":7812,"geving":7813,"▁patronen":7814,"▁waterstof":7815,"▁gerandom":7816,"▁Nederlandse":7817,"geboren":7818,"▁overgebracht":7819,"afwijkingen":7820,"(-1)":7821,"▁Hoofd":7822,"▁40%":7823,"orph":7824,"▁interfer":7825,"geleide":7826,"▁LDL":7827,"▁micro-":7828,"▁Chirg":7829,"▁Creat":7830,"ADS":7831,"ekt":7832,"umenten":7833,"▁cardiologie":7834,"FOONNUMMER":7835,"reum":7836,"TELEFOONNUMMER":7837,"▁rode":7838,"▁relaties":7839,"tocol":7840,"▁psychiat":7841,"positie":7842,"bal":7843,"▁vader":7844,"▁ionen":7845,"P.":7846,"mal":7847,"▁ect":7848,"▁LA":7849,"▁sulf":7850,"▁[DATUM].":7851,"▁CULTUUR":7852,"ber":7853,"▁go":7854,"falen":7855,"embranen":7856,"ocy":7857,"49":7858,"▁strom":7859,"▁studie.":7860,"omografie":7861,"▁patiënten,":7862,"regul":7863,"riene":7864,"alium":7865,"▁HCO3":7866,"▁beta":7867,"▁strategie":7868,"▁ving":7869,"▁GL":7870,"▁veranderd":7871,"▁verspreiding":7872,"▁mening":7873,"verwij":7874,"LLING":7875,"klopp":7876,"stelling:":7877,"▁[DATUM":7878,"▁langer":7879,"ithel":7880,"▁luchtweg":7881,"▁waarnem":7882,"▁antic":7883,"▁muizen.":7884,"▁Aort":7885,"▁geboorte":7886,"▁Thema:HTX":7887,"▁superie":7888,"STELLING":7889,"▁Decursus:":7890,"▁(met":7891,"lijf":7892,"igne":7893,"lijnen":7894,"resultaten":7895,"▁ALT":7896,"▁ovar":7897,"▁verdeeld":7898,"▁kop":7899,"entiële":7900,"ferase":7901,"ations":7902,"▁liggen":7903,"▁wortel":7904,"BI":7905,"rige":7906,"-fosf":7907,"▁weerstand":7908,"/N":7909,"▁producten":7910,"47":7911,"fib":7912,"horende":7913,"se.":7914,"▁begonnen":7915,"▁overwegen":7916,"ologe":7917,"schappelijk":7918,"sport":7919,"▁leg":7920,"▁PAC":7921,"▁HS":7922,"▁GR":7923,"▁@":7924,"roep":7925,"▁Vanwege":7926,"▁ABG":7927,"▁spi":7928,"▁Phos":7929,"cy":7930,"▁aangetro":7931,"▁verla":7932,"▁carcin":7933,"▁dikke":7934,"▁gerichte":7935,"▁activiteit.":7936,"[ID],":7937,"kwaliteit":7938,"-eiwitten":7939,"▁(radi":7940,"▁(bijvoorbeeld":7941,"▁feed":7942,"activeerd":7943,"▁kandid":7944,"stip":7945,"osoom":7946,"▁CTDIvol":7947,"vrouw":7948,"ureel":7949,"▁Actie":7950,"gressie":7951,"nstige":7952,"ercul":7953,"▁diastolische":7954,"▁sequenties":7955,"▁Doppler":7956,"▁tachycardie":7957,"▁aanbevelingen":7958,"▁hoest":7959,"et.":7960,"▁assay":7961,"▁([DATUM]":7962,"lingen":7963,"▁regulering":7964,"-bindende":7965,"▁nooit":7966,"scheiding":7967,"▁hoogst":7968,"auw":7969,"ift":7970,"▁gegenereerd":7971,"▁pijn.":7972,":10":7973,"▁UV":7974,"▁nem":7975,"kenmer":7976,"▁from":7977,"▁resterende":7978,"factoren":7979,"yrosine":7980,"oley":7981,"▁2010":7982,"▁heup":7983,"▁Rep":7984,"antagonist":7985,"▁jong":7986,"acties":7987,"▁10,":7988,"ofil":7989,"▁onderzoeken,":7990,"▁volgen":7991,"▁Status:":7992,"iodar":7993,"▁onmiddellijk":7994,"merikaanse":7995,"▁cl":7996,"▁diepe":7997,"▁beginnen":7998,"cludeerd":7999,"massa":8000,"▁verbonden":8001,"cho":8002,"▁markers":8003,"G)":8004,"plaats":8005,"ECT":8006,"g.":8007,"▁remmer":8008,"GE":8009,"-30":8010,"▁nadat":8011,"rial":8012,"▁referentie":8013,"▁droog":8014,"▁(zie":8015,"▁Concluderen":8016,"▁Geslacht:man":8017,"abd":8018,"79":8019,"eline":8020,"▁(un":8021,"▁polyp":8022,"▁hard":8023,"adren":8024,"▁zodat":8025,"osyl":8026,"AST":8027,"hyleen":8028,"/R":8029,"▁longoedeem":8030,"▁geselecteerde":8031,"'d":8032,"46":8033,"L.":8034,"las":8035,"▁signalen":8036,"inusritme":8037,"▁T1":8038,"EGEGEGEG":8039,"rest":8040,"▁13.":8041,"▁care":8042,"▁right":8043,"geschiedenis:":8044,"▁leren":8045,"▁pijn,":8046,"▁[**":8047,"▁geble":8048,"▁CS":8049,"▁Behandeling":8050,"▁tube":8051,"achtig":8052,"\nS":8053,"(1":8054,"▁fra":8055,"▁cm.":8056,"▁Bas":8057,"▁plaatsv":8058,"▁NEUR":8059,"▁verlaagd":8060,"▁beïnvloedt":8061,"▁effusie.":8062,"▁tre":8063,"▁HF":8064,"▁chlor":8065,"▁jaar,":8066,"behandelde":8067,"▁gecombineerde":8068,"▁ogen":8069,"▁occlusie":8070,"bol":8071,"▁(mm":8072,"▁intensiteit":8073,"el.":8074,"▁verspreid":8075,"osa":8076,"▁2018":8077,"-2,":8078,"▁levensvat":8079,"weeg":8080,"O:":8081,"▁bijdrage":8082,"west":8083,"▁fenotype":8084,"▁onderzochte":8085,"▁gecontroleerde":8086,"▁inferieure":8087,"▁resolutie":8088,"IF":8089,"▁dw":8090,"▁COVID-19":8091,"CM":8092,"reerde":8093,"itm":8094,"oblast":8095,"▁zon":8096,"▁collageen":8097,"Y:":8098,"▁[]":8099,"▁waarmee":8100,"▁biochemische":8101,"-model":8102,"▁(on":8103,"▁~":8104,"▁staan":8105,"▁T2":8106,"▁IFN":8107,"▁oefen":8108,"▁antim":8109,"▁Geachte":8110,"▁evolutie":8111,"▁herzien":8112,"INSTELLING":8113,"▁Hyp":8114,"/D":8115,"itro":8116,"▁endogene":8117,"ivity":8118,"▁Matige":8119,"▁scala":8120,"▁lymfocyten":8121,"▁radic":8122,"ART":8123,"onisch":8124,"▁agressie":8125,"▁gram":8126,"▁grondslag":8127,"▁sagit":8128,"▁gestim":8129,"▁Nu":8130,"▁Meerdere":8131,"-remm":8132,"▁mmol/L;":8133,"▁synthetische":8134,"▁poli":8135,"▁intracraniële":8136,"derheid":8137,"▁(20":8138,"▁beeldvorm":8139,"type":8140,"▁vond":8141,"▁beoordeel":8142,"▁plus":8143,"B-":8144,"▁NH":8145,"▁biomar":8146,"▁[LEEFTIJD]-jarige":8147,"hyre":8148,"▁‘":8149,"▁diffuus":8150,"▁helft":8151,"▁kunst":8152,"▁pre-":8153,"▁ES":8154,"5PM":8155,"carb":8156,"200":8157,"oss":8158,"▁ruggenmerg":8159,"▁vastgesteld.":8160,"des":8161,"▁mmol/l":8162,"ions":8163,"▁verwer":8164,"wort":8165,"rain":8166,"▁afbeeld":8167,"▁cruciale":8168,"▁artsen":8169,"▁capaciteit":8170,"▁asympt":8171,"olesterole":8172,"▁kalib":8173,"▁kolon":8174,"▁opvallen":8175,"▁(e":8176,"▁efficiënte":8177,"▁pain":8178,"▁samenstelling":8179,"▁il":8180,"orele":8181,"▁[TELEFOONNUMMER":8182,"▁bijbe":8183,"▁morfologische":8184,"▁verricht":8185,"lim":8186,"▁foetale":8187,"3/":8188,"▁clin":8189,"therapie":8190,"sequenties":8191,"▁IL-1":8192,"produc":8193,"▁nauwkeurige":8194,"▁maanden.":8195,"▁cytos":8196,"ronic":8197,"eeee":8198,"▁Resultaten":8199,"▁evalueren.":8200,"▁verdachte":8201,"▁draag":8202,"▁Verhoog":8203,"nummer":8204,"▁vitale":8205,"po":8206,"IND":8207,"▁CA":8208,"▁toekomst":8209,"osin":8210,"▁mentale":8211,"▁tw":8212,"▁gecomplic":8213,"▁vervangen":8214,"ococcus":8215,"afgifte":8216,"defect":8217,"▁taak":8218,"▁'s,":8219,"/k":8220,"▁richtlijnen":8221,"▁myocardinfarct":8222,"▁ligt":8223,"▁evenwicht":8224,"▁by":8225,"icine":8226,"hoek":8227,"▁Bet":8228,"▁afdeling":8229,"peratie":8230,"▁implicaties":8231,"▁doelwit":8232,"▁donor":8233,"metingen":8234,"▁souffle":8235,"▁mediastinum":8236,"genee":8237,"▁ent":8238,"▁1x":8239,"riën":8240,"emmer":8241,"▁rechterkant":8242,"▁fac":8243,"▁gevoelige":8244,"▁ledematen":8245,"▁endomet":8246,"lering":8247,"eck":8248,"(en":8249,"▁vloeibare":8250,"▁gehad.":8251,"standigheden.":8252,"▁DR":8253,"▁Disc":8254,"▁status:":8255,"▁gete":8256,"96":8257,"-achtige":8258,"mid":8259,"▁asymmet":8260,"▁kinase":8261,"icot":8262,"ental":8263,"ven.":8264,"▁bestuderen":8265,"▁atriale":8266,"____":8267,"▁aantoon":8268,"▁RC":8269,"▁NF":8270,"▁produceren":8271,"▁Veel":8272,"onaat":8273,"▁Ob":8274,"▁(voor":8275,"goritme":8276,"▁routes":8277,"▁bindt":8278,"▁cerebrale":8279,"▁spinale":8280,"▁Long":8281,"ics":8282,"analyses":8283,"▁Echocardi":8284,"▁mitralisklep":8285,"▁therapeut":8286,"▁Hb":8287,"▁beschikbaarheid":8288,"▁vermoeid":8289,"▁lopen":8290,"▁Service:":8291,"▁2-":8292,"▁hartklopp":8293,"▁formul":8294,"arin":8295,"▁Uitslag:":8296,"▁ontslagen":8297,"▁Ang":8298,"▁eenheid":8299,"atter":8300,"▁hepatitis":8301,"se,":8302,"▁zuiver":8303,"katheter":8304,"-gebaseerde":8305,"▁opeenvolgende":8306,"▁ECV":8307,"▁uiterlijk":8308,"okken":8309,"umente":8310,"▁Brief":8311,"▁g/d":8312,"entiel":8313,"▁2019":8314,"rectie":8315,"▁Vergeleken":8316,"▁ervaring":8317,"▁remde":8318,"osteron":8319,"iden.":8320,"▁betekenis":8321,"▁mediale":8322,"ol,":8323,"▁diffuse":8324,"▁proximaal":8325,"tender":8326,"▁bijbehorende":8327,"▁Chirgical":8328,"▁fosforylering":8329,"▁sinusritme":8330,"CK":8331,"▁eth":8332,"▁red":8333,"▁CD4":8334,"▁Not":8335,"▁integr":8336,"use":8337,"ialis":8338,"▁genereren":8339,"▁hoor":8340,"▁aangepast":8341,"face":8342,"oelichting":8343,"gehele":8344,"genase":8345,"▁aangetoond.":8346,"▁zien.":8347,"methoden":8348,"punten":8349,"validatie":8350,"deren.":8351,"▁stres":8352,"urie":8353,"▁rood":8354,"▁(un)":8355,"▁Procedure":8356,"▁dienen":8357,"▁color":8358,"dichtheid":8359,"structuren":8360,"▁Actie:":8361,"▁(ge":8362,"ontrole":8363,"▁Analyse":8364,"istr":8365,"▁meld":8366,"(3)":8367,"cholesterole":8368,"-Co":8369,"▁wak":8370,"▁voorbij":8371,"hals":8372,"rometrie":8373,"▁mur":8374,"▁negatief.":8375,"▁ratten.":8376,"▁sur":8377,"▁roken":8378,"▁geleidelijk":8379,"▁afw":8380,"▁Pul":8381,"▁ratio":8382,"▁ID":8383,"spat":8384,"vanc":8385,"umat":8386,"periode":8387,"deriv":8388,"olling":8389,"orderen":8390,"studie":8391,"▁Vergelijk":8392,"▁trache":8393,"▁dialyse":8394,"▁reageren":8395,"▁ontkent":8396,"-cellen.":8397,"▁degenen":8398,"▁wilde":8399,"▁cyclo":8400,"laden":8401,"ymph":8402,"blok":8403,"elfunctie":8404,"▁schatten":8405,"▁Metoprolol":8406,"▁mmHg,":8407,"▁leukemie":8408,"/S":8409,"▁tib":8410,"medicatie":8411,"2).":8412,"EA":8413,"▁Acid":8414,"sorb":8415,"▁aangren":8416,"-trans":8417,"ogeniteit":8418,"▁theorie":8419,"omie.":8420,"▁Toen":8421,"▁resectie":8422,"▁relevant":8423,"2;":8424,"oken":8425,"▁interventies":8426,"oplastische":8427,"/t":8428,"▁Respir":8429,"▁onvoldoende":8430,"osomale":8431,"▁medisch":8432,"▁mesenter":8433,"74":8434,"fact":8435,"▁cordis":8436,"▁verhoging":8437,"▁RF":8438,"▁SD":8439,"igenen":8440,"▁tekort":8441,"-be":8442,"H2O":8443,"perimenten":8444,"▁associ":8445,"▁remmen":8446,"▁onregel":8447,"-AL-AL":8448,"68":8449,"▁schimmel":8450,"schrif":8451,"▁essentiële":8452,"▁stro":8453,"▁bpm":8454,"dend":8455,"▁geïnfecteerde":8456,"▁verdra":8457,"structieve":8458,"▁studenten":8459,"▁ongewijzigd":8460,"allon":8461,"ienivea":8462,"rose.":8463,"okl":8464,"▁geleiding":8465,"▁voortgezet":8466,"▁placebo":8467,"oest":8468,",5%":8469,"▁spin":8470,"▁controles.":8471,"sne":8472,"▁waarop":8473,"▁weken.":8474,"▁elektrof":8475,"▁intacte":8476,"▁band":8477,"▁°":8478,"domein":8479,"▁gelijktijdig":8480,"▁OF":8481,"scher":8482,"chloride":8483,"▁Evalu":8484,"▁History:":8485,"ORT":8486,"acu":8487,"▁Health":8488,"▁thym":8489,"▁Aspir":8490,"arg":8491,"dilat":8492,"secret":8493,"\nE":8494,"▁wijze":8495,"▁erv":8496,"illine":8497,"▁tar":8498,"31":8499,"▁L.":8500,"programma":8501,"▁tab":8502,"▁zware":8503,"▁eenvoudig":8504,"▁invasieve":8505,"▁Line":8506,"ectieve":8507,"veren":8508,"ia.":8509,"uurd":8510,"▁therapieën":8511,"ediat":8512,"▁geregistreerd":8513,"▁A:":8514,"▁3D":8515,"▁isolaten":8516,"oth":8517,"▁voorkomt":8518,"▁toegeschreven":8519,"pen.":8520,"▁TAB":8521,"othe":8522,"▁ml/min":8523,"etica":8524,"patiënten":8525,"schaal":8526,"outen":8527,"▁gegevens:":8528,"▁x10^9":8529,"▁CON":8530,"atiente":8531,"▁gedetail":8532,"▁isolatie":8533,"▁gewichts":8534,"as.":8535,"▁geïnject":8536,"97":8537,"ycod":8538,"▁doelen":8539,"-200":8540,"▁Disp:":8541,"omstandigheden":8542,"itect":8543,"▁Questionnaire":8544,"get":8545,"ord":8546,"x)":8547,"-con":8548,"immuun":8549,"nale":8550,"patroon":8551,"nown":8552,"▁versle":8553,"isk":8554,"afrag":8555,"spier":8556,"▁haal":8557,"▁grenzen":8558,"▁mM":8559,"▁niet.":8560,"ologen":8561,"venen":8562,"percentage":8563,"▁mengsel":8564,"ally":8565,"▁efficiëntie":8566,"▁Waar":8567,"▁anatomische":8568,"▁(())":8569,"ival":8570,"▁intact.":8571,"atig":8572,"▁intram":8573,"iere":8574,"▁get":8575,"/re":8576,"▁nodig.":8577,"▁MC":8578,"ertijd":8579,"▁bren":8580,"▁Acu":8581,"▁overgedragen":8582,"lyse":8583,"tratie":8584,"▁maatregelen":8585,"▁gelab":8586,"undel":8587,"loos":8588,"dela":8589,"▁bevorderen":8590,"ied.":8591,"bride":8592,"N)":8593,":40":8594,"▁radio":8595,"heemse":8596,"▁prognose":8597,"iek,":8598,"igende":8599,"▁vlak":8600,"▁promotor":8601,"aline":8602,"▁Sociale":8603,"▁bevolking":8604,"▁gemengde":8605,"▁Intra":8606,"▁MT":8607,"▁gekarakter":8608,"▁Geschiedenis:":8609,"▁MA":8610,"▁Concluderend":8611,"anth":8612,"transplant":8613,"cubatie":8614,"▁0,1":8615,"▁HENT:":8616,"enteel":8617,"▁brand":8618,"▁SBP":8619,"eenheden":8620,"er:":8621,"▁HB":8622,"▁litte":8623,"-on":8624,"fferentie":8625,"▁ouders":8626,"eest":8627,"iguur":8628,"▁kaart":8629,"▁leden":8630,"ugh":8631,"▁mellitus":8632,"digen.":8633,"▁morbiditeit":8634,"▁afgeleide":8635,"elingen":8636,"▁soep":8637,"▁reeds":8638,"▁melk":8639,"ocriene":8640,"-remmer":8641,"▁omgevings":8642,"▁Recente":8643,"▁voordeel":8644,"▁Test":8645,"▁(i":8646,"atie:":8647,"▁brengen":8648,"III":8649,"ional":8650,"proliferatie":8651,"▁OS":8652,"quis":8653,"grade":8654,"▁hetero":8655,"▁method":8656,"▁gebruikt,":8657,"▁Sec":8658,"▁antioxid":8659,"▁leeftijd,":8660,"▁gesuggereerd":8661,"▁Protein":8662,"▁pericard":8663,"▁traditionele":8664,"▁epidem":8665,"aandoen":8666,"▁afzonderlijke":8667,"▁(radioloog)":8668,"▁beneden":8669,"denking":8670,"arynx":8671,"▁verwijderen":8672,"ized":8673,"▁nat":8674,"06":8675,"▁verrijk":8676,"▁Rh":8677,"▁worden.":8678,"mitt":8679,"▁initiële":8680,"heren":8681,"-4.":8682,"▁reactieve":8683,"▁overt":8684,"iculair":8685,"kru":8686,"▁meerderheid":8687,"▁koorts,":8688,"▁(gemiddel":8689,"▁Amb":8690,"ysiologie":8691,"▁inz":8692,"adiging":8693,"▁divert":8694,"team":8695,"▁constip":8696,"▁ethanol":8697,"gering":8698,"88":8699,"paste":8700,"uste":8701,"com":8702,"▁linkerventrikel":8703,"IST":8704,"▁capsule":8705,"lank":8706,"▁(w":8707,"RD":8708,"uil":8709,"▁functioneel":8710,"Gap":8711,"▁katalyse":8712,"▁bezorg":8713,"▁complement":8714,"▁mediane":8715,"▁zwelling":8716,"▁aangrenzende":8717,"▁obesitas":8718,"▁besliss":8719,"▁Min":8720,"ivari":8721,"1:":8722,"▁diversiteit":8723,"▁hydron":8724,"▁P:":8725,"▁MAP":8726,"microscopie":8727,"▁vererg":8728,"▁del":8729,"▁Alk":8730,"sign":8731,"asse":8732,"iasis":8733,"oefen":8734,"▁tricusp":8735,"CO":8736,"vestig":8737,"▁PK":8738,"▁keuze":8739,"▁TP":8740,"▁vul":8741,"▁stoppen":8742,"LA":8743,"▁modific":8744,"spec":8745,"▁GU":8746,"▁zichtbaar.":8747,"▁(NamePattern":8748,"regulatie":8749,"▁prednis":8750,"▁aanvang":8751,"ormal":8752,"hes":8753,"▁gewor":8754,"▁mechan":8755,"e:":8756,"▁[((21":8757,"▁([":8758,"▁optreedt":8759,"▁terugkerende":8760,"▁gezamen":8761,"o,":8762,"szins":8763,"▁Kort":8764,"band":8765,"▁Chirurg":8766,"▁elim":8767,"ffecten":8768,"ther":8769,"olieten":8770,"gave":8771,"ocarcinoom":8772,"▁Heart":8773,"metast":8774,"▁([DATUM])":8775,"ook":8776,"▁duidelijk.":8777,"▁uitzonder":8778,"▁sporen":8779,"ELV":8780,"▁ele":8781,"horm":8782,"▁episodes":8783,"▁absorptie":8784,"▁neon":8785,"▁object":8786,"▁Diabetes":8787,"▁vooraf":8788,"actief":8789,"selen":8790,"▁perifeer":8791,"/F":8792,"▁pneumonie":8793,"▁Imp":8794,"▁complexen":8795,"durende":8796,"▁Aanmeld":8797,"▁vervanging":8798,"▁negen":8799,"ulus":8800,"▁ziekenhuisopname":8801,"▁gemodific":8802,"G-":8803,"▁zeldzaam":8804,"▁Q4":8805,"▁Holter":8806,"ai":8807,"diagnose":8808,"▁chirurgie":8809,"roscopie":8810,"▁Hospital":8811,"▁PI":8812,"▁soor":8813,"▁econ":8814,"▁wegens":8815,"iva":8816,"▁gepland":8817,"▁overeenkomstige":8818,"▁systematische":8819,":50":8820,"▁(de":8821,"▁regulerende":8822,"▁real":8823,"baar.":8824,"▁abces":8825,"▁Cu":8826,"mot":8827,"▁toch":8828,"activer":8829,"▁mast":8830,"▁single":8831,"▁gedrags":8832,"optim":8833,"▁immunos":8834,"curr":8835,"dikte":8836,"▁verleden":8837,"▁Spec":8838,"▁aanv":8839,"cyten":8840,"aars":8841,"▁cohort":8842,"▁veelbelovende":8843,"▁echt":8844,"▁verkrijgen":8845,"▁gestopt":8846,"NT":8847,"▁transplantatie":8848,"▁Gene":8849,"inezuur":8850,"gelijkertijd":8851,"▁migratie":8852,"▁lichaamsgewicht":8853,"ressor":8854,"benader":8855,"▁generatie":8856,"▁0,6":8857,"▁transmissie":8858,"▁schu":8859,"ures":8860,"▁opger":8861,"▁beroerte":8862,"hr":8863,"▁gedeelte":8864,"iket":8865,"▁<PERSOON>,":8866,"▁##%":8867,"▁ms":8868,"chron":8869,"▁varkens":8870,"▁ontvang":8871,"ocale":8872,"ofren":8873,"▁redelijke":8874,"▁vertraagde":8875,"ol.":8876,"▁robu":8877,"▁infiltr":8878,"ason":8879,"aff":8880,"▁speciale":8881,"▁nucleotide":8882,"▁snell":8883,"▁brede":8884,":O":8885,"▁AnGap":8886,"DA":8887,"▁houdt":8888,"▁(een":8889,"▁weerspiegel":8890,"▁OK":8891,"▁kransslagader":8892,"▁byp":8893,"▁contractie":8894,"ichia":8895,"itatief":8896,"▁bul":8897,"isin":8898,"▁neiging":8899,"-lymf":8900,"-uit":8901,"itaire":8902,"eltjes":8903,"rière":8904,"▁comfort":8905,"▁foto":8906,"▁eens":8907,"▁nm":8908,"▁3-":8909,"▁SM":8910,"▁sed":8911,"▁intub":8912,"▁percept":8913,"▁tien":8914,"...":8915,"▁laser":8916,"▁locaties":8917,"▁Inf":8918,"section":8919,"aser":8920,"▁toelat":8921,"IA":8922,"antilich":8923,"▁succesvol":8924,"▁arch":8925,"▁vormt":8926,"iologische":8927,"▁intraveneus":8928,"▁classificatie":8929,"▁72":8930,"atin":8931,"cal":8932,"▁flexib":8933,"▁materialen":8934,"▁Lact":8935,"▁onderzoek,":8936,"▁oorspronkelijke":8937,"▁14.":8938,"▁stier":8939,"▁dominante":8940,"▁droge":8941,"populatie":8942,"dehy":8943,"▁Indien":8944,"▁incisie":8945,"▁veren":8946,"▁PRN":8947,"▁kalium":8948,"▁maken.":8949,"▁hebben,":8950,"stij":8951,"-16":8952,"chromat":8953,"▁parallel":8954,"▁L5":8955,"terminale":8956,"YS":8957,"▁COPD":8958,"▁zuige":8959,"▁immunohistoch":8960,"BM":8961,"▁gespec":8962,"▁Device":8963,"▁handh":8964,"ofyse":8965,"okine":8966,"▁-Reden":8967,"ocon":8968,"▁rechterboven":8969,"▁langzaam":8970,"dipine":8971,"▁Leeft":8972,"▁tev":8973,"▁indirect":8974,"▁(titel":8975,"entanyl":8976,"▁elementen":8977,"▁gekweekt":8978,"pan":8979,"▁Der":8980,"set":8981,"▁voe":8982,"▁AG":8983,"▁beroep":8984,"omon":8985,"▁Ox":8986,"omeer":8987,"stijd":8988,"▁MCH-2":8989,"segment":8990,"▁overd":8991,"artim":8992,"▁Terwijl":8993,"▁detecteren":8994,"▁Tw":8995,"net":8996,"▁thermische":8997,"opo":8998,"▁brad":8999,"omale":9000,"ique":9001,"-virus":9002,"▁tan":9003,"▁stadia":9004,"▁hypo":9005,"▁oorzaken":9006,"/uL":9007,"▁EM":9008,"▁medium":9009,"want":9010,"\nL":9011,"jectieve":9012,"kort":9013,"▁flu":9014,"▁reguleren":9015,"▁time":9016,"▁heparine":9017,"▁op.":9018,"LR":9019,"▁atherosclerotische":9020,"chem":9021,"▁rate":9022,"-groep":9023,"▁geactiveerd":9024,"▁normaal,":9025,"▁atelectase":9026,"lipidemie":9027,"▁diabetische":9028,"idyl":9029,"▁180":9030,"ontwikkeling":9031,"amente":9032,"▁CT-scan":9033,"▁lapar":9034,"▁jan":9035,"▁gewijzigd":9036,"▁biologisch":9037,"▁veilig":9038,"genetische":9039,"▁SEH":9040,"▁vs.":9041,"▁ultras":9042,"-invas":9043,"▁algehele":9044,"▁Comments:":9045,"▁mus":9046,"▁(U":9047,"▁wereldwijde":9048,"▁HD":9049,"oprazol":9050,"ioom":9051,"▁())":9052,"komende":9053,"▁(bijv.":9054,"hem":9055,"▁heeft.":9056,"▁volg":9057,"▁Pain":9058,"komt":9059,"▁spontaan":9060,"▁infectie.":9061,"idog":9062,"siek":9063,"▁sug":9064,"eldood":9065,"▁seksuele":9066,"▁ontwikkelden":9067,"▁MCH-3":9068,"▁prov":9069,"▁99":9070,"▁heb":9071,"\r20":9072,"▁werkt":9073,"4/":9074,"▁Sign":9075,"▁dilatatie":9076,"ionen":9077,"▁mamm":9078,"▁plaatsing":9079,"-complex":9080,"ocytose":9081,"inc":9082,"▁Activity":9083,"▁cDNA":9084,"▁daarvan":9085,"cultuur":9086,"▁training":9087,"vormen":9088,"▁IVF":9089,"long":9090,"▁clear":9091,"▁alkal":9092,"olerantie":9093,"▁Wer":9094,"▁K/uL":9095,"▁Beoordeling":9096,"▁Home":9097,"▁milligram.\r":9098,"iliac":9099,"▁heden":9100,"▁gewoon":9101,"omedi":9102,"breuk":9103,"▁sonde":9104,"▁onveranderd.":9105,"▁tetra":9106,"▁Cancer":9107,"▁DE":9108,"▁Vereniging":9109,"-inflammatoire":9110,"▁VCI":9111,"▁trig":9112,"ELVIS":9113,"43":9114,"kkige":9115,"▁longem":9116,"▁verwerking":9117,"rinsieke":9118,"eende":9119,"▁management":9120,"▁Alert":9121,"utum":9122,"▁calciumscore":9123,"▁Tel":9124,"▁Verslag:":9125,"-analyse":9126,"▁Sle":9127,"▁_-":9128,"merc":9129,"reatment":9130,"itter":9131,"sloten.":9132,"▁prakt":9133,"▁[x":9134,"▁inheemse":9135,"▁efficiënt":9136,"▁μm":9137,"eiz":9138,"artan":9139,"inium":9140,"▁Vis":9141,"41":9142,"▁onthullen":9143,"▁eet":9144,"▁groepen.":9145,"▁verwond":9146,"▁redelijk":9147,"▁geest":9148,"▁retin":9149,"▁experimenteel":9150,"▁gesynthetiseerd":9151,"▁vertro":9152,"▁artritis":9153,"▁neutrofie":9154,"ton":9155,"▁dopamine":9156,"▁decompens":9157,"ping":9158,"eeksel":9159,"▁mmHg.":9160,"▁Can":9161,"▁komst:":9162,"▁160":9163,"▁vloeist":9164,"▁cyan":9165,"&gt;":9166,"▁getrans":9167,"▁Geen.":9168,"▁Algemeen":9169,"▁bestand":9170,"oneel":9171,"luenz":9172,"heen":9173,"▁enigszins":9174,"▁overexpressie":9175,"▁Linker":9176,"▁beïnvloeden":9177,"▁spann":9178,"oli":9179,"▁bib":9180,"ortic":9181,"Hospital1":9182,"▁peri":9183,"gevallen":9184,"sk":9185,"oepen":9186,"▁Verander":9187,"▁samenvatting":9188,"▁DOS":9189,"▁aug":9190,"▁karakterisering":9191,"▁variabele":9192,"kker":9193,"zi":9194,"▁ip":9195,"tent":9196,"▁lymfadenopathie.":9197,"ubl":9198,"▁functioneren":9199,"▁LC":9200,"▁cholec":9201,"▁39":9202,"Medicatie":9203,"▁bescherming":9204,"▁acetyl":9205,"▁bemon":9206,"▁goed,":9207,"pletie":9208,"amaat":9209,"ic,":9210,"▁onbekende":9211,"▁orde":9212,"▁Doc":9213,"assay":9214,"▁hor":9215,"▁verwijderd.":9216,"obob":9217,"▁i.v.m.":9218,"chi":9219,"▁Labs":9220,"▁decen":9221,"stitu":9222,"▁cran":9223,"raad":9224,"isinopril":9225,"▁sagittale":9226,"names":9227,"▁wetenschappelijke":9228,"▁Exam:":9229,"illus":9230,"▁bilateraal.":9231,"▁epider":9232,"atch":9233,"▁uitdaging":9234,"▁Au":9235,"waart":9236,"▁carot":9237,"▁selectief":9238,"▁glad":9239,"biopsie":9240,"▁omgekeerde":9241,"▁verdragen":9242,"▁(CT":9243,"wisseling":9244,"▁rollen":9245,"▁Clin":9246,"▁wet":9247,"▁aangegeven":9248,"iderzijd":9249,"Geen":9250,"▁vallen":9251,"▁ambul":9252,"▁atypische":9253,"ijden.":9254,"▁circul":9255,"▁CRP":9256,"▁DC":9257,"oo":9258,"▁Tran":9259,"\nO":9260,"▁onderwerp":9261,"led":9262,"▁2014":9263,"otypische":9264,"apen":9265,"▁macrofagen":9266,"▁persist":9267,"▁vrijw":9268,"oestand":9269,"▁neer":9270,"EHTX":9271,"▁orthop":9272,"▁angiografie":9273,"fase":9274,"DE":9275,"▁verouder":9276,"(S":9277,"artic":9278,"▁aan.":9279,"▁waargenomen,":9280,"▁bif":9281,"▁Scale":9282,"verwe":9283,"strategieën":9284,"▁gemetast":9285,"▁voorspelde":9286,"▁dosering":9287,"▁tubercul":9288,"▁pulmonaal":9289,"oplastic":9290,"▁genetisch":9291,"▁cytokine":9292,"▁aggreg":9293,"▁coörd":9294,"3H":9295,"▁post-":9296,"▁trombose":9297,"ilaire":9298,"scherichia":9299,"gemaak":9300,"▁onderscheid":9301,"otypen":9302,"▁conserv":9303,"▁typische":9304,"▁gescheiden":9305,"▁duizeligheid":9306,"▁bestond":9307,"▁bijnier":9308,"KG":9309,"▁cmH2O":9310,"▁sinussen":9311,"▁verschillend":9312,"▁dragen":9313,"ses":9314,"▁cis":9315,"▁oriën":9316,"▁2x":9317,"69":9318,"▁LAB":9319,"▁benadrukken":9320,"▁wan":9321,"graad":9322,"▁gron":9323,"▁consolidatie":9324,"▁variabelen":9325,"▁supra":9326,"▁Ernstige":9327,"▁gead":9328,"-intestinale":9329,"▁afgenomen":9330,"▁verslag":9331,"▁3,5":9332,"▁0,05).":9333,"▁beta-":9334,"DER":9335,"verhouding":9336,"▁koude":9337,"groe":9338,"▁uitbreiding":9339,"reacties":9340,"▁spieren":9341,"▁diverse":9342,"▁plaque":9343,"▁uitdagingen":9344,"▁langere":9345,"▁[x]":9346,"jug":9347,"▁morgen":9348,"▁Hy":9349,"▁represent":9350,"ijken":9351,"▁aanpassing":9352,"▁monokl":9353,"▁visu":9354,"▁zeker":9355,"ontreinig":9356,"▁yes":9357,"▁patiënt,":9358,"▁Pla":9359,"tests":9360,"eta":9361,"utaan":9362,"ochroom":9363,"▁uitstekende":9364,"▁gerapporteerde":9365,"/G":9366,"▁breuken":9367,"▁namelijk":9368,"ick":9369,"temper":9370,"ased":9371,"verdeling":9372,"▁dat,":9373,"houet":9374,"ephal":9375,"▁totdat":9376,"▁advies":9377,"rache":9378,"cons":9379,"▁Cardio":9380,"▁intermediaire":9381,"essant":9382,"▁insuff":9383,"-patiën":9384,"azepam":9385,"▁nn":9386,"holte":9387,"bl":9388,"CR":9389,"▁Code":9390,"flex":9391,"space":9392,"▁lasix":9393,"▁1,3":9394,"▁onbekend":9395,"▁inhoud":9396,"▁analyseren":9397,"▁Sommige":9398,"▁Medication":9399,"03":9400,"▁metalen":9401,"▁varieerde":9402,"->":9403,"▁residuen":9404,"▁WH":9405,"▁geteste":9406,"▁schiz":9407,"▁gehoor":9408,"ulerende":9409,"stral":9410,"zijdige":9411,"iden,":9412,"umab":9413,"▁statistische":9414,"72":9415,"▁vaatziekten":9416,"▁retroper":9417,"YR":9418,"ank":9419,"▁ontvangen":9420,"▁uur)":9421,"procedure":9422,"▁gon":9423,"▁gevonden.":9424,"sie.":9425,"▁kra":9426,"▁lop":9427,"ografie.":9428,"▁genomische":9429,"lycer":9430,"▁(naam":9431,"▁pasgeboren":9432,"▁kwal":9433,"▁ongewijzig":9434,"▁willekeurig":9435,"ise":9436,"▁q":9437,"haaf":9438,"cardi":9439,"▁Continu":9440,"-al":9441,"▁2020":9442,"▁Trop":9443,"▁09":9444,"gentie":9445,"hab":9446,"▁alternatief":9447,"▁sterkte":9448,"▁passend":9449,"acetyl":9450,"-functie":9451,"ecursus":9452,"56":9453,"▁inse":9454,"▁princip":9455,"▁hybrid":9456,"▁(#":9457,"▁echografie":9458,"▁(E.":9459,"▁project":9460,"▁celdood":9461,"aalf":9462,"iae":9463,"▁prognost":9464,"',":9465,"▁cat":9466,"▁PH":9467,"versch":9468,"script":9469,"▁arg":9470,"▁it":9471,"▁dip":9472,"▁Escherichia":9473,"▁HA":9474,"rapport":9475,"coëff":9476,"▁bezoek":9477,"can":9478,"streng":9479,"andaard":9480,"perfusie":9481,"-buis":9482,"▁Famil":9483,"ide,":9484,"▁Blood":9485,"stadi":9486,"peratieverslag":9487,"▁Jap":9488,"▁bewegings":9489,"▁sepsis":9490,"K-":9491,"uss":9492,"▁morfologie":9493,"▁percentiel":9494,"ondersteun":9495,"▁(II)":9496,"▁pector":9497,"▁(OR":9498,"▁hiel":9499,"▁gevorder":9500,"▁besluit":9501,"quencing":9502,"▁hoek":9503,"▁fist":9504,"▁willen":9505,"▁blot":9506,"abase":9507,"▁rand":9508,"▁(a)":9509,"▁monitoring":9510,"athion":9511,"▁histologische":9512,"ziekten.":9513,"▁Gez":9514,"07":9515,"▁anamnese:":9516,"86":9517,"▁voerden":9518,"-out":9519,"▁tryp":9520,"▁[TELEFOONNUMMER]":9521,"▁osteop":9522,"▁dienst":9523,"component":9524,"▁Man":9525,"▁heel":9526,"▁42":9527,"▁versterkt":9528,"▁ingreep":9529,"▁verschuiving":9530,"▁krachtig":9531,"▁dend":9532,"▁onderw":9533,"▁levende":9534,"sniveau":9535,"zon":9536,"▁verpleegkundige":9537,"ife":9538,"ow":9539,"idiver":9540,"▁Abdomen:":9541,"▁distributie":9542,"isch,":9543,"▁gemeld.":9544,"▁dermat":9545,"42":9546,"▁lokalisatie":9547,"▁AST":9548,"xine":9549,"▁Naast":9550,"▁wijd":9551,"▁interleuk":9552,"belasting":9553,"▁30%":9554,"▁Last":9555,"fol":9556,"gerichte":9557,"▁ziekte,":9558,"▁SN":9559,"'-":9560,"▁obv":9561,"[ID]":9562,"▁veranderingen.":9563,"▁longkanker":9564,"icientie":9565,"▁intermitt":9566,":[DATUM]":9567,"▁(niet":9568,"hex":9569,"▁beoordeeld.":9570,"nen.":9571,"brengst":9572,"▁onderdrukt":9573,"▁sleut":9574,"sinter":9575,"▁Zn":9576,"▁temperat":9577,"▁bereken":9578,"▁uitgesproken":9579,"▁(###":9580,"AD,":9581,"▁binden":9582,"▁identificeerden":9583,"-receptoren":9584,"▁blan":9585,"▁Omschrijving:N":9586,"tensieve":9587,"AA":9588,"▁tablet(s)":9589,"eptor":9590,"▁Insul":9591,"▁change":9592,"edische":9593,"▁klassieke":9594,"Al":9595,"▁600":9596,"▁structureel":9597,"huid":9598,"▁antit":9599,"▁IM":9600,"-antilich":9601,"oom,":9602,"▁geslachts":9603,"▁verhoogt":9604,"ONE":9605,"▁[ZIEKENHUIS],":9606,"tage":9607,"▁PVC":9608,"teerde":9609,"aec":9610,"-binding":9611,"▁agon":9612,"▁dochter":9613,"T.":9614,"dieren":9615,"▁oplever":9616,"/w":9617,"▁hulpmiddelen":9618,"ofie":9619,"▁dynamiek":9620,"-mon":9621,"▁aankomst":9622,"▁toegevoegd":9623,"ASC":9624,"zhe":9625,"/V":9626,"▁Vier":9627,"aminofen":9628,"▁farmacologische":9629,"▁reconstructie":9630,"▁bespreekt":9631,"1;":9632,"doel":9633,"ulose":9634,"uron":9635,"icus":9636,"ringende":9637,"▁ondergingen":9638,"ation.":9639,"▁uur,":9640,"▁respir":9641,"▁-N":9642,"oorden":9643,"▁bevinding":9644,"ged":9645,"ident":9646,"▁nanop":9647,"deerde":9648,"▁Polikliniek:":9649,"HC":9650,"▁Kalium":9651,"antoprazol":9652,"▁RR:":9653,"ities":9654,"systemen":9655,"itud":9656,"vaat":9657,"▁equ":9658,"uleert":9659,"▁nor":9660,"▁communicatie":9661,"waartse":9662,"▁uitgangs":9663,"▁ballon":9664,"avanc":9665,"ocumente":9666,"aspectrometrie":9667,"▁individuen":9668,"adrant":9669,"▁sensorische":9670,"▁stee":9671,"ineerde":9672,"wervel":9673,"culturen":9674,"▁commerc":9675,"▁hypertensie.":9676,"▁avond":9677,"/b":9678,"▁Indi":9679,"pert":9680,"▁aanval":9681,"▁omgezet":9682,"▁neuropath":9683,"▁CF":9684,"opische":9685,"▁56":9686,"▁chromat":9687,"▁95":9688,"▁voltoo":9689,"▁pathologie":9690,"▁X-thorax":9691,"▁bloedstroom":9692,"cet":9693,"sbe":9694,"ijne":9695,"▁afval":9696,"▁Elekt":9697,"diënt":9698,"▁therapeutisch":9699,"asten":9700,"▁Acet":9701,"▁hypertensie,":9702,"▁EG":9703,"raling":9704,"▁gekweekte":9705,"Be":9706,"▁belasting":9707,"▁beval":9708,"▁Int":9709,"▁verduidelijk":9710,"stitiële":9711,"▁lan":9712,"▁adip":9713,"▁Reden:":9714,"▁Neurolog":9715,"▁TGF":9716,"▁[ID":9717,"▁Psych":9718,"▁onderhoud":9719,"inef":9720,"ocomp":9721,"zeker":9722,"loxacine":9723,"leid":9724,"▁gewricht":9725,"ollen":9726,"▁fl":9727,"▁congest":9728,"▁geïnteg":9729,"▁vrucht":9730,"▁bevestigde":9731,"omal":9732,"ylen":9733,"▁microM":9734,"ontsteking":9735,"▁variabiliteit":9736,"▁gunstige":9737,"roken":9738,"fac":9739,"▁ng":9740,"ucc":9741,"▁secretie":9742,"▁tyrosine":9743,"▁prominente":9744,"▁experiment":9745,"▁Lip":9746,"voeding":9747,"▁kandidaat":9748,"▁s)":9749,"eral":9750,"▁diffusie":9751,"▁suggest":9752,"▁(mm):":9753,"▁41":9754,"▁goedaardige":9755,"ATI":9756,"verse":9757,"otomie":9758,"▁stimuli":9759,"ted":9760,"ologie)":9761,"fspraak":9762,"▁aminozuren":9763,"rien":9764,"HD":9765,"▁bypass":9766,"▁96":9767,"▁0,05)":9768,"-25":9769,"stitutie":9770,"ocardiale":9771,"▁Laboratorium":9772,"▁98":9773,"hosp":9774,"umar":9775,"stem":9776,"▁1,2":9777,"▁agen":9778,"▁?":9779,"▁zorgverlen":9780,"▁poging":9781,"▁spor":9782,"▁IGF":9783,"▁herstellen":9784,"▁tit":9785,"▁elektron":9786,"▁plotsel":9787,"▁datas":9788,"▁eindig":9789,"▁vertegenwoordigen":9790,"▁Aspirine":9791,"▁erf":9792,"▁adequate":9793,"eprazol":9794,"▁variant":9795,"kenmerken":9796,"▁46":9797,"▁toegewezen":9798,"ats":9799,"opa":9800,"▁renale":9801,"▁organen":9802,"▁indu":9803,"▁resulterende":9804,"[PERSOON],":9805,"(en):":9806,"down":9807,"▁ves":9808,"▁bic":9809,"▁luchtwegen":9810,"▁pri":9811,"apamil":9812,"▁bis":9813,"-t-t":9814,"▁hiervan":9815,"icter":9816,"ineerd":9817,"▁fin":9818,"ja":9819,"tractie":9820,"▁hypoden":9821,"▁stelt":9822,"▁gevisualiseerde":9823,"▁geselecteerd":9824,"▁-Brief":9825,"▁bestudeerd.":9826,"▁pediat":9827,"▁Clip":9828,"▁coronairlijden":9829,"uld":9830,"▁beschermende":9831,"-gerelateerde":9832,"schappen.":9833,"▁Monitor":9834,"▁pancreat":9835,"polarisatie":9836,"▁sotalol":9837,"arter":9838,"-negatieve":9839,"▁variërend":9840,"anine":9841,"▁allerg":9842,"▁zee":9843,"leb":9844,"▁64":9845,"▁genoeg":9846,"-syndroom":9847,"verbindingen":9848,"▁device":9849,"▁veranderen":9850,"stechn":9851,"▁zak":9852,"▁mei":9853,"▁keten":9854,"sens":9855,"▁endometrium":9856,"ificaties":9857,"▁(1,":9858,"▁2009":9859,"▁Thema:CAR":9860,"▁15.":9861,"▁embryonale":9862,"▁synaptische":9863,"▁off":9864,"-cell":9865,"▁nabij":9866,"▁superieure":9867,"oxysm":9868,"INGEN:":9869,"▁0,2":9870,"▁opnemen":9871,"▁>)":9872,"telijk":9873,"▁uro":9874,"▁gepresenteerd.":9875,"-DNA":9876,"ofiele":9877,"▁creë":9878,"▁zelden":9879,"veal":9880,"fecteerd":9881,"▁kanker.":9882,"kenning":9883,"▁(d.":9884,"▁verwezen":9885,"▁BP:":9886,"▁definitieve":9887,"▁kwest":9888,"UE":9889,"ieren.":9890,"OOR":9891,"INSTELLING>":9892,"a-aort":9893,"7/":9894,"ypertensie":9895,"TER":9896,"implant":9897,"▁58":9898,"▁schijnbare":9899,"▁culturen":9900,"m:":9901,"▁microbiële":9902,"▁collega,":9903,"▁Alzhe":9904,"idogrel":9905,"ices":9906,"▁Link":9907,"())":9908,"▁Japan":9909,"oprofiel":9910,"▁consolid":9911,"glut":9912,"spor":9913,"lectie":9914,"stoornissen.":9915,"▁allo":9916,"inaal":9917,"▁amplitude":9918,"-2-":9919,"eff":9920,"▁125":9921,"▁discus":9922,"▁pleuravocht":9923,"▁CYP":9924,"▁illu":9925,"sin":9926,"▁suik":9927,"▁wakker":9928,"▁verbetert":9929,"▁geïntub":9930,"▁onzeker":9931,"reening":9932,"▁bemiddelen":9933,"ziekte.":9934,"▁Omschrijving:None,":9935,"ologic":9936,"▁Algemene":9937,"vlees":9938,"▁MCV-9":9939,"▁poliklinisch":9940,"▁poliklinische":9941,"volum":9942,"straling":9943,"▁oplosbare":9944,"▁glomer":9945,"▁straling":9946,"▁allel":9947,"▁gedocumente":9948,"▁gedefinieerde":9949,"▁meldt":9950,"fferent":9951,"onderzoeken":9952,"fo":9953,"▁onderworpen":9954,"▁(Z":9955,"▁Antwoord:B":9956,"▁dal":9957,"ycodone":9958,"ameth":9959,"▁stappen":9960,"▁knock":9961,"▁bronnen":9962,"astom":9963,"achting":9964,"▁MP":9965,"▁mg/dl":9966,"▁Sh":9967,"buter":9968,"▁Right":9969,"▁11,":9970,"▁Leu":9971,"▁cath":9972,"▁verhoogd.":9973,"▁vermeld":9974,"▁reparatie":9975,"da":9976,"ciplin":9977,"▁gunstig":9978,"GR":9979,"Decursus":9980,"▁Den":9981,"▁vertegenwoordigt":9982,"A1":9983,"▁gedilateerd":9984,"▁voeren":9985,"▁gekregen":9986,"▁mijn":9987,"▁landen":9988,"-systeem":9989,"ined":9990,"▁vermeende":9991,"▁draad":9992,"onaal":9993,"▁substr":9994,"space%":9995,"▁(Daily).":9996,"▁amin":9997,"AMP":9998,"beur":9999,"-18":10000,"▁Gem":10001,"▁anesthesie":10002,"▁verdenking":10003,"▁vs":10004,"▁concurr":10005,"▁bewustzijn":10006,"▁Temp":10007,"▁Neuro:":10008,"▁cytoplasm":10009,"▁stral":10010,"▁cef":10011,"loon":10012,"▁TM":10013,"-24":10014,"▁fix":10015,"▁CPAP":10016,"▁(en":10017,"▁90%":10018,"ivariate":10019,"cholesterolemie":10020,"adigde":10021,"▁element":10022,"▁katalytische":10023,"▁Verwer":10024,"▁Medical":10025,"<PERSOON":10026,"▁assessment":10027,"y:":10028,"vorming.":10029,"phy":10030,"accharide":10031,"▁benadrukt":10032,"▁adenosine":10033,"▁kliniek":10034,"▁Cel":10035,"▁diverticul":10036,"▁]]":10037,"▁Nut":10038,"membraan":10039,"stitut":10040,"▁DOSE:":10041,"▁kritische":10042,"/f":10043,"▁Pertinent":10044,"▁puls":10045,"▁Amerikaanse":10046,"▁PELVIS":10047,"▁lev":10048,"▁amiodar":10049,"▁geïntro":10050,"alg":10051,"▁type:":10052,"▁oedeem.":10053,"▁herhaling":10054,"▁handhaven":10055,"ees":10056,"▁verzorg":10057,"▁cellijn":10058,"▁lever,":10059,"▁heterogene":10060,"aas":10061,"choline":10062,"erale":10063,"AF":10064,"▁((**":10065,"capaciteit":10066,"▁gezamenlijke":10067,"▁geëvalueerd.":10068,"▁pal":10069,"▁Vraagstelling:":10070,"▁transform":10071,"▁SK":10072,"▁GAB":10073,"▁(##":10074,"▁belast":10075,"▁grij":10076,"\r\u0007":10077,"▁Lichamelijk":10078,"▁contrast.":10079,"▁Aanmelding":10080,"appa":10081,"▁mol":10082,"▁adap":10083,"▁bindende":10084,"-polym":10085,"▁(d.w.z.":10086,"▁dementie":10087,"▁gerandomiseerde":10088,"▁kwamen":10089,"▁geaut":10090,"▁vermindert":10091,"eiste":10092,"ovirus":10093,"nnnnnnnn":10094,"▁verdwen":10095,"▁ongeacht":10096,"orvastatine":10097,"▁Kan":10098,"▁reproduc":10099,"▁geheel":10100,"▁85":10101,"fosfaat":10102,"▁opmerkelijk":10103,"aban":10104,"oder":10105,"inol":10106,"93":10107,"▁gebruikelijke":10108,"ves":10109,"▁polymeer":10110,"▁antimicro":10111,"▁uitgesloten":10112,"▁Cd":10113,"rypt":10114,"▁2.0":10115,"▁lu":10116,"▁43":10117,"mechanismen":10118,"▁ochten":10119,"▁geconcludeerd":10120,"diging":10121,"vende":10122,"jectiefractie":10123,"▁onderdrukken":10124,"▁fluid":10125,"▁piep":10126,"idase":10127,"▁mm,":10128,"▁vezels":10129,"▁Verenigde":10130,"▁organisatie":10131,"▁gecompliceerd":10132,"&lt;0,0":10133,"isciplin":10134,"esium":10135,"▁h/o":10136,"ften":10137,"▁Acute":10138,"▁lij":10139,"▁risicofactor":10140,"iforme":10141,"ioneel":10142,"spiegelen":10143,"▁sensor":10144,"emie.":10145,"▁prost":10146,"▁44":10147,"▁verstor":10148,"osale":10149,"▁compressie":10150,"onie":10151,"tige":10152,"umad":10153,"▁gedifferentie":10154,"▁weerspiegelen":10155,"▁Cor:":10156,"▁(Q":10157,"moid":10158,"▁observatie":10159,"ofage":10160,"▁eic":10161,"ofactoren":10162,"M-":10163,"▁IP":10164,"lete":10165,"ation,":10166,"fs":10167,"▁T.":10168,"ays":10169,"▁Thema:Decursus":10170,"▁Decursus,":10171,"▁Antwoord:Brief":10172,"▁Thema:Decursus,":10173,"eper":10174,"▁Tablet(s)":10175,"▁hoorn":10176,"94":10177,"▁dex":10178,"▁fosfolip":10179,"▁Hemat":10180,"0.0":10181,"▁tumorcellen":10182,"ient":10183,"▁beiderzijd":10184,"8/":10185,"doen":10186,"▁myc":10187,"olecular":10188,"▁paran":10189,"vulling":10190,"%space%":10191,"▁12,":10192,"ksgezondheid":10193,"d)":10194,"▁voorspeld":10195,"iing":10196,"▁Ca(2+)":10197,"▁begrep":10198,"▁DS":10199,"\nP":10200,"▁remt":10201,"▁gemute":10202,"lec":10203,"▁elektronische":10204,"itief":10205,"▁RDWSD":10206,"▁onmiddellijke":10207,"atib":10208,"▁Europe":10209,"▁cross-":10210,"▁(Radi":10211,"kken,":10212,"6/":10213,"▁absol":10214,"ATE":10215,"▁voortplant":10216,"▁decursus:":10217,"digheid":10218,"▁×":10219,"▁DI":10220,"▁SO":10221,"le,":10222,"▁ML":10223,"▁left":10224,"Ca":10225,"lyk":10226,"▁ontdekking":10227,"lase":10228,"▁gezuiv":10229,"▁bevestigen":10230,"stern":10231,"rog":10232,"▁aer":10233,"▁schizofren":10234,"▁embryo":10235,"omeren":10236,"▁gedetailleerde":10237,"▁angina":10238,"▁varianten":10239,"▁implementatie":10240,"▁sen":10241,"jaar":10242,"andhaaf":10243,"▁taal":10244,"mber":10245,"tended":10246,"ed,":10247,"▁uitgevoerd,":10248,"-14":10249,"▁Tablet,":10250,"rimin":10251,"▁onbekend.":10252,"▁verdw":10253,"▁wissel":10254,"▁induceert":10255,"▁jun":10256,"▁ng/ml":10257,"schak":10258,"▁insp":10259,"▁wezen":10260,"▁<INSTELLING>":10261,"▁stri":10262,"▁dij":10263,"ig.":10264,"ffusie":10265,"▁SS":10266,"raakbeen":10267,"▁gehandhaaf":10268,"▁Ambul":10269,"liferatieve":10270,"▁ervaren":10271,"▁fragment":10272,"▁stamcellen":10273,"▁onderdrukking":10274,"▁energ":10275,"loten":10276,"peratuur":10277,"▁03":10278,"▁PCR":10279,"al,":10280,"▁lichamelijk":10281,"▁verlaagde":10282,"▁onderzoekt":10283,"▁fluoresc":10284,"▁extractie":10285,"hod":10286,"▁verondersteld":10287,"hydra":10288,"▁korrel":10289,"▁Sol":10290,"▁bleven":10291,"▁prognostische":10292,"▁onderzoekers":10293,"tieve":10294,"▁MM":10295,"nelheden":10296,"▁sleutel":10297,"iaz":10298,"▁16.":10299,"avirus":10300,"55":10301,"▁vascul":10302,"▁Skin":10303,"uari":10304,"glucose":10305,"part":10306,"▁adhesie":10307,"▁tip":10308,"▁parenchym":10309,"▁miRNA":10310,"▁MO":10311,"▁p53":10312,"▁uitvoeren":10313,"inese":10314,"▁uitslag":10315,"▁LVAD":10316,"x.":10317,"▁Fi":10318,"hyreoïd":10319,"▁leukocyten":10320,"luorescentie":10321,"▁categorie":10322,"▁μg":10323,"▁verdikking":10324,"▁-->":10325,"▁bloeden":10326,"▁chemotherap":10327,"▁Glyc":10328,"▁gecombineerd":10329,"▁verklaard":10330,"▁nadruk":10331,"▁###)":10332,"▁verslechter":10333,"▁emotionele":10334,"▁Aut":10335,"▁antagonist":10336,"▁U/L":10337,"▁dië":10338,"▁Onlangs":10339,"▁geïnter":10340,"▁ond":10341,"ozen":10342,"▁dorsale":10343,"▁tachycard":10344,"▁uitgesloten.":10345,"▁compet":10346,"▁proces.":10347,"▁lymfekl":10348,"▁geavanc":10349,"▁versn":10350,"▁hoof":10351,"-gamma":10352,"anim":10353,"jarige":10354,"▁opslag":10355,"▁chronisch":10356,"ilaterale":10357,"▁geactiveerde":10358,"-(":10359,"▁mutant":10360,"▁(Int":10361,"▁trauma":10362,"C.)":10363,"▁(n=":10364,"ear":10365,"materiaal":10366,"ritische":10367,"▁endo":10368,"acte":10369,"▁gtt":10370,"astische":10371,"▁signalering":10372,"▁Gegevens":10373,"▁kenmerk":10374,"▁cardiomyopathie":10375,"duid":10376,"lopidogrel":10377,"▁Flow":10378,"▁segmenten":10379,"66":10380,"ostase":10381,"▁[(Name":10382,"▁zoek":10383,"▁stoornis":10384,"▁verstoring":10385,"▁gevalide":10386,"▁68":10387,"▁instructie":10388,"▁Wel":10389,"abele":10390,"m):":10391,"▁zichzelf":10392,"▁brief":10393,"▁extremiteit":10394,"▁school":10395,"▁60%":10396,"sproblemen":10397,"▁Algemeen:":10398,"▁(4)":10399,"octor":10400,"▁herhaal":10401,"NF":10402,"buterol":10403,"▁(95%":10404,"NOS":10405,"ijden,":10406,"YYYYYYYYYYYYYYYY":10407,"▁gelokaliseerd":10408,"temperatuur":10409,"OH":10410,"▁evolution":10411,"▁Sinusritme":10412,"▁bouw":10413,"iland":10414,"DM":10415,"▁gesc":10416,"▁beloop":10417,"▁geneeskunde":10418,"▁pathof":10419,"▁az":10420,"CT-CT-CT-CT-CT-CT-CT-CT-":10421,"▁kleinere":10422,"▁TNF-":10423,"bestrij":10424,"▁oedeem,":10425,"▁voorbijgaande":10426,"▁gehalte":10427,"sn":10428,"▁betrouwbare":10429,"-respon":10430,"soorten":10431,"▁ring":10432,"werpen":10433,"▁nek":10434,"▁geschatte":10435,"▁operatie.":10436,"▁Anamnese":10437,"sende":10438,"afwijking":10439,"▁bewaar":10440,"▁gelegen":10441,"rief:":10442,"mmon":10443,"▁aspiratie":10444,"transp":10445,"▁verpleegkundigen":10446,"▁zet":10447,"▁controle.":10448,"0,00":10449,"wortel":10450,"syndroom":10451,"quit":10452,"▁Verrichting":10453,"iaanse":10454,"▁steun":10455,"stering":10456,"▁iliac":10457,"▁interstitiële":10458,"▁waterige":10459,"▁1:":10460,"▁Verrichting(en):":10461,"▁gerelateerde":10462,"▁linkerborst":10463,"▁verbeterd.":10464,"▁DO":10465,"BR":10466,"▁Eos":10467,"71":10468,"nec":10469,"▁waarna":10470,"▁oestrogeen":10471,"▁sociaal":10472,"▁deriv":10473,"▁ervoor":10474,"▁fylo":10475,"verandering":10476,"▁willekeurige":10477,"oliet":10478,"▁Nieuwe":10479,"▁lagen":10480,"▁verv":10481,"ineres":10482,"ids":10483,"delings":10484,"ablok":10485,"derd":10486,"▁theoretische":10487,"responsen":10488,"f,":10489,"▁stuk":10490,"-COM":10491,"▁buis":10492,"zuur,":10493,"▁RS":10494,"▁beschermen":10495,"▁remmers":10496,"ateuze":10497,"▁ziekten.":10498,"▁80%":10499,"▁aud":10500,"▁ras":10501,"▁Lev":10502,"▁Product)":10503,"▁mogelijkheden":10504,"▁Document":10505,"▁(Intellect":10506,"antal":10507,"▁Pulmon":10508,"osten":10509,"▁determin":10510,"▁gangl":10511,"▁vaardig":10512,"▁jaar)":10513,"▁70%":10514,"▁Kliniek:":10515,"lichaam":10516,"▁opgelost":10517,"'d'd":10518,"▁zin":10519,"synthese":10520,"tings":10521,"▁omk":10522,"▁RES":10523,"▁Verdere":10524,"quê":10525,"▁<PERSOON-##>,":10526,"▁silic":10527,"▁stoelgang":10528,"▁organismen":10529,"▁output":10530,"▁Finding":10531,"▁profess":10532,"▁leer":10533,"▁microm":10534,"Voor":10535,"▁Urine:":10536,"▁achtergrond":10537,"\nBe":10538,"kkende":10539,"omeen":10540,"gg":10541,"vragen":10542,"▁Hoog":10543,"-end":10544,"pel":10545,"▁Hgb-1":10546,"-signalering":10547,"▁idee":10548,"EHEH":10549,"oorde":10550,"▁(c)":10551,"ficiënte":10552,"-methyl":10553,"▁manip":10554,"▁placent":10555,"▁multif":10556,"▁zwakke":10557,"contact":10558,"▁neonatale":10559,"▁centraal":10560,"▁5'":10561,"etro":10562,"geruis":10563,"tract":10564,"▁celcyclus":10565,"▁levert":10566,"uut":10567,"▁eval":10568,"-test-test-test-test-test-test-test-test":10569,"▁vereiste":10570,"wijzing":10571,"▁nas":10572,"▁cluster":10573,"verspre":10574,"▁Klacht:":10575,"▁longitud":10576,"ality":10577,"▁frequente":10578,"▁bp":10579,"dienst":10580,"▁SH":10581,"▁psychiatrische":10582,"angere":10583,"patronen":10584,"▁schouder":10585,"▁tandheel":10586,"▁tax":10587,"stap":10588,"heerd":10589,"▁en,":10590,"rench":10591,"▁Techn":10592,"ontale":10593,"ISCH":10594,"▁uitzondering":10595,"▁incubatie":10596,"onol":10597,"▁special":10598,"▁EC":10599,"▁infusie":10600,"wan":10601,"raf":10602,"▁<doc>":10603,"ARS":10604,"▁associaties":10605,"\nN":10606,"▁drugs":10607,"\\b0":10608,"▁lar":10609,"-26":10610,"▁Eerdere":10611,"▁auto-immuun":10612,"vale":10613,"▁amylo":10614,"▁Belang":10615,"▁drempel":10616,"▁heeft,":10617,"▁leeftijd.":10618,"▁pass":10619,"\rH":10620,"atterij":10621,"▁tijdelijk":10622,"▁occ":10623,"opy":10624,"▁toegediend.":10625,"▁stere":10626,"▁subclav":10627,"▁Verslagdatum:\t[DATUM]":10628,"▁zacht,":10629,"▁correctie":10630,"-19-19":10631,"▁att":10632,"▁-Di":10633,"▁geplaatst.":10634,"▁(resp":10635,"▁milj":10636,"but":10637,"▁EEG":10638,"▁instrument":10639,"▁RBC-3.":10640,"▁schatting":10641,"▁knoopp":10642,"blasten":10643,"▁hypofyse":10644,"eters":10645,"▁gastro-intestinale":10646,":25":10647,"▁Neem":10648,"▁eGFR":10649,"▁regurg":10650,"V.":10651,"▁bd":10652,"spar":10653,"▁encefal":10654,"nieuw":10655,"regelmatig":10656,"mine":10657,"▁polymerase":10658,"oglyc":10659,"▁hydronef":10660,"▁virussen":10661,"▁PQ":10662,"▁04":10663,"-COM-COM":10664,"▁Aden":10665,"▁AMP":10666,"▁mesenterische":10667,"▁H.":10668,"loze":10669,"rab":10670,"▁geassocieerde":10671,"▁Matig":10672,"▁dysfunctie":10673,"openie":10674,"▁Tumor":10675,"itraat":10676,"way":10677,"▁lood":10678,"▁implantatie,":10679,"▁325":10680,"search":10681,"▁Voort":10682,"klieren":10683,"▁steeg":10684,"▁07":10685,"▁gezuiverd":10686,"▁gecodeerd":10687,"▁hemodynam":10688,"▁lim":10689,"igenschappen":10690,"▁huisartsen":10691,"orven":10692,"lanco":10693,"▁voelt":10694,"▁Hum":10695,"▁frequentie,":10696,"gluc":10697,"▁spectrum":10698,"celcarcinoom":10699,"umoren":10700,"▁tegelijkertijd":10701,"▁behandeling,":10702,"\nM":10703,"ced":10704,"▁verenig":10705,"hom":10706,"▁geëxtra":10707,"▁-In":10708,"nea":10709,"▁Follow-up":10710,"ilep":10711,"ulatie.":10712,"▁intrahepatische":10713,"▁Daily":10714,"arcoom":10715,"▁casp":10716,"▁temporale":10717,"zymen":10718,"▁wit":10719,"opie":10720,"▁Zoals":10721,"-mole":10722,"-AT":10723,"▁module":10724,"▁verwachte":10725,"▁CVA":10726,"▁cytotoxische":10727,"elin":10728,"▁bepaald.":10729,"▁Assessment:":10730,"▁identificeren.":10731,"▁instelling":10732,"▁hypothalam":10733,"▁sclerose":10734,"83":10735,"▁TNM":10736,"▁bind":10737,"▁BI":10738,"UNG":10739,"urt":10740,"(3":10741,"▁54":10742,"▁Vijf":10743,"NO":10744,"▁immuniteit":10745,"▁Hun":10746,"▁oppervlakkige":10747,"▁NK":10748,"▁Gaat":10749,"ness":10750,"▁verg":10751,"▁plasmac":10752,"at.":10753,"84":10754,"▁2008":10755,"aliseren.":10756,"▁bolus":10757,"erpen":10758,"▁verhogen.":10759,"VD":10760,"irst":10761,"b,":10762,"▁consum":10763,"PH":10764,"▁antip":10765,"▁[PERSOON].":10766,"▁08":10767,"2\"":10768,"▁verer":10769,"▁Tevens":10770,"▁hippocampus":10771,"▁temporele":10772,"▁empir":10773,"▁middelste":10774,"▁integratie":10775,"different":10776,"▁hypertrof":10777,"▁complicaties.":10778,"-geactiveerde":10779,"NR":10780,"▁pediatrische":10781,"▁melanoom":10782,"▁vullen":10783,"▁percutane":10784,"A2":10785,"▁(re":10786,"▁(AP":10787,"▁bevorderen.":10788,"ique:":10789,"87":10790,"pen,":10791,"▁verblijf":10792,"matische":10793,"▁vre":10794,"▁pijnklachten":10795,"▁FL":10796,"▁conc":10797,"ilept":10798,"▁film":10799,"▁trend":10800,"▁NPO":10801,"▁echte":10802,"tekeningen":10803,"veld":10804,"▁organisme":10805,"▁zink":10806,"-6.":10807,"uccesvolle":10808,"oploss":10809,"nest":10810,"▁bek":10811,"tijdige":10812,"▁DVT":10813,"▁Aanvraag":10814,"idale":10815,"spra":10816,"▁AK":10817,"▁(AD":10818,"▁metabolieten":10819,"iserende":10820,"hyp":10821,"ONTR":10822,"▁plasmam":10823,"▁(respectievelijk":10824,"▁mEq/l":10825,"fract":10826,"▁nuttige":10827,"▁52":10828,"kinson":10829,"ting.":10830,"▁benen":10831,"behandeling.":10832,"emie,":10833,"orde":10834,"Ph":10835,"▁micros":10836,"gebre":10837,"▁posterieure":10838,"iRNA":10839,"▁Binnen":10840,"azine":10841,"\r-":10842,"▁Momenteel":10843,"▁diagnostiek":10844,"▁architect":10845,"D1":10846,"▁66":10847,"▁tijdelijke":10848,"syn":10849,"urine":10850,"▁intrinsieke":10851,",#":10852,"oezem":10853,"▁konijnen":10854,"▁lokaal":10855,"ICD":10856,"▁infectieuze":10857,"▁pall":10858,"asen.":10859,"▁maxim":10860,"▁L-":10861,"dehyde":10862,"dema":10863,"▁hypoxie":10864,".:":10865,"▁aangetroffen":10866,"-50":10867,"▁Sim":10868,"▁uter":10869,"orylering":10870,"rar":10871,"▁kwets":10872,"▁Prim":10873,"▁sedi":10874,"▁infect":10875,":PRN":10876,"merking":10877,"▁anterior":10878,"▁Verhoogde":10879,"▁produceerde":10880,"eph":10881,"prop":10882,"vaten":10883,"atic":10884,"▁(french":10885,"▁-Size":10886,"▁(french):":10887,"ormaliteit":10888,"/1.":10889,"▁verschilden":10890,"wegen.":10891,"bezoek":10892,"▁overw":10893,"lopende":10894,"▁geestelijke":10895,"ositeit":10896,"▁links.":10897,"▁artikelen":10898,"strie":10899,"loot":10900,"AVI":10901,"▁Version":10902,"brale":10903,"scha":10904,"▁Cre":10905,"istieke":10906,"▁Risic":10907,"▁vindt":10908,"▁heer":10909,"-th":10910,"▁codeert":10911,"▁Hct-3":10912,"(-1":10913,"aria":10914,"/sec":10915,":\t[DATUM]":10916,"▁bezorgdheid":10917,"▁2012":10918,"termijn":10919,"▁SpO2:":10920,"herstel":10921,"▁spectrale":10922,"▁gewichtsverlies":10923,"▁rechterborst":10924,"uppressie":10925,"▁onderwijs":10926,"yle":10927,"▁MEDICE":10928,"▁Tromb":10929,"▁(titel)":10930,"▁krijgt":10931,"-13":10932,"▁sulc":10933,"▁had.":10934,"knoop":10935,"▁situatie":10936,"▁aanvullend":10937,"ieren,":10938,"repen":10939,"▁Bevindingen":10940,"▁kweek":10941,"▁LY":10942,"▁Dien":10943,"progressie":10944,"gevoelige":10945,"▁overig":10946,"▁personeel":10947,"▁LE":10948,"▁Zuid":10949,"▁radiale":10950,"wustzijn":10951,"omonas":10952,"▁levensvatbaarheid":10953,"clusies":10954,"adol":10955,"▁Familiegeschiedenis:":10956,"▁Onge":10957,"ectale":10958,"▁vermoedelijk":10959,"▁basaal":10960,"\nBrief:":10961,"▁reticul":10962,"▁Chronische":10963,"▁cyclische":10964,"▁meervoudige":10965,"▁HCV":10966,"▁est":10967,"▁gedilateerd,":10968,"▁doorgaan":10969,"▁nadel":10970,"aadpleeg":10971,"ression":10972,"▁cla":10973,"drukte":10974,"inden.":10975,"▁BR":10976,"▁Type":10977,"▁stimulus":10978,"▁EKG":10979,"▁ja,":10980,"▁geïnjecteerd":10981,"▁1,4":10982,"-invasieve":10983,"agul":10984,"▁hemoglobine":10985,"▁studies.":10986,"3H]":10987,"▁buikpijn":10988,"▁diss":10989,"▁-(()":10990,"plande":10991,"ropath":10992,"▁transgene":10993,"etrische":10994,"▁leek":10995,"opulmon":10996,"▁reproductie":10997,"▁heterogeniteit":10998,"▁coher":10999,"▁PCP":11000,"▁ontbreken":11001,"mur":11002,"▁septum":11003,"▁beschrijving":11004,"amen.":11005,"▁verbeteren,":11006,"▁Sal":11007,"▁Men":11008,"uiverde":11009,"▁financ":11010,"DEN":11011,"▁variaties":11012,"▁gewen":11013,"▁symptomen.":11014,"▁microscop":11015,"/2":11016,"▁but":11017,"▁januari":11018,"▁vanc":11019,"dynam":11020,"▁Medisch":11021,"▁VP":11022,"▁cystische":11023,"gebaseerde":11024,":00AM":11025,"ed.":11026,"▁pH-":11027,"▁hepatische":11028,"▁domeinen":11029,"omen,":11030,"▁MMM":11031,"▁Cursus":11032,"▁Intel":11033,"isel":11034,"werkt":11035,"beurtenis":11036,"▁omvatte":11037,"▁10%":11038,"▁klachten,":11039,"▁gesteld":11040,"▁kleiner":11041,"▁graag":11042,"fibrilleren":11043,"▁Q8":11044,"64":11045,"ria":11046,"wijze":11047,"beta":11048,"▁verklaring":11049,"▁voorbereid":11050,"annen":11051,"dist":11052,"▁zure":11053,"▁nicot":11054,"▁97":11055,"iciëntie.":11056,"▁49":11057,"▁longslagader":11058,"ateerd":11059,"▁bezit":11060,"▁Pers":11061,"wegingen":11062,"▁Concept":11063,"omisch":11064,"oos":11065,"ops":11066,"▁vertegenwoordigen.":11067,"▁bijgeluiden":11068,"klaring":11069,"▁W/O":11070,"▁47":11071,"▁well":11072,"-remmers":11073,"LV":11074,"tumor":11075,"▁complicatie":11076,"/pacemaker":11077,"▁mede":11078,"▁tim":11079,"▁Ster":11080,"▁Intellect":11081,"vattende":11082,"licht":11083,"▁EP":11084,"▁d.d.:\t[DATUM]":11085,".b.":11086,"TS":11087,"▁Huis":11088,"ish":11089,"▁antimicrobiële":11090,"▁symmetrisch":11091,"m2":11092,"back":11093,"▁blad":11094,"omgeving":11095,"loog":11096,"▁drupp":11097,"▁17.":11098,"▁zone":11099,"▁intens":11100,"▁urin":11101,"parenchym":11102,"lust":11103,"ocyten.":11104,"▁Family":11105,"▁neurop":11106,"x,":11107,"inname":11108,"ijfers":11109,"contin":11110,"ariteit":11111,"▁case":11112,"arr":11113,"▁vormen.":11114,"▁0,7":11115,"▁voorspellende":11116,"▁wervelkolom.":11117,"▁psychologische":11118,"BD":11119,"▁lactaat":11120,"▁98,":11121,"enten.":11122,"▁perman":11123,"▁hypertrofie":11124,"▁falen":11125,"Ox":11126,"▁ontlast":11127,"▁Veranderingen":11128,"▁jon":11129,"▁hilar":11130,"amb":11131,"schien":11132,"▁cytochroom":11133,"ition:":11134,"gankelijk":11135,"kanker.":11136,"vere":11137,"tisch":11138,"▁gevestig":11139,"▁Tri":11140,"FA":11141,"▁benz":11142,"▁geladen":11143,"fre":11144,"ural":11145,"▁anamnese":11146,"▁ICD/pacemaker":11147,"▁iso":11148,"▁klim":11149,"vinger":11150,"▁dram":11151,"cir":11152,"▁bèta":11153,"urend":11154,"icaal":11155,"▁(of":11156,"alfa-":11157,"/reveal":11158,"▁A,":11159,"▁beperking":11160,"passen":11161,"▁gevaar":11162,"▁ICD/pacemaker/reveal":11163,"▁hybride":11164,"▁punten":11165,"akte":11166,"ori":11167,"▁piepende":11168,"89":11169,"▁C,":11170,"▁verkalking":11171,"trek":11172,"▁glutathion":11173,"▁al.":11174,"▁uitsluitend":11175,"▁(###)":11176,"idiverende":11177,"▁jaarlijk":11178,"▁gemetastaseerde":11179,"-c-c-c-c":11180,"clip":11181,"▁parameter":11182,"▁stenos":11183,"▁inzichten":11184,"genaam":11185,"▁mach":11186,"▁verwijzing":11187,"on-":11188,"5),":11189,"hormoon":11190,"▁geluid":11191,"uigen":11192,"++":11193,"▁Nutrit":11194,"kanalen":11195,"▁media":11196,"zetten":11197,"▁gemodificeerde":11198,"▁bewij":11199,"stelling.":11200,"▁uitstre":11201,"ocriet":11202,"▁Fac":11203,"▁verwante":11204,"oxidase":11205,"▁geavanceerde":11206,"▁inhal":11207,"▁Et":11208,"transferase":11209,"oronair":11210,"▁moleculair":11211,"▁(IL":11212,"alerings":11213,"▁EB":11214,"▁Aanvullend":11215,"lodipine":11216,"derende":11217,"a-aorta-aort":11218,"▁zover":11219,"▁depressieve":11220,"▁EO":11221,"▁59":11222,"▁Coronair":11223,"chromatografie":11224,"▁OSH":11225,"▁53":11226,"▁Event":11227,"armoede":11228,"▁jarige":11229,"▁NEURO:":11230,"eizoen":11231,"▁omgekeerd":11232,"\",":11233,"▁mitochondriën":11234,"▁IU":11235,"▁acid":11236,"▁scheiding":11237,"▁0,9":11238,"▁NI":11239,"consultatie":11240,"idende":11241,"▁bijge":11242,"ibril":11243,"▁hydrox":11244,"▁bewak":11245,"-4,":11246,"-fase":11247,"ysm":11248,"▁I.":11249,"▁D.":11250,"-muizen":11251,"▁LM":11252,"▁cardiomy":11253,"▁omstandigheden.":11254,"▁Volgens":11255,"▁verloop":11256,"▁staart":11257,"sensus":11258,"other":11259,"▁speeksel":11260,"waarts":11261,"BB":11262,"▁cardiaal":11263,"▁(LV":11264,"▁volksgezondheid":11265,"▁warmte":11266,"sprogramma":11267,"groep.":11268,"▁Interessant":11269,"▁ak":11270,"▁gewijzig":11271,"▁decompensatio":11272,"rete":11273,"▁collap":11274,"herapie.":11275,"bic":11276,"▁63":11277,"▁contro":11278,"▁modulatie":11279,"▁#,##":11280,"▁neutrofielen":11281,"▁Lymf":11282,"▁waaruit":11283,"▁wacht":11284,"olys":11285,"▁cytotoxiciteit":11286,"▁nanopartic":11287,"▁oxidatie":11288,"▁duct":11289,"-fen":11290,"intensiteit":11291,"▁Uw":11292,"63":11293,"▁holte":11294,"enchym":11295,"▁diur":11296,"▁Creatinine":11297,"▁Chinese":11298,"sulfaat":11299,"artsen":11300,"▁69":11301,"-29":11302,"▁(van":11303,"▁SOB":11304,"▁gebruiken.":11305,"▁Ons":11306,"mmol/L":11307,"▁bestraling":11308,"riminatie":11309,"▁vinger":11310,"edisch":11311,"V,":11312,"▁nefro":11313,"host":11314,"▁L4":11315,"▁HR:":11316,"nee\n":11317,"▁inferior":11318,"▁config":11319,"oci":11320,"insufficiëntie":11321,"▁1%":11322,"osfaat":11323,"▁after":11324,"▁Prof":11325,"▁uitst":11326,"PCI":11327,"▁recombinant":11328,"▁twaalf":11329,"▁splitsing":11330,"ios":11331,"▁meta-":11332,"asix":11333,"▁MCV-8":11334,"ysiologisch":11335,"▁volum":11336,"risico":11337,"ript":11338,"▁gepubliceerde":11339,"▁NECK":11340,"▁zorgvul":11341,"▁(Cell":11342,"▁begrepen.":11343,"▁Gel":11344,"▁Ass":11345,"calc":11346,"offen.":11347,"liot":11348,"▁gladde":11349,"som":11350,"digd":11351,"-w":11352,"-index":11353,"alpha":11354,"▁dose":11355,"e)":11356,"VP":11357,"▁NY":11358,"▁resistent":11359,"uper":11360,"▁dissectie":11361,"▁autofag":11362,"▁67":11363,"sie,":11364,"▁corp":11365,"▁anderen":11366,"techniek":11367,"iekenhuis":11368,"▁POD":11369,"▁invasie":11370,"▁geraadpleeg":11371,"oyl":11372,"▁onvolle":11373,"▁replicatie":11374,"onolact":11375,"wintig":11376,"▁rechts.":11377,"▁(ver":11378,"▁apicale":11379,"-gehalte":11380,"onregelmatig":11381,"▁0.0":11382,"▁zieke":11383,"ense":11384,"▁enzymatische":11385,"nex":11386,"-17":11387,"▁fenomeen":11388,"schema":11389,"▁rapporten":11390,"▁aure":11391,"▁vrijwillig":11392,"▁bevatten.":11393,"▁Bloeddruk":11394,"ORM":11395,"▁bestuderen.":11396,"oxidatie":11397,"▁studie,":11398,"2),":11399,"kat":11400,"▁vertraging":11401,"▁-M":11402,"▁prikkel":11403,"▁zorg.":11404,"▁aanleiding":11405,"▁mg/dL,":11406,"▁adju":11407,"▁aanwezig,":11408,"ato":11409,"▁profiel":11410,"-ratten":11411,"YROM":11412,"-MB":11413,"▁cardioversie":11414,"iëtale":11415,"richts":11416,"-synthese":11417,"-time":11418,"opathische":11419,"▁placement":11420,"kern":11421,"▁onduidelijk.":11422,"linisch":11423,"\rC":11424,"dder":11425,"enis":11426,"▁koppeling":11427,"▁kernen":11428,"▁palpit":11429,"▁Univers":11430,"▁Wil":11431,"▁aspirine":11432,"▁CD8":11433,"▁aangezien":11434,"-23":11435,"▁perip":11436,"▁kinderen.":11437,"ibb":11438,"▁remissie":11439,"▁serot":11440,"▁ong":11441,"▁pil":11442,"▁waren,":11443,"▁feb":11444,"LEEFTIJD>":11445,"ME":11446,"▁onver":11447,"amentele":11448,"▁57":11449,"DP":11450,"▁Teleconsultatie":11451,"▁overige":11452,"liothe":11453,"▁blauw":11454,"▁leverde":11455,"▁voren":11456,"▁wereldwijd":11457,"▁getroffen":11458,"-geïnfecteerde":11459,"▁dag).":11460,"remm":11461,"posit":11462,"ush":11463,"(()":11464,"▁geleverd":11465,"ressure":11466,"▁traject":11467,"▁TECHNIQUE:":11468,"▁biliaire":11469,"▁2000":11470,"▁neoplasma":11471,"▁Bili":11472,"▁geplande":11473,"ialisme":11474,"laesies":11475,"▁sac":11476,"▁litteken":11477,"▁introductie":11478,"▁Bacter":11479,"▁fla":11480,"▁femor":11481,"▁fiet":11482,"orticale":11483,"▁hoogstwaarschijnlijk":11484,"otrof":11485,"▁verte":11486,"▁cas":11487,"ction:":11488,"▁introduc":11489,"▁PUL":11490,"▁Continue":11491,"▁Spir":11492,"▁samengesteld":11493,"opathie,":11494,"bronnen":11495,"▁overeenkomt":11496,"▁IH":11497,"inde":11498,"▁88":11499,"▁vrouwen.":11500,"ounds:":11501,"▁symptomatische":11502,"▁lamin":11503,"ded:":11504,"▁gerapporteerd":11505,"deren,":11506,"▁wetenschap":11507,"o-0.":11508,"||":11509,"▁suggereerden":11510,"▁moest":11511,"▁algoritme":11512,"▁typisch":11513,"▁Betreft":11514,"▁Ext:":11515,"▁examin":11516,"▁13,":11517,"l.":11518,"\rS":11519,"▁resulteren":11520,"▁compartim":11521,"▁2007":11522,"otrans":11523,"▁influenz":11524,"▁gegeven.":11525,"▁login,":11526,"▁Even":11527,"▁mn":11528,"▁latere":11529,"▁Clinical":11530,"aggreg":11531,"▁stem":11532,"stherapie":11533,"gester":11534,"in.":11535,"▁tijdstip":11536,"▁patiente":11537,"velop":11538,"▁interleukine":11539,"zenuw":11540,"▁inflamm":11541,"▁bestudeerden":11542,"▁C3":11543,"▁eigenschap":11544,"agnetische":11545,"▁H2":11546,"▁ureter":11547,"▁anastom":11548,"▁imaging":11549,"▁anicter":11550,"vig":11551,"▁immunoglob":11552,"▁disease":11553,"ocardiocardiocardiocardi":11554,"▁low":11555,"otrope":11556,"verbet":11557,"▁technische":11558,"▁bloedarmoede":11559,"-21":11560,"Samenvatting":11561,"PL":11562,"ellingen":11563,"▁ouderen":11564,"▁Gewicht":11565,"oorzicht":11566,"▁ongew":11567,"▁support":11568,"▁patch":11569,"▁longbasis":11570,"▁Natrium":11571,"▁risicoprofiel":11572,"▁rot":11573,"oïne":11574,"▁hi":11575,"otorische":11576,"▁Mut":11577,"elen.":11578,"▁Bal":11579,"▁inspanningen":11580,"▁fec":11581,"▁trombus":11582,"▁verdacht":11583,"▁Path":11584,"▁transformatie":11585,"▁RRR,":11586,"activatie":11587,"▁annu":11588,"ags":11589,"▁abnormaal":11590,"▁numer":11591,"huizen":11592,"▁Sulf":11593,"sal":11594,"▁geluiden":11595,"▁HLA-":11596,"-gevoel":11597,"▁werkings":11598,"▁hap":11599,"▁ascit":11600,"agentia":11601,"▁CAG:":11602,"c)":11603,"▁opgeroepen":11604,"▁Gast":11605,"A:":11606,"▁autor":11607,"▁constante":11608,"▁HDL":11609,"▁Cursus:":11610,"beoordeling":11611,"▁economische":11612,"rocyten":11613,"▁MB":11614,"alk":11615,"trium":11616,"▁20%":11617,"p,":11618,"jes.":11619,"▁as,":11620,"spectrum":11621,"▁mobiliteit":11622,"eeded:":11623,"ucceeded:":11624,"otisch":11625,"sequent":11626,"▁ile":11627,"pties:":11628,"▁osseeuze":11629,"▁sneller":11630,"-28":11631,"▁cyclus":11632,"delaar":11633,"▁marg":11634,"-el":11635,"▁korter":11636,"▁correlaties":11637,"ent,":11638,"al:":11639,"▁laesies.":11640,"▁-Opties:":11641,"▁bijwerken":11642,"▁alert":11643,"▁perio":11644,"apparaat":11645,"▁FFR":11646,"ethyleen":11647,"▁mij":11648,"▁cop":11649,"▁afgest":11650,"▁nanodeeltjes":11651,"▁vrijwel":11652,"▁onregelmatige":11653,"▁oplossingen":11654,"▁perme":11655,"▁access":11656,"serveerde":11657,"▁fundamentele":11658,"dent":11659,"▁Dat":11660,"▁accept":11661,"▁enorm":11662,"iraal":11663,"▁Leeftijd:":11664,"▁recombinante":11665,"▁minst":11666,"▁LUNG":11667,"uls":11668,"▁dieren.":11669,"nov":11670,"▁Peptide":11671,"▁intact,":11672,"itamine":11673,"▁System":11674,"-op":11675,"▁mL":11676,"▁Sur":11677,"▁[3H]":11678,"endens":11679,"▁ene":11680,"04":11681,"▁starten":11682,"ukary":11683,"▁bereiken.":11684,"▁76":11685,"idelijke":11686,"omie,":11687,"activiteit.":11688,"H-H-":11689,"amino":11690,"visie":11691,"▁terminale":11692,"▁membranen":11693,"▁analyse.":11694,"▁Laatste":11695,"▁afscheid":11696,"▁circulerende":11697,"▁serie":11698,"uitslag":11699,"▁eindigt":11700,"▁verschijnen":11701,"ake":11702,"▁paranasale":11703,"orrag":11704,"▁Intern":11705,"▁are":11706,"▁Chief":11707,"ctomy":11708,"▁varieerden":11709,"▁univers":11710,"nect":11711,"ziekte,":11712,"d:":11713,"veolaire":11714,"▁assemblage":11715,"ynaec":11716,"▁voorzien":11717,"▁zeggen":11718,"▁Ken":11719,"electieve":11720,"GT":11721,"▁praktische":11722,"ious":11723,"ving.":11724,"PCR":11725,"▁Geb":11726,"▁groeiende":11727,".000":11728,"-7.":11729,"hib":11730,"▁gesloten":11731,"potent":11732,"orese":11733,"▁mu":11734,"▁PF":11735,"ork":11736,"▁Genome":11737,"SE":11738,"▁agressieve":11739,"mate":11740,"▁histopath":11741,"▁interview":11742,"▁Condition:":11743,"▁steroïde":11744,"nat":11745,"▁conditie":11746,"▁Mentale":11747,"▁RDWSD-4":11748,"miteiten":11749,"▁Sm":11750,"▁sal":11751,"▁nod":11752,"▁opw":11753,"▁5-HT":11754,"▁cerebel":11755,"▁Zeer":11756,"▁opsp":11757,"▁peritoneale":11758,"▁novo":11759,"▁fibrose":11760,"▁2011":11761,"▁(g":11762,"▁\\b":11763,"aw":11764,"uken.":11765,"▁mutanten":11766,"▁levensduur":11767,"avond":11768,"▁pi":11769,"losure":11770,"▁DV":11771,"▁controleren.":11772,"▁vergrote":11773,"▁zaad":11774,"▁so":11775,"▁radiografie":11776,"▁comm":11777,"▁gestimuleerd":11778,"otiden":11779,"▁Calciumscore":11780,"▁dag,":11781,"-3,":11782,"▁t.":11783,"▁(50":11784,"▁geblok":11785,"onat":11786,"▁graf":11787,"▁Stabiele":11788,"▁leuc":11789,"▁geleidingst":11790,"ële":11791,"▁II,":11792,"▁transplantaat":11793,"▁62":11794,"▁geanalyseerd.":11795,"P:":11796,"▁aangenomen":11797,"mission:":11798,"▁Aorta":11799,"▁Stress":11800,"▁0,3":11801,"▁Respon":11802,"▁kb":11803,"spieren":11804,"▁zuigelingen":11805,"▁ondergaan.":11806,"▁doord":11807,"▁(IC":11808,"ied,":11809,"▁rebo":11810,"▁14,":11811,"▁symmetrische":11812,"▁aangebracht":11813,"▁kraakbeen":11814,"▁TO":11815,"▁Vanc":11816,"▁Pac":11817,"▁Ren":11818,"▁IR":11819,"▁conformatie":11820,"itheliale":11821,"▁ontwikkelingen":11822,"-22":11823,"▁bip":11824,"aatst":11825,"▁Succesvolle":11826,"▁details":11827,"▁gekozen":11828,"▁vierde":11829,"formeerde":11830,"▁versie":11831,"▁persoonlijke":11832,"▁geneesmiddelen.":11833,"▁Bovengenoemde":11834,"▁VAG":11835,"afdeling":11836,"▁Samenvatting,":11837,"angiografie":11838,"▁Zes":11839,"esse":11840,"uleren":11841,"▁conclusie":11842,"▁interpretatie":11843,"▁Antwoord:Samenvatting":11844,"Samenvatting,":11845,"▁Thema:Samenvatting,":11846,"plat":11847,"-based":11848,"ash":11849,"▁therapie.":11850,"col":11851,"▁biomarkers":11852,"oco":11853,"angen":11854,"neuro":11855,"▁epilep":11856,"▁a.":11857,"▁Coron":11858,"▁Bewustzijn":11859,"vezels":11860,"▁fosfatase":11861,"▁veroorzaakt.":11862,"va":11863,"▁sperma":11864,"ijfer":11865,"aties:":11866,"behoe":11867,"TH":11868,"▁anemie":11869,"▁metastase":11870,"\nToelichting":11871,"enen":11872,"ECG":11873,"▁prospectieve":11874,"strueerd":11875,"▁Blanco":11876,"▁massa-effect":11877,"▁Verleden":11878,"▁advis":11879,"▁naald":11880,"▁(+)":11881,"▁uiteindelijke":11882,"om,":11883,"▁preoperatieve":11884,"yrid":11885,"meting":11886,"kleur":11887,"▁infarct.":11888,"▁dominant":11889,"▁juni":11890,"▁adren":11891,"biot":11892,"▁Experim":11893,"kennen":11894,"▁cellijnen":11895,"▁ovarium":11896,"isp":11897,"81":11898,"▁delet":11899,"▁reumat":11900,"-is":11901,"▁Lang":11902,"▁pm":11903,"▁apex":11904,"▁verminderd.":11905,"▁18,":11906,"tense":11907,"▁apparaten":11908,"▁vene":11909,"sept":11910,"▁input":11911,"uspen":11912,"-II":11913,"▁primair":11914,"▁milligram.":11915,"slijden":11916,"▁longitudinale":11917,"▁gevraag":11918,"hang":11919,"▁overheer":11920,"▁gecorrige":11921,"▁complexiteit":11922,"▁chond":11923,"bevindingen":11924,"▁zwangerschaps":11925,"▁fosfaat":11926,"tomografie":11927,"AT,":11928,"radiol":11929,"▁1.0":11930,"▁AP)":11931,"▁overvloe":11932,"iftig":11933,"▁analyseerden":11934,"▁MG":11935,"▁ondersteund":11936,"▁Ged":11937,"▁elect":11938,"▁degeneratie":11939,"’s":11940,"▁(+":11941,"leur":11942,"▁horiz":11943,"a-a-a-a-":11944,"▁olie":11945,"ollings":11946,"▁echocardiogram":11947,"▁furosemide":11948,"▁Mit":11949,"▁eosin":11950,"▁Pa":11951,"▁bede":11952,"loof":11953,"▁gestuurd":11954,"▁celproliferatie":11955,"▁nummer":11956,"▁farmacokin":11957,"▁Therap":11958,"ynthetische":11959,"▁QTc":11960,"▁cm,":11961,"▁symptomen,":11962,"▁niet-line":11963,"▁kolom":11964,"▁scores":11965,"▁orig":11966,"MI,":11967,"▁QHS":11968,"▁VF":11969,"ille":11970,"▁inspannings":11971,"▁gezuiverde":11972,"LD":11973,"▁kritieke":11974,"▁ACT":11975,"▁Eerder":11976,"▁langetermijn":11977,"▁-Type":11978,"hydrogenase":11979,"▁vector":11980,"▁Signific":11981,"▁subt":11982,"▁ondersteunt":11983,"▁geoptim":11984,"atier":11985,"▁MIC":11986,"▁supp":11987,"splaats":11988,"▁tevens":11989,"▁netwerken":11990,"▁Rechts":11991,"hart":11992,"▁geadvis":11993,"▁Dist":11994,"▁lijnen":11995,"ITAL":11996,"vaccin":11997,"▁voert":11998,"▁(zo":11999,"▁ziekteverwe":12000,"▁Conditie":12001,"klinische":12002,"▁kaliber":12003,"/1":12004,"\rP":12005,"▁antioxidant":12006,"iseren":12007,"▁Na-1":12008,"▁conversie":12009,"amp;":12010,"▁Bo":12011,"▁datum":12012,"veisel":12013,"▁systeem.":12014,"▁effect.":12015,"ii":12016,"▁antistolling":12017,"▁FI":12018,"▁auditieve":12019,"imulatie":12020,"Hart":12021,"▁reform":12022,"▁lymfoom":12023,"▁ald":12024,"▁hydrofo":12025,"obil":12026,"▁betrouwbaar":12027,"verst":12028,"▁stijging":12029,"\nAl":12030,"olsel":12031,"▁setting":12032,"isc":12033,"function":12034,"▁Betreft:":12035,"▁geneesmiddelen:":12036,"amol":12037,"vet":12038,"▁alk":12039,"▁procedure.":12040,"roe":12041,"▁vide":12042,"bor":12043,"▁moder":12044,"▁demon":12045,"▁gezichten":12046,"osens":12047,"detectie":12048,"▁minuten.":12049,"etje":12050,"ieken.":12051,"▁U/L;":12052,"tender,":12053,"▁keel":12054,"▁(l":12055,"medicijnen":12056,"▁okt":12057,"▁betrouwbaarheidsinter":12058,"▁98%":12059,"▁Left":12060,"bes":12061,"ocortic":12062,"VALVAL":12063,"▁1,6":12064,"systeem.":12065,"akom":12066,"▁klepl":12067,"-m-m":12068,"wervelde":12069,"oeien":12070,"vaardigd":12071,"rank":12072,"▁IL-6":12073,"▁prepar":12074,"-cellen,":12075,"▁systematisch":12076,"populaties":12077,"▁period":12078,"▁substraten":12079,"▁erfelijke":12080,"▁intermitterende":12081,"▁BIL":12082,"▁DES":12083,"▁retinale":12084,"L-":12085,":15":12086,"ario":12087,"▁cirrose":12088,"▁ses":12089,"5\"":12090,"▁woon":12091,"ofol":12092,"▁Tach":12093,"leeftijd":12094,"neuronen":12095,"K,":12096,"▁katalys":12097,"▁ham":12098,"▁coderen":12099,"▁fung":12100,"▁kip":12101,"▁glutamaat":12102,"▁rechts,":12103,"▁telefonisch":12104,"dosis":12105,"▁put":12106,"idae":12107,"▁#,#":12108,"-domein":12109,"▁mor":12110,"▁pathogene":12111,"arynge":12112,"▁20,":12113,"▁MMP":12114,"▁incis":12115,"aseerd":12116,"▁bloedingen":12117,"vasculair":12118,"▁kristall":12119,"▁pomp":12120,"▁auton":12121,"▁hematopo":12122,"▁middels":12123,"erb":12124,"complexen":12125,"▁fout":12126,"▁inspanning.":12127,"era":12128,"▁schrijven":12129,"▁stralings":12130,"clus":12131,"▁Warm":12132,"▁Ros":12133,"▁bdz":12134,"▁(x)":12135,"▁tanden":12136,"tensine":12137,"-voudig":12138,"▁blok":12139,"▁ondoorzicht":12140,"▁Grote":12141,"I-":12142,"▁78":12143,"▁bewust":12144,"▁mg.":12145,"▁stopgezet":12146,"▁april":12147,"elden.":12148,"UM:":12149,"gorit":12150,"ophila":12151,"meth":12152,"▁toxische":12153,"▁aanb":12154,"▁schadelijke":12155,"▁CO2":12156,"▁persoonlijk":12157,"▁-Over":12158,"▁bloedcellen":12159,"▁Richt":12160,"▁ontvan":12161,"▁virul":12162,"iabetes":12163,"▁intestinale":12164,"ythm":12165,"▁demp":12166,"▁behouden.":12167,"EGF":12168,"ijns":12169,"koppelde":12170,"gevat":12171,"▁creatinine":12172,"\nDe":12173,"▁aorta-":12174,"▁induceerde":12175,"▁(gemiddelde":12176,"▁hypog":12177,"osyn":12178,"▁evidence":12179,"▁Q6H:PRN":12180,"▁cT":12181,"▁overeenkomen":12182,"lachten":12183,"deling.":12184,"▁besloten":12185,"stimulatie":12186,"-afgeleide":12187,"kingen.":12188,"▁medicamente":12189,"▁superior":12190,"▁LS":12191,"▁bèt":12192,"splaatsen":12193,"▁bur":12194,"▁versterking":12195,"▁ost":12196,"functie.":12197,"phone":12198,"▁mg,":12199,"plan:":12200,"▁visc":12201,"▁neurode":12202,"▁CK-MB":12203,"gekeur":12204,"▁Orale":12205,"fun":12206,"▁induceren":12207,"▁waarnemingen":12208,"▁[(Laatste":12209,"▁meis":12210,"m)":12211,"▁boezem":12212,"▁Eén":12213,"▁overvloed":12214,"▁misschien":12215,"CS":12216,"verschillen":12217,"▁navel":12218,"▁flav":12219,"▁Ambulatory":12220,"▁bood":12221,"▁(CD":12222,"▁uitkomsten":12223,"▁bili":12224,"alact":12225,"▁veroorzaken,":12226,"rubine":12227,"▁Syn":12228,"scriptie":12229,"▁sectie":12230,"ALY":12231,"▁overb":12232,":00PM":12233,"▁Data":12234,"▁eventueel":12235,"▁geworden":12236,"▁gebied.":12237,"houdt":12238,"▁radiotherapie":12239,"grad":12240,"▁lichaam.":12241,"▁15,":12242,"B1":12243,"▁spoor":12244,"▁verkalkingen":12245,"apopt":12246,"durend":12247,"offen,":12248,"▁Respiratory":12249,"▁ubi":12250,"py":12251,"▁opio":12252,"▁ontstaat":12253,"▁pijnst":12254,"ieet":12255,"itr":12256,"▁ingu":12257,"▁1,8":12258,"▁public":12259,"▁interactief.":12260,"-respons":12261,"▁miljoen":12262,"oxyl":12263,"▁Inc":12264,"▁cum":12265,"▁afbeelding":12266,"▁multid":12267,"▁monoklonale":12268,"▁bijdraagt":12269,"▁mas":12270,"▁kinetiek":12271,"▁Control":12272,"o-elekt":12273,"ina.":12274,"▁HO":12275,"▁dosisafhankelijke":12276,"▁Molecular":12277,"▁31.":12278,"▁verergering":12279,"▁K+":12280,"▁knobbel":12281,"plaatsing":12282,"▁pneumonie.":12283,"▁bewegingen":12284,"weefsels":12285,"▁LPS":12286,"ziekten,":12287,"▁IS":12288,"▁-U":12289,"▁RA.":12290,"▁gewoonlijk":12291,"▁microtub":12292,"▁afst":12293,"▁koper":12294,"heden,":12295,"ica,":12296,"▁vest":12297,"▁Contra":12298,"▁pren":12299,"▁slang":12300,"▁AA":12301,"sproble":12302,"▁Mar":12303,"▁vloeistoffen":12304,"▁follow":12305,"ocyten,":12306,"09":12307,"▁stenose.":12308,"▁twe":12309,"▁dagen,":12310,"▁simulatie":12311,"wijf":12312,"▁gemeten.":12313,"onnen":12314,"cellulair":12315,"▁opkomende":12316,"streren":12317,"aid":12318,"▁Longen":12319,"▁pad":12320,"▁Chirurgische":12321,"▁fasen":12322,"-top":12323,"avir":12324,"spreking":12325,"▁geconserveerde":12326,"▁cytoplasma":12327,"necrose":12328,"\nV":12329,"▁pols:":12330,"▁74":12331,"fet":12332,"▁evalueerden":12333,"MB":12334,"▁respiratoire":12335,"formul":12336,"▁femur":12337,"▁redenen":12338,"▁vereisen":12339,"▁adolescenten":12340,"monster":12341,"▁ontwerpen":12342,"▁adsorptie":12343,"▁(-)":12344,"-elekt":12345,"▁gemuteerde":12346,"▁TSH":12347,"oppervlakte":12348,"oproteïnen":12349,"▁Onderzoekdatum:\t[DATUM]":12350,"parameters":12351,"▁Heparin":12352,"Met":12353,"▁afhankelijkheid":12354,"▁amp":12355,"waardige":12356,"▁herziening":12357,"ieniveaus":12358,"▁spanning":12359,"golf":12360,"▁plannen":12361,"ikels":12362,"weer":12363,"acillus":12364,"astrische":12365,"▁transcriptiefactor":12366,"hout":12367,"▁Studies":12368,"▁kiem":12369,"HY":12370,"▁bilater":12371,"sniveau:":12372,"ymptomen":12373,"▁afwijkende":12374,"vascular":12375,"▁2006":12376,"nal":12377,"▁hex":12378,"▁graft":12379,"entriculaire":12380,"▁enquê":12381,"▁vena":12382,"▁0,001).":12383,"▁geïntroduceerd":12384,"▁patint":12385,"rh":12386,"unit":12387,"huismedicatie":12388,"-stam":12389,"▁respectievelijk.":12390,"Ab":12391,"▁86":12392,"▁warm,":12393,"▁seizoen":12394,"oekt":12395,"oncentr":12396,"▁Cho":12397,"▁sp.":12398,"▁(100":12399,"▁massaspectrometrie":12400,"tast":12401,"▁arte":12402,"▁georiën":12403,"dib":12404,"an,":12405,"▁pe":12406,"-of":12407,"▁Note":12408,"▁correct":12409,"▁Research":12410,"▁ga":12411,"▁replic":12412,"▁hierboven":12413,"▁spraak":12414,"▁bewezen":12415,"▁collaps":12416,"omorf":12417,"N.":12418,"▁2D":12419,"ventriculaire":12420,"▁(el":12421,"▁extub":12422,"▁coronale":12423,"▁langzame":12424,"▁cursus":12425,"abil":12426,"nee":12427,"▁bacterie":12428,"ember":12429,"▁elektrol":12430,"zyg":12431,"▁Ul":12432,"RP":12433,"▁paroxysm":12434,"▁hybridisatie":12435,"▁centimeter.":12436,"criteria":12437,"▁rook":12438,"▁Neemt":12439,"▁apothe":12440,"scores":12441,"amenstelling":12442,"▁yo":12443,"▁volgor":12444,"-ray":12445,"ylaxe":12446,"otomy":12447,"-cholesterol":12448,"▁5%":12449,"▁**]":12450,"ailure":12451,"▁absolute":12452,"▁back":12453,"▁Bewustzijnsniveau:":12454,"▁hematoma":12455,"▁(at":12456,"cule":12457,"/10":12458,"▁->":12459,"▁visueel":12460,"junct":12461,"O,":12462,"▁Abd:":12463,"STR":12464,"abdominale":12465,"link":12466,"▁classific":12467,"▁head":12468,"▁Start":12469,"▁manieren":12470,"▁Bre":12471,"▁karakteriseren":12472,"▁adaptieve":12473,"scill":12474,"▁consensus":12475,"▁gespeci":12476,"▁ana":12477,"mcg":12478,"/1.73":12479,"▁knobbeltjes":12480,"▁51":12481,"elz":12482,"▁preventieve":12483,"▁frequent":12484,"▁verontreinig":12485,"▁(k":12486,"5%)":12487,"▁hypertensieve":12488,"▁FA":12489,"▁weke":12490,"▁As":12491,"▁kindertijd":12492,"streeks":12493,"▁linkerboven":12494,"▁hemodynamische":12495,"▁lineair":12496,"protocol":12497,"▁laagste":12498,"▁nadelige":12499,"▁Moleculaire":12500,"08":12501,"▁risk":12502,"n.":12503,"▁cytoplasmatische":12504,"▁Kw":12505,"▁0,000":12506,"▁kinetische":12507,"▁differentie":12508,"\".":12509,"▁onth":12510,"▁lies":12511,"▁thyro":12512,"bolie":12513,"▁R.":12514,"schijnlijke":12515,"▁van:":12516,"opre":12517,"inet":12518,"59":12519,"50)":12520,"▁toe.":12521,"▁Helder":12522,"▁analytische":12523,"tingreactie":12524,"\nHart":12525,"▁verworven":12526,"ardiomyopathie":12527,"▁maternale":12528,"▁fasc":12529,"▁Result":12530,"▁dikte":12531,"miteiten:":12532,"-uur":12533,"▁Chem":12534,"▁afgeb":12535,"▁trim":12536,"▁functie)":12537,"moleculen":12538,"lay":12539,"ucleotide":12540,"lijft":12541,"▁activeert":12542,"▁HCC":12543,"▁ammon":12544,"stoestand":12545,"▁identiteit":12546,"▁Buik":12547,"▁Alzheimer":12548,"▁wijdverspre":12549,"▁mg/dl,":12550,"▁Europese":12551,"potentieel":12552,"▁uit.":12553,"staties":12554,"ofageale":12555,"▁overmatige":12556,"▁gestaakt":12557,"▁deels":12558,"roscopische":12559,"▁trad":12560,"oly":12561,"▁regime":12562,"▁vaccinatie":12563,"OSE":12564,"▁gisteren":12565,"▁voorheen":12566,"iqu":12567,"▁beïnvloeden,":12568,"▁Beoordeling:":12569,"▁Vitamine":12570,"V:":12571,"▁Goed":12572,"▁rehab":12573,"▁constipatie":12574,"▁steig":12575,"▁cysten":12576,"▁Echo:":12577,"gas":12578,"▁liet":12579,"auge":12580,"▁opvallend":12581,"▁syncop":12582,"orting":12583,"▁voorbeeld":12584,"valente":12585,"▁Medications:":12586,"unct":12587,"▁aantrek":12588,"▁CTAB":12589,"▁stimuleren":12590,"13.":12591,"▁National":12592,"activiteiten":12593,"▁Clear":12594,"▁Stre":12595,"▁2021":12596,"transm":12597,"▁telefoon":12598,"profielen":12599,"▁hartas,":12600,"kop":12601,"▁fyt":12602,"emde":12603,"TA":12604,"▁(N)":12605,"▁aorta.":12606,"▁activiteit,":12607,"▁vetzuren":12608,"▁pig":12609,"▁aandoeningen.":12610,"-signaal":12611,"▁Net":12612,"okokken":12613,"▁goedgekeur":12614,"oxis":12615,"ican":12616,"trop":12617,"▁tandheelkundige":12618,"olven":12619,"▁bevatten,":12620,"omegalie":12621,"▁bekken.":12622,"▁behoren":12623,"▁stamcel":12624,"▁voorschrif":12625,"ady":12626,"EK":12627,"▁eukary":12628,"▁regelen":12629,"ochemische":12630,"▁proton":12631,"▁verle":12632,"▁vergele":12633,"microscop":12634,"\nRR":12635,"▁[(**":12636,"pathische":12637,"opte":12638,"▁Anders":12639,"▁loopt":12640,"▁2dd":12641,")]":12642,"▁poly(":12643,"▁commerciële":12644,"▁(PC":12645,"olic":12646,"▁VAD":12647,"▁Lymph":12648,"ibele":12649,"▁antigenen":12650,"▁verzoek":12651,"anal":12652,"▁doen.":12653,"▁UN":12654,"adigma":12655,"HHHH":12656,"lopen":12657,"-blok":12658,"▁wandonregelmatig":12659,"▁antib":12660,"beheer":12661,"▁geweest.":12662,"▁slagaders":12663,"▁Abn":12664,"receptoren":12665,"▁React":12666,"▁caud":12667,"▁endocard":12668,"▁naarmate":12669,"▁aanbevolen.":12670,"▁moeite":12671,"ellow":12672,"▁hoest,":12673,"▁Pulm:":12674,"ëin":12675,"VERKLARING":12676,"▁Nog":12677,"▁Gec":12678,"bekend":12679,"bumin":12680,"▁asymmetrische":12681,"▁16,":12682,"▁mRNA-":12683,"verdi":12684,"▁aantallen":12685,"modellering":12686,"ectatief":12687,"▁uitlijn":12688,"▁uniek":12689,"▁biosynthese":12690,"▁lumen":12691,"routes":12692,"▁kunstmatige":12693,"cyst":12694,"▁zichtbare":12695,"▁spoel":12696,"▁mogelijk.":12697,"ern":12698,"▁[ID]":12699,"▁prednison":12700,"geerde":12701,"▁diafrag":12702,"▁zoeken":12703,"▁Myc":12704,"schal":12705,"ikelfunctie":12706,"▁SL":12707,"secretie":12708,"▁anterieure":12709,"▁nul":12710,"jes,":12711,"gelegd":12712,"▁optimaal":12713,"ellen.":12714,"▁Elke":12715,"▁(V)":12716,"plante":12717,"eerbaarheid":12718,"▁nemen.":12719,"beeldvorming":12720,"▁resultaten.":12721,"▁evolutionaire":12722,"▁cardiopulmon":12723,"ering,":12724,"▁klonen":12725,"▁plaats.":12726,"▁ind":12727,"▁ademgeruis":12728,"aper":12729,"▁Fib":12730,"▁gesproken":12731,"loe":12732,"bot":12733,"▁gemaakt.":12734,"insufficientie":12735,"▁Pseud":12736,"▁extract":12737,"▁overlevings":12738,"▁geïnfecteerd":12739,"▁linkerkant":12740,"▁plaveisel":12741,"ike":12742,"▁comput":12743,"Phos":12744,"▁Verwervings":12745,"▁Foley":12746,"▁projectie":12747,"▁stierf":12748,"ica.":12749,"▁niet-specifieke":12750,"▁kwaadaardig":12751,"▁emissie":12752,"ositol":12753,"ivirale":12754,"▁VAP":12755,"▁Social":12756,"ructure":12757,"o:":12758,"▁atelectase.":12759,"▁Known":12760,"▁geboren":12761,"(4)":12762,"apping":12763,"0%)":12764,"▁geïntubeerd":12765,"▁3'":12766,"▁octrooi":12767,"fosfory":12768,"▁Vas":12769,"▁subcutane":12770,"apent":12771,"▁hydrolyse":12772,"ISS":12773,"zak":12774,"erine":12775,"▁nakom":12776,"▁epit":12777,"▁achterste":12778,"▁overlijden":12779,"▁oriëntatie":12780,"▁suggereerde":12781,"▁necrose":12782,"▁moeders":12783,"▁GI:":12784,"▁4,5":12785,"▁cry":12786,"vic":12787,"(-)":12788,"▁General":12789,"otoxiciteit":12790,"▁trach":12791,"▁GU:":12792,"CVA":12793,"▁passende":12794,"▁verslechtering":12795,"▁-((()":12796,"▁(2,":12797,"▁aderen":12798,"▁maakte":12799,"hemat":12800,"▁zoutoplossing":12801,"\tmmol/L":12802,"▁verniet":12803,"▁splen":12804,"▁neutrale":12805,"/E":12806,"▁atherosclerose":12807,"VI":12808,"▁BC":12809,"technieken":12810,"V-":12811,"heers":12812,"91":12813,"keten":12814,"▁(AC":12815,"▁-Succeeded:":12816,"▁gehe":12817,"▁BMI":12818,"▁Ritme":12819,"▁geïmp":12820,"▁genaam":12821,"\nConclusie:":12822,"▁bevre":12823,"proble":12824,"▁Val":12825,"▁fractuur":12826,"voet":12827,"obstructie":12828,"▁73":12829,"▁([ZIEKENHUIS":12830,"▁luchtcellen":12831,":Controle":12832,"▁Lasix":12833,"▁tong":12834,"▁(al":12835,"orderline":12836,"▁dyspneu":12837,"ductase":12838,"▁PN":12839,"ijft":12840,"▁term":12841,"▁geclass":12842,"derivaten":12843,"bacter":12844,"problemen":12845,"▁vaginale":12846,"▁zwangere":12847,"pg":12848,"EST":12849,"▁bevindingen.":12850,"▁2,4":12851,"▁soft,":12852,"▁akk":12853,"▁hersteld":12854,"ifen":12855,"▁SW":12856,"▁Atrium":12857,"▁Different":12858,"Doctor":12859,"hans":12860,"▁ongecomplic":12861,"▁statine":12862,"▁HIV-1":12863,"▁oscill":12864,"▁tabak":12865,"dings":12866,"rex":12867,"▁adenocarcinoom":12868,"inding)":12869,"▁Uitgebre":12870,"▁J.":12871,"afname":12872,"ended,":12873,"roei":12874,"▁tun":12875,"leving":12876,"▁juli":12877,"▁Vand":12878,"schappen,":12879,"uiding":12880,"temin":12881,"▁apoptotische":12882,"▁somatische":12883,"foto's":12884,"/3":12885,"ograph":12886,"▁06":12887,"▁hartfrequentie":12888,"▁PICC":12889,"ronch":12890,"amen:":12891,"dubb":12892,"FP":12893,"ium,":12894,"▁morfine":12895,"▁driedimensionale":12896,"leet":12897,"▁seksueel":12898,"▁toenemen":12899,"▁aanvaard":12900,"▁rechtstreeks":12901,"▁vacu":12902,"dicap":12903,"▁N.":12904,"▁Head":12905,"▁eiwitten.":12906,"▁SB":12907,"▁behandeld.":12908,"▁ochtend":12909,"▁geven.":12910,"▁natuurlijk":12911,"▁hechting":12912,"62":12913,"▁pres":12914,"▁durende":12915,"▁Admission:":12916,"▁myeloïde":12917,"▁bovenstaande":12918,"▁()))":12919,"-tri":12920,"▁verhogingen":12921,"▁accessoire":12922,"-3-":12923,"icum":12924,"(II)":12925,"▁spannings":12926,"ocytaire":12927,"don":12928,"▁vragenlijst":12929,"▁postoperatief":12930,"▁proberen":12931,"ette":12932,"▁1-":12933,"▁technologie":12934,"remmende":12935,"▁Furosemide":12936,"▁Da":12937,"▁micro-organis":12938,"vingen":12939,"▁bestudeerde":12940,"umatische":12941,"▁ie":12942,"▁Multip":12943,"▁MEDICAL":12944,"ruit":12945,"4\"":12946,"pas":12947,"-toe":12948,"▁bezig":12949,"▁discussie":12950,"umadin":12951,"familie":12952,"ationaire":12953,"▁1,7":12954,"isciplinaire":12955,"helft":12956,"▁revalidatie":12957,"ocyst":12958,"▁Facility":12959,"▁prostaatkanker":12960,"▁identiek":12961,"▁eiwitten,":12962,"strategie":12963,"▁ventrikels":12964,"▁40mg":12965,"S2":12966,"▁midline":12967,"belast":12968,"▁aangetast":12969,"▁sterf":12970,"▁parac":12971,"▁COP":12972,"smiddelen":12973,"▁indirecte":12974,"▁stabiel,":12975,"▁modell":12976,"-injectie":12977,"gebeurtenis":12978,"analyse.":12979,"stil":12980,"▁Mel":12981,"-state":12982,"▁doorgemaak":12983,"duit":12984,"-2)":12985,"▁bereikte":12986,"mass":12987,"▁intraper":12988,"▁Ja":12989,"iak":12990,"▁Asc":12991,"ocel":12992,"▁distaal":12993,"image":12994,"▁neo":12995,"▁homogene":12996,"▁cocaïne":12997,"▁toestemming":12998,"▁myocardiale":12999,"amycine":13000,"▁77":13001,"▁Lever":13002,"mogelijk":13003,"▁blast":13004,"▁(i)":13005,"yclische":13006,"▁reflex":13007,"▁CVD":13008,"▁SA":13009,"▁bedra":13010,"▁verandert":13011,"▁PNA":13012,"3;":13013,"▁samenwerking":13014,"▁99%":13015,"▁anter":13016,"leten":13017,"▁erytheem":13018,"▁weefsels.":13019,"▁gevallen.":13020,"afe":13021,"▁geslachten":13022,"oston":13023,"▁schema":13024,"▁geklo":13025,"nings":13026,"▁rebound":13027,"▁premat":13028,"▁stern":13029,"▁ongewijzigd.":13030,"organisatie":13031,"▁gewrichts":13032,"▁ubiquit":13033,"▁Soft":13034,"chrom":13035,"uurde":13036,"▁tolerantie":13037,"osc":13038,"ion.":13039,"EGEGEGEGEGEGEGEG":13040,"isatie.":13041,"acyl":13042,"▁muizen,":13043,"▁niveau.":13044,"onucleaire":13045,"AT)":13046,"▁zelfm":13047,"agland":13048,"port":13049,"▁Skin:":13050,"▁daal":13051,"▁schoon":13052,"▁ju":13053,"iders":13054,"gemak":13055,"#)":13056,"assemblage":13057,"MO":13058,"▁TotB":13059,"ageert":13060,"▁scherp":13061,"vervanging":13062,"▁Gram":13063,"▁minuut":13064,"ature":13065,"▁84":13066,"▁gedra":13067,"-K":13068,"▁25%":13069,"▁vrijk":13070,"▁verdragen.":13071,"▁verzameling":13072,"▁linkernier":13073,"flu":13074,"array":13075,"▁belemm":13076,"▁epidermale":13077,"x:":13078,"-glyc":13079,"ducerende":13080,"▁waarom":13081,"▁stabilis":13082,"▁tox":13083,"-to-":13084,"-60":13085,"▁gedetecteerd.":13086,"▁Do":13087,"▁binnenste":13088,"gereg":13089,"erum":13090,"BTB":13091,"▁vlucht":13092,"ston":13093,"gesteron":13094,"▁Identific":13095,"▁real-time":13096,"▁NSTE":13097,"profiel":13098,"▁kleuring":13099,"ministr":13100,"▁verlagen":13101,"▁cerebellaire":13102,"▁–":13103,"MT":13104,"osomaal":13105,"odon":13106,"C'":13107,"▁Pen":13108,"▁18.":13109,"▁rijk":13110,"▁man,":13111,"SF":13112,"▁remmen.":13113,"G,":13114,"oename":13115,"ortable":13116,"omplic":13117,"zige":13118,"ion,":13119,"benadering":13120,"ferische":13121,"▁nationale":13122,"▁verklaren.":13123,"▁B-cel":13124,"voegen":13125,"▁bekijken":13126,"▁besteed":13127,"monoxide":13128,"ca":13129,"▁bereikt.":13130,"▁fo":13131,"▁foley":13132,"OLO":13133,"ete":13134,"onzuur":13135,"stream":13136,"▁lateraal":13137,"▁infectie,":13138,"▁μmol/L":13139,"▁express":13140,"-code":13141,"▁axillaire":13142,"82":13143,"▁bundel":13144,"▁Zorg":13145,"3).":13146,"ropn":13147,"▁vergemakkelijken.":13148,"▁gekarakteriseerd":13149,"▁3.0":13150,"send":13151,"h.":13152,"▁holter":13153,"▁hemodi":13154,"▁kritisch":13155,"zing.":13156,"▁ervan.":13157,"▁fibrill":13158,"speriode":13159,"▁dwars":13160,"▁fraction":13161,"▁verhinder":13162,"▁MI.":13163,"▁<LEEFTIJD>":13164,"hyla":13165,"werkings":13166,"uccin":13167,"iatief":13168,"▁bevatte":13169,"▁rijping":13170,"patiën":13171,"▁samengestelde":13172,"-gew":13173,"ssen":13174,"▁groene":13175,"eeeeeeee":13176,"▁SE":13177,"▁normal":13178,"▁Cyt":13179,"▁polys":13180,"▁oes":13181,"▁spermat":13182,"▁behoeften":13183,"▁lijden":13184,"▁gegevens.":13185,"▁getra":13186,"▁Ax":13187,"UD":13188,"▁CCU":13189,"▁LP":13190,"acry":13191,"▁capillaire":13192,"ucleaire":13193,"▁fila":13194,"▁aantekeningen":13195,"gkin":13196,"lapp":13197,"frag":13198,"▁veranderen.":13199,"▁tol":13200,"▁gestandaard":13201,"▁baseline":13202,"aarde":13203,"▁Kin":13204,"▁gradiënt":13205,"▁sputum":13206,"isende":13207,"▁Eerste":13208,"▁lot":13209,"ymp":13210,"ofarynx":13211,"▁rectum":13212,"▁ondoorzichtigheid":13213,"ogroep":13214,"▁activity":13215,"INDINGEN:":13216,"▁2005":13217,"▁AlkPhos":13218,"teit":13219,"▁herkenning":13220,"▁LVF":13221,"▁hx":13222,"▁D1":13223,"▁erger":13224,"▁lozing":13225,"ismen":13226,"flutter":13227,"▁buik,":13228,"AY":13229,"▁bekkens":13230,"beerd":13231,"▁immunore":13232,"▁ondersteunen.":13233,"▁familiele":13234,"▁assays":13235,"dium":13236,"m,":13237,"ide.":13238,"▁wh":13239,"resistentie":13240,"▁hydrofobe":13241,"▁(cm):":13242,"▁multi-":13243,"es:":13244,"▁instantie":13245,"▁[datum":13246,"▁meten.":13247,"▁aureus":13248,"▁osm":13249,"antia":13250,"ASON":13251,"valuatie":13252,"iteren":13253,"ostomy":13254,"▁atri":13255,"▁sport":13256,"/B":13257,"▁uitput":13258,"▁verpak":13259,"▁Chest":13260,"▁geïdentificeerde":13261,"ikken":13262,"▁recon":13263,"▁diensten":13264,"▁retrospectieve":13265,"▁-F":13266,"TEIT":13267,"aceae":13268,"▁huiduitslag":13269,"▁Risicofactoren":13270,"slagen.":13271,"▁weder":13272,"▁geïm":13273,"ront":13274,"▁fenotypische":13275,"▁bloedverlies":13276,"▁orb":13277,"lykemie":13278,"▁grof":13279,"▁klier":13280,"▁Opt":13281,"▁Deel":13282,"▁effusies":13283,"▁acties":13284,"ontwerp":13285,"▁seconden":13286,"▁verschilt":13287,"▁decennia":13288,"▁/min":13289,"▁sequent":13290,"BAT":13291,"▁Function)":13292,"▁onbehandelde":13293,"▁carotis":13294,"emmers":13295,"▁pijnlijke":13296,"rijf":13297,"geleid":13298,"▁luc":13299,"▁Pijn":13300,"▁beroer":13301,"▁herinn":13302,"▁foll":13303,"▁ml/m":13304,"▁bloedt":13305,"▁differentieel":13306,"asal":13307,"enario":13308,"▁C4":13309,"▁pool":13310,"▁GLUC":13311,"▁gehad,":13312,"VAD,":13313,"▁94":13314,"orbide":13315,"▁Western":13316,"▁tet":13317,"9/":13318,"▁Noord":13319,"▁dox":13320,"▁gedacht":13321,"▁welzijn":13322,"gent":13323,"▁artefact":13324,"omere":13325,"▁betre":13326,"▁Parkinson":13327,"SD-":13328,"▁ontdekt":13329,"▁sedatie":13330,"▁chloor":13331,"▁Perif":13332,"genitale":13333,"▁HPV":13334,"functies":13335,"▁handel":13336,"▁kation":13337,"▁Opname":13338,"▁herschik":13339,"▁verkl":13340,"<PERSOON>":13341,"▁EFO":13342,"dtronic":13343,"▁fun":13344,"▁simulaties":13345,"▁opgenomen.":13346,"ig,":13347,"omyel":13348,"ylenol":13349,"▁opbrengst":13350,"▁gevorderde":13351,"▁Det":13352,"natale":13353,"erobe":13354,"ëro":13355,"mus":13356,"achter":13357,"▁volgen.":13358,"▁caspase":13359,"▁A&":13360,"▁op,":13361,"▁Bio":13362,"hyreoïdie":13363,"▁(CK":13364,"▁ventrale":13365,"ANC":13366,"famil":13367,"▁ped":13368,"▁view":13369,"▁(geen":13370,"erieur":13371,"▁verhoogd,":13372,"verh":13373,"▁gekwant":13374,"J,":13375,"▁CHest":13376,"▁auto":13377,"450":13378,"RR":13379,"isering":13380,"▁Thema:VAD,":13381,"▁antitumor":13382,"▁≥":13383,"▁levering":13384,"▁verbeteringen":13385,"▁transfer":13386,"▁genotype":13387,"neem":13388,"N-":13389,"▁kanalen":13390,"▁grijze":13391,"▁Staten":13392,"▁onderdrukte":13393,"omgev":13394,"idazol":13395,"on:":13396,"ius":13397,"osept":13398,"▁Leuk":13399,"monella":13400,"▁silhouet":13401,"▁insp/min":13402,"▁micron":13403,"57":13404,"▁niet-invasieve":13405,"ometer":13406,"▁bemiddel":13407,"▁aus":13408,"ocation":13409,"3\"":13410,"▁colorectale":13411,"▁Verpleeg":13412,"relatie":13413,"dient":13414,"4;":13415,"ovende":13416,"▁Beleid":13417,"▁ronde":13418,"diening":13419,"▁Hierin":13420,"▁In:":13421,"▁Full":13422,"▁manier.":13423,"▁Q12":13424,"kering":13425,"ieën.":13426,"▁corpus":13427,"▁overleden":13428,"erbare":13429,"\rN":13430,"▁resultaten:":13431,"▁riv":13432,"▁Mn":13433,"▁Vitale":13434,"▁draagt":13435,"▁conservatief":13436,"▁Bilaterale":13437,"etine":13438,"▁veroudering":13439,"▁NYHA":13440,"▁PER":13441,"afspraak":13442,"types":13443,"▁gesim":13444,"▁eventuele":13445,"▁Conditie:":13446,"▁cor:":13447,"▁Admit":13448,"jab":13449,"▁biofil":13450,"apine":13451,"▁(tot":13452,"▁US":13453,"▁overleven":13454,"▁arbe":13455,"▁().":13456,"asische":13457,"▁xen":13458,"▁gewone":13459,"ozo":13460,"enchymale":13461,"avel":13462,"▁Pantoprazol":13463,"onderd":13464,"▁immunode":13465,"romus":13466,"▁nl":13467,"▁Ongeveer":13468,"ascade":13469,"emaal":13470,"▁Medicijnen":13471,"▁kankercellen":13472,"fibril":13473,"▁Gest":13474,"kunde":13475,"▁uitdrukken":13476,"-AL-AL-AL-AL":13477,"ters":13478,"-X":13479,"ociatie":13480,"▁diagnostic":13481,"ablokker":13482,"polaris":13483,"ibiliteit":13484,"▁vetzuur":13485,"▁schattingen":13486,"iac":13487,"ingsin":13488,"meel":13489,"5;":13490,"iseerd.":13491,"▁epigen":13492,"▁CARDI":13493,"▁lichaam,":13494,"▁compens":13495,"▁agonist":13496,"lymf":13497,"▁voldoen":13498,"▁verwaar":13499,"componenten":13500,"6;":13501,"▁mucosale":13502,"▁(E.C.)":13503,"▁T-lymf":13504,"▁1,1":13505,"▁Sounds:":13506,"▁geïdentificeerd,":13507,"▁ejectiefractie":13508,"▁schak":13509,"▁antine":13510,"▁zwakte":13511,"b)":13512,"oloog,":13513,"oes":13514,"▁geautomat":13515,"▁verzamelen":13516,"▁fab":13517,"xt":13518,"4).":13519,"▁centrum":13520,"▁immuunrespons":13521,"structies:":13522,"angschik":13523,"▁item":13524,"▁rapporteerden":13525,"organ":13526,"spectra":13527,"zwollen":13528,"▁gevraagd":13529,"▁karakteristieke":13530,"▁weergegeven":13531,"ransport":13532,"▁pup":13533,"ylact":13534,"armen":13535,"digende":13536,"▁\u0007\r\u0007":13537,"-oedeem":13538,"spercentages":13539,"▁Stap":13540,"-ep":13541,"▁diagnose:":13542,"Geslacht:":13543,"▁translocatie":13544,"▁pro-inflammatoire":13545,"apro":13546,"▁onthult":13547,"▁strept":13548,"▁verminderen,":13549,"▁bedre":13550,"▁lever.":13551,"APT":13552,"▁FYROM":13553,"▁achteruitgang":13554,"PT":13555,"bindende":13556,"▁syndro":13557,"beschadiging":13558,"▁Hoge":13559,"aders":13560,"▁volgorde":13561,"58":13562,"-β":13563,"iste":13564,"▁zoogdieren":13565,"▁restri":13566,"▁residu":13567,"cursor":13568,"uma":13569,"▁multiple":13570,"▁fouten":13571,"▁corticoster":13572,"-enzym":13573,"aan,":13574,"naag":13575,"▁excit":13576,"▁Rechter":13577,"▁61":13578,"imus":13579,"▁protocol.":13580,"vatslijden":13581,"▁kwalitatieve":13582,"▁gelabeld":13583,"▁Peptide,":13584,"▁aandeel":13585,"▁tekst":13586,"▁misbruik":13587,"▁diure":13588,"▁verwijding":13589,"▁TabletPO":13590,"▁VES":13591,"depen":13592,"▁Init":13593,"groepen.":13594,"▁ic":13595,"▁reactiviteit":13596,"volumes":13597,"▁Normal":13598,"▁97%":13599,"▁gelijkenis":13600,"iprof":13601,"▁Onverander":13602,"-mutatie":13603,"▁fag":13604,"▁nachts":13605,"▁suiker":13606,"▁immuunsysteem":13607,"▁sar":13608,"▁pa":13609,"▁aanmerking":13610,"▁(Sp":13611,"▁galblaas":13612,"▁zegt":13613,"▁GABA":13614,"-8,":13615,"▁vergelijkende":13616,"DD":13617,"ofyl":13618,"▁Rel":13619,"stuk":13620,"aterialen":13621,"GG":13622,"ad)":13623,"hydr":13624,"iveau":13625,"vleesklier":13626,"heet":13627,"▁eerstel":13628,"vert":13629,"▁79":13630,"▁taken":13631,"▁ascites":13632,"▁buitenste":13633,"angio":13634,"▁idi":13635,"▁instabiliteit":13636,"▁(dw":13637,"▁para":13638,"▁mislu":13639,"▁BLE":13640,"erve":13641,"epro":13642,"witch":13643,"differentiatie":13644,"▁produceert":13645,"▁brengen.":13646,"regio":13647,"▁veilige":13648,"▁tom":13649,"red":13650,"derdaad":13651,"▁molecuulgewicht":13652,"\rB":13653,"▁shunt":13654,"▁kwantitatief":13655,"abiel":13656,"+,":13657,"▁SKIN":13658,"▁tevreden":13659,"lasie":13660,"-CoV":13661,"▁blaasjes":13662,"stance":13663,"▁Echocardiogram":13664,"▁liganden":13665,"▁bovengenoemde":13666,"beleid":13667,"61":13668,"▁lading":13669,"▁slan":13670,"ium.":13671,"sief":13672,"▁170":13673,"▁(J":13674,"▁Perr":13675,"jpg":13676,"embry":13677,"▁defecten":13678,"▁presenteerde":13679,"▁sequencing":13680,"▁fibroblast":13681,"▁steroïden":13682,"oma.":13683,"▁NV":13684,"-frag":13685,"▁niet-co":13686,"▁dendritische":13687,"vuld":13688,"▁gr":13689,"amethason":13690,"ings-":13691,"ongenitale":13692,"ransplant":13693,"▁heterozyg":13694,"▁immunosuppressie":13695,"elen,":13696,"O-":13697,"won":13698,"▁verklaren":13699,"inefrine":13700,"aneur":13701,"▁sluiten":13702,"▁scintig":13703,"weken":13704,"ioc":13705,"▁paren":13706,"▁I,":13707,"voorsp":13708,"▁Waarschijnlijk":13709,"ebri":13710,"▁(**21":13711,"delinge":13712,"▁vlees":13713,"mie,":13714,"▁geper":13715,"ozyg":13716,"▁erytrocyten":13717,"▁verhoud":13718,"hydraat":13719,"3%)":13720,"bev":13721,"▁Sten":13722,"▁Special":13723,"▁71":13724,"iatie.":13725,"▁PCR-":13726,"▁Cell":13727,"▁zoogdier":13728,"▁perspectief":13729,"uim":13730,"▁obstructieve":13731,"▁plaqu":13732,"▁alcoholgebruik":13733,"stelling,":13734,"\nDatum":13735,"▁clusters":13736,"amen,":13737,"▁endotheelcellen":13738,"▁basislijn":13739,"▁reactie:":13740,"praktijk":13741,"se:":13742,"▁somat":13743,"▁Gra":13744,"ectine":13745,"▁kran":13746,"icyl":13747,"▁geadviseerd":13748,"▁voorbehandeling":13749,"▁gepubliceerd":13750,"▁Alleen":13751,"lester":13752,"eren/":13753,"▁800":13754,"▁GS":13755,"▁activeren":13756,"▁Tmax":13757,"▁epilept":13758,"▁voorbeelden":13759,"▁reguleren.":13760,"▁gedilateerd.":13761,"▁groeien":13762,"/K":13763,"▁gynaec":13764,"/l;":13765,"ikettering":13766,"ofib":13767,"▁asymptomatisch":13768,"▁Extended":13769,"▁tro":13770,"▁0,001)":13771,"▁geclassificeerd":13772,"-9.":13773,"▁merk":13774,"UB":13775,"bevel":13776,"▁pt.":13777,"atibel":13778,"▁braken":13779,"yster":13780,"ïs":13781,"passing":13782,"GA":13783,"▁[datum]":13784,"ained":13785,"verschuiv":13786,"-positie":13787,"(-":13788,"▁gevalideerd":13789,"▁pent":13790,"▁Prop":13791,"▁buik.":13792,"▁wetenschappelijk":13793,"ierd":13794,"▁nitro":13795,"▁fixatie":13796,"racheale":13797,"sh":13798,"▁temperaturen":13799,"▁HY":13800,"ization":13801,"-40":13802,"-cardiale":13803,"beperking":13804,"ocoumar":13805,"▁darm.":13806,"▁vroegtijdige":13807,"ificeerde":13808,"▁2,3":13809,"idop":13810,"cellige":13811,"r,":13812,"▁voorlopige":13813,"▁Sen":13814,"▁darmgeluiden":13815,"stadium":13816,"▁isot":13817,"▁vatbaar":13818,"diale":13819,"▁snelheids":13820,"▁recidiverende":13821,"▁hiervoor":13822,"▁Scler":13823,"54":13824,"beoor":13825,"-waarden":13826,"▁selectiviteit":13827,"▁Follow":13828,"aem":13829,"umber":13830,"▁PEEP":13831,"▁betrouwbaarheidsinterval":13832,"▁geleidings":13833,"▁dimensies":13834,"tr:":13835,"▁Action:":13836,"/-)":13837,"result":13838,"-VERKLARING":13839,"▁beheersen":13840,"▁hersenen.":13841,"▁chromatine":13842,"▁proxim":13843,"▁verwijd":13844,"kkage":13845,"▁4)":13846,"ationeel":13847,"▁RT":13848,"▁patients":13849,"▁pariëtale":13850,"▁sites":13851,"▁epid":13852,"-tumor":13853,"▁cutane":13854,"▁cann":13855,"▁spir":13856,"▁definiëren":13857,"▁eerder.":13858,"-bèta":13859,"▁fistel":13860,"▁schapen":13861,"-flutter":13862,"▁rugpijn":13863,"8;":13864,"▁(elke":13865,"▁gebruiken,":13866,"▁geraadpleegd":13867,"▁ritme:":13868,"▁Ct":13869,"▁benauw":13870,"6\"":13871,"handelplan:":13872,"▁zwarte":13873,"▁Disposition":13874,"▁(dwz":13875,"▁oppervlakken":13876,"▁fylogenetische":13877,"▁dilatatie.":13878,"technologie":13879,"▁digitale":13880,"▁postnatale":13881,"▁Ureum":13882,"bewegingen":13883,"▁routinematige":13884,"▁evaluatie.":13885,"-par":13886,"▁Hydro":13887,"▁gelabelde":13888,"▁pacing":13889,"▁membra":13890,"▁Zelf":13891,"-micro":13892,"blaas":13893,"▁voorkomen,":13894,"▁(zoals":13895,"ënt":13896,"▁staken":13897,"▁veelbelovend":13898,"▁(Me":13899,"▁REASON":13900,"▁lymfadenopathie":13901,"chirurgie":13902,"-gegevens":13903,"▁produceren.":13904,"▁gerecon":13905,"▁hab":13906,"▁eiland":13907,"▁verwant":13908,"gevende":13909,"=0,":13910,"absorptie":13911,"▁geïncub":13912,"stammen":13913,"▁frequenties":13914,"ator,":13915,"▁2.5":13916,"▁bevestigden":13917,"▁feedback":13918,"▁CRE":13919,"rosophila":13920,"▁ribb":13921,"▁geëxtraheerd":13922,"▁Belangrijk":13923,"-productie":13924,"-gewogen":13925,"stress":13926,"odgkin":13927,"stenen":13928,"abapent":13929,"formine":13930,"\rA":13931,"▁immunologische":13932,"▁New":13933,"▁anticon":13934,"c,":13935,"omyces":13936,"▁por":13937,"/4":13938,"enocoumar":13939,"ler":13940,"3K":13941,"stro":13942,"verwijder":13943,"▁Afrik":13944,"▁Ga":13945,"▁ABG:":13946,"▁(He":13947,"epen":13948,"drain":13949,"ence":13950,"▁tumoren.":13951,"▁Dergelijke":13952,"▁beëin":13953,"▁beperkt.":13954,"atho":13955,"▁O:":13956,"▁gedifferentieerde":13957,"▁kDa":13958,"vlie":13959,"▁Contrast:":13960,"▁maart":13961,"oriseerd":13962,"▁bevalling":13963,"▁g/dL":13964,"▁ok":13965,"electie":13966,"▁gemak":13967,"▁beoordelen,":13968,"▁—":13969,"▁full":13970,"uur.":13971,"▁longontsteking":13972,"ruimte":13973,"▁vivo.":13974,"spraken":13975,"▁[image":13976,"▁celtyp":13977,"▁(>":13978,"-0,":13979,"▁ervaringen":13980,"▁Aanvullende":13981,"mie.":13982,"locaties":13983,"miner":13984,"▁reflux":13985,"▁pijnstill":13986,"▁CMV":13987,"▁GP":13988,"▁Intellectueel":13989,"▁kwantum":13990,"▁onderzocht,":13991,"▁mill":13992,"7%)":13993,"acute":13994,"▁internationale":13995,"coëfficiënt":13996,"OW":13997,"▁gehandhaafd":13998,"▁stellen.":13999,"▁echtgen":14000,"arach":14001,"▁deelname":14002,"▁wis":14003,"▁omzetting":14004,"▁WN":14005,"indopril":14006,"pa":14007,"enzym":14008,"▁ontst":14009,"its,":14010,"anti":14011,"inere":14012,"▁Lat":14013,"▁QPM":14014,"▁fysiek":14015,"▁gevoed":14016,"pon":14017,"▁online":14018,"▁RT-":14019,"▁TID":14020,"spatroon":14021,"▁gastro-":14022,"▁tumorg":14023,"▁diepte":14024,"▁coherent.":14025,"▁alkalische":14026,"loïde":14027,"▁migr":14028,"▁voortdurende":14029,"▁-Procedure:":14030,"▁vouw":14031,"▁vrien":14032,"▁modificatie":14033,"▁fragmenten":14034,"▁netvlies":14035,"trof":14036,"riv":14037,"▁Mac":14038,"otte":14039,"▁verstroo":14040,"▁wanddikte":14041,"▁extern":14042,"▁Beg":14043,"▁(Daily)":14044,"▁beoordeelden":14045,"▁chromosof":14046,"▁TA":14047,"hyse":14048,"▁amiodaron":14049,"▁reageerden":14050,"mark":14051,"▁horizontale":14052,"▁familiegeschiedenis":14053,"le.":14054,"▁hartinfarct":14055,"▁gezond":14056,"▁d/c":14057,"hist":14058,":30AM":14059,"urc":14060,"▁gar":14061,"▁actine":14062,"▁reageerde":14063,"onchi":14064,"▁HV":14065,"iers":14066,"aan.":14067,"▁katten":14068,"▁lastname":14069,"ARS-CoV":14070,"drachten":14071,"▁dress":14072,"▁sterfgevallen":14073,"▁NR":14074,"▁clip":14075,"▁vergelijkingen":14076,"▁varieert":14077,"▁Stable":14078,"▁Allergies":14079,"▁bepalen,":14080,"-indic":14081,"▁ziekenhuizen":14082,"▁vaardigheden":14083,"▁prognose.":14084,"▁getransp":14085,"▁opgeloste":14086,"-le":14087,"▁GLUCOSE":14088,"▁premature":14089,"▁93":14090,"▁asymptomatische":14091,"▁begint":14092,"▁analy":14093,"▁Oste":14094,"2%)":14095,"merican":14096,"▁Facility:":14097,"▁Volle":14098,"9;":14099,"▁&amp;":14100,"▁oplosmiddel":14101,"▁landbouw":14102,"▁werknemers":14103,"S2,":14104,"▁december":14105,"▁botten":14106,"durale":14107,"semble":14108,"▁rRNA":14109,"▁monocyten":14110,"erder":14111,"▁symptoom":14112,"▁percentages":14113,"▁genaamd":14114,"rode":14115,"▁doet":14116,"tak":14117,"producten:":14118,"Het":14119,"ceptie":14120,"▁combineren":14121,"▁albumine":14122,"▁verandering.":14123,"SC'":14124,"▁constant":14125,"wezige":14126,"▁Bleed":14127,"▁83":14128,"inding.":14129,"stoornissen,":14130,"-bèta-":14131,"ropnT-":14132,"▁Cardiologie,":14133,"▁instructies":14134,"▁erkend":14135,"IUM":14136,"▁daags":14137,"▁partner":14138,"▁psor":14139,"▁weefsel.":14140,"▁massa's":14141,"▁ext":14142,"▁diabet":14143,"▁(LVEF":14144,"▁S2,":14145,"▁EV":14146,"▁work":14147,"▁VS:":14148,"▁potentie":14149,"▁Nutrition:":14150,"▁verloren":14151,"ouwd":14152,"▁Drosophila":14153,"▁Neck":14154,"▁retentie":14155,"▁ontwikkeld.":14156,"▁vertrouwen":14157,"▁gevo":14158,"heorie":14159,"rough":14160,"▁Omeprazol":14161,"▁fibrin":14162,"ling.":14163,"▁fit":14164,"▁afgesloten":14165,"balans":14166,"▁knaag":14167,"dier":14168,"▁klimaat":14169,"▁maxillaire":14170,"vit":14171,"▁afwachting":14172,"oronairlijden":14173,"▁alvleesklier":14174,"▁fluorescerende":14175,"igd":14176,"lichting":14177,"▁20.":14178,"▁chromosomale":14179,"-uurs":14180,"6%)":14181,"ck":14182,"▁helemaal":14183,"uan":14184,"▁89":14185,"▁Cardioloog":14186,"ability":14187,"▁Sodium":14188,"gangen":14189,"▁epidemiologische":14190,"accep":14191,"▁angiogenese":14192,"▁eigenschappen.":14193,"▁CRT-":14194,"▁Adem":14195,"estic":14196,"▁toegankelijk":14197,"▁handen":14198,"▁voldo":14199,"tje":14200,"▁Acid,":14201,"wijd":14202,"▁L3":14203,"▁discrete":14204,"▁publ":14205,"▁uitgescheiden":14206,"▁strand":14207,"/W":14208,"spectroscopie":14209,"▁anion":14210,"▁clo":14211,"esp":14212,"ven,":14213,"osol":14214,"▁Maar":14215,"▁histon":14216,"asen,":14217,"emic":14218,"▁daarbij":14219,"elings":14220,"▁actuele":14221,"▁ingebracht":14222,"date":14223,"▁collaps.":14224,"ley":14225,"-experimenten":14226,"▁targe":14227,"rust":14228,"nit":14229,"▁PAR":14230,"▁beurt":14231,"fibrileren/":14232,"▁Pertinente":14233,"fibrileren/-flutter":14234,"▁NA":14235,"geluid":14236,"▁lob":14237,"hesen":14238,"▁biomarker":14239,"-voor":14240,"rt":14241,"MC":14242,"▁plasmamembraan":14243,"▁21.":14244,"▁redox":14245,"▁comfortabel":14246,"▁reageert":14247,"▁Serum":14248,"epten":14249,"ved":14250,"▁genezing":14251,"▁Non":14252,"iro":14253,"Y,":14254,"▁TB":14255,"▁exogene":14256,"astolische":14257,"krist":14258,"ullaire":14259,"droeg":14260,"▁GH":14261,"▁LAD,":14262,"verhoud":14263,"▁opacificatie":14264,"▁vermoeidheid":14265,".\nDe":14266,"▁dyst":14267,"▁87":14268,"▁beadem":14269,"▁pectoris":14270,"▁numerieke":14271,"▁conclusies":14272,"othyro":14273,"activiteit,":14274,"-vaccin":14275,
[...]
