{
  "version": "1.0",
  "truncation": null,
  "padding": null,
  "added_tokens": [
    {
      "id": 0,
      "content": "[PAD]",
      "single_word": false,
      "lstrip": false,
      "rstrip": false,
      "normalized": false,
      "special": true
    },
    {
      "id": 1,
      "content": "[UNK]",
      "single_word": false,
      "lstrip": false,
      "rstrip": false,
      "normalized": false,
      "special": true
    },
    {
      "id": 2,
      "content": "[CLS]",
      "single_word": false,
      "lstrip": false,
      "rstrip": false,
      "normalized": false,
      "special": true
    },
    {
      "id": 3,
      "content": "[SEP]",
      "single_word": false,
      "lstrip": false,
      "rstrip": false,
      "normalized": false,
      "special": true
    },
    {
      "id": 4,
      "content": "[MASK]",
      "single_word": false,
      "lstrip": false,
      "rstrip": false,
      "normalized": false,
      "special": true
    }
  ],
  "normalizer": {
    "type": "BertNormalizer",
    "clean_text": true,
    "handle_chinese_chars": true,
    "strip_accents": null,
    "lowercase": true
  },
  "pre_tokenizer": {
    "type": "BertPreTokenizer"
  },
  "post_processor": {
    "type": "BertProcessing",
    "sep": [
      "[SEP]",
      3
    ],
    "cls": [
      "[CLS]",
      2
    ]
  },
  "decoder": {
    "type": "WordPiece",
    "prefix": "##",
    "cleanup": true
  },
  "model": {
    "type": "WordPiece",
    "unk_token": "[UNK]",
    "continuing_subword_prefix": "##",
    "max_input_chars_per_word": 100,
    "vocab": {
      "[PAD]": 0,
      "[UNK]": 1,
      "[CLS]": 2,
      "[SEP]": 3,
      "[MASK]": 4,
      "[EX0]": 5,
      "[EX1]": 6,
      "[EX2]": 7,
      "[EX3]": 8,
      "[EX4]": 9,
      "[EX5]": 10,
      "[EX6]": 11,
      "[EX7]": 12,
      "[EX8]": 13,
      "[EX9]": 14,
      "[EX10]": 15,
      "[EX11]": 16,
      "[EX12]": 17,
      "[EX13]": 18,
      "[EX14]": 19,
      "[EX15]": 20,
      "[EX16]": 21,
      "[EX17]": 22,
      "[EX18]": 23,
      "[EX19]": 24,
      "[EX20]": 25,
      "[EX21]": 26,
      "[EX22]": 27,
      "[EX23]": 28,
      "[EX24]": 29,
      "[EX25]": 30,
      "[EX26]": 31,
      "[EX27]": 32,
      "[EX28]": 33,
      "[EX29]": 34,
      "[EX30]": 35,
      "[EX31]": 36,
      "[EX32]": 37,
      "[EX33]": 38,
      "[EX34]": 39,
      "[EX35]": 40,
      "[EX36]": 41,
      "[EX37]": 42,
      "[EX38]": 43,
      "[EX39]": 44,
      "[EX40]": 45,
      "[EX41]": 46,
      "[EX42]": 47,
      "[EX43]": 48,
      "[EX44]": 49,
      "[EX45]": 50,
      "[EX46]": 51,
      "[EX47]": 52,
      "[EX48]": 53,
      "[EX49]": 54,
      "!": 55,
      "\"": 56,
      "#": 57,
      "$": 58,
      "%": 59,
      "&": 60,
      "'": 61,
      "(": 62,
      ")": 63,
      "*": 64,
      "+": 65,
      ",": 66,
      "-": 67,
      ".": 68,
      "/": 69,
      "0": 70,
      "1": 71,
      "2": 72,
      "3": 73,
      "4": 74,
      "5": 75,
      "6": 76,
      "7": 77,
      "8": 78,
      "9": 79,
      ":": 80,
      ";": 81,
      "<": 82,
      "=": 83,
      ">": 84,
      "?": 85,
      "@": 86,
      "A": 87,
      "B": 88,
      "C": 89,
      "D": 90,
      "E": 91,
      "F": 92,
      "G": 93,
      "H": 94,
      "I": 95,
      "J": 96,
      "K": 97,
      "L": 98,
      "M": 99,
      "N": 100,
      "O": 101,
      "P": 102,
      "Q": 103,
      "R": 104,
      "S": 105,
      "T": 106,
      "U": 107,
      "V": 108,
      "W": 109,
      "X": 110,
      "Y": 111,
      "Z": 112,
      "[": 113,
      "\\": 114,
      "]": 115,
      "^": 116,
      "_": 117,
      "`": 118,
      "a": 119,
      "b": 120,
      "c": 121,
      "d": 122,
      "e": 123,
      "f": 124,
      "g": 125,
      "h": 126,
      "i": 127,
      "j": 128,
      "k": 129,
      "l": 130,
      "m": 131,
      "n": 132,
      "o": 133,
      "p": 134,
      "q": 135,
      "r": 136,
      "s": 137,
      "t": 138,
      "u": 139,
      "v": 140,
      "w": 141,
      "x": 142,
      "y": 143,
      "z": 144,
      "{": 145,
      "|": 146,
      "}": 147,
      "~": 148,
      "¡": 149,
      "£": 150,
      "¥": 151,
      "¦": 152,
      "§": 153,
      "¨": 154,
      "©": 155,
      "ª": 156,
      "«": 157,
      "¬": 158,
      "®": 159,
      "¯": 160,
      "°": 161,
      "±": 162,
      "²": 163,
      "³": 164,
      "´": 165,
      "µ": 166,
      "·": 167,
      "¸": 168,
      "¹": 169,
      "º": 170,
      "»": 171,
      "¼": 172,
      "½": 173,
      "¾": 174,
      "¿": 175,
      "À": 176,
      "Á": 177,
      "Â": 178,
      "Ã": 179,
      "Ä": 180,
      "Å": 181,
      "Æ": 182,
      "Ç": 183,
      "È": 184,
      "É": 185,
      "Ê": 186,
      "Ë": 187,
      "Ì": 188,
      "Í": 189,
      "Î": 190,
      "Ï": 191,
      "Ó": 192,
      "Ô": 193,
      "Õ": 194,
      "Ö": 195,
      "×": 196,
      "Ø": 197,
      "Ù": 198,
      "Ú": 199,
      "Û": 200,
      "Ü": 201,
      "Ý": 202,
      "Þ": 203,
      "ß": 204,
      "à": 205,
      "á": 206,
      "â": 207,
      "ã": 208,
      "ä": 209,
      "å": 210,
      "æ": 211,
      "ç": 212,
      "è": 213,
      "é": 214,
      "ê": 215,
      "ë": 216,
      "ì": 217,
      "í": 218,
      "î": 219,
      "ï": 220,
      "ð": 221,
      "ñ": 222,
      "ò": 223,
      "ó": 224,
      "ô": 225,
      "õ": 226,
      "ö": 227,
      "÷": 228,
      "ø": 229,
      "ù": 230,
      "ú": 231,
      "û": 232,
      "ü": 233,
      "ý": 234,
      "ÿ": 235,
      "Œ": 236,
      "œ": 237,
      "Š": 238,
      "š": 239,
      "Ÿ": 240,
      "Ž": 241,
      "ž": 242,
      "ƒ": 243,
      "ˆ": 244,
      "˜": 245,
      "އ": 246,
      "ެ": 247,
      "޹": 248,
      "–": 249,
      "—": 250,
      "‘": 251,
      "’": 252,
      "‚": 253,
      "“": 254,
      "”": 255,
      "„": 256,
      "†": 257,
      "‡": 258,
      "•": 259,
      "…": 260,
      "‰": 261,
      "‹": 262,
      "›": 263,
      "€": 264,
      "™": 265,
      "##0": 266,
      "##2": 267,
      "##5": 268,
      "##3": 269,
      "##8": 270,
      "##1": 271,
      "##e": 272,
      "##g": 273,
      "##u": 274,
      "##l": 275,
      "##a": 276,
      "##i": 277,
      "##r": 278,
      "##m": 279,
      "##n": 280,
      "##p": 281,
      "##d": 282,
      "##6": 283,
      "##7": 284,
      "##9": 285,
      "##s": 286,
      "##k": 287,
      "##j": 288,
      "##C": 289,
      "##t": 290,
      "##Z": 291,
      "##H": 292,
      "##v": 293,
      "##4": 294,
      "##c": 295,
      "##o": 296,
      "##x": 297,
      "##b": 298,
      "##w": 299,
      "##h": 300,
      "##y": 301,
      "##I": 302,
      "##F": 303,
      "##U": 304,
      "##S": 305,
      "##E": 306,
      "##z": 307,
      "##f": 308,
      "##V": 309,
      "##q": 310,
      "##B": 311,
      "##P": 312,
      "##K": 313,
      "##N": 314,
      "##M": 315,
      "##O": 316,
      "##Â": 317,
      "##X": 318,
      "##ë": 319,
      "##W": 320,
      "##R": 321,
      "##A": 322,
      "##L": 323,
      "##T": 324,
      "##D": 325,
      "##G": 326,
      "##Û": 327,
      "##ñ": 328,
      "##è": 329,
      "##á": 330,
      "##J": 331,
      "##ö": 332,
      "##€": 333,
      "##À": 334,
      "##Á": 335,
      "##Y": 336,
      "##ï": 337,
      "##Q": 338,
      "##í": 339,
      "##é": 340,
      "##™": 341,
      "##Š": 342,
      "##Œ": 343,
      "##ÿ": 344,
      "##³": 345,
      "##ê": 346,
      "##°": 347,
      "##Ü": 348,
      "##Ž": 349,
      "##ø": 350,
      "##Ÿ": 351,
      "##ü": 352,
      "##ú": 353,
      "##ò": 354,
      "##Ë": 355,
      "##±": 356,
      "##®": 357,
      "##ƒ": 358,
      "##Ì": 359,
      "##à": 360,
      "##ß": 361,
      "##¥": 362,
      "##Ú": 363,
      "##ž": 364,
      "##½": 365,
      "##û": 366,
      "##º": 367,
      "##Ù": 368,
      "##ì": 369,
      "##´": 370,
      "##Ö": 371,
      "##Ã": 372,
      "##²": 373,
      "##Å": 374,
      "##×": 375,
      "##ù": 376,
      "##ˆ": 377,
      "##ô": 378,
      "##œ": 379,
      "##Ô": 380,
      "##ó": 381,
      "##å": 382,
      "##ç": 383,
      "##â": 384,
      "##޹": 385,
      "##¨": 386,
      "##Ï": 387,
      "##Ø": 388,
      "##Þ": 389,
      "##ð": 390,
      "##Õ": 391,
      "##އ": 392,
      "##¦": 393,
      "##Ó": 394,
      "##Ê": 395,
      "##î": 396,
      "##ª": 397,
      "##ެ": 398,
      "##¬": 399,
      "##©": 400,
      "##ý": 401,
      "##µ": 402,
      "##¼": 403,
      "##ã": 404,
      "##æ": 405,
      "##÷": 406,
      "##Ç": 407,
      "##ä": 408,
      "##Î": 409,
      "##õ": 410,
      "##¹": 411,
      "##¾": 412,
      "##˜": 413,
      "##É": 414,
      "##en": 415,
      "##er": 416,
      "##ie": 417,
      "##in": 418,
      "##ij": 419,
      "##an": 420,
      "##at": 421,
      "##el": 422,
      "##ch": 423,
      "##or": 424,
      "##et": 425,
      "##st": 426,
      "##on": 427,
      "##aa": 428,
      "##ing": 429,
      "##ol": 430,
      "##00": 431,
      "ge": 432,
      "##is": 433,
      "##it": 434,
      "en": 435,
      "##le": 436,
      "##es": 437,
      "##ek": 438,
      "##ct": 439,
      "##cht": 440,
      "##ro": 441,
      "##oor": 442,
      "##ed": 443,
      "in": 444,
      "##um": 445,
      "##la": 446,
      "##der": 447,
      "van": 448,
      "de": 449,
      "##op": 450,
      "##am": 451,
      "##id": 452,
      "##ig": 453,
      "##ar": 454,
      "met": 455,
      "##us": 456,
      "##aar": 457,
      "##ijk": 458,
      "##al": 459,
      "##om": 460,
      "op": 461,
      "on": 462,
      "##og": 463,
      "##atie": 464,
      "##end": 465,
      "20": 466,
      "ver": 467,
      "##os": 468,
      "##ten": 469,
      "##aal": 470,
      "##re": 471,
      "##ver": 472,
      "re": 473,
      "geen": 474,
      "201": 475,
      "##ijn": 476,
      "##den": 477,
      "##ur": 478,
      "##ic": 479,
      "##ge": 480,
      "##pr": 481,
      "##ta": 482,
      "Ge": 483,
      "##pe": 484,
      "##te": 485,
      "bij": 486,
      "##ra": 487,
      "##il": 488,
      "##icht": 489,
      "con": 490,
      "af": 491,
      "be": 492,
      "een": 493,
      "col": 494,
      "##ijd": 495,
      "##ale": 496,
      "##ot": 497,
      "##ul": 498,
      "##ee": 499,
      "##ele": 500,
      "het": 501,
      "##eer": 502,
      "##isch": 503,
      "##de": 504,
      "##ik": 505,
      "##gen": 506,
      "##eking": 507,
      "##atum": 508,
      "##ent": 509,
      "aan": 510,
      "##elijk": 511,
      "##itis": 512,
      "onder": 513,
      "##oed": 514,
      "##as": 515,
      "is": 516,
      "##iet": 517,
      "##orm": 518,
      "voor": 519,
      "##ingen": 520,
      "##nam": 521,
      "Datum": 522,
      "##ese": 523,
      "200": 524,
      "##and": 525,
      "CS": 526,
      "CS00": 527,
      "##cl": 528,
      "Geen": 529,
      "##ctie": 530,
      "##aat": 531,
      "##em": 532,
      "##oek": 533,
      "Con": 534,
      "st": 535,
      "##usie": 536,
      "##ine": 537,
      "##zoek": 538,
      "niet": 539,
      "In": 540,
      "bes": 541,
      "##iop": 542,
      "##eu": 543,
      "##oc": 544,
      "door": 545,
      "##ist": 546,
      "##tact": 547,
      "##clusie": 548,
      "nu": 549,
      "##38": 550,
      "##ab": 551,
      "##ype": 552,
      "##ies": 553,
      "##ven": 554,
      "contact": 555,
      "gew": 556,
      "Conclusie": 557,
      "##ag": 558,
      "bespr": 559,
      "##ve": 560,
      "##ou": 561,
      "Type": 562,
      "##ier": 563,
      "bespreking": 564,
      "##ken": 565,
      "##richt": 566,
      "##oe": 567,
      "onderzoek": 568,
      "##un": 569,
      "##namn": 570,
      "##ink": 571,
      "##sie": 572,
      "##cop": 573,
      "##ische": 574,
      "##eg": 575,
      "##art": 576,
      "##namnese": 577,
      "ont": 578,
      "##aag": 579,
      "##ft": 580,
      "an": 581,
      "##icatie": 582,
      "mg": 583,
      "##ien": 584,
      "##ige": 585,
      "##ende": 586,
      "##ru": 587,
      "##ok": 588,
      "na": 589,
      "over": 590,
      "##he": 591,
      "##eleid": 592,
      "al": 593,
      "##ast": 594,
      "naar": 595,
      "##chten": 596,
      "10": 597,
      "te": 598,
      "##copie": 599,
      "pro": 600,
      "##olog": 601,
      "recht": 602,
      "##ijst": 603,
      "link": 604,
      "waar": 605,
      "Ver": 606,
      "##rt": 607,
      "##eld": 608,
      "##oog": 609,
      "uit": 610,
      "colon": 611,
      "##aak": 612,
      "di": 613,
      "##lachten": 614,
      "##per": 615,
      "##hn": 616,
      "##im": 617,
      "Anamnese": 618,
      "##rohn": 619,
      "CS000": 620,
      "Beleid": 621,
      "##sla": 622,
      "##eken": 623,
      "ile": 624,
      "##VC": 625,
      "##zel": 626,
      "##len": 627,
      "##omen": 628,
      "##ose": 629,
      "##iopten": 630,
      "Crohn": 631,
      "##wijk": 632,
      "##ati": 633,
      "##ys": 634,
      "##cer": 635,
      "##lij": 636,
      "##sch": 637,
      "PA": 638,
      "goed": 639,
      "##ite": 640,
      "##richten": 641,
      "De": 642,
      "##ath": 643,
      "##slag": 644,
      "art": 645,
      "tijd": 646,
      "TC": 647,
      "##ologie": 648,
      "pijn": 649,
      "##IE": 650,
      "##ad": 651,
      "er": 652,
      "wor": 653,
      "Keu": 654,
      "##zelijst": 655,
      "Keuzelijst": 656,
      "cm": 657,
      "##arm": 658,
      "##etten": 659,
      "##ste": 660,
      "##eeft": 661,
      "per": 662,
      "##lies": 663,
      "##ind": 664,
      "##ijz": 665,
      "afwijk": 666,
      "pol": 667,
      "Tijd": 668,
      "norm": 669,
      "##ich": 670,
      "##ran": 671,
      "of": 672,
      "##aan": 673,
      "##ec": 674,
      "ter": 675,
      "##uik": 676,
      "##rij": 677,
      "##iek": 678,
      "##lin": 679,
      "##tr": 680,
      "PVC": 681,
      "zetten": 682,
      "##ter": 683,
      "ontst": 684,
      "##se": 685,
      "19": 686,
      "Aan": 687,
      "inf": 688,
      "##we": 689,
      "CS0000": 690,
      "11": 691,
      "##onder": 692,
      "##ief": 693,
      "gez": 694,
      "##lijm": 695,
      "##ang": 696,
      "##pro": 697,
      "Dr": 698,
      "##ir": 699,
      "##pt": 700,
      "##oscopie": 701,
      "ul": 702,
      "##iteit": 703,
      "##lijk": 704,
      "tot": 705,
      "wel": 706,
      "##SC": 707,
      "##of": 708,
      "12": 709,
      "links": 710,
      "ook": 711,
      "bl": 712,
      "CS00038": 713,
      "##ia": 714,
      "rechts": 715,
      "##spr": 716,
      "colitis": 717,
      "we": 718,
      "pr": 719,
      "ontsteking": 720,
      "to": 721,
      "mm": 722,
      "gewrichten": 723,
      "dd": 724,
      "##ass": 725,
      "CS000038": 726,
      "afwijkingen": 727,
      "##ges": 728,
      "##ff": 729,
      "ulcer": 730,
      "##nis": 731,
      "##be": 732,
      "##ell": 733,
      "##ens": 734,
      "##uid": 735,
      "##eter": 736,
      "##ac": 737,
      "##ect": 738,
      "##eden": 739,
      "##edicatie": 740,
      "##vul": 741,
      "##nt": 742,
      "##50": 743,
      "as": 744,
      "##vens": 745,
      "##ap": 746,
      "klachten": 747,
      "##olg": 748,
      "##eel": 749,
      "##eling": 750,
      "##osa": 751,
      "##voor": 752,
      "##ER": 753,
      "##hand": 754,
      "meer": 755,
      "##ater": 756,
      "##od": 757,
      "br": 758,
      "nog": 759,
      "##LU": 760,
      "##ym": 761,
      "##40": 762,
      "darm": 763,
      "##raag": 764,
      "bloed": 765,
      "##14": 766,
      "##vull": 767,
      "ileum": 768,
      "##uur": 769,
      "##ax": 770,
      "##pijn": 771,
      "##heid": 772,
      "##oort": 773,
      "##ne": 774,
      "##lijmv": 775,
      "geb": 776,
      "##lijmvlies": 777,
      "##min": 778,
      "##ma": 779,
      "##lan": 780,
      "##els": 781,
      "##dt": 782,
      "##spraak": 783,
      "##IN": 784,
      "MD": 785,
      "##leg": 786,
      "biopten": 787,
      "##EN": 788,
      "VA": 789,
      "buik": 790,
      "##erk": 791,
      "##ednis": 792,
      "##sen": 793,
      "ch": 794,
      "##ond": 795,
      "##wijz": 796,
      "##10": 797,
      "##BD": 798,
      "sp": 799,
      "##atient": 800,
      "##uis": 801,
      "GE": 802,
      "##ult": 803,
      "lab": 804,
      "##last": 805,
      "ab": 806,
      "le": 807,
      "##cti": 808,
      "##tra": 809,
      "##AT": 810,
      "##trol": 811,
      "Aanvull": 812,
      "##ci": 813,
      "##ze": 814,
      "MDL": 815,
      "##ide": 816,
      "Er": 817,
      "waarvoor": 818,
      "brief": 819,
      "rect": 820,
      "##af": 821,
      "##ke": 822,
      "normaal": 823,
      "heeft": 824,
      "##56": 825,
      "th": 826,
      "##iaal": 827,
      "maar": 828,
      "zijn": 829,
      "15": 830,
      "##nd": 831,
      "##ort": 832,
      "Tot": 833,
      "dag": 834,
      "##amelijk": 835,
      "zonder": 836,
      "##ichamelijk": 837,
      "##mg": 838,
      "##uw": 839,
      "min": 840,
      "##gesch": 841,
      "gest": 842,
      "##ieden": 843,
      "geh": 844,
      "wat": 845,
      "Totaal": 846,
      "##co": 847,
      "Aanvullend": 848,
      "ulcerosa": 849,
      "##ving": 850,
      "om": 851,
      "##elling": 852,
      "##ame": 853,
      "Op": 854,
      "##ip": 855,
      "wordt": 856,
      "su": 857,
      "##gel": 858,
      "##dere": 859,
      "##king": 860,
      "##20": 861,
      "##iep": 862,
      "##val": 863,
      "gezien": 864,
      "##oloog": 865,
      "Lichamelijk": 866,
      "##vo": 867,
      "##name": 868,
      "##0000": 869,
      "##dd": 870,
      "Voor": 871,
      "St": 872,
      "##OP": 873,
      "##ednison": 874,
      "##gevens": 875,
      "##eerd": 876,
      "ex": 877,
      "##je": 878,
      "##ost": 879,
      "##con": 880,
      "##149": 881,
      "##ep": 882,
      "Ind": 883,
      "afspraak": 884,
      "##inds": 885,
      "08": 886,
      "dan": 887,
      "##oli": 888,
      "CS00038149": 889,
      "##mo": 890,
      "vo": 891,
      "bek": 892,
      "rem": 893,
      "lever": 894,
      "arts": 895,
      "##iedenis": 896,
      "##ust": 897,
      "##CR": 898,
      "##geschiedenis": 899,
      "CT": 900,
      "##alis": 901,
      "##yp": 902,
      "##eren": 903,
      "iv": 904,
      "##ug": 905,
      "##ruik": 906,
      "Om": 907,
      "##ron": 908,
      "##ula": 909,
      "##trole": 910,
      "##igd": 911,
      "pla": 912,
      "##erd": 913,
      "##ering": 914,
      "verslag": 915,
      "##LIN": 916,
      "##geb": 917,
      "weken": 918,
      "##EC": 919,
      "##acht": 920,
      "##ID": 921,
      "##linische": 922,
      "##sult": 923,
      "eer": 924,
      "##igmo": 925,
      "##UM": 926,
      "##ctieve": 927,
      "Pro": 928,
      "weer": 929,
      "dr": 930,
      "##lo": 931,
      "sc": 932,
      "sch": 933,
      "kle": 934,
      "##OPIE": 935,
      "worden": 936,
      "##pla": 937,
      "##RI": 938,
      "##viteit": 939,
      "##chter": 940,
      "##sp": 941,
      "##ymf": 942,
      "week": 943,
      "##ce": 944,
      "##schrij": 945,
      "gegevens": 946,
      "Norm": 947,
      "##pect": 948,
      "##ocy": 949,
      "##CRO": 950,
      "##ica": 951,
      "##70": 952,
      "slijmvlies": 953,
      "##SCOPIE": 954,
      "##schrijving": 955,
      "##CROSCOPIE": 956,
      "Omschrijving": 957,
      "##ard": 958,
      "00000": 959,
      "II": 960,
      "dys": 961,
      "##sel": 962,
      "MT": 963,
      "Col": 964,
      "##AA": 965,
      "##ant": 966,
      "##men": 967,
      "Over": 968,
      "09": 969,
      "##lasting": 970,
      "rechter": 971,
      "##ak": 972,
      "pass": 973,
      "##cend": 974,
      "##ctiviteit": 975,
      "##ire": 976,
      "beeld": 977,
      "ivm": 978,
      "03": 979,
      "2013": 980,
      "##cendens": 981,
      "##rine": 982,
      "linker": 983,
      "##urg": 984,
      "##ber": 985,
      "20000": 986,
      "sta": 987,
      "##oom": 988,
      "##LUE": 989,
      "##mm": 990,
      "VALUE": 991,
      "2012": 992,
      "Met": 993,
      "##na": 994,
      "Al": 995,
      "2011": 996,
      "Th": 997,
      "##amen": 998,
      "199": 999,
      "her": 1000,
      "14": 1001,
      "##ut": 1002,
      "lymf": 1003,
      "termin": 1004,
      "##uc": 1005,
      "##nie": 1006,
      "##atus": 1007,
      "enk": 1008,
      "rectum": 1009,
      "Indicatie": 1010,
      "gaat": 1011,
      "##oord": 1012,
      "##omie": 1013,
      "2015": 1014,
      "13": 1015,
      "##issie": 1016,
      "dat": 1017,
      "2010": 1018,
      "Gew": 1019,
      "##ECT": 1020,
      "##ces": 1021,
      "##MC": 1022,
      "mil": 1023,
      "##ri": 1024,
      "veel": 1025,
      "##volg": 1026,
      "aanwijz": 1027,
      "##ateriaal": 1028,
      "##lijke": 1029,
      "Het": 1030,
      "##peci": 1031,
      "Path": 1032,
      "##weg": 1033,
      "##atief": 1034,
      "##wol": 1035,
      "##cho": 1036,
      "OB": 1037,
      "PAT": 1038,
      "##klachten": 1039,
      "##JECT": 1040,
      "##agn": 1041,
      "remissie": 1042,
      "##plasie": 1043,
      "OBJECT": 1044,
      "OBJECTID": 1045,
      "IBD": 1046,
      "##wollen": 1047,
      "VALUE1": 1048,
      "Klinische": 1049,
      "##uit": 1050,
      "gro": 1051,
      "30": 1052,
      "2014": 1053,
      "##pen": 1054,
      "##baar": 1055,
      "##tro": 1056,
      "##iopt": 1057,
      "##hol": 1058,
      "cr": 1059,
      "##ix": 1060,
      "##vat": 1061,
      "kom": 1062,
      "Be": 1063,
      "Heeft": 1064,
      "##ram": 1065,
      "Bij": 1066,
      "16": 1067,
      "als": 1068,
      "##omp": 1069,
      "gehad": 1070,
      "PATN": 1071,
      "##oven": 1072,
      "Voorgeschiedenis": 1073,
      "##ont": 1074,
      "actieve": 1075,
      "start": 1076,
      "prednison": 1077,
      "sinds": 1078,
      "##eb": 1079,
      "##52": 1080,
      "MTX": 1081,
      "##ala": 1082,
      "##aatst": 1083,
      "##ble": 1084,
      "##NC": 1085,
      "OA": 1086,
      "hoog": 1087,
      "ant": 1088,
      "hy": 1089,
      "Lab": 1090,
      "##sver": 1091,
      "##handeling": 1092,
      "sigmo": 1093,
      "##ets": 1094,
      "##zijd": 1095,
      "##ritis": 1096,
      "##ogelijk": 1097,
      "##th": 1098,
      "##bij": 1099,
      "DA": 1100,
      "hier": 1101,
      "05": 1102,
      "##arts": 1103,
      "Verslag": 1104,
      "##HE": 1105,
      "##ocyten": 1106,
      "Pr": 1107,
      "controle": 1108,
      "##55": 1109,
      "##ib": 1110,
      "06": 1111,
      "sten": 1112,
      "##gens": 1113,
      "normale": 1114,
      "##21": 1115,
      "aanwijzingen": 1116,
      "##EV": 1117,
      "##iale": 1118,
      "kg": 1119,
      "##pp": 1120,
      "##genomen": 1121,
      "01": 1122,
      "##ong": 1123,
      "##ellen": 1124,
      "40": 1125,
      "##nen": 1126,
      "##cum": 1127,
      "##ira": 1128,
      "gran": 1129,
      "##CP": 1130,
      "mijn": 1131,
      "##heel": 1132,
      "RA": 1133,
      "jaar": 1134,
      "ontlasting": 1135,
      "Poli": 1136,
      "med": 1137,
      "04": 1138,
      "##me": 1139,
      "tran": 1140,
      "07": 1141,
      "dun": 1142,
      "##RD": 1143,
      "##erv": 1144,
      "##consult": 1145,
      "##open": 1146,
      "gebruik": 1147,
      "02": 1148,
      "##opt": 1149,
      "##ros": 1150,
      "##ting": 1151,
      "gewijz": 1152,
      "dysplasie": 1153,
      "gewijzigd": 1154,
      "##pit": 1155,
      "2009": 1156,
      "last": 1157,
      "dit": 1158,
      "toe": 1159,
      "nee": 1160,
      "cal": 1161,
      "kl": 1162,
      "##reatie": 1163,
      "activiteit": 1164,
      "Patient": 1165,
      "anamnese": 1166,
      "17": 1167,
      "##kt": 1168,
      "##ree": 1169,
      "CO": 1170,
      "2016": 1171,
      "##ouw": 1172,
      "zo": 1173,
      "##atië": 1174,
      "##ISC": 1175,
      "zw": 1176,
      "##weging": 1177,
      "##mat": 1178,
      "##orax": 1179,
      "##vla": 1180,
      "##ISCHE": 1181,
      "volg": 1182,
      "chron": 1183,
      "##LINISCHE": 1184,
      "##esectie": 1185,
      "100": 1186,
      "##elijke": 1187,
      "##aakt": 1188,
      "buikpijn": 1189,
      "##aam": 1190,
      "kan": 1191,
      "18": 1192,
      "terminale": 1193,
      "##hou": 1194,
      "opname": 1195,
      "mogelijk": 1196,
      "toen": 1197,
      "##anc": 1198,
      "##domen": 1199,
      "##stelling": 1200,
      "Pijn": 1201,
      "##wee": 1202,
      "##HMC": 1203,
      "mijnHMC": 1204,
      "end": 1205,
      "plaat": 1206,
      "patient": 1207,
      "##burg": 1208,
      "2017": 1209,
      "##qu": 1210,
      "##entie": 1211,
      "50": 1212,
      "##oma": 1213,
      "##volgconsult": 1214,
      "##elen": 1215,
      "Af": 1216,
      "aspect": 1217,
      "medicatie": 1218,
      "##jes": 1219,
      "fist": 1220,
      "##amenvat": 1221,
      "Vraag": 1222,
      "##ore": 1223,
      "##oorts": 1224,
      "##46": 1225,
      "##agnose": 1226,
      "##ov": 1227,
      "##umira": 1228,
      "##adi": 1229,
      "ziek": 1230,
      "MRI": 1231,
      "2018": 1232,
      "ne": 1233,
      "##18": 1234,
      "Bek": 1235,
      "##ameter": 1236,
      "daar": 1237,
      "verg": 1238,
      "wv": 1239,
      "##19": 1240,
      "poliep": 1241,
      "25": 1242,
      "##ander": 1243,
      "##arree": 1244,
      "Re": 1245,
      "scopie": 1246,
      "##36": 1247,
      "granul": 1248,
      "vol": 1249,
      "##agen": 1250,
      "Gaat": 1251,
      "##icade": 1252,
      "du": 1253,
      "Geb": 1254,
      "ged": 1255,
      "##amenvatting": 1256,
      "On": 1257,
      "##fie": 1258,
      "28": 1259,
      "##SIE": 1260,
      "##proken": 1261,
      "verb": 1262,
      "pat": 1263,
      "ro": 1264,
      "Reden": 1265,
      "##eratie": 1266,
      "zich": 1267,
      "iets": 1268,
      "##alaz": 1269,
      "##zath": 1270,
      "CONC": 1271,
      "##LUSIE": 1272,
      "CONCLUSIE": 1273,
      "dist": 1274,
      "##ium": 1275,
      "##biopten": 1276,
      "CR": 1277,
      "rec": 1278,
      "die": 1279,
      "colleg": 1280,
      "ind": 1281,
      "enkele": 1282,
      "##ieren": 1283,
      "##sum": 1284,
      "##lden": 1285,
      "neg": 1286,
      "Di": 1287,
      "##ldenburg": 1288,
      "verd": 1289,
      "##wez": 1290,
      "gen": 1291,
      "##zathiop": 1292,
      "##yl": 1293,
      "##ud": 1294,
      "##medicatie": 1295,
      "##emie": 1296,
      "##aas": 1297,
      "##rag": 1298,
      "##ectie": 1299,
      "Vraagstelling": 1300,
      "##ract": 1301,
      "##ysma": 1302,
      "1dd": 1303,
      "##elt": 1304,
      "Nu": 1305,
      "Oldenburg": 1306,
      "##urin": 1307,
      "##rom": 1308,
      "##37": 1309,
      "##epat": 1310,
      "hyper": 1311,
      "2019": 1312,
      "##van": 1313,
      "##zathioprine": 1314,
      "##aatste": 1315,
      "boven": 1316,
      "sub": 1317,
      "2008": 1318,
      "score": 1319,
      "diarree": 1320,
      "##ker": 1321,
      "##12": 1322,
      "##ruk": 1323,
      "##zol": 1324,
      "##if": 1325,
      "eerder": 1326,
      "mt": 1327,
      "##cin": 1328,
      "##GEV": 1329,
      "##ENS": 1330,
      "gezwollen": 1331,
      "ma": 1332,
      "stop": 1333,
      "##leur": 1334,
      "1x": 1335,
      "##sbe": 1336,
      "##ss": 1337,
      "passend": 1338,
      "##iss": 1339,
      "##SE": 1340,
      "GEGEV": 1341,
      "GEGEVENS": 1342,
      "radi": 1343,
      "##sversum": 1344,
      "##batie": 1345,
      "la": 1346,
      "licht": 1347,
      "##kel": 1348,
      "ev": 1349,
      "MI": 1350,
      "##io": 1351,
      "##erg": 1352,
      "DD": 1353,
      "panc": 1354,
      "##inf": 1355,
      "ad": 1356,
      "##alazine": 1357,
      "##eest": 1358,
      "hepat": 1359,
      "MA": 1360,
      "##acer": 1361,
      "##erap": 1362,
      "pijnlijke": 1363,
      "##aanden": 1364,
      "42": 1365,
      "knie": 1366,
      "abces": 1367,
      "##ider": 1368,
      "huid": 1369,
      "##rose": 1370,
      "##eem": 1371,
      "##urve": 1372,
      "was": 1373,
      "##hoog": 1374,
      "lang": 1375,
      "##pitheel": 1376,
      "##acerbatie": 1377,
      "##ob": 1378,
      "biopt": 1379,
      "##ari": 1380,
      "Normale": 1381,
      "maanden": 1382,
      "##oms": 1383,
      "##ina": 1384,
      "##oof": 1385,
      "##atiënt": 1386,
      "KLINISCHE": 1387,
      "CS000380": 1388,
      "alle": 1389,
      "mor": 1390,
      "##33": 1391,
      "reum": 1392,
      "transversum": 1393,
      "komst": 1394,
      "artritis": 1395,
      "hist": 1396,
      "##urveil": 1397,
      "nod": 1398,
      "CS00038040": 1399,
      "MICROSCOPIE": 1400,
      "End": 1401,
      "##48": 1402,
      "def": 1403,
      "##urveillan": 1404,
      "mes": 1405,
      "mtp": 1406,
      "##aten": 1407,
      "##eten": 1408,
      "##schijn": 1409,
      "##oofd": 1410,
      "##uctie": 1411,
      "##orie": 1412,
      "mat": 1413,
      "koorts": 1414,
      "KVC": 1415,
      "##ders": 1416,
      "##sten": 1417,
      "##alk": 1418,
      "##13": 1419,
      "Opt": 1420,
      "ste": 1421,
      "calpro": 1422,
      "##oen": 1423,
      "##iel": 1424,
      "des": 1425,
      "##osit": 1426,
      "##dra": 1427,
      "echter": 1428,
      "Opties": 1429,
      "##vang": 1430,
      "##oorde": 1431,
      "foc": 1432,
      "##und": 1433,
      "Gewrichten": 1434,
      "0000010": 1435,
      "##urveillance": 1436,
      "ontstekings": 1437,
      "verder": 1438,
      "##verlies": 1439,
      "der": 1440,
      "##liniek": 1441,
      "dunne": 1442,
      "sigmoid": 1443,
      "##vlak": 1444,
      "##uus": 1445,
      "Inter": 1446,
      "##idd": 1447,
      "sl": 1448,
      "gb": 1449,
      "cryp": 1450,
      "dagen": 1451,
      "Dit": 1452,
      "rust": 1453,
      "bijw": 1454,
      "##anden": 1455,
      "Speci": 1456,
      "##42": 1457,
      "MACROSCOPIE": 1458,
      "Creatie": 1459,
      "##bus": 1460,
      "##oren": 1461,
      "long": 1462,
      "el": 1463,
      "##ente": 1464,
      "gel": 1465,
      "zie": 1466,
      "En": 1467,
      "gast": 1468,
      "##eds": 1469,
      "beter": 1470,
      "##dens": 1471,
      "CRP": 1472,
      "huis": 1473,
      "moe": 1474,
      "DAT": 1475,
      "DATUM": 1476,
      "##traat": 1477,
      "##olon": 1478,
      "##hal": 1479,
      "##iltraat": 1480,
      "verk": 1481,
      "##vorm": 1482,
      "me": 1483,
      "slijm": 1484,
      "gering": 1485,
      "##houd": 1486,
      "##ET": 1487,
      "bekend": 1488,
      "##cp": 1489,
      "##schijnlijk": 1490,
      "43": 1491,
      "##toc": 1492,
      "via": 1493,
      "kleine": 1494,
      "##erapie": 1495,
      "##vis": 1496,
      "##erken": 1497,
      "gal": 1498,
      "cass": 1499,
      "24": 1500,
      "maag": 1501,
      "##coop": 1502,
      "##Laatst": 1503,
      "##ffect": 1504,
      "##60": 1505,
      "ascendens": 1506,
      "patiënt": 1507,
      "Biopten": 1508,
      "beweging": 1509,
      "hem": 1510,
      "uur": 1511,
      "##704": 1512,
      "Normaal": 1513,
      "aang": 1514,
      "##sbeper": 1515,
      "Cat": 1516,
      "##eces": 1517,
      "Humira": 1518,
      "##vies": 1519,
      "##gebre": 1520,
      "##egorie": 1521,
      "Uit": 1522,
      "Rem": 1523,
      "##ere": 1524,
      "##ijkt": 1525,
      "##vol": 1526,
      "2000050": 1527,
      "Categorie": 1528,
      "Pathologie": 1529,
      "minder": 1530,
      "Materiaal": 1531,
      "verw": 1532,
      "##ure": 1533,
      "descendens": 1534,
      "Ab": 1535,
      "gestopt": 1536,
      "Is": 1537,
      "proct": 1538,
      "##47": 1539,
      "par": 1540,
      "##oecum": 1541,
      "coloscopie": 1542,
      "##imale": 1543,
      "##azol": 1544,
      "##asis": 1545,
      "duid": 1546,
      "##nst": 1547,
      "##gr": 1548,
      "##form": 1549,
      "diff": 1550,
      "mnd": 1551,
      "Gez": 1552,
      "##raal": 1553,
      "##27": 1554,
      "poli": 1555,
      "##wezig": 1556,
      "##mur": 1557,
      "cy": 1558,
      "##essie": 1559,
      "Medicatie": 1560,
      "toename": 1561,
      "Na": 1562,
      "##teken": 1563,
      "##11": 1564,
      "##pat": 1565,
      "##arcin": 1566,
      "##elf": 1567,
      "##DE": 1568,
      "##kl": 1569,
      "pols": 1570,
      "vergelijk": 1571,
      "Colon": 1572,
      "##ben": 1573,
      "##athie": 1574,
      "##uwe": 1575,
      "onge": 1576,
      "ileoc": 1577,
      "##lijst": 1578,
      "Echo": 1579,
      "se": 1580,
      "Ont": 1581,
      "mcp": 1582,
      "##AAM": 1583,
      "##ulair": 1584,
      "##etro": 1585,
      "##bouw": 1586,
      "infectie": 1587,
      "21": 1588,
      "##BDAT": 1589,
      "GEBDAT": 1590,
      "PATNAAM": 1591,
      "##to": 1592,
      "##ill": 1593,
      "##oden": 1594,
      "ca": 1595,
      "##zen": 1596,
      "chronische": 1597,
      "Pol": 1598,
      "2007": 1599,
      "milde": 1600,
      "beoorde": 1601,
      "bewegingsbeper": 1602,
      "x10": 1603,
      "Patholoog": 1604,
      "##roon": 1605,
      "VR": 1606,
      "verander": 1607,
      "volgt": 1608,
      "##act": 1609,
      "Ter": 1610,
      "Status": 1611,
      "##ductie": 1612,
      "behandeling": 1613,
      "vaat": 1614,
      "656": 1615,
      "##57": 1616,
      "effect": 1617,
      "diagnose": 1618,
      "VAS": 1619,
      "inter": 1620,
      "gewricht": 1621,
      "##est": 1622,
      "##umab": 1623,
      "##CH": 1624,
      "Prof": 1625,
      "stenose": 1626,
      "cor": 1627,
      "656704": 1628,
      "##kingen": 1629,
      "deze": 1630,
      "##sn": 1631,
      "Remicade": 1632,
      "ac": 1633,
      "negatief": 1634,
      "2020": 1635,
      "##fsel": 1636,
      "max": 1637,
      "##arcinoom": 1638,
      "##erende": 1639,
      "waarschijnlijk": 1640,
      "##tale": 1641,
      "##lex": 1642,
      "verhoog": 1643,
      "##100": 1644,
      "heb": 1645,
      "vocht": 1646,
      "Samenvatting": 1647,
      "##reat": 1648,
      "##EL": 1649,
      "##ogen": 1650,
      "##oet": 1651,
      "fistel": 1652,
      "##ragen": 1653,
      "##iente": 1654,
      "echo": 1655,
      "##zijds": 1656,
      "##urs": 1657,
      "ob": 1658,
      "22": 1659,
      "rond": 1660,
      "##ign": 1661,
      "##aties": 1662,
      "##ema": 1663,
      "##eup": 1664,
      "exacerbatie": 1665,
      "##muran": 1666,
      "##denking": 1667,
      "vrij": 1668,
      "laatste": 1669,
      "li": 1670,
      "##39": 1671,
      "lijkt": 1672,
      "aanwezig": 1673,
      "terug": 1674,
      "##iderzijds": 1675,
      "abdomen": 1676,
      "##OR": 1677,
      "##voel": 1678,
      "##heden": 1679,
      "##22": 1680,
      "nr": 1681,
      "Soort": 1682,
      "teken": 1683,
      "##unctie": 1684,
      "nie": 1685,
      "##OM": 1686,
      "##geven": 1687,
      "Ad": 1688,
      "lam": 1689,
      "##16": 1690,
      "##bleem": 1691,
      "distale": 1692,
      "res": 1693,
      "toont": 1694,
      "2006": 1695,
      "##deling": 1696,
      "werk": 1697,
      "##yse": 1698,
      "##linisch": 1699,
      "##sist": 1700,
      "##eerde": 1701,
      "##achting": 1702,
      "##ilat": 1703,
      "epitheel": 1704,
      "##uli": 1705,
      "bloedverlies": 1706,
      "rea": 1707,
      "Bekend": 1708,
      "##ompl": 1709,
      "zelf": 1710,
      "vit": 1711,
      "2000": 1712,
      "dec": 1713,
      "ps": 1714,
      "##ment": 1715,
      "##slijmvlies": 1716,
      "materiaal": 1717,
      "##bl": 1718,
      "##ject": 1719,
      "Maag": 1720,
      "gewicht": 1721,
      "thorax": 1722,
      "##imab": 1723,
      "Med": 1724,
      "for": 1725,
      "andere": 1726,
      "histologie": 1727,
      "##ethol": 1728,
      "##datum": 1729,
      "23": 1730,
      "coecum": 1731,
      "collegiale": 1732,
      "##MA": 1733,
      "klysma": 1734,
      "##issel": 1735,
      "##isselijk": 1736,
      "##ef": 1737,
      "hoogachting": 1738,
      "later": 1739,
      "zeer": 1740,
      "##met": 1741,
      "##ced": 1742,
      "##oo": 1743,
      "##dracht": 1744,
      "##59": 1745,
      "rustig": 1746,
      "geringe": 1747,
      "##sa": 1748,
      "##aren": 1749,
      "Prednison": 1750,
      "##eng": 1751,
      "DAS": 1752,
      "##ië": 1753,
      "ar": 1754,
      "##las": 1755,
      "##rouw": 1756,
      "##buik": 1757,
      "posit": 1758,
      "soms": 1759,
      "mmol": 1760,
      "gr": 1761,
      "Verricht": 1762,
      "beg": 1763,
      "muc": 1764,
      "ernst": 1765,
      "RR": 1766,
      "##ogra": 1767,
      "##igen": 1768,
      "##uk": 1769,
      "##lar": 1770,
      "Nee": 1771,
      "##lu": 1772,
      "pip": 1773,
      "uitgebre": 1774,
      "ziekte": 1775,
      "proctitis": 1776,
      "keer": 1777,
      "werd": 1778,
      "Sch": 1779,
      "wil": 1780,
      "III": 1781,
      "##17": 1782,
      "laes": 1783,
      "mee": 1784,
      "azathioprine": 1785,
      "Thuis": 1786,
      "wegens": 1787,
      "##als": 1788,
      "laag": 1789,
      "Me": 1790,
      "afbouw": 1791,
      "##tin": 1792,
      "resectie": 1793,
      "Gewicht": 1794,
      "198": 1795,
      "diameter": 1796,
      "gestaakt": 1797,
      "##enen": 1798,
      "maand": 1799,
      "##lig": 1800,
      "##ging": 1801,
      "HA": 1802,
      "Sinds": 1803,
      "##gem": 1804,
      "##ouch": 1805,
      "gebruikt": 1806,
      "##iding": 1807,
      "beper": 1808,
      "##LA": 1809,
      "##ede": 1810,
      "26": 1811,
      "Verrichting": 1812,
      "Overdracht": 1813,
      "##au": 1814,
      "schou": 1815,
      "Start": 1816,
      "propr": 1817,
      "##ijdens": 1818,
      "##enta": 1819,
      "hoe": 1820,
      "##SA": 1821,
      "##ato": 1822,
      "Ex": 1823,
      "##pervlak": 1824,
      "##ectomie": 1825,
      "PC": 1826,
      "chol": 1827,
      "geweest": 1828,
      "##LING": 1829,
      "status": 1830,
      "recid": 1831,
      "##woord": 1832,
      "##imaal": 1833,
      "##oel": 1834,
      "00000100": 1835,
      "intra": 1836,
      "vervolgconsult": 1837,
      "mesalazine": 1838,
      "dos": 1839,
      "Thuismedicatie": 1840,
      "propria": 1841,
      "toch": 1842,
      "##gelmat": 1843,
      "75": 1844,
      "colonoscopie": 1845,
      "27": 1846,
      "Naam": 1847,
      "##inig": 1848,
      "waarbij": 1849,
      "##ikliniek": 1850,
      "##wegen": 1851,
      "Niet": 1852,
      "afdeling": 1853,
      "Vervolgconsult": 1854,
      "pre": 1855,
      "##derd": 1856,
      "tra": 1857,
      "##oth": 1858,
      "##ursus": 1859,
      "##yn": 1860,
      "vergelijking": 1861,
      "##av": 1862,
      "##troductie": 1863,
      "crypten": 1864,
      "##do": 1865,
      "##ctomie": 1866,
      "29": 1867,
      "tekenen": 1868,
      "misselijk": 1869,
      "00": 1870,
      "erg": 1871,
      "lu": 1872,
      "##cedure": 1873,
      "##ase": 1874,
      "uw": 1875,
      "verm": 1876,
      "Te": 1877,
      "##tre": 1878,
      "##rop": 1879,
      "radioloog": 1880,
      "druk": 1881,
      "mal": 1882,
      "nier": 1883,
      "##uren": 1884,
      "##kelijk": 1885,
      "##urinethol": 1886,
      "Verder": 1887,
      "2x": 1888,
      "ze": 1889,
      "##alisme": 1890,
      "zicht": 1891,
      "zwelling": 1892,
      "spie": 1893,
      "bel": 1894,
      "##astom": 1895,
      "Interval": 1896,
      "##edatum": 1897,
      "##ergie": 1898,
      "anus": 1899,
      "##cm": 1900,
      "##icaties": 1901,
      "##ofalk": 1902,
      "ja": 1903,
      "verst": 1904,
      "##maal": 1905,
      "##dag": 1906,
      "##ES": 1907,
      "haar": 1908,
      "aanv": 1909,
      "##ann": 1910,
      "lamina": 1911,
      "2005": 1912,
      "stab": 1913,
      "##pecif": 1914,
      "hebben": 1915,
      "Ook": 1916,
      "##verd": 1917,
      "##aire": 1918,
      "##amil": 1919,
      "gestart": 1920,
      "##30": 1921,
      "bijz": 1922,
      "IV": 1923,
      "500": 1924,
      "verwij": 1925,
      "gevoel": 1926,
      "Bl": 1927,
      "best": 1928,
      "##ers": 1929,
      "##resectie": 1930,
      "60": 1931,
      "##vind": 1932,
      "Hier": 1933,
      "##lop": 1934,
      "##gez": 1935,
      "088": 1936,
      "Laatst": 1937,
      "prox": 1938,
      "##cohol": 1939,
      "##alyse": 1940,
      "##ichting": 1941,
      "##44": 1942,
      "##95": 1943,
      "FCP": 1944,
      "##kund": 1945,
      "##Name": 1946,
      "duoden": 1947,
      "##patroon": 1948,
      "##entasa": 1949,
      "##ple": 1950,
      "##blemen": 1951,
      "##ret": 1952,
      "wk": 1953,
      "Pijnlijke": 1954,
      "##stru": 1955,
      "##eker": 1956,
      "behand": 1957,
      "procedure": 1958,
      "##ub": 1959,
      "##gew": 1960,
      "##iele": 1961,
      "##ikking": 1962,
      "herst": 1963,
      "##aad": 1964,
      "##these": 1965,
      "##dem": 1966,
      "##trofie": 1967,
      "nieuwe": 1968,
      "Wel": 1969,
      "##vallen": 1970,
      "##IP": 1971,
      "operatie": 1972,
      "peri": 1973,
      "AZ": 1974,
      "CS00050": 1975,
      "Geboort": 1976,
      "wissel": 1977,
      "##AAG": 1978,
      "rood": 1979,
      "##stand": 1980,
      "##ette": 1981,
      "##pecifiek": 1982,
      "##ctuur": 1983,
      "enige": 1984,
      "##RDER": 1985,
      "graag": 1986,
      "##ïd": 1987,
      "ORDER": 1988,
      "##ostoma": 1989,
      "##tal": 1990,
      "CF": 1991,
      "rug": 1992,
      "##aast": 1993,
      "##MER": 1994,
      "##led": 1995,
      "##leb": 1996,
      "SE": 1997,
      "hepatologie": 1998,
      "bijzonder": 1999,
      "handen": 2000,
      "oppervlak": 2001,
      "##tect": 2002,
      "##ypt": 2003,
      "##ion": 2004,
      "consult": 2005,
      "twee": 2006,
      "wand": 2007,
      "##cellen": 2008,
      "##pl": 2009,
      "plaatse": 2010,
      "gem": 2011,
      "komt": 2012,
      "beleid": 2013,
      "##chts": 2014,
      "200005020": 2015,
      "##ieve": 2016,
      "Abdomen": 2017,
      "##wel": 2018,
      "##romb": 2019,
      "jan": 2020,
      "##wand": 2021,
      "##ate": 2022,
      "##oornis": 2023,
      "AF": 2024,
      "##gaan": 2025,
      "VRC": 2026,
      "surveillance": 2027,
      "##79": 2028,
      "##74": 2029,
      "verricht": 2030,
      "##caal": 2031,
      "diver": 2032,
      "##oscoop": 2033,
      "beiderzijds": 2034,
      "Mon": 2035,
      "##cept": 2036,
      "overleg": 2037,
      "Gezwollen": 2038,
      "anastom": 2039,
      "bijzonderheden": 2040,
      "meerdere": 2041,
      "red": 2042,
      "##vorming": 2043,
      "##ussen": 2044,
      "ten": 2045,
      "Huid": 2046,
      "genomen": 2047,
      "##erkingen": 2048,
      "stabiel": 2049,
      "##AL": 2050,
      "veranderingen": 2051,
      "hel": 2052,
      "che": 2053,
      "##oge": 2054,
      "enter": 2055,
      "sn": 2056,
      "Ro": 2057,
      "CU": 2058,
      "spr": 2059,
      "name": 2060,
      "BSE": 2061,
      "##erent": 2062,
      "zichtbaar": 2063,
      "Inf": 2064,
      "##rod": 2065,
      "##doende": 2066,
      "Colitis": 2067,
      "Specialisme": 2068,
      "##omet": 2069,
      "##beeld": 2070,
      "bezoek": 2071,
      "##wege": 2072,
      "ernstige": 2073,
      "##eft": 2074,
      "leverarts": 2075,
      "fib": 2076,
      "gewrichts": 2077,
      "##oon": 2078,
      "Hb": 2079,
      "##lix": 2080,
      "aden": 2081,
      "focaal": 2082,
      "verdenking": 2083,
      "##emen": 2084,
      "cons": 2085,
      "##bleemlijst": 2086,
      "tum": 2087,
      "card": 2088,
      "beoord": 2089,
      "neu": 2090,
      "IN": 2091,
      "An": 2092,
      "Tevens": 2093,
      "##58": 2094,
      "infuus": 2095,
      "heup": 2096,
      "stoma": 2097,
      "anastomose": 2098,
      "Aard": 2099,
      "gram": 2100,
      "##arameter": 2101,
      "Probleemlijst": 2102,
      "crypt": 2103,
      "at": 2104,
      "##euze": 2105,
      "##requ": 2106,
      "##opathie": 2107,
      "Advies": 2108,
      "##53": 2109,
      "zien": 2110,
      "oed": 2111,
      "##cy": 2112,
      "##tensie": 2113,
      "oste": 2114,
      "plaats": 2115,
      "##su": 2116,
      "##aken": 2117,
      "arth": 2118,
      "##uncti": 2119,
      "welke": 2120,
      "2004": 2121,
      "##orta": 2122,
      "##onden": 2123,
      "##ikt": 2124,
      "##regen": 2125,
      "##kw": 2126,
      "blij": 2127,
      "##cus": 2128,
      "##pril": 2129,
      "Thorax": 2130,
      "supp": 2131,
      "Dec": 2132,
      "mucosa": 2133,
      "ser": 2134,
      "70": 2135,
      "eb": 2136,
      "wit": 2137,
      "##26": 2138,
      "matig": 2139,
      "app": 2140,
      "##ulaire": 2141,
      "##nieuw": 2142,
      "steeds": 2143,
      "##liximab": 2144,
      "##ervel": 2145,
      "##rosie": 2146,
      "##amilie": 2147,
      "##engte": 2148,
      "sle": 2149,
      "##mol": 2150,
      "morbus": 2151,
      "beoordeeld": 2152,
      "##onen": 2153,
      "lo": 2154,
      "VI": 2155,
      "alleen": 2156,
      "##ilatatie": 2157,
      "80": 2158,
      "RES": 2159,
      "path": 2160,
      "huisarts": 2161,
      "beide": 2162,
      "Rec": 2163,
      "##elef": 2164,
      "##air": 2165,
      "##uiten": 2166,
      "##tectine": 2167,
      "##behandeling": 2168,
      "gek": 2169,
      "##irurg": 2170,
      "Gebruik": 2171,
      "##arten": 2172,
      "##itu": 2173,
      "##inale": 2174,
      "250": 2175,
      "##DS": 2176,
      "verbeter": 2177,
      "##jectie": 2178,
      "##inder": 2179,
      "hij": 2180,
      "##achte": 2181,
      "##olitis": 2182,
      "##gels": 2183,
      "schouder": 2184,
      "##pecum": 2185,
      "str": 2186,
      "##lamm": 2187,
      "##uni": 2188,
      "hart": 2189,
      "Cal": 2190,
      "##out": 2191,
      "##ERS": 2192,
      "ger": 2193,
      "DI": 2194,
      "CS0000380": 2195,
      "##reas": 2196,
      "endoscopie": 2197,
      "##vel": 2198,
      "##atieve": 2199,
      "bewegingsbeperkingen": 2200,
      "ml": 2201,
      "ontstekingsinf": 2202,
      "##entr": 2203,
      "##ST": 2204,
      "##idder": 2205,
      "Ent": 2206,
      "Link": 2207,
      "Buik": 2208,
      "granulocyten": 2209,
      "com": 2210,
      "erosie": 2211,
      "##unction": 2212,
      "##ember": 2213,
      "##br": 2214,
      "##ERZ": 2215,
      "##WK": 2216,
      "rectaal": 2217,
      "ontvang": 2218,
      "Geboortedatum": 2219,
      "##versie": 2220,
      "co": 2221,
      "gev": 2222,
      "##pleeg": 2223,
      "##idazol": 2224,
      "tijdens": 2225,
      "##gelmatig": 2226,
      "##alofalk": 2227,
      "##UMMER": 2228,
      "dik": 2229,
      "##gang": 2230,
      "uitgebreide": 2231,
      "Controle": 2232,
      "##meen": 2233,
      "##ied": 2234,
      "##ans": 2235,
      "##yst": 2236,
      "2003": 2237,
      "redelijk": 2238,
      "##ijf": 2239,
      "##ees": 2240,
      "gastro": 2241,
      "hoofd": 2242,
      "Sp": 2243,
      "aug": 2244,
      "wij": 2245,
      "##midd": 2246,
      "ontstekingsinfiltraat": 2247,
      "##uze": 2248,
      "##oecaal": 2249,
      "Co": 2250,
      "##ili": 2251,
      "##openie": 2252,
      "##gemeen": 2253,
      "verband": 2254,
      "ontvangst": 2255,
      "volgende": 2256,
      "##nr": 2257,
      "Fidder": 2258,
      "2dd": 2259,
      "antwoord": 2260,
      "##lust": 2261,
      "Erpecum": 2262,
      "##gest": 2263,
      "##ening": 2264,
      "nov": 2265,
      "heel": 2266,
      "Indien": 2267,
      "patiente": 2268,
      "mei": 2269,
      "##oid": 2270,
      "bas": 2271,
      "##low": 2272,
      "bot": 2273,
      "##tinu": 2274,
      "ef": 2275,
      "##28": 2276,
      "##let": 2277,
      "##TO": 2278,
      "bet": 2279,
      "As": 2280,
      "##ader": 2281,
      "vanwege": 2282,
      "dus": 2283,
      "##riend": 2284,
      "##LAG": 2285,
      "mic": 2286,
      "##neum": 2287,
      "pleur": 2288,
      "anti": 2289,
      "Van": 2290,
      "weinig": 2291,
      "collega": 2292,
      "Patientnr": 2293,
      "PATNUMMER": 2294,
      "tel": 2295,
      "##carcinoom": 2296,
      "##lek": 2297,
      "##are": 2298,
      "##ERSLAG": 2299,
      "LO": 2300,
      "VERSLAG": 2301,
      "##rot": 2302,
      "##iële": 2303,
      "Gebruikt": 2304,
      "Onder": 2305,
      "##igniteit": 2306,
      "daarna": 2307,
      "afbouwen": 2308,
      "up": 2309,
      "hand": 2310,
      "##stoornis": 2311,
      "rest": 2312,
      "##alisatie": 2313,
      "vriend": 2314,
      "##ologische": 2315,
      "feces": 2316,
      "Le": 2317,
      "hyp": 2318,
      "Ile": 2319,
      "samenvatting": 2320,
      "##tocol": 2321,
      "sein": 2322,
      "besproken": 2323,
      "##waar": 2324,
      "Ontlasting": 2325,
      "Gast": 2326,
      "##ractuur": 2327,
      "##29": 2328,
      "Azathioprine": 2329,
      "88": 2330,
      "##pleegkund": 2331,
      "##spraken": 2332,
      "evid": 2333,
      "indien": 2334,
      "goede": 2335,
      "##ografie": 2336,
      "##loten": 2337,
      "alcohol": 2338,
      "kun": 2339,
      "verwijderd": 2340,
      "##ule": 2341,
      "AZA": 2342,
      "Rect": 2343,
      "##door": 2344,
      "##kelb": 2345,
      "##Creatie": 2346,
      "deels": 2347,
      "pancreas": 2348,
      "##umb": 2349,
      "oog": 2350,
      "##kleur": 2351,
      "##euk": 2352,
      "##trecht": 2353,
      "entoc": 2354,
      "bijwerken": 2355,
      "##leed": 2356,
      "granulomen": 2357,
      "inflamm": 2358,
      "remicade": 2359,
      "groot": 2360,
      "Def": 2361,
      "recidief": 2362,
      "##onde": 2363,
      "##etlust": 2364,
      "##pecifieke": 2365,
      "##verdikking": 2366,
      "afgenomen": 2367,
      "verl": 2368,
      "juni": 2369,
      "elleb": 2370,
      "##antie": 2371,
      "vet": 2372,
      "##ocort": 2373,
      "##blaas": 2374,
      "ur": 2375,
      "entocort": 2376,
      "##ologisch": 2377,
      "##oeid": 2378,
      "telef": 2379,
      "Decursus": 2380,
      "##rale": 2381,
      "##ednisolon": 2382,
      "##enm": 2383,
      "##ulier": 2384,
      "##ocht": 2385,
      "Goed": 2386,
      "##leden": 2387,
      "feb": 2388,
      "##kelbaan": 2389,
      "waarin": 2390,
      "SEH": 2391,
      "IF": 2392,
      "duidelijke": 2393,
      "val": 2394,
      "##aden": 2395,
      "ik": 2396,
      "##25": 2397,
      "##pon": 2398,
      "uitslag": 2399,
      "CS00052": 2400,
      "Monkelbaan": 2401,
      "##ert": 2402,
      "verhoogd": 2403,
      "49": 2404,
      "##wijkingen": 2405,
      "##vocht": 2406,
      "toegenomen": 2407,
      "2000050206": 2408,
      "37": 2409,
      "##gd": 2410,
      "Endoscopie": 2411,
      "IC": 2412,
      "okt": 2413,
      "nodig": 2414,
      "Utrecht": 2415,
      "ep": 2416,
      "post": 2417,
      "tab": 2418,
      "##RM": 2419,
      "calprotectine": 2420,
      "##ess": 2421,
      "##onisch": 2422,
      "##oeding": 2423,
      "##OS": 2424,
      "##81": 2425,
      "##klier": 2426,
      "oes": 2427,
      "IFX": 2428,
      "analyse": 2429,
      "inform": 2430,
      "31": 2431,
      "##okt": 2432,
      "36": 2433,
      "IS": 2434,
      "april": 2435,
      "##chite": 2436,
      "divert": 2437,
      "mw": 2438,
      "##kelet": 2439,
      "DMA": 2440,
      "##zer": 2441,
      "opnieuw": 2442,
      "maart": 2443,
      "Bekende": 2444,
      "ileostoma": 2445,
      "lucht": 2446,
      "voorgeschiedenis": 2447,
      "vast": 2448,
      "pt": 2449,
      "pal": 2450,
      "hele": 2451,
      "zou": 2452,
      "##ziek": 2453,
      "030": 2454,
      "DMARD": 2455,
      "maligniteit": 2456,
      "dilatatie": 2457,
      "##biopt": 2458,
      "CM": 2459,
      "##roscopie": 2460,
      "##amine": 2461,
      "##elijks": 2462,
      "chef": 2463,
      "zij": 2464,
      "##gelopen": 2465,
      "dagbehandeling": 2466,
      "pijnlijk": 2467,
      "klinisch": 2468,
      "##innen": 2469,
      "##ecret": 2470,
      "even": 2471,
      "##rote": 2472,
      "##XX": 2473,
      "##DELING": 2474,
      "volgens": 2475,
      "bekken": 2476,
      "mam": 2477,
      "##lis": 2478,
      "Zie": 2479,
      "duodenum": 2480,
      "gele": 2481,
      "##gesproken": 2482,
      "passen": 2483,
      "##gaar": 2484,
      "forse": 2485,
      "##ctief": 2486,
      "bekleed": 2487,
      "vl": 2488,
      "##welling": 2489,
      "##cor": 2490,
      "Entocort": 2491,
      "Introductie": 2492,
      "##ractus": 2493,
      "##rex": 2494,
      "Daar": 2495,
      "##ulm": 2496,
      "eind": 2497,
      "##bere": 2498,
      "chronisch": 2499,
      "##rodese": 2500,
      "voeten": 2501,
      "laesie": 2502,
      "groet": 2503,
      "or": 2504,
      "different": 2505,
      "##menten": 2506,
      "TH": 2507,
      "cellen": 2508,
      "geleden": 2509,
      "##DA": 2510,
      "##weefsel": 2511,
      "##gevo": 2512,
      "imm": 2513,
      "44": 2514,
      "##str": 2515,
      "##ca": 2516,
      "CA": 2517,
      "beoordelen": 2518,
      "##erend": 2519,
      "##cologie": 2520,
      "##zumab": 2521,
      "afwijking": 2522,
      "##huis": 2523,
      "ileocoecaal": 2524,
      "bijwerkingen": 2525,
      "afge": 2526,
      "##sm": 2527,
      "Surveillance": 2528,
      "##alist": 2529,
      "EN": 2530,
      "behandeld": 2531,
      "append": 2532,
      "##dz": 2533,
      "##pressie": 2534,
      "pleura": 2535,
      "DARM": 2536,
      "Ja": 2537,
      "##sl": 2538,
      "##lergie": 2539,
      "##anger": 2540,
      "juli": 2541,
      "##asc": 2542,
      "gehele": 2543,
      "##och": 2544,
      "200013": 2545,
      "##cre": 2546,
      "##ui": 2547,
      "kunnen": 2548,
      "ing": 2549,
      "Endoscoop": 2550,
      "##ekl": 2551,
      "20001346": 2552,
      "Door": 2553,
      "755": 2554,
      "rel": 2555,
      "##gevoerd": 2556,
      "EEN": 2557,
      "##geleken": 2558,
      "bep": 2559,
      "oraal": 2560,
      "infiltraat": 2561,
      "telefonisch": 2562,
      "medic": 2563,
      "vriendelijke": 2564,
      "##iceerd": 2565,
      "2002": 2566,
      "wee": 2567,
      "aand": 2568,
      "jar": 2569,
      "onderhoud": 2570,
      "rechterhand": 2571,
      "kw": 2572,
      "##iltr": 2573,
      "vand": 2574,
      "##wijzigd": 2575,
      "milt": 2576,
      "MCP": 2577,
      "##oliep": 2578,
      "##ooit": 2579,
      "38": 2580,
      "Nog": 2581,
      "imuran": 2582,
      "prim": 2583,
      "##leggaar": 2584,
      "humira": 2585,
      "bdz": 2586,
      "DIT": 2587,
      "##mming": 2588,
      "lig": 2589,
      "basis": 2590,
      "Vleggaar": 2591,
      "stoppen": 2592,
      "##49": 2593,
      "cassette": 2594,
      "lichte": 2595,
      "##ERD": 2596,
      "##iver": 2597,
      "jarige": 2598,
      "ech": 2599,
      "##66": 2600,
      "tevens": 2601,
      "Pré": 2602,
      "##astas": 2603,
      "##chitectuur": 2604,
      "therapie": 2605,
      "hal": 2606,
      "urine": 2607,
      "prothese": 2608,
      "doorsn": 2609,
      "##ffen": 2610,
      "##functie": 2611,
      "##hin": 2612,
      "##igmoid": 2613,
      "vanaf": 2614,
      "bra": 2615,
      "##lasse": 2616,
      "##rug": 2617,
      "pneum": 2618,
      "##ling": 2619,
      "##omat": 2620,
      "PM": 2621,
      "klein": 2622,
      "purinethol": 2623,
      "##43": 2624,
      "morgen": 2625,
      "##uma": 2626,
      "##aand": 2627,
      "dosering": 2628,
      "Crohnse": 2629,
      "##ijde": 2630,
      "stenos": 2631,
      "lon": 2632,
      "##AU": 2633,
      "##366": 2634,
      "ulcera": 2635,
      "##TEN": 2636,
      "Hem": 2637,
      "problemen": 2638,
      "voet": 2639,
      "##oep": 2640,
      "BS": 2641,
      "vermoeid": 2642,
      "staat": 2643,
      "CMV": 2644,
      "vaatpatroon": 2645,
      "##aande": 2646,
      "vor": 2647,
      "##nte": 2648,
      "Imuran": 2649,
      "vandaag": 2650,
      "90": 2651,
      "000": 2652,
      "drukpijn": 2653,
      "compl": 2654,
      "super": 2655,
      "##ultip": 2656,
      "Algemeen": 2657,
      "45": 2658,
      "ref": 2659,
      "##dom": 2660,
      "VG": 2661,
      "tonen": 2662,
      "geboren": 2663,
      "##enter": 2664,
      "##zicht": 2665,
      "begin": 2666,
      "Tractus": 2667,
      "##ank": 2668,
      "DAG": 2669,
      "##lanke": 2670,
      "##OL": 2671,
      "AL": 2672,
      "Links": 2673,
      "##rth": 2674,
      "Mil": 2675,
      "Mor": 2676,
      "##voldoende": 2677,
      "ap": 2678,
      "##istent": 2679,
      "atyp": 2680,
      "MC": 2681,
      "moet": 2682,
      "cl": 2683,
      "##icul": 2684,
      "midd": 2685,
      "##ecatie": 2686,
      "GI": 2687,
      "##reven": 2688,
      "Diagnose": 2689,
      "##idazolam": 2690,
      "##kk": 2691,
      "pred": 2692,
      "Secret": 2693,
      "##ept": 2694,
      "##aard": 2695,
      "conform": 2696,
      "##udie": 2697,
      "##eto": 2698,
      "##uim": 2699,
      "hyd": 2700,
      "##osis": 2701,
      "Wil": 2702,
      "##NUM": 2703,
      "##zuur": 2704,
      "TEL": 2705,
      "##ouwd": 2706,
      "##pk": 2707,
      "enkel": 2708,
      "##reid": 2709,
      "##ox": 2710,
      "wervel": 2711,
      "TELNUM": 2712,
      "colectomie": 2713,
      "##otherapie": 2714,
      "##ris": 2715,
      "##oper": 2716,
      "##sh": 2717,
      "bekende": 2718,
      "Coloscopie": 2719,
      "hou": 2720,
      "hoogte": 2721,
      "##inaal": 2722,
      "##ariaat": 2723,
      "##laring": 2724,
      "fol": 2725,
      "Per": 2726,
      "lymfekl": 2727,
      "##TORI": 2728,
      "continu": 2729,
      "##isie": 2730,
      "opvla": 2731,
      "##osin": 2732,
      "##B2": 2733,
      "##tijd": 2734,
      "injectie": 2735,
      "weefsel": 2736,
      "##SEERD": 2737,
      "##urende": 2738,
      "GEAU": 2739,
      "##TORISEERD": 2740,
      "GEAUTORISEERD": 2741,
      "am": 2742,
      "doorgem": 2743,
      "ond": 2744,
      "eerste": 2745,
      "tussen": 2746,
      "blaas": 2747,
      "gaan": 2748,
      "##requentie": 2749,
      "ij": 2750,
      "ASA": 2751,
      "spiegels": 2752,
      "eigen": 2753,
      "vooral": 2754,
      "ben": 2755,
      "##MD": 2756,
      "Hy": 2757,
      "lit": 2758,
      "aankleur": 2759,
      "##ici": 2760,
      "FU": 2761,
      "duidelijk": 2762,
      "##ason": 2763,
      "kleur": 2764,
      "##ins": 2765,
      "nieren": 2766,
      "##activiteit": 2767,
      "##NF": 2768,
      "galblaas": 2769,
      "oedeem": 2770,
      "tumor": 2771,
      "PATNR": 2772,
      "binnen": 2773,
      "##test": 2774,
      "AFDELING": 2775,
      "cerv": 2776,
      "##ori": 2777,
      "pouch": 2778,
      "Vit": 2779,
      "##schap": 2780,
      "##zijdige": 2781,
      "Mes": 2782,
      "laten": 2783,
      "evt": 2784,
      "##visie": 2785,
      "chirurg": 2786,
      "medi": 2787,
      "##MG": 2788,
      "iom": 2789,
      "##AAL": 2790,
      "LEV": 2791,
      "dra": 2792,
      "qu": 2793,
      "##RA": 2794,
      "meest": 2795,
      "##ORA": 2796,
      "##77": 2797,
      "BSN": 2798,
      "##275": 2799,
      "extra": 2800,
      "Afspraken": 2801,
      "2000134652": 2802,
      "contra": 2803,
      "##pes": 2804,
      "betre": 2805,
      "##gebouwd": 2806,
      "##org": 2807,
      "3m": 2808,
      "dis": 2809,
      "verhoogde": 2810,
      "fl": 2811,
      "##rit": 2812,
      "##aald": 2813,
      "##ane": 2814,
      "Zo": 2815,
      "slecht": 2816,
      "out": 2817,
      "##rek": 2818,
      "bevind": 2819,
      "##reerd": 2820,
      "##88": 2821,
      "Laatste": 2822,
      "##IEK": 2823,
      "92": 2824,
      "##kwab": 2825,
      "DC": 2826,
      "prik": 2827,
      "gevonden": 2828,
      "##gesloten": 2829,
      "##ultipele": 2830,
      "##usc": 2831,
      "##halve": 2832,
      "##otische": 2833,
      "##kol": 2834,
      "##roscop": 2835,
      "afw": 2836,
      "starten": 2837,
      "neutrofie": 2838,
      "##reeg": 2839,
      "##23": 2840,
      "oncologie": 2841,
      "Ass": 2842,
      "Polikliniek": 2843,
      "achter": 2844,
      "##tekening": 2845,
      "Veel": 2846,
      "eerdere": 2847,
      "##ekend": 2848,
      "##15": 2849,
      "##ift": 2850,
      "##osinof": 2851,
      "CS000383": 2852,
      "thuis": 2853,
      "cir": 2854,
      "perian": 2855,
      "Eer": 2856,
      "AB": 2857,
      "##erkt": 2858,
      "man": 2859,
      "doen": 2860,
      "Fax": 2861,
      "Vo": 2862,
      "Familie": 2863,
      "Opname": 2864,
      "##bereiding": 2865,
      "##lag": 2866,
      "MAAG": 2867,
      "##5533": 2868,
      "##naast": 2869,
      "Secretariaat": 2870,
      "Pat": 2871,
      "stuk": 2872,
      "CD": 2873,
      "gl": 2874,
      "zwanger": 2875,
      "##flex": 2876,
      "##IEKTEN": 2877,
      "##ERZIEKTEN": 2878,
      "LEVERZIEKTEN": 2879,
      "gebied": 2880,
      "distaal": 2881,
      "##7366": 2882,
      "##ofag": 2883,
      "evidente": 2884,
      "zal": 2885,
      "##ORAX": 2886,
      "##5740": 2887,
      "advies": 2888,
      "##ity": 2889,
      "##veer": 2890,
      "proximale": 2891,
      "blijft": 2892,
      "comp": 2893,
      "bed": 2894,
      "##cisie": 2895,
      "appendix": 2896,
      "sin": 2897,
      "##kolom": 2898,
      "##ex": 2899,
      "##ors": 2900,
      "##acter": 2901,
      "Bloed": 2902,
      "FN": 2903,
      "##ereg": 2904,
      "##halen": 2905,
      "pseu": 2906,
      "##cc": 2907,
      "slaa": 2908,
      "##wit": 2909,
      "Pentasa": 2910,
      "TI": 2911,
      "infliximab": 2912,
      "sterk": 2913,
      "##afwijkingen": 2914,
      "##room": 2915,
      "2021": 2916,
      "##steking": 2917,
      "dysp": 2918,
      "pancolitis": 2919,
      "##oscop": 2920,
      "oor": 2921,
      "##AM": 2922,
      "linkerhand": 2923,
      "staken": 2924,
      "studie": 2925,
      "Een": 2926,
      "0DA": 2927,
      "wek": 2928,
      "##veel": 2929,
      "PIP": 2930,
      "##auhin": 2931,
      "Specialist": 2932,
      "ker": 2933,
      "scan": 2934,
      "Salofalk": 2935,
      "##uun": 2936,
      "Overweging": 2937,
      "##enz": 2938,
      "galwegen": 2939,
      "Ch": 2940,
      "##istreerd": 2941,
      "Assistent": 2942,
      "##va": 2943,
      "Gastro": 2944,
      "uitgevoerd": 2945,
      "Her": 2946,
      "Midazolam": 2947,
      "braken": 2948,
      "##slagen": 2949,
      "ges": 2950,
      "AC": 2951,
      "volled": 2952,
      "maal": 2953,
      "##lank": 2954,
      "##EX": 2955,
      "acu": 2956,
      "##eregistreerd": 2957,
      "AA": 2958,
      "##Geregistreerd": 2959,
      "prednisolon": 2960,
      "##adenopathie": 2961,
      "##ive": 2962,
      "Function": 2963,
      "##KO": 2964,
      "crohn": 2965,
      "##cler": 2966,
      "reumat": 2967,
      "misselijkheid": 2968,
      "##ei": 2969,
      "Buikpijn": 2970,
      "skelet": 2971,
      "il": 2972,
      "sep": 2973,
      "##stoornissen": 2974,
      "aorta": 2975,
      "2001": 2976,
      "eten": 2977,
      "##rad": 2978,
      "##vrouw": 2979,
      "poliepen": 2980,
      "##verander": 2981,
      "##98": 2982,
      "AI": 2983,
      "kLINISCHE": 2984,
      "##24": 2985,
      "onvoldoende": 2986,
      "traject": 2987,
      "Soc": 2988,
      "##rexaat": 2989,
      "opvlamming": 2990,
      "##yt": 2991,
      "inz": 2992,
      "Mesalazine": 2993,
      "##uari": 2994,
      "##abet": 2995,
      "pte": 2996,
      "##emp": 2997,
      "##rosies": 2998,
      "35": 2999,
      "##onie": 3000,
      "lengte": 3001,
      "##otrexaat": 3002,
      "##onderzoek": 3003,
      "positief": 3004,
      "##oston": 3005,
      "##afd": 3006,
      "bewegingsbeperking": 3007,
      "aanvr": 3008,
      "##dien": 3009,
      "anemie": 3010,
      "bezoekdatum": 3011,
      "verslagdatum": 3012,
      "differentiële": 3013,
      "##kg": 3014,
      "##fen": 3015,
      "voelt": 3016,
      "gist": 3017,
      "sigmoïd": 3018,
      "zit": 3019,
      "##been": 3020,
      "O7": 3021,
      "OC": 3022,
      "THORAX": 3023,
      "onderzoekafd": 3024,
      "4B2": 3025,
      "0000000": 3026,
      "gift": 3027,
      "Mw": 3028,
      "##4674": 3029,
      "plan": 3030,
      "Mod": 3031,
      "##56A": 3032,
      "9F": 3033,
      "##19A": 3034,
      "4B2B": 3035,
      "Boston": 3036,
      "##E4674": 3037,
      "##95E4674": 3038,
      "8856A": 3039,
      "DC81": 3040,
      "0DA19A": 3041,
      "9F47": 3042,
      "8856A95E4674": 3043,
      "0DA19A56": 3044,
      "Milde": 3045,
      "##uurd": 3046,
      "##bare": 3047,
      "vermin": 3048,
      "part": 3049,
      "##rol": 3050,
      "grote": 3051,
      "##ularis": 3052,
      "arthrodese": 3053,
      "##reflex": 3054,
      "##aakte": 3055,
      "TA": 3056,
      "##yc": 3057,
      "##ake": 3058,
      "##ay": 3059,
      "##pil": 3060,
      "##elbaar": 3061,
      "Bauhin": 3062,
      "zn": 3063,
      "pleuravocht": 3064,
      "##shoofd": 3065,
      "recept": 3066,
      "comb": 3067,
      "BO": 3068,
      "##gt": 3069,
      "dal": 3070,
      "##vangen": 3071,
      "deel": 3072,
      "persist": 3073,
      "##lux": 3074,
      "3x": 3075,
      "lage": 3076,
      "##GIN": 3077,
      "erosies": 3078,
      "##one": 3079,
      "##542": 3080,
      "betreft": 3081,
      "ORI": 3082,
      "isch": 3083,
      "##vast": 3084,
      "hypertensie": 3085,
      "##gev": 3086,
      "FUNC": 3087,
      "##ality": 3088,
      "##ratie": 3089,
      "polikliniek": 3090,
      "##Guid": 3091,
      "lymfadenopathie": 3092,
      "indicatie": 3093,
      "##DEF": 3094,
      "9D": 3095,
      "##COM": 3096,
      "Parameter": 3097,
      "neutrofiele": 3098,
      "##GINAL": 3099,
      "ORIGINAL": 3100,
      "CFG": 3101,
      "##40C": 3102,
      "##Classe": 3103,
      "ORDERCOM": 3104,
      "CoClasse": 3105,
      "##uleName": 3106,
      "FNM": 3107,
      "Functionality": 3108,
      "ModuleName": 3109,
      "FUNCDEF": 3110,
      "CoClasseGuid": 3111,
      "FunctionalityName": 3112,
      "LWK": 3113,
      "erosieve": 3114,
      "##entan": 3115,
      "vis": 3116,
      "150": 3117,
      "##orst": 3118,
      "##reflexen": 3119,
      "vraag": 3120,
      "##oken": 3121,
      "besch": 3122,
      "We": 3123,
      "##tox": 3124,
      "verleden": 3125,
      "tegen": 3126,
      "##compl": 3127,
      "protocol": 3128,
      "##pec": 3129,
      "ongeveer": 3130,
      "sept": 3131,
      "##ime": 3132,
      "39": 3133,
      "##hel": 3134,
      "##erde": 3135,
      "##CHO": 3136,
      "##dur": 3137,
      "##ww": 3138,
      "MCV": 3139,
      "vak": 3140,
      "herstart": 3141,
      "millig": 3142,
      "milligram": 3143,
      "5mg": 3144,
      "dunn": 3145,
      "scoop": 3146,
      "cyste": 3147,
      "palp": 3148,
      "##pus": 3149,
      "artrose": 3150,
      "afdelingshoofd": 3151,
      "##stip": 3152,
      "##rijk": 3153,
      "##orte": 3154,
      "##gressie": 3155,
      "nooit": 3156,
      "gegeven": 3157,
      "##aliteit": 3158,
      "wisselend": 3159,
      "spier": 3160,
      "verbetering": 3161,
      "TNF": 3162,
      "##gegevens": 3163,
      "##rampen": 3164,
      "##ator": 3165,
      "VII": 3166,
      "Onge": 3167,
      "slijmb": 3168,
      "##elde": 3169,
      "klep": 3170,
      "echt": 3171,
      "elleboog": 3172,
      "zet": 3173,
      "asc": 3174,
      "##hotrexaat": 3175,
      "fer": 3176,
      "##minale": 3177,
      "Rechts": 3178,
      "klinische": 3179,
      "sed": 3180,
      "rondom": 3181,
      "onre": 3182,
      "##imumab": 3183,
      "Overige": 3184,
      "sprake": 3185,
      "##anning": 3186,
      "B12": 3187,
      "gebeld": 3188,
      "hoge": 3189,
      "##chtend": 3190,
      "ijzer": 3191,
      "aanvang": 3192,
      "##amer": 3193,
      "ery": 3194,
      "ven": 3195,
      "##entanyl": 3196,
      "##ger": 3197,
      "##57403": 3198,
      "seg": 3199,
      "##afspraak": 3200,
      "2000057403": 3201,
      "##oeder": 3202,
      "##iliteit": 3203,
      "##structie": 3204,
      "hals": 3205,
      "##istal": 3206,
      "aankleuring": 3207,
      "##ontre": 3208,
      "recent": 3209,
      "komen": 3210,
      "##taan": 3211,
      "gelegen": 3212,
      "##gende": 3213,
      "##alg": 3214,
      "##78": 3215,
      "##gegeven": 3216,
      "##EXA": 3217,
      "situ": 3218,
      "tromb": 3219,
      "##plan": 3220,
      "positieve": 3221,
      "retro": 3222,
      "##generatie": 3223,
      "onderbuik": 3224,
      "##week": 3225,
      "##tab": 3226,
      "cholec": 3227,
      "##hogen": 3228,
      "##ën": 3229,
      "##age": 3230,
      "##eert": 3231,
      "##icale": 3232,
      "Mevrouw": 3233,
      "afgelopen": 3234,
      "specifieke": 3235,
      "ECHO": 3236,
      "geeft": 3237,
      "##oupes": 3238,
      "##entraal": 3239,
      "##rui": 3240,
      "##par": 3241,
      "slijmbeker": 3242,
      "had": 3243,
      "##oto": 3244,
      "regelmatig": 3245,
      "##90": 3246,
      "##iden": 3247,
      "##stra": 3248,
      "januari": 3249,
      "MTP": 3250,
      "DDR": 3251,
      "##alen": 3252,
      "verpleegkund": 3253,
      "wandverdikking": 3254,
      "##kenhuis": 3255,
      "IDS": 3256,
      "CS000000": 3257,
      "my": 3258,
      "##slijmvliesbiopten": 3259,
      "scre": 3260,
      "gekregen": 3261,
      "Zwelling": 3262,
      "##etroffen": 3263,
      "zijde": 3264,
      "##stipatie": 3265,
      "##lissen": 3266,
      "ved": 3267,
      "type": 3268,
      "##rager": 3269,
      "vragen": 3270,
      "##BL": 3271,
      "##iment": 3272,
      "##zaam": 3273,
      "reumato": 3274,
      "Rv": 3275,
      "##reek": 3276,
      "PSC": 3277,
      "##spreid": 3278,
      "totaal": 3279,
      "vorige": 3280,
      "##ormulier": 3281,
      "bron": 3282,
      "##abetes": 3283,
      "##mt": 3284,
      "##ecaal": 3285,
      "Toel": 3286,
      "net": 3287,
      "Toelichting": 3288,
      "##type": 3289,
      "fa": 3290,
      "##ild": 3291,
      "##wezen": 3292,
      "ileitis": 3293,
      "abdom": 3294,
      "mid": 3295,
      "respon": 3296,
      "##68": 3297,
      "##ziekte": 3298,
      "contrast": 3299,
      "Gl": 3300,
      "##urinol": 3301,
      "Kw": 3302,
      "##orac": 3303,
      "##agnost": 3304,
      "cardi": 3305,
      "##epr": 3306,
      "complicaties": 3307,
      "im": 3308,
      "twe": 3309,
      "##bo": 3310,
      "oppervlakk": 3311,
      "Beeld": 3312,
      "##ulmon": 3313,
      "pentasa": 3314,
      "calci": 3315,
      "pati": 3316,
      "ster": 3317,
      "##darm": 3318,
      "Br": 3319,
      "##suff": 3320,
      "kinder": 3321,
      "Patiente": 3322,
      "##sverlies": 3323,
      "DEXA": 3324,
      "gecon": 3325,
      "##trum": 3326,
      "micro": 3327,
      "##54": 3328,
      "##enmerken": 3329,
      "Spec": 3330,
      "##mis": 3331,
      "vorm": 3332,
      "Bel": 3333,
      "##tem": 3334,
      "##opor": 3335,
      "Ant": 3336,
      "beoordeelbaar": 3337,
      "aantal": 3338,
      "##over": 3339,
      "##ruize": 3340,
      "infiltr": 3341,
      "##frag": 3342,
      "##CE": 3343,
      "ip": 3344,
      "Geachte": 3345,
      "doorgemaakte": 3346,
      "aangetroffen": 3347,
      "bijn": 3348,
      "##anks": 3349,
      "matige": 3350,
      "ileocoecaalresectie": 3351,
      "##lopurinol": 3352,
      "nacht": 3353,
      "##ios": 3354,
      "zetpil": 3355,
      "OR": 3356,
      "##ijken": 3357,
      "BMD": 3358,
      "subc": 3359,
      "##lastische": 3360,
      "fisteling": 3361,
      "##eprazol": 3362,
      "sec": 3363,
      "##grens": 3364,
      "mediast": 3365,
      "sinus": 3366,
      "reg": 3367,
      "OK": 3368,
      "reeds": 3369,
      "##isic": 3370,
      "##ych": 3371,
      "PET": 3372,
      "spiegel": 3373,
      "soep": 3374,
      "##bel": 3375,
      "##edarm": 3376,
      "Exacerbatie": 3377,
      "##inden": 3378,
      "weg": 3379,
      "dikke": 3380,
      "flex": 3381,
      "totale": 3382,
      "##iot": 3383,
      "stand": 3384,
      "##rie": 3385,
      "Eetlust": 3386,
      "Vpk": 3387,
      "##GN": 3388,
      "##ynd": 3389,
      "##prox": 3390,
      "##plaat": 3391,
      "lis": 3392,
      "##UP": 3393,
      "delen": 3394,
      "##487": 3395,
      "##clomet": 3396,
      "bru": 3397,
      "umol": 3398,
      "oesofag": 3399,
      "##entu": 3400,
      "lok": 3401,
      "laesies": 3402,
      "immuun": 3403,
      "cervix": 3404,
      "anders": 3405,
      "##erking": 3406,
      "Intox": 3407,
      "Slanke": 3408,
      "##96": 3409,
      "past": 3410,
      "##187": 3411,
      "kuur": 3412,
      "##take": 3413,
      "ulcus": 3414,
      "musc": 3415,
      "ontstoken": 3416,
      "##484": 3417,
      "##sf": 3418,
      "slaap": 3419,
      "lichtreflexen": 3420,
      "cyt": 3421,
      "kenmerken": 3422,
      "Vergeleken": 3423,
      "##hy": 3424,
      "Kruize": 3425,
      "##cter": 3426,
      "Kle": 3427,
      "ALAT": 3428,
      "perf": 3429,
      "##entrum": 3430,
      "litteken": 3431,
      "1999": 3432,
      "##tiek": 3433,
      "##ober": 3434,
      "he": 3435,
      "snel": 3436,
      "AW": 3437,
      "##dat": 3438,
      "roken": 3439,
      "neemt": 3440,
      "##lectie": 3441,
      "##rium": 3442,
      "##elijst": 3443,
      "##iers": 3444,
      "##uizen": 3445,
      "Aantal": 3446,
      "##54260": 3447,
      "Darm": 3448,
      "obv": 3449,
      "##eder": 3450,
      "2000054260": 3451,
      "reactie": 3452,
      "##fisch": 3453,
      "##ew": 3454,
      "##cel": 3455,
      "##lob": 3456,
      "##obs": 3457,
      "focale": 3458,
      "ha": 3459,
      "volledig": 3460,
      "reactieve": 3461,
      "den": 3462,
      "bronch": 3463,
      "##oler": 3464,
      "lymfocyten": 3465,
      "##ustus": 3466,
      "##ichaam": 3467,
      "Hel": 3468,
      "herhalen": 3469,
      "bovenbuik": 3470,
      "##oporose": 3471,
      "##veis": 3472,
      "##UI": 3473,
      "##elijsten": 3474,
      "adenoom": 3475,
      "ang": 3476,
      "##heek": 3477,
      "klier": 3478,
      "##acet": 3479,
      "Purinethol": 3480,
      "lumb": 3481,
      "pancreat": 3482,
      "basaal": 3483,
      "##iverende": 3484,
      "58": 3485,
      "terminalis": 3486,
      "1000": 3487,
      "##udes": 3488,
      "aanvull": 3489,
      "##ith": 3490,
      "##oph": 3491,
      "opt": 3492,
      "plek": 3493,
      "6m": 3494,
      "Voelt": 3495,
      "krij": 3496,
      "##otheek": 3497,
      "kreeg": 3498,
      "Meer": 3499,
      "intact": 3500,
      "Pla": 3501,
      "##iersema": 3502,
      "3484": 3503,
      "##noe": 3504,
      "mij": 3505,
      "Siersema": 3506,
      "##zaak": 3507,
      "##druk": 3508,
      "##astasen": 3509,
      "architectuur": 3510,
      "polik": 3511,
      "sla": 3512,
      "Medisch": 3513,
      "##root": 3514,
      "##yste": 3515,
      "eerst": 3516,
      "400": 3517,
      "ochtend": 3518,
      "pijnklachten": 3519,
      "pneumonie": 3520,
      "##udeson": 3521,
      "verklaring": 3522,
      "##acro": 3523,
      "##ichtheid": 3524,
      "##acobs": 3525,
      "vrouw": 3526,
      "##nemen": 3527,
      "##51": 3528,
      "Rectum": 3529,
      "##ura": 3530,
      "200005021": 3531,
      "sign": 3532,
      "##valu": 3533,
      "##veranderd": 3534,
      "momen": 3535,
      "##istaltiek": 3536,
      "Rij": 3537,
      "ingre": 3538,
      "pseud": 3539,
      "ber": 3540,
      "screening": 3541,
      "##kkoord": 3542,
      "##les": 3543,
      "##BC": 3544,
      "##pectatief": 3545,
      "ruim": 3546,
      "afname": 3547,
      "48": 3548,
      "##oop": 3549,
      "##udesonide": 3550,
      "##eth": 3551,
      "ORAAL": 3552,
      "##visor": 3553,
      "##thoven": 3554,
      "mond": 3555,
      "##stomp": 3556,
      "##ateus": 3557,
      "##ikels": 3558,
      "CS000507": 3559,
      "##int": 3560,
      "450": 3561,
      "vr": 3562,
      "Scor": 3563,
      "##spanning": 3564,
      "HC": 3565,
      "roodheid": 3566,
      "##STEL": 3567,
      "##loo": 3568,
      "gemaakt": 3569,
      "CS000487": 3570,
      "##inatie": 3571,
      "VRAAG": 3572,
      "dermat": 3573,
      "##reg": 3574,
      "Scorelijsten": 3575,
      "Mat": 3576,
      "los": 3577,
      "afwijkend": 3578,
      "SI": 3579,
      "##STELLING": 3580,
      "Kwaliteit": 3581,
      "VRAAGSTELLING": 3582,
      "CS00048739": 3583,
      "##gend": 3584,
      "Enter": 3585,
      "vaak": 3586,
      "##algie": 3587,
      "##menging": 3588,
      "peristaltiek": 3589,
      "beperking": 3590,
      "NB": 3591,
      "loc": 3592,
      "PA1": 3593,
      "wkn": 3594,
      "FE": 3595,
      "##raagd": 3596,
      "##olizumab": 3597,
      "##ankelijk": 3598,
      "reuma": 3599,
      "loopt": 3600,
      "Hyper": 3601,
      "##yndroom": 3602,
      "eosinof": 3603,
      "##eur": 3604,
      "kader": 3605,
      "Calpro": 3606,
      "bre": 3607,
      "Art": 3608,
      "kort": 3609,
      "Rijthoven": 3610,
      "vermoeidheid": 3611,
      "Blaas": 3612,
      "##igheid": 3613,
      "##dichtheid": 3614,
      "gedaan": 3615,
      "opgenomen": 3616,
      "##igne": 3617,
      "Mar": 3618,
      "cel": 3619,
      "minimale": 3620,
      "##elden": 3621,
      "##ool": 3622,
      "##arameters": 3623,
      "respons": 3624,
      "maandag": 3625,
      "##ikte": 3626,
      "##MP": 3627,
      "ophogen": 3628,
      "zwangerschap": 3629,
      "##osf": 3630,
      "##itie": 3631,
      "follow": 3632,
      "55": 3633,
      "gewrichtsklachten": 3634,
      "stress": 3635,
      "antrum": 3636,
      "water": 3637,
      "1998": 3638,
      "hemor": 3639,
      "oo": 3640,
      "verkregen": 3641,
      "##totale": 3642,
      "##can": 3643,
      "tev": 3644,
      "continueren": 3645,
      "Jacobs": 3646,
      "Aanv": 3647,
      "UMC": 3648,
      "Deze": 3649,
      "Qu": 3650,
      "verzoek": 3651,
      "Afspraak": 3652,
      "gef": 3653,
      "##AS": 3654,
      "##nia": 3655,
      "##muc": 3656,
      "zeker": 3657,
      "vitamine": 3658,
      "kn": 3659,
      "staan": 3660,
      "##lasie": 3661,
      "##inkt": 3662,
      "verz": 3663,
      "##ster": 3664,
      "pl": 3665,
      "pap": 3666,
      "##mak": 3667,
      "Drs": 3668,
      "3dd": 3669,
      "kal": 3670,
      "##ijs": 3671,
      "##olium": 3672,
      "##urie": 3673,
      "Zeer": 3674,
      "diaf": 3675,
      "sym": 3676,
      "##070": 3677,
      "verrichtten": 3678,
      "longen": 3679,
      "hemat": 3680,
      "##etje": 3681,
      "##achten": 3682,
      "orth": 3683,
      "fractuur": 3684,
      "##tember": 3685,
      "##791": 3686,
      "##vall": 3687,
      "obstipatie": 3688,
      "consent": 3689,
      "oktober": 3690,
      "borst": 3691,
      "endoscop": 3692,
      "##lass": 3693,
      "##unt": 3694,
      "##zelf": 3695,
      "dub": 3696,
      "Toen": 3697,
      "##iasis": 3698,
      "plaveis": 3699,
      "##operatie": 3700,
      "##lair": 3701,
      "##kun": 3702,
      "fors": 3703,
      "wervelkolom": 3704,
      "##ND": 3705,
      "Lever": 3706,
      "proximaal": 3707,
      "diafrag": 3708,
      "73": 3709,
      "Graag": 3710,
      "RT": 3711,
      "##mer": 3712,
      "##ruari": 3713,
      "##teel": 3714,
      "##vante": 3715,
      "antib": 3716,
      "segment": 3717,
      "##iotica": 3718,
      "warm": 3719,
      "brij": 3720,
      "Sm": 3721,
      "L4": 3722,
      "ongewijzigd": 3723,
      "##MH": 3724,
      "anale": 3725,
      "##oter": 3726,
      "ander": 3727,
      "##yla": 3728,
      "##inage": 3729,
      "inflammato": 3730,
      "##neu": 3731,
      "##letie": 3732,
      "RF": 3733,
      "##56187": 3734,
      "4501": 3735,
      "4940C": 3736,
      "92CE": 3737,
      "##KORD": 3738,
      "9D37": 3739,
      "FNMKORD": 3740,
      "FE21": 3741,
      "##07056187": 3742,
      "4940C791": 3743,
      "92CE07056187": 3744,
      "##MAT": 3745,
      "Morbus": 3746,
      "verminder": 3747,
      "##standig": 3748,
      "##istof": 3749,
      "hoofdpijn": 3750,
      "##oliumzuur": 3751,
      "tr": 3752,
      "je": 3753,
      "neur": 3754,
      "prima": 3755,
      "buikklachten": 3756,
      "Par": 3757,
      "CS0005040": 3758,
      "bespreken": 3759,
      "lymfeklieren": 3760,
      "1997": 3761,
      "helder": 3762,
      "palpab": 3763,
      "##oliepen": 3764,
      "##kunde": 3765,
      "versch": 3766,
      "eryth": 3767,
      "december": 3768,
      "##tern": 3769,
      "epit": 3770,
      "ou": 3771,
      "Verdenking": 3772,
      "hierna": 3773,
      "syn": 3774,
      "##spie": 3775,
      "augustus": 3776,
      "radiologie": 3777,
      "corpus": 3778,
      "mot": 3779,
      "##iging": 3780,
      "##ner": 3781,
      "Hoe": 3782,
      "pathologie": 3783,
      "multipele": 3784,
      "opzicht": 3785,
      "##uwd": 3786,
      "apotheek": 3787,
      "##ior": 3788,
      "AWAM": 3789,
      "Reuma": 3790,
      "Fentanyl": 3791,
      "Wat": 3792,
      "Foc": 3793,
      "ins": 3794,
      "Patië": 3795,
      "##icientie": 3796,
      "Ca": 3797,
      "prob": 3798,
      "56": 3799,
      "november": 3800,
      "##tekeningen": 3801,
      "##gewicht": 3802,
      "TABL": 3803,
      "Ik": 3804,
      "##ijnen": 3805,
      "##ilis": 3806,
      "introductie": 3807,
      "progressie": 3808,
      "##ites": 3809,
      "oss": 3810,
      "##97": 3811,
      "##troles": 3812,
      "##ropathie": 3813,
      "muscularis": 3814,
      "laat": 3815,
      "##chym": 3816,
      "aanwijzing": 3817,
      "Diff": 3818,
      "werkaan": 3819,
      "2000050211": 3820,
      "ileus": 3821,
      "Time": 3822,
      "bestaande": 3823,
      "##alimumab": 3824,
      "dunnedarm": 3825,
      "##voer": 3826,
      "Onderzoek": 3827,
      "geheel": 3828,
      "##ystectomie": 3829,
      "##roscopische": 3830,
      "opzichte": 3831,
      "richt": 3832,
      "Ges": 3833,
      "##olid": 3834,
      "helemaal": 3835,
      "##oucher": 3836,
      "pseudop": 3837,
      "##osale": 3838,
      "VC": 3839,
      "lopen": 3840,
      "Ton": 3841,
      "allopurinol": 3842,
      "knieen": 3843,
      "AS": 3844,
      "diverticul": 3845,
      "##lassif": 3846,
      "infusie": 3847,
      "linkszijdige": 3848,
      "##okdarm": 3849,
      "paar": 3850,
      "prikken": 3851,
      "nive": 3852,
      "ebnt": 3853,
      "##incter": 3854,
      "##generatieve": 3855,
      "##pectie": 3856,
      "##ielen": 3857,
      "##terus": 3858,
      "allergie": 3859,
      "aanged": 3860,
      "MCH": 3861,
      "##hier": 3862,
      "bere": 3863,
      "##atose": 3864,
      "mamma": 3865,
      "vergrote": 3866,
      "houden": 3867,
      "werkaantekeningen": 3868,
      "##grad": 3869,
      "FD": 3870,
      "##een": 3871,
      "##IS": 3872,
      "##infectie": 3873,
      "frag": 3874,
      "beperkt": 3875,
      "id": 3876,
      "maken": 3877,
      "serie": 3878,
      "Kan": 3879,
      "ulceraties": 3880,
      "##olie": 3881,
      "tub": 3882,
      "##ikel": 3883,
      "##mie": 3884,
      "##taire": 3885,
      "Rookt": 3886,
      "##ildklier": 3887,
      "Feces": 3888,
      "vooraf": 3889,
      "##mee": 3890,
      "##OE": 3891,
      "do": 3892,
      "##enzym": 3893,
      "opgebouwd": 3894,
      "##kern": 3895,
      "ondanks": 3896,
      "##bre": 3897,
      "##problemen": 3898,
      "Interne": 3899,
      "Gezien": 3900,
      "cort": 3901,
      "noduli": 3902,
      "kleuring": 3903,
      "ade": 3904,
      "##ografisch": 3905,
      "no": 3906,
      "opge": 3907,
      "zoals": 3908,
      "perianale": 3909,
      "##zijdig": 3910,
      "abcessen": 3911,
      "##ogeen": 3912,
      "polsen": 3913,
      "##kan": 3914,
      "altijd": 3915,
      "Sociaal": 3916,
      "botdichtheid": 3917,
      "##esie": 3918,
      "CV": 3919,
      "##velden": 3920,
      "mon": 3921,
      "endoc": 3922,
      "eventu": 3923,
      "##gaand": 3924,
      "##oud": 3925,
      "fistels": 3926,
      "##lav": 3927,
      "##witch": 3928,
      "toucher": 3929,
      "OP": 3930,
      "middels": 3931,
      "Enk": 3932,
      "oppervlakkige": 3933,
      "##WI": 3934,
      "ziekenhuis": 3935,
      "##oot": 3936,
      "46": 3937,
      "##assa": 3938,
      "1dd1": 3939,
      "dig": 3940,
      "lijn": 3941,
      "##icaal": 3942,
      "##zijde": 3943,
      "voorbereiding": 3944,
      "pancreatitis": 3945,
      "hoeveel": 3946,
      "ret": 3947,
      "Roken": 3948,
      "dosis": 3949,
      "##ithiasis": 3950,
      "intest": 3951,
      "Cor": 3952,
      "##erp": 3953,
      "##BS": 3954,
      "rectumstomp": 3955,
      "##iatie": 3956,
      "##pland": 3957,
      "verh": 3958,
      "thorac": 3959,
      "risic": 3960,
      "##ise": 3961,
      "ax": 3962,
      "##ulp": 3963,
      "FDG": 3964,
      "##iculair": 3965,
      "oorzaak": 3966,
      "57": 3967,
      "actief": 3968,
      "slokdarm": 3969,
      "erv": 3970,
      "##quen": 3971,
      "rand": 3972,
      "PCL": 3973,
      "##oment": 3974,
      "##teuze": 3975,
      "##ket": 3976,
      "nef": 3977,
      "vakantie": 3978,
      "HMH": 3979,
      "Oste": 3980,
      "leuk": 3981,
      "darmwand": 3982,
      "1d": 3983,
      "av": 3984,
      "aut": 3985,
      "59": 3986,
      "Vragen": 3987,
      "TABLET": 3988,
      "fr": 3989,
      "ICC": 3990,
      "##tens": 3991,
      "sedatie": 3992,
      "informatie": 3993,
      "##trek": 3994,
      "S1": 3995,
      "neoter": 3996,
      "Uitgebre": 3997,
      "februari": 3998,
      "pyl": 3999,
      "##ucose": 4000,
      "Klachten": 4001,
      "##sparameters": 4002,
      "##ulatie": 4003,
      "september": 4004,
      "dors": 4005,
      "efd": 4006,
      "Beiderzijds": 4007,
      "ischemie": 4008,
      "behou": 4009,
      "##valuatie": 4010,
      "##aarne": 4011,
      "##avant": 4012,
      "##erol": 4013,
      "verdw": 4014,
      "MR": 4015,
      "gisteren": 4016,
      "moment": 4017,
      "##hr": 4018,
      "##oide": 4019,
      "weke": 4020,
      "stru": 4021,
      "motiliteit": 4022,
      "Centrum": 4023,
      "##col": 4024,
      "##mal": 4025,
      "##tabces": 4026,
      "Recid": 4027,
      "##rugs": 4028,
      "##ijdag": 4029,
      "wond": 4030,
      "##quenil": 4031,
      "afgevallen": 4032,
      "Colonoscopie": 4033,
      "Kal": 4034,
      "##PI": 4035,
      "graad": 4036,
      "creat": 4037,
      "gedurende": 4038,
      "diagnost": 4039,
      "##uwing": 4040,
      "Haag": 4041,
      "hyperp": 4042,
      "ving": 4043,
      "bloeding": 4044,
      "47": 4045,
      "temp": 4046,
      "Soms": 4047,
      "##56275": 4048,
      "bul": 4049,
      "7555533": 4050,
      "7557366": 4051,
      "7556275": 4052,
      "##ophag": 4053,
      "overige": 4054,
      "Mogelijk": 4055,
      "benen": 4056,
      "65": 4057,
      "68": 4058,
      "gastroscopie": 4059,
      "##vula": 4060,
      "naast": 4061,
      "##umat": 4062,
      "verwijz": 4063,
      "Vol": 4064,
      "men": 4065,
      "overgang": 4066,
      "DM": 4067,
      "mn": 4068,
      "D3": 4069,
      "##enees": 4070,
      "mamm": 4071,
      "mesenter": 4072,
      "overig": 4073,
      "half": 4074,
      "##LE": 4075,
      "Smout": 4076,
      "54": 4077,
      "##use": 4078,
      "Mam": 4079,
      "##asie": 4080,
      "Intoxicaties": 4081,
      "##actor": 4082,
      "punctie": 4083,
      "trans": 4084,
      "Ha": 4085,
      "##vl": 4086,
      "Nie": 4087,
      "##inine": 4088,
      "diffuus": 4089,
      "lichaam": 4090,
      "cryptabces": 4091,
      "verspreid": 4092,
      "plaatselijk": 4093,
      "##lagen": 4094,
      "stij": 4095,
      "##73": 4096,
      "##kken": 4097,
      "drie": 4098,
      "uitgebreid": 4099,
      "##enac": 4100,
      "1996": 4101,
      "Overleg": 4102,
      "##etoond": 4103,
      "epithel": 4104,
      "IOS": 4105,
      "JW": 4106,
      "##aags": 4107,
      "vasc": 4108,
      "concre": 4109,
      "onregelmatig": 4110,
      "##tis": 4111,
      "##63": 4112,
      "L5": 4113,
      "ok": 4114,
      "Als": 4115,
      "Enkele": 4116,
      "LF": 4117,
      "waarvan": 4118,
      "##ocyt": 4119,
      "subtotale": 4120,
      "diep": 4121,
      "##ha": 4122,
      "##ioch": 4123,
      "##risch": 4124,
      "##iak": 4125,
      "300": 4126,
      "expectatief": 4127,
      "Sigmoid": 4128,
      "nemen": 4129,
      "##190": 4130,
      "ontslag": 4131,
      "waarna": 4132,
      "et": 4133,
      "##oratie": 4134,
      "pm": 4135,
      "##osigmoid": 4136,
      "Huidige": 4137,
      "Licht": 4138,
      "Pre": 4139,
      "Lengte": 4140,
      "Colonbiopten": 4141,
      "verpleegkundigen": 4142,
      "poliklinisch": 4143,
      "antibiotica": 4144,
      "aangedaan": 4145,
      "bi": 4146,
      "verdacht": 4147,
      "Infliximab": 4148,
      "##ysteem": 4149,
      "HP": 4150,
      "ASAT": 4151,
      "conclusie": 4152,
      "##gebruik": 4153,
      "1995": 4154,
      "interne": 4155,
      "em": 4156,
      "##nier": 4157,
      "##pak": 4158,
      "##racht": 4159,
      "hiel": 4160,
      "33": 4161,
      "##drachten": 4162,
      "##ffer": 4163,
      "##sc": 4164,
      "##heen": 4165,
      "jaren": 4166,
      "##apa": 4167,
      "Vragenlijst": 4168,
      "dyspnoe": 4169,
      "foto": 4170,
      "##amol": 4171,
      "ingreep": 4172,
      "onb": 4173,
      "langs": 4174,
      "Enterologie": 4175,
      "2e": 4176,
      "##lijden": 4177,
      "ascites": 4178,
      "AP": 4179,
      "heden": 4180,
      "##eupen": 4181,
      "##compliceerd": 4182,
      "relatie": 4183,
      "doorsnede": 4184,
      "mala": 4185,
      "##staat": 4186,
      "wo": 4187,
      "FZ": 4188,
      "vaattekening": 4189,
      "tabl": 4190,
      "os": 4191,
      "bez": 4192,
      "Opdrachten": 4193,
      "lumbale": 4194,
      "Fer": 4195,
      "akkoord": 4196,
      "##zavant": 4197,
      "gefax": 4198,
      "Lymf": 4199,
      "informed": 4200,
      "been": 4201,
      "psych": 4202,
      "samen": 4203,
      "spond": 4204,
      "terminaal": 4205,
      "inflammatie": 4206,
      "combinatie": 4207,
      "##amp": 4208,
      "vrijdag": 4209,
      "methotrexaat": 4210,
      "##gradige": 4211,
      "##cell": 4212,
      "Calci": 4213,
      "##GT": 4214,
      "Aanvrager": 4215,
      "gebruiken": 4216,
      "massa": 4217,
      "Wor": 4218,
      "dicht": 4219,
      "OS": 4220,
      "Gering": 4221,
      "persisterende": 4222,
      "drainage": 4223,
      "wisselende": 4224,
      "CS00038352": 4225,
      "##tes": 4226,
      "##iosix": 4227,
      "Dys": 4228,
      "longvelden": 4229,
      "korte": 4230,
      "consolid": 4231,
      "##ologic": 4232,
      "53": 4233,
      "arter": 4234,
      "Ech": 4235,
      "##lad": 4236,
      "Am": 4237,
      "Focaal": 4238,
      "##IM": 4239,
      "##Ver": 4240,
      "##gezet": 4241,
      "##uss": 4242,
      "##BV": 4243,
      "##ijfheid": 4244,
      "52": 4245,
      "waa": 4246,
      "gefaxt": 4247,
      "200006": 4248,
      "eetlust": 4249,
      "##elevante": 4250,
      "##accin": 4251,
      "verdere": 4252,
      "##eeftijd": 4253,
      "BE": 4254,
      "Zij": 4255,
      "bovenste": 4256,
      "gesproken": 4257,
      "sprong": 4258,
      "##rh": 4259,
      "##bijmenging": 4260,
      "##ile": 4261,
      "INF": 4262,
      "##akker": 4263,
      "submuc": 4264,
      "faeces": 4265,
      "##cturen": 4266,
      "osteopenie": 4267,
      "colonslijmvlies": 4268,
      "onveranderd": 4269,
      "Opnam": 4270,
      "bo": 4271,
      "familie": 4272,
      "##itus": 4273,
      "scler": 4274,
      "tijdelijk": 4275,
      "darmen": 4276,
      "elders": 4277,
      "Ileum": 4278,
      "supervisor": 4279,
      "##inum": 4280,
      "reumatoloog": 4281,
      "##Âë": 4282,
      "##taat": 4283,
      "belafspraak": 4284,
      "ploo": 4285,
      "ulceratie": 4286,
      "IBS": 4287,
      "##iv": 4288,
      "##08": 4289,
      "32": 4290,
      "cre": 4291,
      "Wordt": 4292,
      "genees": 4293,
      "85": 4294,
      "##nem": 4295,
      "ossale": 4296,
      "##uratie": 4297,
      "elke": 4298,
      "slijmbekercellen": 4299,
      "##aliseerd": 4300,
      "##gewricht": 4301,
      "##67": 4302,
      "enkels": 4303,
      "omdat": 4304,
      "Tijdens": 4305,
      "Doorsn": 4306,
      "##keur": 4307,
      "beclomet": 4308,
      "dagelijks": 4309,
      "##bolie": 4310,
      "darmlissen": 4311,
      "hernia": 4312,
      "##assen": 4313,
      "##iode": 4314,
      "assist": 4315,
      "Du": 4316,
      "cholecystectomie": 4317,
      "opst": 4318,
      "##gezien": 4319,
      "PCR": 4320,
      "tevoren": 4321,
      "mob": 4322,
      "Daarnaast": 4323,
      "waardoor": 4324,
      "clysma": 4325,
      "##aart": 4326,
      "hervat": 4327,
      "51": 4328,
      "##klieren": 4329,
      "hoesten": 4330,
      "pulmon": 4331,
      "##ogene": 4332,
      "term": 4333,
      "leu": 4334,
      "##vuld": 4335,
      "dieet": 4336,
      "##amuc": 4337,
      "421": 4338,
      "budesonide": 4339,
      "atypie": 4340,
      "##rang": 4341,
      "##alie": 4342,
      "##eses": 4343,
      "Kliniek": 4344,
      "##ekstra": 4345,
      "neoterminale": 4346,
      "##ulitis": 4347,
      "tumoren": 4348,
      "acute": 4349,
      "po": 4350,
      "##hoogd": 4351,
      "conversie": 4352,
      "sonde": 4353,
      "##ontreal": 4354,
      "##emateus": 4355,
      "aangetoond": 4356,
      "41": 4357,
      "geven": 4358,
      "EIM": 4359,
      "##lassificatie": 4360,
      "duct": 4361,
      "40mg": 4362,
      "Ig": 4363,
      "uterus": 4364,
      "Aanvulling": 4365,
      "##schema": 4366,
      "chem": 4367,
      "sigmoidoscopie": 4368,
      "daags": 4369,
      "##landen": 4370,
      "##onderdag": 4371,
      "Montreal": 4372,
      "langdur": 4373,
      "Allergie": 4374,
      "##ade": 4375,
      "##za": 4376,
      "suppletie": 4377,
      "##liggende": 4378,
      "cave": 4379,
      "leverenzym": 4380,
      "plaatsen": 4381,
      "##etal": 4382,
      "Slijmvlies": 4383,
      "vermoed": 4384,
      "##acetamol": 4385,
      "##oening": 4386,
      "Rectaal": 4387,
      "niveau": 4388,
      "##mengd": 4389,
      "Panc": 4390,
      "metap": 4391,
      "vena": 4392,
      "AIOS": 4393,
      "Haaglanden": 4394,
      "vaten": 4395,
      "adalimumab": 4396,
      "Pt": 4397,
      "##elepitheel": 4398,
      "laterale": 4399,
      "##cal": 4400,
      "lateraal": 4401,
      "poliepje": 4402,
      "erbij": 4403,
      "##bes": 4404,
      "passeren": 4405,
      "mar": 4406,
      "##geving": 4407,
      "34": 4408,
      "##rox": 4409,
      "ci": 4410,
      "moeder": 4411,
      "icc": 4412,
      "##sklachten": 4413,
      "##PS": 4414,
      "##IV": 4415,
      "##afactor": 4416,
      "##ritine": 4417,
      "mak": 4418,
      "##lacht": 4419,
      "Biopt": 4420,
      "opvall": 4421,
      "##etour": 4422,
      "keel": 4423,
      "##hason": 4424,
      "##atine": 4425,
      "erf": 4426,
      "##gele": 4427,
      "##ante": 4428,
      "##eron": 4429,
      "proberen": 4430,
      "Val": 4431,
      "heupen": 4432,
      "scop": 4433,
      "##heup": 4434,
      "leeftijd": 4435,
      "Ged": 4436,
      "verdwenen": 4437,
      "plasm": 4438,
      "##middels": 4439,
      "Formulier": 4440,
      "flar": 4441,
      "function": 4442,
      "##eus": 4443,
      "Gest": 4444,
      "##troleerd": 4445,
      "chirurgie": 4446,
      "##orgen": 4447,
      "uitsl": 4448,
      "behoudens": 4449,
      "##esies": 4450,
      "groei": 4451,
      "BV": 4452,
      "Ongewijzigd": 4453,
      "Proct": 4454,
      "alles": 4455,
      "##outine": 4456,
      "Ven": 4457,
      "66": 4458,
      "COP": 4459,
      "Tekstra": 4460,
      "mel": 4461,
      "verlies": 4462,
      "erfelijke": 4463,
      "recidiverende": 4464,
      "fibrose": 4465,
      "afwijkende": 4466,
      "##stenotische": 4467,
      "stent": 4468,
      "infectieus": 4469,
      "FO": 4470,
      "##volgens": 4471,
      "salofalk": 4472,
      "tablet": 4473,
      "##ius": 4474,
      "##amucil": 4475,
      "##gembolie": 4476,
      "INFOR": 4477,
      "##MATIE": 4478,
      "INFORMATIE": 4479,
      "##rupp": 4480,
      "krampen": 4481,
      "evaluatie": 4482,
      "##onent": 4483,
      "ox": 4484,
      "##icl": 4485,
      "doorgaan": 4486,
      "makkelijk": 4487,
      "osteoporose": 4488,
      "malaise": 4489,
      "vill": 4490,
      "CRC": 4491,
      "##atrium": 4492,
      "verliep": 4493,
      "##gelmatige": 4494,
      "adequ": 4495,
      "Tromb": 4496,
      "ingesloten": 4497,
      "Uitvoer": 4498,
      "bruin": 4499,
      "cm2": 4500,
      "mag": 4501,
      "##icolon": 4502,
      "##iezen": 4503,
      "reflux": 4504,
      "zetpillen": 4505,
      "polie": 4506,
      "verminderde": 4507,
      "gewichtsverlies": 4508,
      "Coupes": 4509,
      "vervolg": 4510,
      "##yna": 4511,
      "##eens": 4512,
      "##era": 4513,
      "##hankelijk": 4514,
      "##ijdingen": 4515,
      "##insuff": 4516,
      "##200": 4517,
      "conversiegegevens": 4518,
      "COPD": 4519,
      "Uitvoerders": 4520,
      "donderdag": 4521,
      "00Geregistreerd": 4522,
      "ble": 4523,
      "##gan": 4524,
      "LUM": 4525,
      "nauw": 4526,
      "PA2": 4527,
      "schouders": 4528,
      "ga": 4529,
      "soepel": 4530,
      "##jun": 4531,
      "##aling": 4532,
      "##omt": 4533,
      "##ontsteking": 4534,
      "##ilijk": 4535,
      "fund": 4536,
      "##gestuurd": 4537,
      "##collectie": 4538,
      "##erden": 4539,
      "##rect": 4540,
      "uite": 4541,
      "Sten": 4542,
      "poly": 4543,
      "gevorm": 4544,
      "mild": 4545,
      "flexura": 4546,
      "##OMEN": 4547,
      "vedolizumab": 4548,
      "daardoor": 4549,
      "##ren": 4550,
      "nierfunctie": 4551,
      "Ps": 4552,
      "eosinofiele": 4553,
      "1994": 4554,
      "##ars": 4555,
      "intake": 4556,
      "py": 4557,
      "gedilat": 4558,
      "##ific": 4559,
      "orthop": 4560,
      "stro": 4561,
      "cent": 4562,
      "Stop": 4563,
      "Geringe": 4564,
      "plasmac": 4565,
      "recente": 4566,
      "Recept": 4567,
      "Prémedicatie": 4568,
      "10mg": 4569,
      "##houdend": 4570,
      "werkt": 4571,
      "syndroom": 4572,
      "##rel": 4573,
      "Kwaliteitsparameters": 4574,
      "##ille": 4575,
      "gecontroleerd": 4576,
      "##ow": 4577,
      "ti": 4578,
      "non": 4579,
      "nek": 4580,
      "flard": 4581,
      "##69": 4582,
      "int": 4583,
      "hielp": 4584,
      "langzaam": 4585,
      "Goede": 4586,
      "Behandeling": 4587,
      "belt": 4588,
      "CP": 4589,
      "SUP": 4590,
      "gepland": 4591,
      "##vankelijk": 4592,
      "mediastinum": 4593,
      "bevindt": 4594,
      "##all": 4595,
      "##oupe": 4596,
      "##olonoscopie": 4597,
      "##NO": 4598,
      "##astase": 4599,
      "ABD": 4600,
      "##pers": 4601,
      "hemorro": 4602,
      "##pakket": 4603,
      "##eters": 4604,
      "##XXXX": 4605,
      "aandoening": 4606,
      "mucosae": 4607,
      "Behand": 4608,
      "##ynaec": 4609,
      "Hij": 4610,
      "BSNR": 4611,
      "periode": 4612,
      "nadien": 4613,
      "##pectomie": 4614,
      "avond": 4615,
      "##laire": 4616,
      "##ocili": 4617,
      "1992": 4618,
      "##acol": 4619,
      "hiervoor": 4620,
      "oude": 4621,
      "##plannen": 4622,
      "##prik": 4623,
      "##iculaire": 4624,
      "maximale": 4625,
      "##leiding": 4626,
      "Twee": 4627,
      "beetje": 4628,
      "bil": 4629,
      "##sistentie": 4630,
      "ABDOMEN": 4631,
      "EW": 4632,
      "##lijn": 4633,
      "enig": 4634,
      "##rid": 4635,
      "##180": 4636,
      "verv": 4637,
      "switch": 4638,
      "##brel": 4639,
      "##voeding": 4640,
      "bevindingen": 4641,
      "##zelfde": 4642,
      "aanvraag": 4643,
      "TBC": 4644,
      "incl": 4645,
      "##meting": 4646,
      "##cellig": 4647,
      "##hepat": 4648,
      "basale": 4649,
      "##CC": 4650,
      "ileo": 4651,
      "##stig": 4652,
      "##som": 4653,
      "##amn": 4654,
      "Matig": 4655,
      "##ocilizumab": 4656,
      "##leet": 4657,
      "##emisch": 4658,
      "degeneratieve": 4659,
      "diabetes": 4660,
      "schildklier": 4661,
      "visite": 4662,
      "##ach": 4663,
      "##ange": 4664,
      "##stma": 4665,
      "##fincter": 4666,
      "For": 4667,
      "##unne": 4668,
      "medicijnen": 4669,
      "##cyten": 4670,
      "67": 4671,
      "Brief": 4672,
      "##lastisch": 4673,
      "rondkern": 4674,
      "Cla": 4675,
      "bele": 4676,
      "##pleegkundige": 4677,
      "##da": 4678,
      "oesofagus": 4679,
      "defecatie": 4680,
      "##iciteit": 4681,
      "Scopie": 4682,
      "Card": 4683,
      "##UIK": 4684,
      "EC": 4685,
      "jeuk": 4686,
      "##opereerd": 4687,
      "eventueel": 4688,
      "Radi": 4689,
      "Wijk": 4690,
      "risico": 4691,
      "##cle": 4692,
      "prestenotische": 4693,
      "hoeveelheid": 4694,
      "##Voor": 4695,
      "voorkeur": 4696,
      "##iënt": 4697,
      "##uden": 4698,
      "para": 4699,
      "##opografie": 4700,
      "##ysi": 4701,
      "##oglob": 4702,
      "laaggradige": 4703,
      "95": 4704,
      "ontstekingsre": 4705,
      "synov": 4706,
      "Coecum": 4707,
      "sat": 4708,
      "nucle": 4709,
      "##ïden": 4710,
      "plasmacellen": 4711,
      "hepatitis": 4712,
      "##kanker": 4713,
      "hiervan": 4714,
      "derhalve": 4715,
      "cap": 4716,
      "Zijn": 4717,
      "PEC": 4718,
      "Ontvangen": 4719,
      "Hemat": 4720,
      "##indelijk": 4721,
      "##olectomie": 4722,
      "##ummer": 4723,
      "eigenlijk": 4724,
      "helpt": 4725,
      "##amnese": 4726,
      "ontstekingsactiviteit": 4727,
      "##CCP": 4728,
      "buiten": 4729,
      "##anamnese": 4730,
      "geduid": 4731,
      "##Voorgeschiedenis": 4732,
      "langer": 4733,
      "amp": 4734,
      "stenosering": 4735,
      "afteuze": 4736,
      "atypische": 4737,
      "##endectomie": 4738,
      "prostaat": 4739,
      "##gesteld": 4740,
      "medicamen": 4741,
      "##artrose": 4742,
      "Ery": 4743,
      "Bog": 4744,
      "pos": 4745,
      "ervaren": 4746,
      "EWF": 4747,
      "overwegen": 4748,
      "##spiegel": 4749,
      "##uist": 4750,
      "uitleg": 4751,
      "neus": 4752,
      "98": 4753,
      "vul": 4754,
      "partner": 4755,
      "##nex": 4756,
      "##anto": 4757,
      "Bent": 4758,
      "Sub": 4759,
      "Echter": 4760,
      "Moe": 4761,
      "##lauw": 4762,
      "Prim": 4763,
      "##rof": 4764,
      "##gevraagd": 4765,
      "A2": 4766,
      "pathologische": 4767,
      "perif": 4768,
      "villi": 4769,
      "ov": 4770,
      "Alcohol": 4771,
      "retour": 4772,
      "OOM": 4773,
      "frequ": 4774,
      "##gaande": 4775,
      "auto": 4776,
      "##99": 4777,
      "palpabel": 4778,
      "Toe": 4779,
      "geopereerd": 4780,
      "20000660": 4781,
      "##namnest": 4782,
      "probleem": 4783,
      "aanleg": 4784,
      "verwijder": 4785,
      "ziet": 4786,
      "##rische": 4787,
      "tabletten": 4788,
      "bellen": 4789,
      "Su": 4790,
      "moeilijk": 4791,
      "Sl": 4792,
      "opnam": 4793,
      "##utane": 4794,
      "##wwww": 4795,
      "arm": 4796,
      "NSA": 4797,
      "##ecum": 4798,
      "##ocard": 4799,
      "##wk": 4800,
      "##ateerd": 4801,
      "naad": 4802,
      "Grote": 4803,
      "##itone": 4804,
      "##amide": 4805,
      "##ochtend": 4806,
      "##pel": 4807,
      "##omateuze": 4808,
      "##ats": 4809,
      "##iciënt": 4810,
      "Pati": 4811,
      "##ophagus": 4812,
      "##lak": 4813,
      "reik": 4814,
      "1990": 4815,
      "all": 4816,
      "NSAID": 4817,
      "6T": 4818,
      "##otte": 4819,
      "##gek": 4820,
      "kalk": 4821,
      "##standen": 4822,
      "DB": 4823,
      "tweede": 4824,
      "direct": 4825,
      "hi": 4826,
      "##gebrek": 4827,
      "##eemt": 4828,
      "grootte": 4829,
      "##man": 4830,
      "activiteiten": 4831,
      "uitslagen": 4832,
      "uitstr": 4833,
      "antistof": 4834,
      "inzend": 4835,
      "acc": 4836,
      "intern": 4837,
      "##41": 4838,
      "rad": 4839,
      "##stel": 4840,
      "##CA": 4841,
      "metastasen": 4842,
      "nt": 4843,
      "Volg": 4844,
      "##di": 4845,
      "gede": 4846,
      "afwachten": 4847,
      "lymfklieren": 4848,
      "uitgesloten": 4849,
      "72": 4850,
      "##roeg": 4851,
      "indruk": 4852,
      "geel": 4853,
      "eens": 4854,
      "##staande": 4855,
      "##arenchym": 4856,
      "UMCU": 4857,
      "vd": 4858,
      "Voorts": 4859,
      "Ernst": 4860,
      "63": 4861,
      "rookt": 4862,
      "perforatie": 4863,
      "kwets": 4864,
      "##namnestisch": 4865,
      "open": 4866,
      "##roe": 4867,
      "Fol": 4868,
      "doet": 4869,
      "Chol": 4870,
      "vanuit": 4871,
      "##roc": 4872,
      "moeite": 4873,
      "1e": 4874,
      "##land": 4875,
      "##weeg": 4876,
      "##lect": 4877,
      "kinderen": 4878,
      "drain": 4879,
      "momenteel": 4880,
      "hulp": 4881,
      "##igde": 4882,
      "##ekt": 4883,
      "gynaec": 4884,
      "fraa": 4885,
      "##259": 4886,
      "##80": 4887,
      "##wend": 4888,
      "##ouff": 4889,
      "##veld": 4890,
      "##emat": 4891,
      "verna": 4892,
      "inzendingen": 4893,
      "##orsie": 4894,
      "beleving": 4895,
      "fem": 4896,
      "##oedien": 4897,
      "scopist": 4898,
      "Iom": 4899,
      "Eerder": 4900,
      "gedi": 4901,
      "lymfeklier": 4902,
      "gesch": 4903,
      "beh": 4904,
      "hypo": 4905,
      "##fractuur": 4906,
      "fundus": 4907,
      "Hoofd": 4908,
      "##kundige": 4909,
      "##eleide": 4910,
      "##76": 4911,
      "frequentie": 4912,
      "800": 4913,
      "pot": 4914,
      "revisie": 4915,
      "enterologie": 4916,
      "Pols": 4917,
      "##ara": 4918,
      "endoscopisch": 4919,
      "form": 4920,
      "onbekend": 4921,
      "##estran": 4922,
      "##trocyten": 4923,
      "NIE": 4924,
      "cyl": 4925,
      "##ecale": 4926,
      "##CHT": 4927,
      "99": 4928,
      "pseudopoliepen": 4929,
      "kou": 4930,
      "##oux": 4931,
      "##houdende": 4932,
      "inflammatoire": 4933,
      "geï": 4934,
      "epider": 4935,
      "CS00003852": 4936,
      "LUMC": 4937,
      "Ac": 4938,
      "##6275": 4939,
      "gevoelig": 4940,
      "nachts": 4941,
      "##ederom": 4942,
      "2505533": 4943,
      "2506275": 4944,
      "##riet": 4945,
      "##architectuur": 4946,
      "##contin": 4947,
      "64": 4948,
      "vag": 4949,
      "##parenchym": 4950,
      "verbeterd": 4951,
      "inplannen": 4952,
      "##ieel": 4953,
      "proef": 4954,
      "##iz": 4955,
      "##arct": 4956,
      "dochter": 4957,
      "##heids": 4958,
      "zover": 4959,
      "coron": 4960,
      "Hypertensie": 4961,
      "onderzoeken": 4962,
      "gemengd": 4963,
      "retroversie": 4964,
      "##cz": 4965,
      "test": 4966,
      "divertikels": 4967,
      "##paraat": 4968,
      "vlok": 4969,
      "74": 4970,
      "jejun": 4971,
      "SAS": 4972,
      "var": 4973,
      "Leu": 4974,
      "daarbij": 4975,
      "darmpakket": 4976,
      "##hist": 4977,
      "20mg": 4978,
      "##740": 4979,
      "weerstanden": 4980,
      "maximaal": 4981,
      "beschreven": 4982,
      "afgesproken": 4983,
      "##kom": 4984,
      "##oeg": 4985,
      "##steen": 4986,
      "Jan": 4987,
      "##orator": 4988,
      "gra": 4989,
      "Revisie": 4990,
      "##reatinine": 4991,
      "resul": 4992,
      "69": 4993,
      "##hele": 4994,
      "##urine": 4995,
      "opgehoogd": 4996,
      "acuut": 4997,
      "Kalium": 4998,
      "##ovicolon": 4999,
      "Ileoc": 5000,
      "##celcarcinoom": 5001,
      "gep": 5002,
      "meegegeven": 5003,
      "ging": 5004,
      "##still": 5005,
      "aspecifieke": 5006,
      "##zak": 5007,
      "##umen": 5008,
      "Pri": 5009,
      "##houden": 5010,
      "##ON": 5011,
      "##perig": 5012,
      "##prothese": 5013,
      "afgebouwd": 5014,
      "nieuw": 5015,
      "2507366": 5016,
      "JWG": 5017,
      "##erape": 5018,
      "HH": 5019,
      "AD": 5020,
      "aften": 5021,
      "Nieuwe": 5022,
      "port": 5023,
      "richting": 5024,
      "vir": 5025,
      "SASP": 5026,
      "BB": 5027,
      "##oriteit": 5028,
      "##stenen": 5029,
      "##oratorium": 5030,
      "##Hg": 5031,
      "anaal": 5032,
      "omeprazol": 5033,
      "veranderd": 5034,
      "Patiënt": 5035,
      "lek": 5036,
      "iter": 5037,
      "cholang": 5038,
      "ligt": 5039,
      "##iber": 5040,
      "haust": 5041,
      "decursus": 5042,
      "Abd": 5043,
      "##middel": 5044,
      "##ote": 5045,
      "Prioriteit": 5046,
      "ongemak": 5047,
      "lapa": 5048,
      "##oging": 5049,
      "PCM": 5050,
      "El": 5051,
      "##atiek": 5052,
      "klieren": 5053,
      "vergeleken": 5054,
      "secund": 5055,
      "4x": 5056,
      "##198": 5057,
      "idem": 5058,
      "##148": 5059,
      "Toename": 5060,
      "##hsen": 5061,
      "dui": 5062,
      "richtingen": 5063,
      "Clahsen": 5064,
      "##def": 5065,
      "Analyse": 5066,
      "##omm": 5067,
      "longembolie": 5068,
      "plaquenil": 5069,
      "CS00000040": 5070,
      "Komt": 5071,
      "##patie": 5072,
      "cell": 5073,
      "cc": 5074,
      "##gn": 5075,
      "##ontaan": 5076,
      "##tir": 5077,
      "##reekuur": 5078,
      "##ouce": 5079,
      "##oglobine": 5080,
      "##bag": 5081,
      "##atosis": 5082,
      "Glouce": 5083,
      "Gloucester": 5084,
      "##rava": 5085,
      "rib": 5086,
      "##HA": 5087,
      "##yre": 5088,
      "##lare": 5089,
      "##poli": 5090,
      "110": 5091,
      "##FR": 5092,
      "plaveiselepitheel": 5093,
      "inst": 5094,
      "GIF": 5095,
      "96": 5096,
      "##ping": 5097,
      "##etrokken": 5098,
      "78": 5099,
      "souff": 5100,
      "concrementen": 5101,
      "Bas": 5102,
      "Opnamedatum": 5103,
      "act": 5104,
      "coll": 5105,
      "circa": 5106,
      "midden": 5107,
      "Behandeld": 5108,
      "krijgt": 5109,
      "Hazel": 5110,
      "##insdag": 5111,
      "##inken": 5112,
      "Hazelbag": 5113,
      "CS00003806": 5114,
      "biologic": 5115,
      "Ar": 5116,
      "gebieden": 5117,
      "##CL": 5118,
      "##oplas": 5119,
      "inv": 5120,
      "beoordeling": 5121,
      "Plan": 5122,
      "##aemie": 5123,
      "ug": 5124,
      "##orect": 5125,
      "##cif": 5126,
      "waarop": 5127,
      "zagen": 5128,
      "CS00003817": 5129,
      "weekend": 5130,
      "##icon": 5131,
      "Ul": 5132,
      "wakker": 5133,
      "slaapap": 5134,
      "Gist": 5135,
      "97": 5136,
      "toenem": 5137,
      "CS00050718": 5138,
      "duizel": 5139,
      "##bum": 5140,
      "VIII": 5141,
      "sig": 5142,
      "aandrang": 5143,
      "ilia": 5144,
      "inductie": 5145,
      "71": 5146,
      "##ming": 5147,
      "Min": 5148,
      "CS000037": 5149,
      "ogen": 5150,
      "CS00003857": 5151,
      "stroma": 5152,
      "resultaat": 5153,
      "tal": 5154,
      "##antwoord": 5155,
      "1993": 5156,
      "ziekteactiviteit": 5157,
      "##erapeut": 5158,
      "organ": 5159,
      "plooien": 5160,
      "##iciëntie": 5161,
      "CWK": 5162,
      "fiss": 5163,
      "Not": 5164,
      "gegaan": 5165,
      "##omy": 5166,
      "##blem": 5167,
      "lastig": 5168,
      "dermis": 5169,
      "blijven": 5170,
      "bulbus": 5171,
      "Lok": 5172,
      "2000050207": 5173,
      "Verpleegkundige": 5174,
      "##raagt": 5175,
      "HCQ": 5176,
      "##75": 5177,
      "gecompliceerd": 5178,
      "cryptarchitectuur": 5179,
      "efde": 5180,
      "aCCP": 5181,
      "##smal": 5182,
      "kant": 5183,
      "ER": 5184,
      "Loc": 5185,
      "Vanaf": 5186,
      "Lo": 5187,
      "sfincter": 5188,
      "Diarree": 5189,
      "##vrij": 5190,
      "Eerste": 5191,
      "##oediening": 5192,
      "##reden": 5193,
      "##antif": 5194,
      "uitgesproken": 5195,
      "eindstandig": 5196,
      "Vitamine": 5197,
      "##ositie": 5198,
      "##ocytaire": 5199,
      "kwetsbaar": 5200,
      "slijmvliesbiopten": 5201,
      "##que": 5202,
      "caecum": 5203,
      "##loop": 5204,
      "danwel": 5205,
      "UWI": 5206,
      "vermoedelijk": 5207,
      "reumafactor": 5208,
      "verwijzing": 5209,
      "spor": 5210,
      "##viseerd": 5211,
      "Tr": 5212,
      "focus": 5213,
      "##teus": 5214,
      "kernen": 5215,
      "##tatie": 5216,
      "Ten": 5217,
      "negatieve": 5218,
      "slaapapneu": 5219,
      "##ICHT": 5220,
      "##kop": 5221,
      "##pool": 5222,
      "##blematiek": 5223,
      "Hemoglobine": 5224,
      "lymfklier": 5225,
      "6TGN": 5226,
      "tav": 5227,
      "begon": 5228,
      "gezocht": 5229,
      "##tirpatie": 5230,
      "Volgende": 5231,
      "##uidelijk": 5232,
      "500mg": 5233,
      "##OG": 5234,
      "##ellitus": 5235,
      "##udenofalk": 5236,
      "Heer": 5237,
      "62": 5238,
      "gesp": 5239,
      "koude": 5240,
      "werden": 5241,
      "Kamer": 5242,
      "zitten": 5243,
      "proces": 5244,
      "Dist": 5245,
      "sh": 5246,
      "zowel": 5247,
      "thoracale": 5248,
      "##iclof": 5249,
      "pres": 5250,
      "##rin": 5251,
      "vergroot": 5252,
      "pas": 5253,
      "##mata": 5254,
      "##aline": 5255,
      "ag": 5256,
      "lien": 5257,
      "ampul": 5258,
      "##gezette": 5259,
      "antistoffen": 5260,
      "Topografie": 5261,
      "cran": 5262,
      "##usen": 5263,
      "##boven": 5264,
      "##por": 5265,
      "psori": 5266,
      "O725": 5267,
      "Knie": 5268,
      "A2L": 5269,
      "##iteiten": 5270,
      "##umar": 5271,
      "77": 5272,
      "##ella": 5273,
      "reactief": 5274,
      "niets": 5275,
      "Energie": 5276,
      "84": 5277,
      "##iopsie": 5278,
      "##olerantie": 5279,
      "foliumzuur": 5280,
      "##artritis": 5281,
      "mogelijke": 5282,
      "gang": 5283,
      "##adol": 5284,
      "intraven": 5285,
      "CS00050406": 5286,
      "bro": 5287,
      "Proctitis": 5288,
      "epitheliale": 5289,
      "voldoende": 5290,
      "##enmerg": 5291,
      "##B1": 5292,
      "##ked": 5293,
      "##NP": 5294,
      "CS00003851": 5295,
      "verdikte": 5296,
      "##maals": 5297,
      "##hyd": 5298,
      "2d": 5299,
      "gehoor": 5300,
      "thans": 5301,
      "minu": 5302,
      "vochtcollectie": 5303,
      "Multipele": 5304,
      "coupe": 5305,
      "##zep": 5306,
      "abdominale": 5307,
      "Intact": 5308,
      "refract": 5309,
      "zuur": 5310,
      "rondkernig": 5311,
      "##ostrid": 5312,
      "76": 5313,
      "pa": 5314,
      "##ralgie": 5315,
      "##aagd": 5316,
      "lienalis": 5317,
      "Neu": 5318,
      "##LO": 5319,
      "CK": 5320,
      "##BUIK": 5321,
      "Trombocyten": 5322,
      "gepr": 5323,
      "endocerv": 5324,
      "mis": 5325,
      "cer": 5326,
      "hersen": 5327,
      "dinsdag": 5328,
      "eci": 5329,
      "sessie": 5330,
      "ureter": 5331,
      "KNO": 5332,
      "##ijden": 5333,
      "##acept": 5334,
      "bacter": 5335,
      "##proxen": 5336,
      "##BB": 5337,
      "##its": 5338,
      "##atio": 5339,
      "epidermis": 5340,
      "##35": 5341,
      "##zien": 5342,
      "##osering": 5343,
      "##antiferon": 5344,
      "inmiddels": 5345,
      "Medische": 5346,
      "##lichting": 5347,
      "kaliber": 5348,
      "Koorts": 5349,
      "Ti": 5350,
      "Forse": 5351,
      "##antozol": 5352,
      "SV": 5353,
      "Post": 5354,
      "Stru": 5355,
      "anter": 5356,
      "want": 5357,
      "controles": 5358,
      "Activiteit": 5359,
      "##iclofenac": 5360,
      "RIP": 5361,
      "##atacept": 5362,
      "##czeem": 5363,
      "kweek": 5364,
      "##ace": 5365,
      "calcium": 5366,
      "Chron": 5367,
      "##NA": 5368,
      "##luste": 5369,
      "##gebluste": 5370,
      "Morgen": 5371,
      "Werkt": 5372,
      "gene": 5373,
      "cyst": 5374,
      "Premedicatie": 5375,
      "inspanning": 5376,
      "beste": 5377,
      "axil": 5378,
      "##voe": 5379,
      "ECG": 5380,
      "##ostridium": 5381,
      "##anneer": 5382,
      "itis": 5383,
      "##TS": 5384,
      "lies": 5385,
      "structuren": 5386,
      "##fig": 5387,
      "Bauhini": 5388,
      "vader": 5389,
      "Protocol": 5390,
      "##sgewicht": 5391,
      "perianaal": 5392,
      "zorg": 5393,
      "valt": 5394,
      "tu": 5395,
      "Scre": 5396,
      "##weginfectie": 5397,
      "##emische": 5398,
      "alhier": 5399,
      "##ruppels": 5400,
      "140": 5401,
      "##heven": 5402,
      "##ouwen": 5403,
      "##aker": 5404,
      "vrijwel": 5405,
      "##vormige": 5406,
      "gevormd": 5407,
      "Routine": 5408,
      "CS00003856": 5409,
      "Natrium": 5410,
      "Stoma": 5411,
      "rode": 5412,
      "##ikk": 5413,
      "1991": 5414,
      "intestinale": 5415,
      "##jaar": 5416,
      "nav": 5417,
      "ebn": 5418,
      "CS00003805": 5419,
      "##roscopisch": 5420,
      "hyperplastische": 5421,
      "component": 5422,
      "sympt": 5423,
      "##stenose": 5424,
      "tox": 5425,
      "##pees": 5426,
      "aanvankelijk": 5427,
      "App": 5428,
      "beclomethason": 5429,
      "Follow": 5430,
      "82": 5431,
      "##89": 5432,
      "aangek": 5433,
      "Kleine": 5434,
      "##gs": 5435,
      "vier": 5436,
      "##metastas": 5437,
      "##34": 5438,
      "##ikbaar": 5439,
      "dex": 5440,
      "alwaar": 5441,
      "afbouwschema": 5442,
      "Long": 5443,
      "##ioc": 5444,
      "##rops": 5445,
      "##elingen": 5446,
      "Tran": 5447,
      "Ernstige": 5448,
      "##edi": 5449,
      "diepe": 5450,
      "IP": 5451,
      "prof": 5452,
      "##proxin": 5453,
      "sol": 5454,
      "mobilis": 5455,
      "promin": 5456,
      "##smalling": 5457,
      "##omogeen": 5458,
      "##ronidazol": 5459,
      "##ev": 5460,
      "86": 5461,
      "##ensdag": 5462,
      "MW": 5463,
      "centraal": 5464,
      "##ramp": 5465,
      "ST": 5466,
      "oogt": 5467,
      "minimaal": 5468,
      "ferritine": 5469,
      "longarts": 5470,
      "MM": 5471,
      "##inde": 5472,
      "geind": 5473,
      "##adviseerd": 5474,
      "Frequentie": 5475,
      "mediale": 5476,
      "patroon": 5477,
      "##uij": 5478,
      "##oten": 5479,
      "##wart": 5480,
      "##antoux": 5481,
      "witte": 5482,
      "Asked": 5483,
      "vingers": 5484,
      "spondyl": 5485,
      "##ouder": 5486,
      "excisie": 5487,
      "Plaats": 5488,
      "##atheter": 5489,
      "Hierna": 5490,
      "inge": 5491,
      "##tjes": 5492,
      "langdurig": 5493,
      "beginn": 5494,
      "ventr": 5495,
      "##edoch": 5496,
      "##iti": 5497,
      "vraagstelling": 5498,
      "##stem": 5499,
      "Ooms": 5500,
      "##ichew": 5501,
      "gerel": 5502,
      "resectievlak": 5503,
      "##ziekten": 5504,
      "Bekken": 5505,
      "BI": 5506,
      "MP": 5507,
      "lange": 5508,
      "voeding": 5509,
      "Bes": 5510,
      "##idine": 5511,
      "supr": 5512,
      "Struijs": 5513,
      "##atuur": 5514,
      "hili": 5515,
      "slank": 5516,
      "##sma": 5517,
      "pijnstill": 5518,
      "verdikking": 5519,
      "CS00003853": 5520,
      "##cocyten": 5521,
      "##Cl": 5522,
      "##imm": 5523,
      "125": 5524,
      "Neemt": 5525,
      "##volgen": 5526,
      "mi": 5527,
      "##namelijk": 5528,
      "ipv": 5529,
      "haustratie": 5530,
      "##lazen": 5531,
      "Gaarne": 5532,
      "##basis": 5533,
      "Wervel": 5534,
      "##ortale": 5535,
      "extern": 5536,
      "coupes": 5537,
      "##krampen": 5538,
      "Poliep": 5539,
      "Ze": 5540,
      "##wijzigde": 5541,
      "lukt": 5542,
      "##ocytose": 5543,
      "##teerd": 5544,
      "##emand": 5545,
      "fraai": 5546,
      "paracetamol": 5547,
      "gemengdcellig": 5548,
      "spronggewricht": 5549,
      "tocilizumab": 5550,
      "##vloed": 5551,
      "stap": 5552,
      "##avond": 5553,
      "Hierbij": 5554,
      "liggen": 5555,
      "##VEN": 5556,
      "##engen": 5557,
      "IMA": 5558,
      "##huizen": 5559,
      "##olithiasis": 5560,
      "CS00003826": 5561,
      "hierbij": 5562,
      "HIV": 5563,
      "iemand": 5564,
      "drinken": 5565,
      "##ximab": 5566,
      "lymfoom": 5567,
      "##TIE": 5568,
      "carcinoom": 5569,
      "##rectie": 5570,
      "signific": 5571,
      "##opy": 5572,
      "Primaire": 5573,
      "79": 5574,
      "Uitslag": 5575,
      "Fist": 5576,
      "benigne": 5577,
      "Enige": 5578,
      "##icus": 5579,
      "##ijvlak": 5580,
      "##icob": 5581,
      "grij": 5582,
      "##ove": 5583,
      "CS00038311": 5584,
      "tend": 5585,
      "verdragen": 5586,
      "Uitgebreide": 5587,
      "jejunum": 5588,
      "##toon": 5589,
      "Iets": 5590,
      "##actie": 5591,
      "mellitus": 5592,
      "##cichew": 5593,
      "spontaan": 5594,
      "##urines": 5595,
      "omgeving": 5596,
      "lymfoide": 5597,
      "infectieuze": 5598,
      "diffuse": 5599,
      "Andere": 5600,
      "##vinden": 5601,
      "Hou": 5602,
      "##165": 5603,
      "bericht": 5604,
      "##email": 5605,
      "##utaan": 5606,
      "Diabetes": 5607,
      "##INE": 5608,
      "Meerdere": 5609,
      "##kte": 5610,
      "herstel": 5611,
      "relevante": 5612,
      "##zins": 5613,
      "afnemen": 5614,
      "gemeten": 5615,
      "beperkingen": 5616,
      "supps": 5617,
      "begonnen": 5618,
      "Den": 5619,
      "##hepatische": 5620,
      "echografisch": 5621,
      "Laboratorium": 5622,
      "vlak": 5623,
      "##icemail": 5624,
      "##ons": 5625,
      "Der": 5626,
      "TS": 5627,
      "Pte": 5628,
      "vetweefsel": 5629,
      "83": 5630,
      "61": 5631,
      "meet": 5632,
      "colostoma": 5633,
      "##uurde": 5634,
      "opgestuurd": 5635,
      "verontre": 5636,
      "afgrens": 5637,
      "assistent": 5638,
      "eveneens": 5639,
      "Erytrocyten": 5640,
      "colonbiopten": 5641,
      "kr": 5642,
      "##stemming": 5643,
      "##voet": 5644,
      "##bodem": 5645,
      "slechts": 5646,
      "OND": 5647,
      "drugs": 5648,
      "##oorn": 5649,
      "Gedurende": 5650,
      "##lopen": 5651,
      "Linker": 5652,
      "Vl": 5653,
      "aza": 5654,
      "allerg": 5655,
      "colo": 5656,
      "##oster": 5657,
      "##uiden": 5658,
      "kliniek": 5659,
      "##iste": 5660,
      "brijig": 5661,
      "obstructie": 5662,
      "woensdag": 5663,
      "Waar": 5664,
      "reden": 5665,
      "wederom": 5666,
      "tubulair": 5667,
      "breed": 5668,
      "gevolg": 5669,
      "inversie": 5670,
      "voorheen": 5671,
      "diagnostiek": 5672,
      "Mic": 5673,
      "hev": 5674,
      "ductus": 5675,
      "##ole": 5676,
      "bloeddruk": 5677,
      "##zepam": 5678,
      "VO": 5679,
      "formulier": 5680,
      "##opyrine": 5681,
      "uitst": 5682,
      "mate": 5683,
      "beenmerg": 5684,
      "geneeskundige": 5685,
      "dorsaal": 5686,
      "lichamelijk": 5687,
      "##vastatine": 5688,
      "Genees": 5689,
      "kijken": 5690,
      "slanke": 5691,
      "tweetal": 5692,
      "##amin": 5693,
      "##efrose": 5694,
      "##isatie": 5695,
      "##aecatie": 5696,
      "To": 5697,
      "vasculitis": 5698,
      "Pap": 5699,
      "87": 5700,
      "CS00003858": 5701,
      "patië": 5702,
      "lichaamsgewicht": 5703,
      "##oplasie": 5704,
      "mo": 5705,
      "plannen": 5706,
      "deden": 5707,
      "##DEN": 5708,
      "##pir": 5709,
      "ulcererende": 5710,
      "Alle": 5711,
      "##OB": 5712,
      "linkszijdig": 5713,
      "nauwelijks": 5714,
      "##orus": 5715,
      "##416": 5716,
      "Gesproken": 5717,
      "438": 5718,
      "LA": 5719,
      "94": 5720,
      "##kle": 5721,
      "Slijmvliesbiopten": 5722,
      "Dan": 5723,
      "##vulling": 5724,
      "Mezavant": 5725,
      "gastritis": 5726,
      "Mamm": 5727,
      "lip": 5728,
      "mac": 5729,
      "krijgen": 5730,
      "##malig": 5731,
      "rectosigmoid": 5732,
      "adnex": 5733,
      "##cande": 5734,
      "functionele": 5735,
      "hydrops": 5736,
      "RijthovenLaatst": 5737,
      "Minder": 5738,
      "kop": 5739,
      "histologisch": 5740,
      "diverticulitis": 5741,
      "overdag": 5742,
      "##ulf": 5743,
      "atrofie": 5744,
      "##fl": 5745,
      "##omeg": 5746,
      "Hyp": 5747,
      "verta": 5748,
      "##erkte": 5749,
      "##tair": 5750,
      "Vand": 5751,
      "##209": 5752,
      "##lectra": 5753,
      "##andid": 5754,
      "##ronefrose": 5755,
      "choledoch": 5756,
      "voornamelijk": 5757,
      "ileocolonoscopie": 5758,
      "begeleid": 5759,
      "##trekken": 5760,
      "insuff": 5761,
      "Slank": 5762,
      "436": 5763,
      "Klinisch": 5764,
      "##fys": 5765,
      "##icobacter": 5766,
      "TCH": 5767,
      "aanwezigheid": 5768,
      "PPI": 5769,
      "CS00003818": 5770,
      "Leeds": 5771,
      "##ayat": 5772,
      "##geluiden": 5773,
      "##wartz": 5774,
      "ess": 5775,
      "##gewrichten": 5776,
      "##sche": 5777,
      "0000000198": 5778,
      "Sam": 5779,
      "Digd": 5780,
      "##aps": 5781,
      "##excisie": 5782,
      "Digdco": 5783,
      "astma": 5784,
      "Schwartz": 5785,
      "nucleair": 5786,
      "##tig": 5787,
      "##rotische": 5788,
      "L2": 5789,
      "PB": 5790,
      "##rax": 5791,
      "##irale": 5792,
      "##iland": 5793,
      "Methotrexaat": 5794,
      "belast": 5795,
      "Plaatselijk": 5796,
      "flare": 5797,
      "Verwijz": 5798,
      "erosief": 5799,
      "onderhouds": 5800,
      "Hart": 5801,
      "##ING": 5802,
      "bijna": 5803,
      "Recent": 5804,
      "bijnieren": 5805,
      "##norm": 5806,
      "uiteindelijk": 5807,
      "##olling": 5808,
      "##oem": 5809,
      "##get": 5810,
      "##ps": 5811,
      "operaties": 5812,
      "AAN": 5813,
      "intacte": 5814,
      "nab": 5815,
      "##RO": 5816,
      "hepatis": 5817,
      "elk": 5818,
      "93": 5819,
      "crypte": 5820,
      "##indt": 5821,
      "consolidaties": 5822,
      "vinden": 5823,
      "##du": 5824,
      "##snog": 5825,
      "Different": 5826,
      "##gescande": 5827,
      "##alazopyrine": 5828,
      "##olif": 5829,
      "Vandaag": 5830,
      "##iceerde": 5831,
      "mmHg": 5832,
      "Twe": 5833,
      "algemeen": 5834,
      "caud": 5835,
      "kanaal": 5836,
      "Aanwijz": 5837,
      "##bject": 5838,
      "HQ": 5839,
      "##rat": 5840,
      "##velijk": 5841,
      "##gelegd": 5842,
      "##voegen": 5843,
      "Defecatie": 5844,
      "##ord": 5845,
      "gda": 5846,
      "##daar": 5847,
      "scherp": 5848,
      "immun": 5849,
      "##operamide": 5850,
      "##voorbeeld": 5851,
      "MDLGeregistreerd": 5852,
      "##lopig": 5853,
      "##geschreven": 5854,
      "ogend": 5855,
      "160": 5856,
      "##uff": 5857,
      "##oiden": 5858,
      "360": 5859,
      "aanvullende": 5860,
      "CS00003812": 5861,
      "89": 5862,
      "begrens": 5863,
      "81": 5864,
      "VAG": 5865,
      "##orden": 5866,
      "##Object": 5867,
      "##ilet": 5868,
      "AfspraakObject": 5869,
      "moeheid": 5870,
      "melan": 5871,
      "mobiliseren": 5872,
      "6M": 5873,
      "diar": 5874,
      "coel": 5875,
      "##rum": 5876,
      "sus": 5877,
      "##ycine": 5878,
      "neo": 5879,
      "Valvula": 5880,
      "patiënte": 5881,
      "600": 5882,
      "00000103": 5883,
      "Temp": 5884,
      "##umer": 5885,
      "medicamenteus": 5886,
      "Huis": 5887,
      "##res": 5888,
      "schoen": 5889,
      "##eerder": 5890,
      "aange": 5891,
      "Sta": 5892,
      "##aarom": 5893,
      "##roch": 5894,
      "Vervolgens": 5895,
      "FT": 5896,
      "##ekende": 5897,
      "rechteronder": 5898,
      "chew": 5899,
      "MDRD": 5900,
      "##ituximab": 5901,
      "side": 5902,
      "##eland": 5903,
      "speci": 5904,
      "IE": 5905,
      "cardiologie": 5906,
      "##omegalie": 5907,
      "bijvoorbeeld": 5908,
      "##kweken": 5909,
      "##500": 5910,
      "##klysma": 5911,
      "91": 5912,
      "linkerheup": 5913,
      "HQ190": 5914,
      "##aecaal": 5915,
      "Blij": 5916,
      "Conform": 5917,
      "##ring": 5918,
      "##lopend": 5919,
      "microscopische": 5920,
      "##req": 5921,
      "nodus": 5922,
      "adem": 5923,
      "thiosix": 5924,
      "120": 5925,
      "##pectievelijk": 5926,
      "EP": 5927,
      "zak": 5928,
      "geg": 5929,
      "Prednisolon": 5930,
      "##md": 5931,
      "hog": 5932,
      "passag": 5933,
      "Houdt": 5934,
      "##Reden": 5935,
      "ijzergebrek": 5936,
      "RD": 5937,
      "geworden": 5938,
      "buikwand": 5939,
      "Wervelkolom": 5940,
      "L3": 5941,
      "geprikt": 5942,
      "IX": 5943,
      "##plaatst": 5944,
      "aantoon": 5945,
      "waargenomen": 5946,
      "metaplasie": 5947,
      "Hyd": 5948,
      "Samsom": 5949,
      "soepele": 5950,
      "oedemateus": 5951,
      "##angsch": 5952,
      "macro": 5953,
      "calcif": 5954,
      "classificatie": 5955,
      "##reum": 5956,
      "Differentiaal": 5957,
      "termijn": 5958,
      "##merking": 5959,
      "ebnte": 5960,
      "##no": 5961,
      "##waarden": 5962,
      "etc": 5963,
      "endomet": 5964,
      "pathologisch": 5965,
      "huidige": 5966,
      "Hoog": 5967,
      "##zend": 5968,
      "##fosf": 5969,
      "Dict": 5970,
      "Dhr": 5971,
      "La": 5972,
      "BOVEN": 5973,
      "cortiment": 5974,
      "respectievelijk": 5975,
      "essentie": 5976,
      "dro": 5977,
      "vervolgen": 5978,
      "momenten": 5979,
      "T2": 5980,
      "##icolectomie": 5981,
      "50mg": 5982,
      "echtgen": 5983,
      "hepatica": 5984,
      "neoplasie": 5985,
      "##zw": 5986,
      "gespr": 5987,
      "eczeem": 5988,
      "##Âënt": 5989,
      "##ian": 5990,
      "##hydratie": 5991,
      "##com": 5992,
      "##ïde": 5993,
      "nuchter": 5994,
      "cil": 5995,
      "har": 5996,
      "##NE": 5997,
      "AZU": 5998,
      "ingenomen": 5999,
      "Bron": 6000,
      "dip": 6001,
      "AIO": 6002,
      "inclusie": 6003,
      "datum": 6004,
      "intraveneus": 6005,
      "nodulaire": 6006,
      "denkt": 6007,
      "##AR": 6008,
      "##lever": 6009,
      "##osum": 6010,
      "top": 6011,
      "437": 6012,
      "HD": 6013,
      "Daarna": 6014,
      "##ison": 6015,
      "##oll": 6016,
      "Recidief": 6017,
      "gister": 6018,
      "idee": 6019,
      "mtx": 6020,
      "##chterew": 6021,
      "Dysplasie": 6022,
      "##gebied": 6023,
      "##ices": 6024,
      "consistentie": 6025,
      "dalspiegel": 6026,
      "Eet": 6027,
      "depressie": 6028,
      "##rijke": 6029,
      "anamnestisch": 6030,
      "##kuur": 6031,
      "##gv": 6032,
      "##cox": 6033,
      "##ue": 6034,
      "bepalen": 6035,
      "regel": 6036,
      "Gastroscopie": 6037,
      "##organ": 6038,
      "5x": 6039,
      "##vv": 6040,
      "waterd": 6041,
      "bioch": 6042,
      "##gener": 6043,
      "Dicteerder": 6044,
      "energie": 6045,
      "Lymfocyten": 6046,
      "##adran": 6047,
      "nierinsuff": 6048,
      "verstuurde": 6049,
      "cytologie": 6050,
      "aanp": 6051,
      "##ark": 6052,
      "##bu": 6053,
      "WJ": 6054,
      "Diver": 6055,
      "##aik": 6056,
      "Ma": 6057,
      "##athische": 6058,
      "Afwijkingen": 6059,
      "##splan": 6060,
      "HR": 6061,
      "Ste": 6062,
      "##cg": 6063,
      "##94": 6064,
      "cysten": 6065,
      "Eosinof": 6066,
      "pylorus": 6067,
      "##randen": 6068,
      "idiop": 6069,
      "##iakie": 6070,
      "griep": 6071,
      "mail": 6072,
      "Duoden": 6073,
      "navel": 6074,
      "EBV": 6075,
      "opvallende": 6076,
      "##merkingen": 6077,
      "agg": 6078,
      "cryptd": 6079,
      "##GFR": 6080,
      "Pulm": 6081,
      "infecties": 6082,
      "##score": 6083,
      "##elara": 6084,
      "ERCP": 6085,
      "bijgeluiden": 6086,
      "CS00003825": 6087,
      "##sion": 6088,
      "##oprol": 6089,
      "ontstaan": 6090,
      "kramp": 6091,
      "##iniging": 6092,
      "ir": 6093,
      "##vindingen": 6094,
      "##persoon": 6095,
      "reikend": 6096,
      "Extra": 6097,
      "onduidelijk": 6098,
      "aanleggen": 6099,
      "fysi": 6100,
      "Overig": 6101,
      "Stenose": 6102,
      "##ulus": 6103,
      "Leucocyten": 6104,
      "nas": 6105,
      "##cir": 6106,
      "##esterol": 6107,
      "430": 6108,
      "glucose": 6109,
      "pylori": 6110,
      "fragmenten": 6111,
      "steatose": 6112,
      "##tje": 6113,
      "extre": 6114,
      "gesprek": 6115,
      "##kend": 6116,
      "verdikt": 6117,
      "slaperig": 6118,
      "minuten": 6119,
      "potje": 6120,
      "Dunne": 6121,
      "##32": 6122,
      "Nov": 6123,
      "##vaat": 6124,
      "6MMP": 6125,
      "##oons": 6126,
      "##ava": 6127,
      "Geboorteland": 6128,
      "##geen": 6129,
      "hydronefrose": 6130,
      "Foliumzuur": 6131,
      "dermatoloog": 6132,
      "##gevoel": 6133,
      "aanta": 6134,
      "##Tot": 6135,
      "##ouden": 6136,
      "CS00050407": 6137,
      "##elle": 6138,
      "##185": 6139,
      "orale": 6140,
      "terugtrekken": 6141,
      "CS00003843": 6142,
      "nec": 6143,
      "opbouw": 6144,
      "##oprolol": 6145,
      "kreat": 6146,
      "##TC": 6147,
      "2w": 6148,
      "##oring": 6149,
      "##hes": 6150,
      "beeldvorming": 6151,
      "BVO": 6152,
      "doorg": 6153,
      "punt": 6154,
      "appendectomie": 6155,
      "RDW": 6156,
      "Lokalisatie": 6157,
      "wanneer": 6158,
      "##iter": 6159,
      "morf": 6160,
      "sk": 6161,
      "##red": 6162,
      "burs": 6163,
      "injecties": 6164,
      "##oliferatie": 6165,
      "##otisch": 6166,
      "##170": 6167,
      "##Âïd": 6168,
      "behandel": 6169,
      "houdt": 6170,
      "voorgaand": 6171,
      "hyperch": 6172,
      "##tende": 6173,
      "##racturen": 6174,
      "Persist": 6175,
      "Dik": 6176,
      "onregelmatige": 6177,
      "##unten": 6178,
      "Thans": 6179,
      "systeem": 6180,
      "##vent": 6181,
      "opnamen": 6182,
      "aanvullend": 6183,
      "Totale": 6184,
      "gemetastas": 6185,
      "alge": 6186,
      "##acarcinoom": 6187,
      "Aug": 6188,
      "##olu": 6189,
      "cardia": 6190,
      "Had": 6191,
      "bleek": 6192,
      "baat": 6193,
      "##64": 6194,
      "reumatologie": 6195,
      "##breiding": 6196,
      "darmwandverdikking": 6197,
      "darmkanker": 6198,
      "dubb": 6199,
      "440": 6200,
      "onru": 6201,
      "##controle": 6202,
      "gGT": 6203,
      "##ria": 6204,
      "gewrichtspijn": 6205,
      "##rivast": 6206,
      "blijk": 6207,
      "##bumine": 6208,
      "KCL": 6209,
      "##ortadem": 6210,
      "4dd": 6211,
      "Cort": 6212,
      "weet": 6213,
      "##lagig": 6214,
      "##sting": 6215,
      "leverfunctie": 6216,
      "oesophagus": 6217,
      "random": 6218,
      "dens": 6219,
      "##iitis": 6220,
      "relatief": 6221,
      "gedilateerde": 6222,
      "glad": 6223,
      "##obbel": 6224,
      "1989": 6225,
      "cholangitis": 6226,
      "##arc": 6227,
      "pak": 6228,
      "##formine": 6229,
      "let": 6230,
      "##Naam": 6231,
      "##oelen": 6232,
      "CS00003822": 6233,
      "weefselfrag": 6234,
      "cereb": 6235,
      "REC": 6236,
      "Nooit": 6237,
      "ernstig": 6238,
      "aggreg": 6239,
      "MS": 6240,
      "##iever": 6241,
      "stoornis": 6242,
      "tov": 6243,
      "littekens": 6244,
      "##rotomie": 6245,
      "TP": 6246,
      "##unn": 6247,
      "##structuur": 6248,
      "stenosen": 6249,
      "MCHC": 6250,
      "##othorax": 6251,
      "Monocyten": 6252,
      "##rivastava": 6253,
      "waren": 6254,
      "bewegen": 6255,
      "suspect": 6256,
      "##US": 6257,
      "##rep": 6258,
      "##elect": 6259,
      "verstoorde": 6260,
      "##cyt": 6261,
      "##160": 6262,
      "Verm": 6263,
      "##lastiek": 6264,
      "vers": 6265,
      "inj": 6266,
      "Terminale": 6267,
      "Mg": 6268,
      "##antwoording": 6269,
      "Infuus": 6270,
      "granuloom": 6271,
      "fmol": 6272,
      "##rofie": 6273,
      "##uitslagen": 6274,
      "SF": 6275,
      "mult": 6276,
      "ventraal": 6277,
      "diet": 6278,
      "aangevraagd": 6279,
      "bena": 6280,
      "diclofenac": 6281,
      "ingesproken": 6282,
      "daarnaast": 6283,
      "sim": 6284,
      "##gram": 6285,
      "##iviteit": 6286,
      "lokalisatie": 6287,
      "fragment": 6288,
      "pulmonale": 6289,
      "##ometrie": 6290,
      "gerelateerd": 6291,
      "##irurgie": 6292,
      "##preking": 6293,
      "Beantwoording": 6294,
      "mgr": 6295,
      "Bogte": 6296,
      "Alge": 6297,
      "Basof": 6298,
      "gluc": 6299,
      "evident": 6300,
      "##alkingen": 6301,
      "BBPS": 6302,
      "virale": 6303,
      "bloeder": 6304,
      "qua": 6305,
      "HE": 6306,
      "##pv": 6307,
      "verheven": 6308,
      "vorming": 6309,
      "##sing": 6310,
      "jr": 6311,
      "##ijding": 6312,
      "cryptdist": 6313,
      "He": 6314,
      "##St": 6315,
      "abatacept": 6316,
      "428": 6317,
      "2000036": 6318,
      "Ster": 6319,
      "##UR": 6320,
      "##spleet": 6321,
      "VALUE2": 6322,
      "Volled": 6323,
      "nogmaals": 6324,
      "MB": 6325,
      "Abces": 6326,
      "Glucose": 6327,
      "afmeting": 6328,
      "Cl": 6329,
      "##EG": 6330,
      "sacro": 6331,
      "afhankelijk": 6332,
      "gekomen": 6333,
      "abdominaal": 6334,
      "##uri": 6335,
      "fibrine": 6336,
      "Hen": 6337,
      "horm": 6338,
      "oper": 6339,
      "Bechterew": 6340,
      "biological": 6341,
      "Alhier": 6342,
      "kweken": 6343,
      "1988": 6344,
      "Huisarts": 6345,
      "CS00003813": 6346,
      "enteritis": 6347,
      "HNP": 6348,
      "##reed": 6349,
      "colontype": 6350,
      "adequaat": 6351,
      "eenmalig": 6352,
      "##metastasen": 6353,
      "Kreatinine": 6354,
      "##oes": 6355,
      "##ije": 6356,
      "##cul": 6357,
      "toilet": 6358,
      "UA": 6359,
      "accoord": 6360,
      "Aanwijzingen": 6361,
      "##wijking": 6362,
      "Blijft": 6363,
      "##OEK": 6364,
      "##INK": 6365,
      "hyperplasie": 6366,
      "Ziek": 6367,
      "##ovo": 6368,
      "##inject": 6369,
      "monotherapie": 6370,
      "Gal": 6371,
      "RvC": 6372,
      "HPV": 6373,
      "Kreeg": 6374,
      "Patiënte": 6375,
      "hervatten": 6376,
      "##62": 6377,
      "##miteiten": 6378,
      "CS00003842": 6379,
      "WK": 6380,
      "metamucil": 6381,
      "##theses": 6382,
      "##zt": 6383,
      "##haling": 6384,
      "Eosinofielen": 6385,
      "zeg": 6386,
      "##mentin": 6387,
      "##alcif": 6388,
      "infiltraten": 6389,
      "TER": 6390,
      "jaarlijk": 6391,
      "mediaal": 6392,
      "duodeni": 6393,
      "afstand": 6394,
      "Osteopenie": 6395,
      "Boven": 6396,
      "CS00050717": 6397,
      "nag": 6398,
      "abnorm": 6399,
      "Distale": 6400,
      "##rocort": 6401,
      "3e": 6402,
      "tenen": 6403,
      "##wens": 6404,
      "Uitleg": 6405,
      "klierb": 6406,
      "Lumb": 6407,
      "Localisatie": 6408,
      "vaccin": 6409,
      "Basofielen": 6410,
      "maakt": 6411,
      "Ontsteking": 6412,
      "stuwing": 6413,
      "plaatsing": 6414,
      "synovitis": 6415,
      "##oont": 6416,
      "perfusie": 6417,
      "bestaat": 6418,
      "Pancolitis": 6419,
      "##ramadol": 6420,
      "pouchitis": 6421,
      "RV": 6422,
      "MRCP": 6423,
      "onderliggende": 6424,
      "##ips": 6425,
      "Laboratoriumonderzoek": 6426,
      "Schaik": 6427,
      "ruimte": 6428,
      "bereikt": 6429,
      "gezond": 6430,
      "volgen": 6431,
      "BOVENBUIK": 6432,
      "gelu": 6433,
      "##otomie": 6434,
      "overleden": 6435,
      "DIP": 6436,
      "cardioloog": 6437,
      "##iltratie": 6438,
      "##ice": 6439,
      "Patientgegevens": 6440,
      "LINK": 6441,
      "##vragen": 6442,
      "##indrisch": 6443,
      "##ceptie": 6444,
      "vloe": 6445,
      "geachte": 6446,
      "Vervolg": 6447,
      "##beelde": 6448,
      "valvula": 6449,
      "##uig": 6450,
      "Asacol": 6451,
      "Alk": 6452,
      "##breuk": 6453,
      "##eeee": 6454,
      "##istente": 6455,
      "peric": 6456,
      "beperkte": 6457,
      "##836": 6458,
      "##stof": 6459,
      "and": 6460,
      "PAS": 6461,
      "Duodenum": 6462,
      "face": 6463,
      "##x10": 6464,
      "quo": 6465,
      "Doorsneden": 6466,
      "##Status": 6467,
      "##adisch": 6468,
      "INT": 6469,
      "##ituatie": 6470,
      "foll": 6471,
      "subcutaan": 6472,
      "Urine": 6473,
      "recti": 6474,
      "##ph": 6475,
      "doorgemaakt": 6476,
      "Ulcer": 6477,
      "cryptdistorsie": 6478,
      "ampulla": 6479,
      "##iva": 6480,
      "chemotherapie": 6481,
      "betrokken": 6482,
      "MMB": 6483,
      "hard": 6484,
      "appendixbasis": 6485,
      "Neutrofie": 6486,
      "metastase": 6487,
      "Chronische": 6488,
      "vervolgconsultA": 6489,
      "incontin": 6490,
      "vlek": 6491,
      "##raad": 6492,
      "verlaagd": 6493,
      "refractaire": 6494,
      "##ijds": 6495,
      "interval": 6496,
      "Gestart": 6497,
      "##ts": 6498,
      "geadviseerd": 6499,
      "wr": 6500,
      "##kweek": 6501,
      "gynaecoloog": 6502,
      "kortadem": 6503,
      "mrt": 6504,
      "##ique": 6505,
      "mucosale": 6506,
      "##xon": 6507,
      "clin": 6508,
      "##oest": 6509,
      "eet": 6510,
      "prominente": 6511,
      "car": 6512,
      "##VERZ": 6513,
      "NaCl": 6514,
      "get": 6515,
      "##arco": 6516,
      "Li": 6517,
      "doorsnijdingen": 6518,
      "grootste": 6519,
      "TJ": 6520,
      "BUI": 6521,
      "##psie": 6522,
      "Osteoporose": 6523,
      "Sn": 6524,
      "cryptitis": 6525,
      "Screening": 6526,
      "##210": 6527,
      "PA3": 6528,
      "toler": 6529,
      "##KOVERZ": 6530,
      "BUIKOVERZ": 6531,
      "onderbeen": 6532,
      "##houdendheid": 6533,
      "pus": 6534,
      "rugpijn": 6535,
      "poliepjes": 6536,
      "voorlopig": 6537,
      "verontreiniging": 6538,
      "RECH": 6539,
      "druppels": 6540,
      "ileocaecaal": 6541,
      "Echografisch": 6542,
      "##kort": 6543,
      "##ekin": 6544,
      "grijs": 6545,
      "bew": 6546,
      "##metrisch": 6547,
      "hemicolectomie": 6548,
      "Act": 6549,
      "Ev": 6550,
      "Reum": 6551,
      "cholecyst": 6552,
      "##amma": 6553,
      "ve": 6554,
      "aantoonbaar": 6555,
      "reumatoide": 6556,
      "poliepectomie": 6557,
      "Beclomet": 6558,
      "tendin": 6559,
      "sfincterspanning": 6560,
      "##clerose": 6561,
      "Skelet": 6562,
      "afgebeelde": 6563,
      "CCP": 6564,
      "tolereren": 6565,
      "##utatie": 6566,
      "##vindt": 6567,
      "BUIKOVERZICHT": 6568,
      "Klaring": 6569,
      "eGFR": 6570,
      "herken": 6571,
      "PT": 6572,
      "Uitgebreid": 6573,
      "##laat": 6574,
      "spreekuur": 6575,
      "Bloeddruk": 6576,
      "werv": 6577,
      "metronidazol": 6578,
      "##liggend": 6579,
      "purines": 6580,
      "Omeprazol": 6581,
      "LD": 6582,
      "##benen": 6583,
      "rugklachten": 6584,
      "##laviculair": 6585,
      "##Con": 6586,
      "verminderd": 6587,
      "kap": 6588,
      "##ode": 6589,
      "Intacte": 6590,
      "werken": 6591,
      "##alciferol": 6592,
      "##uiting": 6593,
      "Srivastava": 6594,
      "icm": 6595,
      "cryptabcessen": 6596,
      "##ation": 6597,
      "Super": 6598,
      "GIE": 6599,
      "##kage": 6600,
      "Actieve": 6601,
      "inzak": 6602,
      "eff": 6603,
      "diafragma": 6604,
      "beginnende": 6605,
      "##compliceerde": 6606,
      "##ucle": 6607,
      "##positie": 6608,
      "100mg": 6609,
      "histi": 6610,
      "My": 6611,
      "##ettes": 6612,
      "##igh": 6613,
      "##spreken": 6614,
      "deficientie": 6615,
      "naproxen": 6616,
      "verschenen": 6617,
      "##gat": 6618,
      "regulier": 6619,
      "ovar": 6620,
      "aangekomen": 6621,
      "AM": 6622,
      "Diak": 6623,
      "Cir": 6624,
      "soc": 6625,
      "Voet": 6626,
      "inflammatoir": 6627,
      "allergieën": 6628,
      "Mun": 6629,
      "overg": 6630,
      "##peritone": 6631,
      "IgG": 6632,
      "##sbeperking": 6633,
      "ontstekingsrest": 6634,
      "A740": 6635,
      "verpleegkundige": 6636,
      "overname": 6637,
      "103": 6638,
      "epis": 6639,
      "3mnd": 6640,
      "Recidiverende": 6641,
      "uitbreiding": 6642,
      "LINKS": 6643,
      "##Genees": 6644,
      "schema": 6645,
      "##Geneesmiddel": 6646,
      "Moons": 6647,
      "Ved": 6648,
      "1870": 6649,
      "pijnstilling": 6650,
      "oogarts": 6651,
      "choledochus": 6652,
      "calcificaties": 6653,
      "Neutrofielen": 6654,
      "Dus": 6655,
      "oa": 6656,
      "vaker": 6657,
      "psoriasis": 6658,
      "##ptie": 6659,
      "##stuk": 6660,
      "Lang": 6661,
      "bloedbijmenging": 6662,
      "verstuurd": 6663,
      "signaal": 6664,
      "##wendige": 6665,
      "Kl": 6666,
      "tgv": 6667,
      "##durend": 6668,
      "papil": 6669,
      "ciproxin": 6670,
      "Medic": 6671,
      "##ene": 6672,
      "heft": 6673,
      "bronchitis": 6674,
      "##organen": 6675,
      "dev": 6676,
      "mede": 6677,
      "##klep": 6678,
      "##fyseem": 6679,
      "##onius": 6680,
      "##infiltratie": 6681,
      "plaatsvindt": 6682,
      "portale": 6683,
      "##UN": 6684,
      "##RADS": 6685,
      "kon": 6686,
      "ontvangen": 6687,
      "Cortiment": 6688,
      "##ly": 6689,
      "cassettes": 6690,
      "budenofalk": 6691,
      "##oïd": 6692,
      "##zwelling": 6693,
      "Gisteren": 6694,
      "##sth": 6695,
      "steatosis": 6696,
      "moeten": 6697,
      "##agnes": 6698,
      "INH": 6699,
      "buikkrampen": 6700,
      "rechternier": 6701,
      "botstructuur": 6702,
      "##band": 6703,
      "teen": 6704,
      "epig": 6705,
      "geinkt": 6706,
      "thv": 6707,
      "Mundt": 6708,
      "##omide": 6709,
      "##eleb": 6710,
      "##ueel": 6711,
      "##isc": 6712,
      "##VT": 6713,
      "JC": 6714,
      "##303": 6715,
      "zoon": 6716,
      "##wegingsbeperking": 6717,
      "Helicobacter": 6718,
      "##umor": 6719,
      "Vooral": 6720,
      "drukpijnlijk": 6721,
      "##ata": 6722,
      "loop": 6723,
      "echografie": 6724,
      "##lenomegalie": 6725,
      "beve": 6726,
      "overweg": 6727,
      "uitgebluste": 6728,
      "Meiland": 6729,
      "Belafspraak": 6730,
      "formaline": 6731,
      "##haald": 6732,
      "##okriet": 6733,
      "bijwerking": 6734,
      "willen": 6735,
      "belang": 6736,
      "##acrale": 6737,
      "verdachte": 6738,
      "low": 6739,
      "Hematokriet": 6740,
      "tri": 6741,
      "hetzelfde": 6742,
      "##pof": 6743,
      "##ipine": 6744,
      "huidafwijkingen": 6745,
      "##65": 6746,
      "##ogeleide": 6747,
      "buikpijnklachten": 6748,
      "Huidbiopt": 6749,
      "##idose": 6750,
      "Verspreid": 6751,
      "CS00003821": 6752,
      "##ntgen": 6753,
      "Beg": 6754,
      "##ute": 6755,
      "##illine": 6756,
      "##II": 6757,
      "overt": 6758,
      "##72": 6759,
      "Verburg": 6760,
      "##middag": 6761,
      "submucosale": 6762,
      "celrijk": 6763,
      "Dikke": 6764,
      "ball": 6765,
      "tpv": 6766,
      "##armac": 6767,
      "##anco": 6768,
      "Imm": 6769,
      "liever": 6770,
      "##xe": 6771,
      "ons": 6772,
      "gerangsch": 6773,
      "gaarne": 6774,
      "RECHTS": 6775,
      "##stekin": 6776,
      "CS00003816": 6777,
      "bekled": 6778,
      "lekker": 6779,
      "Pan": 6780,
      "gedaald": 6781,
      "Offer": 6782,
      "sigmoÂïd": 6783,
      "##elebrex": 6784,
      "gol": 6785,
      "##45": 6786,
      "Drugs": 6787,
      "##1242": 6788,
      "##GE": 6789,
      "##ripr": 6790,
      "abd": 6791,
      "##haus": 6792,
      "##enst": 6793,
      "##riaxon": 6794,
      "syst": 6795,
      "CS0005098": 6796,
      "Dex": 6797,
      "Venhuizen": 6798,
      "Nier": 6799,
      "##inalis": 6800,
      "Schouder": 6801,
      "trombose": 6802,
      "linkernier": 6803,
      "##izaam": 6804,
      "##stap": 6805,
      "bili": 6806,
      "Add": 6807,
      "Lijkt": 6808,
      "##wogen": 6809,
      "##FD": 6810,
      "Hand": 6811,
      "endoscoop": 6812,
      "B0": 6813,
      "uitrij": 6814,
      "blanco": 6815,
      "gere": 6816,
      "##che": 6817,
      "UC": 6818,
      "##mene": 6819,
      "situatie": 6820,
      "##defect": 6821,
      "##ocarcinoom": 6822,
      "ontstekingsp": 6823,
      "Ber": 6824,
      "Mamma": 6825,
      "epigast": 6826,
      "Offerhaus": 6827,
      "movicolon": 6828,
      "##perking": 6829,
      "##KEN": 6830,
      "Die": 6831,
      "abcesvorming": 6832,
      "transmur": 6833,
      "elkaar": 6834,
      "geval": 6835,
      "stijfheid": 6836,
      "CS0001242": 6837,
      "BOZ": 6838,
      "PI": 6839,
      "sterke": 6840,
      "433": 6841,
      "MDO": 6842,
      "##pofol": 6843,
      "afspraken": 6844,
      "schade": 6845,
      "O730": 6846,
      "aard": 6847,
      "oc": 6848,
      "##oloscopie": 6849,
      "opgeb": 6850,
      "aneur": 6851,
      "Cholec": 6852,
      "inspectie": 6853,
      "##ulfas": 6854,
      "voorgeschreven": 6855,
      "persisterend": 6856,
      "##eftriaxon": 6857,
      "C2": 6858,
      "Mammografie": 6859,
      "squ": 6860,
      "control": 6861,
      "##splantatie": 6862,
      "darmtype": 6863,
      "labco": 6864,
      "blauw": 6865,
      "lumen": 6866,
      "##BB4": 6867,
      "verbreed": 6868,
      "flow": 6869,
      "##atroon": 6870,
      "##omer": 6871,
      "mictie": 6872,
      "##Van": 6873,
      "##rodeses": 6874,
      "##extirpatie": 6875,
      "plaveisel": 6876,
      "blijkt": 6877,
      "freq": 6878,
      "schuim": 6879,
      "schoenen": 6880,
      "##zorg": 6881,
      "1987": 6882,
      "##roei": 6883,
      "cryptepitheel": 6884,
      "##mit": 6885,
      "##uline": 6886,
      "mgl": 6887,
      "WIS": 6888,
      "##unomide": 6889,
      "LV": 6890,
      "Fistel": 6891,
      "Zou": 6892,
      "##KOR": 6893,
      "geste": 6894,
      "##afel": 6895,
      "uitsluiten": 6896,
      "voorgaande": 6897,
      "Lichte": 6898,
      "orthoped": 6899,
      "##istolling": 6900,
      "##Conclusie": 6901,
      "leverb": 6902,
      "##comp": 6903,
      "mit": 6904,
      "15mg": 6905,
      "gelukt": 6906,
      "enbrel": 6907,
      "Protheses": 6908,
      "##oder": 6909,
      "25mg": 6910,
      "dieper": 6911,
      "arthrodeses": 6912,
      "serologie": 6913,
      "gereg": 6914,
      "##iconceptie": 6915,
      "significante": 6916,
      "##komen": 6917,
      "Bijw": 6918,
      "Pe": 6919,
      "##ther": 6920,
      "Minimale": 6921,
      "##93": 6922,
      "##cyste": 6923,
      "##7C": 6924,
      "klys": 6925,
      "Geneeskunde": 6926,
      "POE": 6927,
      "##VID": 6928,
      "##50mg": 6929,
      "##coxia": 6930,
      "0209": 6931,
      "4165": 6932,
      "##inigd": 6933,
      "9DB": 6934,
      "##emateuze": 6935,
      "Behandeldoel": 6936,
      "CA7C": 6937,
      "FNMKOR": 6938,
      "##7340C": 6939,
      "##836BB4": 6940,
      "B024": 6941,
      "9DB7340C": 6942,
      "CA7C836BB4": 6943,
      "FNMKORS": 6944,
      "CA7C836BB4FD": 6945,
      "##LI": 6946,
      "##cteerd": 6947,
      "mammacarcinoom": 6948,
      "bol": 6949,
      "##anvis": 6950,
      "spoed": 6951,
      "ACTIE": 6952,
      "vert": 6953,
      "##neman": 6954,
      "##stijfheid": 6955,
      "Ongewijzigde": 6956,
      "Lunt": 6957,
      "##S2": 6958,
      "slik": 6959,
      "##aaf": 6960,
      "clinique": 6961,
      "##fib": 6962,
      "##paraten": 6963,
      "kaak": 6964,
      "##ctiv": 6965,
      "##2222": 6966,
      "Arts": 6967,
      "Sym": 6968,
      "overwogen": 6969,
      "Bili": 6970,
      "##san": 6971,
      "localisatie": 6972,
      "versterkte": 6973,
      "submucosa": 6974,
      "sondevoeding": 6975,
      "Polik": 6976,
      "EX": 6977,
      "##tran": 6978,
      "artralgie": 6979,
      "primaire": 6980,
      "##vio": 6981,
      "130": 6982,
      "JJ": 6983,
      "COVID": 6984,
      "##ethidine": 6985,
      "centrale": 6986,
      "dhr": 6987,
      "darmslijmvlies": 6988,
      "granulair": 6989,
      "drinkt": 6990,
      "allergische": 6991,
      "##ete": 6992,
      "ellebogen": 6993,
      "tzt": 6994,
      "prote": 6995,
      "moeizaam": 6996,
      "##ogram": 6997,
      "fase": 6998,
      "benauwd": 6999,
      "Ne": 7000,
      "aanvrager": 7001,
      "intestinaal": 7002,
      "mesenteriale": 7003,
      "inclusief": 7004,
      "##61": 7005,
      "##spunten": 7006,
      "##middelen": 7007,
      "m2": 7008,
      "Ang": 7009,
      "Leuk": 7010,
      "Waarschijnlijk": 7011,
      "coeliakie": 7012,
      "lesies": 7013,
      "lijst": 7014,
      "nl": 7015,
      "##71": 7016,
      "##Âïden": 7017,
      "beloop": 7018,
      "grotende": 7019,
      "maligne": 7020,
      "Sociale": 7021,
      "tc": 7022,
      "verlit": 7023,
      "onderhoudsmedicatie": 7024,
      "juist": 7025,
      "specifiek": 7026,
      "vetinfiltratie": 7027,
      "##ding": 7028,
      "##yvio": 7029,
      "grotendeels": 7030,
      "organis": 7031,
      "##opening": 7032,
      "EH": 7033,
      "spe": 7034,
      "##kering": 7035,
      "opin": 7036,
      "Gebeld": 7037,
      "VB": 7038,
      "##aryn": 7039,
      "neven": 7040,
      "##bezoek": 7041,
      "##1111": 7042,
      "##stekinumab": 7043,
      "polyartritis": 7044,
      "dehydratie": 7045,
      "##oortje": 7046,
      "sluit": 7047,
      "##HAN": 7048,
      "Ziekte": 7049,
      "Ob": 7050,
      "LOY": 7051,
      "klacht": 7052,
      "streng": 7053,
      "klierbuizen": 7054,
      "##agnesium": 7055,
      "daarom": 7056,
      "##omogene": 7057,
      "klachtenvrij": 7058,
      "##375": 7059,
      "afvallen": 7060,
      "thromb": 7061,
      "##itiatief": 7062,
      "vedo": 7063,
      "bezig": 7064,
      "Intra": 7065,
      "adenocarcinoom": 7066,
      "##pora": 7067,
      "pees": 7068,
      "##operatief": 7069,
      "TSH": 7070,
      "T0": 7071,
      "##lab": 7072,
      "Gewricht": 7073,
      "DMARDGeneesmiddel": 7074,
      "SJ": 7075,
      "reumatoïde": 7076,
      "Verd": 7077,
      "Cerv": 7078,
      "Zw": 7079,
      "conserv": 7080,
      "Calcium": 7081,
      "##ocell": 7082,
      "lev": 7083,
      "gelok": 7084,
      "##edere": 7085,
      "##rio": 7086,
      "##vasc": 7087,
      "##etol": 7088,
      "##erie": 7089,
      "Vor": 7090,
      "voicemail": 7091,
      "intolerantie": 7092,
      "impressie": 7093,
      "centim": 7094,
      "infiltratie": 7095,
      "##VI": 7096,
      "##eton": 7097,
      "onderste": 7098,
      "profyla": 7099,
      "##ulpl": 7100,
      "positie": 7101,
      "##nf": 7102,
      "##igra": 7103,
      "metab": 7104,
      "uitb": 7105,
      "##plaatsing": 7106,
      "pers": 7107,
      "##uitslag": 7108,
      "maagklachten": 7109,
      "armen": 7110,
      "geplaatst": 7111,
      "##ulplijn": 7112,
      "sigar": 7113,
      "##ulfasalazine": 7114,
      "##des": 7115,
      "Antonius": 7116,
      "EXT": 7117,
      "infect": 7118,
      "##matica": 7119,
      "pericard": 7120,
      "##rost": 7121,
      "##oplasm": 7122,
      "Afgelopen": 7123,
      "flardje": 7124,
      "pantozol": 7125,
      "adenomateuze": 7126,
      "femor": 7127,
      "kind": 7128,
      "stapeling": 7129,
      "biochemisch": 7130,
      "##glas": 7131,
      "##ticul": 7132,
      "##opp": 7133,
      "2022": 7134,
      "1985": 7135,
      "##utis": 7136,
      "##uitval": 7137,
      "SS": 7138,
      "oud": 7139,
      "Rest": 7140,
      "##83": 7141,
      "##icitis": 7142,
      "Questran": 7143,
      "verwijderen": 7144,
      "reag": 7145,
      "perifere": 7146,
      "tuber": 7147,
      "narc": 7148,
      "##opr": 7149,
      "Rechter": 7150,
      "line": 7151,
      "zorgen": 7152,
      "Thiosix": 7153,
      "##urinetol": 7154,
      "plus": 7155,
      "A1": 7156,
      "fiet": 7157,
      "##3333": 7158,
      "frequente": 7159,
      "##enie": 7160,
      "leverenzymen": 7161,
      "erger": 7162,
      "##electase": 7163,
      "H180": 7164,
      "##amelle": 7165,
      "##struatie": 7166,
      "verrichten": 7167,
      "onderkwab": 7168,
      "##oca": 7169,
      "##bro": 7170,
      "blok": 7171,
      "sindsdien": 7172,
      "DVT": 7173,
      "##versmalling": 7174,
      "vooralsnog": 7175,
      "initiatief": 7176,
      "BlaasLaatst": 7177,
      "narcose": 7178,
      "Herst": 7179,
      "aanw": 7180,
      "##iaz": 7181,
      "achteruit": 7182,
      "101": 7183,
      "##yreoid": 7184,
      "tanden": 7185,
      "pyel": 7186,
      "opinion": 7187,
      "##GA": 7188,
      "##ergens": 7189,
      "EPE": 7190,
      "Familieanamnese": 7191,
      "darmslijmvliesbiopten": 7192,
      "Sigmoidoscopie": 7193,
      "##vaattekening": 7194,
      "pan": 7195,
      "defaecatie": 7196,
      "kleuringen": 7197,
      "ws": 7198,
      "##put": 7199,
      "##chting": 7200,
      "palpabele": 7201,
      "pil": 7202,
      "sporadisch": 7203,
      "Inform": 7204,
      "herstarten": 7205,
      "mezavant": 7206,
      "Hepat": 7207,
      "##odes": 7208,
      "hiermee": 7209,
      "trauma": 7210,
      "tuss": 7211,
      "##entatie": 7212,
      "cipro": 7213,
      "FA": 7214,
      "pneumothorax": 7215,
      "Feb": 7216,
      "CS00003855": 7217,
      "LET": 7218,
      "granula": 7219,
      "429": 7220,
      "lichamelijke": 7221,
      "RvO": 7222,
      "deficiëntie": 7223,
      "wekelijks": 7224,
      "loperamide": 7225,
      "##endum": 7226,
      "info": 7227,
      "overwegend": 7228,
      "rill": 7229,
      "##gene": 7230,
      "##stijds": 7231,
      "##iochemie": 7232,
      "sluiten": 7233,
      "At": 7234,
      "##formulier": 7235,
      "gewrichtsspleet": 7236,
      "CS00003827": 7237,
      "Oes": 7238,
      "oppervlakte": 7239,
      "bevat": 7240,
      "##trium": 7241,
      "therap": 7242,
      "##lox": 7243,
      "##aring": 7244,
      "CS00000039": 7245,
      "slapen": 7246,
      "craniaal": 7247,
      "overtuig": 7248,
      "EPI": 7249,
      "##status": 7250,
      "##ijfer": 7251,
      "##rocortison": 7252,
      "typ": 7253,
      "##UL": 7254,
      "##MR": 7255,
      "##rank": 7256,
      "##sbehandeling": 7257,
      "##infarct": 7258,
      "##ient": 7259,
      "##atische": 7260,
      "##atrie": 7261,
      "CS00003801": 7262,
      "##wwwwwwww": 7263,
      "##CT": 7264,
      "Bar": 7265,
      "ulceratieve": 7266,
      "leverparenchym": 7267,
      "consolidatie": 7268,
      "vpk": 7269,
      "Res": 7270,
      "ren": 7271,
      "##enchym": 7272,
      "daarvoor": 7273,
      "zieke": 7274,
      "##vinding": 7275,
      "##erapeutische": 7276,
      "Metamucil": 7277,
      "Via": 7278,
      "lijken": 7279,
      "##TH": 7280,
      "##inn": 7281,
      "regio": 7282,
      "##init": 7283,
      "Voorbereiding": 7284,
      "##vanging": 7285,
      "vernauwing": 7286,
      "##cand": 7287,
      "Daarbij": 7288,
      "gaf": 7289,
      "##cran": 7290,
      "Matige": 7291,
      "##amelleerd": 7292,
      "Reg": 7293,
      "zus": 7294,
      "genorm": 7295,
      "intr": 7296,
      "vindt": 7297,
      "Drie": 7298,
      "epigastrio": 7299,
      "stijging": 7300,
      "bestaand": 7301,
      "standaard": 7302,
      "onver": 7303,
      "poliepe": 7304,
      "##rictie": 7305,
      "##ynt": 7306,
      "##ck": 7307,
      "POEET": 7308,
      "##86": 7309,
      "##ocytair": 7310,
      "geindiceerd": 7311,
      "BM": 7312,
      "Pethidine": 7313,
      "zod": 7314,
      "schoon": 7315,
      "secundair": 7316,
      "kuren": 7317,
      "kalium": 7318,
      "Vrij": 7319,
      "CKD": 7320,
      "##4444": 7321,
      "##bupro": 7322,
      "##rootte": 7323,
      "##materiaal": 7324,
      "Endoc": 7325,
      "abnormale": 7326,
      "426": 7327,
      "gevolgd": 7328,
      "transmurale": 7329,
      "##cytologie": 7330,
      "verandering": 7331,
      "##omatische": 7332,
      "Slaa": 7333,
      "colonslijmvliesbiopten": 7334,
      "vaste": 7335,
      "Verwezen": 7336,
      "kracht": 7337,
      "Sim": 7338,
      "##aterale": 7339,
      "Enbrel": 7340,
      "Hiervoor": 7341,
      "Naar": 7342,
      "Vis": 7343,
      "##etjes": 7344,
      "##continu": 7345,
      "Des": 7346,
      "Lon": 7347,
      "bloedbeeld": 7348,
      "enterocyten": 7349,
      "loslaat": 7350,
      "neuroloog": 7351,
      "souffles": 7352,
      "UAE": 7353,
      "##ynth": 7354,
      "fosf": 7355,
      "WH": 7356,
      "hevige": 7357,
      "bevest": 7358,
      "##taal": 7359,
      "##icum": 7360,
      "opsturen": 7361,
      "flank": 7362,
      "NF": 7363,
      "oksel": 7364,
      "Misselijk": 7365,
      "Was": 7366,
      "Krij": 7367,
      "##stit": 7368,
      "gevallen": 7369,
      "##ytgat": 7370,
      "##ieus": 7371,
      "Sat": 7372,
      "trek": 7373,
      "##öntgen": 7374,
      "lefl": 7375,
      "##antop": 7376,
      "the": 7377,
      "##geert": 7378,
      "CTA": 7379,
      "prep": 7380,
      "##296": 7381,
      "CS00052416": 7382,
      "HEUP": 7383,
      "verstoring": 7384,
      "sigaretten": 7385,
      "duim": 7386,
      "binnenkort": 7387,
      "Tytgat": 7388,
      "aanhoudende": 7389,
      "Endoscop": 7390,
      "combi": 7391,
      "internist": 7392,
      "##buprofen": 7393,
      "Fa": 7394,
      "L1": 7395,
      "progressieve": 7396,
      "jicht": 7397,
      "CS00003850": 7398,
      "overigens": 7399,
      "Cardio": 7400,
      "Budesonide": 7401,
      "##GD": 7402,
      "Onna": 7403,
      "daling": 7404,
      "zon": 7405,
      "##uret": 7406,
      "##lsma": 7407,
      "functie": 7408,
      "problematiek": 7409,
      "Weinig": 7410,
      "emfyseem": 7411,
      "Volledige": 7412,
      "toediening": 7413,
      "teruggezien": 7414,
      "##lecht": 7415,
      "schimm": 7416,
      "ICD": 7417,
      "Tra": 7418,
      "##orrh": 7419,
      "sarco": 7420,
      "##copenie": 7421,
      "##uwen": 7422,
      "vele": 7423,
      "DIA": 7424,
      "0000000303": 7425,
      "##colon": 7426,
      "granulatie": 7427,
      "resp": 7428,
      "zelfde": 7429,
      "##cebo": 7430,
      "1980": 7431,
      "##rotis": 7432,
      "Linkszijdige": 7433,
      "caudaal": 7434,
      "velden": 7435,
      "adequate": 7436,
      "##vr": 7437,
      "intens": 7438,
      "Klein": 7439,
      "opgeblazen": 7440,
      "##ofarmac": 7441,
      "plekken": 7442,
      "MBq": 7443,
      "genormaliseerd": 7444,
      "##angen": 7445,
      "Contact": 7446,
      "urin": 7447,
      "FOC": 7448,
      "##beerd": 7449,
      "verlen": 7450,
      "overvulling": 7451,
      "##ranul": 7452,
      "##GG": 7453,
      "gepro": 7454,
      "Bijlsma": 7455,
      "pleurae": 7456,
      "volledige": 7457,
      "invas": 7458,
      "wervels": 7459,
      "parenchym": 7460,
      "Mantoux": 7461,
      "Sigmo": 7462,
      "slechte": 7463,
      "inname": 7464,
      "##kleuring": 7465,
      "##enacort": 7466,
      "vertakk": 7467,
      "May": 7468,
      "##bal": 7469,
      "lact": 7470,
      "O2": 7471,
      "##raakt": 7472,
      "granulaat": 7473,
      "##én": 7474,
      "##ml": 7475,
      "##osigmo": 7476,
      "##copathie": 7477,
      "spuiten": 7478,
      "##eller": 7479,
      "darmklachten": 7480,
      "##Âënte": 7481,
      "##ateraal": 7482,
      "cardiale": 7483,
      "ooit": 7484,
      "koud": 7485,
      "427": 7486,
      "Peeters": 7487,
      "PD": 7488,
      "mens": 7489,
      "gesla": 7490,
      "##holte": 7491,
      "##overzicht": 7492,
      "radiotherapie": 7493,
      "placebo": 7494,
      "myocard": 7495,
      "richtlijn": 7496,
      "diverticulose": 7497,
      "DUN": 7498,
      "Perk": 7499,
      "##romat": 7500,
      "NIET": 7501,
      "fentanyl": 7502,
      "rituximab": 7503,
      "morfine": 7504,
      "DUNNE": 7505,
      "Arava": 7506,
      "bevinden": 7507,
      "Aanvullende": 7508,
      "cond": 7509,
      "##iafrag": 7510,
      "##epit": 7511,
      "retroperitone": 7512,
      "Addendum": 7513,
      "acht": 7514,
      "iedere": 7515,
      "##imus": 7516,
      "##ull": 7517,
      "hyperplastisch": 7518,
      "loslaatpijn": 7519,
      "lokale": 7520,
      "Verg": 7521,
      "rustige": 7522,
      "zalf": 7523,
      "uitsluiting": 7524,
      "afgrensbare": 7525,
      "##rothese": 7526,
      "Opnieuw": 7527,
      "antistolling": 7528,
      "CVA": 7529,
      "Ureum": 7530,
      "verwezen": 7531,
      "UP": 7532,
      "##omenteel": 7533,
      "FOTO": 7534,
      "iliacaal": 7535,
      "CS00003795": 7536,
      "stijf": 7537,
      "##maz": 7538,
      "##bloeding": 7539,
      "porta": 7540,
      "sv": 7541,
      "instantie": 7542,
      "Verwijzer": 7543,
      "##omateus": 7544,
      "gemidd": 7545,
      "betrokkenheid": 7546,
      "tandenrij": 7547,
      "Doorsnijdingen": 7548,
      "opvallend": 7549,
      "verloop": 7550,
      "##overgang": 7551,
      "optie": 7552,
      "Momenteel": 7553,
      "Cijfer": 7554,
      "flu": 7555,
      "proliferatie": 7556,
      "diverse": 7557,
      "openen": 7558,
      "slaapt": 7559,
      "WijkLaatst": 7560,
      "CHE": 7561,
      "##sonde": 7562,
      "##ileus": 7563,
      "uitstekend": 7564,
      "Nacht": 7565,
      "ceftriaxon": 7566,
      "##iol": 7567,
      "##szins": 7568,
      "ingezet": 7569,
      "gevuld": 7570,
      "don": 7571,
      "coli": 7572,
      "bovenbeen": 7573,
      "##ynthese": 7574,
      "##tabl": 7575,
      "Quantiferon": 7576,
      "S1S2": 7577,
      "opnemen": 7578,
      "oppervlakkig": 7579,
      "##tel": 7580,
      "106": 7581,
      "##romy": 7582,
      "##KKEN": 7583,
      "##osacrale": 7584,
      "##ikkingen": 7585,
      "##riprieve": 7586,
      "cuff": 7587,
      "cilindrisch": 7588,
      "C6": 7589,
      "##ilie": 7590,
      "##usier": 7591,
      "besloten": 7592,
      "afwezig": 7593,
      "102": 7594,
      "preparaat": 7595,
      "hematoom": 7596,
      "Krijgt": 7597,
      "Men": 7598,
      "Toch": 7599,
      "keren": 7600,
      "tb": 7601,
      "##gl": 7602,
      "iliitis": 7603,
      "tubercul": 7604,
      "uitrijping": 7605,
      "##ofarmacon": 7606,
      "##metingen": 7607,
      "Hayat": 7608,
      "collectie": 7609,
      "vorig": 7610,
      "Diffuus": 7611,
      "tib": 7612,
      "uitger": 7613,
      "Telef": 7614,
      "##sis": 7615,
      "overal": 7616,
      "Stelara": 7617,
      "hoest": 7618,
      "Ascal": 7619,
      "VP": 7620,
      "eft": 7621,
      "##ocl": 7622,
      "gelaat": 7623,
      "urineweginfectie": 7624,
      "dietiste": 7625,
      "Ci": 7626,
      "veneuze": 7627,
      "##orectale": 7628,
      "melanoom": 7629,
      "##roep": 7630,
      "CS00003811": 7631,
      "##relatie": 7632,
      "vanochtend": 7633,
      "##sbeeld": 7634,
      "Hoeveel": 7635,
      "##duc": 7636,
      "stenoses": 7637,
      "vlokken": 7638,
      "duizeligheid": 7639,
      "##itale": 7640,
      "hersteld": 7641,
      "clostridium": 7642,
      "overweeg": 7643,
      "comm": 7644,
      "##uele": 7645,
      "##az": 7646,
      "groter": 7647,
      "Heldere": 7648,
      "Vlotte": 7649,
      "dgn": 7650,
      "##productie": 7651,
      "valg": 7652,
      "##7037": 7653,
      "Relevante": 7654,
      "##ynorm": 7655,
      "##past": 7656,
      "##dis": 7657,
      "##eklachten": 7658,
      "ingu": 7659,
      "Derhalve": 7660,
      "Belt": 7661,
      "##ële": 7662,
      "thr": 7663,
      "onderhoudsbehandeling": 7664,
      "ochtends": 7665,
      "##Dec": 7666,
      "verkouden": 7667,
      "TGN": 7668,
      "2000043": 7669,
      "##andida": 7670,
      "##otos": 7671,
      "vererg": 7672,
      "30mg": 7673,
      "opvragen": 7674,
      "middel": 7675,
      "Puri": 7676,
      "ontw": 7677,
      "##heffen": 7678,
      "##iaire": 7679,
      "orig": 7680,
      "Onveranderd": 7681,
      "aneurysma": 7682,
      "##razol": 7683,
      "##umatische": 7684,
      "##pan": 7685,
      "1986": 7686,
      "idiopathische": 7687,
      "##31": 7688,
      "contactpersoon": 7689,
      "portaal": 7690,
      "rustiger": 7691,
      "##nacht": 7692,
      "chroniciteit": 7693,
      "complex": 7694,
      "kortdurend": 7695,
      "Controles": 7696,
      "basaalcelcarcinoom": 7697,
      "BEKKEN": 7698,
      "##ecalciferol": 7699,
      "endoscopische": 7700,
      "B7": 7701,
      "Gel": 7702,
      "##med": 7703,
      "hierin": 7704,
      "Pred": 7705,
      "mcg": 7706,
      "stof": 7707,
      "VALUE3": 7708,
      "##cytaire": 7709,
      "mast": 7710,
      "stern": 7711,
      "##diagnose": 7712,
      "##atrofie": 7713,
      "##enterologie": 7714,
      "##GNO": 7715,
      "##endron": 7716,
      "geinf": 7717,
      "productie": 7718,
      "##oooo": 7719,
      "toenemende": 7720,
      "kru": 7721,
      "##tussen": 7722,
      "één": 7723,
      "vroeg": 7724,
      "##aalt": 7725,
      "acrom": 7726,
      "##mede": 7727,
      "##ÿc": 7728,
      "coronair": 7729,
      "Slaapt": 7730,
      "Mayo": 7731,
      "##85": 7732,
      "behandelen": 7733,
      "locatie": 7734,
      "##ruim": 7735,
      "Or": 7736,
      "##olische": 7737,
      "##yreoidie": 7738,
      "##hoek": 7739,
      "solide": 7740,
      "leflunomide": 7741,
      "KJ": 7742,
      "fe": 7743,
      "##gevallen": 7744,
      "EIMs": 7745,
      "Pneum": 7746,
      "Salazopyrine": 7747,
      "hp": 7748,
      "tramadol": 7749,
      "##spatroon": 7750,
      "BIRADS": 7751,
      "##teb": 7752,
      "##laesies": 7753,
      "##dering": 7754,
      "Belconsult": 7755,
      "C4": 7756,
      "organismen": 7757,
      "eftis": 7758,
      "##teerde": 7759,
      "crp": 7760,
      "Gezond": 7761,
      "sessiele": 7762,
      "meth": 7763,
      "105": 7764,
      "##ellingen": 7765,
      "Intern": 7766,
      "##Decursus": 7767,
      "##92": 7768,
      "AE": 7769,
      "##EF": 7770,
      "tepel": 7771,
      "##87": 7772,
      "##OLOG": 7773,
      "liter": 7774,
      "aldaar": 7775,
      "##ERZOEK": 7776,
      "##84": 7777,
      "rugge": 7778,
      "algehele": 7779,
      "ZZ": 7780,
      "##rill": 7781,
      "104": 7782,
      "Homogeen": 7783,
      "herk": 7784,
      "gebraakt": 7785,
      "Persisterende": 7786,
      "DIAGNO": 7787,
      "lee": 7788,
      "##vir": 7789,
      "discontinu": 7790,
      "##leijk": 7791,
      "diversion": 7792,
      "gevraagd": 7793,
      "endometrium": 7794,
      "##705": 7795,
      "ascal": 7796,
      "radicaal": 7797,
      "Append": 7798,
      "romm": 7799,
      "opening": 7800,
      "Therap": 7801,
      "Ur": 7802,
      "##entrale": 7803,
      "##pitaties": 7804,
      "kortademig": 7805,
      "ruggeprik": 7806,
      "NI": 7807,
      "##O2": 7808,
      "##angi": 7809,
      "arava": 7810,
      "facet": 7811,
      "##arb": 7812,
      "doorsneden": 7813,
      "suik": 7814,
      "##elaar": 7815,
      "ingescande": 7816,
      "##ush": 7817,
      "Eten": 7818,
      "infiltratieve": 7819,
      "leverbiochemie": 7820,
      "vertakkende": 7821,
      "kans": 7822,
      "gedilateerd": 7823,
      "##figuratie": 7824,
      "gelokaliseerd": 7825,
      "Vaccin": 7826,
      "rese": 7827,
      "AMC": 7828,
      "Neg": 7829,
      "voorbere": 7830,
      "FP": 7831,
      "Heel": 7832,
      "##ompens": 7833,
      "6x": 7834,
      "##ilus": 7835,
      "##ietrouw": 7836,
      "##klacht": 7837,
      "proctoc": 7838,
      "##adrant": 7839,
      "Plaquenil": 7840,
      "levercir": 7841,
      "##olesterol": 7842,
      "PEG": 7843,
      "##lor": 7844,
      "##kenm": 7845,
      "wervelcor": 7846,
      "coloncarcinoom": 7847,
      "ass": 7848,
      "Hersen": 7849,
      "circ": 7850,
      "geschreven": 7851,
      "Alkfosf": 7852,
      "Wand": 7853,
      "##ones": 7854,
      "straal": 7855,
      "verhoging": 7856,
      "##abces": 7857,
      "##sor": 7858,
      "correctie": 7859,
      "Calprotectine": 7860,
      "JacobsLaatst": 7861,
      "toevoegen": 7862,
      "lesie": 7863,
      "circum": 7864,
      "rechteronderbuik": 7865,
      "Soest": 7866,
      "ileumlis": 7867,
      "Elders": 7868,
      "Part": 7869,
      "##erior": 7870,
      "##ely": 7871,
      "kern": 7872,
      "Bronovo": 7873,
      "hep": 7874,
      "Calcichew": 7875,
      "##OLOGIE": 7876,
      "spierpijn": 7877,
      "##osynthese": 7878,
      "suspecte": 7879,
      "##morgen": 7880,
      "aanzien": 7881,
      "KLIN": 7882,
      "differentiatie": 7883,
      "infarct": 7884,
      "##okken": 7885,
      "##reef": 7886,
      "Entyvio": 7887,
      "axillair": 7888,
      "##ÿcÿc": 7889,
      "Q160": 7890,
      "RL": 7891,
      "splenomegalie": 7892,
      "##ucleaire": 7893,
      "pen": 7894,
      "verlagen": 7895,
      "leucopenie": 7896,
      "##izame": 7897,
      "Blan": 7898,
      "##uurt": 7899,
      "##schijnsel": 7900,
      "##hyper": 7901,
      "trombocyten": 7902,
      "##zet": 7903,
      "##erf": 7904,
      "afgesch": 7905,
      "ple": 7906,
      "##ekeken": 7907,
      "fibro": 7908,
      "##ycard": 7909,
      "2000050210": 7910,
      "granulatieweefsel": 7911,
      "##ienst": 7912,
      "##bevindingen": 7913,
      "Wissel": 7914,
      "##OND": 7915,
      "Lumbosacrale": 7916,
      "##press": 7917,
      "alsmede": 7918,
      "snijvlak": 7919,
      "vue": 7920,
      "Erg": 7921,
      "hooguit": 7922,
      "Afname": 7923,
      "##IEN": 7924,
      "toenemend": 7925,
      "Terug": 7926,
      "##ytische": 7927,
      "droge": 7928,
      "FOL": 7929,
      "graden": 7930,
      "broer": 7931,
      "gestegen": 7932,
      "##rosis": 7933,
      "Aspect": 7934,
      "enigszins": 7935,
      "JJW": 7936,
      "TB": 7937,
      "SP": 7938,
      "geleid": 7939,
      "gewoon": 7940,
      "opmerkingen": 7941,
      "##inking": 7942,
      "ileocecaal": 7943,
      "toxisch": 7944,
      "epitheelcellen": 7945,
      "##oemde": 7946,
      "Algemene": 7947,
      "LM": 7948,
      "Ond": 7949,
      "tint": 7950,
      "Oncologie": 7951,
      "genoeg": 7952,
      "vrije": 7953,
      "vervolgconsultG": 7954,
      "preparaten": 7955,
      "verwijdering": 7956,
      "vannacht": 7957,
      "oesofagitis": 7958,
      "##stapeling": 7959,
      "##inezuur": 7960,
      "questran": 7961,
      "conservatief": 7962,
      "##alf": 7963,
      "Consult": 7964,
      "##ococ": 7965,
      "##ermd": 7966,
      "CAD": 7967,
      "nood": 7968,
      "Druk": 7969,
      "aantasting": 7970,
      "bursitis": 7971,
      "##HANDELING": 7972,
      "##urk": 7973,
      "uurs": 7974,
      "subcutane": 7975,
      "gemiddeld": 7976,
      "Blanco": 7977,
      "bis": 7978,
      "insp": 7979,
      "Welke": 7980,
      "##ylo": 7981,
      "beelden": 7982,
      "voorstel": 7983,
      "Colonslijmvliesbiopten": 7984,
      "Mei": 7985,
      "malen": 7986,
      "##iopteerd": 7987,
      "##atoire": 7988,
      "begrensd": 7989,
      "##omb": 7990,
      "regelmatige": 7991,
      "overgrij": 7992,
      "##illende": 7993,
      "augmentin": 7994,
      "arteria": 7995,
      "Okt": 7996,
      "##azepam": 7997,
      "geslapen": 7998,
      "Maar": 7999,
      "##ju": 8000,
      "Infectie": 8001,
      "JaP": 8002,
      "##osigmoiditis": 8003,
      "reagerend": 8004,
      "##wij": 8005,
      "gemetastaseerd": 8006,
      "echtgenoot": 8007,
      "doorgankelijk": 8008,
      "##endoor": 8009,
      "laparotomie": 8010,
      "secundaire": 8011,
      "woont": 8012,
      "kar": 8013,
      "eenmaal": 8014,
      "##tectin": 8015,
      "INR": 8016,
      "avonds": 8017,
      "##omst": 8018,
      "naslag": 8019,
      "PR": 8020,
      "##ASA": 8021,
      "##iken": 8022,
      "toestemming": 8023,
      "ballon": 8024,
      "fron": 8025,
      "##ostomie": 8026,
      "intrahepatische": 8027,
      "Alleen": 8028,
      "Moet": 8029,
      "humer": 8030,
      "##minste": 8031,
      "optimaal": 8032,
      "##Pre": 8033,
      "##ima": 8034,
      "##ysio": 8035,
      "##antoprazol": 8036,
      "onsteking": 8037,
      "CS00050983": 8038,
      "fcp": 8039,
      "POB": 8040,
      "souffle": 8041,
      "##ning": 8042,
      "Luij": 8043,
      "Rond": 8044,
      "##sfincter": 8045,
      "BEHANDELING": 8046,
      "HQ190L": 8047,
      "naev": 8048,
      "CS00003854": 8049,
      "arthritis": 8050,
      "beslag": 8051,
      "KOPIE": 8052,
      "##opname": 8053,
      "Denkt": 8054,
      "Luijten": 8055,
      "##IL": 8056,
      "AARD": 8057,
      "verwijde": 8058,
      "##wijf": 8059,
      "CS00003846": 8060,
      "Artritis": 8061,
      "spronggewicht": 8062,
      "##arch": 8063,
      "##behand": 8064,
      "##utum": 8065,
      "weefselstuk": 8066,
      "ES": 8067,
      "afgeschermd": 8068,
      "patiÂënt": 8069,
      "Radiologie": 8070,
      "zin": 8071,
      "##lap": 8072,
      "DIAGNOSE": 8073,
      "##gelicht": 8074,
      "medische": 8075,
      "sac": 8076,
      "##ensie": 8077,
      "dikker": 8078,
      "KruizeLaatst": 8079,
      "tip": 8080,
      "##DI": 8081,
      "##ooi": 8082,
      "##rotisch": 8083,
      "##theros": 8084,
      "beschikbaar": 8085,
      "geprobeerd": 8086,
      "CS00003823": 8087,
      "##licht": 8088,
      "Ve": 8089,
      "ogende": 8090,
      "##emb": 8091,
      "115": 8092,
      "beteken": 8093,
      "verhoorn": 8094,
      "voed": 8095,
      "spoelen": 8096,
      "Last": 8097,
      "##olaps": 8098,
      "##deren": 8099,
      "vervanging": 8100,
      "Pass": 8101,
      "##MIE": 8102,
      "##iegels": 8103,
      "##ortaal": 8104,
      "viraal": 8105,
      "Diverticul": 8106,
      "Purinetol": 8107,
      "##branden": 8108,
      "incontinentie": 8109,
      "5MG": 8110,
      "##aris": 8111,
      "nader": 8112,
      "zelfstandig": 8113,
      "angst": 8114,
      "Yil": 8115,
      "sclerose": 8116,
      "Gol": 8117,
      "Yilmaz": 8118,
      "bruine": 8119,
      "##foto": 8120,
      "##ATER": 8121,
      "gesteld": 8122,
      "gedacht": 8123,
      "Geeft": 8124,
      "vaccinatie": 8125,
      "AH": 8126,
      "band": 8127,
      "Mal": 8128,
      "200mg": 8129,
      "PA4": 8130,
      "prikpoli": 8131,
      "aanleiding": 8132,
      "doorgegeven": 8133,
      "anaemie": 8134,
      "tro": 8135,
      "Gewichtsverlies": 8136,
      "ONDERZOEK": 8137,
      "##sus": 8138,
      "##ssen": 8139,
      "allemaal": 8140,
      "opties": 8141,
      "CHEMIE": 8142,
      "##schijnselen": 8143,
      "##ullen": 8144,
      "##adres": 8145,
      "##ocellulair": 8146,
      "Enkel": 8147,
      "herkenbaar": 8148,
      "ustekinumab": 8149,
      "##rain": 8150,
      "haaruitval": 8151,
      "with": 8152,
      "##rilleren": 8153,
      "##arte": 8154,
      "439": 8155,
      "progressief": 8156,
      "concrement": 8157,
      "pit": 8158,
      "##ital": 8159,
      "afspreken": 8160,
      "##ontane": 8161,
      "Aden": 8162,
      "weten": 8163,
      "##MATOLOGIE": 8164,
      "##Be": 8165,
      "onderarm": 8166,
      "##vulde": 8167,
      "frequent": 8168,
      "sach": 8169,
      "##fort": 8170,
      "ziektebeeld": 8171,
      "Dag": 8172,
      "##kal": 8173,
      "bijmenging": 8174,
      "HAE": 8175,
      "##emper": 8176,
      "A2L3": 8177,
      "Herstart": 8178,
      "West": 8179,
      "gyn": 8180,
      "##onaat": 8181,
      "gewrichtsonderzoek": 8182,
      "order": 8183,
      "extremiteiten": 8184,
      "##usierest": 8185,
      "##iologie": 8186,
      "project": 8187,
      "warmte": 8188,
      "structuur": 8189,
      "Informed": 8190,
      "lag": 8191,
      "afh": 8192,
      "leukopenie": 8193,
      "varices": 8194,
      "##usierestrictie": 8195,
      "##zetten": 8196,
      "Akkoord": 8197,
      "##spiegels": 8198,
      "##oegd": 8199,
      "##illeus": 8200,
      "aangepast": 8201,
      "Supervisor": 8202,
      "Compl": 8203,
      "##MT": 8204,
      "##ctasie": 8205,
      "##problematiek": 8206,
      "behalve": 8207,
      "##ificeerd": 8208,
      "##bespreking": 8209,
      "##opril": 8210,
      "##orrel": 8211,
      "Opmerking": 8212,
      "##up": 8213,
      "Progressie": 8214,
      "gelamelleerd": 8215,
      "##ookt": 8216,
      "aspecifiek": 8217,
      "voort": 8218,
      "cardio": 8219,
      "klasse": 8220,
      "##leboog": 8221,
      "Handen": 8222,
      "1984": 8223,
      "##ynov": 8224,
      "spondyla": 8225,
      "vulling": 8226,
      "doch": 8227,
      "##tend": 8228,
      "ulna": 8229,
      "ADL": 8230,
      "##kig": 8231,
      "gehol": 8232,
      "appendicitis": 8233,
      "Moeder": 8234,
      "##nl": 8235,
      "##oppervlak": 8236,
      "##repen": 8237,
      "ligging": 8238,
      "##omatisch": 8239,
      "lokaal": 8240,
      "##oops": 8241,
      "Hersenen": 8242,
      "Risic": 8243,
      "##pres": 8244,
      "##akt": 8245,
      "inzetten": 8246,
      "Heup": 8247,
      "bepaling": 8248,
      "continue": 8249,
      "dose": 8250,
      "##chil": 8251,
      "Vorige": 8252,
      "##reactie": 8253,
      "spuit": 8254,
      "diafragmatica": 8255,
      "GGT": 8256,
      "rechtszijdig": 8257,
      "Afd": 8258,
      "##fact": 8259,
      "##rand": 8260,
      "CS00003859": 8261,
      "##gevoegd": 8262,
      "geholpen": 8263,
      "6MP": 8264,
      "becl": 8265,
      "Inflectra": 8266,
      "##capt": 8267,
      "Calprotectin": 8268,
      "lym": 8269,
      "toeval": 8270,
      "sessiel": 8271,
      "Rust": 8272,
      "##breken": 8273,
      "miss": 8274,
      "##mp": 8275,
      "CS00003819": 8276,
      "##ateren": 8277,
      "##vormig": 8278,
      "verzam": 8279,
      "gevo": 8280,
      "impon": 8281,
      "cervixcytologie": 8282,
      "Red": 8283,
      "##ric": 8284,
      "prin": 8285,
      "##rett": 8286,
      "tong": 8287,
      "Circ": 8288,
      "Nethol": 8289,
      "sug": 8290,
      "##heidsproblemen": 8291,
      "##voeren": 8292,
      "##ETH": 8293,
      "stabiele": 8294,
      "##eed": 8295,
      "##yten": 8296,
      "maaltijd": 8297,
      "insuline": 8298,
      "##gebeld": 8299,
      "NeeA": 8300,
      "##emperatuur": 8301,
      "Pouch": 8302,
      "Röntgen": 8303,
      "afmetingen": 8304,
      "nummer": 8305,
      "duodenoscopie": 8306,
      "inzakking": 8307,
      "slijmvliesovergang": 8308,
      "haustratiepatroon": 8309,
      "dubbel": 8310,
      "wijz": 8311,
      "ingrepen": 8312,
      "vinger": 8313,
      "leverfunctiestoornissen": 8314,
      "Lee": 8315,
      "Werf": 8316,
      "huisadres": 8317,
      "vervolgens": 8318,
      "##oserende": 8319,
      "tafel": 8320,
      "aanval": 8321,
      "bezwaar": 8322,
      "Tensie": 8323,
      "endocervicale": 8324,
      "##nog": 8325,
      "CS00003828": 8326,
      "defect": 8327,
      "gegeten": 8328,
      "bang": 8329,
      "zen": 8330,
      "nodosum": 8331,
      "del": 8332,
      "lymfoplasm": 8333,
      "hypoth": 8334,
      "tevreden": 8335,
      "duizelig": 8336,
      "##417": 8337,
      "halver": 8338,
      "##cid": 8339,
      "divertikel": 8340,
      "##MDL": 8341,
      "plaveiselepitheelcellen": 8342,
      "Mac": 8343,
      "##513": 8344,
      "##ume": 8345,
      "diffusierestrictie": 8346,
      "113": 8347,
      "donker": 8348,
      "AV": 8349,
      "##nummer": 8350,
      "##ijen": 8351,
      "##ots": 8352,
      "tek": 8353,
      "ondersche": 8354,
      "##verdikkingen": 8355,
      "visit": 8356,
      "pcm": 8357,
      "##ercapt": 8358,
      "##linde": 8359,
      "##voorbereiding": 8360,
      "##fibrilleren": 8361,
      "adv": 8362,
      "stenen": 8363,
      "##kenmerken": 8364,
      "##E9": 8365,
      "uitstrijk": 8366,
      "3mm": 8367,
      "##valid": 8368,
      "Maart": 8369,
      "##zels": 8370,
      "ebntie": 8371,
      "##orijk": 8372,
      "##otatie": 8373,
      "##aseerd": 8374,
      "##brengen": 8375,
      "##igraine": 8376,
      "##opurine": 8377,
      "faecale": 8378,
      "verschillende": 8379,
      "##wendig": 8380,
      "HAEMATOLOGIE": 8381,
      "Lanvis": 8382,
      "##rub": 8383,
      "112": 8384,
      "gereinigd": 8385,
      "##yson": 8386,
      "laatst": 8387,
      "##nn": 8388,
      "tenminste": 8389,
      "Loyson": 8390,
      "##zending": 8391,
      "##leveren": 8392,
      "betekenis": 8393,
      "##metrische": 8394,
      "diagnostisch": 8395,
      "XXXXX": 8396,
      "##ruit": 8397,
      "##akter": 8398,
      "meestal": 8399,
      "ilium": 8400,
      "##sanemie": 8401,
      "##444": 8402,
      "Eind": 8403,
      "va": 8404,
      "##geet": 8405,
      "##ctur": 8406,
      "nadere": 8407,
      "##2011": 8408,
      "eventuele": 8409,
      "weefselfragment": 8410,
      "##zing": 8411,
      "##odon": 8412,
      "aank": 8413,
      "output": 8414,
      "Ileocoecaal": 8415,
      "##pol": 8416,
      "##tt": 8417,
      "abced": 8418,
      "##histoch": 8419,
      "ANA": 8420,
      "relatieve": 8421,
      "gedicteerd": 8422,
      "Centraal": 8423,
      "tempor": 8424,
      "hersenen": 8425,
      "valgus": 8426,
      "nv": 8427,
      "##onucleaire": 8428,
      "uitgelegd": 8429,
      "perifeer": 8430,
      "Movicolon": 8431,
      "##haal": 8432,
      "##verteb": 8433,
      "##oekomst": 8434,
      "##rolithiasis": 8435,
      "irreg": 8436,
      "activiteits": 8437,
      "rillingen": 8438,
      "overtuigende": 8439,
      "diepte": 8440,
      "huiduitslag": 8441,
      "quantiferon": 8442,
      "Clostridium": 8443,
      "##blad": 8444,
      "creatinine": 8445,
      "##arynx": 8446,
      "##deel": 8447,
      "Darmen": 8448,
      "##ontgen": 8449,
      "##chan": 8450,
      "HF": 8451,
      "cmc": 8452,
      "##kwadrant": 8453,
      "Transversum": 8454,
      "macroscopisch": 8455,
      "##laag": 8456,
      "##atica": 8457,
      "aangezien": 8458,
      "leverpro": 8459,
      "manif": 8460,
      "voorafgaand": 8461,
      "ingevuld": 8462,
      "ML": 8463,
      "##erentie": 8464,
      "##vaten": 8465,
      "overleggen": 8466,
      "vastgesteld": 8467,
      "vraagt": 8468,
      "##Premedicatie": 8469,
      "##lod": 8470,
      "##osen": 8471,
      "##JF": 8472,
      "ziektes": 8473,
      "CS0005246": 8474,
      "flexie": 8475,
      "Bos": 8476,
      "haard": 8477,
      "leverenzymstoornissen": 8478,
      "flardjes": 8479,
      "Paneth": 8480,
      "Laan": 8481,
      "Stab": 8482,
      "##ractie": 8483,
      "groep": 8484,
      "ontstekingscellen": 8485,
      "##iwit": 8486,
      "##icine": 8487,
      "##ulent": 8488,
      "longvaattekening": 8489,
      "Bogaard": 8490,
      "KMA": 8491,
      "Later": 8492,
      "ME": 8493,
      "CS00003847": 8494,
      "##iften": 8495,
      "##BR": 8496,
      "##ducer": 8497,
      "##elloops": 8498,
      "2dd1": 8499,
      "fissuur": 8500,
      "Vier": 8501,
      "Zelf": 8502,
      "sport": 8503,
      "induratie": 8504,
      "Polie": 8505,
      "bepaald": 8506,
      "destijds": 8507,
      "Stand": 8508,
      "voedsel": 8509,
      "##iscus": 8510,
      "ovarium": 8511,
      "Pa": 8512,
      "perine": 8513,
      "TIA": 8514,
      "histiocyten": 8515,
      "Gekeken": 8516,
      "##Di": 8517,
      "verdeling": 8518,
      "hoger": 8519,
      "atrium": 8520,
      "##fische": 8521,
      "##acem": 8522,
      "leuko": 8523,
      "femur": 8524,
      "##grootte": 8525,
      "##mox": 8526,
      "belconsult": 8527,
      "wisselt": 8528,
      "##ofyt": 8529,
      "cox": 8530,
      "predn": 8531,
      "Loopt": 8532,
      "##uros": 8533,
      "##zimab": 8534,
      "##TE": 8535,
      "bijnier": 8536,
      "Allopurinol": 8537,
      "trial": 8538,
      "Onvoldoende": 8539,
      "toekomst": 8540,
      "peritone": 8541,
      "steen": 8542,
      "##illectomie": 8543,
      "tym": 8544,
      "reageert": 8545,
      "aggregaten": 8546,
      "stoornissen": 8547,
      "Vermoeid": 8548,
      "##orf": 8549,
      "##icula": 8550,
      "toeg": 8551,
      "##matig": 8552,
      "waterdun": 8553,
      "Ser": 8554,
      "middag": 8555,
      "##romyalgie": 8556,
      "##3888": 8557,
      "Nex": 8558,
      "SK": 8559,
      "Prox": 8560,
      "##ppletie": 8561,
      "Extr": 8562,
      "Lai": 8563,
      "bem": 8564,
      "stad": 8565,
      "Poliklinische": 8566,
      "Fors": 8567,
      "##emide": 8568,
      "##boom": 8569,
      "erythema": 8570,
      "groen": 8571,
      "celebrex": 8572,
      "##waarschijnlijk": 8573,
      "fit": 8574,
      "Besproken": 8575,
      "##ike": 8576,
      "aanvallen": 8577,
      "wortel": 8578,
      "cervicale": 8579,
      "##ercaptopurine": 8580,
      "ong": 8581,
      "dysplastische": 8582,
      "Vraagt": 8583,
      "RvTC": 8584,
      "gestuurd": 8585,
      "suc": 8586,
      "verkalkingen": 8587,
      "steroiden": 8588,
      "NG": 8589,
      "1983": 8590,
      "neurologie": 8591,
      "##pin": 8592,
      "Consistentie": 8593,
      "bind": 8594,
      "brei": 8595,
      "Qua": 8596,
      "oxynorm": 8597,
      "Resectie": 8598,
      "##ae": 8599,
      "##moeder": 8600,
      "ani": 8601,
      "compressie": 8602,
      "##sluit": 8603,
      "Paracetamol": 8604,
      "Lely": 8605,
      "subcutis": 8606,
      "presentatie": 8607,
      "##cale": 8608,
      "rechterboven": 8609,
      "##rift": 8610,
      "snede": 8611,
      "bedraagt": 8612,
      "##ilisatie": 8613,
      "Amels": 8614,
      "##urosemide": 8615,
      "##SP": 8616,
      "##ootkuur": 8617,
      "crep": 8618,
      "##umaraat": 8619,
      "ontstekingsresten": 8620,
      "##ONDER": 8621,
      "H190": 8622,
      "atro": 8623,
      "liezen": 8624,
      "##genoeg": 8625,
      "5ASA": 8626,
      "SR": 8627,
      "Veek": 8628,
      "Lelyveld": 8629,
      "##ave": 8630,
      "##hesie": 8631,
      "##infuus": 8632,
      "immuunsu": 8633,
      "zekerheid": 8634,
      "Amelsfort": 8635,
      "Rad": 8636,
      "kenacort": 8637,
      "CS00003824": 8638,
      "##rotheel": 8639,
      "propofol": 8640,
      "##oordeling": 8641,
      "biopsie": 8642,
      "##li": 8643,
      "##tinentie": 8644,
      "##defecten": 8645,
      "##lodipine": 8646,
      "nagenoeg": 8647,
      "eble": 8648,
      "galstenen": 8649,
      "PCI": 8650,
      "opheffen": 8651,
      "vergelijkbaar": 8652,
      "hilair": 8653,
      "Bo": 8654,
      "BR": 8655,
      "Fib": 8656,
      "ieder": 8657,
      "##strijk": 8658,
      "Gestopt": 8659,
      "onrustig": 8660,
      "pmol": 8661,
      "metformine": 8662,
      "nierinsufficientie": 8663,
      "alsnog": 8664,
      "bereiken": 8665,
      "ONDER": 8666,
      "CBD": 8667,
      "hol": 8668,
      "blinde": 8669,
      "harde": 8670,
      "golimumab": 8671,
      "JMR": 8672,
      "gelijk": 8673,
      "##acc": 8674,
      "##cipe": 8675,
      "decompens": 8676,
      "Gezondheidsproblemen": 8677,
      "##validatie": 8678,
      "altern": 8679,
      "##indrische": 8680,
      "##plat": 8681,
      "Speciële": 8682,
      "activiteitsstapeling": 8683,
      "A6": 8684,
      "##oas": 8685,
      "enorm": 8686,
      "primair": 8687,
      "##inus": 8688,
      "vagina": 8689,
      "##inib": 8690,
      "Opvall": 8691,
      "##trekkend": 8692,
      "Ox": 8693,
      "tintelingen": 8694,
      "Zit": 8695,
      "onderpool": 8696,
      "##oplasma": 8697,
      "HB": 8698,
      "pul": 8699,
      "Vedolizumab": 8700,
      "##rofumaraat": 8701,
      "gerookt": 8702,
      "##kanaal": 8703,
      "Oog": 8704,
      "##etting": 8705,
      "cordis": 8706,
      "coecumbodem": 8707,
      "tafelpositie": 8708,
      "dw": 8709,
      "fos": 8710,
      "Degeneratieve": 8711,
      "leuco": 8712,
      "T1": 8713,
      "bouwen": 8714,
      "BK": 8715,
      "ibuprofen": 8716,
      "beval": 8717,
      "vallen": 8718,
      "Myocard": 8719,
      "karakter": 8720,
      "ima": 8721,
      "##osine": 8722,
      "##zweten": 8723,
      "##ycardie": 8724,
      "Rel": 8725,
      "##unct": 8726,
      "111": 8727,
      "darmziekte": 8728,
      "vlgs": 8729,
      "THP": 8730,
      "Dui": 8731,
      "correlatie": 8732,
      "##rthrodese": 8733,
      "klierweefsel": 8734,
      "principe": 8735,
      "Nexium": 8736,
      "##serv": 8737,
      "##raat": 8738,
      "##okter": 8739,
      "##epten": 8740,
      "definit": 8741,
      "Sindsdien": 8742,
      "compleet": 8743,
      "zuurbranden": 8744,
      "C5": 8745,
      "##iard": 8746,
      "##2963": 8747,
      "hierdoor": 8748,
      "Klep": 8749,
      "langdurige": 8750,
      "Huidexcisie": 8751,
      "VPK": 8752,
      "##lat": 8753,
      "un": 8754,
      "##alm": 8755,
      "Expectatief": 8756,
      "uroloog": 8757,
      "onderrug": 8758,
      "sputum": 8759,
      "gehal": 8760,
      "bekleding": 8761,
      "erythemateus": 8762,
      "##po": 8763,
      "##berg": 8764,
      "atelectase": 8765,
      "orde": 8766,
      "##acemaker": 8767,
      "##onitis": 8768,
      "vanmiddag": 8769,
      "##veitis": 8770,
      "##achtspunten": 8771,
      "##epitheel": 8772,
      "##ves": 8773,
      "Reumat": 8774,
      "##voerende": 8775,
      "442": 8776,
      "BY": 8777,
      "Montrealc": 8778,
      "##schien": 8779,
      "Ontslag": 8780,
      "tach": 8781,
      "Negatief": 8782,
      "opget": 8783,
      "suggest": 8784,
      "cop": 8785,
      "##x10E9": 8786,
      "NeeArthrodese": 8787,
      "inleveren": 8788,
      "##ysplasie": 8789,
      "code": 8790,
      "humerus": 8791,
      "CMC": 8792,
      "zwak": 8793,
      "Appendectomie": 8794,
      "suiker": 8795,
      "pars": 8796,
      "##MERA": 8797,
      "sedert": 8798,
      "Mich": 8799,
      "nmol": 8800,
      "dem": 8801,
      "volgend": 8802,
      "collitis": 8803,
      "fecaal": 8804,
      "reikt": 8805,
      "Inzending": 8806,
      "meerlagig": 8807,
      "trache": 8808,
      "bovenkwab": 8809,
      "##82": 8810,
      "hormonen": 8811,
      "Barrett": 8812,
      "mensen": 8813,
      "Montrealclassificatie": 8814,
      "##verslag": 8815,
      "dubbelloops": 8816,
      "uitbreid": 8817,
      "verto": 8818,
      "##oliose": 8819,
      "pancreaskop": 8820,
      "##ploo": 8821,
      "##ameth": 8822,
      "##beid": 8823,
      "##makkelijk": 8824,
      "versie": 8825,
      "##wijze": 8826,
      "NP": 8827,
      "##556": 8828,
      "maj": 8829,
      "##komstig": 8830,
      "nevenbevindingen": 8831,
      "WE": 8832,
      "calcichew": 8833,
      "mediastinaal": 8834,
      "##itieel": 8835,
      "giften": 8836,
      "##halte": 8837,
      "##laris": 8838,
      "sm": 8839,
      "##rem": 8840,
      "sepsis": 8841,
      "palpatie": 8842,
      "##gehalte": 8843,
      "##uleerd": 8844,
      "bloederige": 8845,
      "Ulcerosa": 8846,
      "##IAAL": 8847,
      "ontstekingspoliep": 8848,
      "RvK": 8849,
      "Afspraaktype": 8850,
      "Cave": 8851,
      "bereikbaar": 8852,
      "##XXXXX": 8853,
      "XXXXXXXXXX": 8854,
      "MATER": 8855,
      "lax": 8856,
      "vari": 8857,
      "##kin": 8858,
      "opgevoerd": 8859,
      "##ioneel": 8860,
      "hiatus": 8861,
      "MATERIAAL": 8862,
      "##YO": 8863,
      "##igment": 8864,
      "##otter": 8865,
      "gland": 8866,
      "necrose": 8867,
      "profylaxe": 8868,
      "Ben": 8869,
      "beider": 8870,
      "Verk": 8871,
      "cysteuze": 8872,
      "psychi": 8873,
      "JaPijn": 8874,
      "##Bewegingsbeperking": 8875,
      "##laz": 8876,
      "##Zwelling": 8877,
      "bestaan": 8878,
      "opgetreden": 8879,
      "geleide": 8880,
      "gevulde": 8881,
      "##rood": 8882,
      "##HEDEN": 8883,
      "##741": 8884,
      "##historie": 8885,
      "controleren": 8886,
      "##centa": 8887,
      "exc": 8888,
      "heftige": 8889,
      "ele": 8890,
      "##perf": 8891,
      "##ovag": 8892,
      "tweemaal": 8893,
      "neuro": 8894,
      "##eta": 8895,
      "albumine": 8896,
      "##vullen": 8897,
      "spoor": 8898,
      "skip": 8899,
      "galsteen": 8900,
      "specialist": 8901,
      "Meander": 8902,
      "dexa": 8903,
      "##iardia": 8904,
      "Juni": 8905,
      "configuratie": 8906,
      "linkeronder": 8907,
      "StruijsLaatst": 8908,
      "vertoont": 8909,
      "April": 8910,
      "##ZONDER": 8911,
      "##UD": 8912,
      "10cm": 8913,
      "Appendix": 8914,
      "manifest": 8915,
      "CS00003814": 8916,
      "zenuw": 8917,
      "##chirurgie": 8918,
      "kwam": 8919,
      "NA": 8920,
      "Str": 8921,
      "Therapie": 8922,
      "NeeP": 8923,
      "symmetrisch": 8924,
      "##erpe": 8925,
      "##atars": 8926,
      "levercirrose": 8927,
      "##ZONDERHEDEN": 8928,
      "RB": 8929,
      "lat": 8930,
      "##ument": 8931,
      "##houding": 8932,
      "flink": 8933,
      "dubieus": 8934,
      "Oesophagus": 8935,
      "BYZONDERHEDEN": 8936,
      "##erig": 8937,
      "abs": 8938,
      "sulfasalazine": 8939,
      "##icilline": 8940,
      "toegevoegd": 8941,
      "hematurie": 8942,
      "##werking": 8943,
      "omvang": 8944,
      "##ederland": 8945,
      "mindere": 8946,
      "cholest": 8947,
      "creme": 8948,
      "##pulmon": 8949,
      "##ylob": 8950,
      "##anale": 8951,
      "mediastinale": 8952,
      "geregeld": 8953,
      "discontinue": 8954,
      "beclo": 8955,
      "Medicatiehistorie": 8956,
      "##olesterolemie": 8957,
      "Juli": 8958,
      "uitgezette": 8959,
      "enteroloog": 8960,
      "##Diagnose": 8961,
      "onderin": 8962,
      "asa": 8963,
      "##rolimus": 8964,
      "Zwanger": 8965,
      "A1L": 8966,
      "acromioc": 8967,
      "Bru": 8968,
      "IM": 8969,
      "Vocht": 8970,
      "##lip": 8971,
      "##91": 8972,
      "pseudopoliep": 8973,
      "hemorroiden": 8974,
      "Mag": 8975,
      "##lees": 8976,
      "discopathie": 8977,
      "stukken": 8978,
      "##Verslag": 8979,
      "svp": 8980,
      "##zame": 8981,
      "Dysp": 8982,
      "##ynovitis": 8983,
      "buis": 8984,
      "Voorlichting": 8985,
      "fysio": 8986,
      "##grond": 8987,
      "TAVI": 8988,
      "cycl": 8989,
      "PICC": 8990,
      "##afwijking": 8991,
      "langere": 8992,
      "MMP": 8993,
      "Marj": 8994,
      "pu": 8995,
      "strijk": 8996,
      "##amethason": 8997,
      "Et": 8998,
      "WT": 8999,
      "voorsch": 9000,
      "Gastroenterologie": 9001,
      "verschil": 9002,
      "high": 9003,
      "##ventie": 9004,
      "kalkhoudendheid": 9005,
      "Defecatiepatroon": 9006,
      "##werk": 9007,
      "##otr": 9008,
      "Toestemming": 9009,
      "jaarlijkse": 9010,
      "##chilles": 9011,
      "Vooraf": 9012,
      "ine": 9013,
      "ileocoloscopie": 9014,
      "##vvvv": 9015,
      "Che": 9016,
      "2000134653": 9017,
      "##ylobacter": 9018,
      "HAQ": 9019,
      "##belast": 9020,
      "CH": 9021,
      "##ectio": 9022,
      "Bot": 9023,
      "##gast": 9024,
      "hallux": 9025,
      "conditie": 9026,
[...]
