[PAD]
[UNK]
[CLS]
[SEP]
[MASK]
[EX0]
[EX1]
[EX2]
[EX3]
[EX4]
[EX5]
[EX6]
[EX7]
[EX8]
[EX9]
[EX10]
[EX11]
[EX12]
[EX13]
[EX14]
[EX15]
[EX16]
[EX17]
[EX18]
[EX19]
[EX20]
[EX21]
[EX22]
[EX23]
[EX24]
[EX25]
[EX26]
[EX27]
[EX28]
[EX29]
[EX30]
[EX31]
[EX32]
[EX33]
[EX34]
[EX35]
[EX36]
[EX37]
[EX38]
[EX39]
[EX40]
[EX41]
[EX42]
[EX43]
[EX44]
[EX45]
[EX46]
[EX47]
[EX48]
[EX49]
!
"
#
$
%
&
'
(
)
*
+
,
-
.
/
0
1
2
3
4
5
6
7
8
9
:
;
<
=
>
?
@
A
B
C
D
E
F
G
H
I
J
K
L
M
N
O
P
Q
R
S
T
U
V
W
X
Y
Z
[
\
]
^
_
`
a
b
c
d
e
f
g
h
i
j
k
l
m
n
o
p
q
r
s
t
u
v
w
x
y
z
{
|
}
~
¡
£
¥
¦
§
¨
©
ª
«
¬
®
¯
°
±
²
³
´
µ
·
¸
¹
º
»
¼
½
¾
¿
À
Á
Â
Ã
Ä
Å
Æ
Ç
È
É
Ê
Ë
Ì
Í
Î
Ï
Ó
Ô
Õ
Ö
×
Ø
Ù
Ú
Û
Ü
Ý
Þ
ß
à
á
â
ã
ä
å
æ
ç
è
é
ê
ë
ì
í
î
ï
ð
ñ
ò
ó
ô
õ
ö
÷
ø
ù
ú
û
ü
ý
ÿ
Œ
œ
Š
š
Ÿ
Ž
ž
ƒ
ˆ
˜
އ
ެ
޹
–
—
‘
’
‚
“
”
„
†
‡
•
…
‰
‹
›
€
™
##0
##2
##5
##3
##8
##1
##e
##g
##u
##l
##a
##i
##r
##m
##n
##p
##d
##6
##7
##9
##s
##k
##j
##C
##t
##Z
##H
##v
##4
##c
##o
##x
##b
##w
##h
##y
##I
##F
##U
##S
##E
##z
##f
##V
##q
##B
##P
##K
##N
##M
##O
##Â
##X
##ë
##W
##R
##A
##L
##T
##D
##G
##Û
##ñ
##è
##á
##J
##ö
##€
##À
##Á
##Y
##ï
##Q
##í
##é
##™
##Š
##Œ
##ÿ
##³
##ê
##°
##Ü
##Ž
##ø
##Ÿ
##ü
##ú
##ò
##Ë
##±
##®
##ƒ
##Ì
##à
##ß
##¥
##Ú
##ž
##½
##û
##º
##Ù
##ì
##´
##Ö
##Ã
##²
##Å
##×
##ù
##ˆ
##ô
##œ
##Ô
##ó
##å
##ç
##â
##޹
##¨
##Ï
##Ø
##Þ
##ð
##Õ
##އ
##¦
##Ó
##Ê
##î
##ª
##ެ
##¬
##©
##ý
##µ
##¼
##ã
##æ
##÷
##Ç
##ä
##Î
##õ
##¹
##¾
##˜
##É
##en
##er
##ie
##in
##ij
##an
##at
##el
##ch
##or
##et
##st
##on
##aa
##ing
##ol
##00
ge
##is
##it
en
##le
##es
##ek
##ct
##cht
##ro
##oor
##ed
in
##um
##la
##der
van
de
##op
##am
##id
##ig
##ar
met
##us
##aar
##ijk
##al
##om
op
on
##og
##atie
##end
20
ver
##os
##ten
##aal
##re
##ver
re
geen
201
##ijn
##den
##ur
##ic
##ge
##pr
##ta
Ge
##pe
##te
bij
##ra
##il
##icht
con
af
be
een
col
##ijd
##ale
##ot
##ul
##ee
##ele
het
##eer
##isch
##de
##ik
##gen
##eking
##atum
##ent
aan
##elijk
##itis
onder
##oed
##as
is
##iet
##orm
voor
##ingen
##nam
Datum
##ese
200
##and
CS
CS00
##cl
Geen
##ctie
##aat
##em
##oek
Con
st
##usie
##ine
##zoek
niet
In
bes
##iop
##eu
##oc
door
##ist
##tact
##clusie
nu
##38
##ab
##ype
##ies
##ven
contact
gew
Conclusie
##ag
bespr
##ve
##ou
Type
##ier
bespreking
##ken
##richt
##oe
onderzoek
##un
##namn
##ink
##sie
##cop
##ische
##eg
##art
##namnese
ont
##aag
##ft
an
##icatie
mg
##ien
##ige
##ende
##ru
##ok
na
over
##he
##eleid
al
##ast
naar
##chten
10
te
##copie
pro
##olog
recht
##ijst
link
waar
Ver
##rt
##eld
##oog
uit
colon
##aak
di
##lachten
##per
##hn
##im
Anamnese
##rohn
CS000
Beleid
##sla
##eken
ile
##VC
##zel
##len
##omen
##ose
##iopten
Crohn
##wijk
##ati
##ys
##cer
##lij
##sch
PA
goed
##ite
##richten
De
##ath
##slag
art
tijd
TC
##ologie
pijn
##IE
##ad
er
wor
Keu
##zelijst
Keuzelijst
cm
##arm
##etten
##ste
##eeft
per
##lies
##ind
##ijz
afwijk
pol
Tijd
norm
##ich
##ran
of
##aan
##ec
ter
##uik
##rij
##iek
##lin
##tr
PVC
zetten
##ter
ontst
##se
19
Aan
inf
##we
CS0000
11
##onder
##ief
gez
##lijm
##ang
##pro
Dr
##ir
##pt
##oscopie
ul
##iteit
##lijk
tot
wel
##SC
##of
12
links
ook
bl
CS00038
##ia
rechts
##spr
colitis
we
pr
ontsteking
to
mm
gewrichten
dd
##ass
CS000038
afwijkingen
##ges
##ff
ulcer
##nis
##be
##ell
##ens
##uid
##eter
##ac
##ect
##eden
##edicatie
##vul
##nt
##50
as
##vens
##ap
klachten
##olg
##eel
##eling
##osa
##voor
##ER
##hand
meer
##ater
##od
br
nog
##LU
##ym
##40
darm
##raag
bloed
##14
##vull
ileum
##uur
##ax
##pijn
##heid
##oort
##ne
##lijmv
geb
##lijmvlies
##min
##ma
##lan
##els
##dt
##spraak
##IN
MD
##leg
biopten
##EN
VA
buik
##erk
##ednis
##sen
ch
##ond
##wijz
##10
##BD
sp
##atient
##uis
GE
##ult
lab
##last
ab
le
##cti
##tra
##AT
##trol
Aanvull
##ci
##ze
MDL
##ide
Er
waarvoor
brief
rect
##af
##ke
normaal
heeft
##56
th
##iaal
maar
zijn
15
##nd
##ort
Tot
dag
##amelijk
zonder
##ichamelijk
##mg
##uw
min
##gesch
gest
##ieden
geh
wat
Totaal
##co
Aanvullend
ulcerosa
##ving
om
##elling
##ame
Op
##ip
wordt
su
##gel
##dere
##king
##20
##iep
##val
gezien
##oloog
Lichamelijk
##vo
##name
##0000
##dd
Voor
St
##OP
##ednison
##gevens
##eerd
ex
##je
##ost
##con
##149
##ep
Ind
afspraak
##inds
08
dan
##oli
CS00038149
##mo
vo
bek
rem
lever
arts
##iedenis
##ust
##CR
##geschiedenis
CT
##alis
##yp
##eren
iv
##ug
##ruik
Om
##ron
##ula
##trole
##igd
pla
##erd
##ering
verslag
##LIN
##geb
weken
##EC
##acht
##ID
##linische
##sult
eer
##igmo
##UM
##ctieve
Pro
weer
dr
##lo
sc
sch
kle
##OPIE
worden
##pla
##RI
##viteit
##chter
##sp
##ymf
week
##ce
##schrij
gegevens
Norm
##pect
##ocy
##CRO
##ica
##70
slijmvlies
##SCOPIE
##schrijving
##CROSCOPIE
Omschrijving
##ard
00000
II
dys
##sel
MT
Col
##AA
##ant
##men
Over
09
##lasting
rechter
##ak
pass
##cend
##ctiviteit
##ire
beeld
ivm
03
2013
##cendens
##rine
linker
##urg
##ber
20000
sta
##oom
##LUE
##mm
VALUE
2012
Met
##na
Al
2011
Th
##amen
199
her
14
##ut
lymf
termin
##uc
##nie
##atus
enk
rectum
Indicatie
gaat
##oord
##omie
2015
13
##issie
dat
2010
Gew
##ECT
##ces
##MC
mil
##ri
veel
##volg
aanwijz
##ateriaal
##lijke
Het
##peci
Path
##weg
##atief
##wol
##cho
OB
PAT
##klachten
##JECT
##agn
remissie
##plasie
OBJECT
OBJECTID
IBD
##wollen
VALUE1
Klinische
##uit
gro
30
2014
##pen
##baar
##tro
##iopt
##hol
cr
##ix
##vat
kom
Be
Heeft
##ram
Bij
16
als
##omp
gehad
PATN
##oven
Voorgeschiedenis
##ont
actieve
start
prednison
sinds
##eb
##52
MTX
##ala
##aatst
##ble
##NC
OA
hoog
ant
hy
Lab
##sver
##handeling
sigmo
##ets
##zijd
##ritis
##ogelijk
##th
##bij
DA
hier
05
##arts
Verslag
##HE
##ocyten
Pr
controle
##55
##ib
06
sten
##gens
normale
##21
aanwijzingen
##EV
##iale
kg
##pp
##genomen
01
##ong
##ellen
40
##nen
##cum
##ira
gran
##CP
mijn
##heel
RA
jaar
ontlasting
Poli
med
04
##me
tran
07
dun
##RD
##erv
##consult
##open
gebruik
02
##opt
##ros
##ting
gewijz
dysplasie
gewijzigd
##pit
2009
last
dit
toe
nee
cal
kl
##reatie
activiteit
Patient
anamnese
17
##kt
##ree
CO
2016
##ouw
zo
##atië
##ISC
zw
##weging
##mat
##orax
##vla
##ISCHE
volg
chron
##LINISCHE
##esectie
100
##elijke
##aakt
buikpijn
##aam
kan
18
terminale
##hou
opname
mogelijk
toen
##anc
##domen
##stelling
Pijn
##wee
##HMC
mijnHMC
end
plaat
patient
##burg
2017
##qu
##entie
50
##oma
##volgconsult
##elen
Af
aspect
medicatie
##jes
fist
##amenvat
Vraag
##ore
##oorts
##46
##agnose
##ov
##umira
##adi
ziek
MRI
2018
ne
##18
Bek
##ameter
daar
verg
wv
##19
poliep
25
##ander
##arree
Re
scopie
##36
granul
vol
##agen
Gaat
##icade
du
Geb
ged
##amenvatting
On
##fie
28
##SIE
##proken
verb
pat
ro
Reden
##eratie
zich
iets
##alaz
##zath
CONC
##LUSIE
CONCLUSIE
dist
##ium
##biopten
CR
rec
die
colleg
ind
enkele
##ieren
##sum
##lden
neg
Di
##ldenburg
verd
##wez
gen
##zathiop
##yl
##ud
##medicatie
##emie
##aas
##rag
##ectie
Vraagstelling
##ract
##ysma
1dd
##elt
Nu
Oldenburg
##urin
##rom
##37
##epat
hyper
2019
##van
##zathioprine
##aatste
boven
sub
2008
score
diarree
##ker
##12
##ruk
##zol
##if
eerder
mt
##cin
##GEV
##ENS
gezwollen
ma
stop
##leur
1x
##sbe
##ss
passend
##iss
##SE
GEGEV
GEGEVENS
radi
##sversum
##batie
la
licht
##kel
ev
MI
##io
##erg
DD
panc
##inf
ad
##alazine
##eest
hepat
MA
##acer
##erap
pijnlijke
##aanden
42
knie
abces
##ider
huid
##rose
##eem
##urve
was
##hoog
lang
##pitheel
##acerbatie
##ob
biopt
##ari
Normale
maanden
##oms
##ina
##oof
##atiënt
KLINISCHE
CS000380
alle
mor
##33
reum
transversum
komst
artritis
hist
##urveil
nod
CS00038040
MICROSCOPIE
End
##48
def
##urveillan
mes
mtp
##aten
##eten
##schijn
##oofd
##uctie
##orie
mat
koorts
KVC
##ders
##sten
##alk
##13
Opt
ste
calpro
##oen
##iel
des
##osit
##dra
echter
Opties
##vang
##oorde
foc
##und
Gewrichten
0000010
##urveillance
ontstekings
verder
##verlies
der
##liniek
dunne
sigmoid
##vlak
##uus
Inter
##idd
sl
gb
cryp
dagen
Dit
rust
bijw
##anden
Speci
##42
MACROSCOPIE
Creatie
##bus
##oren
long
el
##ente
gel
zie
En
gast
##eds
beter
##dens
CRP
huis
moe
DAT
DATUM
##traat
##olon
##hal
##iltraat
verk
##vorm
me
slijm
gering
##houd
##ET
bekend
##cp
##schijnlijk
43
##toc
via
kleine
##erapie
##vis
##erken
gal
cass
24
maag
##coop
##Laatst
##ffect
##60
ascendens
patiënt
Biopten
beweging
hem
uur
##704
Normaal
aang
##sbeper
Cat
##eces
Humira
##vies
##gebre
##egorie
Uit
Rem
##ere
##ijkt
##vol
2000050
Categorie
Pathologie
minder
Materiaal
verw
##ure
descendens
Ab
gestopt
Is
proct
##47
par
##oecum
coloscopie
##imale
##azol
##asis
duid
##nst
##gr
##form
diff
mnd
Gez
##raal
##27
poli
##wezig
##mur
cy
##essie
Medicatie
toename
Na
##teken
##11
##pat
##arcin
##elf
##DE
##kl
pols
vergelijk
Colon
##ben
##athie
##uwe
onge
ileoc
##lijst
Echo
se
Ont
mcp
##AAM
##ulair
##etro
##bouw
infectie
21
##BDAT
GEBDAT
PATNAAM
##to
##ill
##oden
ca
##zen
chronische
Pol
2007
milde
beoorde
bewegingsbeper
x10
Patholoog
##roon
VR
verander
volgt
##act
Ter
Status
##ductie
behandeling
vaat
656
##57
effect
diagnose
VAS
inter
gewricht
##est
##umab
##CH
Prof
stenose
cor
656704
##kingen
deze
##sn
Remicade
ac
negatief
2020
##fsel
max
##arcinoom
##erende
waarschijnlijk
##tale
##lex
verhoog
##100
heb
vocht
Samenvatting
##reat
##EL
##ogen
##oet
fistel
##ragen
##iente
echo
##zijds
##urs
ob
22
rond
##ign
##aties
##ema
##eup
exacerbatie
##muran
##denking
vrij
laatste
li
##39
lijkt
aanwezig
terug
##iderzijds
abdomen
##OR
##voel
##heden
##22
nr
Soort
teken
##unctie
nie
##OM
##geven
Ad
lam
##16
##bleem
distale
res
toont
2006
##deling
werk
##yse
##linisch
##sist
##eerde
##achting
##ilat
epitheel
##uli
bloedverlies
rea
Bekend
##ompl
zelf
vit
2000
dec
ps
##ment
##slijmvlies
materiaal
##bl
##ject
Maag
gewicht
thorax
##imab
Med
for
andere
histologie
##ethol
##datum
23
coecum
collegiale
##MA
klysma
##issel
##isselijk
##ef
hoogachting
later
zeer
##met
##ced
##oo
##dracht
##59
rustig
geringe
##sa
##aren
Prednison
##eng
DAS
##ië
ar
##las
##rouw
##buik
posit
soms
mmol
gr
Verricht
beg
muc
ernst
RR
##ogra
##igen
##uk
##lar
Nee
##lu
pip
uitgebre
ziekte
proctitis
keer
werd
Sch
wil
III
##17
laes
mee
azathioprine
Thuis
wegens
##als
laag
Me
afbouw
##tin
resectie
Gewicht
198
diameter
gestaakt
##enen
maand
##lig
##ging
HA
Sinds
##gem
##ouch
gebruikt
##iding
beper
##LA
##ede
26
Verrichting
Overdracht
##au
schou
Start
propr
##ijdens
##enta
hoe
##SA
##ato
Ex
##pervlak
##ectomie
PC
chol
geweest
##LING
status
recid
##woord
##imaal
##oel
00000100
intra
vervolgconsult
mesalazine
dos
Thuismedicatie
propria
toch
##gelmat
75
colonoscopie
27
Naam
##inig
waarbij
##ikliniek
##wegen
Niet
afdeling
Vervolgconsult
pre
##derd
tra
##oth
##ursus
##yn
vergelijking
##av
##troductie
crypten
##do
##ctomie
29
tekenen
misselijk
00
erg
lu
##cedure
##ase
uw
verm
Te
##tre
##rop
radioloog
druk
mal
nier
##uren
##kelijk
##urinethol
Verder
2x
ze
##alisme
zicht
zwelling
spie
bel
##astom
Interval
##edatum
##ergie
anus
##cm
##icaties
##ofalk
ja
verst
##maal
##dag
##ES
haar
aanv
##ann
lamina
2005
stab
##pecif
hebben
Ook
##verd
##aire
##amil
gestart
##30
bijz
IV
500
verwij
gevoel
Bl
best
##ers
##resectie
60
##vind
Hier
##lop
##gez
088
Laatst
prox
##cohol
##alyse
##ichting
##44
##95
FCP
##kund
##Name
duoden
##patroon
##entasa
##ple
##blemen
##ret
wk
Pijnlijke
##stru
##eker
behand
procedure
##ub
##gew
##iele
##ikking
herst
##aad
##these
##dem
##trofie
nieuwe
Wel
##vallen
##IP
operatie
peri
AZ
CS00050
Geboort
wissel
##AAG
rood
##stand
##ette
##pecifiek
##ctuur
enige
##RDER
graag
##ïd
ORDER
##ostoma
##tal
CF
rug
##aast
##MER
##led
##leb
SE
hepatologie
bijzonder
handen
oppervlak
##tect
##ypt
##ion
consult
twee
wand
##cellen
##pl
plaatse
gem
komt
beleid
##chts
200005020
##ieve
Abdomen
##wel
##romb
jan
##wand
##ate
##oornis
AF
##gaan
VRC
surveillance
##79
##74
verricht
##caal
diver
##oscoop
beiderzijds
Mon
##cept
overleg
Gezwollen
anastom
bijzonderheden
meerdere
red
##vorming
##ussen
ten
Huid
genomen
##erkingen
stabiel
##AL
veranderingen
hel
che
##oge
enter
sn
Ro
CU
spr
name
BSE
##erent
zichtbaar
Inf
##rod
##doende
Colitis
Specialisme
##omet
##beeld
bezoek
##wege
ernstige
##eft
leverarts
fib
gewrichts
##oon
Hb
##lix
aden
focaal
verdenking
##emen
cons
##bleemlijst
tum
card
beoord
neu
IN
An
Tevens
##58
infuus
heup
stoma
anastomose
Aard
gram
##arameter
Probleemlijst
crypt
at
##euze
##requ
##opathie
Advies
##53
zien
oed
##cy
##tensie
oste
plaats
##su
##aken
arth
##uncti
welke
2004
##orta
##onden
##ikt
##regen
##kw
blij
##cus
##pril
Thorax
supp
Dec
mucosa
ser
70
eb
wit
##26
matig
app
##ulaire
##nieuw
steeds
##liximab
##ervel
##rosie
##amilie
##engte
sle
##mol
morbus
beoordeeld
##onen
lo
VI
alleen
##ilatatie
80
RES
path
huisarts
beide
Rec
##elef
##air
##uiten
##tectine
##behandeling
gek
##irurg
Gebruik
##arten
##itu
##inale
250
##DS
verbeter
##jectie
##inder
hij
##achte
##olitis
##gels
schouder
##pecum
str
##lamm
##uni
hart
Cal
##out
##ERS
ger
DI
CS0000380
##reas
endoscopie
##vel
##atieve
bewegingsbeperkingen
ml
ontstekingsinf
##entr
##ST
##idder
Ent
Link
Buik
granulocyten
com
erosie
##unction
##ember
##br
##ERZ
##WK
rectaal
ontvang
Geboortedatum
##versie
co
gev
##pleeg
##idazol
tijdens
##gelmatig
##alofalk
##UMMER
dik
##gang
uitgebreide
Controle
##meen
##ied
##ans
##yst
2003
redelijk
##ijf
##ees
gastro
hoofd
Sp
aug
wij
##midd
ontstekingsinfiltraat
##uze
##oecaal
Co
##ili
##openie
##gemeen
verband
ontvangst
volgende
##nr
Fidder
2dd
antwoord
##lust
Erpecum
##gest
##ening
nov
heel
Indien
patiente
mei
##oid
bas
##low
bot
##tinu
ef
##28
##let
##TO
bet
As
##ader
vanwege
dus
##riend
##LAG
mic
##neum
pleur
anti
Van
weinig
collega
Patientnr
PATNUMMER
tel
##carcinoom
##lek
##are
##ERSLAG
LO
VERSLAG
##rot
##iële
Gebruikt
Onder
##igniteit
daarna
afbouwen
up
hand
##stoornis
rest
##alisatie
vriend
##ologische
feces
Le
hyp
Ile
samenvatting
##tocol
sein
besproken
##waar
Ontlasting
Gast
##ractuur
##29
Azathioprine
88
##pleegkund
##spraken
evid
indien
goede
##ografie
##loten
alcohol
kun
verwijderd
##ule
AZA
Rect
##door
##kelb
##Creatie
deels
pancreas
##umb
oog
##kleur
##euk
##trecht
entoc
bijwerken
##leed
granulomen
inflamm
remicade
groot
Def
recidief
##onde
##etlust
##pecifieke
##verdikking
afgenomen
verl
juni
elleb
##antie
vet
##ocort
##blaas
ur
entocort
##ologisch
##oeid
telef
Decursus
##rale
##ednisolon
##enm
##ulier
##ocht
Goed
##leden
feb
##kelbaan
waarin
SEH
IF
duidelijke
val
##aden
ik
##25
##pon
uitslag
CS00052
Monkelbaan
##ert
verhoogd
49
##wijkingen
##vocht
toegenomen
2000050206
37
##gd
Endoscopie
IC
okt
nodig
Utrecht
ep
post
tab
##RM
calprotectine
##ess
##onisch
##oeding
##OS
##81
##klier
oes
IFX
analyse
inform
31
##okt
36
IS
april
##chite
divert
mw
##kelet
DMA
##zer
opnieuw
maart
Bekende
ileostoma
lucht
voorgeschiedenis
vast
pt
pal
hele
zou
##ziek
030
DMARD
maligniteit
dilatatie
##biopt
CM
##roscopie
##amine
##elijks
chef
zij
##gelopen
dagbehandeling
pijnlijk
klinisch
##innen
##ecret
even
##rote
##XX
##DELING
volgens
bekken
mam
##lis
Zie
duodenum
gele
##gesproken
passen
##gaar
forse
##ctief
bekleed
vl
##welling
##cor
Entocort
Introductie
##ractus
##rex
Daar
##ulm
eind
##bere
chronisch
##rodese
voeten
laesie
groet
or
different
##menten
TH
cellen
geleden
##DA
##weefsel
##gevo
imm
44
##str
##ca
CA
beoordelen
##erend
##cologie
##zumab
afwijking
##huis
ileocoecaal
bijwerkingen
afge
##sm
Surveillance
##alist
EN
behandeld
append
##dz
##pressie
pleura
DARM
Ja
##sl
##lergie
##anger
juli
##asc
gehele
##och
200013
##cre
##ui
kunnen
ing
Endoscoop
##ekl
20001346
Door
755
rel
##gevoerd
EEN
##geleken
bep
oraal
infiltraat
telefonisch
medic
vriendelijke
##iceerd
2002
wee
aand
jar
onderhoud
rechterhand
kw
##iltr
vand
##wijzigd
milt
MCP
##oliep
##ooit
38
Nog
imuran
prim
##leggaar
humira
bdz
DIT
##mming
lig
basis
Vleggaar
stoppen
##49
cassette
lichte
##ERD
##iver
jarige
ech
##66
tevens
Pré
##astas
##chitectuur
therapie
hal
urine
prothese
doorsn
##ffen
##functie
##hin
##igmoid
vanaf
bra
##lasse
##rug
pneum
##ling
##omat
PM
klein
purinethol
##43
morgen
##uma
##aand
dosering
Crohnse
##ijde
stenos
lon
##AU
##366
ulcera
##TEN
Hem
problemen
voet
##oep
BS
vermoeid
staat
CMV
vaatpatroon
##aande
vor
##nte
Imuran
vandaag
90
000
drukpijn
compl
super
##ultip
Algemeen
45
ref
##dom
VG
tonen
geboren
##enter
##zicht
begin
Tractus
##ank
DAG
##lanke
##OL
AL
Links
##rth
Mil
Mor
##voldoende
ap
##istent
atyp
MC
moet
cl
##icul
midd
##ecatie
GI
##reven
Diagnose
##idazolam
##kk
pred
Secret
##ept
##aard
conform
##udie
##eto
##uim
hyd
##osis
Wil
##NUM
##zuur
TEL
##ouwd
##pk
enkel
##reid
##ox
wervel
TELNUM
colectomie
##otherapie
##ris
##oper
##sh
bekende
Coloscopie
hou
hoogte
##inaal
##ariaat
##laring
fol
Per
lymfekl
##TORI
continu
##isie
opvla
##osin
##B2
##tijd
injectie
weefsel
##SEERD
##urende
GEAU
##TORISEERD
GEAUTORISEERD
am
doorgem
ond
eerste
tussen
blaas
gaan
##requentie
ij
ASA
spiegels
eigen
vooral
ben
##MD
Hy
lit
aankleur
##ici
FU
duidelijk
##ason
kleur
##ins
nieren
##activiteit
##NF
galblaas
oedeem
tumor
PATNR
binnen
##test
AFDELING
cerv
##ori
pouch
Vit
##schap
##zijdige
Mes
laten
evt
##visie
chirurg
medi
##MG
iom
##AAL
LEV
dra
qu
##RA
meest
##ORA
##77
BSN
##275
extra
Afspraken
2000134652
contra
##pes
betre
##gebouwd
##org
3m
dis
verhoogde
fl
##rit
##aald
##ane
Zo
slecht
out
##rek
bevind
##reerd
##88
Laatste
##IEK
92
##kwab
DC
prik
gevonden
##gesloten
##ultipele
##usc
##halve
##otische
##kol
##roscop
afw
starten
neutrofie
##reeg
##23
oncologie
Ass
Polikliniek
achter
##tekening
Veel
eerdere
##ekend
##15
##ift
##osinof
CS000383
thuis
cir
perian
Eer
AB
##erkt
man
doen
Fax
Vo
Familie
Opname
##bereiding
##lag
MAAG
##5533
##naast
Secretariaat
Pat
stuk
CD
gl
zwanger
##flex
##IEKTEN
##ERZIEKTEN
LEVERZIEKTEN
gebied
distaal
##7366
##ofag
evidente
zal
##ORAX
##5740
advies
##ity
##veer
proximale
blijft
comp
bed
##cisie
appendix
sin
##kolom
##ex
##ors
##acter
Bloed
FN
##ereg
##halen
pseu
##cc
slaa
##wit
Pentasa
TI
infliximab
sterk
##afwijkingen
##room
2021
##steking
dysp
pancolitis
##oscop
oor
##AM
linkerhand
staken
studie
Een
0DA
wek
##veel
PIP
##auhin
Specialist
ker
scan
Salofalk
##uun
Overweging
##enz
galwegen
Ch
##istreerd
Assistent
##va
Gastro
uitgevoerd
Her
Midazolam
braken
##slagen
ges
AC
volled
maal
##lank
##EX
acu
##eregistreerd
AA
##Geregistreerd
prednisolon
##adenopathie
##ive
Function
##KO
crohn
##cler
reumat
misselijkheid
##ei
Buikpijn
skelet
il
sep
##stoornissen
aorta
2001
eten
##rad
##vrouw
poliepen
##verander
##98
AI
kLINISCHE
##24
onvoldoende
traject
Soc
##rexaat
opvlamming
##yt
inz
Mesalazine
##uari
##abet
pte
##emp
##rosies
35
##onie
lengte
##otrexaat
##onderzoek
positief
##oston
##afd
bewegingsbeperking
aanvr
##dien
anemie
bezoekdatum
verslagdatum
differentiële
##kg
##fen
voelt
gist
sigmoïd
zit
##been
O7
OC
THORAX
onderzoekafd
4B2
0000000
gift
Mw
##4674
plan
Mod
##56A
9F
##19A
4B2B
Boston
##E4674
##95E4674
8856A
DC81
0DA19A
9F47
8856A95E4674
0DA19A56
Milde
##uurd
##bare
vermin
part
##rol
grote
##ularis
arthrodese
##reflex
##aakte
TA
##yc
##ake
##ay
##pil
##elbaar
Bauhin
zn
pleuravocht
##shoofd
recept
comb
BO
##gt
dal
##vangen
deel
persist
##lux
3x
lage
##GIN
erosies
##one
##542
betreft
ORI
isch
##vast
hypertensie
##gev
FUNC
##ality
##ratie
polikliniek
##Guid
lymfadenopathie
indicatie
##DEF
9D
##COM
Parameter
neutrofiele
##GINAL
ORIGINAL
CFG
##40C
##Classe
ORDERCOM
CoClasse
##uleName
FNM
Functionality
ModuleName
FUNCDEF
CoClasseGuid
FunctionalityName
LWK
erosieve
##entan
vis
150
##orst
##reflexen
vraag
##oken
besch
We
##tox
verleden
tegen
##compl
protocol
##pec
ongeveer
sept
##ime
39
##hel
##erde
##CHO
##dur
##ww
MCV
vak
herstart
millig
milligram
5mg
dunn
scoop
cyste
palp
##pus
artrose
afdelingshoofd
##stip
##rijk
##orte
##gressie
nooit
gegeven
##aliteit
wisselend
spier
verbetering
TNF
##gegevens
##rampen
##ator
VII
Onge
slijmb
##elde
klep
echt
elleboog
zet
asc
##hotrexaat
fer
##minale
Rechts
klinische
sed
rondom
onre
##imumab
Overige
sprake
##anning
B12
gebeld
hoge
##chtend
ijzer
aanvang
##amer
ery
ven
##entanyl
##ger
##57403
seg
##afspraak
2000057403
##oeder
##iliteit
##structie
hals
##istal
aankleuring
##ontre
recent
komen
##taan
gelegen
##gende
##alg
##78
##gegeven
##EXA
situ
tromb
##plan
positieve
retro
##generatie
onderbuik
##week
##tab
cholec
##hogen
##ën
##age
##eert
##icale
Mevrouw
afgelopen
specifieke
ECHO
geeft
##oupes
##entraal
##rui
##par
slijmbeker
had
##oto
regelmatig
##90
##iden
##stra
januari
MTP
DDR
##alen
verpleegkund
wandverdikking
##kenhuis
IDS
CS000000
my
##slijmvliesbiopten
scre
gekregen
Zwelling
##etroffen
zijde
##stipatie
##lissen
ved
type
##rager
vragen
##BL
##iment
##zaam
reumato
Rv
##reek
PSC
##spreid
totaal
vorige
##ormulier
bron
##abetes
##mt
##ecaal
Toel
net
Toelichting
##type
fa
##ild
##wezen
ileitis
abdom
mid
respon
##68
##ziekte
contrast
Gl
##urinol
Kw
##orac
##agnost
cardi
##epr
complicaties
im
twe
##bo
oppervlakk
Beeld
##ulmon
pentasa
calci
pati
ster
##darm
Br
##suff
kinder
Patiente
##sverlies
DEXA
gecon
##trum
micro
##54
##enmerken
Spec
##mis
vorm
Bel
##tem
##opor
Ant
beoordeelbaar
aantal
##over
##ruize
infiltr
##frag
##CE
ip
Geachte
doorgemaakte
aangetroffen
bijn
##anks
matige
ileocoecaalresectie
##lopurinol
nacht
##ios
zetpil
OR
##ijken
BMD
subc
##lastische
fisteling
##eprazol
sec
##grens
mediast
sinus
reg
OK
reeds
##isic
##ych
PET
spiegel
soep
##bel
##edarm
Exacerbatie
##inden
weg
dikke
flex
totale
##iot
stand
##rie
Eetlust
Vpk
##GN
##ynd
##prox
##plaat
lis
##UP
delen
##487
##clomet
bru
umol
oesofag
##entu
lok
laesies
immuun
cervix
anders
##erking
Intox
Slanke
##96
past
##187
kuur
##take
ulcus
musc
ontstoken
##484
##sf
slaap
lichtreflexen
cyt
kenmerken
Vergeleken
##hy
Kruize
##cter
Kle
ALAT
perf
##entrum
litteken
1999
##tiek
##ober
he
snel
AW
##dat
roken
neemt
##lectie
##rium
##elijst
##iers
##uizen
Aantal
##54260
Darm
obv
##eder
2000054260
reactie
##fisch
##ew
##cel
##lob
##obs
focale
ha
volledig
reactieve
den
bronch
##oler
lymfocyten
##ustus
##ichaam
Hel
herhalen
bovenbuik
##oporose
##veis
##UI
##elijsten
adenoom
ang
##heek
klier
##acet
Purinethol
lumb
pancreat
basaal
##iverende
58
terminalis
1000
##udes
aanvull
##ith
##oph
opt
plek
6m
Voelt
krij
##otheek
kreeg
Meer
intact
Pla
##iersema
3484
##noe
mij
Siersema
##zaak
##druk
##astasen
architectuur
polik
sla
Medisch
##root
##yste
eerst
400
ochtend
pijnklachten
pneumonie
##udeson
verklaring
##acro
##ichtheid
##acobs
vrouw
##nemen
##51
Rectum
##ura
200005021
sign
##valu
##veranderd
momen
##istaltiek
Rij
ingre
pseud
ber
screening
##kkoord
##les
##BC
##pectatief
ruim
afname
48
##oop
##udesonide
##eth
ORAAL
##visor
##thoven
mond
##stomp
##ateus
##ikels
CS000507
##int
450
vr
Scor
##spanning
HC
roodheid
##STEL
##loo
gemaakt
CS000487
##inatie
VRAAG
dermat
##reg
Scorelijsten
Mat
los
afwijkend
SI
##STELLING
Kwaliteit
VRAAGSTELLING
CS00048739
##gend
Enter
vaak
##algie
##menging
peristaltiek
beperking
NB
loc
PA1
wkn
FE
##raagd
##olizumab
##ankelijk
reuma
loopt
Hyper
##yndroom
eosinof
##eur
kader
Calpro
bre
Art
kort
Rijthoven
vermoeidheid
Blaas
##igheid
##dichtheid
gedaan
opgenomen
##igne
Mar
cel
minimale
##elden
##ool
##arameters
respons
maandag
##ikte
##MP
ophogen
zwangerschap
##osf
##itie
follow
55
gewrichtsklachten
stress
antrum
water
1998
hemor
oo
verkregen
##totale
##can
tev
continueren
Jacobs
Aanv
UMC
Deze
Qu
verzoek
Afspraak
gef
##AS
##nia
##muc
zeker
vitamine
kn
staan
##lasie
##inkt
verz
##ster
pl
pap
##mak
Drs
3dd
kal
##ijs
##olium
##urie
Zeer
diaf
sym
##070
verrichtten
longen
hemat
##etje
##achten
orth
fractuur
##tember
##791
##vall
obstipatie
consent
oktober
borst
endoscop
##lass
##unt
##zelf
dub
Toen
##iasis
plaveis
##operatie
##lair
##kun
fors
wervelkolom
##ND
Lever
proximaal
diafrag
73
Graag
RT
##mer
##ruari
##teel
##vante
antib
segment
##iotica
warm
brij
Sm
L4
ongewijzigd
##MH
anale
##oter
ander
##yla
##inage
inflammato
##neu
##letie
RF
##56187
4501
4940C
92CE
##KORD
9D37
FNMKORD
FE21
##07056187
4940C791
92CE07056187
##MAT
Morbus
verminder
##standig
##istof
hoofdpijn
##oliumzuur
tr
je
neur
prima
buikklachten
Par
CS0005040
bespreken
lymfeklieren
1997
helder
palpab
##oliepen
##kunde
versch
eryth
december
##tern
epit
ou
Verdenking
hierna
syn
##spie
augustus
radiologie
corpus
mot
##iging
##ner
Hoe
pathologie
multipele
opzicht
##uwd
apotheek
##ior
AWAM
Reuma
Fentanyl
Wat
Foc
ins
Patië
##icientie
Ca
prob
56
november
##tekeningen
##gewicht
TABL
Ik
##ijnen
##ilis
introductie
progressie
##ites
oss
##97
##troles
##ropathie
muscularis
laat
##chym
aanwijzing
Diff
werkaan
2000050211
ileus
Time
bestaande
##alimumab
dunnedarm
##voer
Onderzoek
geheel
##ystectomie
##roscopische
opzichte
richt
Ges
##olid
helemaal
##oucher
pseudop
##osale
VC
lopen
Ton
allopurinol
knieen
AS
diverticul
##lassif
infusie
linkszijdige
##okdarm
paar
prikken
nive
ebnt
##incter
##generatieve
##pectie
##ielen
##terus
allergie
aanged
MCH
##hier
bere
##atose
mamma
vergrote
houden
werkaantekeningen
##grad
FD
##een
##IS
##infectie
frag
beperkt
id
maken
serie
Kan
ulceraties
##olie
tub
##ikel
##mie
##taire
Rookt
##ildklier
Feces
vooraf
##mee
##OE
do
##enzym
opgebouwd
##kern
ondanks
##bre
##problemen
Interne
Gezien
cort
noduli
kleuring
ade
##ografisch
no
opge
zoals
perianale
##zijdig
abcessen
##ogeen
polsen
##kan
altijd
Sociaal
botdichtheid
##esie
CV
##velden
mon
endoc
eventu
##gaand
##oud
fistels
##lav
##witch
toucher
OP
middels
Enk
oppervlakkige
##WI
ziekenhuis
##oot
46
##assa
1dd1
dig
lijn
##icaal
##zijde
voorbereiding
pancreatitis
hoeveel
ret
Roken
dosis
##ithiasis
intest
Cor
##erp
##BS
rectumstomp
##iatie
##pland
verh
thorac
risic
##ise
ax
##ulp
FDG
##iculair
oorzaak
57
actief
slokdarm
erv
##quen
rand
PCL
##oment
##teuze
##ket
nef
vakantie
HMH
Oste
leuk
darmwand
1d
av
aut
59
Vragen
TABLET
fr
ICC
##tens
sedatie
informatie
##trek
S1
neoter
Uitgebre
februari
pyl
##ucose
Klachten
##sparameters
##ulatie
september
dors
efd
Beiderzijds
ischemie
behou
##valuatie
##aarne
##avant
##erol
verdw
MR
gisteren
moment
##hr
##oide
weke
stru
motiliteit
Centrum
##col
##mal
##tabces
Recid
##rugs
##ijdag
wond
##quenil
afgevallen
Colonoscopie
Kal
##PI
graad
creat
gedurende
diagnost
##uwing
Haag
hyperp
ving
bloeding
47
temp
Soms
##56275
bul
7555533
7557366
7556275
##ophag
overige
Mogelijk
benen
65
68
gastroscopie
##vula
naast
##umat
verwijz
Vol
men
overgang
DM
mn
D3
##enees
mamm
mesenter
overig
half
##LE
Smout
54
##use
Mam
##asie
Intoxicaties
##actor
punctie
trans
Ha
##vl
Nie
##inine
diffuus
lichaam
cryptabces
verspreid
plaatselijk
##lagen
stij
##73
##kken
drie
uitgebreid
##enac
1996
Overleg
##etoond
epithel
IOS
JW
##aags
vasc
concre
onregelmatig
##tis
##63
L5
ok
Als
Enkele
LF
waarvan
##ocyt
subtotale
diep
##ha
##ioch
##risch
##iak
300
expectatief
Sigmoid
nemen
##190
ontslag
waarna
et
##oratie
pm
##osigmoid
Huidige
Licht
Pre
Lengte
Colonbiopten
verpleegkundigen
poliklinisch
antibiotica
aangedaan
bi
verdacht
Infliximab
##ysteem
HP
ASAT
conclusie
##gebruik
1995
interne
em
##nier
##pak
##racht
hiel
33
##drachten
##ffer
##sc
##heen
jaren
##apa
Vragenlijst
dyspnoe
foto
##amol
ingreep
onb
langs
Enterologie
2e
##lijden
ascites
AP
heden
##eupen
##compliceerd
relatie
doorsnede
mala
##staat
wo
FZ
vaattekening
tabl
os
bez
Opdrachten
lumbale
Fer
akkoord
##zavant
gefax
Lymf
informed
been
psych
samen
spond
terminaal
inflammatie
combinatie
##amp
vrijdag
methotrexaat
##gradige
##cell
Calci
##GT
Aanvrager
gebruiken
massa
Wor
dicht
OS
Gering
persisterende
drainage
wisselende
CS00038352
##tes
##iosix
Dys
longvelden
korte
consolid
##ologic
53
arter
Ech
##lad
Am
Focaal
##IM
##Ver
##gezet
##uss
##BV
##ijfheid
52
waa
gefaxt
200006
eetlust
##elevante
##accin
verdere
##eeftijd
BE
Zij
bovenste
gesproken
sprong
##rh
##bijmenging
##ile
INF
##akker
submuc
faeces
##cturen
osteopenie
colonslijmvlies
onveranderd
Opnam
bo
familie
##itus
scler
tijdelijk
darmen
elders
Ileum
supervisor
##inum
reumatoloog
##Âë
##taat
belafspraak
ploo
ulceratie
IBS
##iv
##08
32
cre
Wordt
genees
85
##nem
ossale
##uratie
elke
slijmbekercellen
##aliseerd
##gewricht
##67
enkels
omdat
Tijdens
Doorsn
##keur
beclomet
dagelijks
##bolie
darmlissen
hernia
##assen
##iode
assist
Du
cholecystectomie
opst
##gezien
PCR
tevoren
mob
Daarnaast
waardoor
clysma
##aart
hervat
51
##klieren
hoesten
pulmon
##ogene
term
leu
##vuld
dieet
##amuc
421
budesonide
atypie
##rang
##alie
##eses
Kliniek
##ekstra
neoterminale
##ulitis
tumoren
acute
po
##hoogd
conversie
sonde
##ontreal
##emateus
aangetoond
41
geven
EIM
##lassificatie
duct
40mg
Ig
uterus
Aanvulling
##schema
chem
sigmoidoscopie
daags
##landen
##onderdag
Montreal
langdur
Allergie
##ade
##za
suppletie
##liggende
cave
leverenzym
plaatsen
##etal
Slijmvlies
vermoed
##acetamol
##oening
Rectaal
niveau
##mengd
Panc
metap
vena
AIOS
Haaglanden
vaten
adalimumab
Pt
##elepitheel
laterale
##cal
lateraal
poliepje
erbij
##bes
passeren
mar
##geving
34
##rox
ci
moeder
icc
##sklachten
##PS
##IV
##afactor
##ritine
mak
##lacht
Biopt
opvall
##etour
keel
##hason
##atine
erf
##gele
##ante
##eron
proberen
Val
heupen
scop
##heup
leeftijd
Ged
verdwenen
plasm
##middels
Formulier
flar
function
##eus
Gest
##troleerd
chirurgie
##orgen
uitsl
behoudens
##esies
groei
BV
Ongewijzigd
Proct
alles
##outine
Ven
66
COP
Tekstra
mel
verlies
erfelijke
recidiverende
fibrose
afwijkende
##stenotische
stent
infectieus
FO
##volgens
salofalk
tablet
##ius
##amucil
##gembolie
INFOR
##MATIE
INFORMATIE
##rupp
krampen
evaluatie
##onent
ox
##icl
doorgaan
makkelijk
osteoporose
malaise
vill
CRC
##atrium
verliep
##gelmatige
adequ
Tromb
ingesloten
Uitvoer
bruin
cm2
mag
##icolon
##iezen
reflux
zetpillen
polie
verminderde
gewichtsverlies
Coupes
vervolg
##yna
##eens
##era
##hankelijk
##ijdingen
##insuff
##200
conversiegegevens
COPD
Uitvoerders
donderdag
00Geregistreerd
ble
##gan
LUM
nauw
PA2
schouders
ga
soepel
##jun
##aling
##omt
##ontsteking
##ilijk
fund
##gestuurd
##collectie
##erden
##rect
uite
Sten
poly
gevorm
mild
flexura
##OMEN
vedolizumab
daardoor
##ren
nierfunctie
Ps
eosinofiele
1994
##ars
intake
py
gedilat
##ific
orthop
stro
cent
Stop
Geringe
plasmac
recente
Recept
Prémedicatie
10mg
##houdend
werkt
syndroom
##rel
Kwaliteitsparameters
##ille
gecontroleerd
##ow
ti
non
nek
flard
##69
int
hielp
langzaam
Goede
Behandeling
belt
CP
SUP
gepland
##vankelijk
mediastinum
bevindt
##all
##oupe
##olonoscopie
##NO
##astase
ABD
##pers
hemorro
##pakket
##eters
##XXXX
aandoening
mucosae
Behand
##ynaec
Hij
BSNR
periode
nadien
##pectomie
avond
##laire
##ocili
1992
##acol
hiervoor
oude
##plannen
##prik
##iculaire
maximale
##leiding
Twee
beetje
bil
##sistentie
ABDOMEN
EW
##lijn
enig
##rid
##180
verv
switch
##brel
##voeding
bevindingen
##zelfde
aanvraag
TBC
incl
##meting
##cellig
##hepat
basale
##CC
ileo
##stig
##som
##amn
Matig
##ocilizumab
##leet
##emisch
degeneratieve
diabetes
schildklier
visite
##ach
##ange
##stma
##fincter
For
##unne
medicijnen
##cyten
67
Brief
##lastisch
rondkern
Cla
bele
##pleegkundige
##da
oesofagus
defecatie
##iciteit
Scopie
Card
##UIK
EC
jeuk
##opereerd
eventueel
Radi
Wijk
risico
##cle
prestenotische
hoeveelheid
##Voor
voorkeur
##iënt
##uden
para
##opografie
##ysi
##oglob
laaggradige
95
ontstekingsre
synov
Coecum
sat
nucle
##ïden
plasmacellen
hepatitis
##kanker
hiervan
derhalve
cap
Zijn
PEC
Ontvangen
Hemat
##indelijk
##olectomie
##ummer
eigenlijk
helpt
##amnese
ontstekingsactiviteit
##CCP
buiten
##anamnese
geduid
##Voorgeschiedenis
langer
amp
stenosering
afteuze
atypische
##endectomie
prostaat
##gesteld
medicamen
##artrose
Ery
Bog
pos
ervaren
EWF
overwegen
##spiegel
##uist
uitleg
neus
98
vul
partner
##nex
##anto
Bent
Sub
Echter
Moe
##lauw
Prim
##rof
##gevraagd
A2
pathologische
perif
villi
ov
Alcohol
retour
OOM
frequ
##gaande
auto
##99
palpabel
Toe
geopereerd
20000660
##namnest
probleem
aanleg
verwijder
ziet
##rische
tabletten
bellen
Su
moeilijk
Sl
opnam
##utane
##wwww
arm
NSA
##ecum
##ocard
##wk
##ateerd
naad
Grote
##itone
##amide
##ochtend
##pel
##omateuze
##ats
##iciënt
Pati
##ophagus
##lak
reik
1990
all
NSAID
6T
##otte
##gek
kalk
##standen
DB
tweede
direct
hi
##gebrek
##eemt
grootte
##man
activiteiten
uitslagen
uitstr
antistof
inzend
acc
intern
##41
rad
##stel
##CA
metastasen
nt
Volg
##di
gede
afwachten
lymfklieren
uitgesloten
72
##roeg
indruk
geel
eens
##staande
##arenchym
UMCU
vd
Voorts
Ernst
63
rookt
perforatie
kwets
##namnestisch
open
##roe
Fol
doet
Chol
vanuit
##roc
moeite
1e
##land
##weeg
##lect
kinderen
drain
momenteel
hulp
##igde
##ekt
gynaec
fraa
##259
##80
##wend
##ouff
##veld
##emat
verna
inzendingen
##orsie
beleving
fem
##oedien
scopist
Iom
Eerder
gedi
lymfeklier
gesch
beh
hypo
##fractuur
fundus
Hoofd
##kundige
##eleide
##76
frequentie
800
pot
revisie
enterologie
Pols
##ara
endoscopisch
form
onbekend
##estran
##trocyten
NIE
cyl
##ecale
##CHT
99
pseudopoliepen
kou
##oux
##houdende
inflammatoire
geï
epider
CS00003852
LUMC
Ac
##6275
gevoelig
nachts
##ederom
2505533
2506275
##riet
##architectuur
##contin
64
vag
##parenchym
verbeterd
inplannen
##ieel
proef
##iz
##arct
dochter
##heids
zover
coron
Hypertensie
onderzoeken
gemengd
retroversie
##cz
test
divertikels
##paraat
vlok
74
jejun
SAS
var
Leu
daarbij
darmpakket
##hist
20mg
##740
weerstanden
maximaal
beschreven
afgesproken
##kom
##oeg
##steen
Jan
##orator
gra
Revisie
##reatinine
resul
69
##hele
##urine
opgehoogd
acuut
Kalium
##ovicolon
Ileoc
##celcarcinoom
gep
meegegeven
ging
##still
aspecifieke
##zak
##umen
Pri
##houden
##ON
##perig
##prothese
afgebouwd
nieuw
2507366
JWG
##erape
HH
AD
aften
Nieuwe
port
richting
vir
SASP
BB
##oriteit
##stenen
##oratorium
##Hg
anaal
omeprazol
veranderd
Patiënt
lek
iter
cholang
ligt
##iber
haust
decursus
Abd
##middel
##ote
Prioriteit
ongemak
lapa
##oging
PCM
El
##atiek
klieren
vergeleken
secund
4x
##198
idem
##148
Toename
##hsen
dui
richtingen
Clahsen
##def
Analyse
##omm
longembolie
plaquenil
CS00000040
Komt
##patie
cell
cc
##gn
##ontaan
##tir
##reekuur
##ouce
##oglobine
##bag
##atosis
Glouce
Gloucester
##rava
rib
##HA
##yre
##lare
##poli
110
##FR
plaveiselepitheel
inst
GIF
96
##ping
##etrokken
78
souff
concrementen
Bas
Opnamedatum
act
coll
circa
midden
Behandeld
krijgt
Hazel
##insdag
##inken
Hazelbag
CS00003806
biologic
Ar
gebieden
##CL
##oplas
inv
beoordeling
Plan
##aemie
ug
##orect
##cif
waarop
zagen
CS00003817
weekend
##icon
Ul
wakker
slaapap
Gist
97
toenem
CS00050718
duizel
##bum
VIII
sig
aandrang
ilia
inductie
71
##ming
Min
CS000037
ogen
CS00003857
stroma
resultaat
tal
##antwoord
1993
ziekteactiviteit
##erapeut
organ
plooien
##iciëntie
CWK
fiss
Not
gegaan
##omy
##blem
lastig
dermis
blijven
bulbus
Lok
2000050207
Verpleegkundige
##raagt
HCQ
##75
gecompliceerd
cryptarchitectuur
efde
aCCP
##smal
kant
ER
Loc
Vanaf
Lo
sfincter
Diarree
##vrij
Eerste
##oediening
##reden
##antif
uitgesproken
eindstandig
Vitamine
##ositie
##ocytaire
kwetsbaar
slijmvliesbiopten
##que
caecum
##loop
danwel
UWI
vermoedelijk
reumafactor
verwijzing
spor
##viseerd
Tr
focus
##teus
kernen
##tatie
Ten
negatieve
slaapapneu
##ICHT
##kop
##pool
##blematiek
Hemoglobine
lymfklier
6TGN
tav
begon
gezocht
##tirpatie
Volgende
##uidelijk
500mg
##OG
##ellitus
##udenofalk
Heer
62
gesp
koude
werden
Kamer
zitten
proces
Dist
sh
zowel
thoracale
##iclof
pres
##rin
vergroot
pas
##mata
##aline
ag
lien
ampul
##gezette
antistoffen
Topografie
cran
##usen
##boven
##por
psori
O725
Knie
A2L
##iteiten
##umar
77
##ella
reactief
niets
Energie
84
##iopsie
##olerantie
foliumzuur
##artritis
mogelijke
gang
##adol
intraven
CS00050406
bro
Proctitis
epitheliale
voldoende
##enmerg
##B1
##ked
##NP
CS00003851
verdikte
##maals
##hyd
2d
gehoor
thans
minu
vochtcollectie
Multipele
coupe
##zep
abdominale
Intact
refract
zuur
rondkernig
##ostrid
76
pa
##ralgie
##aagd
lienalis
Neu
##LO
CK
##BUIK
Trombocyten
gepr
endocerv
mis
cer
hersen
dinsdag
eci
sessie
ureter
KNO
##ijden
##acept
bacter
##proxen
##BB
##its
##atio
epidermis
##35
##zien
##osering
##antiferon
inmiddels
Medische
##lichting
kaliber
Koorts
Ti
Forse
##antozol
SV
Post
Stru
anter
want
controles
Activiteit
##iclofenac
RIP
##atacept
##czeem
kweek
##ace
calcium
Chron
##NA
##luste
##gebluste
Morgen
Werkt
gene
cyst
Premedicatie
inspanning
beste
axil
##voe
ECG
##ostridium
##anneer
itis
##TS
lies
structuren
##fig
Bauhini
vader
Protocol
##sgewicht
perianaal
zorg
valt
tu
Scre
##weginfectie
##emische
alhier
##ruppels
140
##heven
##ouwen
##aker
vrijwel
##vormige
gevormd
Routine
CS00003856
Natrium
Stoma
rode
##ikk
1991
intestinale
##jaar
nav
ebn
CS00003805
##roscopisch
hyperplastische
component
sympt
##stenose
tox
##pees
aanvankelijk
App
beclomethason
Follow
82
##89
aangek
Kleine
##gs
vier
##metastas
##34
##ikbaar
dex
alwaar
afbouwschema
Long
##ioc
##rops
##elingen
Tran
Ernstige
##edi
diepe
IP
prof
##proxin
sol
mobilis
promin
##smalling
##omogeen
##ronidazol
##ev
86
##ensdag
MW
centraal
##ramp
ST
oogt
minimaal
ferritine
longarts
MM
##inde
geind
##adviseerd
Frequentie
mediale
patroon
##uij
##oten
##wart
##antoux
witte
Asked
vingers
spondyl
##ouder
excisie
Plaats
##atheter
Hierna
inge
##tjes
langdurig
beginn
ventr
##edoch
##iti
vraagstelling
##stem
Ooms
##ichew
gerel
resectievlak
##ziekten
Bekken
BI
MP
lange
voeding
Bes
##idine
supr
Struijs
##atuur
hili
slank
##sma
pijnstill
verdikking
CS00003853
##cocyten
##Cl
##imm
125
Neemt
##volgen
mi
##namelijk
ipv
haustratie
##lazen
Gaarne
##basis
Wervel
##ortale
extern
coupes
##krampen
Poliep
Ze
##wijzigde
lukt
##ocytose
##teerd
##emand
fraai
paracetamol
gemengdcellig
spronggewricht
tocilizumab
##vloed
stap
##avond
Hierbij
liggen
##VEN
##engen
IMA
##huizen
##olithiasis
CS00003826
hierbij
HIV
iemand
drinken
##ximab
lymfoom
##TIE
carcinoom
##rectie
signific
##opy
Primaire
79
Uitslag
Fist
benigne
Enige
##icus
##ijvlak
##icob
grij
##ove
CS00038311
tend
verdragen
Uitgebreide
jejunum
##toon
Iets
##actie
mellitus
##cichew
spontaan
##urines
omgeving
lymfoide
infectieuze
diffuse
Andere
##vinden
Hou
##165
bericht
##email
##utaan
Diabetes
##INE
Meerdere
##kte
herstel
relevante
##zins
afnemen
gemeten
beperkingen
supps
begonnen
Den
##hepatische
echografisch
Laboratorium
vlak
##icemail
##ons
Der
TS
Pte
vetweefsel
83
61
meet
colostoma
##uurde
opgestuurd
verontre
afgrens
assistent
eveneens
Erytrocyten
colonbiopten
kr
##stemming
##voet
##bodem
slechts
OND
drugs
##oorn
Gedurende
##lopen
Linker
Vl
aza
allerg
colo
##oster
##uiden
kliniek
##iste
brijig
obstructie
woensdag
Waar
reden
wederom
tubulair
breed
gevolg
inversie
voorheen
diagnostiek
Mic
hev
ductus
##ole
bloeddruk
##zepam
VO
formulier
##opyrine
uitst
mate
beenmerg
geneeskundige
dorsaal
lichamelijk
##vastatine
Genees
kijken
slanke
tweetal
##amin
##efrose
##isatie
##aecatie
To
vasculitis
Pap
87
CS00003858
patië
lichaamsgewicht
##oplasie
mo
plannen
deden
##DEN
##pir
ulcererende
Alle
##OB
linkszijdig
nauwelijks
##orus
##416
Gesproken
438
LA
94
##kle
Slijmvliesbiopten
Dan
##vulling
Mezavant
gastritis
Mamm
lip
mac
krijgen
##malig
rectosigmoid
adnex
##cande
functionele
hydrops
RijthovenLaatst
Minder
kop
histologisch
diverticulitis
overdag
##ulf
atrofie
##fl
##omeg
Hyp
verta
##erkte
##tair
Vand
##209
##lectra
##andid
##ronefrose
choledoch
voornamelijk
ileocolonoscopie
begeleid
##trekken
insuff
Slank
436
Klinisch
##fys
##icobacter
TCH
aanwezigheid
PPI
CS00003818
Leeds
##ayat
##geluiden
##wartz
ess
##gewrichten
##sche
0000000198
Sam
Digd
##aps
##excisie
Digdco
astma
Schwartz
nucleair
##tig
##rotische
L2
PB
##rax
##irale
##iland
Methotrexaat
belast
Plaatselijk
flare
Verwijz
erosief
onderhouds
Hart
##ING
bijna
Recent
bijnieren
##norm
uiteindelijk
##olling
##oem
##get
##ps
operaties
AAN
intacte
nab
##RO
hepatis
elk
93
crypte
##indt
consolidaties
vinden
##du
##snog
Different
##gescande
##alazopyrine
##olif
Vandaag
##iceerde
mmHg
Twe
algemeen
caud
kanaal
Aanwijz
##bject
HQ
##rat
##velijk
##gelegd
##voegen
Defecatie
##ord
gda
##daar
scherp
immun
##operamide
##voorbeeld
MDLGeregistreerd
##lopig
##geschreven
ogend
160
##uff
##oiden
360
aanvullende
CS00003812
89
begrens
81
VAG
##orden
##Object
##ilet
AfspraakObject
moeheid
melan
mobiliseren
6M
diar
coel
##rum
sus
##ycine
neo
Valvula
patiënte
600
00000103
Temp
##umer
medicamenteus
Huis
##res
schoen
##eerder
aange
Sta
##aarom
##roch
Vervolgens
FT
##ekende
rechteronder
chew
MDRD
##ituximab
side
##eland
speci
IE
cardiologie
##omegalie
bijvoorbeeld
##kweken
##500
##klysma
91
linkerheup
HQ190
##aecaal
Blij
Conform
##ring
##lopend
microscopische
##req
nodus
adem
thiosix
120
##pectievelijk
EP
zak
geg
Prednisolon
##md
hog
passag
Houdt
##Reden
ijzergebrek
RD
geworden
buikwand
Wervelkolom
L3
geprikt
IX
##plaatst
aantoon
waargenomen
metaplasie
Hyd
Samsom
soepele
oedemateus
##angsch
macro
calcif
classificatie
##reum
Differentiaal
termijn
##merking
ebnte
##no
##waarden
etc
endomet
pathologisch
huidige
Hoog
##zend
##fosf
Dict
Dhr
La
BOVEN
cortiment
respectievelijk
essentie
dro
vervolgen
momenten
T2
##icolectomie
50mg
echtgen
hepatica
neoplasie
##zw
gespr
eczeem
##Âënt
##ian
##hydratie
##com
##ïde
nuchter
cil
har
##NE
AZU
ingenomen
Bron
dip
AIO
inclusie
datum
intraveneus
nodulaire
denkt
##AR
##lever
##osum
top
437
HD
Daarna
##ison
##oll
Recidief
gister
idee
mtx
##chterew
Dysplasie
##gebied
##ices
consistentie
dalspiegel
Eet
depressie
##rijke
anamnestisch
##kuur
##gv
##cox
##ue
bepalen
regel
Gastroscopie
##organ
5x
##vv
waterd
bioch
##gener
Dicteerder
energie
Lymfocyten
##adran
nierinsuff
verstuurde
cytologie
aanp
##ark
##bu
WJ
Diver
##aik
Ma
##athische
Afwijkingen
##splan
HR
Ste
##cg
##94
cysten
Eosinof
pylorus
##randen
idiop
##iakie
griep
mail
Duoden
navel
EBV
opvallende
##merkingen
agg
cryptd
##GFR
Pulm
infecties
##score
##elara
ERCP
bijgeluiden
CS00003825
##sion
##oprol
ontstaan
kramp
##iniging
ir
##vindingen
##persoon
reikend
Extra
onduidelijk
aanleggen
fysi
Overig
Stenose
##ulus
Leucocyten
nas
##cir
##esterol
430
glucose
pylori
fragmenten
steatose
##tje
extre
gesprek
##kend
verdikt
slaperig
minuten
potje
Dunne
##32
Nov
##vaat
6MMP
##oons
##ava
Geboorteland
##geen
hydronefrose
Foliumzuur
dermatoloog
##gevoel
aanta
##Tot
##ouden
CS00050407
##elle
##185
orale
terugtrekken
CS00003843
nec
opbouw
##oprolol
kreat
##TC
2w
##oring
##hes
beeldvorming
BVO
doorg
punt
appendectomie
RDW
Lokalisatie
wanneer
##iter
morf
sk
##red
burs
injecties
##oliferatie
##otisch
##170
##Âïd
behandel
houdt
voorgaand
hyperch
##tende
##racturen
Persist
Dik
onregelmatige
##unten
Thans
systeem
##vent
opnamen
aanvullend
Totale
gemetastas
alge
##acarcinoom
Aug
##olu
cardia
Had
bleek
baat
##64
reumatologie
##breiding
darmwandverdikking
darmkanker
dubb
440
onru
##controle
gGT
##ria
gewrichtspijn
##rivast
blijk
##bumine
KCL
##ortadem
4dd
Cort
weet
##lagig
##sting
leverfunctie
oesophagus
random
dens
##iitis
relatief
gedilateerde
glad
##obbel
1989
cholangitis
##arc
pak
##formine
let
##Naam
##oelen
CS00003822
weefselfrag
cereb
REC
Nooit
ernstig
aggreg
MS
##iever
stoornis
tov
littekens
##rotomie
TP
##unn
##structuur
stenosen
MCHC
##othorax
Monocyten
##rivastava
waren
bewegen
suspect
##US
##rep
##elect
verstoorde
##cyt
##160
Verm
##lastiek
vers
inj
Terminale
Mg
##antwoording
Infuus
granuloom
fmol
##rofie
##uitslagen
SF
mult
ventraal
diet
aangevraagd
bena
diclofenac
ingesproken
daarnaast
sim
##gram
##iviteit
lokalisatie
fragment
pulmonale
##ometrie
gerelateerd
##irurgie
##preking
Beantwoording
mgr
Bogte
Alge
Basof
gluc
evident
##alkingen
BBPS
virale
bloeder
qua
HE
##pv
verheven
vorming
##sing
jr
##ijding
cryptdist
He
##St
abatacept
428
2000036
Ster
##UR
##spleet
VALUE2
Volled
nogmaals
MB
Abces
Glucose
afmeting
Cl
##EG
sacro
afhankelijk
gekomen
abdominaal
##uri
fibrine
Hen
horm
oper
Bechterew
biological
Alhier
kweken
1988
Huisarts
CS00003813
enteritis
HNP
##reed
colontype
adequaat
eenmalig
##metastasen
Kreatinine
##oes
##ije
##cul
toilet
UA
accoord
Aanwijzingen
##wijking
Blijft
##OEK
##INK
hyperplasie
Ziek
##ovo
##inject
monotherapie
Gal
RvC
HPV
Kreeg
Patiënte
hervatten
##62
##miteiten
CS00003842
WK
metamucil
##theses
##zt
##haling
Eosinofielen
zeg
##mentin
##alcif
infiltraten
TER
jaarlijk
mediaal
duodeni
afstand
Osteopenie
Boven
CS00050717
nag
abnorm
Distale
##rocort
3e
tenen
##wens
Uitleg
klierb
Lumb
Localisatie
vaccin
Basofielen
maakt
Ontsteking
stuwing
plaatsing
synovitis
##oont
perfusie
bestaat
Pancolitis
##ramadol
pouchitis
RV
MRCP
onderliggende
##ips
Laboratoriumonderzoek
Schaik
ruimte
bereikt
gezond
volgen
BOVENBUIK
gelu
##otomie
overleden
DIP
cardioloog
##iltratie
##ice
Patientgegevens
LINK
##vragen
##indrisch
##ceptie
vloe
geachte
Vervolg
##beelde
valvula
##uig
Asacol
Alk
##breuk
##eeee
##istente
peric
beperkte
##836
##stof
and
PAS
Duodenum
face
##x10
quo
Doorsneden
##Status
##adisch
INT
##ituatie
foll
subcutaan
Urine
recti
##ph
doorgemaakt
Ulcer
cryptdistorsie
ampulla
##iva
chemotherapie
betrokken
MMB
hard
appendixbasis
Neutrofie
metastase
Chronische
vervolgconsultA
incontin
vlek
##raad
verlaagd
refractaire
##ijds
interval
Gestart
##ts
geadviseerd
wr
##kweek
gynaecoloog
kortadem
mrt
##ique
mucosale
##xon
clin
##oest
eet
prominente
car
##VERZ
NaCl
get
##arco
Li
doorsnijdingen
grootste
TJ
BUI
##psie
Osteoporose
Sn
cryptitis
Screening
##210
PA3
toler
##KOVERZ
BUIKOVERZ
onderbeen
##houdendheid
pus
rugpijn
poliepjes
voorlopig
verontreiniging
RECH
druppels
ileocaecaal
Echografisch
##kort
##ekin
grijs
bew
##metrisch
hemicolectomie
Act
Ev
Reum
cholecyst
##amma
ve
aantoonbaar
reumatoide
poliepectomie
Beclomet
tendin
sfincterspanning
##clerose
Skelet
afgebeelde
CCP
tolereren
##utatie
##vindt
BUIKOVERZICHT
Klaring
eGFR
herken
PT
Uitgebreid
##laat
spreekuur
Bloeddruk
werv
metronidazol
##liggend
purines
Omeprazol
LD
##benen
rugklachten
##laviculair
##Con
verminderd
kap
##ode
Intacte
werken
##alciferol
##uiting
Srivastava
icm
cryptabcessen
##ation
Super
GIE
##kage
Actieve
inzak
eff
diafragma
beginnende
##compliceerde
##ucle
##positie
100mg
histi
My
##ettes
##igh
##spreken
deficientie
naproxen
verschenen
##gat
regulier
ovar
aangekomen
AM
Diak
Cir
soc
Voet
inflammatoir
allergieën
Mun
overg
##peritone
IgG
##sbeperking
ontstekingsrest
A740
verpleegkundige
overname
103
epis
3mnd
Recidiverende
uitbreiding
LINKS
##Genees
schema
##Geneesmiddel
Moons
Ved
1870
pijnstilling
oogarts
choledochus
calcificaties
Neutrofielen
Dus
oa
vaker
psoriasis
##ptie
##stuk
Lang
bloedbijmenging
verstuurd
signaal
##wendige
Kl
tgv
##durend
papil
ciproxin
Medic
##ene
heft
bronchitis
##organen
dev
mede
##klep
##fyseem
##onius
##infiltratie
plaatsvindt
portale
##UN
##RADS
kon
ontvangen
Cortiment
##ly
cassettes
budenofalk
##oïd
##zwelling
Gisteren
##sth
steatosis
moeten
##agnes
INH
buikkrampen
rechternier
botstructuur
##band
teen
epig
geinkt
thv
Mundt
##omide
##eleb
##ueel
##isc
##VT
JC
##303
zoon
##wegingsbeperking
Helicobacter
##umor
Vooral
drukpijnlijk
##ata
loop
echografie
##lenomegalie
beve
overweg
uitgebluste
Meiland
Belafspraak
formaline
##haald
##okriet
bijwerking
willen
belang
##acrale
verdachte
low
Hematokriet
tri
hetzelfde
##pof
##ipine
huidafwijkingen
##65
##ogeleide
buikpijnklachten
Huidbiopt
##idose
Verspreid
CS00003821
##ntgen
Beg
##ute
##illine
##II
overt
##72
Verburg
##middag
submucosale
celrijk
Dikke
ball
tpv
##armac
##anco
Imm
liever
##xe
ons
gerangsch
gaarne
RECHTS
##stekin
CS00003816
bekled
lekker
Pan
gedaald
Offer
sigmoÂïd
##elebrex
gol
##45
Drugs
##1242
##GE
##ripr
abd
##haus
##enst
##riaxon
syst
CS0005098
Dex
Venhuizen
Nier
##inalis
Schouder
trombose
linkernier
##izaam
##stap
bili
Add
Lijkt
##wogen
##FD
Hand
endoscoop
B0
uitrij
blanco
gere
##che
UC
##mene
situatie
##defect
##ocarcinoom
ontstekingsp
Ber
Mamma
epigast
Offerhaus
movicolon
##perking
##KEN
Die
abcesvorming
transmur
elkaar
geval
stijfheid
CS0001242
BOZ
PI
sterke
433
MDO
##pofol
afspraken
schade
O730
aard
oc
##oloscopie
opgeb
aneur
Cholec
inspectie
##ulfas
voorgeschreven
persisterend
##eftriaxon
C2
Mammografie
squ
control
##splantatie
darmtype
labco
blauw
lumen
##BB4
verbreed
flow
##atroon
##omer
mictie
##Van
##rodeses
##extirpatie
plaveisel
blijkt
freq
schuim
schoenen
##zorg
1987
##roei
cryptepitheel
##mit
##uline
mgl
WIS
##unomide
LV
Fistel
Zou
##KOR
geste
##afel
uitsluiten
voorgaande
Lichte
orthoped
##istolling
##Conclusie
leverb
##comp
mit
15mg
gelukt
enbrel
Protheses
##oder
25mg
dieper
arthrodeses
serologie
gereg
##iconceptie
significante
##komen
Bijw
Pe
##ther
Minimale
##93
##cyste
##7C
klys
Geneeskunde
POE
##VID
##50mg
##coxia
0209
4165
##inigd
9DB
##emateuze
Behandeldoel
CA7C
FNMKOR
##7340C
##836BB4
B024
9DB7340C
CA7C836BB4
FNMKORS
CA7C836BB4FD
##LI
##cteerd
mammacarcinoom
bol
##anvis
spoed
ACTIE
vert
##neman
##stijfheid
Ongewijzigde
Lunt
##S2
slik
##aaf
clinique
##fib
##paraten
kaak
##ctiv
##2222
Arts
Sym
overwogen
Bili
##san
localisatie
versterkte
submucosa
sondevoeding
Polik
EX
##tran
artralgie
primaire
##vio
130
JJ
COVID
##ethidine
centrale
dhr
darmslijmvlies
granulair
drinkt
allergische
##ete
ellebogen
tzt
prote
moeizaam
##ogram
fase
benauwd
Ne
aanvrager
intestinaal
mesenteriale
inclusief
##61
##spunten
##middelen
m2
Ang
Leuk
Waarschijnlijk
coeliakie
lesies
lijst
nl
##71
##Âïden
beloop
grotende
maligne
Sociale
tc
verlit
onderhoudsmedicatie
juist
specifiek
vetinfiltratie
##ding
##yvio
grotendeels
organis
##opening
EH
spe
##kering
opin
Gebeld
VB
##aryn
neven
##bezoek
##1111
##stekinumab
polyartritis
dehydratie
##oortje
sluit
##HAN
Ziekte
Ob
LOY
klacht
streng
klierbuizen
##agnesium
daarom
##omogene
klachtenvrij
##375
afvallen
thromb
##itiatief
vedo
bezig
Intra
adenocarcinoom
##pora
pees
##operatief
TSH
T0
##lab
Gewricht
DMARDGeneesmiddel
SJ
reumatoïde
Verd
Cerv
Zw
conserv
Calcium
##ocell
lev
gelok
##edere
##rio
##vasc
##etol
##erie
Vor
voicemail
intolerantie
impressie
centim
infiltratie
##VI
##eton
onderste
profyla
##ulpl
positie
##nf
##igra
metab
uitb
##plaatsing
pers
##uitslag
maagklachten
armen
geplaatst
##ulplijn
sigar
##ulfasalazine
##des
Antonius
EXT
infect
##matica
pericard
##rost
##oplasm
Afgelopen
flardje
pantozol
adenomateuze
femor
kind
stapeling
biochemisch
##glas
##ticul
##opp
2022
1985
##utis
##uitval
SS
oud
Rest
##83
##icitis
Questran
verwijderen
reag
perifere
tuber
narc
##opr
Rechter
line
zorgen
Thiosix
##urinetol
plus
A1
fiet
##3333
frequente
##enie
leverenzymen
erger
##electase
H180
##amelle
##struatie
verrichten
onderkwab
##oca
##bro
blok
sindsdien
DVT
##versmalling
vooralsnog
initiatief
BlaasLaatst
narcose
Herst
aanw
##iaz
achteruit
101
##yreoid
tanden
pyel
opinion
##GA
##ergens
EPE
Familieanamnese
darmslijmvliesbiopten
Sigmoidoscopie
##vaattekening
pan
defaecatie
kleuringen
ws
##put
##chting
palpabele
pil
sporadisch
Inform
herstarten
mezavant
Hepat
##odes
hiermee
trauma
tuss
##entatie
cipro
FA
pneumothorax
Feb
CS00003855
LET
granula
429
lichamelijke
RvO
deficiëntie
wekelijks
loperamide
##endum
info
overwegend
rill
##gene
##stijds
##iochemie
sluiten
At
##formulier
gewrichtsspleet
CS00003827
Oes
oppervlakte
bevat
##trium
therap
##lox
##aring
CS00000039
slapen
craniaal
overtuig
EPI
##status
##ijfer
##rocortison
typ
##UL
##MR
##rank
##sbehandeling
##infarct
##ient
##atische
##atrie
CS00003801
##wwwwwwww
##CT
Bar
ulceratieve
leverparenchym
consolidatie
vpk
Res
ren
##enchym
daarvoor
zieke
##vinding
##erapeutische
Metamucil
Via
lijken
##TH
##inn
regio
##init
Voorbereiding
##vanging
vernauwing
##cand
Daarbij
gaf
##cran
Matige
##amelleerd
Reg
zus
genorm
intr
vindt
Drie
epigastrio
stijging
bestaand
standaard
onver
poliepe
##rictie
##ynt
##ck
POEET
##86
##ocytair
geindiceerd
BM
Pethidine
zod
schoon
secundair
kuren
kalium
Vrij
CKD
##4444
##bupro
##rootte
##materiaal
Endoc
abnormale
426
gevolgd
transmurale
##cytologie
verandering
##omatische
Slaa
colonslijmvliesbiopten
vaste
Verwezen
kracht
Sim
##aterale
Enbrel
Hiervoor
Naar
Vis
##etjes
##continu
Des
Lon
bloedbeeld
enterocyten
loslaat
neuroloog
souffles
UAE
##ynth
fosf
WH
hevige
bevest
##taal
##icum
opsturen
flank
NF
oksel
Misselijk
Was
Krij
##stit
gevallen
##ytgat
##ieus
Sat
trek
##öntgen
lefl
##antop
the
##geert
CTA
prep
##296
CS00052416
HEUP
verstoring
sigaretten
duim
binnenkort
Tytgat
aanhoudende
Endoscop
combi
internist
##buprofen
Fa
L1
progressieve
jicht
CS00003850
overigens
Cardio
Budesonide
##GD
Onna
daling
zon
##uret
##lsma
functie
problematiek
Weinig
emfyseem
Volledige
toediening
teruggezien
##lecht
schimm
ICD
Tra
##orrh
sarco
##copenie
##uwen
vele
DIA
0000000303
##colon
granulatie
resp
zelfde
##cebo
1980
##rotis
Linkszijdige
caudaal
velden
adequate
##vr
intens
Klein
opgeblazen
##ofarmac
plekken
MBq
genormaliseerd
##angen
Contact
urin
FOC
##beerd
verlen
overvulling
##ranul
##GG
gepro
Bijlsma
pleurae
volledige
invas
wervels
parenchym
Mantoux
Sigmo
slechte
inname
##kleuring
##enacort
vertakk
May
##bal
lact
O2
##raakt
granulaat
##én
##ml
##osigmo
##copathie
spuiten
##eller
darmklachten
##Âënte
##ateraal
cardiale
ooit
koud
427
Peeters
PD
mens
gesla
##holte
##overzicht
radiotherapie
placebo
myocard
richtlijn
diverticulose
DUN
Perk
##romat
NIET
fentanyl
rituximab
morfine
DUNNE
Arava
bevinden
Aanvullende
cond
##iafrag
##epit
retroperitone
Addendum
acht
iedere
##imus
##ull
hyperplastisch
loslaatpijn
lokale
Verg
rustige
zalf
uitsluiting
afgrensbare
##rothese
Opnieuw
antistolling
CVA
Ureum
verwezen
UP
##omenteel
FOTO
iliacaal
CS00003795
stijf
##maz
##bloeding
porta
sv
instantie
Verwijzer
##omateus
gemidd
betrokkenheid
tandenrij
Doorsnijdingen
opvallend
verloop
##overgang
optie
Momenteel
Cijfer
flu
proliferatie
diverse
openen
slaapt
WijkLaatst
CHE
##sonde
##ileus
uitstekend
Nacht
ceftriaxon
##iol
##szins
ingezet
gevuld
don
coli
bovenbeen
##ynthese
##tabl
Quantiferon
S1S2
opnemen
oppervlakkig
##tel
106
##romy
##KKEN
##osacrale
##ikkingen
##riprieve
cuff
cilindrisch
C6
##ilie
##usier
besloten
afwezig
102
preparaat
hematoom
Krijgt
Men
Toch
keren
tb
##gl
iliitis
tubercul
uitrijping
##ofarmacon
##metingen
Hayat
collectie
vorig
Diffuus
tib
uitger
Telef
##sis
overal
Stelara
hoest
Ascal
VP
eft
##ocl
gelaat
urineweginfectie
dietiste
Ci
veneuze
##orectale
melanoom
##roep
CS00003811
##relatie
vanochtend
##sbeeld
Hoeveel
##duc
stenoses
vlokken
duizeligheid
##itale
hersteld
clostridium
overweeg
comm
##uele
##az
groter
Heldere
Vlotte
dgn
##productie
valg
##7037
Relevante
##ynorm
##past
##dis
##eklachten
ingu
Derhalve
Belt
##ële
thr
onderhoudsbehandeling
ochtends
##Dec
verkouden
TGN
2000043
##andida
##otos
vererg
30mg
opvragen
middel
Puri
ontw
##heffen
##iaire
orig
Onveranderd
aneurysma
##razol
##umatische
##pan
1986
idiopathische
##31
contactpersoon
portaal
rustiger
##nacht
chroniciteit
complex
kortdurend
Controles
basaalcelcarcinoom
BEKKEN
##ecalciferol
endoscopische
B7
Gel
##med
hierin
Pred
mcg
stof
VALUE3
##cytaire
mast
stern
##diagnose
##atrofie
##enterologie
##GNO
##endron
geinf
productie
##oooo
toenemende
kru
##tussen
één
vroeg
##aalt
acrom
##mede
##ÿc
coronair
Slaapt
Mayo
##85
behandelen
locatie
##ruim
Or
##olische
##yreoidie
##hoek
solide
leflunomide
KJ
fe
##gevallen
EIMs
Pneum
Salazopyrine
hp
tramadol
##spatroon
BIRADS
##teb
##laesies
##dering
Belconsult
C4
organismen
eftis
##teerde
crp
Gezond
sessiele
meth
105
##ellingen
Intern
##Decursus
##92
AE
##EF
tepel
##87
##OLOG
liter
aldaar
##ERZOEK
##84
rugge
algehele
ZZ
##rill
104
Homogeen
herk
gebraakt
Persisterende
DIAGNO
lee
##vir
discontinu
##leijk
diversion
gevraagd
endometrium
##705
ascal
radicaal
Append
romm
opening
Therap
Ur
##entrale
##pitaties
kortademig
ruggeprik
NI
##O2
##angi
arava
facet
##arb
doorsneden
suik
##elaar
ingescande
##ush
Eten
infiltratieve
leverbiochemie
vertakkende
kans
gedilateerd
##figuratie
gelokaliseerd
Vaccin
rese
AMC
Neg
voorbere
FP
Heel
##ompens
6x
##ilus
##ietrouw
##klacht
proctoc
##adrant
Plaquenil
levercir
##olesterol
PEG
##lor
##kenm
wervelcor
coloncarcinoom
ass
Hersen
circ
geschreven
Alkfosf
Wand
##ones
straal
verhoging
##abces
##sor
correctie
Calprotectine
JacobsLaatst
toevoegen
lesie
circum
rechteronderbuik
Soest
ileumlis
Elders
Part
##erior
##ely
kern
Bronovo
hep
Calcichew
##OLOGIE
spierpijn
##osynthese
suspecte
##morgen
aanzien
KLIN
differentiatie
infarct
##okken
##reef
Entyvio
axillair
##ÿcÿc
Q160
RL
splenomegalie
##ucleaire
pen
verlagen
leucopenie
##izame
Blan
##uurt
##schijnsel
##hyper
trombocyten
##zet
##erf
afgesch
ple
##ekeken
fibro
##ycard
2000050210
granulatieweefsel
##ienst
##bevindingen
Wissel
##OND
Lumbosacrale
##press
alsmede
snijvlak
vue
Erg
hooguit
Afname
##IEN
toenemend
Terug
##ytische
droge
FOL
graden
broer
gestegen
##rosis
Aspect
enigszins
JJW
TB
SP
geleid
gewoon
opmerkingen
##inking
ileocecaal
toxisch
epitheelcellen
##oemde
Algemene
LM
Ond
tint
Oncologie
genoeg
vrije
vervolgconsultG
preparaten
verwijdering
vannacht
oesofagitis
##stapeling
##inezuur
questran
conservatief
##alf
Consult
##ococ
##ermd
CAD
nood
Druk
aantasting
bursitis
##HANDELING
##urk
uurs
subcutane
gemiddeld
Blanco
bis
insp
Welke
##ylo
beelden
voorstel
Colonslijmvliesbiopten
Mei
malen
##iopteerd
##atoire
begrensd
##omb
regelmatige
overgrij
##illende
augmentin
arteria
Okt
##azepam
geslapen
Maar
##ju
Infectie
JaP
##osigmoiditis
reagerend
##wij
gemetastaseerd
echtgenoot
doorgankelijk
##endoor
laparotomie
secundaire
woont
kar
eenmaal
##tectin
INR
avonds
##omst
naslag
PR
##ASA
##iken
toestemming
ballon
fron
##ostomie
intrahepatische
Alleen
Moet
humer
##minste
optimaal
##Pre
##ima
##ysio
##antoprazol
onsteking
CS00050983
fcp
POB
souffle
##ning
Luij
Rond
##sfincter
BEHANDELING
HQ190L
naev
CS00003854
arthritis
beslag
KOPIE
##opname
Denkt
Luijten
##IL
AARD
verwijde
##wijf
CS00003846
Artritis
spronggewicht
##arch
##behand
##utum
weefselstuk
ES
afgeschermd
patiÂënt
Radiologie
zin
##lap
DIAGNOSE
##gelicht
medische
sac
##ensie
dikker
KruizeLaatst
tip
##DI
##ooi
##rotisch
##theros
beschikbaar
geprobeerd
CS00003823
##licht
Ve
ogende
##emb
115
beteken
verhoorn
voed
spoelen
Last
##olaps
##deren
vervanging
Pass
##MIE
##iegels
##ortaal
viraal
Diverticul
Purinetol
##branden
incontinentie
5MG
##aris
nader
zelfstandig
angst
Yil
sclerose
Gol
Yilmaz
bruine
##foto
##ATER
gesteld
gedacht
Geeft
vaccinatie
AH
band
Mal
200mg
PA4
prikpoli
aanleiding
doorgegeven
anaemie
tro
Gewichtsverlies
ONDERZOEK
##sus
##ssen
allemaal
opties
CHEMIE
##schijnselen
##ullen
##adres
##ocellulair
Enkel
herkenbaar
ustekinumab
##rain
haaruitval
with
##rilleren
##arte
439
progressief
concrement
pit
##ital
afspreken
##ontane
Aden
weten
##MATOLOGIE
##Be
onderarm
##vulde
frequent
sach
##fort
ziektebeeld
Dag
##kal
bijmenging
HAE
##emper
A2L3
Herstart
West
gyn
##onaat
gewrichtsonderzoek
order
extremiteiten
##usierest
##iologie
project
warmte
structuur
Informed
lag
afh
leukopenie
varices
##usierestrictie
##zetten
Akkoord
##spiegels
##oegd
##illeus
aangepast
Supervisor
Compl
##MT
##ctasie
##problematiek
behalve
##ificeerd
##bespreking
##opril
##orrel
Opmerking
##up
Progressie
gelamelleerd
##ookt
aspecifiek
voort
cardio
klasse
##leboog
Handen
1984
##ynov
spondyla
vulling
doch
##tend
ulna
ADL
##kig
gehol
appendicitis
Moeder
##nl
##oppervlak
##repen
ligging
##omatisch
lokaal
##oops
Hersenen
Risic
##pres
##akt
inzetten
Heup
bepaling
continue
dose
##chil
Vorige
##reactie
spuit
diafragmatica
GGT
rechtszijdig
Afd
##fact
##rand
CS00003859
##gevoegd
geholpen
6MP
becl
Inflectra
##capt
Calprotectin
lym
toeval
sessiel
Rust
##breken
miss
##mp
CS00003819
##ateren
##vormig
verzam
gevo
impon
cervixcytologie
Red
##ric
prin
##rett
tong
Circ
Nethol
sug
##heidsproblemen
##voeren
##ETH
stabiele
##eed
##yten
maaltijd
insuline
##gebeld
NeeA
##emperatuur
Pouch
Röntgen
afmetingen
nummer
duodenoscopie
inzakking
slijmvliesovergang
haustratiepatroon
dubbel
wijz
ingrepen
vinger
leverfunctiestoornissen
Lee
Werf
huisadres
vervolgens
##oserende
tafel
aanval
bezwaar
Tensie
endocervicale
##nog
CS00003828
defect
gegeten
bang
zen
nodosum
del
lymfoplasm
hypoth
tevreden
duizelig
##417
halver
##cid
divertikel
##MDL
plaveiselepitheelcellen
Mac
##513
##ume
diffusierestrictie
113
donker
AV
##nummer
##ijen
##ots
tek
ondersche
##verdikkingen
visit
pcm
##ercapt
##linde
##voorbereiding
##fibrilleren
adv
stenen
##kenmerken
##E9
uitstrijk
3mm
##valid
Maart
##zels
ebntie
##orijk
##otatie
##aseerd
##brengen
##igraine
##opurine
faecale
verschillende
##wendig
HAEMATOLOGIE
Lanvis
##rub
112
gereinigd
##yson
laatst
##nn
tenminste
Loyson
##zending
##leveren
betekenis
##metrische
diagnostisch
XXXXX
##ruit
##akter
meestal
ilium
##sanemie
##444
Eind
va
##geet
##ctur
nadere
##2011
eventuele
weefselfragment
##zing
##odon
aank
output
Ileocoecaal
##pol
##tt
abced
##histoch
ANA
relatieve
gedicteerd
Centraal
tempor
hersenen
valgus
nv
##onucleaire
uitgelegd
perifeer
Movicolon
##haal
##verteb
##oekomst
##rolithiasis
irreg
activiteits
rillingen
overtuigende
diepte
huiduitslag
quantiferon
Clostridium
##blad
creatinine
##arynx
##deel
Darmen
##ontgen
##chan
HF
cmc
##kwadrant
Transversum
macroscopisch
##laag
##atica
aangezien
leverpro
manif
voorafgaand
ingevuld
ML
##erentie
##vaten
overleggen
vastgesteld
vraagt
##Premedicatie
##lod
##osen
##JF
ziektes
CS0005246
flexie
Bos
haard
leverenzymstoornissen
flardjes
Paneth
Laan
Stab
##ractie
groep
ontstekingscellen
##iwit
##icine
##ulent
longvaattekening
Bogaard
KMA
Later
ME
CS00003847
##iften
##BR
##ducer
##elloops
2dd1
fissuur
Vier
Zelf
sport
induratie
Polie
bepaald
destijds
Stand
voedsel
##iscus
ovarium
Pa
perine
TIA
histiocyten
Gekeken
##Di
verdeling
hoger
atrium
##fische
##acem
leuko
femur
##grootte
##mox
belconsult
wisselt
##ofyt
cox
predn
Loopt
##uros
##zimab
##TE
bijnier
Allopurinol
trial
Onvoldoende
toekomst
peritone
steen
##illectomie
tym
reageert
aggregaten
stoornissen
Vermoeid
##orf
##icula
toeg
##matig
waterdun
Ser
middag
##romyalgie
##3888
Nex
SK
Prox
##ppletie
Extr
Lai
bem
stad
Poliklinische
Fors
##emide
##boom
erythema
groen
celebrex
##waarschijnlijk
fit
Besproken
##ike
aanvallen
wortel
cervicale
##ercaptopurine
ong
dysplastische
Vraagt
RvTC
gestuurd
suc
verkalkingen
steroiden
NG
1983
neurologie
##pin
Consistentie
bind
brei
Qua
oxynorm
Resectie
##ae
##moeder
ani
compressie
##sluit
Paracetamol
Lely
subcutis
presentatie
##cale
rechterboven
##rift
snede
bedraagt
##ilisatie
Amels
##urosemide
##SP
##ootkuur
crep
##umaraat
ontstekingsresten
##ONDER
H190
atro
liezen
##genoeg
5ASA
SR
Veek
Lelyveld
##ave
##hesie
##infuus
immuunsu
zekerheid
Amelsfort
Rad
kenacort
CS00003824
##rotheel
propofol
##oordeling
biopsie
##li
##tinentie
##defecten
##lodipine
nagenoeg
eble
galstenen
PCI
opheffen
vergelijkbaar
hilair
Bo
BR
Fib
ieder
##strijk
Gestopt
onrustig
pmol
metformine
nierinsufficientie
alsnog
bereiken
ONDER
CBD
hol
blinde
harde
golimumab
JMR
gelijk
##acc
##cipe
decompens
Gezondheidsproblemen
##validatie
altern
##indrische
##plat
Speciële
activiteitsstapeling
A6
##oas
enorm
primair
##inus
vagina
##inib
Opvall
##trekkend
Ox
tintelingen
Zit
onderpool
##oplasma
HB
pul
Vedolizumab
##rofumaraat
gerookt
##kanaal
Oog
##etting
cordis
coecumbodem
tafelpositie
dw
fos
Degeneratieve
leuco
T1
bouwen
BK
ibuprofen
beval
vallen
Myocard
karakter
ima
##osine
##zweten
##ycardie
Rel
##unct
111
darmziekte
vlgs
THP
Dui
correlatie
##rthrodese
klierweefsel
principe
Nexium
##serv
##raat
##okter
##epten
definit
Sindsdien
compleet
zuurbranden
C5
##iard
##2963
hierdoor
Klep
langdurige
Huidexcisie
VPK
##lat
un
##alm
Expectatief
uroloog
onderrug
sputum
gehal
bekleding
erythemateus
##po
##berg
atelectase
orde
##acemaker
##onitis
vanmiddag
##veitis
##achtspunten
##epitheel
##ves
Reumat
##voerende
442
BY
Montrealc
##schien
Ontslag
tach
Negatief
opget
suggest
cop
##x10E9
NeeArthrodese
inleveren
##ysplasie
code
humerus
CMC
zwak
Appendectomie
suiker
pars
##MERA
sedert
Mich
nmol
dem
volgend
collitis
fecaal
reikt
Inzending
meerlagig
trache
bovenkwab
##82
hormonen
Barrett
mensen
Montrealclassificatie
##verslag
dubbelloops
uitbreid
verto
##oliose
pancreaskop
##ploo
##ameth
##beid
##makkelijk
versie
##wijze
NP
##556
maj
##komstig
nevenbevindingen
WE
calcichew
mediastinaal
##itieel
giften
##halte
##laris
sm
##rem
sepsis
palpatie
##gehalte
##uleerd
bloederige
Ulcerosa
##IAAL
ontstekingspoliep
RvK
Afspraaktype
Cave
bereikbaar
##XXXXX
XXXXXXXXXX
MATER
lax
vari
##kin
opgevoerd
##ioneel
hiatus
MATERIAAL
##YO
##igment
##otter
gland
necrose
profylaxe
Ben
beider
Verk
cysteuze
psychi
JaPijn
##Bewegingsbeperking
##laz
##Zwelling
bestaan
opgetreden
geleide
gevulde
##rood
##HEDEN
##741
##historie
controleren
##centa
exc
heftige
ele
##perf
##ovag
tweemaal
neuro
##eta
albumine
##vullen
spoor
skip
galsteen
specialist
Meander
dexa
##iardia
Juni
configuratie
linkeronder
StruijsLaatst
vertoont
April
##ZONDER
##UD
10cm
Appendix
manifest
CS00003814
zenuw
##chirurgie
kwam
NA
Str
Therapie
NeeP
symmetrisch
##erpe
##atars
levercirrose
##ZONDERHEDEN
RB
lat
##ument
##houding
flink
dubieus
Oesophagus
BYZONDERHEDEN
##erig
abs
sulfasalazine
##icilline
toegevoegd
hematurie
##werking
omvang
##ederland
mindere
cholest
creme
##pulmon
##ylob
##anale
mediastinale
geregeld
discontinue
beclo
Medicatiehistorie
##olesterolemie
Juli
uitgezette
enteroloog
##Diagnose
onderin
asa
##rolimus
Zwanger
A1L
acromioc
Bru
IM
Vocht
##lip
##91
pseudopoliep
hemorroiden
Mag
##lees
discopathie
stukken
##Verslag
svp
##zame
Dysp
##ynovitis
buis
Voorlichting
fysio
##grond
TAVI
cycl
PICC
##afwijking
langere
MMP
Marj
pu
strijk
##amethason
Et
WT
voorsch
Gastroenterologie
verschil
high
##ventie
kalkhoudendheid
Defecatiepatroon
##werk
##otr
Toestemming
jaarlijkse
##chilles
Vooraf
ine
ileocoloscopie
##vvvv
Che
2000134653
##ylobacter
HAQ
##belast
CH
##ectio
Bot
##gast
hallux
conditie
transver
cytonucleaire
angulus
##operatieve
capsu
##aus
##tiele
##inhoud
CS00003804
Tweetal
##sumptie
invasieve
Aanvang
naald
Bez
urotheel
##ptuur
dise
##541
regelen
##oderma
spieren
nierstenen
steroid
##ged
stootkuur
##ycodon
laparoscopische
Pantozol
##acrolimus
177
Echogeleide
##N0
gevol
##uscellen
CS00003820
spontane
##omin
##AAR
zwart
Gebaseerd
CAMERA
##onge
##acine
##486
verhoornend
##leuring
opereren
commun
JWJ
ontlast
toonde
##consumptie
plassen
CS00003803
##ankelijke
gein
##enties
spondylod
infusen
frax
thiop
Angio
metoprolol
##ionele
Woont
cef
##amax
endo
##rombus
Hir
##fagen
vochtcollecties
4w
vermeld
##nemend
##olein
deviatie
bv
gon
##genoemde
##ampylobacter
Alcoholconsumptie
actie
Ferritine
belangrijk
stomp
Beide
extrahepatische
beiderz
Granul
anticonceptie
intracran
Perian
Nef
Sec
Vr
180
letsel
fibrinebes
Marjolein
famil
##isme
##derdaad
schimmel
Net
scint
granulomateuze
Sche
hogere
mantoux
##opram
dermatologie
verzamels
3d
JG
##aakbeen
myel
disease
Heden
##olaire
SAM
Ref
huidbiopt
epile
begeleiding
##iem
centimeters
vragenlijst
##heidshalve
passageklachten
Michels
verzonden
##orectaal
mening
##line
arg
erytheem
pT
##etie
##onef
ferriprieve
##oluzimab
##odium
level
arcoxia
thoracaal
anterior
CS000170
Adalimumab
kra
##iclo
ribben
##idden
asym
febr
Doet
leven
##LAN
##rust
##peratie
##minaal
Overname
gastros
##iazide
Samenvat
meg
##ibaar
##scopie
##tie
##trid
Hiernaast
tons
vas
##OT
##aner
##artan
deelname
bindweefsel
not
versu
135
Onc
hemangi
RE
Turk
dep
##traject
##napt
Ferinject
##generatief
slijmbijmenging
Oost
##transplantatie
mL
smal
conc
Fractuur
gespaard
Bijwerkingen
missleijk
versuft
##VE
mesenteriaal
voorschrift
Homogene
elek
voelde
Ziet
time
vervangen
SLE
steken
waarmee
uptake
Aanvraag
Faeces
ZH
Lichaam
dienst
##rink
von
##helft
zegt
passage
Nachtelijke
##var
##prek
##legging
exter
##lopende
afgebeeld
waterdunne
uitgerust
moed
zwellingen
hemorroÂïden
opnames
tussendoor
BCC
uitval
##probleem
bloedend
##ixatie
belasting
1w
bic
ingelicht
aankleurende
echorijk
uterusextirpatie
##iafragma
mesenterium
oef
ru
Int
mediaan
criter
##1852
Remissie
onderscheid
Frit
sens
##ietal
supervisie
Bloedbijmenging
##sfrequentie
dunnedarmlissen
succes
bovenarm
exacerbaties
oesofago
##umenten
secret
##5mg
invullen
gelist
##juvante
##ns
##kige
aanpassen
KMAC
fax
opgezette
##entum
Punctie
##oedeem
ontbreken
hern
##5556
implan
##oppingen
tympan
##ontstekingen
gezicht
spreek
##anercept
Weer
dunner
Beloop
Hep
nachtzweten
TonLaatst
cost
##icop
alb
alendron
second
##tex
praten
##ondyl
Schip
Fritsch
Hals
Py
zomer
collagen
Gister
Ger
vergeet
##ameus
##ii
00000104
##onefritis
hypok
beclometason
neiging
wacht
##istr
Anemie
PCH
immuunsup
bent
midazolam
##ïtis
##ekere
##standige
##enteritis
Micro
NAS
oplopend
##egment
verslaglegging
20000513
transf
opstarten
vlakke
gewrichtsspleetversmalling
##AC
##ondag
Prik
verstrek
discus
pe
##ance
##ragend
longziekte
##ysis
##ijze
papill
Fysi
##leven
interstit
angi
ileocaecaalresectie
ijz
##oracale
Even
Kaak
onwaarschijnlijk
specialisme
sporten
Berge
##therosclerose
slijmv
Continentie
##arth
##iefst
CS00003815
ventrikel
Sed
Gegevens
adenomateus
Leukocyten
seton
pseudo
##lavia
afgrensbaar
##lem
aios
##esthesie
cylindrische
fracturen
dezelfde
proctosigmoiditis
##1666
zwangerschaps
Dijk
can
##BG
CS000375
inflectra
lymfoid
wrs
Poliepectomie
carcin
##biopsie
##arine
##aterdag
##ophagitis
gemakkelijk
niveaus
##07
allen
##gevoeligheid
CS00012427
zout
MDLConclusie
IPAA
mol
wens
veroor
##509
matglas
stero
##regio
brijige
pericardvocht
sacrum
soort
##beleid
##ankt
##erkamp
##but
423
##ijt
atypisch
sinusitis
ingepland
begrensde
##arkeerde
##lang
##hechting
##beperking
Allergieen
Sep
##fotos
zichtbare
##Verwezen
anterie
##tridrink
Pleur
lum
##egd
geconst
kalkgehalte
NO
##male
##roken
##icoprep
tof
Thusen
kraakbeen
##208
##uy
##ureus
##anningen
magnesium
##ynke
evenals
superius
sociale
gevolge
Scheffer
lid
##pre
##urale
##tage
##egouwen
Nederland
polype
tekening
criteria
##0mg
##quis
##uncus
segmenten
##eeeeeeee
##menteerde
moeizame
Henegouwen
episode
##uoden
##4259
Venneman
bewegings
170
Echt
routine
labuitslagen
##ofagitis
##ytopenie
Therapietrouw
##rubine
haak
##ome
oph
##ript
##yneu
aanvragen
cholecystitis
##eruis
steun
heupprothese
angio
##1482
Bezinking
like
verlittekening
Waren
##TA
##iger
##ions
##agulatie
Albumine
##umatisch
macrofagen
rol
sem
hierover
Vergelijk
spoortje
achteruitgang
plast
PAP
berust
Dis
omhoog
3mg
vnl
##oh
##verk
colla
diafragmata
Korte
1982
squameus
einde
bovenbuiks
FV
LGD
cf
e9
eiwit
##INGEN
BMI
##veerd
##isol
dorsale
bodem
keelpijn
misschien
Sept
slechter
persoon
107
##aveg
veroorz
zijd
##eke
opgezet
revalidatie
114
admin
stadium
##flu
Afhankelijk
MCP2
abdominalis
geïmp
##quisitie
Aangenomen
lamellen
73m
##someprazol
Keller
activ
ken
##onale
##ekte
##uran
nefr
H180AL
Schipper
Cel
gehoord
##looid
heen
##balans
incisie
eenlagig
116
##assing
##etermin
000001003
##bt
##zit
##etrouwd
slijmbekercel
##rated
Hirdes
##raken
voorblad
parastom
plooi
klysmata
##leren
gerangschikte
##pie
##ilt
Gra
wachten
##mmol
##wandige
Wegens
Budenofalk
achilles
twijf
##holpen
##arkeerd
CS0005249
Intake
plat
Uite
onrust
verzamelsysteem
Nynke
Eerst
1000mg
2000051308
SM
Aanp
weerstand
werking
cirrose
bedankt
geneeskunde
Mu
##VA
##ositas
intersfincter
##chn
metapl
nabl
bewust
##stherapie
gastroscoop
vloeibaar
##ventr
150mg
##IR
Ziekenhuis
##sels
##ocaine
geïmporte
Do
Uterus
buizen
##oppen
heter
##ectief
Spiegels
Nieuw
VOD
RVP
##ash
ano
##adiging
emot
LAD
Beclometason
Cr
Maakt
salazopyrine
verminderen
Toevoegen
2000036705
dent
##urox
##UW
stoel
##ister
marge
gediagnost
tand
##M0
GT
vervolgconsultVC
##jectief
septische
Ochtend
##ody
##frequentie
rectosigmo
hoogteverlies
CS00038353
Vaccinaties
Astma
hyperker
tendinitis
occlusie
##lit
##lauwe
voorlichting
##lekkage
3w
##bru
inderdaad
##oef
artrodese
fibrotische
##strument
argumenten
##pepsie
CABG
verslecht
biop
##kloppingen
##aagde
menstruatie
gebe
erna
trap
##mitter
KB
reuscellen
gezet
obstru
Code
O723
truncus
spondylart
Ap
##so
hydrocortison
voorbereid
bemerkt
Ker
dyspneu
A640
##erdraad
##plas
Infiltraat
ademhaling
cortic
Terugtrekkend
##uroxim
meting
helaas
luchtweginfectie
##copan
Acute
##eps
CTS
verklar
jaarlijks
Merkt
Vader
##bectomie
brengen
event
mechan
acquisitie
neutro
candida
##ser
##therapie
##wezige
psycholoog
Kuij
##erknie
Bro
##osoc
##anth
Misselijkheid
##intens
##arp
Uitgelegd
##iveau
##ikkels
##yneuropathie
##opie
Inmiddels
##iering
##thes
Anamnestisch
Note
##tingen
##00mg
20cm
visus
Lu
##yrax
##orb
rechtszijdige
##oename
lumbaal
##piratie
extirpatie
carp
liefst
##olol
overeen
##ypass
herpes
serrated
postoperatief
Subtotale
vernauwd
bloederig
C7
Rand
hobbel
##oonnummer
wervelcorpora
E3
##sima
##aract
herhaling
trombopenie
##iance
##oesofagitis
onverw
Ileocoecaalresectie
2L
zekere
inh
##uscopan
amox
##IUM
##lax
##emor
kleding
##waard
krampende
Gewrichtsklachten
VS
##raan
##illen
Pneumonie
betro
##inter
1981
##Vervolg
vlotte
circumsc
NeeProthese
Bet
ontstekingen
derde
mucos
Groot
granulerende
begint
##rip
##enend
besl
##mail
##anderingen
Kuijpers
##hoofd
Aldaar
##strekt
cellulitis
echtgenote
levend
Vermoeidheid
cont
##uleren
##ocatie
##ieke
##apid
gastroenteritis
geacc
##senhuis
Kort
ontstekingsbeeld
##coumar
longbeeld
6mnd
HDL
cholecystolithiasis
overgrijpen
waarden
wilde
##LEGG
Nikkels
##rete
dichte
Snijvlak
MET
bewezen
##ecrose
##hoogde
haarden
serum
##brok
##inzak
00000102
paraker
restafwijkingen
Resp
XI
Gehele
##emo
##uidelijke
darmbiopten
Metformine
Volgens
Beclomethason
Sj
##loort
verte
##asaal
darmlijden
gegroe
FVLEGG
HBV
Laag
##rijf
##aliemie
TekstraLaatst
##ovir
##fferentie
Oncologische
anat
scoliose
naevus
Uiteindelijk
##edel
##eleverd
##pletie
##veranderde
##ayna
Radiofarmacon
##facten
##athologie
All
Sport
##makoep
Pseu
##rinologie
Samenvattingen
Nad
ves
##iseerd
pseudom
HLA
hayat
psoas
##arbonaat
##present
breiig
##uigen
##kens
nauwe
heupgewrichten
Aza
Bakker
Dub
Oss
gamma
##gra
##aca
##acolon
##aynaud
##UG
uiter
meegescande
brijg
FK
Cholecystectomie
sarcoidose
nabloeding
Dosering
Gro
Alvast
waarom
##injectie
diam
##cintig
Hernia
9mg
B1
glan
##03
Pm
##itair
##iditeit
ileorectale
##uceerde
##roscan
dilat
bijhouden
gewr
##grenz
response
2000043541
les
##chi
##opend
##pti
##ofytvorming
##port
##zie
Pancreas
Rectumbiopten
Samen
sectio
MAYO
adenomen
disc
LE
oproep
##oses
##teren
segmentele
tbc
Scho
nergens
inwendige
grill
Turkije
Geholpen
voerdraad
##achts
cryptabcesjes
300mg
reiken
geconstateerd
Gies
Rug
leverbiopt
therapier
Ij
zondag
##pm
gekeken
Kon
akt
zullen
##JK
innemen
onderbenen
lymfocytaire
Regel
##sluitend
reis
tenos
sachet
tympanie
NETH
##recept
Verpl
Excisie
gevoeld
RCH
##ENEN
Extre
Overigens
138
Fecaal
SA
##iene
##ERLAN
herhaal
distensie
opstaan
trachea
NETHERLAN
NETHERLANDS
bypass
stukjes
##oos
##absor
overlegd
apicaal
bero
meniscus
abcedering
##etail
Chew
eruit
##ness
hetgeen
aanmerking
##agie
plak
##ibratie
JaZwelling
Aut
speelt
leverproef
##verz
##kers
respir
gerangschikt
##rostase
Echtgen
KEC
##708
Gold
##elte
vold
adhes
hilaire
homogeen
galweg
patiÂënte
weefselfragmenten
6w
##nod
##brug
##RS
Ins
Verhoogde
fibromyalgie
##ptiometrie
##absorptiometrie
##eerbaar
##ock
komende
XII
##regel
poliklinische
linea
bevalling
##OK
##rokk
##inkjes
ontstekingsparameters
voelen
zwaar
##brief
densiteit
##TI
##anim
bovenbenen
ontwikk
proctocolectomie
bijge
##acu
gebiopteerd
subscore
Voeten
kinderwens
##JP
spir
nam
ventrale
aangegeven
##patal
Toediening
troch
##TNF
Inclusie
suikerziekte
Kinder
Zuur
##preekuur
calc
##ifoc
00000101
##rhee
Endoscopisch
olig
versmalling
##tense
PA5
##AAN
helpen
fixatie
##idon
##oker
Zowel
bevestigd
##ack
dubbele
hoek
waarde
##125
crohnse
##asieten
LDH
exp
##iclovir
##oz
##irect
wondjes
##loxacine
Arth
stenotische
##ssituatie
Startdatum
hartkloppingen
spierziekte
biologicals
SPECT
##BP
afgek
voorvo
prolaps
##500mg
glen
wc
##IT
destructie
139
Uitgebluste
efden
chirurgische
fissura
zuurstof
Endocerv
projecterend
Vasc
##skenmerken
dysurie
##gegaan
gevoelige
epitheliaal
Vink
##werp
##Speci
MDLVoorgeschiedenis
##LOW
Tc
434
Giessen
Pulmon
fen
hb
##team
##peran
adh
markering
absolu
zaterdag
geass
##edie
##metastase
stukje
nachtelijke
virus
1979
##ipositas
herhaald
furosemide
stenoserende
Reumafactor
Obstipatie
##tificeerd
##40mg
meeste
ferinject
##igt
afd
##pecteerd
daarmee
lissen
Lichtreflexen
elast
aggregaat
##behandelaar
##pstra
##calcif
fecale
Terpstra
##emazepam
lekkage
##noer
administr
gebleven
historie
vaginale
##raa
##fic
opleiding
##asen
dundarm
Ascendens
##RAF
Leverenzym
aanvoerende
waaronder
klaar
volstrekt
##MERK
toevalsbe
ADA
tractus
##orging
##aagt
partiële
##lassific
axiale
vervroeg
verhevenheid
##steu
wellicht
Uitslagen
Endoscopieverslag
Galblaas
kleinere
OPMERK
IgA
##Specialisme
MH
##tx
##bil
##wervel
##mgeruis
bovenstaande
EZ
cava
##essels
degeneratie
##iks
Lac
Wo
A2L1
meteen
Overweeg
##isseld
begeleidt
##otrim
onverwachte
2m
opger
rechterzijde
##472
degene
perit
fistelvorming
etanercept
Bloedverlies
##olerant
##orotatie
##ierend
SpO2
echte
cytoplasma
Redelijk
archite
operatieve
bran
##ipe
108
polyneuropathie
CLO
##edelen
amit
ijzergebreksanemie
Aanpassen
Aarts
nit
##ocie
alvast
##loopt
##iverend
stellen
Chirurgie
ademgeruis
##elitis
Verw
##waarde
##leverkwab
moeders
lytische
##odig
##enmal
Belang
##ositieve
##cturele
wijd
Alg
zelfs
heelkunde
frontaal
Bult
C1
verstand
##poni
Marel
NIEUW
typisch
vervolgconsultGaat
adviezen
epilepsie
##itiden
##component
FOLLOW
bal
uveitis
##kamer
##467
##ureerd
breuk
Tocilizumab
lob
##LS
##esed
##afw
draa
patch
##ETA
Hepatitis
veroorzaakt
Wit
30cm
##963
##ediend
Dermat
Heijen
Drukpijn
##eterminate
dentata
Heijenbrok
Eenmal
##lam
stre
urge
Voicemail
4e
rontgen
##lumb
##LL
##valueren
H190L
mutatie
##pop
##iew
bowel
diepere
pub
##arditis
##oxy
##straat
Zwangerschap
##rik
ante
175
CRE
435
Antwoord
TK
trouw
1xdd
gedeform
Switch
mog
##EH
aanduid
##ML
bijmen
##derepitheel
dysplas
beginnen
zeggen
DO
Operatie
ring
doorlopen
traumatische
NH
ongewijzigde
oesophagitis
Peri
MgO
Gene
Toed
pop
##ement
passende
linkerboven
darmlis
kerat
herniatie
zoster
ontlastingspatroon
Naproxen
DBU
voldoet
US
doorver
parasieten
show
##ientijd
halverwege
Toedientijd
vanmorgen
moest
Verwijzing
##onessenhuis
haakvorming
betrouw
Lam
aortaal
##lok
##aanvallen
##203
parastomale
##correctie
partiele
Zijta
Lacle
CI
##PA
perc
sparing
Pijnklachten
volume
##ffectiviteit
medicator
##778
##ARE
##atase
##elleboog
Passag
vijf
##YC
vergeten
maxil
Voorafgaand
##gastritis
##oqu
Kalibratie
gedifferentie
skin
coxartrose
Kalibratietijd
Creatinine
Opmerkingen
skeletabsorptiometrie
kuit
lap
##itinib
persen
##597
corticale
toegediend
618
blauwe
##gde
##BO
verhogen
abl
Defaecatie
urineblaas
VenhuizenLaatst
slag
foci
ongecompliceerd
##inding
superior
##rogen
begrenz
defici
ingeleverd
pancreaticus
Longen
OPMERKINGEN
239
##bul
##TAAN
##elsnoer
Voorstel
bijmengen
PS
##weer
##olyse
##andib
##oeken
##odi
verdraagt
##actoren
oedemen
simvastatine
Pleura
merkt
stenotisch
##fragmenten
CS00012428
major
levendige
cur
gas
voren
beetjes
regist
diafragmakoep
LWI
SU
pulm
##mas
oxycodon
Tweede
Reumato
Picoprep
RBV
uitwendige
CS00003810
##kelde
Schrij
HAND
##atriemie
T20
Werk
##ekweek
PatiÂënt
TPV
wie
prior
luchthoudendheid
palpitaties
##iculitis
endometri
8x
CN
##iemie
omgev
vervaard
orthopedisch
vaders
Dyspnoe
geassocie
Neur
##sier
##orapid
Aanvankelijk
distorsie
##130
dalend
##zakelijk
##adranten
villeus
##hip
verschijnselen
linkerzijde
palli
parakeratose
##orn
Diffuse
##belasting
Wassen
##omed
gisteravond
granuloomvorming
Atyp
verwijd
DM2
administratief
2wk
750
##cob
Metoprolol
mevr
scleroserende
##protocol
Ondanks
ACR
kamer
vaatlijden
vlokatrofie
herkend
Tussen
deur
decimaal
atriumfibrilleren
IJ
fove
um
Descendens
##urese
loze
tibia
##vertebrale
Leg
##amycine
##illair
Cardi
Lichaams
pigment
##CS
hulplijn
CS00003841
posttra
##MS
##att
##onella
afkomstig
##igest
Beperking
40cm
##roegen
2000066036
gedeelte
Cervix
grotere
1x1
S2
Cons
##bloed
gehalveerd
stri
neutrofielen
pulmonaal
diarrhee
##wwwwwwwwwwwwwwww
Q160AL
AT
##ieven
tensie
##omyelitis
significant
##LIJK
ineffectiviteit
prioriteit
Bed
##inemie
Beh
consulent
aortaklep
hemorrag
Ou
RIV
mammogram
actueel
aanduiding
Hist
Pot
intro
Opvla
hoogst
hyperchromat
hemangioom
##clox
wrsch
##icca
Chirurg
orthopeed
gezondheid
adhesiol
Rituximab
##syndroom
Reumatologie
codeine
DNA
JTH
zelden
fistelgang
verde
vervel
hemorrh
medicamenteuze
JAAR
##Âën
##astische
##ular
##703
bovenpool
##edeeld
gemetastaseerde
collagene
classific
exo
verbred
##roduoden
slap
##gekomen
leeg
DR
voorvoet
##constructie
informeren
fosfatase
Duiven
bpm
migraine
##fracturen
##inopathie
Order
zwangerschapswens
geob
feit
##duceren
Cy
##eksel
CS00003840
Diameter
##SEH
Pu
##06
1200
poliepeus
overgeven
alat
uitz
##cescopie
TUR
kil
snachts
##oontje
decompensatio
Un
MDLReden
novo
megacolon
glu
tacrolimus
Verdere
##rtic
buikoverzicht
grens
Hiermee
HCT
arterie
gedifferentieerd
pantoprazol
##vader
vasculaire
vertak
RIVM
Ra
##ico
##wegingen
dossier
Helder
pyoderma
dysplasia
Lapa
longfunctie
Pleuravocht
6dd
SO
UK
##usus
iliaca
research
achillespees
5cm
Bi
leg
424
echogeleide
##redit
##niveau
meten
##irad
nodulair
##ylase
ossaal
Opnamen
lymff
Verb
urologie
hypodens
organen
##569
141
##iform
behouden
Ciproxin
origine
colecalciferol
Psych
vervroegen
tuberculose
##vas
##olus
##398
##duceert
drank
##ormicum
uitstral
##mdl
INTmdl
Vann
##omosynthese
hierop
500MG
dexamethason
Internist
Vindt
##ector
432
chemo
Memo
glazen
rot
nagaan
Wee
spaar
75mg
Parel
Cholecyst
pitting
##orp
maagpijn
haem
middenkwab
slikken
Regelmatig
ori
##fal
##ekken
bijzijn
##LIJKSE
##pokken
bloedingen
##zergebrek
##pressiva
Hobbel
temperatuur
##ary
steel
Henneman
operatief
Dexa
JAARLIJKSE
##pathologie
ONDERBUIK
##10mg
amylo
##7778
hemorroïden
Arbeid
Nadien
Kate
##ateerde
##cten
##iere
Drinkt
##utgens
Afgesproken
verkort
Vanwege
HCC
b5
pomp
poging
##ye
afger
##acitinib
pancytopenie
abcesjes
Sterk
Noteboom
##animatie
Zal
##zij
##slaan
##lavicula
oxy
rechteronderkwab
fysiologisch
zodat
dur
##iaf
##urveillancescopie
meegeven
drukp
##adenoom
refractair
manifestaties
Vannacht
las
##ët
ouders
##psis
Standaard
Random
##kade
##efet
Fysiologische
Ng
##UDE
daarvan
diffusie
Schrijver
##elithiasis
##stij
ondergaan
Toegenomen
Teken
lich
inbrengen
##mmingen
interna
transamin
facetartrose
hobbelig
ziekten
Vanochtend
##09
##ospor
##ripte
Vijf
atherosclerose
afm
subf
abcesje
AN
Nergens
inferior
Lage
bult
kuiten
##cline
##389
cav
Ileitis
snelle
##avegil
lymffoll
cla
katheter
mbt
##rr
##renz
##beek
##kernige
oligo
TKP
medio
poliepeuze
Mi
daalt
##parameters
articulaire
##ATIE
Dd
drupp
##gol
##aria
##apen
eosinofilie
Bewegingsbeperking
wervelinzak
##servatie
##rasm
10x
onderhoudstherapie
Cervicale
absoluut
DSEH
WC
##ivus
accep
ademhalen
4m
afvloed
##5597
Januari
##iscitis
BOL
Gaar
alf
##forme
##200mg
Ileocolonoscopie
bezigheden
Av
cat
##neden
##cent
##edateren
bloedkweken
lux
endocarditis
##huid
109
rechterheup
Labuitslagen
epid
##OED
NIER
##inurie
##sprong
enteroc
##rasmus
Raynaud
##roos
##arly
##gebracht
CS00000008
costa
Wassenaar
MJF
Yzer
dient
##sectie
asacol
##20mg
##aliseren
dyspepsie
##orius
aanvulling
diverticulosis
longembolieën
breedte
bisfosf
##ines
intrapulmon
verwijzen
melk
circumscripte
Oud
Rut
##opau
##amet
desc
##lebitis
Markering
fietsen
E2
##vraag
##ence
ondersteu
##ipel
##ractaire
00000105
hypon
##komst
holte
Hr
erad
##479
mndCreatie
hypof
##sveranderingen
Coerkamp
Lutgens
##plex
##ZU
gebracht
##ateau
thuiszorg
bronchus
InterneGeregistreerd
gevormde
zonodig
##embraan
dilataties
##olisch
##romycine
##haven
harta
A3
Dilatatie
Giardia
ZN
won
uitge
##andidaat
Depressie
##gesneden
##verdunn
Vermoed
effectief
MO
##sonderzoek
##ariele
##schouder
verwijzer
kapsel
EZIS
Opvlamming
BOLDEN
Loperamide
##vers
polym
patella
premedicatie
##oemd
tachycardie
Dosis
Fem
Maand
##ogren
polikliniekbezoek
Arbeidssituatie
##yg
##etale
afgez
##sequ
##maken
ext
Tev
PMR
Telefoonnummer
##poliep
##Soort
##chond
Acc
catheter
omliggende
extensie
Proximaal
Ochtendstijfheid
inhoud
Bevinding
geplooid
vloeistof
1L
2mm
##bed
waaruit
MTP1
functioneel
talrijke
##almonella
mediaanlijn
##annen
##2010
samengevallen
##ediast
##anod
131
recepten
vedoluzimab
squam
Simvastatine
T19
slijmvliesbiopt
AWARE
adnexen
##rochloort
##oco
anesthesie
therapeutische
hoeft
refluxoesofagitis
belangrijkste
Dochter
##boog
Metronidazol
corticoster
gekl
voorbij
##ALC
bevinding
Intoxicatie
uitstraling
2d2
Extremiteiten
##igestivus
##hem
202
##rukt
##iratie
##139
glanzend
ureum
overweging
Prob
##eltje
PCF
##oquine
verbreding
##orr
gespoten
##orectaalcarcinoom
##tumor
##falen
##aala
##iair
137
postoperatieve
##vloe
Immuun
Ep
##long
##ook
pijnteam
wegen
##ebr
##528
##189
handhaven
ileoanale
pacemaker
stelara
145
##pple
mogelijkheid
##05
##ipt
scherpe
Beper
2xdd
Psy
Jong
N1
OUDE
1977
adjuvante
antrumgastritis
darmwandverdikkingen
proteine
wet
invasie
lactose
Boontje
OD
welk
##cysten
plots
psoriatica
evalueren
verru
aanhoudend
##mob
werkdiagnose
stuks
stijl
definitieve
Sh
20035597
Spoortje
0000000444
Artrose
ervaart
##tabletten
cefuroxim
2003559766
##mamma
levermetastasen
verkal
##ritme
Steatosis
vervaardigd
HV
##hiazide
##IA
##opetale
Parelsnoer
##oooooooo
Hulplijn
stomaproductie
verslechtering
hilus
langger
compliance
Diakonessenhuis
Contactpersoon
Actief
Jaar
##omper
##loos
oogd
denken
aantasten
Pyl
niks
##egrepen
uitvoeren
Aanleiding
rectal
##ovectomie
MSR
##ipelas
luid
specif
Verhoogd
radius
hematoloog
##zocht
##4268
trig
Coron
##weeglijk
Opvallend
fibrinebeslag
1978
Uitstrijk
carotis
slijmbekerepitheel
##hesis
##ecia
##104
OnnaLaatst
##loroquine
image
##250
##poliepen
labcontrole
##ovid
snur
wekedelen
gynaecologie
achtige
##kyl
opdracht
toestand
Maligniteit
Meest
##trom
vezels
methyl
OH
ROB
##ler
##ulose
##vex
##ellow
niersteen
Anders
Mild
orthopedie
Menstruatie
Magnesium
##los
##ialis
##chicine
##iltre
Inflamm
##oclyse
ruptuur
CAPS
Anticonceptie
AO
alg
axillaire
hevig
coprostase
1mg
##kr
eenheden
1975
aangrenz
##testafwijkingen
Evt
##itaire
trombo
loss
Psori
7x
##obb
##odense
Actueel
PSA
seb
##mann
##kn
##ko
onz
##aankleuring
schedel
aangele
##958
immuno
discrete
##aalart
##B3
##alic
##isthesis
waaraan
ileumresectie
##udo
amlodipine
verzorging
Moeheid
kristal
verlitt
faxen
peritonitis
pector
##140
##stans
##ogeb
diuret
bilirubine
puls
Trauma
Bil
##matische
immuunhistoch
Augustus
##orro
alendroninezuur
Lip
##raling
##akte
histologische
intermitter
Eryth
gedeelt
eradicatie
##LD
##esistente
darmresectie
##oriz
gebeur
##IEF
##stein
##685
anderszins
##iveerd
actin
##rempel
twijfel
pubis
baan
bloedinkjes
grootvader
clind
helderrood
delier
tenosynovitis
C3
Max
##instructie
onvol
##ager
##ffff
##aliseerde
##fragmenteerde
Immun
Orth
apr
rhe
##izen
##ïne
##anter
##inga
##ulieren
bovengrens
cardiaal
ikv
Distaal
palliatieve
pra
##namnes
CS00037
voice
Colecalciferol
alsof
verbinding
inspect
passagere
##ogebieden
##ysipelas
Colorectaalcarcinoom
##osities
Perf
pulmonalis
troeb
5L
Ging
aureus
cotrim
##jr
##tenen
stekende
Arcoxia
concentr
Beth
##ijne
400mg
collaps
jun
urtic
toel
stopte
wondje
Minderhoud
plaveiselcelcarcinoom
##Vervolganamnese
Sinus
innemend
##gehaald
##wandverdikking
Ileus
posterie
##gelegen
##ovirus
voorkomen
DAL
supras
PeetersLaatst
##opecia
Procedure
425
osteomyelitis
CS00003809
liesbreuk
##vasculair
omgezet
drietal
acet
Wandverdikking
##otterd
Wond
coe
opgelopen
##bestaande
Zeker
opgez
Thoracale
deform
opvlammingen
dunnere
2000064268
Second
##esediment
##rectomie
142
##area
trip
Risicogebieden
Campylobacter
dek
##ED
knieën
Eventu
lymfoplasmocellulair
Mtx
##bi
##bergen
heldere
ventrikels
bursa
Ogen
waterig
lipoom
Röntgenfotos
inspecteren
horiz
##steek
##ecteerde
##ularisatie
menstr
##figuur
##rochloorthiazide
##240
##scan
stol
Medi
zeur
BIj
effort
vervelend
wang
##ijp
opgek
doorgebeld
CS000259
##yline
punct
onsch
##sluiten
Symmetrisch
dormicum
##1c
##onas
##issen
##beoordeling
##houdens
hoewel
microcytaire
pyrosis
Postma
Tinga
##ME
##urn
voorwaarden
hyperth
1d1
geleidelijk
Eenmalig
##verdunners
##omediast
Bethes
digestivus
groe
A2L3B1
##roduodenoscopie
gesu
##ofemor
gestoorde
hyperemie
Hobbelink
Bethesda
##hi
20MG
Dun
zes
##olact
##verlen
##ick
##ocriet
bekkenbodem
##ÿcÿcÿcÿc
Maandag
Hatt
KLE
grad
##cet
126
1796
Buikoverzicht
mono
bacteriele
liet
gewenst
CAG
flat
Medicati
Longembolie
tonsillectomie
implantatie
spaarzame
##ZUUR
Water
##ULE
##igr
##alisaties
grijze
neurologische
Ileumbiopten
A1L3
2de
Diafragma
PJP
##TD
onderliggend
gevrom
kleiner
##renosum
multifoc
Stabiele
email
zacht
axiaal
##roxych
Erasmus
ped
##547
subopt
naadlekkage
##iocarcinoom
BP
JH
ent
##arme
pleurale
##stern
##besch
Actuele
LVEF
Leguit
##igo
NeeBewegingsbeperking
vaster
Aand
T4
##elijkse
##indopril
kol
np
##lion
##vant
ulceratief
##222
Wisselend
NASH
hyperkeratose
b0
##elan
##denitis
Geadviseerd
stam
##ptomatische
GEEN
##ovaal
##urettage
leverproefstoornissen
KLEINE
None
ta
tak
##009
gesl
##usters
verkl
##rotec
Anti
zakje
betrouwbaar
getrouwd
##culair
##isel
##laesie
##ilatie
##vinger
longparenchym
enteroclyse
noodzakelijk
Anamnes
grootmoeder
ribfracturen
transvers
uren
referentie
papier
erythemateuze
verklaren
snurkt
regelgeving
Hattum
Man
fasc
##pine
##schoen
##gemaakt
fluclox
hypothyreoidie
Soep
XP
duurt
##studie
##tag
##genitale
##ndiceerd
Visite
verergering
Tel
##2B1
nutridrink
Stap
Hydrocortison
mercaptopurine
overbrug
bovengenoemde
warme
vervetting
hulpmiddelen
semi
##rempelig
Famil
##hang
##spray
Oppervlak
benige
Hematocriet
thrombose
gegroepe
KN
ratio
overslaan
##coagulatie
extens
adipositas
ebmie
ijzers
Graves
Berg
Cyt
HS
136
##ordel
##Totaal
responder
##iafspraak
HERS
##herapie
##ompe
bevallen
##volle
Secretariele
YilmazLaatst
cataract
opsp
##ulcer
colitisbeeld
132
134
pezen
##intensiteit
allo
kalchten
HRCT
Persisterend
##orrho
Diverticulose
galsteenlijden
Injectie
doorlopend
maagslijmvlies
##ooij
tubul
##preparaat
EUS
Fam
kandidaat
##kende
consequ
Deels
##iae
placenta
##fragment
ruime
dg
natrium
tm
##igingen
DAS28
IgM
##situatie
##ohn
##floxacine
##leurd
tabel
groeiend
afwezigheid
Progressieve
capsule
##proces
##IDDE
Schildklier
laaglumb
basal
##Beleid
grie
##insufficientie
Algehele
Aorta
The
Behoudens
luider
Jans
rele
##wond
##enoco
##oping
aspiratie
nefropathie
elev
##aringen
##alum
coloscoop
db
##yf
##romo
ligam
##roxychloroquine
##ateuze
##oepen
alv
117
##orth
##815
zouden
##lagyl
buitenzijde
VOET
Hoge
##508
spanning
activiteitsver
VOOR
retroperitoneale
zol
##eringen
10MG
grond
bedrijf
inzakkingen
CS00052468
##actieve
119
##IDE
bovenkwadrant
maagzuur
brander
##hipple
Celebrex
##yr
##oseerd
1500
kanker
##udge
##isseling
efdoscopie
Vries
immuunsuppressie
endometriose
HERSENEN
##ypes
##bode
mobiel
leuc
##Âïdentificeerd
Har
Oed
centrum
tnf
##membraan
##kant
geÂïdentificeerd
##tour
CAPSULE
##pele
##gelaten
Ulcus
cutane
ingesteld
braakt
symptomen
##scheiding
krap
##verkalkingen
SCA
Verh
##odg
0000000170
Allerg
trochanter
Femur
ene
##lau
##schildklier
##ofer
fiets
##DC
##itaal
##verdeling
reconstructie
123
verlopen
Rectumstomp
diagnostische
hypotensie
pakken
kraakbeenverlies
tbl
##ijranden
##itor
bloedverdunners
PATIEN
zichzelf
afgeplat
##umarol
incontinent
diafragmakoepels
##igende
arte
optim
varierend
##ringse
Endocrinologie
neuss
Mede
dikte
maxillaris
hyperchromatische
rij
##ULA
##560
422
anterieure
T37
##vm
##403
sternoc
tekort
##38889
HT
Kreat
jl
puss
##ings
##ascan
genezen
nabij
Diclofenac
##110
convent
##mmHg
Rondom
activiteitsverdeling
oldenburg
##centrum
##DR
thala
patientgegevens
##quor
cortex
observatie
Telefonisch
##calcificaties
N2
Sessie
cardiomediast
uitstralend
##enocoumarol
MG
##zijn
##N1
##rijven
##afname
##meding
Leeuwen
wassen
##rak
RADI
Ede
cwk
duur
##ZOL
##blauw
##erige
##ositis
brede
prec
doorsnijding
leukocyten
tars
##abiopten
##iën
vervolgconsultR
ijzerinfuus
Hyperch
trim
Klysma
Goldsch
azath
##111
hartgrootte
spreekuren
##ypeslijmvlies
Goldschmeding
##naald
Bronch
peritoneale
##cintigra
grillige
medicijn
JF
doxy
##intest
beige
zakt
sil
tno
##juncti
metatars
overzien
lobectomie
beginnend
##album
##333
kruin
5kg
pink
##UST
##ena
diët
##controles
lymfocytair
aandachtspunten
pakket
aardig
Zuurstof
D2
Urin
##cen
huidexcisie
MCP1
eosinofielen
##ovaginale
Kla
T36
Gem
produceert
gedrain
gelaten
##ligging
insufficientie
blokker
rechterbovenkwab
verdeeld
fellow
##uil
##nes
##vende
step
hypodense
CAVE
##ijer
##hecht
spelen
Propofol
helft
##odgkin
B27
Sc
extr
##achtig
param
##iveren
biceps
##ziekenhuis
Psoriasis
4mm
Laar
klin
##catie
##foort
verpleeg
##osaal
Partner
DALM
Kr
##04
##iefd
nex
aangekleed
centimeter
September
Custers
Hele
##wissel
hemi
cholesterol
mictieklachten
pyelonefritis
NIBP
scintigr
Em
wgs
##VL
ileïtis
Subc
spondylodiscitis
##chondrale
GFR
##her
gecom
gecompliceerde
voorhoofd
##388
##bevinden
000001037
Colonslijmvlies
##outs
ortho
metabole
fosfaat
Reflux
gevromd
Staat
ann
uln
##ctive
Specialistische
gescand
Darmvoorbereiding
cholangiocarcinoom
##erapeutisch
chroniciteitskenmerken
##varices
troebel
700
Wessels
tangen
##ieuze
##1000mg
fysiotherapie
LI
SC
SN
Colo
medicatiegebruik
posterior
##oxazol
graads
sclerotische
##necrose
##aalde
gonartrose
##pleur
##715
##osus
represent
##ranken
##obasaal
bestraling
##schappen
suprac
Verdraagt
Sedatie
##animatiebeleid
ventrikelsysteem
BUIK
##iff
Prostaat
subac
mevrouw
##letsel
ochtendstijfheid
saturatie
supraspin
Non
##alia
000001002
##cycline
##veranderingen
beschad
##prikken
Comb
##ieken
##ulum
begrij
gesloten
Paris
prostaatcarcinoom
gangrenosum
nexium
Effect
dm
##AD
PIP3
diepst
Screenend
gedeeltelijk
gegroepeerde
veld
##stoename
vervoer
beweeglijk
brand
verwijding
neuropathie
##umbiopt
Gluc
liscoagulatie
instab
hypercholesterolemie
hr
icter
##staan
preren
onzeker
cas
ronde
##uriname
minderen
Belangrijke
##NT
##order
##stoel
Buikklachten
stentplaatsing
Tekenen
Frag
falen
oct
128
school
lymfomen
##523
40MG
##weegt
intrapulmonale
Stapper
##citis
##zine
const
##ulatuur
118
##953
##gestelde
benauwdheid
Korn
T14
hooggradige
hiertussen
Onveranderde
##gewijs
Granulomen
5mm
T18
item
##voud
##ekn
aanwezige
anast
plaque
##plek
##operaties
buitenland
Langdur
elektrol
neussonde
NL
dacht
##errine
##oradi
168
vertelt
CMC1
bijgemengd
##plastiek
##Effect
##schad
24u
##ultiple
ischemische
##vasculaire
##perforatie
druppel
Haar
tunn
vru
##iez
##ramal
##rosens
##reatitis
November
communis
##aalarts
Dat
##vend
##IGE
1976
##466
##cytair
halve
0006
irregulair
Romb
##uppletie
stase
ontlastingsfrequentie
##ersfoort
Spoor
parenchymateuze
##iltreerd
8w
Geh
chond
weefselstukjes
Rombouts
TE
aTNF
##150
##Hoofd
##starten
##rib
stenop
Weet
follikel
NOO
Brosens
PDS
##tak
knieprothese
##ooik
Slikt
minuut
SRO
Vos
##initis
##rest
##ical
bijv
abort
dingen
1974
##108
##oblet
Eerdere
inspiratie
##opramide
tofacitinib
Verbeter
Ivm
MNE
tam
##idu
##geluk
##gemeld
##oudheid
signaalintensiteit
diuretica
##46296
##168
Creat
LB
Sol
VER
##stest
complete
##reekt
Woerden
elect
vuist
Reanimatiebeleid
sublux
Dieet
afgezien
veranderde
Minimaal
neer
##werken
##LEX
##inkende
133
patientniveau
synovectomie
prominent
getekend
Staan
initieel
##ouglas
##ichamen
##2012
polibezoek
Hierop
Ferrofumaraat
femoralis
goblet
prot
radiofarmacon
bronchiale
geïnf
##ident
colchicine
ankyl
uitgaande
50cm
synoviale
##ommige
oogdruppels
Hagen
##bol
geprik
schil
e8
Symmetrische
AmelsfortLaatst
Gr
rit
techn
slijmvliesdefecten
sludge
anastomosegebied
##bris
plekjes
crepit
##nemende
uiteinde
sociaal
##uteur
oxycontin
subfebr
1m
Vaak
VCE
Wederom
fam
##oeisel
1079
blind
##spre
ontstekingscomponent
Sjogren
langgerekte
##Hoofdklacht
##236
vanavond
##gein
uitgang
##structuren
Linkerheup
Augmentin
Begin
Lichaamsoppervlak
##vloeistof
Lact
NE
Peters
Tramadol
add
ka
##inium
Gev
streef
media
epithe
nagel
renaal
Hoeveelheid
ib
##eningen
sigmoidresectie
vaatjes
basaalmembraan
Snel
Psycho
Hologic
mogelijkheden
indeterminate
arteriële
##jectiefractie
SCAD
Buscopan
Mult
##uu
##esse
##ulentie
meed
##ooikoorts
Can
ko
kijkt
##dikte
Enterografie
MWMD
inguinaal
##uyen
adhesiolyse
ct
##yd
instrument
##laging
##verst
##ellofemor
Div
##enstroom
trekt
##plooi
Nguyen
b0C
Erosie
d3
##ijts
leverlaesies
linkervoet
##590
##oclopramide
Macro
##ralis
##sr
##drain
Hg
PO
maat
##229
recidiverend
erytrocyten
##648
##kla
##typeslijmvlies
##esis
##arr
corpora
Vooralsnog
rectosigmoïd
##wervelruim
vertakkingen
md
PA6
chir
Abatacept
2x1
Slijmvliesbiopt
opgerekt
Eventueel
Pantoprazol
Surveillancescopie
aanhechting
##heij
houd
Intolerantie
grieperig
fal
vv
##ba
alsook
ferrofumaraat
externe
##omperidon
##ijkom
gemarkeerd
##rotum
##amera
denk
ganglion
secretariaat
Hagenbeek
No
##anx
##staand
##alys
##ocus
##valider
leverwaarden
schoeisel
Recente
Daarom
naden
huidovaal
verward
houding
##ulariteit
geobject
Tevoren
EV
Herk
RCA
levens
CMH
AMS
vroeger
Cholecystolithiasis
IR
RC
nor
##kh
ingebracht
belde
sediment
##nspecteerd
##fagie
##dex
stev
verwek
##griep
O721
##ctasieën
respiratoire
##bin
##eline
##ongen
##ronken
80mg
hoofdbehandelaar
systemische
b5mol
Wanneer
dokter
inwendig
lymfo
##romasie
osteofytvorming
dermatitis
Poliepje
Rustig
LaanLaatst
Perianale
topografie
##sul
##lei
##ambe
##473
##472222
##adolinium
Duspatal
ontstekingspoliepen
##ULD
leef
lager
Vergelijking
meld
degeneratief
meerkernige
##ochol
klysmas
acromioclavia
acromioclaviaculair
OOG
Sulfasalazine
##proct
##ervorm
##100mg
Scherp
periodes
Gescand
kopjes
PTA
origo
CITO
verruca
gedraineerd
Del
Aanwezig
CS00003800
MDS
##afhankelijk
subchondrale
vlekker
suggestie
Weefsel
Com
EM
late
##son
##iest
##itits
##promit
Reeds
CRohn
##gevonden
##geruis
##ints
HCV
grav
slijmvl
Cyste
Frequ
IUD
##IG
##ulator
load
##usea
Pseud
vrucht
##ores
##ibiliteit
##ylaert
nierfunctiestoornissen
fraaie
parox
##BRIEF
enthes
Afwijk
maagsonde
Duodenumbiopten
1X
dranken
zat
##leen
genet
##ificatie
advis
reumanod
verhaal
vernauw
coelia
Hal
trombus
nad
##antus
slice
Salofalkklysma
bulb
verlengde
wig
##OX
conflu
achtergelaten
##malige
Microscopie
perineum
uitbreiden
Ok
TWK
##ea
sturen
##ocele
##lijkse
presente
small
Klaver
winter
##lite
nadat
pijnl
mesa
helicobacter
Plaveis
##itas
rook
Hoofdpijn
pillen
bovenbuiksorganen
##zia
##ijl
onze
##icox
124
dank
##306
echogen
zekerheidshalve
neurologisch
Laheij
psychiater
Dunwandige
##elena
hypertrofie
gewichtstoename
aanvragend
spreken
discre
zinvol
##vlies
##ita
afgew
dikk
orient
A3L
CC
Verzoek
CS00018
Promin
puntjes
intracraniële
amoxicilline
##Bij
##REL
##onaal
##raald
resterende
iliacale
mechanische
toelichting
BAL
HER
JA
clavicula
sq
##dilatatie
prost
kunt
avide
kalibersprong
Sonde
##gesprek
diëtist
Hoofdklacht
metabool
KNIE
Dal
##chie
##oral
##obble
redelijke
oedemateuze
CS00003808
Amersfoort
cerebrum
##otterdam
CIN
Isch
##agit
##steinde
pijnstillers
##bellen
##atotische
OAC
BSG
processus
Lucht
##osporine
Fos
Pl
transp
plekje
Marcoumar
nefro
angiod
##keling
inzicht
cm²
INJ
##STIGE
##490
dikkedarm
Dur
doof
hak
##458
fibrotisch
dunnedarmslijmvlies
resect
thiopurine
##cobacter
Puylaert
Laparoscopische
Staande
##ms
##LC
erysipelas
##2037
rectumbiopten
seron
microscopie
primperan
ischaemie
probeert
fraxi
CE
oma
fisteltraject
##otherapeut
combinatieklysma
PatiÂënte
##romatose
chroniciteitsveranderingen
##ordelroos
Koor
uret
##ichtingen
MDLVerwezen
Best
zoveel
gericht
occi
##wijl
missleijkheid
Dorth
ni
##aarde
##proliferatie
gedronken
##atoir
malle
##bochten
3dd1
retroperitoneaal
purine
teveel
normocytaire
##weet
122
##app
lamel
behandelplan
Botdichtheid
Whipple
##oeling
##MI
buikgriep
bloedings
NSAIDs
TOEK
Vermin
##576
##OMSTIGE
Exc
glomer
sterilisatie
retros
vermoeden
irrit
##vvvvvvvv
seroneg
TOEKOMSTIGE
Ram
iden
##segment
##iens
traumatisch
handschoen
tussent
urticaria
triple
epitheeld
sicca
1970
Spondyl
disl
Transf
Nederlands
LS
##sochol
##ining
omentum
genoemd
MAM
geri
histiocytaire
Stabiel
##lating
oefeningen
Vre
##rig
##kamp
##ruis
##acraal
##217
Wever
nefrectomie
vaginaal
inguinalis
LIL
Mercaptopurine
ODS
##eiden
##mcg
##459
1794
fistelopening
HAGA
Onderwerp
verkalking
EF
wsl
##uut
##mmateriaal
cholelithiasis
zeurende
PIP2
C2W
vertebr
basaloide
Candida
lopend
vent
uitbochten
Th12
acne
HALS
Asc
##sfractuur
endocervix
2000036715
reguliere
##duceerd
Fal
overgewicht
Aangevraagd
noem
kanaalstenose
urinekweek
fosamax
vervroegd
patchy
introduceren
onvolled
gesupple
##wanden
aanspreken
ontstane
##NCA
herstell
dalen
secr
Mediast
##lium
##sgewijs
##odschappen
spastische
143
Onb
000001028
##ometrium
gebiedje
transv
geïmporteerde
EE
Eigen
Hodgkin
##Ind
##aarop
stud
overzicht
##HEID
Hierin
Aspecifieke
SRU
acromioclaviculair
opgeknapt
meedoen
Positieve
mov
TCZ
rectumcarcinoom
000001029
##gestart
droog
carb
tekst
Evaluatie
Nor
##iline
buikorganen
##395
folder
##hepatisch
uitstellen
heftig
kruis
Vasculair
Mob
##atorius
onderkwadrant
artrotische
##aph
##194444
##streng
##2593
pyelum
haardvormige
begrenzing
supraspinatus
Kudo
##emotherapie
poliafspraak
##gesp
December
bilaterale
##evaar
Februari
Aandachtspunten
coeliacus
5dd
Midd
b2
cq
waz
##PD
##atrische
##oreg
geins
##ysmata
subm
##iëctasieën
CS00003807
Pancreatitis
ureteren
insuffleren
##verzadiging
Mictie
##ULAIR
Koorevaar
##dosering
##atyp
welbevinden
tabak
tuba
intraveneuze
profylact
##riptyline
wonende
vanzelf
##osed
##uld
morgens
oogheel
slijmbekerc
plompe
chemoradi
##yreoïd
##arget
##ogn
teruggehaald
naadstenose
Supervisie
Auteur
domin
##olin
gewerkt
pret
levertestafwijkingen
##uceerd
wandstandige
##STE
superfic
cervicaal
opgeheven
strengileus
TOED
##utie
PATBRIEF
refluxklachten
axilla
BR6
omgevende
gobletcellen
##uderen
##RIE
Continu
staande
Nieuwegein
geinduceerde
REU
specificiteit
TG
hoorn
##itamin
##ekort
liquor
betreffen
Digdco19
kortademigheid
speeksel
Nefr
anatomie
epitheeldysplasie
Fe
##sens
##osup
halen
gefix
allergieÂën
echorijke
Leverenzymstoornissen
Cell
aambe
##meer
BijlsmaLaatst
hyponatriemie
Goud
##adem
##itieve
ongecompliceerde
##598
##amputatie
tuin
proctocolitis
##etails
BL
##LET
##000
##507
bekijken
144
##167
verstop
bovenbuiksklachten
fysiologische
Eveneens
##ial
opgevraagd
##apsel
gemerkt
Rood
##584
serosa
2dd2
Vitamin
architecturele
DE
Flare
LX
inhal
##ouders
spijts
Schaaf
struma
novorapid
dalende
plekke
gerelateerde
##ctivatie
alfa
flatulentie
HER2
DER
Douglas
MGA
uter
##mine
PAREL
meds
Ileostoma
##680
caps
Kaakchirurgie
##ventrikel
Fosamax
3L
##aga
##unting
mini
hemicolon
Remsima
telefoon
CS00003796
Gaarenstroom
DUP
f6
gips
synd
fistelende
ijzerstatus
##bodemmateriaal
Pal
##ofosf
adipe
##ziektes
##oracaal
behulp
polypeuze
##romoend
Im
aanvoel
retentie
ciprofloxacine
##ullie
herkent
classificeren
fascie
Kol
RK
kussen
lijden
##acilline
000001026
galz
##parine
Tons
verlittekend
ijzersuppletie
slijmvliezen
Los
##ysert
##146
##278
aandacht
##667
vervolgonderzoek
Oktober
Muysert
Vermoedelijk
WD
##Dr
##verl
##prim
##sief
terwijl
patellofemor
##ografische
Buikorganen
glenoh
False
##ana
oplopen
gewogen
veelal
##oxine
Westeinde
retrostern
SKEL
##olacton
insteek
verspre
127
roze
vochtbalans
Hierdoor
wisselen
SpA
443
imponeert
ondersteuning
Q165
Retro
eversie
koort
##opath
##perg
##5648
##360
##5926
alcoholgebruik
##yreo
Adenosine
Schoot
##rokko
rif
som
##toe
##stoken
##OMET
Huidafwijkingen
symptomatische
alternatief
dwars
waak
aansluitend
##eck
kleren
##loxapen
LuijtenLaatst
lichen
gekliefd
##ateralen
kliertjes
complexe
jullie
##WV
##atri
##osp
aanm
nausea
suf
##551
corfiguur
crepiteren
Rese
Temperatuur
bouw
lanvis
nerv
##log
##RT
##iparine
artralgieen
Infectieus
intersfincterisch
pectoris
ANCA
log
##sk
##umet
voorgrond
##lasten
interst
##abetische
ulcusbodemmateriaal
8x10
jul
##verpleegkundige
overbelasting
prednisongebruik
zware
##yllium
##hals
osteo
Steroid
Oude
clindamycine
Je
Oor
##gers
intox
suggestief
steunko
Dia
RDE
##won
artr
165
aanpassing
nefroloog
KL
##klasse
1010
diurese
erpecum
##rijging
##acod
##eltjes
laagd
##ersin
zakjes
nierinsufficiëntie
puf
bulbitis
KCl
Mond
gadolinium
vi
contactTC
aanget
##functiestoornissen
bronchopathie
Internet
##embran
EMG
Neus
##chirurg
uitgesteld
##ieklachten
antil
##luenz
arthrose
ferro
noodzaak
hypokaliemie
DUPLEX
Il
tijde
##194
sigmoïdoscopie
##35185
Esomeprazol
Idem
bocht
##vezels
##ephal
gastroduodenoscopie
##57407
##compressie
emotioneel
hartaf
Hili
vlot
BOTD
fissuren
symptomatisch
aankleden
rolstoel
wervelinzakkingen
Gevraagd
melena
##hevel
alkal
haemat
##eurd
Focale
Geslacht
##ICHTHEID
##ococcen
Boer
kristallen
Herkent
dislocatie
BOTDICHTHEID
uitlop
preter
omgeven
schor
scheur
Chronisch
Midden
Tum
it
naam
rhin
wijde
##hilus
analist
Verander
121
Uitsluiten
bevestiging
##tablet
Apotheek
ritme
Coel
Uro
##bod
##zalf
##opathische
onderzocht
##ienten
##141
interventie
SSYC
Perianaal
zeurend
melden
##pomp
##ronch
granust
1dd2
##alkte
Volledig
Laat
##AAT
doorgenomen
##vexe
pijnpoli
##368
slijmverlies
##immuun
Fistels
linkeronderbuik
##ated
##teparine
##uizing
coronale
##orfe
neutropen
Zekerheidshalve
Vir
##ative
##ugh
osteosynthese
##suppletie
CS00052417
NT
pept
vond
##apparaat
99m
verlengd
temporaal
koliek
2mg
750mg
T21
##flank
##ormeerd
longafwijkingen
tussenwervelruim
Hoest
Hypo
vlekkig
NU
breid
##erte
##araat
2023
##geslagen
maaginhoud
verbeterend
Hoesten
fossa
Echtgenoot
Orthop
##ersinia
Lig
zd
##asale
##getekende
voorvoeten
slagpijn
##voudige
merk
ram
##ondanks
subth
431
##578
Chemotherapie
hecht
namens
##atypie
laagdrempelig
##tasting
Congenitale
##ondilatatie
verkoudheid
##gezicht
quadranten
imponerend
atrofisch
precies
##urcatie
##beh
##406
langbestaande
resterend
achtergrond
aangedane
stijve
Valt
Dagelijks
thiopurines
##osocpie
getoond
##BA
##inel
instructie
stond
0003
collateralen
Poliklinisch
##junctiv
cobble
klauw
##alol
##ref
##iling
crepitaties
##akerse
2000036704
occipit
IOM
Var
##lysma
Gemidd
normalisatie
##ionale
##circ
Simponi
Inspectie
Weel
##hove
cmh
darminhoud
gebrek
spanningen
##ktie
onscherp
5e
dre
dgs
##umon
##raking
##aces
Gezonde
verbeteren
DMARDs
Willem
compart
RTX
LUMB
inspanningen
##soi
Pylori
icterus
ibd
##derde
staand
000001030
latente
mammae
retard
Q160S
cavum
Hp
Tumor
##latie
##curve
##catheter
##rogeen
0870
substraat
gerust
Ileo
##oxide
nefritis
BED
wervelcorpus
Weelde
Komen
Slecht
##anne
##uitsp
000001027
000001039
##breking
microgram
verontreinigd
AANV
afgezegd
nadenken
ih
##oopt
gema
##eizer
##plaatsen
Amlodipine
SPS
b12
jodium
##abel
gelopen
spriet
neurof
hydroxychloroquine
Knieen
poplite
Sessiele
paramedi
angiodysplasie
549
##balk
ongeluk
beiden
##bert
##7407
intram
papillotomie
Tsoi
nb
##MN
Beoordeling
Afdeling
verdichtingen
immuran
##THORAX
hartafwijking
Lange
##BE
artsformulier
vitD
voedings
##iazem
dienstdoende
gesuppleerd
BEDTHORAX
puri
##NEN
##DL
##linderepitheel
##489
##ubb
Onderhoud
Diest
mitralis
##eeeeeeeeeeeeeeee
Suriname
View
sommige
##mers
uitwendig
##angitis
ileocoe
consultReden
evidence
belasten
Lumbale
umbil
Behcet
Gemiddeld
##ah
##OC
##oseerde
##ssemie
AFS
##986
lesions
intermitterend
subacrom
##adnex
infectieparameters
##aneus
neoterminaal
urineweginfecties
mastoïd
Wisselende
ablatio
geobjectiveerd
CEA
Tiel
luc
##01
##dal
verloopt
overgevoeligheid
colonoscoop
##rosepsis
##ivers
apopt
geinformeerd
RJF
nos
##onolacton
Inw
##coumon
##resp
CS00050982
glenohumer
Goes
Rotterdam
##yer
##14815
bolle
##RAFIE
Jon
##poort
##invloed
##laan
##amoe
##aarden
##teit
##flexie
musculus
mammografie
##VLST
Erosieve
##yreoïdie
Mol
randen
##cur
perip
Onco
##ieleden
bronchi
borstvoeding
gluten
##opauze
Pseudop
Gen
Plas
covid
laboratorium
##cessus
duodenitis
##RAZOL
Ongeveer
LFT
geïnspecteerd
Research
HI
fo
factor
##amm
##pezen
##rainage
##bep
leverlab
##nieuwde
urolithiasis
differentiaal
##schapp
littekenweefsel
Heelkunde
ileocecaalresectie
Dig
ileumslijmvlies
##105
rectale
##afspraken
medisch
Rebergen
keratose
verhuizing
Papklasse
##ococcus
Maligne
Of
cit
vaatste
##enzen
thoraxbeeld
##pleegkundig
intolerant
Beginn
verstandelijke
gedeformeerde
sqa
vaatsteel
NUMMER
##ng
##wicht
##imulator
1971
##procoumon
##ioden
vriendin
ileusbeeld
WKZ
Complicatie
Macroscopisch
Ascites
Nij
Verst
Enig
Bul
thyrax
suff
radiologisch
paracol
Poly
CS000525
irregulaire
Gisteravond
afgewisseld
SW
Vaat
Vrouw
zweten
abcescollectie
##ukken
pleuritis
mitosen
Coeliakie
Centrale
Kleur
Nod
az
bar
ect
##spijn
441
Tweel
Vaccinatie
##MTP
MarjoleinCreatie
##oefte
luxatie
overbrugging
are
esomeprazol
hinder
wijn
##laden
eenheid
##cefal
##akin
huidstans
parameter
##ligatie
nefrolithiasis
Alkal
verstrekken
##bruine
##proctitis
NUMMERS
Drop
##leving
##uraal
##eldig
##ecteerd
##coom
##ochromatose
aangrenzende
Tim
plastiek
##inopril
PACS
cris
Pres
vulg
##gnose
proteinurie
##lazine
Biologic
Bestraald
noemens
Graad
Jen
bijkom
sul
incid
aanraken
##schak
labformulier
middelen
amylase
##nnnn
Atypische
##iforme
stenoplastiek
##icat
duidel
JaBewegingsbeperking
##mucosa
Toenem
allergisch
slikklachten
voorbereiden
##kalking
Ret
si
##gaat
##559
hartgeruis
##iorpine
oxazepam
##coxib
externa
##42593
##iltiazem
claud
abortus
rangsch
rafel
##swijze
##otide
##osec
parac
PIPs
Maud
Opvallende
interstitiele
oproepen
spoel
subpleur
stem
aanger
ileocolische
bereken
biochemische
RBK
Hypercholesterolemie
Nefrologie
##acodyl
##Early
inject
##antia
huidig
000001004
##ometatars
Spor
InterneSoort
##omyopathie
doorverwezen
aangelegd
resectier
##mus
enala
##aalb
##tazol
##ovasc
hartziekte
##witz
hematologie
##gradig
vezel
##italopram
geassocieerde
pulsaties
Buiten
DRA
Zorg
nat
poo
##agel
influx
zwarte
hepatische
acanth
Acuut
longembolieen
seborrho
HU
##biologie
##uraties
aangeb
##132
dermale
longcarcinoom
ileocolitis
NeeMTP
##884
hechting
simpele
Alkalische
Half
Kaand
Tavegil
fles
##zaken
##RE
articulair
##uitstrijk
##480
gastropathie
paras
##gemaakte
hypog
Nogmaals
O720
methylpr
Prominente
##romoendoscopie
poplitea
Kaandorp
T12
##esarea
gebroken
##206
HSV
AK
Mee
hangen
sagit
##komt
geulcer
anum
Keuze
medeg
gebruikte
complicatie
Helg
##ducten
Reumatoide
VBB
e1
ot
##jj
onc
##uthy
##efractaire
enterografie
fibroscan
kwaliteit
Dexamet
urotheelcellen
##16667
Cardiografie
sternoclaviculair
ervan
Thyrax
vergelijken
LOB
endoscopist
testis
##akinra
Drain
vind
##pend
##FU
##atotisch
intense
##ulen
vooruit
Dev
normal
##lucht
kunst
brace
vrouwen
Kok
roll
##preken
129
50MG
Afwijking
Elleboog
Soepele
##OMETRIE
Cwk
floxapen
##gas
##DO
##ctEarly
##ffende
##361
##omatosa
spierziektes
retinopathie
2000066010
Macroscopie
Kornaat
CJ
Tox
##NN
voordat
1012
##orstatus
##iclosporine
hersenbloeding
Postoperatief
insuffici
##pergill
gegener
ontslagen
bloedkweek
##iprep
hieronder
##hout
##drainage
Mevr
##erentiatie
ACA
diaree
spondylodese
spondylartropathie
Betre
Tonsillectomie
azathiop
##avis
##BI
##109
##blok
locale
nucleoli
Staken
##artefacten
tubulov
##uch
##hra
##ostase
gewrichtszwelling
luchtvloeistof
thuissituatie
onbegrepen
hyperchromasie
systolische
metabol
acetab
##laucoom
prerenaal
##Bijwerking
medegedeeld
ol
piep
betere
##icontrole
verstrekking
e9n
curettage
##ère
oplopende
strak
dato
##374
nodi
tumorcellen
A2L2B1
urinesediment
tarsometatars
doxycycline
Direct
##durende
##bek
##zende
CS00003849
##tractie
##spier
##197
alcoholhoudende
groepen
##waardige
gradient
Tumorstatus
multiple
##usch
##ung
ana
##laviculaire
##gangen
Benigne
wazig
##circulatie
##pha
##imzia
leek
infectieziekten
verstoord
Behandel
Migraine
P1
full
##dagen
##sine
##anit
Gevoel
##386
##ofilie
bekeken
##achtige
##megen
##yls
extreem
myocardinfarct
fijn
pur
##atisch
##streek
RADS
verrichting
midline
weggeb
caput
Marokko
bandvormig
##orrelig
Low
Tre
##elecoxib
polyp
Stijfheid
rechterleverkwab
subt
##116
##583
CVID
linkeronderkwab
vragenlijsten
lidocaine
adhesies
consequenties
enalapril
Hulp
Sal
Zus
glas
##hen
##ellair
##369
resistente
Schouders
Vedo
lineaire
1D
2g
bif
km
zkh
##iectasie
bijsp
Ingesloten
##eugen
linkerknie
Afw
definitief
transfusie
uro
##reken
##oeld
voorwand
##arië
longontsteking
cryptde
behoe
nabep
hoestklachten
rommel
capsules
hemorrhoiden
##Indicatie
M0
RS
Temazepam
hamer
##ott
voorts
##ineus
doorgeven
echoarme
Bespreking
lactulose
Cob
##toediening
##derwijk
##versum
existente
##488
achtig
interstitiële
toevalsbevinding
##idemie
##gecom
##istel
artrit
##709
Specif
##117
Hemorro
geintro
intersfincterische
profylactisch
tens
opn
stuit
##201
onduidelijke
Ongecompliceerde
symmetrische
Prikpoli
heterogeen
beroerd
keratin
parameters
FM
NR
drug
zsm
beinvloed
##ofactoren
leverziekte
faec
Hoogst
gewrichtspijnen
vaccinaties
wachtlijst
multifocaal
Schaafsma
##rijgingswijze
##yper
bijstarten
##558
##468
##rombose
onbekende
##bruin
Pulmones
chemoradiatie
##junctivitis
rollator
Sign
Wout
##granul
##rypt
##abusus
rectovaginale
There
Lymfklier
Ziekteactiviteit
collecties
##arpaal
therapieresistente
prostat
##ofosfamide
verplaatst
lymfocytose
##ssfincter
duiden
fibrin
##reeklachten
SUBC
kor
mooi
##RB
##alaat
##55556
verwacht
ongest
Milt
cytologische
knop
capillair
kilo
##nesol
1ste
Eczeem
Pacemaker
ic
stolling
darmwanden
Spier
liggende
0004
planning
defecatiepatroon
##deficientie
parotis
##vertebraal
MF
leverproblemen
leverziekten
##oordelen
entero
Doorgemaakte
Ferriprieve
Forlax
gespannen
gediagnosticeerd
Probeert
coeur
Dexametrie
Fl
Lopen
active
rh
sper
172
orb
hoeveelheden
Trans
Zeist
Mail
##complex
Calciumscore
Haga
ros
##529
contrastuitsp
hypofyse
##LEN
##ïn
##otheel
##able
##oflebitis
##215
gastric
object
##302
Asym
##uleerde
Echografie
Bosch
carcinomatosa
Mijn
kla
##kijken
##alissa
Omgeving
scrotum
##oxic
##rhose
Radioloog
caudale
##irador
thalassemie
bicepspees
ACP
Frank
##kliniek
##orvastatine
##ffusie
sneller
IPMN
flinke
##ongeerde
##laten
##ozen
##fx
##etide
Ing
##405
##147
Altijd
chronic
##ovitamin
daarin
##engekn
nierproblemen
fibros
wijs
Doorgaan
gecontinu
papieren
##histi
cysticus
Transferrine
geintroduceerd
kiem
ling
##ls
##GO
recessus
sup
##ucces
cysteus
nierfunctiestoornis
Fibroscan
laxeren
kauw
neurofor
070
CBL
RBC
mass
##UTAAN
ophouden
##oson
##otitie
transen
navragen
##ioca
puntje
Frequent
gecontinueerd
##celt
##inen
##oplastisch
##ranium
##ymfoom
178
acenocoumarol
achterwand
BOB
##Verpleegkundig
doorgroei
##ucleair
typische
Univers
FL
T13
rub
##mond
##oekt
##oefen
ileumbiopten
Perif
Lymfekl
autoimmuun
macroscopische
therapietrouw
##sorptie
Vitaminen
##ry
opvoeren
##quate
##361111
##retentie
TICC
##gramma
plaveiselcellen
Verdikte
laaglumbaal
##02
##elz
##conazol
##ancy
2x2
perivasculair
mediane
persisteren
Marije
behoor
presacraal
2000043547
##hypertrofie
prednsion
##N0M0
##populatie
posterieure
Verhagen
Nijmegen
SUBCUTAAN
Naast
fotos
vre
##rover
bijd
##clysma
alopecia
longnod
##228
nierziekte
##sher
receptor
architectuurverst
lagere
Lit
jeu
##ters
toto
##563
longziekten
boeren
stoelgang
ontwikkeld
malleolus
Comp
det
pw
tele
##etine
1127
CS00003848
exac
##363
subtiele
##535
bepaalde
##witte
##heliale
##OGRAFIE
Ossaal
conventionele
##wisselingen
##arriere
Diet
Rit
VOL
##gg
##ontale
##omeen
##egt
resecties
bekledende
cobblest
LUMBAAL
ihk
Hi
P53
##carbonaat
##A1c
##igine
##appen
glaas
spierweefsel
craniale
bacteri
Longvaattekening
B2
wan
gefragmenteerde
eenzelfde
##ienummer
##ellink
verdichting
Endoscopist
Therapier
##ovitaminose
4mg
douch
roker
vw
##dol
uiting
exorotatie
verkleuring
forlax
brufen
##osfaat
frq
##rofiel
PTCA
##point
Auto
Harderwijk
##anitidine
Cobben
dil
natuur
##uatie
##punctie
##PTI
tijdje
Tijdelijk
zool
roes
##ukkig
Spontaan
leucocyten
lymfekliertjes
algemene
schuimklysma
krachtsverlies
enterocutane
##verlener
##oefeningen
Hefet
Mis
NS
daarop
wonden
uitvloed
##212963
##matige
Vanmorgen
##komend
choledocholithiasis
ballondilatatie
Discopathie
tarsometatarsaal
Heupen
invloed
##indicatie
Artralgie
trekken
branderig
Allergische
Out
cicat
##eloos
##arcer
staart
pijnmedicatie
spong
##udeerd
Abdom
##435
erythro
RBI
2d2g
adipeus
IQ
codes
ert
fz
##ellaire
##oprofiel
##otalol
##enspreekuur
##ORPTI
##599
grootcellig
compact
dysplastisch
bronchiëctasieën
##BSORPTI
##ETABSORPTI
SKELETABSORPTI
SKELETABSORPTIOMETRIE
hh
jong
##Sp
##emd
Deel
Destijds
CTR
167
##128
##478
Weekend
Microscopisch
Q180
ast
##iose
##sge
##378
wervelkanaal
cardiomyopathie
UActEarly
Vervolganamnese
pericarditis
registratie
NIEREN
opgezwollen
cath
##sturen
##entjes
overloop
overlap
##145
verdubb
ISO
##hyleen
allergieen
symptoms
FOLIUM
optimaliseren
FOLIUMZUUR
so
vg
##HD
##ense
##entinel
##ago
##zichtig
ACE
##dienst
aanpunting
##18519
transaminasen
##luenza
SMA
##anje
##icol
nut
diabetische
recto
Opgenomen
##selt
radio
##ivering
Ileocoloscopie
cervex
##gevoelig
##odermie
WHO
verpleeghuis
e8re
##alissadering
jonge
oid
##card
##chemie
##onel
##isf
Alf
##plande
psychische
tendinomy
noteren
Ossale
Biological
Voeding
gordelroos
noch
##hoven
oprek
regeneratie
##linder
##lijks
173
##oves
CD4
conclusief
behoort
potjes
Signific
BC
Muc
##jn
geident
ontd
rectumslijmvlies
scopieen
##376
vochtbeperking
myomat
calciumscore
folliculitis
nefrologie
horizontale
vruchtbare
rangschikking
vacu
##bra
##oorte
ingestuurd
##pex
onderstaande
##isters
##ptomatisch
##402
1006
hypertro
ergst
##304
bacteriemie
Zon
bad
##ali
ontreg
##ction
##brush
##iltraten
##clerotische
verspreide
zaken
##iw
##wijs
##YD
##oplastische
##107
remmer
huidbeeld
60cm
800IE
##iconazol
##ight
toevalsbevindingen
posttraumatische
Waterpokken
##uan
##prep
optr
verlaging
##ienne
##schrijven
dysfagie
##423
Nauw
urinewegen
efdie
amputatie
papillair
Neven
onrustige
EVAR
323
Retour
Segment
buigen
crib
doc
##achtiging
##pillen
tubulovilleus
nethol
winder
##berden
carot
obes
vervolgconsultH
boodschappen
Vrijwel
zenuwst
scintigra
oligoartritis
Bart
##ict
##TP
word
##2013
##216
caesarea
reactivatie
gemarkeerde
beneden
antibiot
leukocytose
Leuco
##ckringse
beroerte
concentratie
presenteert
Cc
temazepam
##ischemie
##103
rectus
remsima
imp
laparoscopie
geïmporteerd
electrol
seronegatieve
spijtsera
preterminale
vulgaris
##sherstel
JEN
Salmonella
plastisch
##lijnen
##KEL
Inge
perindopril
Spir
hypom
Visit
tbv
elastose
gebeurd
Perfusie
3de
312
Ibuprofen
##centie
##rome
##asp
##482
slu
handrug
##ventilatie
draaien
##cintigrafie
##intestinale
Universitair
Hof
T10
geef
metastas
##ruct
1968
1973
gehaald
rechterlong
verkalkte
maagdarm
##264
rondkernigen
Moeizame
Locatie
zorgverlener
Coronair
acetabulum
ACPA
piek
##groep
##tv
##DM
##verhouding
##icatio
alweer
##ada
dagelijkse
Pijnstill
Polsen
wilt
##DAS
##slot
gepaard
kennis
Cryp
INJVLST
vertebralis
antilichamen
##uin
rechterknie
##567
Alles
##oordeeld
vermoeidheidsklachten
ovale
2000066026
Bovenste
dekplaat
gemaild
##uschwitz
geidentificeerd
Stern
pin
meter
##iklysma
gezonde
coecumpool
subclavia
waterige
mesenterica
samenhang
nvt
foveolaire
rheumat
gecombin
weggebiopteerd
obesitas
goud
urosepsis
##haarden
infra
wandverdikkingen
##588
vlg
oorzaken
stands
uiteinden
extensor
azathiorpine
Kruschwitz
paramediaan
##schappelijk
lingula
Ken
MMC
Zegt
cogn
eea
Geenen
thrombus
##2014
##rocranium
macrogol
##schildklierkwab
compartiment
NRS
Raad
vaatst
##klinische
##arles
##venen
dialyse
##zeligheid
##207
remisie
000001038
Welk
##cussie
oogontstekingen
kernst
EPD
portae
cholestase
##ADH
Slo
Yersinia
##apsu
##trast
##graad
Ontlastingsfrequentie
2000050218
HFIDDE
verklaard
##apselde
aangeraden
baar
glob
##260
##iegel
methyleen
ophalen
##recht
bewegingen
prognose
##beet
enterale
##icile
collum
PLA
aortale
##uct
Vers
##spoliep
##oxif
sinussen
##cellige
bleef
Vochtbalans
lymffollikel
Nab
WV
tomosynthese
##stam
##ijnt
statine
perioden
linkerleverkwab
mill
##ovend
##ifed
lateralis
000001005
##owen
##acea
resectievlakken
calcaneus
Langdurig
AANVUL
TNO
##dokter
omlaag
Pijnlijk
##ques
##snede
verdwijnen
circumf
Apr
PG
Plast
Zoon
##apeling
chi
155
voelbaar
##367
parel
##308
mycobacter
2000066011
corona
zijdige
tandarts
steunkousen
cribri
Ustekinumab
bauhin
##idente
##ERV
##wijzing
##553
arthralgie
MCP3
Jansdal
echogeniciteit
54970
Kar
Sle
horen
##pa
##boud
##esp
resten
TCM
##ofyten
Maagbiopten
##586
dorsobasaal
meningitis
Erythema
supraclaviculair
TOEDIEN
ED
Rontgen
##kalk
##vix
linkermamma
##nape
gelob
proctosigmo
Ontv
70cm
handgewrichten
littekenbreuk
Ijzergebrek
beweeglijkheid
subfebriele
##ydia
TOEDIENING
##OF
inc
##verband
##eme
IVF
##pler
contractie
lokalisaties
##rofur
Supp
##figuraties
Hypok
Broer
linkerbovenkwab
ihkv
HL
RHA
keuze
zoeken
##uro
##erm
##elk
##apula
Therapeutische
##218
doseringen
septum
##calci
##lycer
rommelingen
verstopping
namelijk
##boek
##TG
Voorlopig
1007
##udaal
##476
malign
echografische
##AMOL
##ycemie
dubieuze
##standigheden
##orescentie
##ifedipine
##ynam
##umed
gezegd
Ong
gekozen
Herpes
herkenbare
Hepatopetale
dwar
Verminderde
aambeien
Braken
PH
TTE
pust
##nelijk
##keld
##itometrie
##eef
##veneuze
163
verbr
##lopid
##ALIS
##587
Helaas
angina
##ampicine
episodes
Leuko
Echtgenote
artefacten
Gehuwd
Betreft
##uanine
Kn
WW
##ocolon
ontb
##elsyndroom
hemochromatose
corresp
fistelproblematiek
afwissel
400IE
SIADH
Hematologie
diarreeklachten
follikels
veil
CS00052467
activit
##reditatie
actinische
Cur
NEN
OMH
Uff
Vag
campylobacter
##D3
verlopende
PAN
ervoor
##aanval
15189
Alendron
##NCTIE
##469
000001008
Quarles
Stopdatum
##ratienummer
pyeloc
decompensatie
geaccredit
registratienummer
##wwwwwwwwwwwwwwwwwwwwwwwwwwwwwwww
Accreditatie
flucloxacilline
Plaveiselepitheel
M023
Significante
geaccrediteerd
Bic
RUST
SZ
WZ
crust
darmziekten
##ostatica
##touren
atten
epic
inziens
##eldepletie
Proximale
##iectasieen
contrastuitsparingen
KruschwitzVerpleegkundig
VMS
##even
diagn
##409
existent
##525
hyster
meen
Isselt
fibula
ileocoecaalhoek
segmen
##ijsert
diepste
Muijsert
posttraumatisch
amyloidose
Oppervlakkige
Fragmenten
mdl
Jonges
Mirador
eo
eend
ph
rash
voorgesteld
##ellum
##neur
gestruct
##blia
antiCCP
dissectie
##ocytopenie
formulieren
brood
##sthma
prakt
Oedeem
Bakerse
inges
eenvoudige
##ikkelde
##schade
##SCH
Bevindingen
zieker
1dd3
maaghevel
##RAS
lipase
behandelaar
verergerd
MGUS
kernstapeling
##napepitheel
6mg
RX
##gte
##Mede
##icalis
Conversie
##ecatief
##eculair
0100
efndiceerd
randaankleuring
##2009
Complete
Risico
verkorting
##sgewijze
##ovesicale
Ufford
Seton
ejectiefractie
##passing
##YN
invalider
146
transsfincter
60mg
##796
hartfalen
betrek
verloren
microcalcificaties
stijgt
##jaarlijkse
overtuigend
halveren
variatie
pT1
strictuur
ris
##CAAL
##coupe
##fistel
##spring
25cm
##951
Leavis
luchtcon
cellcept
bacterieel
cardiomediastinale
cervexbrush
Ble
sur
##idalis
##dddd
verblij
slijmnapepitheel
##inson
##atory
schimmels
##pols
ed
##gland
##articulaire
##holt
##465
hepaticus
24h
hartdokter
Oesofag
Celbeeld
##ackye
##lamydia
##orderline
inspiratiestand
dominante
nervus
##loges
aangeboden
ertussen
##umedrol
verbrede
##orische
##oguanine
briefje
##000000
slikt
betreffende
AIH
cellulariteit
passief
hardlopen
Diverticulitis
sachets
metatarsale
tangentiele
slijmbekerceldepletie
IQR
##ackyears
Bis
romp
tijden
percussie
langz
werkte
##ESS
gemeld
zijsn
kwijt
kerst
##anninga
immuungecom
monit
Passend
polymy
Maximale
Classificatie
Sw
reizen
stug
doorheen
diast
##elsel
1600
subileus
##129
000001016
0005
##lobul
ophoging
keratinocyten
BCG
HET
Lyc
cT
hoor
##N2
##eding
bloedonderzoek
ileumlissen
100MG
##12963
##445
efn
vliez
gepass
Faecale
circulair
glandulaire
2wkn
irritatie
Versterkte
##lotte
PA7
##ransplantatie
##neus
##ielid
##178
CUTAAN
##hyperplasie
Pouchitis
ZH000000
##klama
Lycklama
##ja
##icort
##prolaps
Degeneratief
abductie
oudere
Hoewel
Stent
bacterien
Werkdiagnose
giardia
##JM
##onist
##onische
opi
overlijden
bloedafname
15cm
hoogstand
##rthropathie
Antistof
knoppen
##reductie
foveol
afgerond
pyelocalic
gy
sulf
##ern
##antrum
##allen
##neiging
levertransplantatie
schrijven
##199
Basaal
Hooguit
Evidente
##ozyg
Neurologie
acceptab
##yrica
Eigenlijk
Ren
Se
Tomosynthese
aer
##echt
##pust
##wek
##DUM
##onchi
##oci
##106
Metotrexaat
174
000001036
difficile
psyllium
##59259
##2685
groetI
##icialis
##tttt
enorme
familielid
Groene
ANF
Lid
MGG
venen
encefal
Immuran
circulatie
deposities
aktiviteit
EMV
##embraneuze
noemenswaardige
156
Komp
OSA
##celepitheel
normocellulair
spalk
expl
antedateren
caec
Antedateren
sternum
voortzetten
knoppenbalk
8mg
Canninga
KP
Nije
homogene
set
##opnam
leverhilus
Normocytaire
grove
##188
micr
flexor
Meermalige
AANGE
gladde
##colonoscoop
Radicaal
bewustzijn
superficieel
##elzoom
Nijeholt
##anta
##emesis
rechtsonder
scheen
##reex
Afbouw
Afstand
##889
geïnd
humerusfractuur
lasix
zenuwstimulator
Mrt
hot
veg
##lus
##pje
##ht
##amose
##apitale
##527
00000106
##enteel
##ELK
##396
Maagklachten
ursochol
reumatische
myoom
stijgend
##vuldig
stents
##rene
afhankelijke
emotionele
trigger
Beginnende
CALC
T11
##pleg
##FT
##chet
##veren
176
wandelen
Kweken
##illeuze
fragmentjes
Tuss
she
##wacht
##orroe
drukkend
##lecties
Duch
kwetsbaarheid
processen
lymph
haemorrh
berekeningen
beinvloeden
erop
##itz
##ikelf
Instrument
uitgeb
1972
##4074
##ortive
##ronde
##svers
hierboven
mesala
##lediging
##rekt
3000
Microcytaire
persoonlijk
amitriptyline
Beperkt
verwekker
rubber
Pijnstilling
Slechts
OSAS
B3
sal
brieven
##287037
ADDEN
Radboud
myelum
ADDENDUM
4d
CX
body
urogen
vlees
##wer
##ham
##Notitie
debris
##opo
##sept
##wijzer
omstandigheden
##osten
##339
drains
contrastaan
##sfusie
nagels
Cipro
temporalis
##regelmatig
##lengte
data
klop
hoofdhuid
dalspiegels
kindercolonoscoop
efditis
Haemat
140L
##orrelia
smaak
constant
cribriforme
Rib
kyf
wrat
zussen
##pass
geor
innemende
##icad
##iculi
154
plaques
##entiel
Reactieve
##373
microscopisch
borstelzoom
aantoonbare
frequentere
##erologie
##anig
vancom
alve
gezeten
preventie
slaapmiddel
topicale
Ulcera
wortelcompressie
anterieur
Bijn
##riene
##water
##383
goedaard
##irrit
##ribut
##ibiotica
##matisch
pariet
##pons
blaasontsteking
benig
litt
ABBA
kopje
pleit
aankn
fraxiparine
Helgason
WERV
##rob
##idra
##resten
aanhouden
waartoe
##beoordeeld
labform
benader
Cholangitis
cilin
fibrinebeslagen
##albuminemie
anastamose
RKA
AANVULLEN
##rofuranto
vancomycine
4gr
GDS
##sich
##allergie
##aantasting
##holten
##ondentie
##eeskunde
Para
strept
##andibulair
gefixeerd
EK
Well
##niet
##istend
nakijken
##142
spin
omzetten
100m
##zolen
morgenochtend
longem
kortdurende
bezinking
geïn
thrombopenie
Onduidelijk
rechterbovenbuik
##arthrose
Consent
Biopsie
Land
reusc
aanraking
##ruptuur
##ipen
##antin
##lopige
##290
partieel
INHAL
ESV
suboptimaal
EndoscopistMede
Nauwelijks
gestructureerd
AMA
Hend
Oei
PER
goot
mu
##getrokken
##atte
verse
##zoeken
##380
##sieke
producer
labia
##195
radiatie
##330
##474
AIC
Duchateau
aanknoping
Kenacort
LOR
hond
tramal
##sreactie
##hof
##onine
vertro
diak
##trent
##377
000001007
##OLON
immunosup
Bruijne
percentiel
##aalbarriere
GV
Groei
Kopie
zaalarts
##UT
##ficatie
##inger
##alzine
##siek
pijnen
##102
hyperre
Terminaal
werkzaam
fibre
CAP
behoefte
Digdco21
calcificatie
##arpale
stolsels
WERVELK
ET
GMA
##ubatie
geplande
##otran
190
##erence
##462963
duodenumsonde
sintrom
marcoumar
Bovenbuik
slijmvorm
Kompositie
Rooij
ra
##olimus
##arese
aft
testen
rechterschouder
##dradenitis
series
##adenoson
cholecalciferol
aanvullingen
poliklin
##spannings
Feceskweken
##transfusie
Golimumab
CNV
rose
oplos
##icot
Intest
##menteerd
lymfen
Antrum
##90741
vervolgd
6TG
insufficiëntie
dietist
##eeding
anatom
plotseling
inzichten
Sternum
##lopidog
meenemen
542
Binnen
Nit
buurt
mer
##mans
##alc
terecht
spat
039
##nala
botdens
##waarts
locoreg
waterpokken
Gestaakt
600mg
extreme
cerebellum
##ruimten
##hypertens
polypeus
##ikelfunctie
contrastaanbod
ILD
PNP
##talis
prop
perone
1966
buikhelft
toenemen
##anciclovir
##460
##126
##127
verlaagde
##rofob
Hypoth
rommelen
##polair
Etienne
gedeformeerd
Cylinderepitheel
Yzerverzadiging
leucocytose
flan
nicht
##sstoornis
##idiafragma
Gecompliceerde
abuis
transl
huidafw
sliding
000001006
verstreken
gastroenterologie
kleurt
##plaats
eosinofiel
Kallen
ductaal
Digdco18
representatief
##ifferentiatie
LBK
##schakeling
SCH
rotatie
target
##olisthesis
Cond
neurocranium
plaatsvinden
##omatitis
APR
collateraal
kapje
voorstelbare
Ijzer
##ovendien
Dunn
Fosfaat
TOP
aub
##viezen
##inectomie
geheugen
schors
##alamine
Maagsonde
##ertolizumab
ENKEL
clip
##RAC
Cardiale
portio
Vergrote
eenduid
Lef
bb
preex
##ctus
inla
gehouden
##thoracaal
##186
##proxim
pseudopol
geinfecteerde
Scler
metoclopramide
overgegaan
Drietal
drink
##557
##115
##ïdose
gekleurd
MCPs
voetenspreekuur
Gesch
marg
haustr
Canulatie
Cre
Lies
Ligt
kies
omg
##iom
##hoe
##elbare
##502
##506
minst
##ocyst
geloc
proctectomie
paran
Adnex
nierloges
Spoed
myalgie
1d2
afgekapselde
PSI
IJzergebrek
##alumimab
graviditeit
Bre
JIA
##xie
##onon
cry
1008
appendixopening
##agnostiek
##renaline
idiopatische
tuberculostatica
##italia
uitbreidend
Linden
tag
##tige
##iseren
hernieuwde
ell
ongem
##166
ControleReden
Spiegel
inflammatory
Definit
partus
##algia
viertal
##ROX
Bovenstaande
##oooooooooooooooo
langzamer
flanken
1g
Duidelijke
Flex
Flagyl
bud
##anolol
##athisch
##ondijk
gestap
075
verdo
##ukte
meeg
meegek
##309
Brondijk
dense
submucosaal
Supr
atrofische
relevant
aanvoelend
Sporadisch
clust
##naad
##solid
##zeg
weig
##pijnen
gesten
draad
lith
##545
ulcusbodem
papel
kopie
pakje
injecteren
metastasering
Heb
Pas
##atten
##onaten
verslagen
convexe
##ouf
1067
##ubitus
liggend
##ordose
aanwijs
vesiculair
ligament
##amoeba
##pleging
Wal
aort
##onk
erin
##ugularis
grof
##plekken
supervis
MTPs
tendinopathie
geassocieerd
##stijging
luchtvloeistofspiegels
capillairen
vaatstru
verdoving
3cm
Kuch
Succes
buscopan
##ila
##ormoon
voorste
##144
##426
locaal
proefbehandeling
##wijdering
2X
Mari
blastische
##ti
##idym
##istentie
therapeutisch
sche
164
radioc
##390
##223
ergo
##580
delenzwelling
aller
ventriculi
Digdco20
Appendixopening
canulatie
schilf
occipitaal
umbilicalis
KR
alar
ost
wsch
##anprep
geann
beantwoord
##408
klopt
huidklachten
verkle
##307
##ioneerd
Spuit
zijden
slaat
brijge
SVP
cerebri
Neo
Origine
##vasatie
lymffollikels
squameuze
##tagonist
baarmoeder
##icotine
RETA
Sie
##ceerd
##inite
Verv
##143
##axel
##706
hoogc
genoten
Colonbiopt
obl
lamblia
Brun
OPG
mammaca
uretersteen
LaiNaam
lumpectomie
A2L1B1
annuleren
optreden
Blijk
Enala
Foto
Wijn
##910
##NIS
deed
chemie
##spoel
zwem
hemofilie
laminectomie
foramen
hydrochloorthiazide
biops
1T
hooikoorts
lagen
pH
##pingen
ineens
##teur
stil
CrohnVoorgeschiedenis
policontrole
##acaal
##503
##213
COL
granulocyt
hyperventilatie
##ules
continuiteit
Corpus
risicoprofiel
radiculair
##gls
coronairlijden
inzakkingsfractuur
glandula
##ffffffff
PU
Vet
Vast
pod
##1704
##atting
opgel
Gecompliceerd
doorgebruik
waardes
##bericht
162
hiernaast
grenzen
vettig
hydro
Helpen
osmol
griepprik
cyclofosfamide
spironolacton
Rutgeert
0Totaal
Bol
Mening
UI
##oorden
opa
tenzij
Anale
metaplastische
##wkn
directe
##loride
uurszijde
##unctaat
pseudopoliepvorming
##irads
VZ
bse
centr
zag
##gie
##atelectase
indef
report
##pret
Gemetastas
##pectief
##producten
158
radiologische
rugligging
##huisd
##497
0DAS
retractie
menstru
pleister
Betnesol
Inflammatoire
onvolledig
bijdragend
methyleenblauw
SZP
aanknopingspunten
AAA
Car
Go
purinetol
wiss
incompl
Aanhoudende
Meij
duodenumbiopten
##2008
Submuc
STOP
hormonale
PRED
uiteraard
markerings
Passagere
sulci
##oxicam
Ritchie
carotiden
cilinderepitheel
Enalapril
POL
SCHO
dor
ttv
opris
verne
1078
gezamen
##vulsie
gebit
147
volle
zieken
supple
pneumonitis
tromboflebitis
##plantatie
##overgevoeligheid
okselklier
intensiteit
defecten
laxantia
enthesopathie
Hendrik
hyperreactiviteit
##lopidogrel
Achter
bier
hefet
gecor
##uitschema
Nutridrink
##123
##131
##reektaal
vasculair
Proctosigmoiditis
##odynam
AANGEPA
EB
Jeuk
Rijn
factoren
klaring
##vasie
##ieten
##espreking
ondergetekende
1064
##eldarm
12w
##568
##ronk
##522
##477
RR1
maandelijks
losse
##aparotomie
miskr
Hydrochloorthiazide
navelstreng
Kerckringse
granustix
seborrhoica
VOLGT
AANGEPAST
Hell
T3
jo
punten
##wat
##aresse
##infect
ongeval
##otheker
afgegeven
Doorg
2000066028
T09
bevatten
##bloedingen
inhalatie
rafelig
sluiering
afwisselend
kloppijn
1cm
6mm
da
flauw
haa
##nel
##punt
##haard
opengekn
##eerbare
##lijven
##rans
CS000027
split
Beste
##formatie
##176
##gewerkt
clips
risicofactoren
coronaal
Lokaal
TPMT
Regadenoson
WEZ
Afwijkend
urethra
bijkomende
RETARD
Fren
Gynaec
RBB
tante
##inod
##elok
##taz
afscheiding
aangemeld
##bevinding
##eph
##ontoux
lisexcisie
retroperitoneum
Etn
ident
reuscel
geannuleerd
boek
##uter
##hee
geborgen
##ertiliteit
##493
prikkeling
infiltrerend
knn
verhevenheden
##italin
rontgenfoto
scintigrafie
Frax
Gran
Keizer
celecoxib
##actief
##VAS
##B12
##MON
##idel
##ogeleid
##elep
Aansluitend
##501
spine
endorotatie
##oxan
dalteparine
anderhalve
125mg
Digdco17
Vervolgafspraak
berusten
transversale
rifampicine
winderigheid
Camera
FS
Furosemide
JK
LR
Las
Sa
brug
glaucoom
tillen
##ZE
##IC
verplaatsen
##astisch
CS0001704
thi
##LINE
linkerschouder
staf
##169
combiklysma
##trekking
##diar
##ullens
##OTR
besluit
##rrrr
AvM
Cimzia
Kalk
Vlak
##etica
##pert
##181
patienten
##ELD
vitamin
##umbo
kaakchirurgie
paniek
##centra
PREDNIS
Dro
Pullens
dragen
eh
fil
##outen
geboorte
##making
scapula
##pectrum
##ositief
##273
snijranden
Spanje
spoedlijn
##fibrose
##gespoten
neutropenie
Crypten
Ir
tun
##illaire
bev
stroom
lupus
stenoserend
geschikt
bisacodyl
schimmelinfectie
Kaakgewrichten
Kinderarts
##pustype
eenduidig
klas
##lid
omtrent
desm
##lasveld
##iverticul
misselijkheidsklachten
hypertensieve
Mammacarcinoom
abnormaal
##509259
subluxatie
French
##ood
##Ag
##ogingen
##ypeus
volw
##179
feceskweken
refeeding
vrc
driemaal
cranioca
Dermatologie
LSWK
Drainage
NHAN
RWV
hum
kin
##hoorn
##ël
##Lengte
anakinra
aspergill
##erdam
148
166
##583333
antihypertens
node
Enkels
Bovengenoemde
NHANES
2cm
AR
Flu
N3
ROK
Zonder
larynx
##start
verhouding
##icker
##prand
voorzichtig
##381
najaar
##seen
rechterelleboog
oogontsteking
Hemicolectomie
sinust
gepig
LAB
Beroep
onderkwabben
##UDER
mechanisch
galwegdilatatie
percutane
hypodensiteit
pussig
subtherapeutische
BRAF
FB
Greven
Jicht
##etra
metingen
streven
stomatitis
##334
##428
##formance
##298
chirurgisch
##RAM
FNA
contrasttoediening
##voeging
Bespreken
Intrapulmon
CHOP
Mobilis
oprekken
GeenenNaam
pyelocalicieel
##ributie
METH
##itud
##endelen
##osi
##icella
##566
##196
interpolair
risicos
klierbuis
sternotomie
##FUSIE
behoorlijk
salmonella
##keer
##roef
##382
##384
mga
slijmvlieszwelling
herbeoordeling
Been
##391
blijvende
botten
##282
##ertie
ORS
480
brein
systolisch
variant
hevigst
Ischemie
dreigende
apex
gaten
p53
zachte
##bruik
##fs
##ikken
stopt
omring
185
Uitgezette
CS000523
plomp
3dd2
Waardoor
Complicaties
XIII
entyvio
geriatrie
##Spreektaal
##apsule
Antistoffen
Nucleair
RO
Sus
foet
gata
##drang
##IJ
##schede
169
hepatopetale
##gren
##astomose
gemist
compli
planus
##ridoxine
Restmateriaal
##broek
Intolerant
stamcelt
Familieleden
GDC
Hog
kof
##iotische
##sclerose
##fer
##AP
morb
##1000
Onderliggend
##ochond
##OLOM
Janette
succesvol
psoasabces
immuunhistochemisch
Lefl
Bowen
Port
##chief
gean
Gecon
##ietype
doorlichting
ontbij
neusspray
cuffitis
actiever
Consolid
##009259
alvi
Frequentietype
dilateren
Gemetastaseerd
NSC
##loge
##ioloog
##chem
##orfie
##illa
##thorax
##397
enteroscopie
apicale
Hypon
benaderd
geslikt
tunnel
ontbreekt
WERVELKOLOM
##elokeen
LU
Rich
##oft
geopend
ontstaat
##seffusie
Voorheen
sigmoiditis
##593
blaaswand
vene
vormen
Voldoende
gereguleerd
SJC
wijzigingen
donkere
##lipidemie
##schaduw
##ervormige
Origineel
Cass
Coupe
Sha
##Aan
##tenolol
##asisch
ergens
perirect
##corpus
##sland
plaveiselep
emfys
##itiviteit
##zwakte
##oppetje
kilogram
Kap
MRA
Synovitis
UIT
ggt
##SU
##stoe
gec
ondervulling
##proef
toegeschreven
##183
CD3
Jansen
suprap
cilinder
luchtweginfecties
geaccentu
##edieerde
breidt
geulcereerd
AST
Gor
Tend
lordose
##orten
##olumb
##entje
1969
##404
##issing
stemming
Gewrichtenpop
##429
arbeid
##plateau
CS00052395
midc
Antibiotica
Focus
##grade
##regelde
rotator
##alyseerd
Oksel
WWSP
immuungecompromit
MK
hom
mri
zui
##JA
##reep
##icans
abusus
Open
##ocyste
Meth
##219
##oeningen
trapl
##anneke
reductie
serosale
pathogene
##RAN
Functionele
ovv
Neuro
necrotisch
berustend
accepteren
##elanosis
lymfohisti
Vaccinatiestatus
Fiet
bio
trop
onderzoeker
linkerbeen
huidproblemen
parane
effectiviteit
PCA
Vanuit
LOK
evenmin
ingroei
blaasjes
combin
faeceskweken
MPV
sensibiliteit
aangetast
sagittale
oprispingen
Didden
LL
Vlasveld
korrelig
zaagt
##idi
##igend
##ieso
tijdseen
Still
remiss
##sanaemie
invasief
perineurale
meegedeeld
zaagtand
tijdseenheid
Belde
Zen
kaart
##rati
##geneeskunde
gewe
##beens
##564
hypert
residu
Performance
lumbago
Leverfunctiestoornissen
opgevangen
verdwijnt
##Verwijzer
groeiende
peritoneum
demand
hoekkamer
##beschreven
prettig
glenohumerale
Frankrijk
VU
cutis
##vlees
##IO
##indroom
kleink
Th11
##kelbaar
longitud
##volking
000001000
##plooien
Vrijdag
ablatie
1cc
Ax
T08
teg
##orend
rechtervoet
Engel
##574
AZT
##ionaal
##inderen
ferripr
broers
Dexascan
Gelamelleerd
aangepaste
vlekkerige
gun
wen
##tijden
overgeslagen
##imeter
##rijgen
##maker
minor
herinn
##obstructie
reticul
malab
jeukende
##perfor
afgekeurd
geprikkeld
Gouda
architectuurverstoring
Oesofagus
Dunnedarm
Azathiop
##har
##hied
##sterdam
produ
##202
##contour
linkerventrikel
##issituatie
HbA1c
Recepten
##ycose
faecaal
ervaring
Mogelijke
massawerking
uitsluit
shag
Langs
conservatieve
cotrimoxazol
IRC
##otransvers
Rutgeerts
Etniciteit
pig
vide
##mand
##ero
ophel
##icc
##clips
erge
Aangezien
##issem
##kelets
mesalaz
ileoca
##573
archief
adenosine
beschouwd
##EXAAT
perfor
##insuffici
bleke
idiopathisch
simponi
blokkade
aanzienlijke
elektr
NHL
angiodysplasieen
crisissituatie
Toenemende
subpleurale
##OTREXAAT
METHOTREXAAT
Luc
Mov
Pers
coc
iet
meng
##iod
##zem
##eria
##eresectie
##itaxel
isol
bloedtransfusie
##inflamm
veranderen
accp
##lukt
##leding
ebt
Daarvoor
separaat
3x2
vries
solitaire
elevatie
Veranderd
0x
mogen
vlagen
##lee
##edron
index
voeren
##ibele
longvaat
##visu
##27778
CS00050884
ICM
##ageale
microbiologie
vermindering
mitose
cholestatische
dmard
Ingevuld
##stoestand
Dors
Domperidon
Mir
Tacrolimus
##fei
##oede
##euker
THU
##owieso
ADHD
glucos
TJC
##virus
ulnaire
Parox
##fluorescentie
bisfosfonaat
klauwtenen
cito
tunica
kram
##ande
rechte
Bewegen
##alac
aankleurend
LEVER
visu
Geneesmiddelen
Aanwijzing
Urologie
spondylarthropathie
Rugklachten
patellofemorale
correspondentie
Leflunomide
KAU
f3
mocht
##sstoornissen
##onken
##raden
CS00003833
153
##204
intermed
CS000524
trajecten
celbeeld
geneesmiddelen
opbouwen
behandelend
ulnair
Uterusextirpatie
kamerlucht
subacromiale
foam
KAUW
ASC
Fen
PUL
VK
iat
##inchem
gevisu
##teert
##clitaxel
1965
12x
##562
minus
149
##ibeuker
slijmerig
##illering
check
duspatal
Gedilat
solumedrol
##venties
alternatieve
dementie
afgeronde
instabiliteit
pufjes
##volkingsonderzoek
379
Tri
Terg
T17
fy
listhesis
mU
tax
##orgd
contour
157
Stoop
##124
huishoud
verkeerd
hartfrequentie
oren
##6667
stijgende
##accineerd
renale
spierpijnen
glomerul
herstellende
zooltjes
4g
Getrouwd
TN
hogen
tang
##wisseling
onveranderde
##peren
influenza
darmvoorbereiding
huidreactie
ontstekingskenmerken
##424
##297
dood
supra
macula
Gewrichts
zodra
grensvlak
hyperthyreoidie
bauhini
NSCLC
##feiffer
Gh
Lis
Pra
lun
mc
röntgen
##gist
##bele
##uls
stom
##ioprine
##387
asat
##554
##oordeelbaar
##475
cylinder
Vanmiddag
kinderarts
geschiedenis
##iiii
uiterst
TURP
Beperkte
NederlandsVoorgeschiedenis
rosacea
acceptabel
indefinite
##umbodem
Gos
Veld
##K2
afgeb
##ulder
gehuwd
heropname
##524
##CHTEN
snijden
comprim
loslating
BEEN
Fibromyalgie
lido
Dubieus
##obbeltje
vuistslot
somber
gegeneraliseerde
metabolisme
##RACET
Aureus
BD
Id
Koel
ciclosporine
tijdelijke
##521
182
accum
wkz
##265
##cord
reticulaire
##izine
buisjes
amitrypt
Immuno
suboptimale
Hendrikse
536
Ade
Mn
QT
derg
kool
tw
##Lab
afwezige
##483
stomazak
250mg
bronovo
Stoppen
cellymfoom
##kopp
Microscopische
Diverse
morfologie
verteld
intensiveren
uitziet
subtiel
Specifieke
SCHOUDER
villeuze
enz
##derse
waartussen
dict
186
strekken
MTP2
Plaat
mislukt
Vliet
celrijkdom
tussentijd
nabepalen
rubberband
EMR
machtiging
sw
##gru
##drank
##oïden
verhuisd
aangezicht
##vegen
##perige
##INI
159
##nauwing
Altern
##579
3615
losliggend
segmentkern
intrat
##ushing
aankijken
cyclus
volumeverlies
durft
Oorzaak
##wonend
koffie
Tub
eth
koelen
##eind
##oing
onderling
PARACET
leveren
##MCP
Labcontrole
klinkende
Remicad
PCC
compati
sinusritme
regulair
hoofdpijnklachten
depressief
tussenwervelruimte
Ph
sco
war
zp
##raf
##ineuze
##eut
##ptomen
##505
Pathologische
##agnesie
##193
vitaal
000001009
##eftijd
##299
ischemisch
##orectum
sho
pilon
leverproeven
Granulocyten
Pyel
ligamentum
schorsverlies
##ammag
##opnamen
PARACETAMOL
##ube
##Details
##very
##tev
##projectie
Streef
endotheel
mucus
endocrin
doorgankelijkheid
##acao
vernauwingen
borderline
##irt
##kinson
onderbreking
##aban
##ages
Voorgaande
linkercolon
##uitsland
vochtige
Info
Leiden
screenend
steriele
marker
dexascan
krampend
H180DL
plastic
pseudomelanosis
bultjes
Roodheid
Heg
Keel
Sijp
oom
##ologe
##ipoliep
DDP
##omatose
lisinopril
angstig
##972222
##ART
versus
stofafwijkingen
##elaars
majus
pT2
##hilair
meldt
verblijf
Blijkt
Spe
flagyl
Crohns
total
verwachten
##226
##305556
wanddikte
bezoeken
##288
luchtweg
haldol
virologie
toxische
abcederende
kennelijk
A1L3B1
Gemarkeerde
caecumbodem
Wijngaar
240
tol
##foll
##JD
##leeftijd
##abele
##leggen
lead
##lobus
##526
##5277
000001001
automatisch
Bijwerking
circulaire
Redelijke
##lazide
##68519
CS00037466
Mellitus
lim
##igie
ontv
##cereb
##school
##tren
laaggradig
##gezakte
lengtemeting
UMCG
retelijsten
Amylase
Heidel
kappa
Pantazol
Diverticulosis
##agnesiemie
OF
Wij
bund
hip
puff
##ijrand
afvegen
##voorgeschiedenis
meerder
MDLDiagnose
rechterbeen
Beoord
endop
verlichting
voriconazol
Antw
ulcusje
frequenter
cells
Niersteen
##gedaan
##langs
tibiaplateau
rookstatus
overgevoeligheidsreactie
Huij
Itis
##mi
##neemt
##olich
##amina
afdoende
contacten
000001010
parese
##elfractuur
CS00052910
littekenvorming
knieklachten
verzet
thoracolumb
fundic
vullen
short
depressieve
vlekkige
aktieve
elastase
Immuunhistoch
moviprep
uitloper
bijspuitschema
Litteken
poliklinie
volwassen
ontbijt
pilonidalis
Heidelberg
SD
avulsie
ms
ole
sentinel
##delen
opl
##rijs
##504
leverkwab
Represent
##SEL
longmetastasen
##572
00u
##komende
140S
grijswitte
spiraal
Cervixcytologie
##alicyl
confluerende
##inodulair
stamceltransplantatie
Cran
ia
##hoest
##M1
##staart
##iclazide
aanstaande
##union
alpha
lege
exon
##122
##135
gewichtmeting
##449
##ytstoornissen
spondylose
##olesterolaemie
lymfoplasmac
bewegingsapparaat
##osociale
beschadigd
bronchiolitis
haustraties
Beoordelaars
Ceftriaxon
Tam
Weke
tavegil
##iomy
##nder
##yro
##S0
Datumuitstrijk
stim
1964
Overwegen
##meet
##276
##estrogeen
##metrie
##496
neuritis
Amsterdam
aanvraagformulier
Sliding
##388889
zwakte
manifestatie
##thesen
carpaal
ongestoord
malignancy
##glandulair
GG
Til
Vent
sj
##eve
voorv
##pecteerde
rechterflank
##vator
179
sequ
Verrichter
##283
ECI
neusbij
vervroegde
balans
lymfenodi
Tergooi
Gossens
Bijz
Kind
bac
jij
##vC
##fine
##ingst
##olyt
verlopend
voorjaar
uitlok
##ations
1963
##yme
000001014
tennis
##266
vastzit
Her2
spierklachten
Leverbiopt
MethotrexaatVan
pleisters
interstitieel
wijsvinger
##isfeer
900
Atrium
Jeur
Kramp
Slijm
##katheter
##top
##introductie
##osabiopten
##aginatie
linkerk
Omdat
scans
##spieren
probiotica
nefrotisch
OSG
facetgewrichten
immuunhistochemische
Jejun
claudicatio
Coli
merg
##naar
##ous
20x
verspring
Concre
Aangegeven
##ondyla
##ortel
Stud
Beoordeelbaar
nesten
##134
000001017
##494
##uime
##agnostisch
insul
bewaren
Appendicitis
MEIS
Sedert
zijdig
methylprednisolon
transsfincterische
Mooi
SCT
citalopram
dorst
vs
zone
##traagde
##afdeling
voo
schreef
Beetje
Beenmerg
##292
kwadranten
Bloedkweken
structurele
oksels
actuele
groepjes
naaldbiopten
Witte
wervelkanaalstenose
Submucosale
##otransversostomie
BSC
Pronk
dyst
##itatie
##ida
##ared
##verg
Vert
##rijig
here
toegestuurd
maagantrum
Assist
fenprocoumon
stolsel
##ÿcÿcÿcÿcÿcÿcÿcÿc
geïnfiltreerd
discreet
Middels
alkalische
peptische
paracolisch
Meeste
ontdekt
inlays
PULMON
Cyst
DT
fec
mut
s1
##rond
##py
Inbrengen
##IDING
groene
##sverschijnselen
1009
NeeMCP
Lev
gebiedjes
vrouw2
fragilis
Divert
NPO
Histologisch
uteri
Geschatte
cylindercellen
PULMONALIS
map
##focus
##LOP
colontypeslijmvlies
##sverband
vervolgconsultN
##269
oogklachten
oordeel
vingert
familiegesprek
kwetsbare
fitness
corticosteroiden
Intestinaal
Borrelia
Kweek
RBL
asthma
##atoom
##olip
bevolkingsonderzoek
colosocpie
##101
genitalia
000001040
maagcarcinoom
##277
gewrichtsp
##399
vermoe
##743
Doorlichting
00036
Amit
gediagnostiseerd
Pseudopoliepen
OMHULD
opiaten
veget
vaatstructuren
Droge
fleb
plastische
##ds
##seg
inade
##rease
##cluderen
verbrokk
##ureerde
drukke
inged
##extractie
Chan
intubatie
##platting
##centage
spreekt
Kleuringen
incidenteel
cognitieve
Alendroninezuur
3D
Cef
Carb
Hil
##iad
onwel
aansp
proc
##ections
##wolle
##openingen
parti
##therosclerotische
Rustige
Willems
Perifeer
Wellicht
3584
5w
570
560
MV
pob
uve
wt
##leu
##provel
ulcerosaVoorgeschiedenis
Bekendheid
IVP
persisteert
screenings
##ally
Hartgrootte
Novorapid
inhomogeen
EDV
##idradenitis
##rofurantoine
intrathe
Wijngaarden
Beoordeelbaarheid
Lantus
keur
##ville
##IF
##orazepam
##ids
##electomie
1967
CS000005
##565
##valt
Inductie
##achter
##volgende
vergoed
epitheelveranderingen
Hiervan
Buikwand
Vitale
vascularisatie
##insufficiëntie
##hepatitis
ontlasten
Grootste
taillering
KlaverLaatst
f6ntgen
CS00000537
Dre
F1
Joh
Leeftijd
##jk
##bv
##TT
##ilob
conjunctivitis
##siel
##ysmaal
##bewegingen
transplantatie
##463
adalumimab
INRA
osteopor
strum
##25mg
binnenzijde
bedroeg
borstkanker
schildklierkwab
Radiologisch
Besloten
Intraveneuze
begrenzingen
Potje
Verbetering
Graaf
verwardheid
Q180AL
geanalyseerd
Heidelberglaan
Wen
##dose
strom
ontplooi
##protectine
##ERE
ontstekingsproces
urinezuur
galblaaswand
Moeilijk
agv
condyl
Oxazepam
pseudopoliepjes
Secund
succesvolle
##ecatiefrequentie
luchtconfiguraties
supplementen
Intrapulmonaal
Krampen
NUG
tips
##ved
##invasie
##otox
##rijft
teruggevonden
##avary
##EST
weegt
Week
##BLET
Darmwandverdikking
menopauze
colonslijmvliesfragmenten
##calcin
lymfkliertjes
Vorig
zodanig
SMK
Cassette
msr
wer
##oende
convex
rechtzijdig
Opheffen
schaal
##rukken
ongew
##287
ALT
##exie
billen
vlekken
psychiatrie
BUIKOR
chondro
gyri
encefalopathie
INHALATIE
Bacter
Nek
cle
##inck
##omheen
prov
perist
dagcurve
beoordeelt
##ienteerd
spray
hydrocort
Zoals
O724
familieanamnese
##ivit
navraag
Oxynorm
Celrijk
##cintigram
circumferentie
##allenge
Kuchuk
gevisualiseerd
4G
Melan
atr
lantus
##1T
##bicort
##reotide
##urt
colonpoliepen
##imal
levert
##vate
CONT
1dd20mg
##orieel
ontstekingsatypie
diameters
schouderklachten
##sluiting
##lings
Gesprek
instellen
geinspecteerd
Liggende
Deventer
antihypertensiva
Form
T16
es
##pap
##NI
##ikkel
diastase
##imer
spur
RAP
bovenbeschreven
##erslo
osteofyten
gevaccineerd
maaltijden
##spieken
##roeven
##zakking
getest
hemorragisch
ankylosering
##blokkade
Ct
Zwolle
bios
jacobs
nicotine
insult
##ijkend
rep
onderwand
ontrouw
##rant
##loom
##fiel
genoemde
##379
Endometrium
000001019
hemidiafragma
Infiltr
##289
immob
Arn
belaste
topicaal
Oxycodon
opspelen
##schaduwen
nagelrie
stevig
Tilburg
verbrokkeld
6t
Ros
##ekering
##igella
##arisatie
##ruin
waarsch
##ekening
brush
bloedverl
GEW
schot
##udale
##279
vaatwand
versturen
suppleren
inflammation
CS000521
##drukpijn
densiteiten
##zitromycine
HVZ
traplopen
lymfohistiocytair
malabsorptie
Koelma
Boom
boog
ez
heer
##aman
##depressie
polib
##aplasie
##ronen
mucineus
Bloeding
##fragmenteerd
schildkliercarcinoom
Hoofdbehandelaar
fragmentje
hogerop
obstruerend
Ilse
Duitsland
Wol
glaz
##vor
##vervanging
colof
Opstaan
##spoor
##ontje
endeldarm
koortsig
##608
0880
palindroom
##98148
erytro
Wijkerslo
draineren
toppen
##peritoneaal
levercirrhose
temporom
bevalt
##latin
houdbaar
Vreede
abcescollecties
intrathecale
Hoes
mp
stekend
antagonist
##beoordelen
splen
##5278
##527778
dunwandige
seh
bekkenring
microbi
Cardiologie
Gelderse
Verwijde
MAMM
kyfose
minstens
gelocaliseerd
Jo
Valk
dynam
kerk
pogingen
sowieso
taalbarriere
Includeren
nogal
##ibare
##364
Huidbiopsie
celrijke
bolronde
ribbenboog
pseudomonas
Insuline
##47227
Dens
OME
##mijt
Ingevoerd
##ENT
hydradenitis
##optoe
gewichts
##resectievlak
Onderbeen
ischa
Brum
flardige
##glycemie
Dagbehandeling
toegankelijk
Religie
communicatie
gasvorming
omgevend
nuttig
reports
##anaal
##omycine
Gefragmenteerde
##tec
beslissen
10dd
dysfunctie
##uitgang
##173
consultVerwezen
##532
hypoalbuminemie
vierde
folliculaire
LDL
##arynge
Oogt
bisfosfonaten
elektrolyten
Lymfeklier
ingescand
HYD
##massa
##DNA
##inten
##roting
##oppler
##verig
##asalaat
Aanhoudend
uwi
##ycke
intub
haustratiearm
lobulair
linkerbovenbuik
glaasje
##oxifen
drinkvoeding
##zeggen
isolatie
Wijkerslooth
444
##puy
151
Metastasen
toevoeging
##sactiviteit
hoef
hartslag
handbr
THORA
partum
##entanil
cryptabcesje
Lymfadenopathie
radicale
##umeraat
Galstenen
bekledend
Duizeligheid
beslissing
Afwachten
spongiose
zwemmen
MAMMOGRAFIE
NET
PK
Werd
onmeet
##prikt
Geel
doorgang
darmtypeslijmvlies
stage
gelukkig
AFC
obstipatieklachten
anaalring
femora
##rotiserende
hemorragie
Cytologische
Sondevoeding
supraspinatuspees
retrosternale
Dietiste
2gr
Pen
Test
bunion
ds
geld
pie
tem
##cr
##stisch
##ompressie
opgestart
##roningen
##ocytoc
Beweging
longcirculatie
##163
plaatsgevonden
##STAT
evenwicht
vliezen
##687
SKA
ATN
PUNCTIE
KAUWTA
Pin
fin
mir
##olateraal
Problemen
klinkt
171
##inaemie
neuroch
strek
Cox
##431
thuismedicatie
neoad
Stri
secretaresse
speekselklier
Losartan
Supportive
##ëlongeerde
Paar
domperidon
feest
##aena
##mogelijk
##TX
##ijft
opp
##ospreekuur
##schors
##erkleuring
Nuchter
knieholte
gelig
mez
##224
##braak
##usserologie
Moeite
cylindrisch
brok
voedingstoestand
MSO
blauwkleuring
intensivering
fluct
Ciproxim
leggen
epididym
discrep
MAMMA
Cellcept
BLWI
##levingsverband
monitoren
PBC
Som
##pi
##suik
Contrast
##artsen
overstap
diaph
##RICHTEN
slotte
##visite
CS00050467
hypox
pancreasstaart
luchtb
eindst
voetbal
jarenlang
Bilirubine
NICE
Maartens
cardioversie
HBs
NASK
##antheem
begrijpt
##granulomen
superviserend
VM
##pjes
##In
##EE
##asci
##ocon
##668
screen
Volume
hormonaal
kernp
##raaien
##opauz
horizont
##vvvvvvvvvvvvvvvv
sheath
HM
Hormoon
ie
num
##ipr
##005
opwerken
##atieven
afplatting
anal
##uwde
##covery
Proef
##spoeling
##weest
ontstekingswaarden
##strueerd
arthrotec
Spondyla
##286
LON
Leyten
bedrust
##ISH
paclitaxel
perfusiedefecten
overgroei
papillaire
Dieper
vertonen
humeruskop
bewegingsdrang
uitgepon
gezamenlijk
gecorrig
##ephrolithiasis
zuivel
diaphrag
Montoux
liep
##aedie
##by
geÂ
##rea
##ures
##rach
contouren
voorsp
bloedt
spi
15x
15mm
expressie
rechtermamma
HAV
0000010018
##7963
schouderprothese
mondeling
##mucosabiopten
##nerse
digitaal
redenen
Desondanks
ESBL
tofa
invaliderende
opengeknipt
850
Dip
Sv
Sacro
X1
##nek
##tonen
##cap
##idectomie
Alb
1dd100mg
verkleurd
heupgewricht
##kwash
##268
##280
etiologie
##komsten
shock
Hartfrequentie
##cyturie
snijvlakken
Stress
tunnelsyndroom
veilig
Ol
Uveitis
##leten
##vpk
##flow
##oria
inb
anitis
darmischemie
##205
schomm
Th10
milj
##425
beoordeelbare
niertransplantatie
##structieve
##589
botscan
postprand
##ivert
##234
kerato
Kleibeuker
54551
##2007
Primperan
episoden
Witkamp
paranasale
50000
GJA
VE
##etische
##ends
##ietherapie
hoogkl
Diurese
##ariq
meso
Cataract
ileocolon
##sfocus
CVD
stijver
ribfractuur
stappen
Hydronefrose
Medicator
reageren
straalt
advanc
DOOR
amyloid
laser
posterieur
wigvormige
Hellmann
Ghariq
olecran
Twijf
but
drager
fout
##620
##xcisie
##yct
##teen
bijvoeding
voorschrijven
##vest
000000
Alopecia
Enorm
##houdingen
##sneden
##171
##usculair
capitis
dochters
toxine
##apsulair
Pyoderma
dundarmlissen
IJzer
##bescher
release
hamertenen
Atherosclerose
Beter
Fr
Hiel
##tieel
##orende
callus
Reage
##481
maagresectie
efnd
apart
benad
##olieten
uitgebreidheid
##scap
onderhoudsdosering
verlenging
##dissectie
grillig
koortspieken
tags
Mooiweer
spurium
Duur
Ifx
euthy
æg
##ain
onderzijde
200MG
##istiek
##arter
##arterie
80cm
vriendelijk
middendelen
PIP4
sneltest
optimale
toiletgang
gesteelde
weefselstukje
##werkend
epiduraal
compatibel
DH
Hev
High
bact
burn
fL
vgls
##aut
##time
##PRAZOL
000001033
efnf
##906
APC
leverenzymafwijkingen
gepronon
besluiten
verstandig
CustersLaatst
oogheelkunde
Treitz
epicondyl
gunstig
zink
##poppetje
##zover
##inis
##ariteit
revers
##testen
conisatie
##aklachten
##577
##auville
haarfoll
behandelingen
restafwijking
alcoholische
clysmata
Perindopril
##weekt
CS00000007
symph
arteriën
belemm
ovaal
##heidsstoornis
geinduceerd
##butamol
##VASTAT
herhaalrecept
intoxicatie
bifurcatie
scheenbeen
8mm
Dank
Past
##intense
##enda
##oezem
##imum
##ellulair
##701
Alm
lymfe
verdriet
intraepit
##verdacht
500cc
Antistolling
antibiotische
##vlie
arterieel
Nierstenen
suikers
trough
NGS
Verkrijgingswijze
therapierefractaire
opspuiten
sprieterig
alarms
Ao
ful
fidder
flebitis
intensie
afzeggen
##agt
progr
##scheur
Deauville
##tere
Colectomie
MIRADS
huidoppervlak
##illi
gewrichtseffusie
##metaplasie
##174
enterovesicale
antiTNF
##154
Recidiverend
##diagnostisch
coronaire
aanpass
##culatorius
Nierfunctie
##425926
##203704
##omedrol
punctaat
CS00018104
rhonchi
Deelname
Consolidatie
LLZ
Vriend
bukken
fat
m²
##aaro
##ingers
184
lacer
##infusie
fistelkanaal
blijvend
serop
cervixcarcinoom
orthoker
dunnedarmlis
A2L1B2
DEF
Rycke
dar
##maat
##onsteking
##opende
aangeven
doordat
##uncteerd
leiomy
2000047227
staven
##37963
apotheker
Venofer
##rofumeraat
glucoses
##omedine
hypodensiteiten
geprikkelde
gepigmenteerde
Studeert
515
FJ
Langer
##ux
##setting
##will
rech
inflix
##ireren
gewrichtenpoppetje
darmgas
##3796
verkrijgen
Medicatievoorgeschiedenis
Ontstoken
positiviteit
snijrand
##gevoerde
ileocoecaalgebied
##smateriaal
beschouw
beschadiging
simplex
Heberden
Endoscopische
Leeuw
peritoneaal
##703704
groeit
ontregeling
##alaciclovir
Pyelonefritis
FBR
OL
Voort
ZO
ket
##beg
##yel
##leason
verpleging
##unter
##elding
transplan
Aften
subdur
begrepen
intrahepatisch
##ionella
coiling
390
trombocytose
subcapitale
diarhee
immuunsuppressiva
##398148
Urinekweek
resectieranden
##bekleding
Brumsen
Amox
Ion
##skelet
##iner
enc
verplaatsing
reek
Geinkt
##ocapsule
doorgesch
##pping
025
##53704
##indering
coagulatie
##498
spierver
richtlijnen
bulging
LAb
PIF
alendronaat
##piegel
streep
reumanoduli
##icoxib
liquorruimten
##osplenomegalie
cryptdestructie
natuurlijk
Alfentanil
F0
Sections
losec
wind
##006
##ekerd
opgem
Scherpe
niercelcarcinoom
restrictie
afwachting
spierzwakte
##903
locaties
halfjaar
mobiliteit
synovium
portie
belangrijke
psychiatrische
Samengevallen
Macrogol
kleinkinderen
GEWRICHTEN
##puytren
Diep
##sproctitis
geperfor
##ijnde
##ocoecaal
##schatting
##IER
##ecept
levator
##707
endoxan
##engt
##172
Startjaar
##ALE
2dd500mg
##665
Hemocyt
Levercir
nefrost
Ferro
2000066015
Neoral
blokje
duimen
##abcessen
2mnd
##5694444
Curacao
##ammaglobul
##paan
##sregel
##vt
##omot
##ocol
##ensies
##spin
161
##opties
##infiltraat
huidafwijking
langwerp
interactie
witgele
urgen
verzetten
##continentie
##185185
algeheel
Atorvastatine
gegroeid
neuroforamen
hypertrofische
vitamines
endoprothese
ontplooiing
1gr
spec
##ucht
##cu
##oside
contr
ondervelden
##EROL
Overdag
lymfopenie
lichtref
##798
##ceptin
##262
ontstekingsinfiltraten
##773
plant
psychosociale
diarre
ovaria
Oosterkamp
mucosabiopten
##VASTATINE
Hemocytometrie
Fysio
Kooij
Scan
VF
fut
##oricoxib
strang
team
##imen
bloedvaten
Engels
##toy
0000010021
##263
aandoeningen
##cleritis
biliaire
##2083333
Tussendoor
endocrinoloog
##siella
Dure
Diltiazem
TR
Vg
##onecrose
##italis
##rozen
overgenomen
uitgezet
##hole
4308
##ynon
##301
spierlaag
hematomen
Elke
immunotherapie
dikkere
##4861111
obstructieve
##hernia
representatieve
Onbegrepen
submandib
mitralisklep
Halfjaarlijkse
Hypokaliemie
Conditie
Doorgankelijke
CS00002720
##ycturie
Kenmerken
iig
pann
##GEL
##°C
##orisch
##ijdt
Beleidsregel
152
Afge
gedistend
hyperpar
24uur
vervolgconsultP
drukte
hartritme
##gesteron
##241
##shoofdpijn
3x1
##riebel
sclerotisch
RVK
vloeibare
Antoniushove
renalis
sarcoïdose
ontwikkelde
methode
penicilline
##166667
contusie
Complex
zijsnijranden
##ocystis
symphysis
Klo
Ot
RH
Sellink
kok
sha
wonen
##bijz
##ROL
##chine
##olytische
##axis
##cip
##geschikt
expiratie
##mmer
dataman
decubitus
##roph
##443
alcoholabusus
reflex
sclerodermie
satell
ntb
grade
gespoeld
Staph
Laesie
##zwellingen
onset
standaardprotocol
Relatie
CS00037548
bedrijfs
Norovirus
syndrome
miskraam
Hevige
Jagt
Mv
Sander
Sicca
jugularis
mits
zijk
##zuigen
##DF
invol
##idis
##igerd
regressie
##raject
gewone
gezakt
##beper
##spot
slijmvliespatroon
##akantie
##akary
##191
hypervasculaire
4280
000001012
moeiz
hemisfeer
corpustype
##efoll
##594
consul
##onenten
verbeterde
490
gelegd
hematemesis
##694444
switchen
Stomaproductie
Geneeskundige
neoile
Medicamen
tuberculum
trappen
overeenkomstig
##uuuu
cobblestone
myomatosus
##spanningsoefeningen
NK
Orale
dien
zweet
##Op
##YL
##ijpt
##aaaa
bijgestart
onderdeel
overgegeven
diazepam
1110
##irolimus
##oda
minipoliep
##moid
##702
lymfefoll
##blaa
lues
echogeleid
Wilde
##74074
Longziekten
adnexextirpatie
nuchtere
nierinsuffici
gereguleerde
##oplasmose
Verkalkingen
CS00052492
casus
retrosternaal
Bicarbonaat
paraneoplastisch
Sijpkens
Einde
Heter
Vals
Veen
globus
lysis
##groe
##oject
geer
##regels
PA8
artsen
##ofib
Ophogen
##427
##394
##ionering
postmen
papels
wondinfectie
bloedingsfocus
Duplex
2000066022
toxiciteit
##normale
Ulceratieve
##compens
CS00017062
asymptomatisch
Kortdurend
zolang
ulnaris
A3L3
haemorrhag
Ventolin
geÂï
Ht
Rif
T15
cu
lijnen
lukte
mod
##Na
pijnsyndroom
##voering
##UMC
##331
NeeZwelling
##ynch
70mg
3750
##hincter
##574074
Brink
Lymfoom
IP1
Circa
familiair
wervelinzakking
##953704
retrospect
##564815
PREDNISOLON
Atriumfibrilleren
FJW
AMP
Aneur
Ip
LMG
NV
Tav
lyrica
##part
##GL
programma
Indeterminate
##cendostomie
verdikkingen
proctoscopie
thoraxwand
vervolgconsultV
Bricker
APTT
Opnames
invaginatie
caecumpool
systeemziekte
systeemaantasting
fibroglandulair
tandvlees
fenomeen
Palp
##alicylzuur
Zaalarts
fot
hun
home
##iaties
##pneum
##cken
##banden
##heer
gecan
geirrit
versn
##lance
neen
##362
hypere
ileocecale
efne
onregelmatigheid
rondkernige
orthopedische
geinfiltreerd
wijzend
overeenkomend
vlekkerig
Virologie
Ingrepen
Abdominale
pinpoint
langzamerhand
beschouwend
##toyage
Birads
Erosies
Tramal
e0
vp
##iend
##plooid
##IOS
##aaste
bijm
uitkomsten
colonscopie
##ireerd
000001018
acidose
##177
extravasatie
##787037
menisc
geplast
hemorragische
Gedilateerde
biosch
polibespreking
##bijzijnde
8dd
Fraa
lif
##vaccin
inkt
doorsturen
dd1
##voorbespreking
##vullend
##lanto
chromoendoscopie
Total
histopath
##164
Tweemaal
buikwandbreuk
ovarieel
Vedoluzimab
Bericht
Predn
A2L3B2
meninge
bovenarmen
##nodus
ventolin
apoptose
kauwtablet
aanpassingen
Pfeiffer
Syst
##oniazide
##olair
##ititis
##rokken
Geef
afgesloten
##abole
dimeer
omliggend
schild
Pijnscore
verstopt
Anus
##cyst
##omata
genezing
Stad
bevestig
##ocaïne
Sigmoïd
tibialis
vervolgconsultGMA
gebeuren
inhomogene
##7083333
vernauwde
010018
foveolae
Grevenstein
geweigerd
1MG
Gun
Mit
Mid
slij
##stom
opport
1014
##beelden
darmmucosabiopten
bloeden
Overvulling
##trouw
##kernen
nodule
anuscarcinoom
##284
postinflamm
##ithromycine
Vallei
moeilijker
gescheiden
2d1
uitstulp
##organis
pulmo
smeren
##arthritis
Duru
tussentijds
kruisband
sufficiënt
otitis
translocatie
LUTS
mcv
9x
Gele
Glad
Sin
aur
balie
borrel
hees
pem
##aed
##kuren
##ieze
##orptie
##etron
##stri
##ECALC
antide
Ongem
distributie
subser
##kerig
##leurde
##lash
relaparotomie
##908
Trombose
Stenoserende
portat
Postoperatieve
melanocytaire
intestinaaltype
##litteken
herhaaldelijk
vliezig
weigert
uitsluitend
Hilversum
diaphragmatica
gecanuleerd
Disc
Hooikoorts
Ital
bip
vel
##vd
##olysis
deg
##oeet
ontplooid
colonbiopt
##lasta
resectiepreparaat
gekweekt
vetnecrose
##enteroloog
myomen
mammaweefsel
##ificeren
Lokale
##TIEF
gelux
uitblijven
A1L1
douchen
datamanager
350
Rf
Savary
cutaan
hidradenitis
pd
sen
##armoede
sparen
minusc
plasma
MTx
##utieve
##NCO
nodulus
Spastische
achterhalen
Bloedkweek
##gts
3xdd
antistofvorming
defaecatiepatroon
Partiële
fibroadenoom
##gastro
##ominis
BPH
attenuatie
Gorinchem
neusbijholten
LP
Mate
Ooster
toedien
onstoken
##icil
##tags
colitits
ileacaal
subklinische
mesorectale
##half
terugkomen
Anastomose
doorsnijden
cervical
geconsolid
meloxicam
invent
##75mg
IgG4
geinfecteerd
onderarmen
herhaalde
Lactose
glutenvrij
diastolisch
continuiteitsherstel
##tevreden
Levercirrose
LNN
elastisch
pete
##TER
##cture
depress
##unktie
##407
##ideus
##ceus
1dd40mg
hyperaemie
mesalzine
000001020
huishouding
vaatproliferatie
vitB12
drukgevoelig
##platen
##pkracht
##own
##CARD
ontwikkeling
##rika
artefact
erythrocyten
thoracolumbale
##spinatus
##si
##bladen
##waren
##M2
##olen
##eser
##rok
##tail
uitschakeling
##lange
##101852
Oplopend
##consul
lastige
##patro
acra
Blok
verbetert
achterste
##roxide
##roege
Longarts
ineff
luminale
Bergman
veldjes
HIX
##ypering
vreemd
##arcering
Haematologie
Hove
MYO
fac
lar
##Colonoscopie
##hoging
##S1
ontploo
1960
gezw
geha
schroef
hieraan
187
adrenaline
CS00038059
huisstof
Nadere
##571
Adh
0000010014
pleuraal
microcytair
##bregts
Trig
Pneumothorax
naevocell
middags
moleculair
lumina
##5972222
##eeeeeeeeeeeeeeeeeeeeeeeeeeeeeeee
oplossing
Borst
Covid
Gleason
Ka
Oc
hoort
hominis
nifedipine
wenst
##lend
##aie
##mot
##icason
alert
##ptaal
##ontlediging
neef
toeneemt
##42459
verkeerde
##ureau
comorb
quad
##151
##witcht
viscer
tegenover
##gerel
##zepine
vlekjes
infectioloog
JaProthese
Rugpijn
aangrenzend
longnoduli
Maartenskliniek
lichtreflecties
EMC
Tof
fur
##draad
##hisc
##Ad
##okokken
alien
##uikt
excl
linkerelleboog
1003
Afvallen
luchtbellen
bota
##calc
##ROT
transfer
##regelen
scheiding
Hormoongebruik
spierverzet
Gon
Hindering
Sarco
Xyl
kriebel
led
traag
##daling
##wet
##oning
##schil
spo
##utter
000001047
##422
thoraxfoto
0000010027
##avir
telkens
losartan
ontstekingsreactie
begeleidende
effusie
femoris
##sulosine
jeugd
hypomagnesiemie
##calcium
COLECALC
##ocytoclastische
MYOCARD
Az
Mala
Ta
woe
##zal
##atemie
Concl
##abis
linkerschildklierkwab
000001046
vaatpat
##ester
CAR
hall
##omatosis
achterlaten
Slokdarm
Sterke
Menstruatiepatro
Perforatie
transpireren
##nnnnnnnn
##monding
tendinomyalgie
##hoewel
ileocaecale
intuberen
FLU
KZ
MUST
Nel
jou
##mar
##ogel
constipatie
afvoerende
##eleiding
Studie
pleksgewijs
Cardiaal
Acne
overvullingsbeeld
##EFSEL
WEEFSEL
cycli
Urinesediment
Kokke
Huijbregts
vingertoppen
##hiscentie
270
Fiss
IL
##LICHT
##ishuizen
onger
##entorieel
onderging
staar
stylo
gewisseld
CS00042459
##162
Extern
symm
##diff
Behandeldoelen
bacterie
Dexamethason
fluconazol
aanzienlijk
Adenoom
FritschLaatst
##injecties
Q165L
HLK
51543
datamanagerLET
330
##sproblemen
##etr
uitvragen
exantheem
Coll
gastrale
hemolyse
##volumab
##393
##ubeerd
##oonde
Ontlastingspatroon
meneer
Oxy
hemangiomen
bewegingsartefacten
opgeroepen
##verlof
azathiopurine
##espiegels
Afbouwen
ostium
Doel
F620
Groningen
ITP
Souf
Yild
ader
ide
nephrolithiasis
##750
##wortel
##elink
meta
verme
##ocopie
ileoscopie
##irim
30u
Beishuizen
##555
25MG
##ylococcus
##604
consultA
Huidstans
##iliitis
880
embolie
Primair
BIJ
##apseld
macrocytaire
multinodulair
fragmentatie
AMI
rillerig
Bosman
Lichaamsgewicht
curvat
adviseerde
Onbekend
haematurie
gelobde
producerend
fibreus
allerlei
##Aanvullend
##areductie
Wenink
Wolters
kerkringse
THORACAAL
220
LK
SLO
##inisatie
##rec
##icure
##onderheden
##cont
schroeven
Metoclopramide
000001049
vaatschaduwen
drukken
oesof
##669
ambul
achterzijde
tubulaire
psychisch
nekklachten
hemorroid
genezende
necrotiserende
rommelt
myelopathie
bijgehouden
herstellend
Hemorroiden
morbiditeit
Yildirim
Gata
ZP
duren
wisseling
##IST
##orpen
ontregelde
uitspraak
##minutieve
MAX
vaatchirurg
##ORT
resistentie
reage
##591
behandelde
##534
DIS
tussenliggende
keratine
Beeldvorming
##vloeding
Hypovitaminose
necrotische
doorgankelijke
Klaagt
lowdose
##iculare
biopteur
Accoord
Combinatie
sufheid
temporomandibulair
DOORLICHT
And
Hund
HGD
ranitidine
yog
##rien
##Pa
##isurie
opkn
##sectomie
1962
lezen
gestoord
##akken
passeert
##uticason
301
subscap
desondanks
rusten
fistelopeningen
vervolgconsultM
arthropathie
##8889
DCIS
Hyperp
Pancytopenie
juiste
Streng
doorverwijzing
gebeurt
falanx
levenslang
leefstij
Aanwezigheid
Behandelplan
Lasix
combineren
vaatpatronen
DOORLICHTING
Hol
PN
TOT
WB
dyp
draagt
hoop
put
packyears
##my
##Is
##orens
##umul
##reis
##ilen
##degeneratie
##vene
##procedure
CS00003834
##mindering
polivoorbespreking
##toilet
##plug
##886
functioneren
gynaecologische
Arends
cystitis
cerebrale
Begon
wekedelenzwelling
deformatie
VOORLOP
IJzergebreksanemie
vernev
bioschemisch
MIDDE
parië
rapp
tolerantie
##9mg
##oi
##amb
##alat
##istaxis
dich
##adine
##steatose
##irizine
##ofarynx
##461
##235
TIJD
##diarree
T05
Seretide
BRCA
asymptomatische
roesje
longitudinale
ebtiste
rubberbandligatie
bu
binn
fruit
fertiliteit
##kam
artroscopie
##bestr
labcontroles
plavix
toepassing
1002
##592
##buikhelft
HAP
consultH
insertie
Gedi
avondeten
bolvormige
##GANEN
aanvalsgewijze
urotheelcelcarcinoom
Afwijkende
##STEMI
comprimeerbaar
Cefuroxim
ezis
OMEPRAZOL
gecorrigeerd
Soufidi
Burg
K4
Kran
Kah
X2
plex
vage
##sbiopten
##sveld
##zaar
##fst
##elv
##008
##essen
ondergelegen
##aby
##agenda
probe
##perazol
1126
Metingen
##ractair
##ioen
000001050
maagplooien
stomazorg
##531
##creening
manier
Herhaal
myometrium
microkalk
Rectumslijmvliesbiopten
afhankelijkheid
Urlings
Broek
virusinfectie
Corona
Slechte
##jjjj
infraspinatus
groetIrene
Reageert
DEFINI
Complexe
Dikk
cann
fijne
kost
lnn
pes
##gly
##oplatin
waarschijn
asdrukpijn
Totalen
1779
neigt
mesavant
##lexie
Scheur
##305
schouderbladen
amoe
##888
myositis
thoracalis
Doorsnijding
paravertebraal
fissur
Notitie
levels
##IENST
##isolatie
laaglumbale
octreotide
##bolisatie
##catheterisatie
gecombineerd
##olichocolon
##Advies
Cop
GERD
Os
Positief
UD
fasen
sotalol
vroege
##este
##tekort
##ora
##ley
##rogene
inder
##reparaat
1011
##jejun
##osteron
##uitvloed
hyperglycemie
defense
000001048
maximum
propranolol
feceskweek
zittend
##parende
##boeren
celarm
800mg
Neoter
Visus
acromion
Automatische
Atypie
alvorens
begrijpen
mastoïdcellen
kiemcentra
backwash
Arnhem
fulmin
Bu
T38
##ilia
##emir
uitgel
diab
##trusie
linkerlong
##371
interc
601
Spontane
##adenitis
dow
bilateraal
aangewezen
navelbreuk
Serologie
Mediastinum
piepen
rommelig
54200
histopathologisch
Epitheel
Grootte
GGD
Lyme
N4
##lic
##ëx
##GEN
##chle
gee
##vere
onderdruk
dim
##voeten
##loid
181
##ositioneerd
handp
3712
gelezen
computer
ilomedine
##907
microg
musculatuur
cortonen
Cholest
fibrineus
persoons
vermeldt
Lamina
CNS
Comans
087090
Segmentele
persoonlijkheidsstoornis
088090
meniscectomie
TIJDENS
Roef
iF
##verschijnselen
Geëlongeerde
afspr
projectie
Vergeet
##imin
##iren
##maand
##erenkel
lichtbruine
4278
mucosadefecten
##iculopathie
Periode
Herwaarden
##olifer
onverkl
projecteert
bijnierschors
gezichtspunten
##avegyl
##cintigrafisch
Hallux
##ylsalicylzuur
astmatische
botdensitometrie
Jejunum
Dikkedarm
625
Eg
Pak
Rx
So
ach
hui
##pte
##systeem
##fax
##enummer
##ating
##atien
##dense
##emi
Vervoer
##ffine
##beweging
##uurman
prednisonkuur
Afteuze
fistelectomie
infiltraatvorming
kleincellig
cystevorming
veneus
Nachts
##tended
##butamide
hechtingen
dwarse
remission
Duidelijk
eg
##kas
##bda
##abiopt
1004
hypermen
hyperintense
verkorten
handartrose
hydroc
Chromoendoscopie
Overlegd
varix
triam
lactaat
onderscheiden
breiige
##hechtingen
tamoxifen
Mediastinaal
Asymptomatische
hoogcil
cleanprep
benadrukt
ongerust
Bere
DIENST
JWI
Kracht
Plek
nycturie
##wed
##elman
geisol
onhoud
Gevallen
##ocor
##inkte
mgVerslag
overge
##impressie
##OPRAZOL
000001011
##585
atlanto
telefonische
Linkszijdig
dyspn
slijmbekerd
##965
400ie
dunnedarmpakket
Duijn
talus
cystes
Plaatsing
##immel
Steen
thrombo
fietst
amoxi
Lipitor
Janssen
brandend
Delft
fibroserende
Nevenbevindingen
Hegar
slijmbekerdifferentiatie
724
Sweet
VDF
hix
##007
##laps
##opeen
vertraagde
##une
##INNEN
Stre
Afmeting
##271
Nav
terugkomst
##ubisch
##lebogen
##ortage
hartinfarct
Splenomegalie
Rectosigmoid
contraindicatie
##usculaire
componenten
trombocytopenie
ORT
borstbeen
Leverproef
##infectieus
vervolgconsul
ijzergebreksanaemie
Diversion
##theroom
Pulmonaal
Dermatoloog
bloedingsproblemen
087070
53641
Adequate
##aaroperatie
AIE
BINNEN
Scintigrafisch
TY
diltiazem
gaande
mig
##ringen
##oond
##yen
##ama
versmal
##geweest
PANT
1513
##epteerd
Colont
1629
##335
intermit
##ORM
intrac
verwijs
brach
verzw
monon
bolus
Reumatoloog
Benige
canuleren
verslechterd
populatie
feitelijk
SOA
Visitenummer
BUIKORGANEN
Kahler
256
DGO
Nieren
certolizumab
##uromy
##sud
opmaken
##imoid
##aanse
braak
labagenda
##lastocystis
ivCreatie
##onger
geduurd
subd
Endo
cryptver
atlas
coh
##ansetron
vlie
regulatie
immuuntherapie
reacties
verhuizen
##ocyturie
neusverk
heparine
Pylorus
VasculairGeregistreerd
paracard
gepasseerd
VOORLOPIG
CL
Cushing
D4
kPa
##row
ontevreden
##ogast
##osies
##icaliteit
nutt
uitgez
uitscheiding
##peratieve
1117
##minderd
ivVerslag
slijmvliesfragmenten
veelvuldig
2500
gedrag
INGEV
##267
commer
##sfracturen
voorafgaande
opstart
melaena
oesofagusvarices
Medicijn
##ricalis
pseudomembraneuze
##LLLL
ferriprief
##vliegers
PANTOPRAZOL
##uromyose
NSTEMI
eraf
land
##TOP
##esm
##ald
##deels
##elijkheid
Drinken
##apamil
##iepte
leversegment
##ulare
##555556
boter
keratosis
screenen
infusies
1d40mg
Stenosering
stroef
##kopjes
schoenmaker
bevestigen
mastectomie
spuitinstructie
classificerende
dmv
retrospectief
ileocoecitis
cicatr
Azathiopurine
##keletscintigrafie
##asalaatcalcium
3705
Bioch
HJM
KRAS
Losec
MON
dam
wink
##AN
rehydratie
##peus
totdat
##akking
183
vitale
##rodilatatie
##581
geraakt
Doorlopen
##499
##784
##agement
orthostase
efdose
bezocht
Folder
varic
gepuncteerd
aangevuld
Partiele
CS00025923
verklaart
##ervormig
JAK
Dalspiegel
Kennis
amitryptiline
##leugel
MIDDELS
DEFINITIEF
ARM
Tol
hang
ras
##vit
##vingen
##VG
geinkte
##verkle
##unist
normalis
brid
exclusie
beeldbel
linkerb
20000366
herintroductie
##606
##609
hemodynam
fistelgangen
duodenumslijmvlies
##aandoening
superf
PIP5
Echorijk
PerkPremedicatie
##lapa
gedicteerdCreatie
albicans
CS00052493
biopteren
##lokalisatie
D2W
Aneurysma
Derk
Gooi
Kleuring
TIN
nara
raar
sg
sum
slow
##got
##groei
##stellen
geantwoord
##ithy
##endens
##ullaire
polariteit
1113
##ostose
188
maagbescher
225
vrijwill
##arenaal
clon
##riteria
Heropname
gescre
Smits
lichaamsmateriaal
##pakt
vulva
grac
##148148
CS00003799
Longbeeld
lippen
##stukje
kaakchirurg
Angst
Lichaamslengte
Shigella
uitgangs
1D1T
behoeve
Marion
onderlinge
##ingstijden
##otoxiciteit
BLA
IG
KH
Mel
UGE
kruize
tent
vc
##meren
##cerv
artrt
pijnaanvallen
work
pollak
##beurs
##ensman
##ateri
ileumbiopt
##yph
plakken
##211
##openem
1dd10mg
Schol
nierparenchym
echogene
##orsies
dunnedarmtype
vermoedelijke
gepositioneerd
PTH
darmslijmvliesbiopt
##vascularisatie
##stitutie
A2L3B3
wijziging
NAG
asymmetrie
intermitterende
pedikels
nivolumab
Varicella
tegelijk
subscapularis
TYBC
C04
Eijl
Freq
Houd
Ovar
Punctaat
##upt
##derende
##ilaterale
##asparende
star
##richting
overmatig
##oogd
PAC
Prins
neit
ada
##pleister
##yster
oesoph
##980
paravertebrale
geïndiceerd
Arensman
shunt
obstructieklachten
herkennen
nevenbevinding
Informatie
##juvant
##behandeld
Relatief
Verklaring
collageen
bronchuswandverdikking
insteekopening
osteosynthesemateriaal
Zorgvraag
##ryver
teleang
wanord
meegekregen
uitgeponste
callusvorming
Atro
Hum
fusie
fasci
pens
reresectie
##fe
##Time
##chol
vanco
ondervoeding
uitgevoerde
##spuiten
##oordin
##pitheliale
COMP
189
hepatosplenomegalie
hemoptoe
Mediale
ziektewet
Hieruit
##entriculaire
handfunctie
##ertje
immuunfluorescentie
ulcusmateriaal
Acker
Ileocaecaal
tube
Urineweginfectie
obstructief
visusklachten
geinspecteerde
resectierand
##septum
alienum
Gedicteerd
persoonsgegevens
CLL
MOL
ON
cot
cod
lf
vh
##iing
##ceerde
##stijf
##omast
station
darmkrampen
##ustreerd
##cebatie
##ova
machine
4298
abcesdrainage
terugver
teruggekomen
arteriele
zakken
geleidingstijden
Bodem
alternatieven
Prikkelbaar
plooiing
nitrofurantoine
chondropathie
ramus
artritiden
psylliumvezels
Strictuur
##opauzaal
huisstofmijt
naevocellularis
comorbiditeit
PP
Voel
Virale
elastische
valaciclovir
##OD
gefragmenteerd
##igers
##acr
asp
Starten
granulaire
Afleiding
huishouden
Schryver
Gebruikte
baseline
Onderste
perfect
cortisol
##allon
overgrijpend
Chirurgische
takken
##STEEN
foetale
colofort
Palpabele
##bestrijding
##aterialen
1j
Donderdag
wh
##goed
##loc
##iogram
##inal
##ston
afnemend
##ysmas
infl
ulc
##ymptomen
##kewed
exsud
##MCG
Labcontroles
##ync
gevoeligheid
wandaankleuring
##261
eindstandige
brad
Meslazine
ijzertabletten
polyart
polyartrose
bilnaad
Basale
transversus
NIERSTEEN
##mobiel
radiusfractuur
multifocale
Langdurige
patellofemoraal
Guner
gehaustreerd
Eijlers
GS
ID
PL
ZK
ogv
titer
wa
##Gew
##asa
##asmen
ileiitis
suic
##cess
Dient
hepatomegalie
000001013
maagbiopten
parie
Adipositas
intracereb
Ander
aph
##reekbaar
nettoyage
mammasparende
##prikkeling
Gallee
Actonel
zodoende
femurc
notitie
depend
prostatitis
lithium
Infiltratieve
640
Vonken
Zes
dame
eelt
pons
##mic
##vleugel
##ROM
##erbaar
##inge
Verstr
CS000003
leverf
leverafwijkingen
rechteratrium
1dd50mg
##603
Ontspanningsoefeningen
##oidale
##251
##909
warmer
##976
mobiele
middenvoet
Staand
macrocytair
Klier
transmuraal
Symptomatische
Pyrosis
polymyalgia
collateraalvorming
Definitieve
aanwijsbare
styloideus
Bac
azitromycine
##H1
##intake
##anen
##umato
##osclerose
##geel
##clitis
1959
##apine
##212
1781
galblaa
2400
fibroom
3600
##969
bovenbuikorganen
organoide
grijpt
trombosebeen
predni
CHI
liesbreukoperatie
kennismaking
Vaginale
peroneus
centrilob
dergelijke
stomazakje
postinflammatoire
ineffectief
Colontype
BA
Koop
Lie
Vroeg
kijk
##irant
##stro
##aminatie
##rab
##iloc
##enthol
##advies
linksonder
Voorkeur
rechterhem
##392
resistent
niercysten
hypoc
ooglid
luchthoudende
circulatorius
FNH
steroïd
CS00003798
melanocyten
penis
Rusten
hypokali
Lactulose
Orthopaedie
Groeneveld
##oezemfibrilleren
Derksen
CS00000351
4366
Bovendien
DES
Rok
erover
kent
##eis
##rica
##mab
##ngen
##oir
gehand
##vernauwing
##ichte
##otone
besp
uitzoeken
##ativa
Stij
excer
duplex
nierbiopt
##441
checken
Wilt
CD20
hadden
cardiologisch
lokatie
73222
jej
Correctie
##maligniteit
Ernstig
onduidelijkheid
overwegingen
Gelinck
wijzen
Bena
##leesbaar
Sepsis
nitro
skintags
silic
POST
IRGL
leefregels
Bleek
omringende
Dw
DV
Rog
SWK
Zet
ss
zoek
##aking
##spe
##bos
##stad
##olab
##ament
##aron
##verbr
10kg
artrotec
block
bloeduitslagen
herbeoordelen
##uck
granulocytair
##toide
interesse
latere
verlof
kleinste
##osinoph
retina
keelontsteking
##351852
passagère
##riceps
Nefrolithiasis
Bilateraal
Soepel
goedaardige
coccy
keurig
##gotinib
Maas
Seg
back
ecz
mist
occ
##roren
##kracht
##VER
energ
##idaat
opval
##aspect
##ista
anore
##implantatie
1961
chlamydia
kleuren
koortslip
000001034
prevertebrale
micros
kinderleeftijd
gecontra
motor
##972
laatse
nasofarynx
overgrijpt
Kindergastro
actinica
TEE
Irreg
KAUWTABLET
Biochemisch
##laparotomie
2kg
GC
Icc
##inj
##ample
##omale
##iopulmon
uits
minste
rechteradnex
##ibiaal
induct
##vormd
290
Hieronder
##294
Braakt
heffen
bronchiectasieen
verzekering
borstkas
Parkinson
Ellebogen
##ommel
Sterilisatie
uitgerijpt
bemoe
karakteriseren
depomedrol
Psychi
FMF
activitiet
stimuleren
rapportage
Medicijngebruik
EUG
Facet
KO
Let
##Mx
##idem
##alva
##heumat
1028
ermee
bloedsuik
##ramine
klieven
longlaesies
vermelden
SIM
anderhalf
vagin
##broken
Trache
ongoing
calcarea
vertakking
verwekkers
identiek
oncoloog
NSIP
##yncrat
Box
HEL
Lö
Ped
bank
econsult
##iveer
##draaien
##blij
##iterende
2024
stok
10d
CS00003829
##CRUM
##372
##332
Intermitter
slot
CS000522
luchtwegen
##967
antrumtype
##pakken
##CARB
##ikkema
spondylofytvorming
immunologie
cerebraal
folliculair
feaces
hypothyreoïdie
carcinoma
geaccepteerd
SACRUM
Toxisch
Therapierefractaire
cicatricalis
CALCIUM
wratten
parietaal
AANVULLENDE
pigtail
dicteren
vastzittend
reeks
hyperparath
Occlusie
Bereikbaar
parietale
3M
4de
Boon
FISH
Hyster
Mast
POS
Tzt
care
detail
##nass
##buis
##yrox
##rix
##184
may
1x2
##sbeige
##kelig
koortsvrij
parap
malig
telefoonnummer
##775
##oscopische
keelklachten
kapot
Obstructie
##servaties
##ovaginitis
intracranieel
contaminatie
Epis
technisch
geneticus
onvolledige
DRAIN
##268519
anatomische
obliter
geaccentueerde
chondrocalcin
##ijftal
subduraal
dimensies
Boot
E1
boeken
getrokken
tre
opboeren
Gegener
ileotransversostomie
##oduoden
linkerarm
linkerflank
Interventies
##gemedieerde
ALS
GIST
Perine
disci
geswitch
35cm
Weijl
celmetaplasie
Ileumslijmvliesbiopten
Dupuytren
Trombo
presacrale
moder
getromb
Verdikking
frontalis
unco
##iemsa
mucositis
koil
locoregionale
dorsum
CS00017044
Hyponatriemie
Cer
Euthy
FC
RM
SSA
eros
sing
##RAAG
opeens
##ental
##osepsis
infarcering
##iride
##odeerd
##ustrofob
##ECULAIR
schaam
408
Onregelmatig
hypermet
maagstreek
infectiefocus
niemand
##596
osteofyt
restcolon
Arter
##breed
hielspoor
scopisch
Acenocoumarol
sigm
##OBT
##duct
5x0
##aryng
noted
pravastatine
afgeplatte
incontinentia
NEU
orienterend
ileocoecale
apoptotische
vertrouwen
Persantin
taxol
neoadjuvante
zijkant
Italie
pollakisurie
MOLECULAIR
1ml
vaag
vlo
##urop
##musc
##neem
##veerde
##Onder
##DER
##erzijds
##rogram
colorectaal
aankomen
##acal
##ectasie
##achtend
##192
##1250
polibericht
cach
##kundig
suppur
contrastmiddel
imodium
Have
Dyspepsie
Cholelithiasis
kaliberwisselingen
Begint
gehalte
lesion
hartas
Oppervlakkig
silver
tangentieel
##songeschikt
sprieterige
electrolyten
ZH00000008
alveolaire
vriescoupe
3kg
4L
P2
Ranitidine
Sikkema
baby
sovo
##ifie
##Int
##ieert
##etiek
##onpomp
##arije
##iceren
##ultaten
ther
schad
herover
##ovan
lambda
##1667
vervolgconsultS
Ileumbiopt
kwant
galblaasbed
ACI
losliggende
plooienpatroon
##TSS
grijpen
Bruil
1mnd
PGZ
brughoek
Richir
intermediaire
Concrement
satelliet
cohort
629
O6
Sotalol
TO
XIV
gaaf
##550
##jaagd
##chloride
##etirizine
overweegt
leid
##moïd
Colostoma
##cinaat
wash
##esthes
acit
beduid
septa
fractuurlijn
##itsing
##figuren
##umerus
toiletbezoek
vertelde
fitter
excacerbatie
epilept
##BOZ
Rutgers
syndesm
rheumatica
Bijzonderheden
luchtbell
shave
01001827
210
Eiwit
EAC
Gb
MST
Sectio
by
##dus
##zin
versl
behoud
doorCreatie
alc
1072
div
dif
##schreven
Aantekening
zweert
ietsje
1dd4
bovenop
##595
heupkop
##ituut
hypovitaminose
##vlst
##ridocy
##hydroxide
4dd1
femorale
mucosaal
BakkerLaatst
MHPI
objectiveren
incomplete
Vlakke
röntgenfotos
quadriceps
sgimoid
##nassia
Groc
Hoek
PTSS
Sig
clopidogrel
vla
##tse
##chema
##usis
opgew
##endi
repositie
aanprikken
overprojectie
##odies
leverchemie
##ustr
##baarheid
distort
##rompel
coecumcarcinoom
##175
0000010028
seretide
vastere
enkeloedeem
contract
##lectiepatroon
MRSA
groeiwijze
##heidsdiagnose
##etrokkenheid
STT
2weken
sacroiliitis
##ruimen
##pinx
spondylartritis
conventioneel
Delier
studeert
Nodus
Succesvolle
SaO2
emfysemateuze
AJP
IB
Mass
V2
ec
##ioom
##sed
##ontrouw
##amon
onaan
onverdacht
colec
aangemaakt
chrom
##mmel
##464
kniegewricht
##1736
meegenomen
##954
overlegt
osteotomie
Spiering
##ocortisol
##strengen
CAROT
##666
##432
##434
##tijdig
MTP3
epitheloid
leverbiochemieafwijkingen
Eindhoven
naaldbiopt
oefenen
heterozyg
maatschappelijk
orienterende
piekende
Bijna
spinosi
POLS
joints
LRH
perirectale
##ivitamine
CONTRA
ischaemische
geperforeerde
AJPM
Amer
F2
Lint
XBOZ
lac
##pijp
##WEG
##esartan
##eda
verantwoord
afte
##genwoord
onderverdeling
##slacht
##eelt
##1015
Storm
expect
0000010030
myogeen
lokalis
werkaantekeningenLET
epidermale
solitair
diafragmaimpressie
episcleritis
Observaties
##usiere
bisoprolol
inzakkingsfracturen
Resectievlak
tachycard
familiaire
Pulmonale
##falanx
Meestal
carboplatin
globaal
longemfyseem
thioguanine
lymfoplasmacellulair
dynamische
fluctu
cicatricialis
femurcondyl
##yncratische
Geldig
Haaf
cister
viel
vest
##ki
##hu
##alpinx
##osc
##abine
##ount
colonresectie
##imep
##eca
huiswaarts
decompressie
##1712963
##doving
periventr
##790
##uleus
##776
geswitcht
##celca
##ylaxe
Geselect
noteert
dyspnoeisch
caudatus
zonlicht
verlengen
##zetting
excret
CS00017046
matglasafwijkingen
heterogene
##N1M0
arthralgieen
marginaal
doorgebruiken
intraepitheliale
borrelingen
botapp
ZKH
Geselecteerde
5m
Gyn
Mits
Positie
ham
mbv
##smiddelen
##Med
##orrag
##stent
bechterew
Verwijdering
ileale
##arma
thee
rectumamputatie
##houet
calprot
##dagbehandeling
##792
##7986
Rode
3689
##exc
autologe
leverenzymstoornis
Proctoc
##1806
paraffine
EPM
stuwingsbeeld
##antopac
collageneuze
CS00052490
##verlenging
gerustgesteld
Creon
strumazol
kernpuin
Dientamoeba
Grocott
Gamma
dele
##hoo
voorlopige
anis
##romet
stopdatum
parat
230
nierf
INf
70kg
epistaxis
cytologisch
endocrinologie
Vragenlijsten
inflammatieparameters
doorgaanCreatie
Calciumcarbonaat
sportschool
Relatieve
neurogene
smalle
skintag
tubulo
rhinitis
##curr
Presentatie
tensies
nagelriem
plexus
Haaften
Kessels
bor
ganciclovir
pad
##izol
##pad
##jkingen
##woorden
##zool
##deringen
##omas
##andiverticul
##385
Verme
1125
##apse
spastisch
##sport
jaarcontrole
medew
steato
##ositoria
echoarm
epitheelbekleding
dyspno
acuta
##fenidaat
endocriene
langsgelopen
##calprotectine
geschrokken
hersenparenchym
Toont
Maes
biologicalstudie
mastopathie
Dyspneu
Faeceskweken
##serveren
respiratorius
##2037037
Unit
Jaarcontrole
pussige
##dddddddd
suprapat
futloos
geerodeerd
##umulatief
fulminante
Boe
Eijken
GB
Tens
Zoster
hove
haalt
laaste
wken
##XA
##orad
##itraat
##ijnier
spinale
exacer
mijns
steatotische
##607
Uitbreiding
Ileïtis
Daarmee
tweeling
CS00050720
Kanker
3343
enigzins
jeukend
ventrikelfunctie
cerebellair
T03
##angioom
##24074
rijpt
Hofpoort
hysterectomie
Hypothyreoidie
CS00052340
alarmsymptomen
vermeende
boterham
4kg
OSC
PF
SAL
TPS
koel
##lichaam
##rush
##fase
##invloeding
##stuwing
##ulcus
##agels
teratoom
wezen
##best
##561
expir
paral
##iëmie
tractie
##30mg
surveillancebiopten
pancreascarcinoom
Brand
immuundeficientie
randp
cryptabcesvorming
biom
lymfekliertje
calciumcarbonaat
Diepe
plaveiselcelepitheel
Respir
Wandstandige
gediagnosticeerde
carpale
Cytologie
doofheid
Varices
tenslotte
spermat
##gggg
##wachtklier
afgebroken
##vaccinatie
Voelde
OSCAR
2R
Dek
Poeet
getroffen
korst
wijst
##cat
##otact
##AGE
##iect
beweegt
doorgestuurd
overex
Diar
##actyl
##ograd
spraak
gerupt
##293
LAR
aangeprikt
Mah
##324074
behandelopties
rennen
flankpijn
Saturatie
productief
methblauw
fibrob
Samenstelling
branch
Scleroserende
submandibularis
COLECALCIF
BLANCO
Dinsdag
Ori
mant
tim
urease
##dunne
##kels
##wik
##EUS
deff
##omix
opvliegers
##ils
onderwijs
##slaesie
##terend
##ymissen
zwacht
patients
NaCL
0000010038
##othaan
period
Roothaan
Vanhoo
##973
retrom
behaarde
virusserologie
hersenstam
leverfuncties
##chillo
##Vervolgafspraken
Jaarlijks
##ZEP
craniocaudale
Idiop
Boome
hoefijz
opportunist
Adherence
iFOBT
inductietherapie
##imepiride
Vanhooymissen
Ejectiefractie
Lynch
Sala
SBP
frozen
rr
##socopie
##CM
##yce
##ëmie
##ides
##arach
opgeven
##reik
##entaal
1030
TCL
prednis
Normalisatie
startstijfheid
##ervain
gedekte
2dd200mg
##cannen
Correlatie
Volgt
##reedt
stuwingskenmerken
gold
umc
SchootLaatst
Sloeser
Gynaecologie
herinneren
Ast
Sand
hoopt
ju
kam
picoprep
##ailand
##anten
onderbroken
doorgegaan
##iese
##hew
meermaals
spann
##ipsie
25G
##grijze
##snijvlak
operatieclips
cryptverhouding
prikinstructie
zaldiar
CPAP
medicamenten
radiculopathie
coronairen
##ruimte
##DICT
ovariumcyste
vaso
ijzert
Discovery
##chialis
vervolgconsultRvC
Bronchus
Helemaal
koliekpijn
##tttttttt
klierbuisjes
spiroch
320
Ag
Dut
Mocht
X3
surveillancescopie
trem
##net
##brom
##ya
##erum
##ieen
##inte
##anal
##aai
##003
##ogant
##iligo
##eleider
Verl
uitvoering
##apunctie
exper
extended
rechterarm
##alasine
1dd200mg
radialis
MTP5
angulatie
knobbel
RFA
Volcolon
Ductus
##achycardie
delay
Oogontstekingen
uitzonder
polymorfe
neerslacht
addit
opnion
vervolgconsultHeeft
##werpen
markeringshechting
gescreend
Löwik
CALCIUMCARB
KT
Kuur
Vas
gat
rekening
tien
##etijd
geïden
onmogelijk
onderlip
gewend
##schijf
##try
195
1108
##5625
leversteatose
##loon
scheef
##sson
verkrijgingswijze
245
##272
vergelijkend
##575
##291
voetrug
blaasd
flatus
##vaste
1d50mg
Sigmoidbiopten
bioloog
Claud
ECV
STEC
grijsbeige
aangeeft
##zettend
gevoels
sputumkweek
lobus
Histologie
Refluxoesofagitis
druppelklysma
movicox
tabaksmiddelen
paracolische
fibrosering
##aspireerd
Lidocaine
Walter
huishoudelijk
scoot
herevaluatie
6tgn
nuttigt
nuttigde
##verkleining
##oordinator
geïdentificeerd
Juist
RI
UWV
Ves
Vul
cecum
draag
klagen
##taren
##leing
onw
afmaken
##ijdigheid
spreid
abru
Alv
##matitis
1005
##ylorisch
5000
##537037
maligniteiten
kwart
oorspr
spondylo
##ONAAT
dextra
##phen
carcinoid
wenselijk
bovenbuikspijn
Endocervicale
VERSCH
nadelen
instructies
mycobacterium
verklevingen
okselkliertoilet
osteoporotische
financ
##ammaglobulinemie
##Gewicht
##Onderste
8kg
Lap
wist
##ika
##induratie
Stuk
Th7
##2778
##laren
##anneck
##bry
relaties
##oscopisch
villus
spoedig
types
##innitus
intracraniele
Arthralgie
verzorgings
gerichte
3232
##nekkige
geluxeerd
paracardiaal
CONTRAST
overexpressie
AOR
Gy
GEN
Kui
Nvt
anamn
bou
cis
surveil
srivastava
vat
vals
whole
zeld
##ias
##hart
instelling
inlopen
##umimab
##ope
##idhi
onst
verval
##entine
##agl
##ypte
drsn
antonius
##houdt
hypersens
##485
##othyrox
adenomy
patholoog
ontvangt
##gestie
##arez
Onderzocht
thuismeting
ECHOGEL
ervaringen
##2006
nekpijn
anterop
Fisteling
regelt
papillen
T06
delirant
vertegenwoord
Bulbus
slijmvorming
Susanne
uitlokkende
##pyeem
epididymis
Coprostase
VERSCHENEN
ECHOGELE
3a
4cm
746
Ele
Giemsa
Mart
PE
WM
borr
palissadering
##AI
##atop
##uses
reu
Ingesproken
alhoewel
1013
PA9
##akop
Afrika
4399
vergelijkbare
NeeOnderste
##maaltijd
manometrie
aortaboog
OCULAIR
##heliaal
retropat
Fern
Radiotherapie
herseninfarct
hormoon
sacraal
##odialyse
kapselzw
WesselsLaatst
Durft
aangetoonde
##emeal
PHS
videocapsule
visualisatie
accumulatie
pembr
##faxine
superficialis
cisternen
370
VUMC
Zijdigheid
b7
emin
fu
fractie
zom
##pas
##bronch
##Âïne
##elo
##etisch
##lechter
##amie
##urzen
##rapping
##entoename
Conchillo
Veranderingen
##iepreparaat
##conclusie
##geblazen
hieromheen
Uitgesproken
resorptie
atorvastatine
##brid
urineweg
extractie
##245
Breda
bulten
psychologie
Subopt
Toestand
5x1
blijkbaar
femorot
kaliumsuppletie
S1S2S
Eindstandig
uitbreidt
vasovag
##7037037
Proberen
Bilaterale
galzout
cilindercelepitheel
elektrische
shoulder
linkerkamer
Johann
encephal
meningeoom
##jejunostomie
But
CEH
Ki
LW
OLE
SSC
Wacht
lorazepam
##yramine
##zoon
##freq
##elend
vertrek
##ospin
Gehal
##techn
##inkje
nachten
1956
sphen
##ipatie
bovenstaand
meslazine
Isala
waarschijnlijkheidsdiagnose
positionering
##ïditis
cardiopulmon
##itueerd
DIG
eindelijk
##777
Patric
reumatologische
epithelium
Vlerken
##ventief
Langzaam
Magnesiumoxide
D2O
SNB
cryptdepletie
Dorsaal
reflexen
Leverproefstoornissen
##ithyre
MOLECULAIRE
suppurativa
COLECALCIFEROL
Sloeserwij
Alvarez
260
IU
PYN
Syn
UAA
lent
##mmen
##600
##cort
##zeer
##T4
##olo
##rode
##ociatie
##lastieken
##ippen
##365
000001021
4353
##663
prikkel
##15mg
##907407
cytospin
Acet
instituut
weekendverlof
meetbaar
leverfunctiestoornis
twijfelt
Subcutaan
paroxetine
##cardiaal
antibiotisch
gestenoseerd
biopsies
##gruente
##organismen
bridging
##ridocyclitis
Onderzochte
BW
Bdz
Dotter
Feld
NM
PTC
Toucher
kaken
##gië
##mor
##cemeal
##eloda
##stok
##ogan
##icare
##eseceerd
##3889
album
Dehydratie
Aangezicht
##ixed
25g
##issue
vervolgconsultK
Anter
Onderdeels
Chlamydia
slagen
##ilever
Choledoch
inspannings
voedingss
jejunumresectie
beenmergoedeem
##flutter
##orrhoe
menses
verergeren
Wester
weefselfragmentjes
ontlastend
shows
deformaties
ulnakop
Noro
gecombineerde
arbeidsongeschikt
midclaviculair
Fenprocoumon
large
Astmatische
Bull
Cig
Dacht
TFT
##639
##ochter
##004
##lafaxine
##cludeerd
##istan
##abap
##veen
proth
##tering
thor
roder
gener
##vance
DDS
aciclovir
tekenbeet
60kg
##254
##OSINE
ingetrokken
Peric
##880
Buikpijnklachten
halsgebied
halsvaten
Artrotische
1d20mg
##635
Vena
verwijderde
geschat
Poliepen
leverbioch
WerfLaatst
Inflammatoir
##ijerink
techniek
subfebriel
flesjes
##segmenten
beduidend
Feldberg
3ML
Clavicula
GOL
NON
Oestrogeen
candid
hur
sek
##gb
##ipril
##stige
voorzijde
uitsp
##oseptaal
prikt
labium
Voornamelijk
##utan
##ibel
verdient
##cinolon
1xp
##oblasten
000001052
maagcorpus
vochtig
observeren
##atears
fibrom
stomaverpleegkundige
suppositoria
Goedem
axonale
etoricoxib
radiaire
800ie
varieert
A2L2
##metastasering
proliferatieve
activatie
diafragmakoepel
aortaklepstenose
legionella
##64815
Zonovergevoeligheid
millimeter
compliant
panniculitis
gedistendeerd
Rogge
##acalcid
470
IH
Ko
Ritalin
ZD
doel
lust
zuigen
##uir
##iografie
##tur
##carcin
##biochemie
##Recept
##ijten
##arde
##andelen
stere
colono
Deurzen
##steeng
1128
##eteren
Opgezette
##gebonden
rechterlies
011015
bovenrand
##GEVEN
##274
Ext
TIL
Kwam
knik
neoterm
DMII
essentieel
INTRA
demyel
zenuwachtig
steroïden
Cycl
houdings
PERFUSIE
Dreijerink
Staphylococcus
##akaryocyten
Broekhuizen
uitgelokt
intermittens
##musculatuur
AORTA
FIL
Humerus
PV
X4
krukken
lijf
##ll
##han
##zo
##ekel
ingang
regeneratieve
beweg
ontkalking
##rijving
##prof
##ofen
##handeld
##401
bloedprikken
##ciële
##ostrati
##thoracale
##ancreat
teruggebeld
wittig
bedekt
beschouwen
vormige
hematologische
faeceskweek
keelspray
graft
##ocaÂïne
##genezing
##aktie
keratitis
stamcel
##naaldbiopt
##wwwwwwwwwwwwwwwwwwwwwwwwwwwwwwwwwwwwwwwwwwwwwwwwwwwwwwwwwwwwwwww
seropositieve
Discrete
Boonstra
ijzertekort
BCL
DBC
Laterale
haal
tom
treedt
##nde
##bank
##face
##idol
eenh
##istos
uitd
##ofagen
VATS
dysm
Alat
lymfoedeem
longfibrose
intervallen
ergotherapie
##aderen
postren
luchthoudend
Morfine
Helpt
beroep
dermatologisch
transitie
Hazen
##oglobul
moeilijke
nieuws
1109
naviculare
spondylitis
protein
inguïn
tachyp
Etanercept
Noteer
circumscript
##hangend
aanmelden
##bepaling
meropenem
##andez
immobilisatie
huiverig
##eisende
vestib
Tenslotte
##ZEPAM
Braat
Hanneke
Top
X6
boezemfibrilleren
vpl
##anastom
##etentie
continentie
##electieve
stervormige
procitis
##osavance
##nepen
Opgeblazen
##spleten
##urgor
##rosclerose
CS00038058
slijmerige
forte
##avier
orders
afgewezen
Doorgegeven
380
00000001
halsklier
microorganismen
infiltrate
krijg
##699
nucleolus
##ommun
tendopathie
LVF
Peyer
Angina
##osenide
##preparaten
Samenlevingsverband
##oosheid
stricturen
Cholecystitis
SW0
Spiriva
Langsgelopen
Alternatief
##irtrapping
verspringende
aanspreekbaar
Diepere
Epitheelatrofie
DRAINAGE
Fernandez
Ciggaar
FILM
GCS
Rh
Urolithiasis
eier
self
talg
##inische
##edt
##ieradi
##oesten
produceren
waarneem
##imp
##keen
##spalk
##spoliepen
linkeradnex
Beinvloeding
induc
slijmfistel
trage
tumorm
gesitueerd
beoordeelbaarheid
boos
Doorsnede
Stopjaar
perifoc
sporad
##orrhagie
##tablok
infarcten
Infectieziekten
ESD
slijmbekercelpopulatie
enterocolitis
melkproducten
##afhankelijkheid
##osedienst
##ociated
##ivertikel
dragerschap
OLVG
pensioen
ECHOGELEIDING
eminent
##abapentine
Euro
Target
Zelden
erom
klap
##set
##atz
geaspireerd
inmonding
##aritis
isoniazide
##ietjes
##iops
##ftig
1076
##imoto
thym
lymfang
##densiteit
0000010020
botsetting
hypn
##waartse
ilioc
Plak
Levertestafwijkingen
Steatose
MBO
SSZ
Brufen
KellerNaam
Crypt
##serologie
anteflexie
Macrocytaire
Plaveisel
NRH
Misschien
allergieenColonoscopie
samenhangend
pseudopolypeus
segmentkernigen
limit
scootmobiel
AER
Kruis
Naad
Oprek
Tab
##iun
##rd
##nu
##ks
##KE
##elig
##ish
##derig
opm
Geheel
##illance
##otoom
##ocerv
##ocob
1951
1112
##off
##acrum
subling
slijmbeurs
##snel
##161
##isselada
002
besteld
##ekeraar
##ALF
80kg
##285
##kelbare
Daarvan
tumorproces
ABG
##intolerantie
plm
internat
medebeoordeeld
SSc
Ursochol
Leef
CS00037546
genetisch
speekselklieren
galzouten
Diazepam
segmenteel
littek
ophelderingen
langwerpige
Valsalva
8cm
CER
Rijk
Vpl
bz
claviculair
eosinoph
od
tg
##taten
isoc
overplaatsing
overmatige
colonlissen
##schot
Voorlopige
##CRE
##182
rota
1x40
##OMH
hypocortisol
CML
90mg
aortae
netjes
##ASON
auton
bezwaren
pyridoxine
Atelectase
Referentie
Pseudom
##icks
branderige
geriater
Binnenkort
Liesbreuk
Brunnerse
##edronaat
minuscule
##verbreding
##acalcidol
FILMOMH
420
Burs
C0
Cuff
GRM
PEN
atoon
haast
punter
tekstra
##NK
##elende
##eping
levervenen
##mmering
Bechet
zoontje
defecatiefrequentie
dermaal
Exter
##794
ACS
##hydra
ouder
Hoeft
Preparaat
Subt
Cholesterol
present
wervell
thrombocytose
Herstarten
panel
lymfoplasmocytair
perineale
cholestagel
transferrine
##arthrosis
inhib
Neuroloog
clinda
##takkingen
Hiatus
antibioticum
betrekkelijk
Basaalcelcarcinoom
perforaties
opgemerkt
Bootsma
INTRAVEN
Lateraal
Oel
Selokeen
Tig
TRA
atherosclerotische
##rs
##bb
##chelaar
##itief
opgegeven
aanliggende
onts
overdracht
artropathie
omschreven
##IDEN
jaarlab
##462
25e
4268
intercurr
Schimmel
palpit
ligamen
weefselverlies
Voice
580
Placenta
##rhoe
Hydrops
Extraintestinale
morfologisch
Abcessen
Leukopenie
T07
##4259259
spiriva
breukpoort
krappe
tussenwervelruimten
##lyceriden
aorto
radiocarpale
##koppeling
leiomyoom
bedrijfsarts
Oxycontin
fissurerende
obliterans
GOLD
INTRAVENEUS
2nd
Benen
Cath
DU
DL
Favier
honger
##ialisatie
##iepe
##ekan
inlicht
##ulente
##euten
##traline
##west
##programma
##wijzen
labCreatie
exact
##jectieve
volaire
IVIG
##662
weefselstrengen
studieverband
Chr
ACCP
Wegener
4000
NBI
1d4
##pingement
##oller
klachtentoename
##igmentatie
Pseudo
##raaid
Reumatoïde
##intestinaal
##9537037
paroxysmaal
Continue
acanthose
spatel
nichtje
gestenoseerde
ziekenhuizen
##vork
slijtage
ambulance
##yenburg
340
Bell
Tw
Zod
ppi
##ga
##kelijke
##kleden
##WH
degen
##osumab
##icu
bewaarde
Intens
##inkend
remm
##3680
volkomen
1x20
000001043
fistelcomplex
vervolgconsultRA
herstellen
enteropathie
basi
Doorgebeld
##987
wegspoel
FEM
verzakking
leukocytoclastische
##634
empyeem
zorgvraag
mitotische
intralum
angststoornis
voortgezet
femurfractuur
bereikbaarheid
Geri
CS00052494
spondylartrose
##waardig
Dubbel
schedelbasis
Vreuls
breiden
orbit
orbita
Sloot
Vervroeg
Spondylart
curvatuur
medewerk
randpalissadering
##othyroxine
##hydraat
Eelt
GA
IDC
Vgl
X5
airtrapping
ecg
kreatinine
lin
oroph
##nale
##horend
##EERD
##vern
bijsluit
onderbeens
alt
##RIL
linkerpols
subjectief
##ifurcatie
000001044
##illitis
grenz
niercyste
strengen
upper
brachialis
clos
##984
##789
Plavix
##intubeerd
vres
werkaantekeningenbrief
diepreik
openstaande
Myel
sluitplaat
intrath
Oogarts
CS00037540
Vasculaire
Jaarlijkse
aanvoelende
interstiti
##ephalica
cobblestones
soiling
##ffffffffffffffff
Cysteuze
voetballen
haemorrhagisch
Boxel
##usiereactie
##ogradumet
leverbiochmie
CERVI
Tigchelaar
I665
Nicol
Slow
Tint
V1
peg
tram
vats
##nion
##ytr
##etime
##omvang
##omycose
stram
##pervisor
##ectom
voel
##ronden
rechterpols
Bevest
gedoseerd
MIB
vrijvocht
0000010019
Surveillancebiopten
vrnl
Leverbiochemie
dosisver
##ivum
doorgaans
##2002
Hematurie
##764
varus
multi
Gelre
hypothyreo
Avond
verkalkt
pedicure
protonpomp
norovirus
Dalteparine
neutropene
NTX
Svp
verdrietig
moeizamer
lifetime
Facetartrose
steatohepatitis
Oprekken
537
590
TT
duurde
keut
##ueerd
##bureau
##zhe
##oringen
##stone
##idium
##omorf
##rein
##ases
artitis
##sep
meerrijig
##yma
gebruikelijk
000001042
longgeneeskunde
intervent
gewrichtszwellingen
##oidalis
##osinus
afwachtend
##gevende
dosisreductie
1d10mg
##2000
##alli
lymfekliermetastase
ebnten
spondylotische
VerburgNaam
architecture
CNI
Sharma
fibrinoide
Therapieresistente
geïnduceerde
mesalasine
##oooooooooooooooooooooooooooooooo
radiocarpaal
Remicadespiegels
postprandiaal
cannabis
##ustrofobie
Agat
Bra
Bep
F3
HMC
Hoopt
Klin
Mot
RCC
SQ
Sacrum
knapt
##maags
##MBI
##anus
##chen
##leid
##aminale
##arie
##usion
##alsting
verhoudingen
congenitale
1038
wort
1952
1120
chor
##afh
##sverander
##struktie
Rectumbiopt
CARB
randje
zuurvaste
iliacaalvaten
obstruerende
Menstruatiepatroon
trimester
glomeruli
AANVULLEND
gootsteeng
Gewrichtsspleet
##autar
Amoxicilline
opknappen
Corg
Ga
Oma
Tj
atheroom
bos
cut
dotter
korr
raynaud
##apt
##DMA
geest
beadem
colits
193
Aangemeld
gezamelijk
blo
rechtercolon
##ibiale
toegang
hyperdense
Term
##ceptief
Buikkrampen
verliest
deelnemen
spierkrampen
immuungemedieerde
erythemat
InterneVoorgeschiedenis
##isease
Gedeelt
##694
reikende
beheer
irr
fysiotherapeut
getracht
intramuc
duizeligheidsklachten
deficienties
corticostero
Lipase
hyperthyreoïdie
Fragment
##siche
boekje
Hoger
HYDRO
streepvormige
onhoudbare
Agatston
##maagsonde
4a
5d
528
A304
Cogan
IT
Kruin
SH
Syndroom
X7
X9
tree
vies
zh
##blijk
##alken
##verine
##verdoving
##icien
staaroperatie
##eculaire
chr
levertest
schiet
weekje
Beek
controleReden
gebruikelijke
##match
subarach
huidbiopsie
##3935185
Robert
Sputum
vettige
##77778
20219
bleod
schildkliernodus
Prima
drogist
pantazol
OncologieGeregistreerd
##sfincterische
demping
vaseline
CS00037549
Zwangerschaps
##srp
VasculairSoort
glenohumeraal
##rrrrrrrr
UITGEVEN
Somber
##byac
advanced
dependent
SIMVASTATINE
Masselink
uitzondering
##anastomosering
Bud
DOS
Heft
Ruim
Vel
atenolol
sf
tavegyl
##iu
##nap
##iectomie
##orot
ingesneden
afsp
afloop
stn
colonmucosa
tijdstip
prand
##elli
schrijft
Thailand
lymfogeen
Recht
abcesholte
defence
vaatinjectie
gliclazide
SIRS
tubo
Besmet
CHEW
LMWH
asymmetrische
Gerust
administratiefrecept
geslaagd
##uilen
brandende
NEUS
uitlopers
lucentie
verdubbelen
goedaardig
hypertym
mucusplug
##olytica
piecemeal
Klooster
Egypte
commerciële
moderate
##DICTEERD
Corgrootte
4gram
Kop
Lim
X10
hilli
wijk
woon
##tc
##oste
##ineerde
##igmata
beeind
##entiële
doorzetten
1124
Stiff
Bevallen
zozeer
huidzijde
effecten
objectief
obtur
##lardo
proctitisbeeld
snee
osteop
Onderdeel
##492
echospreekuur
000IE
tumoractiviteit
cirrotische
Bloederige
combinatieclysma
Dysfagie
ADEN
endocervicaal
dipi
mailen
uitgerekend
gehalveerde
Gerichte
##ashimoto
afgezakt
##known
trimoxazol
##sky
Polyartritis
Karn
UIt
QTc
dsDNA
##compenseerde
Nelck
hangt
578
Bv
CZ
Houwen
Jvd
Zn
##juist
##erron
##anose
##edes
2025
Inplannen
##oude
direkt
thyreoid
Normacol
rectumresectie
##ppend
hyperintens
Uiter
verandert
arme
Niets
Tegen
##roparese
geruime
orch
therapieontrouw
90cm
wekelijkse
0000000482
##ageerd
CS00000017
orthopaed
Hydroxychloroquine
Gallardo
Rechterelleboog
inguinale
##polym
ATP
bultje
trochanterica
Miskr
praktisch
immunosuppressie
##tazid
Kalkarm
Gecontroleerd
Amitriptyline
Joyce
hoogklinkende
Hielp
##pneumonie
verzorgingshuis
pembrolizumab
##profylaxe
##sverandering
##byacusis
2gram
Dx
Kleb
PRO
Slu
ah
san
##evo
##Chew
##WL
##onav
incre
bijschildklier
Initieel
normocytair
ofwel
##eeland
##1042
##OPROL
hieruit
volcolon
hemodialyse
##volume
vetinduratie
febris
vandaar
Bloedchemie
signalen
Stenen
synoviaal
shift
Hoogstraat
vullings
##cideerd
hobbelige
uitgeblust
##opoese
inadequate
Ionita
geirriteerd
vloer
increase
##OPROLOL
Aer
Azath
Ic
OVer
maak
pij
ritalin
vac
##serie
##VR
##ètablok
##ateert
##lesie
##osorb
##takt
##peuze
##ilbert
##emia
##oflexie
sphincter
##spannen
rechterventrikel
Bezoek
Afh
nest
hepatocyten
##obrush
Endomet
000001023
decidu
0000010023
##9514
##creme
enkelvork
studiemedicatie
##1875
cytobrush
##collab
wondgenezing
mammareductie
##pelle
##diameter
collaterale
##oderm
peesschede
prepa
associated
femurkop
bicarbonaat
vloeistofspiegels
##9583333
CS00018105
gefixeerde
hamerteen
setons
cluster
Mobiliseren
Melanoom
geldt
nefrostomie
VFA
heesheid
##breedte
Vermeulen
mantel
stereotact
waarneembaar
grenzend
##polymorfie
Atenolol
Cumulatief
Kunt
Naald
NMS
Situatie
Semi
fir
farynx
kiest
kubisch
tinnitus
##aur
##ton
##yx
##intox
##ekw
inn
intrekking
inschatting
Inh
##ocriene
1116
gezin
ulcererend
##ymen
15u
##nds
##riasis
gedoe
huidkanker
000001041
restant
vastgestelde
bdzs
septisch
infiltratief
slaan
slapel
symbicort
Parastom
bereik
noemen
680
embry
uiteind
omgevingsbiopten
injvlst
LVH
Simpele
##stitut
stofzuigen
onrustiger
CHO
angiografie
ophoping
##acuatie
gleno
Woensdag
Passagère
woning
Sinusitis
hakken
Ramautar
##ovasculaire
myomatosis
preexistente
Moviprep
urgency
summed
coccyg
CAROTIDEN
spannend
punterosies
bijsluiter
C210
Jas
TM
lan
tart
vna
woord
##surveillance
##cuff
##FORM
##atentorieel
geme
##opexie
opspe
##dev
statische
probleemlijst
##aanpassing
1958
##ird
##ctiver
rechterschildklierkwab
Th6
1671
neestart
##582
beta
3779
##DACHT
relapse
##testof
Herbeoordeling
Darmsyndroom
autor
buitenkant
kaliberwisseling
##noïd
aanwij
CS00017060
ophoesten
zijdeling
uiterlijk
mogel
Nota
##4722222
periportale
menstruaties
fysiek
##ostratificatie
ADENOSINE
neestartdatum
B6
Laagd
Nifedipine
X8
idd
nsa
nyst
tast
wreef
##rim
##elft
geintubeerd
##idus
verre
##teverlies
stat
##igexcisie
naevo
uitvoer
VASC
GEen
gestuwde
##loze
Collaps
Overgang
401
neem
##quentie
volum
langzame
matje
descend
rustdag
slijmnap
preventief
traan
##verdelingen
geres
CS00052403
Doorn
medicament
Herhalen
##fenomeen
##iclon
##udenoside
gevoeliger
##INEZUUR
aneurys
artralgieën
onstekings
weefselstukken
Progressief
betrouwbare
seborro
##naaldbiopten
fulltime
aspergillose
Zenker
Representatieve
versneld
toedienen
##calciemie
Strept
hurken
6wk
Dose
Elis
LC
Tur
ZOC
bon
##ai
##vre
##PC
##QU
##opatroon
##idase
##rac
Inzakking
doorloopt
proble
##schacht
pijnsch
tert
##rijpen
1100
##sprongen
##aciteit
levertesten
Metastase
klaagt
corrig
beperken
##strueerde
sleeve
pneumon
duidelijkheid
Mesenter
sigmoïdresectie
celpopulatie
segmentkernige
##neuzen
nefrosclerose
creeping
soepeler
anaalkanaal
beenmergdepressie
AANDACHT
devierend
uitrijpend
concrementje
Adenomateus
hyperkeratotische
study
Lymfeklieren
exploratie
Kappelle
Fietst
##omotorius
Vroeger
##mmelvlies
Slootweg
7kg
Atrofie
Bang
KC
TTG
early
tissue
zjn
##uzen
##cla
##aap
##ism
##lezen
inde
##alet
##hechten
allop
##periode
##ofsky
##nison
buikholte
##contact
remmers
403
1xd
##471
##ouchard
0000010029
003
drukplek
nierarterie
##2638889
stratum
##uleuze
urologische
palma
hydrodilatatie
DCV
mondslijmvlies
verzorg
leukemie
poten
mismatch
hersenmetastasen
dexamet
##ivarox
gereviseerd
Intracran
##DIC
Oesophagusbiopten
VSM
Gaarens
hyponatri
radiuskop
prerenale
straks
artrits
3231
mitosefiguren
mutaties
antidepressiva
MONK2
neerslachtig
wervellichamen
Karnofsky
Laagdrempelig
650
670
6kg
Disease
Grie
Krom
Packyears
Tx
lijk
poeder
##naam
##s2
##002
##edelingen
opzet
##otype
##andesartan
uiteen
##ranc
blaast
CS00003830
##antes
##bijmen
granuloma
indiv
galgangen
##605
##ORO
##ooie
603
Herstel
##oneveld
##5416667
nachtelijk
subcar
sfinctercomplex
STAT
spondylolyse
Duodenumsonde
##phia
##UNTEN
Infectieuze
donkerrood
MED
Inflammatie
oogheelkundig
pretibiaal
alkalose
sperma
objectiveer
iatrogene
Liebergen
opvalmming
##ustralie
autonome
FILMOMHULD
7mm
Blastocystis
EL
Gang
Kortadem
Nidhi
QRS
dolichocolon
sirolimus
##sopname
##yzal
##PER
gevolgen
##dermatitis
##omorfe
onderverdelingen
##esect
##slaving
pijnvrij
peris
1955
##beverine
##epel
scaf
Th9
Afgenomen
genta
##1296
##ergometrie
adhesie
histolytica
Humiraspiegels
##larit
Schuurman
##roplastiek
##small
CS00000010
##iosyncratische
Hyperth
reumatoloogDiagnose
[...]
