#version: 0.2
e n
e r
i e
i n
a t
o r
a n
g e
o n
a r
c h
i j
Ġ v
Ġ d
s t
a l
Ġ m
o l
e l
e t
i s
in g
d i
Ġ b
Ġ p
Ġ n
r e
Ġ o
Ġ ge
Ġ t
Ġ C
Ġ h
o or
Ġ (
o g
Ġ a
ch t
Ġ c
Ġ [
Ġ 1
l a
d e
Ġ w
Ġ s
- -
r a
l e
i t
o e
Ġ en
Ġ in
at ie
Ġd e
ar di
u s
d er
Ġ e
d en
r o
c t
u m
v er
Ġ A
a m
u l
Ġv an
e m
en t
Ġo p
Ġ 2
a ar
Ġm et
A T
o m
Ġ k
Ġ z
al e
ol og
e e
s e
Ġv er
a al
olog ie
U M
E R
i g
Ġ g
is ch
i c
i d
O N
Ġ T
O ON
Ġ l
D AT
DAT UM
Ġ L
Ġ P
ardi ologie
o p
P ER
ij k
PER S
PERS OON
ar t
a g
Ġv oor
en s
Ġge en
Ġ on
k en
r i
e g
Ġb ij
u r
s ch
G e
-- --
Ġ st
n t
s p
Ġ re
ie t
Ġb e
Ġ S
Ġ V
e er
Ġ f
on s
Ġ M
Ġ R
ul t
C A
ons ult
c l
us ie
o t
or m
2 0
Ġe en
Ġ E
u n
Ġ H
i l
ct ie
Ġp er
Ġ D
in e
Ġ I
an t
an d
Ġ O
el e
C on
cl usie
Ġ u
o c
at i
a k
g en
C ardiologie
at um
r u
Ġ Ge
CA R
a s
Ġa an
a b
] :
Ġn iet
Ġon der
ij n
isch e
ing en
Ġ N
Ġ 3
s la
ĠC onsult
s ie
i cht
Ġ is
c e
z oe
ij d
Con clusie
Ġ -
) ,
t e
Ġ i
r ij
zoe k
Ġa f
y p
Ġh et
i r
Ġ B
m in
Ġ2 0
di c
Ġ 0
oor d
Ġ 4
o og
on t
ge v
f t
) :
cht en
n e
o se
ĠT h
Ġn a
oe d
Ġ Ċ
ĠGe en
n am
em a
rij v
Ġt e
Ġ 5
ĠA nt
---- ----
sch rijv
Ġ j
w oord
m e
o s
schrijv ing
p l
en d
or ie
ĠC at
O m
dic atie
eg orie
Om schrijving
ĠAnt woord
ĠCat egorie
ĠTh ema
un ctie
Ġo ver
Ġm m
Ġ r
I E
i k
la chten
e c
el ijk
or t
ĠL V
Ġd i
m g
] ,
Ġh art
sla g
l in
20 1
h e
r ol
Ġonder zoek
an g
t er
u re
o k
i ge
gev ens
in k
a c
er en
u t
ĠC ardiologie
0 0
a at
Ġ x
w ij
ge l
Ġn orm
ver sie
Ġw aar
Ġ 6
Ġp ro
el d
D atum
Ã «
Ġ al
A D
ie k
i er
t en
a st
c on
Ġd ag
a d
Ġl ink
f f
i m
E F
Ġo f
ij den
Ċ Ċ
Ġd oor
v en
) .
Ġ Ġ
Ġc or
e s
ge gevens
Ġ er
i st
Ġc ardi
con versie
conversie gegevens
Ġc ont
Ġm e
Ġk lachten
Ġ G
wij z
N ee
ce d
Ġm a
v e
ele id
u is
Ġ la
Ġn u
Ġn aar
Ġ |
o u
r ie
ra m
ge sch
at h
ced ure
ie den
ent ie
ne se
yp er
C G
s c
eer d
Ġ an
ol g
Ġre cht
ieden is
ee ft
gesch iedenis
b e
Ġ 7
E N
p t
st e
Ġ20 1
Ã« nt
Ġu it
i f
Ġp ati
a ir
I S
Ġs p
u w
le p
ul l
le g
l o
Ġ 8
Ġc ol
on der
C I
m m
i re
ens ie
a cht
at ri
Ġvoor geschiedenis
ĠO ver
a p
l at
i b
ar d
oe de
ch o
Ġ or
v at
Ġ K
ĠV er
e ct
Ġf unctie
Ġ /
ur s
ru k
ri l
e u
a ct
v oor
w ijk
o f
er d
Ġt ot
i um
H U
em ie
il l
re s
K EN
Z IE
Ġ U
HU IS
ZIE KEN
ZIEKEN HUIS
s en
i de
i en
rol e
nam e
ab l
H g
urs us
a f
Ġ 9
el l
it me
Ġ1 0
1 0
in d
a an
v ull
Ġ le
Ġin f
Ġg oed
z e
Ġp ol
o st
yper t
t ing
am en
z icht
an n
z el
ra ag
er k
Ġs y
i ch
Ġt h
q u
Ġ F
on air
Ġb l
-------- --------
A an
e ken
al is
Ġw or
i a
u ur
or e
u la
di lat
et er
en de
m a
e el
nam nese
ik lin
C D
u c
Ġm g
ol oog
amen vat
T I
amenvat ting
Ġlink er
Ġor aal
o el
Ġt ijd
Ġ atri
e d
B eleid
Ġnorm ale
h and
A namnese
om en
Ġo m
L E
rie f
Ġo ok
= =
Ġt o
Ġ W
Ġwaar voor
ĠC A
ĠC T
y s
Ġn og
el ing
Ġd atum
art s
Ġe er
ig ram
er atie
L O
ij st
Ġp ijn
ĠE CG
en ose
abl et
Ġi v
Ġz ijn
ĠR V
ĠOver zicht
ĠI n
f unctie
ĠD e
vull end
gel ijk
Ġm ill
Ġw el
I D
Ġh eeft
] .
T E
ypert ensie
sp ra
f ie
ro cedure
T X
he id
Ġmill igram
AT IE
um f
Ġt ablet
Ġn ee
Ġver v
Ġaf wijk
Ġa ort
ib ril
C ATIE
a x
on d
Ġg er
n is
T ijd
Ġrecht s
Ġg oede
LO CATIE
atie s
Ġt er
Ġn o
Ġ isch
Ġon t
Ġh oog
5 0
sp ann
et ten
Ġm o
w e
al c
Ġcol leg
Ġs c
k el
z ien
R e
s u
Ġj a
O ver
ken d
d ruk
Ġmm Hg
Ġaan wijz
der e
ul m
b l
ie s
Ġge dilat
spra ak
if ic
om p
Ġge st
cht er
in ge
ĠP CI
m b
Ġ ]
Ġmm ol
Aan vullend
ardi ale
K eu
zel ijst
Keu zelijst
ra di
u it
ec ursus
20 0
Ġde c
Ġpati Ã«nt
v ent
Ġiv m
ĠN orm
it e
Ġ ru
Ġ Z
k e
t ra
e st
spann ing
k t
ent e
m en
J D
is ic
TI JD
LE EF
LEEF TIJD
d t
Ġm eer
Ġz etten
e dicatie
Ġc on
Ġw erd
ĠI CD
Ġ4 0
Ġ1 3
Ġcor onair
al en
ibril l
Ġaanwijz ingen
Ġm in
di g
Ġcont role
oor nis
c onsult
r on
og ra
Ġnorm aal
V A
s l
in t
u id
Ġre c
Ġ Q
Ġd at
ĠL AD
n a
Ġd an
Ġop name
ibrill eren
v al
o d
Ġl on
ant atie
I n
Ġlink s
Ġm aar
Ġ1 4
di en
i on
m pl
Ġz onder
Ġs u
Ġb el
Ġme dicatie
in us
R I
Ġge b
ol ische
i ale
x im
Ġisch emie
Ġ ant
h oog
Ġj aar
S amenvatting
b ij
Ġv olg
c o
or ax
Ġsy st
d d
Ġh er
eer de
Ge en
Ġ1 2
oc ardi
ati ge
Ġin spanning
w ee
st oornis
i p
r an
t h
1 9
yp e
at er
Ġh uis
Ġst enose
ro ken
Ġwor dt
n en
sla cht
Ġe x
Ġpro cedure
v ol
Ġd d
y c
ak er
r ic
la at
re qu
l ijk
A l
ar ct
Ġbl oed
ĠS t
er ol
i den
iklin iek
o x
am elijk
l op
ce s
J a
ig n
Ġe cho
om pl
Ġt oe
j e
Ġv ent
ulm on
B rief
1 2
st ell
Ġb or
r og
ac em
o cht
k ing
ag n
b aar
at ig
Ġ5 0
lo w
elijk e
acem aker
ich amelijk
ĠA F
atie f
Ġin ter
Ġverv olg
d atum
M edicatie
ri cht
as s
Ġ +
Ġcolleg iale
Ġbe hand
u g
Ġal s
ge b
y sp
Re den
w eg
' s
Ġm id
p en
ri kel
ite it
Ġbor st
o ven
umf ibrilleren
Ġ1 00
Ġ ch
H TX
at us
Ġrecht er
Ġ20 0
Ġi mpl
Ġd it
e p
am il
: [
ĠO p
Ġge h
r itme
V er
ath ie
ula ire
k lachten
ĠCA G
sc ore
acht ing
alc ium
] )
E CG
a ch
Ġru st
Ġcardi ale
Ġ :
Ġafwijk ingen
Ġ( [
f orm
Ġw at
Ġn e
ompl ic
Ġhoog achting
F R
Ġge zien
Ġr isic
ĠM et
ak t
Ġlon g
l ijden
ab ie
Ġ1 6
k lep
su ff
D i
Ġver hoog
e b
L ichamelijk
he den
ing s
Ġ1 5
l an
ijden s
D ecursus
Ġa p
Ġz o
ĠNorm ale
n st
k er
er i
ĠM I
Ġv ol
ĠE r
ĠR CA
Ġge le
ic i
Ġm l
al s
ant e
requ entie
Ġmo gelijk
gen omen
ĠO n
8 0
Ġver b
ĠP ol
C V
b er
Ġ ;
O p
Ġs ign
y ten
Ġ2 5
M I
sp roken
C T
y m
Ġ1 1
ro mb
Ġk om
y se
l ine
in f
Ġu ur
Ġd aar
sp re
B G
ch ocardi
P rocedure
ĠM RI
op athie
n oe
ĠLV EF
Ġgedilat eerd
e de
Ġd ysp
as c
oc ard
res sie
Ġhart f
Ġpati ent
w icht
ie uw
S t
am nese
== ==
) ;
Ġw as
or en
ie f
Ġw eer
an den
ar ige
or ac
ru ik
ro p
Ġimpl antatie
el en
Ġw and
ind s
suff ici
ĠA o
% .
Ġge d
B e
C H
Ġeer der
Ġv ia
Ġvervolg consult
ar m
ĠVer slag
Ġge v
lin ische
Ġ ang
Ġb eleid
op rol
ogra fie
ak lep
Ġatri umfibrilleren
ol est
ula ir
agn ose
ab et
oprol ol
m ent
f usie
op t
y ocard
inus ritme
olest erol
Ġs ec
ĠU it
am e
Over ige
Ġa c
4 0
ĠC on
d o
al yse
Ġk an
Ġb et
stoornis sen
a ire
H art
ĠR R
. :
Ġz ich
yc ard
en g
stell ing
Ġu w
ĠB ij
---------------- ----------------
Ġ8 0
Ġgeh ad
C or
Ġp re
ĠA V
el s
g er
Ġr itme
I N
di ge
Ġ art
ĠA an
Ġ3 0
Ġo ede
ee k
om y
Ġhuis arts
M et
ĠP ati
p le
ĠE F
uc ces
Ġsign ific
Ġger inge
ro uw
Ġw v
alcium score
Ġh ier
Ġp ulmon
ĠT I
Ġ >
Ġh o
z en
D e
ycard ie
oor t
Ġaf spraak
Ġd ie
Ġg aat
Ġk le
Ġt ype
re at
m eld
Ġb as
abet es
k un
Ġt ijdens
icht ing
Ġm atige
am er
on e
id ing
3 0
Ġg ro
Ġw eken
at e
Ġo b
E S
Ġwor den
Ġdec ursus
Ġma anden
res s
ĠI I
of d
Ġp ar
oc yten
ant ie
Ġh ij
ff le
om ie
Ġbe kend
ĠA l
Ġh ypertensie
iet s
it is
Ġbe eld
oc k
Ġ1 9
Ġc m
or g
ol ter
Ġa s
er ose
Ġs ou
V I
l ut
u i
m et
w aar
er g
at en
ucces vol
Ġaort a
1 1
Ġw eg
an der
orac ale
op en
Ġc onsult
ĠS T
Ġd ruk
er v
Ġvolg ens
ĠGe slacht
Ġaort aklep
m l
Ġ1 7
Ġp ost
Ġh em
Ġsou ffle
Ġn ier
Ġw e
Ġl icht
wijz ig
Ġsyst olische
bl atie
Ġre d
Ġs n
l u
x t
Ġer nst
Ġd o
is atie
Ġst abie
k l
o v
t ri
Ġs e
TE L
e ft
eri or
a de
Ġg ra
Ġvent rikel
ĠH et
Ġge gevens
Ġsu b
Ġont slag
Ġst art
oel ichting
b le
Ġp le
mm Hg
lut ter
v ens
ro fie
Ġn eg
sch ijn
Ġma x
Ġt ra
la p
] -
m atig
m er
S p
amil ie
o om
in nen
m an
omy opathie
i v
og ram
at ine
ĠP rocedure
Ġ \
Ġan amnese
a ge
laat s
al l
ou den
ple eg
R S
Ġdysp noe
Ġverhoog d
R R
? :
ken de
at or
r oe
Ġa de
d ra
n d
c m
Ġst ent
Ġk lep
Ġdag en
ĠC R
ĠN a
re ft
et rie
H ypertensie
ĠL A
Ġp rog
le cht
p ro
u nt
Ġpro xim
ĠV T
inf arct
p it
ver slag
ĠCon clusie
Ġ6 0
r en
af wijk
Ġw eek
O R
Ġbe p
ot al
of act
Ġb en
T oelichting
er ap
Ġhartf alen
Ġbloed druk
ĠR e
otal ol
us p
a se
o on
l oed
E cho
schijn lijk
% ,
. |
om in
Ġcont act
eratie verslag
og en
Ġb oven
Ġsc ore
Ġre g
Ġno dig
am eter
Ġg en
ĠCA BG
Ġa blatie
Ġs ch
Ġ1 8
u eel
i o
C K
u st
den os
ĠS R
id ief
er inge
Ġla b
Ġ J
h uis
Ġver der
ĠT A
Ġt ach
Ġm oe
Ġdi ast
9 0
in suffici
Ġth oracale
Ġ ele
u ra
Ġl ang
d v
th orax
ofact oren
ot en
Ġeer ste
A S
Ġ X
ge st
Ġ .
2 5
Ġpol ikliniek
Ġz ie
Ġ <
c ont
A f
h al
k g
ot h
ĠC ardiale
1 5
wijzig d
Ġgedilat eerde
ec i
Ġse pt
v ic
A C
acht e
Ġk ort
m aal
it r
ar i
j arige
Ġb innen
Ġper fusie
u ut
min der
ĠC ardi
Ġ radi
ic a
a ce
Ġal le
Ġpol i
6 0
ĠH TX
AD S
ĠD i
it ie
raag stelling
Ġla st
op ie
re gel
a ag
s el
L V
R V
Ġcardi oloog
Ġst op
d eling
ĠD D
Ġa sc
j ect
Ġ9 0
Ġaan ge
Ġto en
D L
eng te
Ġv eel
e ctie
ar en
ĠOn der
Ġle ver
lap s
ro f
Ġde ze
Ġer g
Ġoede em
m ol
N iet
a v
ĠA P
ati o
Ġkom st
w and
v ocht
V T
2 1
ijd s
Ġsp ra
lo b
Ġla at
Ġs inds
ch olesterol
P ati
ĠUit slag
we ge
M ER
ar e
ig en
Ġh yp
Ġz e
ĠB e
ĠQ RS
v an
v raag
ge en
m ie
Ġgeb ruik
ol l
Ġverb and
em en
Ġh eb
N UM
m p
NUM MER
TEL EF
OON NUMMER
TELEF OONNUMMER
sl oten
p ol
M A
op eratie
cl erose
Ġm ee
p m
Ġper c
erk t
Ġst atus
Ġsignific ante
Ġp al
ĠPol ikliniek
ig heid
d is
Ġaf ge
Ġs lecht
1 3
ĠG oede
o op
Con t
ge men
gemen e
Ġi k
z onder
Ġ ,
Ġ2 4
il at
Ġp at
m ensie
ijk t
Ġz iek
C ardi
alis klep
Ġv en
Ġbehand eling
7 0
y l
E H
b d
e f
eg ment
d ag
omp ens
st aan
meld ing
in ine
L ab
Ġl ater
Ġter ug
Ġ7 5
y es
ric ulaire
Ġ7 0
Ġper ic
ĠS p
je ctie
reat inine
v ind
o b
radi oloog
ven en
Ġcol laps
Ã ¯
h ol
Ġbij w
os is
ĊĊ Ċ
R E
la s
om etrie
u k
z a
atri um
ĠLV F
r atie
C ardiale
m id
s ist
c ardi
Ġ arts
Ġdi mensie
P CI
or gen
Ġc ardiologie
er e
geb re
Ġver minder
ĠE CV
er ing
u d
pl an
201 5
s y
u ik
oe m
Ge achte
Ġwaar schijnlijk
i der
Ġe chter
Ġa ant
Ġm yocard
2 2
Ġstabie l
ui zel
Ġ at
ele f
Â ł
ĠN ee
Ġe v
m s
Ġop n
Ġcont ra
Ġon ge
lin iek
H A
a der
G FR
ent r
Ġdi st
Ġsn el
Ġcor dis
Ġh aar
sla gen
le x
O B
Ġm an
il t
ĠD ecursus
i x
gen de
vic e
el f
res ent
Ġd uid
r el
Ġd ys
p ijn
Af spraak
Ġcon form
Ġinf arct
ct ion
Ċ Ġ
ur ende
ati on
Ġd ilat
Ġop genomen
st enose
richt ing
Ġ iets
erap ie
chocardi ogram
ĠP V
z ol
Ġle ad
el den
h ouden
me dicatie
om at
201 6
wee st
ĠN iet
u p
Ġdi ff
1 4
et en
Ġc omp
Ġk un
Ġma xim
ro om
Ġcolleg a
ĠS EH
Ġs h
Ġf or
t oc
p er
ĠH art
er os
v ast
en ing
ra gen
ath eter
Ġernst ige
it u
Ġan alyse
Ġa m
ĠIn dicatie
19 9
Ġge weest
7 5
Ġple ura
b en
Ġrec idief
A G
k ele
lin isch
z ijds
ar c
c or
L AD
al ium
Ġs l
Ġbe kende
Ġp ath
i ografie
Ġn ieuw
N orm
Di abetes
Ã«nt ie
Ġvan wege
oem de
ĠV oor
n ee
201 4
um ent
ĠG eringe
Ġ yes
toc ol
u b
7 3
omplic aties
den s
Ġc alciumscore
Ġhart as
u ro
olog ische
Ġbel ang
zonder heden
I CD
denos ine
gev en
r et
Ġe vent
R A
Ġto ont
Ġm itr
u te
Ġgele iding
gen oemde
dv ies
w el
on den
pit aties
Ġover ig
A tri
Ġver pleeg
RE HTX
ider zijds
oc ument
um mer
it us
Ġtach ycardie
iklin ische
g ang
201 7
ĠE cho
uw d
Ġr et
Al gemene
Ġspra ke
Ġa sp
E xt
N R
H et
==== ====
Ġla ag
Ġin t
ĠR C
T B
Ġp acemaker
g ing
Ġkun nen
Ġex tra
f isch
kun dige
Â µ
Ġweg ens
Ġc ons
vast atine
o de
eeft ijd
ne um
ĠNorm aal
ol ie
Ġz eer
loed druk
Ġm s
Ġre st
er ie
Ġver m
uccesvol le
ĠAan melding
Ġob v
an k
Ġz ien
yper cholesterol
ĠP er
Ġmet oprolol
Ġst ress
Ġho ofd
y t
Ġp resent
ĠA S
Ġover leg
oll ing
ac ing
rofie l
me di
an ce
d els
ĊĊ ĊĊ
1 6
a akt
ric usp
O S
Ġwaar bij
Ġpulmon aal
ĠOnder zoek
A F
ade m
i od
c omplic
Â ²
E r
Ġd uizel
u ele
in a
uit en
ĠpatiÃ«nt e
B TB
k al
Ġdec ompens
O n
ang ing
Cont role
Ġp ass
uc c
g ro
we z
ĠA T
S P
Ġz elf
Ġz al
L engte
en dens
ur g
Ġv aat
Ġz ij
ar ing
ce pt
Ġp l
or ator
ĠC or
201 3
ge le
oel t
orator ium
i aal
Ġpro ble
Ġ %
Ġver ander
Ġ el
k ken
Ġcardi o
201 8
us sen
Ġh oe
Ġb eter
Ġcoronair lijden
Ġgev oel
Ġvolg t
Ġp ri
B ij
ro se
N one
f ra
c a
ĠĠ Ġ
om ent
Ġan dere
ĠC O
Ġ '
Ġher st
Ġl ijkt
ne u
Ġprog ressie
Ġrec ente
cht s
. .
ĠK linische
sp ace
Ġmin der
un ction
Ġd is
iod ar
f requentie
N a
Ġh el
ele v
Ġp laats
lop p
v entie
ran s
wijz ing
re um
ma akt
er ken
ve al
ĠK liniek
den king
eren de
ĠO K
Ġk g
Be hand
on en
D R
i Ã«
Ġme dic
ell itus
Ġpro tocol
Ġth uis
Ġbe d
Ġp la
vind ingen
onder zoek
Ġs inusritme
di t
vent rikel
spre king
di p
Ġ _
Ġs egment
i ze
op rofiel
ĠS c
lan k
Ġged urende
er end
u iden
Ġz w
or is
k w
le den
ypercholesterol emie
regel matig
ol low
s em
Ġbas is
Ġe p
Ġen kele
201 2
h m
Ġe igen
S c
t ijd
Ġred elijke
ar isatie
Ġgra ad
Ġbe iderzijds
ĠV raagstelling
entie l
Ġbe sproken
ĠR A
Ġs otalol
re ep
Ġde vice
nt slag
Ġc a
p acemaker
o it
Ġop eratie
k k
T c
Ġhart k
F amilie
mm ol
Ġ2 3
eer t
Ġp os
Ġverminder de
os c
Ġpleura vocht
Ġperc entiel
ee s
Ġin dicatie
Ge slacht
T ype
ig gen
Ġneg atief
t is
co hol
Ġver richt
in u
e x
it ale
e ur
oe p
Ġ --------------------------------
ĠH olter
l uc
ĠVer richting
Ġatri ale
Ġs inus
Ġma ken
erk ingen
Ġ1 20
ĠH eeft
lopp ingen
201 9
ĠOver ige
uro sem
Ġo og
urosem ide
Ġnieuw e
ĠC a
P ol
Ġw ij
gel open
Ġf low
eken d
Ġslecht e
Pati Ã«nt
Ġ-------------------------------- ----------------
Ġcardi omyopathie
r um
ĠVerslag datum
Cor onair
o ver
Ġ0 9
A P
Ġ ing
Aan vraag
ĠT TE
Ġb i
Ġele kt
Ġrisic o
Ġap ic
D ocument
d z
Ġbe oord
], [
atie ve
Ġpar ox
Ġ201 6
il i
ĠA f
d s
re ening
ren ch
Ġafwijk ing
be kend
ĠP M
g aan
s s
Ġheb ben
Ġme di
2 4
ĠLV AD
Ġop t
Ġp ect
Ġ1 50
Ġst en
r t
Ġver d
Ġp neum
ĠA C
Ġk amer
o ofd
se c
iklin isch
st ru
Ġinter medi
Ġver wij
elef on
v is
Ġbel ast
A c
Ġb dz
yp ische
rop on
b el
e k
f rench
S ize
ĠPati ent
ul ier
er n
ĠS amenvatting
pl and
Ġl aten
ĠPV C
Ġm atig
Ġt romb
ĠL eeftijd
om s
ĠT el
TE MI
erk ing
gel uiden
ur en
oven genoemde
Ge wicht
o ken
eft ijd
Ġgest opt
Ġt ussen
Ġr ond
ra d
M G
Ġto ch
ĠC K
Ġgest aakt
v orm
ym f
B el
e sie
ir urg
Ġ ath
ĠI nt
Ġa chter
val l
Ġ5 00
Ġkom t
Ġ ro
ĠC V
ĠC ont
ist olling
Ġge w
1 8
Ġbij geluiden
Ġkort adem
z iek
k om
1 7
Ġa ct
re veal
Ġm oment
a di
ron ische
Ġsouffle s
luc ose
oort s
ĠR F
Ġverhoog de
z et
Ġt wee
Ġin tra
et reft
201 1
-- >
l ip
ru g
ist ratie
ĠPati Ã«nt
lan co
Ġ201 5
iteit en
Ġpijn klachten
K linische
kl aring
Ġv al
Ġnier functie
I MA
we zen
em or
ĠT e
afwijk ing
Ġpass end
waar den
Ġ Âµ
ig h
ĠZ o
Ġpol s
e en
Ġ3 5
Ġbe z
Ġz icht
ct omie
Ġpresent atie
Norm ale
ĠT ele
Ġcor on
r ijk
Ġv ocht
Ġath eros
Ġh ypert
pl ijden
Ġper sist
o ur
alc ific
ol atie
be eld
Ġdys functie
em ische
Ġsten os
ĠI NR
ogra fisch
d at
Ġdiast olische
der s
de d
ĠL ab
Ġhartk loppingen
pt omat
Ġdecompens atio
Ġb uik
b are
ctie ve
Ġe ff
ropon ine
on regelmatig
ie d
elefon isch
Ġmitr alisklep
consult atie
Ġver gelijk
p ect
int ig
/ -
nd room
ĠTele consultatie
P D
Ġo or
N P
Ġd uur
z em
m at
Ġb eg
ĠAo I
O pt
Ġdo en
Ġbet reft
ĠCR T
Ġcardi aal
oe id
f ect
u le
il d
em ber
ran sp
Ġrisic ofactoren
onregelmatig heden
op ril
Ġver w
at ter
Ġ201 7
o w
B etreft
S ucc
Ġge wicht
Ġgest art
Opt ies
Ġsu p
ee ded
Ġn on
Succ eeded
ĠSt atus
B ovengenoemde
st en
st ijden
k te
Ġj arige
Ġ2 1
mb olie
Ġ2 2
ut en
t he
afwijk ingen
insuffici Ã«ntie
C M
or te
Ġdaar na
Ġno v
ĠM edicatie
um ar
Ġpati ente
Ġbl ij
st ol
V oor
ine sie
arc in
Ġopn ieuw
Ġz org
Ġt en
Ġre pol
r al
Ġuit ge
Ġvent riculaire
Ġin dien
ĠF FR
on g
CA BG
S T
erg ie
el de
Ġ4 5
ĠP OB
Ġdoor ge
1 00
un d
t o
ĠCR P
Ġc ir
im aal
Ġs amenvatting
ĠA n
Ġ201 4
Ġgeleiding stijden
eci alis
sl ijden
Y HA
do ende
ra g
Ġred elijk
Ġrisic oprofiel
201 0
operatie f
iÃ« le
ĠC alciumscore
zoe ken
ĠN u
a ken
ul i
i di
Ġzicht baar
B LE
Ġc ar
ĠP G
Ġbijw erken
Ġpal pitaties
re m
l ies
Ġinf erior
weg ing
ecialis me
B S
ĠM V
ĠH CK
Ġlaat ste
Ġaan wez
ĠĊ Ġ
Ã« n
Ġatri um
ĠP Q
Ġ3 6
P ost
ĠH ij
u de
ĠV AG
Ġho ge
Ġtoen ame
Ġkle plijden
Ġst uk
Ġbas aal
2 3
staan de
Ġbij zonderheden
Ġf requentie
In dicatie
eu ze
ys i
t op
ver ander
j a
er s
Ġm ag
Ġb pm
Ġpect oris
uid ing
iodar on
ra zol
Ġver denking
f lutter
Ġuit gebre
Ġge p
ijn en
Ġb rief
ĠLV H
Ġpat int
Ġv ragen
Ġ201 8
Ġg b
8 5
an e
Ġth orax
Ġasc endens
id atie
Ġte ken
di agnose
ĠH em
insuffici entie
Ġs la
ĠM O
Ġs itu
st am
Ġproxim aal
ĠOnderzoek datum
ĠI C
il de
Ġle eftijd
Ġ201 3
Ġde el
Ġon s
r g
A nt
Ġz ou
complic eerd
ĠV CI
ort h
4 5
oe zem
arcin oom
C VA
the se
Ġn ame
Behand el
Ġintermedi aire
Ġcoronair en
is s
S inusritme
Ġsh ock
Ġh e
ĠD aar
c omp
y d
ap amil
20 20
weg en
Ġg aan
ĠI s
3 5
A L
Ġv ull
m ijn
N atrium
E T
Ġverander ingen
a u
Ġgele den
if eer
ct uur
V AD
Ġk eer
0 1
O T
Ġc om
gro ot
Ġasp ect
dilat atie
Ġmaxim aal
Ġvol gende
Ġg raag
S R
Ġdi agnose
chocardi ografie
R oken
Ġe GFR
der en
0 9
Ġaf gelopen
Ġin suffici
E P
lop en
Ġcardio versie
ed s
Ġge k
ok ker
raag t
an s
Ġing reep
mg er
R itme
Ġproxim ale
Ġlong v
ater aal
ge me
Ġbehand eld
ken huis
mger uis
ok t
Ġ ur
igh t
Ġs lank
Ġmid dels
Ġrepol arisatie
Ġdilat atie
ĠH ier
Ġma and
on ie
Ġ =
geme en
Ġwand onregelmatigheden
Ġade mgeruis
Ġp t
c c
Ġter mijn
u us
Ġt onen
pect atief
. ,
am ma
osc opie
ĠA L
se ctie
Ġv rouw
ee st
P acemaker
Ġperic ard
Cardi omyopathie
Ġm y
L U
vorm ing
Ġl ymf
H oofd
0 8
Ġf ra
O ntslag
ill en
or f
ro m
d oor
Ġinf orm
Ġcont inu
asc ulaire
Ġk al
romb ocyten
ĠAT P
ron ic
ee ds
Ġsc an
ransp l
M e
agn ost
Ġritme stoornissen
Ġmin uten
Ġang ina
ĠĊ Ċ
ie l
l os
n ummer
olog isch
gen itale
an c
ĠII I
Ġd us
Ġk oorts
Ġh ad
Ġst ru
Ġd ra
dra cht
Ġinf ectie
] ):
ĠI k
ĠN S
Ġ ar
: \
be zoek
rem iteiten
Ġverm oeid
ide mie
hand eling
ed t
Ġw arm
ys maal
v rouw
in ig
k amer
klep afwijking
Ġbelang rijk
Ġaant eken
Ġ orth
3 6
Ġ2 6
ĠV AD
Ġs oep
la st
Ġ14 0
Ġen d
Ġpol iklinisch
Ġw il
ĠH T
Ġ5 5
ie p
sch at
U it
Ġ -->
Ġaanteken ingen
o umar
m al
elev ante
Ġcont rol
z uur
gest eld
Ġk linisch
g t
qu e
Ġm orgen
er antie
T huis
Ġt ricusp
eg en
p laats
p ar
ier functie
Ġonge wijzigd
Ġhartf requentie
all on
ann en
ĠD it
ste em
Ġv is
ĠEF O
pt aal
z org
ou w
L aat
lip idemie
c ardiale
em p
og rel
Hart klepafwijking
bd omen
am ine
id ogrel
Ġh olter
C h
Ġteken en
Ġv rij
R CA
Ġev iden
Ġre eds
te am
Ġmeer dere
P M
Ġgro ot
Ġant istolling
on it
ven e
Ġsignific ant
Ġver wijzing
Ġg radi
vat slijden
Ġatheros clerose
0 5
Ġher h
Ġ6 5
og lob
Ġf amilie
ĠM e
kom st
ĠVer der
ĠCor onair
ost on
er de
d aag
ĠTA VI
za ak
Ġg r
ro c
Ġf iet
dip ine
stru ctie
Ġeff ect
Ġin ge
Ġduid elijk
p ressie
Ġk orte
Ġsept um
oor de
ĠA tri
isic ofactoren
B ekend
ocardi tis
L A
ĠP ro
Ġd omin
Ġgebruik t
D S
R ADS
Ġgro te
fra ctie
un i
oglob ine
P ulm
ou d
200 9
Ġf unction
o et
Ġsc reening
Ġe c
te ken
a and
ĠV F
ag on
ĠTe vens
ĠQ Tc
Coronair lijden
stell ingen
Ġop ge
Ġalle en
Behandel plan
it h
Atri umf
Ġzie kenhuis
ĠD M
Ġmyocard infarct
ĠV ES
ĠH F
Di ameter
Ġc omplicaties
jectie fractie
Ġen ige
D P
Ġc re
Ġis olatie
Ġvergelijk ing
las se
Ġt elefonisch
Ġrec ent
la b
val idatie
j es
6 5
Ġv l
ast in
ĉ ĉ
lob aal
ĠÂµ mol
Ġaanwez ig
Ġst eeds
Ġa dvies
en oc
Ġru g
Ġla ge
ĠO ok
Ġben en
edt ronic
el t
Ġvan daag
ul atie
Ġ201 2
Ġinform atie
lat er
Ġre gel
ibril eren
G uiding
M O
Con genitale
0 2
et waarden
chten d
eur ys
ranspl antatie
af deling
P re
Ġcomp lex
oc atie
i eren
on de
Ġs oms
oumar ol
spre k
st aat
Ġb allon
Ġsy ndroom
be weg
ĠN YHA
an amnese
eken de
enoc oumarol
Ġlinker ventrikel
G T
Ġac uut
sc an
Ġl u
Ġc ap
Thuis medicatie
ĠCardi oloog
erol ateraal
er ent
Atriumf ibrileren
ro on
ra al
Ġst atine
ec if
Ġk unt
vull ing
k n
spre ken
Ġ201 9
Ġang iografie
ell en
Ġb er
A ct
Ġd osis
ecif iek
Ġte vens
Ġc ath
ĠA ort
ress ure
Ġdist aal
is sel
ind opril
uur d
Ġmo et
ĠG aat
Ġa ut
Ġoede men
l ergie
L e
c entr
o gelijk
n og
Ġp laat
r in
lop idogrel
Ġduid elijke
ab an
Ġbeoord elen
Ġ2 8
2 6
iggen d
ĠCont role
0 3
Ġdimensie s
z ij
Ġdist ale
Ġbel oop
ĠH b
mid d
20 21
P REHTX
ĠB rief
Ġev t
am ens
Ġm ellitus
Ġno oit
ĠC h
dit ie
a ak
a uwd
eci al
Op eratieverslag
and acht
sl uit
atter ij
ar ox
Ġwe inig
af spraak
Ġsub c
Ġb oezem
N e
met en
it y
b and
Ġapic aal
.| |
i ot
Ġstenos en
Ġv oelt
abie le
is k
Ġade qu
Be spreking
Ġvan af
ĠW el
ul s
Ġr ight
S E
B MI
Ġe chocardiogram
Ġ2 7
n ose
Ġv ast
Ġan eurys
Ġc o
Ġaf deling
ang iografie
Ġkle in
Ġs uccesvolle
5 5
ort el
ĠRC X
Ġ1 80
Ġst aken
ne st
m atige
ĠL BTB
Lab oratorium
% )
ver s
ri ft
n orm
Ġtot aal
O b
ĠOn ge
r iet
h art
Ġver slag
ĠL ink
Ġduizel igheid
Ġre sp
Laat st
k le
Ġr ate
200 8
val u
r ische
ĠN T
ep ar
D omin
ver lies
Ġ13 0
ĠC VA
Ġstabie le
B loeddruk
ĠI V
ĠH ypertensie
Ġin st
Ġpulmon ale
Ġlicht e
E E
S oort
ĠP T
Ġbep erkt
b re
Ġf ollow
verander d
Ġverv anging
D I
Ġk rij
Ġtot ale
asc ulair
9 5
druk ken
ro cardi
vall en
os ering
im ale
Ġkle ine
Ġaan vullend
ĠL DL
Ġal cohol
Ġ arm
ap s
I I
Ġne ur
7 4
em t
ĠP REHTX
Ġj an
0 6
Ġver dere
E CT
hal ve
Ġhyp ok
Ġ Ja
Ġt ak
h r
er der
Ext r
Ġonder wand
Ġbehand el
aal d
M eest
ĠK alium
er ia
le ca
ch n
Ġ( >
Ġ16 0
d u
r it
onit or
ir on
Ġw erk
L IN
Ġpneum onie
ra at
Ġben auwd
Ġsnel le
c ol
ot aal
Ġv or
Ġ2 50
ĠE n
Ġcar ot
ĠM CH
Ġonder zoeken
ol act
Ġwaar na
et ica
erv atief
plan de
re g
l ijst
Ġ2 9
vent s
/ [
d nis
eu k
Ġk n
Ġh eel
ĠB loeddruk
Ġ201 1
ys lipidemie
0 4
Ġk omen
olact on
EP I
ĠCO PD
Ġpath ologische
oth erapie
Ġh yper
f ibrilleren
Ġex pectatief
ĠL IMA
Ġbe ide
v olg
ĠD ES
ogen e
Ġa denosine
Ġge pland
Ġstru ct
CH ADS
Ġplaats ing
Ġf oc
Ġm al
ist ent
ecial ist
v a
Ġgradi ent
Ġt rans
R eg
iron olacton
ĠR ec
Ġge geven
Ġwel ke
sch rift
Ġre s
ĠRV F
Ġa b
Ġcontra st
intig ra
ff ort
U R
Ġuit slag
art an
Ġdiff erent
kw ab
Ġmg a
ron ch
Ġ4 8
Ġafwijk end
y ste
p p
ĠT C
Ġla esie
ĠOp name
Ġvoor schrift
Ġfor se
Ġop eratieverslag
Ġep is
Ġernst ig
f alen
ĠH A
em aal
Ġbe vindingen
ĠB lanco
ĠOp eratieverslag
Ext remiteiten
Ġpri ma
i ent
ĠM atige
aar d
Ġhem at
min uut
i ve
Ġna cht
h ier
Ġ9 9
h ogen
3 7
Ġsp ont
Ġh and
Over weging
ĠE le
st and
y st
ĠRV SP
de fect
ente us
Ġz it
Ġe cht
D yslipidemie
Ġm ic
9 9
ĠC C
0 7
am enteus
lu or
Ġasc al
B P
ar de
Ġsp ort
Ġk lasse
Ġh al
I s
o ut
ĠS V
Ġ1 10
Ġpos itie
Ġmee st
Ġsy m
t ransplantatie
Ġstop pen
Ver wijz
geb ruik
as sen
E vents
ĠGe zien
Ġprog nose
H eeft
Ġgeb ied
g at
LU E
Ġ3 7
VA LUE
Ġ4 1
R T
nst ige
abl atie
v anging
Ġproble men
los ure
Ob ject
cardi oloog
Over ig
ge mbolie
ĠTh orax
Afspraak Object
re den
DR D
Ġge meten
Ġw illen
Ġerg ometrie
Ġa d
ste st
Ġver groot
S uccesvol
Ġn emen
f s
ĠE en
b la
C L
ut aan
rg entie
Ġcontinu eren
Ġpulmonaal venen
ut ing
Ġ0 8
V CI
Ġinspanning s
Ġj aren
Ġf urosemide
Ġl open
ur ing
abl okker
ma x
U rgentie
ĠIn dien
ings stoornissen
Ġant rum
rof ysi
y nam
Ġmedi astin
======== ========
Ġgen ees
Ġgeb eld
Ġen kel
Ġ and
ang er
S V
ĠP I
200 7
ecifiek e
Ġverpleeg afdeling
s n
M RI
atheter isatie
Ġsp oor
p at
Ġth erapie
Ġinter ventie
P er
Ġge z
Pol iklinische
a gelijk
Act uele
Ġto v
umf lutter
b rief
Ġverb eter
R isicofactoren
Ġe ven
Ġd er
ĠU reum
Ġoor zaak
Ġ ĠĊ
ĠC reatinine
CV D
ul p
Ġcoron aire
g ra
rad ycardie
Ġbe sch
Ġevent ueel
ĠS VT
epar ine
M B
Ġme d
C O
Ġkortadem ig
Ġon g
Ġcon ditie
C X
Ġ ic
ĠH g
ol om
ar b
tra at
7 6
Ġdi ameter
Ġper ifeer
= [
i z
Ġsy steem
Ġge maakt
r ig
N ierfunctie
iets erg
kun de
e ffort
erose ptaal
ziek ten
VA Sc
hoog d
Ġan emie
ĠP A
ĠV S
Ġr el
gat st
Ġop en
g s
ut atie
n iet
Ġ( %
ud ie
o opt
4 6
ist eren
Ġfor s
r ale
re st
Ġam iodaron
Ġ roken
Ġw issel
Ġon d
Ġme i
or s
Ġvoor af
Ġvoor wand
Ġpersist erend
M V
Ġw aren
Ġc f
a il
Ġuitgebre ide
ym ptomat
N amens
f er
lo dipine
Ġbe zoek
In stellingen
ient ific
ĠC H
Ġa ug
On bekend
Ġna dien
b pm
Ġver la
os f
at m
sc al
ĠRC x
Ġdi agnost
ĠA denosine
Ġverw ijd
Ġver kal
Ġmaxim ale
D D
Ġo c
Ġgest uwd
ant al
aar t
Ġ3 8
ant op
Ġk ader
Ġbed raagt
b in
Ġneg atieve
re gen
v i
ĉ Ċ
Ġeviden te
h ank
Ġdaar om
ie le
Ġl ies
Ġ201 0
k ingen
re ven
Ġat ypische
. \
v ang
i ken
Ġst aat
C C
P acing
ult aat
ver vanging
Ġr elevante
su le
Ġc av
ĠN e
di kte
Ġch olesterol
I OS
â Ģ
erk te
Ġopn emen
Ġi om
ces s
ĠR eg
Ġgro et
antop razol
vent riculaire
Ġbijw erkingen
Ġver zoek
ur ie
ro ke
Ġw ond
Ġe ind
Ġa V
Ġaortaklep stenose
il traat
z ie
Ġvan uit
Ġf lutter
it as
S C
Ġge wijzigd
I nt
ĠE x
St ent
Ġherst el
Ġpl ot
Ġdysp neu
Ġcons ervatief
CK D
- ,
um at
ric ulair
ĠRe chts
C omplicaties
O AC
Ġpre ventie
Ġge he
Op name
er t
Ġcir c
ic ulair
in s
ĠS N
BLE T
Ġstart en
ĠDaar na
Ġparox ysmaal
ĠM edtronic
P ulmon
l yc
G IN
gatst on
ic us
1 40
an co
Ġm ass
ac et
im pl
Ġo kt
H R
chocardi ografisch
cont role
ĠM yocard
als venen
Ġvol le
Ġl i
le air
o id
W est
Ġp acing
Ġgev onden
Ġart ik
Ġorth op
Ġger ing
Ġ9 5
ron isch
mp el
Ġme an
stol erantie
2 9
Ġdiff uus
ass istent
200 6
Ġo st
cont act
op e
oc or
Ġon ze
it ief
ĠL icht
Ġlongv elden
am ol
c us
Ġt roponine
ou der
ĠSt art
ĠW ij
Ġver klaring
za am
kl ier
Ġvermoeid heid
Ġi a
ĠV an
Ġch irurg
Ġeer dere
A antal
euk ocyten
o en
Ġdifferent iÃ«le
Ġachter uit
ĠCV D
7 7
P A
Ġj uni
Ġdoorge maakt
Ġap ex
Ġlater aal
Ġover leden
Ġver leden
? )
M yocard
Ġp ressure
der d
Ġwand beweg
Ġno d
A n
ĠT er
Ã ©
Ġcap sule
Ġsec und
4 9
H ypercholesterolemie
Ġst and
Ġt el
Ġaneurys ma
re q
wee k
ĠP ost
on gen
ĠB oston
Ġge plande
ĠMI RADS
LIN G
Ġv aten
Ġf eb
Ġms r
K alium
ast olische
Ã¯ d
ĠCardi o
Ġac ute
um e
Ġoog t
ĠS inds
H em
Ġf requ
Ġdi abetes
Ġradi ologie
ĠĊ ĊĊ
4 1
Ġver k
w it
Reg istratie
- [
y re
TI MI
Ġcon versie
Le ad
ot e
in ide
ul d
2 8
Ġartik elen
T e
sp unt
ĠTA BLET
Z ie
emor alis
ach ycardie
oed ing
valu atie
% ).
Ġan at
ge t
a ctie
I V
Ġoc clusie
Ġge eft
O L
ach y
Ġw eten
gev eer
Ġbel t
Ġret our
Ġm ilde
ad vis
Ġsegment en
leca inide
em ent
Ġon veranderd
c arcinoom
4 7
d ur
ute ur
E C
Ġm ult
Sp ecialisme
Ġpla que
Ġrust ig
op te
TI D
nest isch
ĠS otalol
ct us
ĠCoronair angiografie
Ġ8 5
met ing
il iteit
l ig
C re
ĠAo S
Ġbe spreken
er o
a denos
T h
G eringe
af rag
agelijk s
Ġu p
Ġ20 20
ĠS P
ĠInt er
adenos on
Ġd osering
ĠM ellitus
and aag
am m
Ġhart slag
Ġepis ode
] ).
ĠAC S
Ġinter n
dnis on
8 3
Ġade m
Ġne f
a emie
Ġsoep el
- (
W ire
a den
Ġherh alen
Ġblij ft
l ijn
Ġb ere
Al s
Ġbl ok
Ġont slagen
8 8
Ġb ronch
ven be
Ġge Ã¯
ĠNS TEMI
Ġhart team
ur etica
Ġinf iltraat
Ġv ader
Ġor ig
Ġ5 2
Ġv ri
Ġop nam
kk oord
Ġeer st
4 8
C R
g ometrie
hm us
n c
Ġpol iklinische
ĠV P
v l
ĠP AC
St atus
iss elijk
Ġc alcific
ĠS uccesvolle
ui dige
rog ressie
Ġge midd
st ma
Ġlon gen
v ia
Ġmaar t
Ġbe houden
Ġdaar bij
Ġont w
. ):
og ing
Ġap ril
Ġg lobaal
ist er
st el
Ġvl gs
8 6
n o
S TEL
Ġi st
Ġma ag
re mpel
al t
Ġm nd
Ġged uid
ĠTI A
anger sch
Ġafge sloten
STEL LING
ari aat
ret ariaat
Ġge compliceerd
G oede
ru st
Met oprolol
vers ib
R M
Ġuitge sloten
Ġ "
Ġtra ject
Ġcomplex en
Ġb le
Ġ qu
te kend
N og
Ġ3 1
Ġc losure
Ġe ch
k omen
b i
roe p
im vastatine
y la
a ine
all en
Ġ6 4
Ġradi alis
al iteit
a y
at int
p ass
Pati ent
Con tra
2 7
s al
Ġne emt
Ġbe oorde
Ġj uli
am p
dra chten
Ġist hmus
ret ard
Ġged aan
luor oscopie
Ġal tijd
Ġact iv
Ġlong arts
P L
Ġpath ologie
re ct
ĠSt op
Ġger eg
Ġur ine
g d
Ġb la
Ġr isk
ĠB ekende
200 5
Ġi r
zel f
Ġpolikliniek bezoek
Ġk w
Ġw er
u ze
Ġge sproken
Ġkortadem igheid
L S
7 9
Nierfunctie stoornis
ox ic
lyc er
Ġvis ueel
20 22
be en
Ġch ronische
Me etwaarden
Ġatri umflutter
3 2
la k
raag d
Ġn et
8 1
ve el
N I
v rij
sy ch
ĠT R
Ġ ?
Ġsp re
ff usie
vol doende
Ġt av
VA SC
ter n
Ġmass a
ĠDi agnose
ĠNT G
Ġ9 7
. )
Ġst erk
Di agnose
re validatie
ĉĊ Âł
9 2
nc ope
ĠDD D
roe f
u e
entr ale
erv el
Ġo ud
Ġde pressie
ijk en
Ġang io
Ġres ultaat
Ġtwee de
ak te
vull ende
Ġlon gembolie
ul us
Al lergie
Ġverd acht
e cho
Cre atie
Ġ ri
C x
Ġ et
Ġin j
Ġtoe genomen
ĠA d
P ro
ĠN og
Ġvri end
1 50
IN R
yt roc
J EC
OB JEC
OBJEC TID
Ġboezem fibrilleren
Ġz n
Ġkn ie
Ġver t
w ortel
ĠN F
Ġc ent
C reatinine
Ġver l
ietserg ometrie
D M
he sie
ĠS inusritme
ameter s
un n
be handeling
Ge b
Ġle vens
H b
8 7
Ġkal k
oc riet
Ġi mp
Ġaf w
ĠPol s
LV EF
9 6
Ġver wezen
Ġverpleeg kun
Ġto onde
Ġch ol
D V
H T
ĠCC U
l ang
ĠL D
Ġd el
bl ok
re ef
BS N
vis ie
ĠHem at
im eter
Ġonder tekend
Ġinspanning stolerantie
Ġhoofd stam
Ġ- >
8 4
ĠZ ij
Ġel uting
Ġw acht
ĠT rombocyten
Ġp uls
an dig
Ġth romb
U reum
ĠAo V
Ġreg ulier
Ġal hier
Ġd rug
ot omie
Ġhoog te
Ġm isselijk
ĠW at
T TE
Ġwer den
Ġsym ptomat
Ġa kkoord
ytroc yten
Ġge lu
ov asculaire
Ġend ocarditis
ĠP L
m erking
Ġst oornis
Ġant erior
or b
Z OR
ĠDe ze
andacht spunt
Ġbe h
elef oon
Ġcontra ctie
a i
Ġi p
Ġgek regen
Ġgele id
Ġbelangrijk e
et isch
Ġmedic ijnen
teken ing
ĠM ogelijk
uw ing
ZOR GIN
ZORGIN STELLING
A uteur
6 4
Ġ200 9
Ġlu cht
Ġinsuffici entie
s klachten
ral ing
In dien
S egment
cl er
Ġaanwijz ing
5 6
Hart frequentie
G lucose
Ġverbeter ing
7 8
h ock
Ġcons ol
Ġbe st
be p
Ġkrij gt
centr ische
mal ig
E chocardiogram
yl zuur
Ġbe en
o okt
Ġge c
b um
gele ken
ĠH V
ĠH R
sal ic
Ġart eria
Ġsitu atie
ule erd
ĠT ijdens
Ġrechts drukken
ib iot
ar co
Verwijz er
ziek te
ol isch
Ġb ellen
advis eerd
g r
W I
wee g
ra cht
Ġa v
dien ing
g ment
pleeg kundige
oe der
et yl
Ġf l
ĠA t
ĠR BTB
Ġvaat lijden
A V
Ġm orf
ze p
ĠP ijn
Ġadequ aat
kel et
Ġ3 3
Ġde f
salic ylzuur
Ġon geveer
Ġop hogen
9 7
Ġver st
ĠA c
k inesie
ĠOnge wijzigd
Ġhypok inesie
5 8
ĠB eleid
in de
Ġbez ocht
Ġsp ecialist
G aat
A rt
as is
Ġover vulling
de s
wij s
Ġ5 8
ĠC HA
ĠAL AT
Domin ance
atie k
ot ale
Ġge cont
ĠO hm
ĠZ e
laat st
Ġd ou
ĠD at
arde ffusie
S H
pol i
B atterij
A o
ek uur
r itis
u ari
es iculair
Ġk in
Ġdi rect
g v
ch irurg
Ġst ern
Ġmediastin um
Ġhypert rof
Ġg ast
Ġb ent
ur atie
ot ische
Ġpal p
ver ende
inf ectie
Ġb ro
Ġmin imaal
Ġd ig
Ġe jectiefractie
4 3
rel or
Ġgra ft
in dicatie
Ġven e
Ġsp ecialisme
ĠV G
i me
Ġb al
On der
Ġp art
ank s
ell ing
ic ag
Pulmon es
Ġh ouden
lijk e
Ġ ie
se gment
ĠG oed
mid dels
G y
Ġinf ilt
Ġd rie
H eparine
Ġgemidd eld
8 2
icag relor
er p
Ch ronische
3 1
venbe vindingen
Ã ¨
Ġher ken
Ġt egen
als nog
Ġin comp
bin atie
ar it
Ġvoor sp
C ol
E erder
Ne ven
Ġaf genomen
Ġbelast ing
ĠL M
Ġant i
Ġduizel ig
Ġa mb
B lanco
uc leair
ĠT oe
dilat eerde
er ator
or aal
Ġde els
Ġover ige
4 2
ab el
Ġzo als
Ġver di
op ro
Ġp aar
ĠL eukocyten
ĠL e
st art
7 2
Ġ3 2
ĠGe wicht
Ġ5 6
ic o
9 8
ĠReg adenoson
umf lex
omplic atie
ik t
Ġn s
Ġhel der
ru b
is ie
ru iken
ĠAl s
Ġ4 2
Ġfiet sen
Ġ4 6
ĠAV R
dra gen
ran ul
Ċ ĠĠ
ĠM CV
UR L
B loed
ut ane
3 8
ĠT EE
Ġaf ter
Ġover zicht
Ġre cept
Ġge schat
Ġver lopen
b ut
op name
Ver apamil
ĠSP ECT
ĠCH ADS
9 3
Ġper ist
y e
Ġhypert rofie
Ġl ig
200 4
ĠPati ente
1 30
ra ger
Ġhel emaal
Ġw ith
4 4
Ġze ker
Ġregel matig
ĠM B
ĠPer fusie
ĠK an
Ġinsuffici Ã«ntie
impl antatie
Ġh uid
Ġmet ing
NI BP
Ġtoe komst
X X
D O
Ġtricusp id
m atiek
ĠAS AT
Ġ6 2
f yla
Ġnov o
Ġw o
T achy
Ġbloed ing
Ġ100 0
zep am
ysp noe
o chtend
w as
in den
Ġdi afrag
Ġn it
Ġdi uretica
Ġextra sy
Contra st
ĠV VI
Ġin druk
ĠRec idief
ĠQ T
A andachtspunt
hal ing
Ġbep alen
Ġtricusp ide
Ver slag
v o
Ġs amen
Ġhier bij
Ġan ders
eu p
Ġre den
r ijd
Ġm aal
Ġ ~
t b
Ġge adviseerd
5 2
b ouw
T oe
Ġven a
ro kken
Ġproble em
BLE D
Ġk l
etyl salicylzuur
sc and
Ġatri a
erk amer
A bd
Ġv asc
Ġdeel contact
pro ble
rop athie
Ġd agelijks
rub ine
A bdomen
se pt
F O
CA G
te st
Ġbl anco
Neven diagnose
Ġover wegen
ili rubine
Ġte v
em isch
Ġalle s
Al cohol
y n
em etrie
Ġin hal
plaats ing
ver t
Ġsl uiten
ie zen
alis atie
Ġuit slagen
IN E
Ġv at
ĠL CA
Ġafge sproken
Ġperic ardeffusie
ri chten
] [
v oe
ĠV oelt
Ġ9 8
oth orax
to ond
Ġg isteren
Voor geschiedenis
hank elijk
V ID
VA I
3 3
ctie f
Ġtromb us
Ġf osf
Ġv e
Ġmedic amenteus
ber e
Ġisch emische
ĠUit gebre
Ġd al
Ġv o
Ġvor ige
Ġge sprek
ĠEle kt
Ġmed ische
Ġg ranul
gele iding
Ġst ij
H olter
Ġgeb ruiken
Ġ17 0
g aand
ĠP C
ĠL ong
Ġsp oed
en st
rog ram
Ġvull en
ĠA m
S inds
Ġl iggend
ĠP ET
complic eerde
ix aban
Ġbeg in
Ġopt imaal
Ġwij z
an im
Ġherst art
ĠV O
er eb
us e
ĠAS D
A d
T emp
L D
Ġ6 9
R adi
Ġh ypercholesterolemie
Ġaant oon
a pt
Ġs ite
C OR
gest uurd
B L
Ġ4 3
Ġrec idi
ĠV is
ĠZ eer
om e
k elijk
kle uring
Bij zonderheden
alt iek
e ut
os itie
T rombocyten
ĠB NP
Ġc c
ag ul
lan ke
Ġs at
pass ing
Ġh uidige
ĠCT A
8 9
CR P
o den
Ġpl annen
Ġs uccesvol
Ġa bd
Ġth erap
ĠO S
t age
ock et
Ġob structie
ou dt
l y
Ġaf name
est hesie
Ġge m
v rager
Ġd u
v it
m ine
Ġex t
v t
Ġcom binatie
Ġ4 4
Ġom dat
fer entie
ĠE SV
Ġpos itief
Ġuit st
ĠW and
ĠRe den
ĠP AF
ĠR DP
ie gel
Ġmoe der
em o
is c
am b
V raagstelling
P atint
ĠH el
ĠA O
ico agul
Ġ ra
ĠHT x
ĠV R
Ġ12 5
Ġmo b
Ġl iep
Ġaange toond
Ġpericard vocht
Ġ #
oed elijk
v asc
Ġs clerose
is oprolol
Ġst udie
acet amol
Ġec i
Ġ5 3
pro these
A N
Ġw ilt
Ġvolle dig
ĠMe dic
Ġsch ouder
ib er
re sp
Ac cess
st of
Ġ3 4
Ġns VT
Ġperist altiek
pat roon
Ġg al
Ġblij ven
Ġon voldoende
Ġm utatie
Ġant ibiot
ĠSp oor
et s
ĠZ ie
ĠAtri umfibrilleren
Ġg amma
ir c
pl annen
P AP
S oc
Ġver sch
Ġstop datum
Ġdi agon
Ġplaat se
oel de
ĠHem oglobine
te it
e GFR
at ase
Ġlang er
a chten
Ġgenees kundige
h oud
Ġover dracht
intig r
B NP
Ġk on
Ġlater ale
Ġsc intigr
o oit
bum ine
Ġfosf atase
ch an
Ġachteruit gang
Ġweg ra
pit atie
Ġ @
% ),
ĠA I
z ak
Ġm on
Ġver wijz
Ġe mbolie
sp ir
Ġ(% ):
ber r
D F
V P
n emen
Ġhoe sten
ĠV ol
Ġverwij derd
Ġde sc
] ;
Ġpre dnison
Ġkan s
Ġtoe diening
Ġ13 5
S A
Ġe valuatie
Ġanat omie
Ġsub t
av ond
Ġl ip
ĠS ter
A m
Ġin stelling
Ġn eu
Ġo ut
kal ische
ogra ft
ĠM DRD
Ġk la
Ġecht gen
f ig
Ġ5 9
Ġover ge
Ġt ri
ol on
at o
Ġ3 9
int igram
Ġ200 8
uis arts
voe gen
lo op
N B
en se
Ġsp ier
Ġat m
De ze
ĠT otaal
Ġh yd
clusie f
K linisch
Ġbet rouw
bl ing
ĠMB q
ĠP E
ed antie
Ġval t
Ġrond om
agon ist
yp ass
ĠE DV
ind elijk
Ġinf erolateraal
Ġa dv
ĠCV RM
Ġperic ardi
ĠLink er
wit ch
D it
Ġw ervel
Ġ5 4
ĠTA P
ie el
v ragen
k s
Ġf req
Ġs ig
Â °
Ġbeeld vorming
E D
Ġan n
es ion
ĠVoor geschiedenis
Ġ3 00
Ġhart ritme
ot ensie
Ġk linische
dit ion
Ġl oopt
di gen
idi teit
Sp O
Ġd r
Ġdis sectie
Ġgraad s
Ġspont aan
Ġt op
ĠA dvies
aat tekening
Ġl ijn
Ġtra p
Ġ6 3
P V
ĠI mpl
ĠLV OT
al ie
gev o
k king
Ġm it
E le
f low
T ra
Ġru im
Ġ5 7
Norm aal
Ġbe spreking
ĠT roponine
Ġ6 6
Ġaantoon baar
ĠS ten
ĠMet oprolol
Ġsept aal
Ġw ee
Hem oglobine
od ynam
Ġprogressie ve
- %
n r
ĠS TEMI
Ġhe den
ĠHemat ocriet
ĠAort a
ive au
ĠTAP SE
Ġele ct
ĠAn alyse
Ġwand dikte
z y
ke ur
Ġne us
Ġvriend elijke
Ġm onitor
ak e
): [
ign iteit
ĠBe handeling
ox ine
ĠEr ytrocyten
Ġverb et
om t
Ġmaand ag
ĠAl gemeen
Na am
Ġdiagnost iek
el baar
Ġsu bling
c el
ĠST T
Ġbeoord eling
j u
o ot
O K
6 2
ye ar
chn icus
int rom
is maal
Ġpersist erende
Ġl um
et je
9 4
Ġperfusie defect
c atheterisatie
ĠO ntslag
Ġven euze
Ġv it
d aar
ĠA gatston
Ġa stma
ulmon aal
Ġuit leg
ĠP FO
Ġjan uari
Ġdi ent
ot rop
Ġl an
Ġl it
Ġvol ume
m ee
ĠR ed
Ġdo chter
Ġ8 8
v el
Ġ richt
Ġbe sloten
Ġf emoralis
Ġpro fyla
en en
Ġv lak
Ġ7 2
Ġ9 6
et sel
Ġmorf ologie
Ġge slacht
Ġdilat ation
em b
Ġverla ag
Ġaan houden
opro these
Ġte st
Ġge ven
Ġpuls aties
ok een
aine d
m air
S N
maal s
ure el
Ġ4 7
Ġ6 8
H B
Ġsup ra
um ber
ymptomat isch
ĠQ u
Ġcol lab
Ġb uiten
ĠG en
rijd ag
L ongen
Ġqu a
ĠCO VID
Ġhemat oom
Ġuitgebre id
amb ocor
ĠHV Z
Laboratorium onderzoek
Ġbl ock
Ġhier voor
Ge st
h yd
ig ing
oth eek
ie w
Ġ6 7
Ġm ij
eratie ve
o ber
ge zien
A IOS
Ġdruk pijn
ĠAC E
Ġaan kleuring
ĠBe eld
Ġinhal atie
Ġf ib
Ġf o
ĠK lachten
K opie
dur end
Ġv roe
an ide
re e
ul ance
ic usp
r ine
Ġb radycardie
form ine
E x
z er
ĠVS D
Ġpulmon alis
eng th
P l
Ġher n
Ġpro ces
Ġon bekend
Ġm n
Ġh eup
bij v
Ġvull ing
5 9
Ġd arm
ĠEr nstige
Ġd et
Ġd ik
h anc
A M
Ġvol doende
pl et
5 3
at eerd
ST AT
R DP
ific atie
Ġger ust
Ġb if
ĠI N
Ġder halve
6 8
s ul
s clerose
Ġper indopril
ann eer
L ength
ĠM S
ompl i
D ER
Ġver apamil
intigra fisch
as ie
Ġgehe el
Ġmitr alis
Ġs kelet
it al
Ġcarot iden
Ġstand aard
Ġl ok
Ġbal lo
NR T
hanc ement
Na zorg
Ġverwij deren
Ġf mol
ur c
Ġm amm
Ġpar ameters
ze ker
at uur
Ġlink erkamer
Ġopnam en
la ir
Ġher sen
ar is
uur stof
ĠC M
Ġt gv
r aten
Lead s
ĠE chocardiografie
last iek
ĠLink s
I T
P antoprazol
Ac enocoumarol
ricusp id
o ff
Ġbet eken
3 4
F luoroscopie
ust us
ĠNa am
vene us
5 7
ĠG lucose
form ulier
Ge sproken
Ġ4 00
3 9
Ġer van
Ġor de
im ulatie
ĠDi abetes
Ġplot s
Ġp assen
Ġboven genoemde
t ak
200 3
Ġsy ncope
Ġgranul ocyten
G ym
cor di
Ġwacht lijst
ĠMCH C
id ose
Ġaan vullende
H DL
Ġm V
Ġe ss
7 1
el okeen
H CA
vat en
ac ro
il ijk
m erkingen
is e
Ġverminder d
Ġover name
iodar one
ĠE chocardiogram
ast ing
om et
vind ing
Ġreg istratie
val v
F urosemide
Ġaange p
ap ril
Ġpneum othorax
Ġdi alyse
Over dracht
Ġcontrol es
an gen
icusp ide
Bel consult
S hock
p rogressie
Ġhoofd pijn
ge sprek
ĠAn g
Ġ7 4
Ġkal iber
am nestisch
ruik t
Ġl ichamelijk
Ġer v
in der
Ġ( <
et anide
oort je
um or
ĠS ch
ĠDi astolische
d ing
ne s
Ġme et
su p
st ip
Ġint act
itu de
I k
ĠA p
Ġeigen lijk
Ġost ium
Ġmal igniteit
Ġl ow
cler otische
Ġm ijn
Ġna der
ĠSter k
Ġtach y
f ore
Ġtijd elijk
Ġabd omin
M ed
ĠH e
amp on
D A
Ġcent imeter
Ġfra ai
Ġ4 9
Ġlang s
Ġbeteken is
6 7
Ġbe fore
Ġinter ne
Ġ5 1
ĠF ollow
Ġgev olg
Ġble ek
Ġwandbeweg ingsstoornissen
Ġprima ire
Ġen hancement
Ġt ensie
Ġ7 1
Ġ14 6
Ġ7 8
in ust
Ġmic ro
ol ol
ig ne
de el
Ġ8 6
ĠP VI
in st
ĠDat a
ac cept
Ġbeoorde elbaar
ia ire
a ardi
Ġsoep ele
Ġaorta wortel
Cardi ovasculaire
B B
vi aties
N u
orac aal
Ġ )
at rie
Ġvoor t
Ġant eroseptaal
et rof
le en
Ġst aan
Ġlaat st
c g
Ġe ens
Ġklep vit
Ġventrikel functie
ĠJ R
Ġ200 7
K olom
Kolom nr
on ge
Ġop zicht
Re ferentie
re eg
norm aal
Ġcarot is
Gest opte
Ġf lecainide
Ġl iggen
Ġ11 5
etrof os
Behand eling
aan den
ĠI M
Ġc ode
gev ing
id aties
5 4
Ġd ub
Ġnu chter
l iggend
Ġav ond
L in
we k
Ġk ant
Ġn umber
Ġver z
Ġp lat
ĠH oog
âĢ ¢
Ġt r
P ar
l icht
Ġ6 1
re ed
etrofos mine
ĠK le
Ġpal pitatie
Ġre actie
Ġklachten vrij
Ġgez ond
Ġorig o
B I
ĠU n
anim atie
Ġlab oratorium
Ġh ili
CT A
os s
spra ken
ol gen
Ġre f
ater ale
Ġpositie ve
Ġdomin ant
op er
Ġevent uele
ĠRV OT
ild klier
lo od
ant ia
rocardi ogram
Ġc entrale
ect omie
ĠGe b
Ġbe w
C lopidogrel
re ctie
Hoofd stam
Ġann ulus
Ġvaat ziekten
l ijnen
Ġ7 6
ĠC X
Ġart erie
ĠAV NRT
intigra fie
Ġelekt rofysi
ĠV AS
200 2
Bel oop
m aanden
Ġla s
or den
Ġst e
Referentie datum
Ġond anks
Ġh or
em m
ĠW e
ij de
Ġhal f
arox aban
Ã¨ t
ĠJ ude
ĠR adi
Ġal l
Ġopzicht e
Ġt he
Ġpro x
or ad
Ġb ypass
accept eerd
ĊĊĊ ĠĊ
ĠData Lin
dien st
Ġst roke
Ac etylsalicylzuur
ĠH er
Ġlevens lang
ow n
Ġl ijden
Ġziek te
Ġge l
Ġtromb ose
Ġsc ientific
Ġmid den
h er
Ġzw angersch
Ġspra y
Ġl eren
z o
Ġklep afwijkingen
ĠP arox
h ypert
isic o
Ġfoc us
Ġpost erior
S ch
o Ã¯d
Ġbehand elen
Ġaant al
Ġgast ro
Atri umfibrilleren
abie l
Ġverv olgen
Ġaan melding
Ġvolg frequentie
Ġverpleeg kundige
ri ge
p k
il is
vent riculair
Ġniet s
c ompli
Ġs er
Ġs arco
ik el
um etanide
ge h
lig ging
ĠEr gometrie
Ġcom m
Ġess entie
Ġconsol idaties
Ġsh unt
Ġv ind
Ġve get
Ġv aak
Ġpericardi tis
ru ari
Ġo chtend
ĠA rt
ĠOS AS
Ġp anc
b eleid
st ained
st ij
ĠA scal
Ġ7 3
Ġvoor alsnog
Ġintra veneus
5 1
20 00
Ġsec retariaat
L ink
ĠP R
p ort
Ġj r
AL AT
A dvies
spann en
Ġdra in
Ġpar a
gro te
Ġap otheek
Ġproxim al
Ġklepvit ia
s is
O RI
E chocardiografie
Ġam lodipine
b uik
Ġcollab eert
Hart falen
Ġ &
Ġper io
U ST
ĠAl kalische
ĠL ang
Ġbep erkte
Ġp te
Ġd en
Ġstoornis sen
Ġcol later
Ġper if
gev raagd
Al gemeen
ampon ade
T er
geb ied
Ġ10 5
ĠZ org
icoagul antia
m V
Ġbro er
Hoofd diagnose
Ġgra den
id ingen
norm ale
uid elijk
Ġbet ablokker
Ġgep laatst
lu x
in aat
st andig
E en
r ter
Ġop dat
Ġsubc utaan
ren gen
erie ure
Ġdel ay
h ypertensie
Ġonder ste
ver d
a ut
6 6
5 00
ucc inaat
ĠI sch
ĠPol iklinische
ĠHier bij
ur ele
Ġstent s
1 20
Ġherken bare
Ġp sych
ĠCon form
Ġne venbevindingen
ant agonist
Sc ore
r y
er icht
Ġverm oedelijk
Ġeen malig
du ctie
Ġsn r
Ġlymf e
Ġsch ema
b al
ĠK N
mer ing
Ġont staan
Ġber icht
Ġo u
i asis
Ġmoe ilijk
Ġp ocket
kw aliteit
Ġv v
Tra ctus
k ort
ro x
k in
ĠLA VI
Ġin middels
| |
o ok
Ġgew orden
ĠP VAI
ĠB i
Ġf L
Ġcav a
mm er
Ġ( /
Ġre versib
ĠM atig
Ġv rijdag
ĠL CX
ĠHart frequentie
Ġ20 21
re erd
es itas
9 1
as on
osc op
h oe
Ġtoe voegen
13 6
aag s
Ġsecund air
Ġc lopidogrel
al va
ĠPol i
urc atie
ber icht
Ġonge compliceerd
ĠSc intigrafisch
bep erking
f ic
Ġh als
s uccinaat
ge geven
Ġv orm
Ġe ct
Ġspont ane
Ġde fect
Ġamb ulance
Ġa kinesie
ĠE chter
k eken
Ġ7 7
O P
Ġ8 2
inust achycardie
Ġkort durend
k olom
Ġdan wel
Ġ richting
6 9
4 00
yp isch
ĠAort aklep
Ġv raagstelling
Ġstenos ering
Ġziek e
compli ant
ĠP t
Ġm en
A t
rig lycer
Ġde gen
i ologie
ge w
Ġgereg uleerd
Ġact uele
Ġcalcific aties
ĠS ub
re chts
Ġzo wel
Ġballo on
art rose
Ġec g
Ġpre cordi
ĠSc ientific
C omplicatie
Ġno od
Ġintern ist
col leg
ĠG FR
Ġrecidi verende
ĠP re
AS AT
Ġtra ge
ov iew
G E
Ġzit ten
Ġmin imale
Ġhart infarct
Soc iaal
U S
T A
ĠM DL
Ġop ent
Ġdecompens atie
I P
6 3
Ġel k
Ġlongv aattekening
Ġs ens
Ġstruct ureel
R ec
Ġge gaan
l and
Ġrechter ventrikel
Ġopge hoogd
Ġ8 4
leg d
Ġme chan
atter y
as aal
Ġd hr
b v
be elde
Ġfrequ ente
Ġperc utane
Ġ14 5
Ġhem odynam
g roep
Ġp unctie
um a
ef act
l ong
Ġk atheter
os itas
he en
Ġvol gen
Ġverl eng
or se
de c
A scal
c alcium
oen ame
ep at
Ġpro b
Ġle k
em at
Ġadequ ate
ch l
ĠLab oratorium
Ġsyst emische
Ġdesc endens
Ġritme stoornis
ĠT V
rol aps
Ġelekt rische
H H
ĠC AD
Ġhart t
Ġch em
ac k
200 1
ort a
ĠM y
Ġ ER
wijzig de
ĠF low
ĠA VA
Ġlong venen
Ġo ude
ab ig
ik baar
Ġm ar
ion ale
Ġdo et
u gen
ĠB ekend
ch en
Ġst uwing
Ġthromb us
- :
ĠD CM
als alva
oc yt
ĠJ L
Ġn iveau
Ġe m
t ablet
Ġafge beelde
Ġaan vang
ma akte
ĠPatiÃ«nt e
Ã¨t ablokker
it ting
Ver der
L eeftijd
Ġsla ap
bel asting
Ġle ven
Ġdec ember
J x
Ġh og
ĠSV ES
H uisarts
Ġcirc umflex
a ced
N A
di l
in ter
colleg iaal
Ġbez ig
ic ale
ĠT DI
ĠO HCA
Ġhyp otensie
ul arisatie
Ġc ereb
der line
ra in
aden opathie
ov asculair
Onder zoek
ost ase
Ġk reeg
Ġ9 2
Ġbe elden
Ġuit e
Ġactiv iteit
z ide
k an
me d
b oven
12 5
m is
Ġfra ctuur
eu c
gr ens
at ran
iz ont
Ġf orm
ant o
Ġme de
ver en
rest o
Ġo gen
Ġsport en
Ġt emp
Ġip v
ĠaV L
Ġtricuspid alisklep
Ġst reef
Ġo ste
ĠH yp
abig atran
y lo
Ġ ON
ic ul
Ġg lucose
Ġcol on
Ġantibiot ica
Ġf act
ĠSt abiele
Ġrug ligging
00 0
ic ine
ĠD R
Myocard infarct
ĠVer volg
ine uze
ĠA namnese
u urs
he ath
kn own
as en
Ġverpleegkun digen
Ġac enocoumarol
Ġhart revalidatie
al ine
d el
Ġokt ober
o ol
B lood
Ġv ue
x e
Ġs witch
Ġplaat sen
ge zet
um on
Ġm aat
Ġ8 3
Domin antie
ele ct
w er
n er
Ġt we
Ġven en
Ġthuis medicatie
i om
m orgen
Ġ9 4
val s
Ġc rit
ĠÂµ g
Ġm amma
Ġv oet
ic lo
Ġaut o
ĉĊÂł ĉ
Sp ironolacton
bl ock
Ġ200 6
Ġcoron ari
Ġextrasy stol
be hand
d uur
Ġsept ember
ar ree
st ig
Ġsp ironolacton
ati ble
Ġhern ia
gev allen
elev ant
Ġhand matig
w eken
Ġver h
if e
ĠD ec
euc ocyten
g reep
Ġs ed
TI A
Ġproble matiek
z ym
? ?
ger uis
Ġk en
s ion
ĠZ D
sluit ing
ont role
Ġm sec
ĠR PM
on ent
rol eerd
ad ol
ĠgeÃ¯ n
le idingen
W at
p ati
Ġsl uit
en pro
Ġa andacht
s ne
ol erantie
mer ken
r isch
la via
Ġlas ix
Ġorthop noe
ak ker
Ġsign aal
oe den
Ġmogelijk e
f ace
Pl us
Ġstruct urele
ĠUn known
Ġp itting
j aar
Op erator
man ent
Ġincomp atible
r s
Ġop Plus
int Operator
Ġv esiculair
Op drachten
geh ele
Ġa dip
% ;
c isie
ĠA blatie
ĠE chocardiografisch
Ġpri mair
T romb
o di
Ġnov ember
Ġlinkerventrikel functie
M DRD
nst ig
st h
Te xt
arit m
ĠDaarna ast
fra ctuur
S otalol
Ġverbet erd
Ġdomin ance
ĠA G
co umon
Ġenkel s
Ġar it
top pen
. ;
st ijd
Ġverd w
ĠO rg
end ing
f or
op h
Ġtherap eut
ĠP acemaker
Ġinfilt raten
Ġbl ijkt
Ġwaar op
Ġlan ge
Ġvoor bere
Ġisch aemie
Ġzo ut
Ġperif ere
Ġelekt ronisch
Ġre validatie
Ġte am
Ġver dragen
c om
ili ac
oth yre
kk age
Ġzw elling
Ġlymf adenopathie
Nazorg inst
ill ine
um p
Ġaug ustus
ste king
Ġmet en
ur ale
enpro coumon
ĠNa dien
Ġl os
itie ve
Ġor ale
Ġv raag
Ġlang zaam
Ġb ra
Ġpro staat
Ġf ace
Ġan amnestisch
ant woord
ĠH DL
Ġtoen em
yste ctomie
o ch
Ġge val
as al
Ġma akt
Ġgecont roleerd
ĊĊ Ġ
Ġzo ver
ull en
Ġp ob
Ġver s
isic oprofiel
d r
a zepam
p re
gaan de
oris eerd
riglycer iden
Nevendiagnose s
R O
Nazorginst antie
k o
] /
Ġf ysi
Ġspre ekuur
Ġge aut
Ġuite indelijk
Ġfoc ale
oe pen
m Gy
ĠA B
ist reerd
Ġvoor lop
ot o
Toe gang
Ġgeaut oriseerd
oe g
Ġge accepteerd
ĠR UST
d urende
las s
Ġe chocardiografie
oss ier
Ġ10 4
J M
Ġrust ige
Ġg ing
Ġr ol
Ġt amponade
g radi
Ġm ild
Ġnier transplantatie
Ġreg ulair
Re sp
Ġge in
Ġwaar genomen
dic eerd
adi um
Ġbla as
! !
): >
ĠL engte
Ġfrequ ent
pit eren
Ġz uurstof
SP ECT
oc ardiale
Ġe inde
last ing
ĠW il
os in
Ġbehouden s
Ġbe etje
Ġact ueel
Ġpijn lijk
Pol i
ĠCT O
A p
ic aal
Ġp oging
ru pp
Ġh om
: -
s erv
ĠD yspnoe
Ġtoe gang
B attery
zij dige
U CH
Ġ8 7
Ġpalpitatie klachten
ee f
Ġbetrouw baar
oon plaats
D oor
orad isch
weg infectie
Ġhoe veel
In greep
Ġparox ismaal
ĠVer hoogd
Ġonder gaan
ĠCM P
ri p
Ġri b
Ġzwangersch ap
i que
u aal
Ġaf bouw
zelf de
Ġme etwaarden
S TEMI
AG B
ĠE jectiefractie
Ġreg ionale
gra de
1 10
Ġwaar door
ĠL a
Ġ9 3
Ġh ele
ak antie
waar de
Ġdelay ed
Ġge t
Ġc ort
ĠD oor
izont ale
ar ge
Ġdra ad
ĠCardi aal
Familie anamnese
is olatie
Ġw ortel
Ġon rust
operatie ve
Ġlever functie
Ġlit teken
Ġle sion
act iv
h y
ĠN ov
zy men
Ġsymptomat ische
ip ele
ĠE ch
T ot
Ġvoor al
ast om
Ġvind t
Ġmoment eel
re pen
ĠO M
B oston
Ġ7 9
v ix
Ġontslag brief
Ġk liniek
ĠSten osis
Ġam iodarone
Ġboven staande
or vastatine
Ġadem haling
ricuspid ale
Ġl engte
Ġ13 8
d osis
og n
ver band
ĠD er
sluit end
M atige
ec ystectomie
Ġperio de
orf e
it i
Ġre umat
M eer
Ġhyp o
ĠIn f
Ġlig t
Ġc lin
ĠA s
Ġb icuspide
b radycardie
Ġst ap
Ġricht ingen
Ġor der
ĊĊĊĊ ĠĊĊĊ
Ġbenauwd heid
B R
Ġasp ecifieke
Ġ8 9
Ġ ĉ
or ijden
Ġ8 1
Ġi de
Ġsecund aire
Ġn ieren
le iding
ĠGen ees
Ġple ister
Ġwissel end
V aat
ro t
Ġrecept ie
Ġw akker
E n
âĢ ĵ
z ijn
asal aat
Ġk alium
Ġ19 0
ĠC ol
ĠVer pleegkundige
STAT E
waar schijnlijk
Ġge sloten
Ġtev oren
Ġlever en
Ġvor ig
f sel
Ġcre piteren
ĠN B
p ut
co de
ĠaV F
Ġgeh ele
lu st
Ġchem otherapie
N OAC
Ġgele gen
ab d
Ġverv aardi
zij dig
j r
X T
Ġeen heden
y ct
s h
- /
q uis
en e
Ġaangep ast
Re chter
ĠIC C
Ġvent riculair
M S
plet ie
v andaag
Ġbe staat
Ġkrij gen
Ġver grote
Ġw anneer
o versie
ĠS ec
ĠK linisch
Ġmet ast
Ġverlaag d
Ġgroot te
ate ur
Ġin jectie
ic on
ĠC x
ymptomat ische
Ġin plannen
alis eerd
A ir
Ġ13 9
S S
Ġsla gen
a am
Ġverv angen
p razol
Ġpalp abel
cl us
Ġal lergie
Ġechtgen ote
Ġaf wez
a zol
ger e
Ġhier van
Ġ- ,
T elefoon
per fusie
oid ie
oll ings
Ġfeb ruari
Ġkin deren
ĠM ilde
ent age
Ġhart transplantatie
ĠG raag
Ġtoe passing
Ġ( +
proble men
Ġsp iegel
Ġv ar
N T
: |
st ent
ch ron
L icht
Ġcre pitaties
aar ne
is or
Ġre sectie
ĠB SE
Ġshock s
do et
Ġwissel ende
V R
n ucleair
Ġm ilt
or dt
ĠM G
oxic aties
Ġdi arree
Ġevent s
ĠAl gemene
20 23
nt gen
id ie
ĠVer denking
Ġzij de
Ġp unt
regel en
van gen
Ġna ast
mid dag
e cht
yct urie
Ġb em
n ier
Op merkingen
Ġonder ging
Ġbeeld kwaliteit
C alcium
Radi ation
out ine
d a
ĠW aar
: :
Ġp as
am ent
ec alc
in suff
Ġlip iden
atri ale
ĠTI MI
Ġc yste
Ġcomp onent
resp ons
Ġn ummer
Ġbew ust
Ġas ymptomatisch
Ġdilat erende
int ie
Ġaan p
Ġuitst raling
p lastiek
ch ec
Ġa bdomen
Ã© n
================ ================
Ġs cho
ver wezen
Ġ0 7
Ġ âĢĵ
ĠAt ypische
Ġaf grens
Ġge vol
Ġart rose
H ier
de x
ot ricuspidale
Ġsed atie
mp edantie
Ġdiagon aal
Ġvrij wel
Ġan der
Ġb isoprolol
asalaat calcium
ĠV alsalva
ĠM eer
Ġop drachten
Ġp au
Ġaan vraag
ĠS oms
Ġradi oloog
valv ulaire
Ġa ctieve
t etrofosmine
quis itie
Per indopril
Th orax
onder dag
Ġep ic
Ao V
Ġel ke
Ġwee kend
anto zol
al pitaties
Ġp omp
m Tc
lecht e
emm ing
le et
Ġ200 5
bla as
alcific eerde
ĠĠ ĠĠ
em per
Ġb atterij
Ġvoorsp eld
Ġsubling uaal
ri pt
s ol
Ġop in
Ġtel emetrie
Ġh epat
al ijden
iv a
199 9
AC E
ĠS at
ĠM R
st raat
Ġzo on
a as
Ġr un
ĠR itme
Ġan esthesie
Ġ ul
Ġir reg
ĠDi ff
ĠT SH
V S
Ġpro p
ĠG er
of iele
rol es
Ġe et
Ġge sla
Ã¯ n
Ġn l
Ġdou bl
in ale
ign ific
e pt
, :
ge pland
Ġl ate
me prazol
Ġpost operatief
ĠA A
th er
Ġbe weg
ouw d
Ġhart catheterisatie
ende ctomie
bal ans
Ġin h
Ġv ari
Ġvervaardi gd
mm et
Ġcardi ovasculair
ura al
ĠRed elijke
Ġm elden
Ġh ulp
Ġafwijk ende
Ġnog maals
gevo erd
Ġextrasystol en
sl uiten
Ġv akantie
Ġaf hankelijk
Ġresp ons
ĠMV P
CM P
r id
Ġl iet
ĠE er
A R
ĠN atrium
Ġrel atie
Ġsubt otale
Ġna uw
amil iaire
ĠTA BL
le s
Ġop er
ompens atio
CO PD
Ġhor izontale
, [
L M
{ \
Ġwaar van
Ġal gemeen
Ġn g
Ġcon centrische
Ġhoe st
g ank
Ġatri aal
ar me
le chter
ĠH ypercholesterolemie
p e
Ġopin ion
ulmon ale
N YHA
Ġ( =
Ġbij na
la esie
ĠC ons
N age
Ġp ra
Col later
Ġo es
S ten
6 1
ĠLA B
Ġcontractie patroon
Ġang ineuze
ĠC ar
Ġ un
ĠTh oracale
Ġo ss
Nage keken
pt omen
Ġ2 40
Sp oor
Ġdoorge maakte
vert icul
d rempel
Ġmoe heid
ic intie
ĠM orgen
emper atuur
T ime
Ġ4 50
L IMA
ĠM in
ĠCh olesterol
form ed
Ġp lan
c arb
Ġp roef
Ġf ietsergometrie
c re
stell en
Ele kt
Ġwervel kolom
Ġ um
Ġo v
Ġan astom
cl ip
Ġ9 1
E er
u un
ĠGe dilateerde
Ġlinker atrium
Ġb ol
b p
lat en
ĠL aat
ĠDD DR
St roke
Ġsubc lavia
Ġger ookt
A berr
Ġge ob
EN OS
Ġop gestuurd
Ġl oop
ĠP HT
Ġmo eten
ren aline
Ġnier insufficientie
ĠH S
Ġger uis
ĠG UCH
n ov
Ġrest ri
+ ,
Ġe chocardiografisch
T icagrelor
ap p
o i
Ġradi otherapie
Sten ose
Ġvo eten
Ġorthop neu
wek baar
Ġaange meld
Ġonder liggend
p atie
ject iv
Ġeviden t
ĠDataLin Q
Ġwaar de
A ctieve
ĠK omt
n ieuw
Ġect opie
ĠOver weeg
Ġ6 00
ĠAd res
ĠUitgebre ide
sc intigrafie
Ġver richten
Ġw et
kl ieren
al ing
Ġre visie
ĠK CL
Ġh ard
z etten
Ġdig oxine
ĠH AS
v ing
but amine
Ġlek ker
oc ale
ver di
199 8
Ġc alcium
Ġcir ca
ĠI om
ĠĠ ĉ
Ġic c
ĠWat t
Ġele v
bre uk
elijk s
et our
met ast
Ġd oc
Ġm is
us s
ĠVer geleken
Ġb ur
Ġatheros clerotische
ĠW oonplaats
Ġt ypische
Ġc r
Ġna chts
ĠR outine
licht ings
he s
Ġv inden
Ġob esitas
te datum
Ġ13 7
Ġd ors
Ġgehe ugen
Ġd ro
Ġlead s
Ġcons ent
Ġneur oloog
- >
B ilirubine
ĠS lank
Ġst room
V D
bl oed
bla den
M edtronic
Ġb oog
Ġbloed verlies
ĠR el
bl oeding
ĠLicht e
Ġ ij
eg ra
Ġgew richt
Ġ eten
ĠOp merking
Ġontw at
el ateerd
Ġaan zien
Ġbas ale
ist ollings
Ġprob eren
ĠOnder staande
ĠPol iklinisch
Ġge f
Ġgelu kt
Ġintra c
Ġrepolarisatie stoornissen
al k
schat te
Ġcav otricuspidale
Ġ iliac
Ġal daar
Ġb ot
ĠB I
ĠPT A
Ġm w
Ġstenose s
m cg
cl ude
la ire
Ġlast ig
V rouw
Ġher vat
Post operatief
uit slagen
Ġf ibrilleren
Ġaanhouden de
P ijn
Ġz waar
Ġcardi ac
Ġz ullen
f eb
Ġac quisitie
Ex tra
dien ings
yc ine
ocardi aal
ot ter
ir patie
V an
gele id
Ġslecht s
Ġw ire
dition ele
Ġisch emisch
Ġm ate
Ġp m
Ġch ronisch
c ip
open ie
Ġsp ecifieke
M ax
Ġbuik pijn
In gepland
Ġover slagen
gesch reven
Ġbehandel aar
Ġd aags
Ġalcohol gebruik
A Z
wer kend
dienings weg
Ġi mm
Ġont vangen
Ġneur ologie
Ġh eer
Ġk reatinine
Ġnit raat
F unction
Ġd ose
TE XT
idie ven
S IE
p rocedure
199 7
Ġbet rokken
ĠR W
et e
de pressie
Ġnorm al
Ġge de
ins dag
ĠToe dieningsweg
ĠV andaag
Ġre ct
Ġl etsel
Ġpat roon
ag en
ĠM onitor
Ġstern otomie
Ġprecordi ale
Ġang i
serv atie
Ġwe et
io us
le ad
ch emie
Ġonderwand infarct
ES A
mis sie
ver se
V F
th eros
Ġcontrol eren
TE E
ato ire
i ctie
omat isch
ĠG ro
A gatston
_ _
ij dig
ĠE GFR
R Cx
al g
sc opie
Ġv as
sul ine
Ġt elefoon
ĠA D
ĠVis ueel
Ġop vall
Ġge sch
re as
ĠD hr
rijv en
Er gometrie
j an
ge wicht
Ge zien
OR DER
Ġpla qu
Ġuitge sproken
Ġa x
icht lijnen
Ġvol doet
S ec
os u
ich aam
Ġepisode s
ĠE nd
ĠB as
Ġc utaan
gra ad
ger oepen
AC S
ann ing
orb ide
Ġz eg
ern aal
rocardi oversie
z out
Ġin gev
ĠS lanke
O C
Ġge con
OR AT
Ġv et
mpl itude
c ell
cht ing
H AS
Sch ema
ran k
Med ische
ORI UM
ORAT ORIUM
H alsvenen
Ġal gehele
ĠV eel
Ġgep aced
it aal
ril l
1 60
over zicht
r ograft
Ġz us
Ġaf leidingen
for atie
houden d
Ġbere ikt
Ġi m
Ġhoeveel heid
Ġgezond heid
ce p
W K
et ische
Vaat lijden
i le
ĠK reatinine
ĠEn kele
ia zide
ĠPT CA
w ogen
a uw
n u
ĠInter collegiaal
baar heid
nam nestisch
ĠI S
V ul
Ġaortaklep vervanging
Ġvene us
an alyse
Ġapic ale
Ġverdi kt
Ġsluit ing
Ġhypertrof ische
ral ings
Ġle kkage
B C
Ġverkal kte
m ogelijk
Ġz iet
ĠA theros
Ġ0 6
cor onair
Ġs inustachycardie
Ġle sie
b t
M L
r th
clus ion
Ġont lasting
L eucocyten
Ġc y
es c
gen er
Ġaf ger
r ont
vl st
Ġcoronari alijden
ĠIn jectie
Ġmisselijk heid
Ġdiafrag mat
Ġb il
Ġc ogn
Ġchirurg ie
Ġ10 1
Ġkamer functie
pl eren
Ġsu g
Ġvast gesteld
Ġs mal
geb ouwd
Ġmet ingen
gest elde
h a
lycer ine
Ġbif urcatie
Ġ13 6
Ġp mol
Ġd un
Ġle uk
Ġet c
F FR
t g
isch emie
Ġaange t
ĠAG B
Ġaort ab
Ġhartt oon
Ġcalcific atie
meld formulier
Âµ mol
rog lycerine
Ġp rolaps
Ġd onderdag
Ġdi enst
il le
Ġval iditeit
Ġart eri
Ġt umor
is sen
ricusp ide
Ġaut orijden
he el
Ġger e
Ġum ol
Ġele ctieve
Ġperc entage
f en
Ġh oud
bel oop
le b
Ġen t
z w
in n
al april
Ġca ve
Ġin iti
ĠH C
ĠG E
geb ieden
Ġo k
Ġbesch reven
ĠL E
Ġmitralisklep insufficientie
f emor
ri kt
ater iaal
di abetes
Ġverpleegkun dig
ĠDer halve
ith iasis
el ine
ĠF orse
st klep
ch e
Ġte chnicus
Ġl ocatie
Ġnu c
Ġbehandel end
Ġonge compliceerde
vasc ularisatie
w ater
M emo
Ġh a
it t
Ġk uiten
Ġsec onden
ĠTh uis
Ġart ritis
ag de
ge meld
p ulmonaal
ic um
o h
if orm
Ġinf eroseptaal
sp ect
Ġond uidelijk
ch i
Ġontw ik
p ositie
Ġz od
de els
P S
Ġ ram
lop end
ator vastatine
Ġpol y
spra y
Ġt re
Ã ¶
Ġdomin antie
Ġsyst olisch
fic atie
i ft
groot te
ĠCA R
efact en
Ġrec idieven
De vice
S ub
ĠM id
im us
Ġbe wegen
ĠT rans
Ġafbouw en
Ġduizel ingen
Ġv ag
ro chl
Ġge vallen
Ġ1 12
ee d
ij m
at ische
Ġgest opte
ste d
Ġaan vallen
ĠLaat ste
O hm
Ġlaesie s
Ġth v
Ġc la
Ġin suff
Ġk eel
Ġanastom ose
v ious
se d
in ium
ang i
Ġint ake
Ġverla gen
ail s
sept um
p ost
er bumine
ĠP ulm
Ġa den
T rans
in opril
us c
ens dag
oor th
ĠPost operatief
u ist
ĠPer sist
Ġcontra ct
Ġw erkt
Ad ju
Ġgev o
g GT
ĠParox ysmaal
verd unn
Ġbeg on
s elen
ve dil
Ġverder op
W ij
istollings beleid
C arb
Ġbe sluit
Ġ( -
s oon
Ġel ders
Ġr atio
vedil ol
Vrouw elijk
hypert rofie
Ġad ditionele
O M
Ġ200 4
T C
Ġex tern
Ant icoagulantia
PatiÃ«nt e
Ġverdw enen
Ġplot se
ist of
Ġprogressie f
G S
Ġh inder
Ġgevol ge
schijn selen
N ame
Ġprofyla ct
Ġlok ale
Ġvooraf gaand
n aal
is inopril
Ġperfusiedefect en
Adju sted
er nstige
Ġ(% /
Ġm eld
itie el
itu atie
D ES
form eerd
ol e
Ġth ans
otrop ie
ĠF U
ĠLAB ORATORIUM
adol inium
St ralings
Ġvoorwand infarct
BI O
met oprolol
T ijdens
ectie f
Ġgen e
Ġij zer
ĠU w
ĠPerfusie defect
Ġs imvastatine
ĠR est
arm ac
Ġv asculaire
Ġen ig
k ade
itr alisklep
Ġgeob jectiv
Ġop wekbaar
V oelde
Ġh anden
pro BNP
e ase
fig uratie
ĠR FR
Ġmaat regelen
ĠC D
a ad
m oeid
o geen
ĠIsch emie
Ġbe kken
c y
ra clip
Geb ruikt
Ġruim te
Ġstij ging
V al
Ġsub straat
elect ase
Ġbi opt
oord eling
ĠHel dere
ĠH oe
ĠElekt rofysi
of ag
Ġbem erkt
F U
T SH
Ġuit bre
nes ium
Ġwegra king
lichtings gesprek
Link er
ĠM on
Ġp ast
COR BIO
R v
Ġvlak ke
ĠE B
ĠWand beweg
Ġcon clusie
Ġp rin
ĠA rter
sc reening
b rengen
P ressure
v inden
Ġs ucces
Ġgenees kunde
m eer
Ġb act
Ant istollingsbeleid
ĠH CM
ĠC PAP
Ġadip ositas
la sie
Ġmic rogram
b u
D rug
Ġpatient en
n acht
Ġmedicatie overzicht
Ġent resto
Ġsymptomat isch
ed isch
ch ym
Ġk aak
Ġverwij s
Ġplaqu es
Ġgeschat te
Ġde viaties
Ġw ens
hank elijke
Ġn ot
Ġin v
of ol
ac arcinoom
Ġsch ildklier
ĠPVC s
N ucleair
ĠAtheros clerose
C o
ĠH NP
P lan
Ant istolling
en a
Ġg adolinium
pl open
N ooit
F ollow
hoog de
ĠCT R
St art
z tb
ol yse
ĠA bdomen
ĠM ESA
Uit leg
Ġp oeder
rol oog
und elt
ĠM RA
Ġwand elen
M CV
L esion
ĠM w
Ã© Ã©n
Art ikel
Ġimpl ant
sc ap
ĠA H
ĠL esion
u in
OR A
is me
op p
hyd ratie
Int oxicaties
Ġbor derline
v r
bl okker
undelt ak
Ġover wogen
vull en
Ġref lux
m y
rochl oorth
alk score
P T
ĠIn spanning
Al g
Ġfiet stest
199 6
al ity
Ġvull ings
Ġdis ease
l ij
P lat
is ende
em mering
ic k
Ġresp ir
ĠCT C
Ġt rop
Con clusion
Ġbep aald
Ġge gener
Ġerg o
Ġd elen
Ġbesch ikbaar
Plat te
P I
w erk
ĠT elefonisch
ĠRW BS
Ġcor rectie
Platte Text
ch icine
V asculair
Ġwegra kingen
ĠG ra
ien ummer
Ġb and
voor stel
Ġdegen eratieve
oede em
Ġ% :
Ġf la
O rale
gank elijk
ne ss
rin ken
Ġpresent eert
Ġb rad
yc ardi
ĠT ra
p v
Ġopt ie
ĠN eg
Ġmy ocarditis
Ġiniti atief
rochloorth iazide
ig ra
ĠM ult
scan de
be kende
Ġc atheter
Ġ %,
ĠC ON
Ġf er
ĠP ar
ĠN ooit
Ġinspanning stest
M ob
199 5
I mpedantie
Ġhier na
Pro xim
Ġwijz end
Ġk reat
m elden
Ġbezig heden
Pol s
Ġvoor keur
ĠC o
ar act
Ġboven buik
E M
Ġma in
k week
us us
Ġhe art
Ġclin ique
ĠS JM
Ġc lass
Ġ14 1
Ġn vt
ĠK l
ĠN I
Ġsupra ventriculaire
Ġlum b
ĠAf deling
om a
oede isende
ĠF ys
Ġlaboratorium onderzoek
R elevante
i ri
II I
ĠB el
Aandachtspunt en
Ġzelf standig
ĠD an
Ġple k
Stralings dosis
ĠLa esie
ĠL ymf
on se
ure se
Ġz orgen
der om
me i
ĠO rale
ou de
Ġbel afspraak
ĠGenees kundige
Ġp en
Ġt and
Ġv i
ĠU p
T R
Ġpanc reas
re versib
Ġpla st
Ġs introm
ĠCRT D
B D
ĠVAS C
Ġoverig ens
Ġprin cip
ĠA ct
Ġd insdag
Ġh oudt
Ġvoor heen
Ġonder kwab
ang rijk
w angersch
oe s
ĠR isicoprofiel
Ġgen omen
ac rog
Ġne em
roe g
Ġu ter
Ġbe staan
Ġaf spraken
In lichtingsgesprek
Ġmoe ite
Ġuit gevoerd
ch ef
H ij
Ġant erolateraal
Ġd ynam
sc intigram
Ġprincip e
do od
Par acetamol
Ġcir rose
Ġro od
Ġl ichaam
Ġg roe
ĠHart falen
Ġin s
Ġleveren zym
Ġst imulatie
a ise
o od
Ġas sist
Ġle eft
Ġnier insufficiÃ«ntie
Ġna dere
im um
Ġsp ec
Per ifeer
le eftijd
Ġna v
m on
Ġro okt
rag min
h als
te b
oc clude
Ġover gang
i ance
ĠB ilirubine
Ġsp oortje
acrog ol
Ġadv is
Ã« le
Ġhartritme stoornissen
ĠInt act
pati ent
Ġop geroepen
ant rum
sne de
lig gende
eci di
spir ine
sup erv
Ġpleura e
Ġstern um
Ġtra c
pleren on
ĠG ering
CH O
Ġdis per
Ġper manent
Ġlinker hart
T V
l ichting
ap pen
st ers
Ġlong functie
ĠIV S
Ġap ixaban
ĠC LS
Ġmon om
d elen
Ġchol ecystectomie
Ġs ol
] \
lu cht
Ġoper ateur
Ġst olling
Ġme en
Ġdou chen
me dic
igra ine
ĠR isicofactoren
Ġverkal kingen
ĠAm iodaron
Ġa ctief
el ijst
ĠH M
ĠA ut
Ġj et
ĠMedic ation
ĠO m
Ġbe staande
ot isch
ĠV olg
Ġpass ag
o dig
Cardi aal
L ocatie
geb onden
Ġsug gest
Ġo a
ĠD atum
ĠX T
Ġst ol
Ġoss ale
min ie
Ã¯d ose
ar y
iv aroxaban
Ġech ografisch
wee fsel
sp ro
In spanning
Ġsup erior
Ġpro these
ĠE HH
Ġaan gevraagd
Ġge be
r isico
Re chts
Ġverander ing
T otaal
Ġcomp ressie
ĠPro xim
Ġprog ram
ĠNS VT
At orvastatine
ĠHier na
Ġre animatie
St udie
du ct
Ġ2 30
.. .
ĠT M
an isatie
s verlies
Ġvoor geschreven
in te
ĠD egen
sp ron
C E
ac c
Ġwaar den
Ġdisper tablet
gev oel
ct uren
Ġmult ipele
Ġdet ails
our naal
cardi aal
ĠGe schatte
ense erd
Ġs elokeen
ĠRel iance
P unctie
ĠVan wege
Ver pleegkundige
ĠRec ent
Ġstru ctuur
ater al
at ed
Ġbe geleiding
Be eld
Ġgeleid ings
ĠR IP
Ġaan vrager
Ġf emor
ĠWaar schijnlijk
Ġmeen emen
H CK
Ġv oel
Ġcrit eria
Hart team
ĠRe chter
Ġma il
Ġinge pland
vi atie
ĠEx pectatief
ic ard
regel s
Ġopnam es
ĠE xt
Ġbewust zijn
entr um
Ġ| |
Ġinst abiele
Ġnauw elijks
Ġsla pen
on aat
p ri
h uld
ĠI r
Ġd rinken
ĠP ri
Ġgest uurd
ĠL ongen
Ġgev raagd
h eeft
Ġvoorsp elde
Ġf em
ĠDaar bij
z ine
N tg
Ġherh aal
B uik
Ġbe in
Ġj icht
oor tedatum
ĠH ulp
Ġac c
ell icht
Ġv aker
Ġsch erp
U K
Ġsig m
Ġm L
Int er
Ġon wel
ĠEn ige
ĠD I
Ġmedic ament
Ġbegon nen
neum onie
Ġorth ostase
it er
a ug
Ġdoor snede
Ġo s
st emming
st er
Ġhart dood
Ġfunction eel
b io
met ingen
Ġinge scand
Ġaf gevallen
chirurg ie
t ype
Ġ *
ĠKN O
Ġdal ing
di agnost
P C
ĠBe iderzijds
Ġparox ys
Cardi oloog
Ġm alen
ri ax
ĠAan meldformulier
Ġ15 5
? ).
Ġang st
el low
Ġj uist
w n
S imvastatine
ill ende
Ġkla cht
ĠR E
y sie
be wijs
verdi kking
Ġaan geb
ak ing
G M
Ġb ige
Q Tc
Ġs usp
Ġmitralisklep insufficiÃ«ntie
Ġterug verwezen
Ġvol tage
l ok
ĠLang werkend
ac er
arc ering
vl oeden
Ġverander d
Ġherst eld
d us
richt lijn
la ag
riax on
Ġeet lust
ĠDec ompensatio
P ra
Ġser ienummer
Ġver hogen
Ġsu stained
Ġrel atief
Ġst adium
u ig
Ġmee gegeven
Ġ14 2
if erol
ĠT riglyceriden
antwoord elijke
Ġelev atie
Ġdi am
ep is
Ġdruk kend
Ġvoor waarden
Ġ %.
Ġger elateerd
ĠFys icon
Ġ20 00
ĠSp O
Ġmob ilis
Ġa and
v asculaire
Ġaortaklep insufficiÃ«ntie
h o
Ġvervolg ens
Ġgec alcificeerde
Ġover matige
Ġste un
R ookt
ul aris
MO D
Ver antwoordelijke
re mmer
kn oop
Ġinst antie
g if
Ġaneurys mat
Ġerv aart
ĊĊĊĊ ĊĊ
Ġon regelmatig
Ġgeobjectiv eerd
Ġmal aise
chron ie
ĠS AM
n em
it iv
Ġre stenose
Meer vatslijden
Ġre con
Ġaan w
Ġnod us
ĠVol gende
Ġge occlude
R em
Ġhypertrof isch
Ġbep erkingen
Ġafw achten
it roglycerine
ĠA Z
on gembolie
C S
Ġw ant
Ġm ond
Verwijz end
ĠDe f
waar des
or ig
Ġwo ensdag
m ummer
Ġ leg
pleeg kunde
Telefoon mummer
t ijdig
in stelling
Ġhemodynam isch
zak elijk
D ruk
A nest
Ġarit mie
ecalc iferol
ĠB Ã¨tablokker
dnis olon
Ġtev reden
Ġv ir
Ġop staan
rol yten
ĠS y
h et
ĠB loed
Ġleeft ijds
LV H
port aal
Ġcort onen
Ġ atorvastatine
Ġlymfe klieren
ink ing
Ġhyp othyre
Pati ente
Ġr isc
Ġorig ine
Ġg la
Ġbez waar
Ġver na
Ġb umetanide
Ġpri kken
Ġc reat
ĠN OAC
N HR
f emoralis
ĠT en
ĠH alsvenen
ĠB SN
as me
Ġi le
Ġl ijken
Ġex p
Ġge oper
di ast
Ġ q
Ġter min
ĠF ors
Ġsarco idose
Ġde vic
Ġop ening
et h
ĠHe den
ĠC hol
Z wangersch
op ath
P W
kw eken
r ogra
ol d
la ge
Ġontwat eren
arit mie
fig uur
activ iteit
Ġtwe emaal
Ġbeoorde eld
Ġregel geving
Ġaut omatisch
ad s
ĠD C
acer b
eros ol
T S
insuff icintie
Ġbi ventriculaire
I R
Ġper i
pp ing
zeker ings
later aal
199 4
K lachten
un cus
a in
ĠINR s
ĠAO I
Ġb re
m ale
V L
Ġpart ner
el uting
Ġo x
centr um
eri us
Ġdie et
Ġar men
Ġm Gy
Ġgeleid ingsstoornissen
Ġnierfunctie stoornissen
Ġb reed
Ġa mp
ĠN ieuw
Ġg rie
Ġk auw
Bloed ing
mb ol
Ġ rij
Ġsl ijm
Ġbein vloeden
Ġn ycturie
Ġleverenzym afwijkingen
Ge dilateerde
Ġa erosol
k ens
Ġlever ziekte
Ġ --
M CH
age d
Ġk ijken
Ġreversib ele
Ġle ft
Ġhier mee
Ġin dex
ĠF amilie
off ie
t oe
V oelt
V ol
Ġken merken
ĠB P
do ving
Ġt pv
Ġd rempel
Ġgal blaas
xt irpatie
sy n
ĠR IMA
D esc
Ġver geleken
H e
Ġch ron
Ġmg l
st olie
Ġex centrische
ĠV ER
Ġben igne
minder de
cel carcinoom
pro b
ne ur
Ġg ang
Ġfunction eren
C alcific
ĠAS A
qu entie
or al
ure us
B ent
Ġvan ochtend
Ġjaar lijk
Ġgevolg d
st ri
pt uur
Ġb io
las h
ings beeld
Ġrisc ofactoren
Over matig
ĠG lobaal
XX XX
dur ig
Ġonder staande
ĠP rogressie
Ġsp ond
Ġgek omen
C LU
Ġp r
Atri a
Ġinf low
Ġgeoper eerd
i ose
ĠT CH
Ġbe ve
ch ol
Ġd ocument
ĠA namnestisch
ibrill atie
Ġmedicatie lijst
op ing
Ġprofyla xe
zet im
ep hal
Ġgevo eld
ot te
it es
par ine
vat s
ink t
ĠEle ct
MV L
ĠF ietsergometrie
Ġleeftijds groep
ĠT H
st ress
year s
Ġvolle dige
L abiele
Ġw it
Ġw arme
inu eerd
uur t
Ġresp onse
Ġver kl
ĠG LS
eft riaxon
Ġer ger
Ġu urs
Ġsept ale
ven euze
Ġmin uut
ern ia
indicatie s
MA RT
Cont rol
ENOS INE
Ġinfilt ratie
Ġup grade
S ens
ĠE l
Ġversch illende
G elijk
Ġ Ã©Ã©n
Ġeen maal
Ġsamen gesteld
ĠC aps
Ġinter m
ow er
ĠD ist
Ġt icagrelor
Ġc an
Zwangersch aps
lin ks
sp ecifieke
ĠN ID
L L
ĠR ichtlijnen
Ġsn ell
Ġgecont inueerd
bl ij
el aar
Ġin vullen
Gelijk tijdig
er op
Ġro ut
Ġfact or
Ġr elevant
p laat
Ġher haling
ic ontrole
Sec retariaat
bl anco
in aal
Ġ13 4
il atie
Ġcon gen
v asculair
Ġger icht
Ġscho on
ĠB SA
Ġobstructie f
Ġart sen
art erie
Ġmit raal
ĠOrg anisatie
A na
Ġmogelijk heid
Ġbelast e
ĠR oken
Ġstap eling
Geb oortedatum
Tijd stip
ben en
Bel afspraak
Ġverst uurd
Sc an
ĠKle ine
Am iodaron
ĠArt s
ist el
Ġm bt
se ptaal
Ġret ro
ĠAan vrager
CLU SIE
Ġal ert
Ġle ef
ĠCaps ure
Ġ10 2
Ġlinker b
Ġide e
Bloed chemie
Ġverwij de
Ġlinkerhart oor
ĠC alcium
ĠP S
Ġinf arcering
ĠD F
st atus
leca Ã¯n
ĠSt abiel
Ġklep pen
ie pen
Ġstent plaatsing
z es
di astin
Ġsup erius
Ġs erie
Ġt bv
Ġap p
ĠA IOS
Ġl o
Ġg af
irc umflex
su b
uid ant
ĠSt ent
ĠB ericht
ript ion
Ġab ces
od elijst
Ġt ijde
lecaÃ¯n ide
d ar
Ċ ĠĊ
bla d
iz ame
CH D
Ġactiv iteiten
Ġhe v
Ġge zet
Ġz at
EF O
Ġp las
iel en
d uc
Ġ200 3
ĠS I
Ver wijzing
Ġsp oradisch
Ġf iets
g aat
Ġgerust gesteld
Carb asalaatcalcium
ker s
sp ital
Ġver loop
it ter
Ġall erg
neu ropathie
Ġte chn
ut um
n ie
regel matige
L eef
G raag
Ġcon figuratie
eg istreerd
Am lodipine
op or
P G
Ver pleegkunde
Ġv pk
Ġont steking
ro de
Ġdaar voor
kl ist
Ġnood zakelijk
ĠT ambocor
Hem at
Ġom gezet
Ġz achte
Ġmo di
ĠV esiculair
Ġge laten
Ġdruk ken
ĠL O
medic amenteus
Ġdik ke
il et
Ġk racht
oc rin
in spanning
Ġwe derom
ĠCh ronische
Ġgeh oor
d ossier
ĠNov us
age ment
Ġth orac
Ġdyspnoe isch
T el
or alis
x eerd
et ting
Ġbet a
oÃ¯d ie
ver wijzing
Ġam ylo
Ġ ingen
Ġge sp
Ġbi oprothese
ad v
Ġac ra
ephal ica
ĠH oofd
et al
ĠF urosemide
Ġ16 5
luor oscop
ĠC lopidogrel
Ġb ack
Ġ {\
Ġv allen
ome in
Ġreg ist
Ġr en
zij de
Ġbet re
Ġcomm un
ĠA N
pl o
ĠVer wijzing
D C
Ġu g
ens iteit
ignific ante
ĠM an
Ġ2 20
.. ..
E A
Ġvoorlop ig
Ġth oracaal
Ġprop ofol
Ġverleng d
ĠF T
Ġaan val
Ġac cept
Ġmonom orfe
ĠGer egistreerd
Ġaanget ast
Ġhinder lijke
Ġp ort
Ġmetast asen
luoroscop y
Ġgest oorde
ĠE osin
i zaam
Ċ ĠĠĠ
C atheter
it ion
On ge
T H
h yre
ĠR es
Ġin spann
Ġsec ond
yst olische
erv isie
c ent
am ide
Ġdi verticul
Ġp an
Ġbere iken
Ġoverge wicht
Ġm ictie
Ġr and
Ġelektrofysi ologie
Ġh i
Ġwe ke
ĠF iet
dig ing
pl at
Ġv d
ĠN EE
mmet risch
wijz ingen
Ġp iek
Ġgeb le
sl ocatie
ĠLymf ocyten
a ve
Ġbra ken
r ent
oment eel
Ġob servatie
vene ens
R ES
Ġdub ie
itiv ity
ĠLe ver
Ġpat ch
oe gd
epis odelijst
Ġdo butamine
acerb atie
Ġopt ies
Ġc at
Ġlu kt
Ġter echt
10 5
Ġrout ine
Ġdoor gankelijk
Ġin suline
sy steem
D G
Ġingen omen
Ġ10 3
be w
af hankelijke
Ġform ulier
af hankelijk
Ġk uur
Ġd uring
Ġvroe g
Ġfunction ele
Ġuit vo
ĠON T
z t
Ġnod uli
Ġlinkerkamer functie
Ġaanp assen
ĠV ent
m all
Sp ecialist
wij f
ent an
Ġt ransp
Max imum
Ġcardiologie dossier
Ġf am
K alkscore
d c
l iggen
Ġu reum
tra ging
Ant i
Ġnit ro
Ġf ase
Allergie Ã«n
ĠS ure
form atie
i at
abet ische
ĠG eri
M in
D aar
Ġd icht
Ġtra plopen
ĠOver matige
id ine
ip ol
Ġvoort geleiding
ple x
] ),
ox in
gev oegd
ĠE erder
re ekuur
ĠV max
Ġz ag
spro ble
Ġt ypisch
spir atie
ĠMon ocyten
Ġg ister
cl u
ur in
Te vens
P rograft
Ġkw am
Ġk ram
Ġver doving
Ġverwijz ers
aren chym
alis eren
B i
S heath
ĠA RV
su stained
Ġconsol idatie
lat or
c ar
Ġe jectie
Ġaan leiding
Ġmamm acarcinoom
Ġh ol
Sp reekuur
Ch olesterol
ĠElektrofysi ologie
Ġverwijzers nummer
ĠO nt
Ġextrasy stolie
Ġf e
ĠEch ografisch
e us
Ġhart afwijking
als artan
ort aklep
Ġ17 5
Ġon bekende
van kelijk
P uls
vals be
me de
ĠB ur
Ġtr uncus
Ġt ambocor
Ġdiff use
j uni
Ġst of
uizel igheid
ĠM DO
Ġopt im
d arm
Ġin stellingen
ag nesium
ule erde
ĠAf wijk
Ġverw acht
z ins
Ġp ak
Eer dere
od ule
v aroxaban
Ġzw are
Aan gemeld
Ġtach ycardi
Ġg l
p laatst
Ġafgrens bare
der ing
Ġprofylact ische
Ġgegener eerd
Ġmid dag
Tromb o
ĠLaboratorium uitslagen
Ġspec ieel
Ġchirurg ische
umat ische
ĠDe vice
t achycardie
Ġde s
ĠOver ig
Ġgradi Ã«nt
Ġtoe ge
r at
Ġre p
over ig
f oto
Ġden kt
aritm ica
ov id
I U
Ġa ard
ĠĊ ĊĊĊ
Ġre m
ĠGeb ruikt
Ġover lijden
Ġhog ere
ip iden
Ġbelast baarheid
Z ijde
W ond
Ġelektrofysi ologisch
Ġplaats vinden
Ġie dere
Ġf ysie
Ġ500 0
L eft
Ġ13 3
ĠW as
Ġd rank
Ġneu ro
W ilt
Ġp o
t rans
Ġtachycardie Ã«n
r ang
ecidi verende
ail ure
Ġinj vlst
Ġdrain age
ĠM amm
Ġf it
Ġm ateriaal
sy ndroom
ĠOver leg
Ġe scap
ĠVer hoogde
Ġafwez igheid
Ġpoli bezoek
ĠLA A
Ġen ergie
Ġoor spron
Ġinter st
rupp els
fie l
Ġv ond
Ġto on
Ġtelefoon nummer
Ġn arc
ogra f
gevo erde
ag ina
Ġ10 6
ĠEB U
de viaties
el ingen
St aged
Ġcor figuur
ject ion
Ġdo od
ĠB ep
Ġmy oview
H a
Ġc ost
os ine
ten deels
p arenchym
os orbide
Ġhervat ten
u Gym
Ġtoenem ende
V O
Ġsym ptomen
Ġv oelde
Ġover weeg
ich e
N E
10 3
ĠE DI
w ard
Ġmar g
Ġin gesteld
ĠNe ut
it amine
Ġa mplitude
Ġf lu
Ġz on
ĠS G
um b
Ġin spannen
es sel
An g
Ġ18 8
Ġ200 1
ĠP le
ix ed
Ġabdomin alis
Ġn p
Ġer bij
Ġcontract iliteit
erop ost
ĠL ichamelijk
ĠP AP
Hart slag
Ġechtgen oot
Ġepic ardiale
ĠArter iÃ«le
Ġsc intigram
L I
Ġinf ero
ĠAZ N
du rige
Ġuit le
Ġdiagnost isch
A B
O x
Ġ(+ )
Ġh oor
Ġ8 00
Ġbe v
St ud
Ġmedi ale
Ġpulmon alisklep
pro duct
Ġdiast olisch
f asc
Ġj onge
Ġaan leg
Ġingev uld
rad ine
Ġmedic ijn
ĠKle in
Ġs lanke
Ġ10 8
Ġc LVH
Ġimp on
Ġmedicament euze
Ġsinus bradycardie
D ec
ĠCHADS VASC
Ġover dag
v ul
Rec ent
. [
Ġvit amine
Ġc ine
cor rige
bi opt
sp iegel
eg alie
otrop e
c ement
Ġver schijnselen
Ġde m
Ġpro te
Ġvoor komen
Ġin nemen
ĠP at
o zen
PatiÃ«nt nummer
Ġ- ),
F A
aal de
Ġreg io
ĠT c
ab il
Ġinter na
Toegang slocatie
Ġint olerantie
ĠL oopt
Ġlang durig
orb iditeit
Ġv le
j uli
Ġcogn itieve
F E
con form
Ġk ra
Ġvers lechter
Ġla ct
ĠDi ast
Ġon waarschijnlijk
Ġlang ere
di astolische
re ction
Ġonder liggende
Ġmill imeter
a z
ab radine
Ġk il
osu vastatine
Ġgen etisch
Ġkl ier
laesie s
Z O
B ericht
B K
Ġnef roloog
Ġhog er
Ġ13 2
ĠV A
re sectie
alg ie
Ġpre mat
Ġgew oon
Ġd ak
Ġk eren
ĠH ad
ov ag
Ġat electase
Ġgelu xeerd
Ġc erv
Ġecho ven
ĠD E
Ġa berr
Ġh ist
Ġc ell
ig t
Be sproken
ĠT oen
BS E
Ġt ip
Ġover genomen
ĠI g
s inusritme
Ġbetrokken heid
C losure
Ġsusp ect
H O
Ġbeh oe
Ġont st
Ġbloed beeld
Ġ200 2
Ġcardi ologische
Ġne k
E K
c i
Ġw rs
Ġmitraal klep
t romb
th uis
Ġret rogra
Ġartsen bezoek
Ġnuc leair
Ġboven ste
r ing
Ġdysp no
ent er
Ġont staat
Ġinf eropost
Ġepis oden
Ġdro og
Ġtrombose dienst
in opathie
u ff
Ġr h
te parine
Ġde zelfde
ĠV rij
kt ijk
T acro
ĠK ort
el la
Ġab sol
ĠInter medi
et entie
B ekende
Ġadv iezen
d aat
R F
Ġin jection
Sp ort
Ġm at
p ulm
re d
vent ilatie
199 3
C omplic
Ġbegin n
ardi aal
M orgen
Desc ription
asie ve
Ġintern at
behand elaar
la den
Ġstol sel
Ġaan sluitend
Control ateral
Ġwandbeweg ingen
ĠU WI
IE F
ĠAD ENOSINE
Ġvan avond
stip atie
Ġpla vix
Ġsup pletie
oc ker
Pre vious
l etsel
ati ve
Ġtra uma
Ġou der
der land
opor ose
la mm
Uit gevoerde
emat ologie
Ġdaarna ast
Ġl ocale
ypercholesterol aemie
Ġpunt en
een h
ĠN on
t ot
Ġfunction eert
Ġvoorbere iden
ĠM eest
Ġfib rose
Sens itivity
Ġem f
s or
Ġgecon st
geb eld
il lair
af el
ĠHA RT
yse em
ura vocht
per soon
ĠEr nstig
w or
Ġbige minie
oc oc
t ie
BB B
Ġstroom gebied
Ġdie p
10 2
ver end
Ġber ust
o ge
v m
us en
istof screening
Ġout put
Ġw kn
Ġgeble ven
Ġinter val
Ġspier pijn
Ġk oude
ĠW ordt
A orta
Ġaange zien
Ġ uren
Ġp ulm
ĠATP dc
m nd
ĠV ia
Ġw erken
Punctie plaats
ĠAl leen
re mm
Ġon regelmatige
F luoroscopy
ĠNID M
Ġ% ;
ĠRV P
S inus
eken en
Ġver dikte
ro er
gen ees
Di visie
Ġret ard
Ġg a
Ġop vragen
Ġaandacht s
J ournaal
ĠE GM
Ġop lopen
Ġaortab oog
ab ele
ĠM ET
u dic
Ġa a
i dere
em i
el end
ede em
Ġasc ites
functie s
se ud
art efacten
Ġv ier
Ġinfiltratie ve
Ġn tb
Ġsnell er
a orta
angrijk e
Ġri varoxaban
abl oeding
Ġrespir atoire
th m
om egalie
ĠOnge wijzigde
z i
Ġs oc
ĠS lechte
re k
Ġplat liggen
j or
Ġvan middag
Ġl ie
Ġsat uratie
prob eerd
L eukocyten
ĠP ulmonaal
ĠV ader
lij ft
Ġop p
Ġz akt
op pl
Ġext remiteiten
Ġmoe izaam
Ġp ch
Ġdienst doende
ym p
Ġlum en
oph ag
ĠF er
ĠB MI
Ġ+ /-
Ġtrans m
v d
ĠDiff uus
z inking
M M
Ġtrap pen
k loppingen
ĠKl aring
v eld
Ġuit ste
Ġpara valvulaire
Ġh alsvenen
ĠT wee
ĠEer ste
Ġsarco Ã¯dose
Ġon ver
Ver volg
kk ig
di rection
Ġherh aald
IS CH
sp roef
ĠSt ress
re en
Ġs ep
e chter
ic es
geruis en
: .
Ġonderste un
op ten
ul itis
Ġst am
Ġopge t
Ġop dracht
ĠD VT
ĠVer apamil
Ġabdomin ale
Ġverkal kt
Ġimp edantie
* *
ĠE Z
vorm ige
undeltak blok
in etisch
al leen
C iclo
Ġlos artan
Ġbeweg ings
ep razol
Ġdys f
Ġbi direction
ĠThuis medicatie
Ġver sn
Ġ14 4
Ġvoor gaande
Ġpau zes
Ġcol oscopie
Ġ25 6
ron ik
Ġ+ /
Ġaandachts gebieden
Ġp dr
M ode
im m
p ra
Ġin c
Ġf un
stij l
sp oed
Ġlymfe klier
elev atie
ĠR v
Ġic m
ast ernaal
Ġz one
it atie
d ys
et her
ĠMG A
Ġbe weging
RA Z
Ġpro fiel
cht ingen
Ġirreg ulair
AP T
Ġgeb racht
Ġverdi kking
ĠRadi ologie
Ġant erieure
it one
or der
Ġoes ofag
m ak
1 80
Ġpect oralis
am s
Ġf enprocoumon
Ġafger ond
Ġ0 1
entan yl
Ġstruct uren
Ġco arct
AV R
Ġp ap
ĠF DG
s inds
U w
iot ronik
Ġgroe i
Ġbeg rij
Ġdoubl et
voor beeld
Ġhard lopen
rth op
Q RS
Ġerv aren
ĠH uis
Ġgeocclude erd
Ġhel aas
St op
ĠMeer dere
Ġdun ne
metast ase
ĠD ag
K omt
Ġn ab
ost er
imulatie drempel
Ġoverleg gen
Ġj l
Ġvocht beperking
ĠA CI
Ġma pping
Ġmobilis eren
se quentie
Ġf ailure
V itale
m ocard
In formed
ĠBI RADS
O ok
T M
Ġan om
Ġsp utum
d ruppels
om vang
ĠHier voor
R etour
st ijds
Ġhersen en
S EN
Ġme vrouw
ĠL oh
Ġanat omy
Ġinst ent
ost aal
dilat eerd
ad tijd
sn el
ompens atie
laat ste
ĠVis ite
oscop ische
ol ium
Ġgek ozen
ĠER I
ĠARV C
aal t
Me dic
Ġzorg product
i lep
h ou
ĠT oename
ri um
Ġram us
es l
An dere
Ġtra che
u vol
Ġmet er
ĠZ H
os en
Ġhel dere
om m
p ulmonale
Ġkw aliteit
ilep sie
Ġv ing
houdend heid
l i
s on
rit ine
ul ar
st oename
Ġc omplicatie
Collater als
Ġvullings drukken
Aberr ant
8 00
ĠM oe
Re animatie
o ont
o chter
19 90
Ġgest eld
min ente
elf ase
V G
sch ema
o ide
emb olie
at t
ĠT romb
ĠI H
Ġaange komen
be ctomie
ĠCont roles
acht ig
Ġ40 76
Ġclass ificatie
N ov
Hier bij
L DL
g n
olium zuur
Ġinge zet
Ġtoenem end
Ġmo d
in atie
Ġf lin
ra x
oll en
y ndroom
ID S
ne iging
Ġbetrouw bare
ĠD ilat
a e
C F
Ġaan brengen
om eprazol
cor bio
Ġlu x
ysp neu
Ġper foratie
Ġboven kwab
Ġdrukpijn lijk
Ġost iaal
kin etisch
F unctie
of ielen
Ġger i
Ġvan nacht
ĠSc an
199 2
Leef regels
ĠAtri a
D E
Ġd abigatran
ĠQ s
Ġbinnen komst
Ġlucht weginfectie
C reat
Ġ years
ĠAc uut
ĠS la
Complic ation
ĠO pt
erd ag
oppl er
R ed
ĠD ob
sth ma
O meprazol
Ġc eftriaxon
ĠStop reden
Ġre jectie
Voor keur
ui dig
sch ien
Ġst rain
Ġafge zien
ax t
Ġinspannings gebonden
sp ier
ĠNe venbevindingen
Ontslag bericht
Ġhom ograft
Ġeff usie
Ġtr end
Met formine
ko zen
ĠO b
Ġ10 7
z ing
Ha ematologie
K atheter
TA VI
Proxim al
Ġgene zen
gel d
Ana esthesie
h b
Ġ0 2
G oed
Ġlongembolie Ã«n
valsbe vinding
Ġin ade
ĠL ijkt
Ġaorta e
Ġaange geven
Ġinge scande
entr y
Ġar rest
Ġat ypisch
C ircumflex
b ron
Ġsub end
Ġik v
r int
Ġballon dilatatie
Ġgeconst ateerd
ĠS inus
use xtirpatie
te xt
G lobaal
Ġf luoroscopie
Ġintrac ran
ĠS ept
ĠSc ore
ĠN eur
Ġdub bel
udic atio
A spirine
w aren
Ġmet formine
Ġin spiratie
op l
cl op
ĠN aar
inf ect
af d
Ġwo ont
V EN
Ġ Y
Ġmodi ficatie
onder kwab
ov ic
ath ether
P arox
Ġw ellicht
Mob iel
Ġassist ent
Ġex ams
Ġe veneens
ĠR DA
unction eel
Ġv raagt
S uccesvolle
Ġl ijst
Ġopvall end
ĠR ust
ĠAA A
N O
Ġdyspnoe klachten
Ġf ront
structie s
ĠAtri ale
M ede
b eg
rop ium
K athether
genees kunde
Ġw ater
spect rum
bew aking
ĠNe derland
Ap ixaban
ill ing
Ġdi urese
ĠVolg ens
aten olol
Ġover een
um ab
ĠAl hier
ĠM ob
Ġla par
CH A
H el
ĠS h
Ġbidirection eel
Ġin cl
Ġbijw erking
Ġgastro scopie
Ġmit raclip
be sch
ĠCA PS
la vix
G EN
z one
D DR
bere iding
iform e
Ġals nog
Ġinf o
Ġvoor stel
) )
Ġie der
ne ctie
Ġk m
Ġcirc um
ĠVer pleeg
R es
Ġlang durige
nam elijk
R ust
ĠPersist erend
Ġt wijf
Ġinf uus
} ,
Ġpijn lijke
Ġaortaklep insufficientie
Ġbe ste
ĠH yper
w ond
ĠZ ou
Ġsla g
Op eratie
Ġontwik kel
ĠS MART
Ġbehandel ingen
Ġg ift
Ġst uw
n eg
Ġ us
Ġpro mocard
ĠInt ra
Ġverkl aren
Ġgal wegen
| -
ĠGeri atrie
Ġbinnen kort
iv m
rot ische
Ġnood zaak
Ġvari ant
ĠPM VL
Ġgra c
wijs brief
ĠE p
Ġgebe ur
der t
ĠF lecainide
g l
abil ity
uc eerde
dra in
Ġpoly neuropathie
erap eut
Ġm erkt
sp ectief
Ġtoe stemming
dig d
ut amine
ĠS up
K P
h g
Ġzelf de
ĠGeb eld
requ ente
at eerde
ĠEx cell
Z eer
Ġom huld
b innen
Ġover plaatsing
i atie
ĠMin imale
ac rol
Ġiliac a
Ġdiafragmat ica
rocardi ografie
Ġ12 6
): \
Ġge probeerd
ĠW ilt
ĠI ets
Ġaanwez ige
sp ort
v es
Ġt uss
ar men
den t
ĠDef in
ot ak
Ġ0 0
N itroglycerine
Ġz in
Ġhet geen
eer der
Ġover t
Ġn abloeding
A rter
Ġw s
de kt
ab le
T roponine
Ġj ug
ĠExcell ente
Ġj ump
Ġcon clusief
qu ate
S D
Ġelk aar
ind ing
Ġsinds dien
Ã¶ ntgen
C RT
Ġaan passing
Ġ0 3
gew richt
comp enseerd
Ġ11 8
Ġ16 2
m aar
os artan
Ġontslag bericht
i ro
rog atie
Ġhart klep
Ne oral
ste en
In plannen
Ġ14 3
ĠEx tra
ge sloten
clu der
Ġw est
b et
- .
H yd
Ġ12 2
Ġn amens
Ġcontinu e
roc yt
Ġabsol uut
om er
' .
ĠS elokeen
Ġwat tage
Ġder mat
ĠToe gang
Ġverz ending
gif te
Ġmy ocardiale
od on
ĠMV R
ĠImpl antatie
Ġtoe gevoegd
Ġtrans missie
Ġsig ar
Ġonder been
superv isor
VA R
Hoofdstam stenose
Ġdef in
re cept
ĠEr g
o sie
Ã¯ ne
Ġanom alie
Ġ2 10
ĠSp oedeisende
h el
w oor
ĠC re
at roon
ĠSp oortje
ĠSc reening
d ose
rofie le
abl ok
of armac
Ġlymf oom
M odule
r ologie
centr isch
at itude
ri m
ĠRV EF
im ent
Ġasp ir
W H
Ġex acerbatie
k linische
E MA
Ġveget aties
Ġb ad
Ġonge wijzigde
Ġgein diceerd
Ġ12 8
ĠKN UK
ver m
ri k
Ġ13 1
Ġzeg t
Ġk offie
Ġt int
d et
Ġhoog uit
Procedure voorstel
Ġechoven sters
gew richten
Ġdi abetische
ĠPer ifeer
Ġm rt
ens ing
ĠSure Scan
k la
chec klist
ma ild
M atig
ver kal
ic ro
Act ueel
ou nt
Ġd otter
N STEMI
s ing
spre id
cont in
ic arb
ot ion
Ġc alc
2 50
oxic illine
Ġdr inkt
ĠL PA
ĠH als
acrol imus
Ġwijz igen
ato ir
Ġant icoagulantia
h oofd
zo uten
Ġe uvol
Ġverb reed
Ġir reversib
ĠF A
Ġfla uw
ofarmac on
C ar
Val ue
ĠN P
eer baar
Ġont plo
Ġuit gel
Ġvis ite
Ġd rupp
K le
Ġdel ier
Ġuit er
il isatie
Ġo ther
Ġer osie
C l
on aire
Ġre vascularisatie
angi ogram
Anest hes
et waardes
ic ot
ĠEnd otak
ra ctie
Ġaan melden
Ġgro ter
ĠP acing
h yp
T P
ĠLe ad
ĠVer minderde
di end
---- --
ĠAc ute
Ġra dic
re kt
Ġpar acetamol
Ġf amiliaire
Ġh igh
be spreking
asc ore
P VAI
C ON
Ġgewicht stoename
V is
ĠA MVL
ĠE H
Ġmob iel
ĠO AC
Ġmee ge
i pl
ĠOn veranderd
ĠD ruk
D omein
D hr
ĠW PW
ĠP OS
lob ale
Ġ11 3
Ġb rengen
Ġmeest al
A denosine
ĠT otale
im ensie
ĠP atint
Ġpl us
ĠOntslag checklist
Ġd uiden
sch e
Ġu Gym
Ġsla apt
ĠD oet
re ig
Ġvoorlop ige
L R
BR IEF
Ġ11 4
Ġduizeligheid sklachten
Ġst ellen
ĠOn bekend
pp endectomie
ĠG aarne
s um
] /[
all ergie
ond ag
ĠAnt istofscreening
Ġlact aat
f req
P VI
P t
Ġe f
is f
t end
Ġpulmonaal vene
Ġin clusief
schrijv en
ĠAf gelopen
Ġonrust ig
p pm
ablok kade
Ġde viatie
Ġembolie bron
Ġ11 6
ĠpatiÃ«nt en
Daar na
Ġherken baar
ur ve
yc odon
Ġherstart en
Ġcircum sc
su g
an dige
ff en
st oel
Ġvoltage s
Ġaf nemen
n od
Ġbez waren
oe k
Ġt ong
g amma
ax atie
in ing
ar yn
mak oep
c yste
ast ro
Ġinf ect
u ctie
Ġneur ologische
ĠM Y
Ġdet ectie
Ġtop pen
ovic olon
Ġinst room
at omie
ĠA b
ĠS oep
Ġc arcinoom
Druk verband
uid elijke
Ġm il
R ap
Ġrest functie
Ġzod at
urin ol
v ari
ĠZorg vraag
Ġbrad y
um er
ĠM SR
Ġgereg istreerd
Ġv ztb
ĠPer icard
Ġdis functie
ĠT ijd
ĠH CT
Ġ20 22
Ġeind diastolische
Ġcar vedilol
ĠToegang stijd
dar one
ap h
Z org
m L
Ġinf erieure
ter en
W el
om st
Ge scand
ĠĠĉ Ġ
Ġverslechter ing
ĠUitgebre idere
ĠVer dere
ĠĠ ĉĊÂł
Ġcent raal
Ġovert uig
Ġ19 99
LV G
segment en
Ġplast iek
Ġhart oor
Ġapp endectomie
ograf ische
Ġh eparine
o ening
ĠBe zinking
Ġgev uld
ĠF ra
gel icht
stij ging
Ġf istel
ĠC ascore
D rempel
Ġvrij e
Ġs oort
Ġont vang
Ġhersen infarct
ol der
cre ment
ab iliteit
Ġing repen
i wit
long arts
ĠIntermedi aire
Pre dilatatie
orm ulier
ĠG em
Ġ18 2
E L
ran sth
ĠVervolg ens
4 50
r and
Ġvas ovag
Ġondersteun ing
I mpl
Ch arge
Ġ Â
lop urinol
zeker aar
ĠWand onregelmatigheden
Ġw ijd
r sch
ISCH E
ĠM ax
Ġt zt
Ġoog druppels
ff ende
1 70
ĠDegen eratieve
Ġ0 5
Ġin itieel
Ġdrupp el
er ium
H F
ocyt aire
ĠT ricuspide
Ġcre me
ia zem
ma il
Ġne en
Ġ12 4
Ġcoronair angiografie
Ġdoorge geven
Ġged acht
derd aad
ine el
ran den
ys io
M K
C hol
S introm
Ġzon odig
rag mat
Ġtoege diend
M D
Ġklep bladen
Er nstige
v oet
Ġg y
I om
85 6
Ġhier over
Ġhem or
plaat sen
ĠCoronair lijden
u atie
m and
Ġuitge legd
ĠP SA
Ġvoor zicht
un ct
FU N
Ġherst elfase
ĠNI BD
icarb onaat
ens iva
ĠCat h
ĠR D
ema zepam
ĠPer indopril
Ġen zymen
Ġcommun is
Ġa ctie
ĠH D
ĠC S
ens ch
ORA X
or ige
Ġdem entie
valu eren
Ġsl ok
sla an
su vastatine
ĠBij zonderheden
Ġfamilie anamnese
Ġbact erie
ĠGe st
ĠMy ocardiaal
Ġstij gt
Ġverh oging
Ġrect aal
Ġdiff usie
it aire
n on
v ir
onden tie
con clusief
Ġhypok inetisch
sy st
em mer
ger ing
Ġinterventie cardioloog
Ġt u
Ġs pl
Ġge corrige
Ġwit te
Ġaf vallen
Ġdiameter s
ritme stoornissen
Ġ10 9
Ġgeb ieden
Ġex ter
Ne em
Ġkin der
Ġt oelichting
Ġmy el
v ak
Ġal gemene
Ġc are
ĠO P
Ġvocht balans
Ġrel axatie
Ġhart lijden
Ġdiafrag ma
Ġtijd elijke
ĠCons ent
ĠG uidant
h k
46 74
w erking
Ġm el
h em
U corbio
Ġtherapeut isch
Ġzw eten
Ġna dat
coronair en
Ġcon sequentie
ĠOp eratie
ĠB eg
par aat
ĠP alpitaties
l ocatie
af name
kom t
Ġcol chicine
resp ondentie
ĠIH Z
Ã ³
ram ide
Ġben ader
I C
volg t
cler otisch
isch arge
ente am
J S
Ġwaar om
cht gen
Ġdoor gaan
ĠC reat
ite indelijk
Ġbol us
Ġop gebouwd
Ġrisic ofact
th erapie
abd omen
Ġtachycardie en
Ġus ed
Ġcollater alen
ĠC entrale
agen oeg
Ġc ephalica
Ġher be
Ġvoor gaand
ar ia
Ġj e
tra ject
Ġ atenolol
Laat ste
ĠAtri umflutter
Ġuitgel okt
Ġf ir
ife dipine
Collater alen
icot ine
Ġop los
Ġcr is
ĠB BL
Ġfor ward
Behandel aar
ipl in
Ġ- );
Ġsyst ol
ĠM aar
st or
Ġg ly
Ġplaque vorming
8 856
Ġsub opt
verander ingen
M acrogol
Ġsigar etten
Ġne ar
Ġas ymptomatische
sum med
Ge kozen
Ġverlaag de
g las
ĠR isk
chec kt
Ġgere geld
ĠBur st
ZO EK
ĠM it
id isc
ok riet
ĠgeÃ¯n diceerd
Ġiv abradine
V ocht
Ġplots eling
W aar
Ġtricuspidalisklep insufficiÃ«ntie
ĠEZ IS
sten en
sch ade
Ġzeker heid
p acing
Link s
Ġ12 3
ĠLab waarde
Ġv essel
Ġuit sluiten
C P
Ġmechan ische
ĠM oeder
Ġ11 7
bre ed
deel contact
p enteam
ipol air
ĠHel der
ze em
w at
idisc iplin
ur an
ĠE N
oor za
Ġver lies
Ġopt reden
Ġverk la
DER ZOEK
Ġhoor baar
Ġp h
Ġlong beeld
Ġn r
or a
Ġcollater ale
n aar
di daat
ĠM en
Ġbloed verdunn
Ġdo wn
om schrijving
ĊĊĊĊ ĊĊĊĊ
ĠC omplicaties
Ġalle maal
ĠM ild
Ġverk regen
Ġlig ging
Ġext re
erg o
ru im
Ġdrug s
amil i
ĠF r
Ġdegen eratie
Ġver teb
ĠUit ste
Ġchron otrope
orig ineel
Ġgly hb
Ġdors aal
ĠR ntgen
Ġrisicofact or
Ġ+ ,
st at
Ġpassag ere
ĠRe veal
Ġmedicatie wijzig
inu eren
Ġradi al
Aberr ante
Ġdi verse
erv la
Ġescap e
ĠM M
ĊĊ ĊĊĊ
ĠB B
Ġret inopathie
ak kelijk
g oede
ĠT emp
v aat
ĠB or
Ġc usp
Ġpol ym
d rug
ment in
ĠHe art
ĠF lash
Ġradi atie
Ġf ietserg
in dien
w k
in tern
ĠG isteren
vull ingsbeeld
na ec
t je
Ġor g
Ġvolg respons
Ġgein formeerd
Ġurine weginfectie
Ġp AF
eg d
ĠNieuw e
y stol
act or
Ġarit m
Ġverb inding
ĠW ond
ĠN AG
Ġuit lok
ĠAl cohol
ĠW D
Ġ12 7
Ġm IU
ĠCardi ologische
ĠN ier
Ġkram p
Ġdubie us
ĠT r
e ak
O ther
irc ulatie
ĠA DL
ac uut
ĠVerpleeg afdeling
ĠDob utamine
ger s
Ġkom ende
Ġd on
oe dig
al f
Ġt unn
Tel emetrie
f ix
Ġisthmus afhankelijke
cl ox
Ġbe wezen
Ġb ijk
Ġin otropie
r ens
at ten
Ġc ran
Ġob stipatie
Ġdis c
ig oxine
Over name
Ġ0 4
Ġt ymp
Ġgesla agde
ĠL atitude
os a
S h
= {
t ijdens
ĠS CD
wor ding
i ff
Ġmet ab
Ġgeb oren
Ġsu per
Ġs heath
Ġant ero
Ġex pl
ral aterale
Ġnod ulaire
ĠR ecidiverende
Ġp antoprazol
u al
Ġmal igne
Ġaan vragen
Ġ18 5
he chting
comp lex
V ent
intern ist
ĠRadi ation
Ġf en
ge legd
Ġmed isch
ĠT emperatuur
ĠUit leg
ĠD APT
f iets
CO M
Anesthes iologie
Ġge maild
Ġ14 8
__ __
Artikel omschrijving
Ġech ocor
R osuvastatine
Ġvol um
St raling
N IN
ver traging
ilt iazem
ko usen
uit slag
Ġneur ologisch
Ġst eken
Ġcat aract
Ġtwe etal
Ġuit sluiting
13 5
ĠS omat
Ġw w
an en
x dd
Ġgrie p
199 1
Ġontvang t
Ġgerust stelling
Ġ12 9
ĠVER WI
Ġv oeding
sug rel
adem ing
E ch
Ġrest afwijkingen
Ġhel pt
Ġb iv
ĠW ire
ĠCON COR
c ir
ĠH ypert
cl ine
Ġfiet st
b es
eel t
ĠH uisarts
m aart
Ġlongembolie en
ĠAF S
Ġ arc
ĠB K
Ġweg en
A ortaklep
S EH
Ġ11 1
b ul
ct asie
Ġon c
be d
fra cturen
ĠL GE
Ġn amelijk
Ġber ekenen
N eur
Ġgr ond
ĠAng ina
be st
Ġdruk kende
Ġveget atieve
ĠIr reg
V B
ĠHyp ok
Ġmedi a
ĠM itralisklep
Ġnarc ose
v as
Ġp y
zo als
m erg
ĠSten ose
nam en
be weging
U CORBIO
Ġmo oi
na pt
Ġul cus
: {
Ġonder vulling
Buik omvang
H yp
o Ã¯
ju v
Ġmoe izame
H er
ĠR T
Ġmid del
SP AN
Ġhier door
Ġvervolg d
Ġw achten
SPAN NIN
ĠAan wijzingen
ĠVES sen
erk ent
Ġincomp etentie
Ġtachycardi omyopathie
ĠVERWI JS
Ġcy sten
Ġm ens
Ġmeld t
ĠVERWIJS BRIEF
st op
( [
vol ol
D yspnoe
Ġcoronair sclerose
Ġst uren
Ġrechts zijdige
Ġver ne
Ġbij voorbeeld
ĠP rog
K A
c alciumscore
Ġb rid
ap id
ĠI AS
Ġhal ver
Ġdaar door
ĠN ierfunctie
Ġww sp
Ġlumb ale
Ġdoubl etten
Ġop bouw
Ġch ec
ĠPle uravocht
Ġterecht e
Ġf il
Ġbed roeg
ĠSomat om
ĠH IT
idisciplin air
ĠElekt rocardiogram
Ċ ĠĊĊ
EMA I
W e
Ġdiafrag makoep
Ġback flow
Ġdiagnost ische
ĠWandbeweg ingen
qu aal
art iment
LAD RES
ĠNorm al
An alyse
EMAI LADRES
ĠNeg atieve
plan e
Over lap
Ġuit val
lut ic
moeid heid
Ġ16 7
ire ct
ĠAnt istolling
Stud ies
c ardiologie
ĠStop datum
Ġhartfalen poli
Ġpremat ure
ĠT oelichting
lo x
OR M
v ocatie
R ivaroxaban
u igen
E CHO
t s
Ġversch il
ge ten
B ed
Ġaf gebouwd
Ġmid ventriculair
ĠR etour
Sp oed
Ġarc us
ĠAp ixaban
Z o
Ġf ellow
Ġde stijds
zak king
E nd
Ġcon crement
N S
Ġpijn st
Ġw ilde
Ġverd iep
Ġr unn
Ġpol iep
Cont ralaterale
lutic ason
ra st
Be schrijving
ath ologie
ĠJ aar
G en
Ġpau ze
ĠV itale
Ġtrend s
or apid
Er nstig
hou ds
Ġbloed kweken
bre ken
Ġmoe st
Ġm es
ĠRe sp
or i
Ġbronch opathie
ok lep
i dipine
11 5
ie ve
Ġtromb o
ac enocoumarol
odi um
Ġtherapeut ische
Ġgevoel ig
T r
Ġstent ing
Ġin name
Ġverna uwing
ha ven
C a
F N
Ġpl anning
eer bare
ĠA stma
E ver
ant eerd
sl oping
Ġintermedi air
Ġd ossier
Ġver oorza
lo opt
Ġo ff
is cus
ĠIntact e
Ġhypert hyre
ag g
Ġg uiding
des artan
Ġp antozol
le aire
SPANNIN GS
oc us
Ġapic al
Ġgede compenseerd
ip ril
Ġet iologie
AT P
ik e
Ġvoor namelijk
Ġc reatinine
ĠB ovengenoemde
Ġc entrum
Ġex cisie
R ACE
ati er
a denosine
el ateerde
h alen
it or
ont steking
G uid
Ġ1 19
Ġas yn
Ġsup ervisie
ĠB iotronik
top progressie
ĠInter ne
Uit slagen
r h
ĠT ot
ĠOp vall
onder zoeken
Ġnacht elijke
ĠHart revalidatie
Ġ18 1
Ġverwijd ing
Ġkla ar
ĠS n
chten ds
Ġmet h
Ġverst erkte
Ġge lijk
ĠVT s
Ġfiet sproef
erie ur
Ġhemat urie
E t
Ġcontra h
ĠU rine
Ġconsequentie s
Ġgew enst
p us
s ituatie
s hock
ken merken
ic al
! )
ID E
ab usus
Ġdu ctus
VA G
ĠRed elijk
Ġlie ver
Ã¨ re
Elekt rocardiogram
ist ente
OR D
ap icaal
ĠN H
Ġtotaal score
Impl antatie
inf erior
uk ken
ome diastin
a ort
Ġvoor be
Ġbla uw
ĠS yn
rogram ma
Ġhoud ing
Ġch or
Ġbest aand
Ġuitle zen
Ġhoest klachten
H D
ĠProgressie ve
Ġk uren
ĠI vm
sor iasis
Ġtak ken
m uran
re chter
over leg
VA STAT
o ire
Op merking
ine zuur
st ap
Ġdoor lopend
Rec ente
sp agina
Ġverwijz en
ĠOverzicht spagina
Ġcollater aal
Ġplas sen
Ġdeel name
ĠW arm
L BTB
but amol
Zorg Domein
Ġho spital
St imulatiedrempel
CF G
Re f
ĠH oudt
ORI GIN
Ġsy mmetrisch
ORIGIN AL
Ġto ilet
Uit slag
Ġpacemaker implantatie
ĠM omenteel
RAZ OL
Ġbere ikbaar
Ġtoe val
Ġde x
ĠI PL
ood sch
mall ing
ĠV B
Ġsoc iale
Ġdra a
Ġaan komst
stru ctuur
Ġuitste kend
alie mie
adv ies
Ġjaar controle
ym aal
-------- ------
V roe
Ġla ger
Ġe mbol
ĠIn formed
Ġhand haven
Pulmon aal
femor ale
Ġreversib iliteit
Ġzeg gen
Ġch emische
Calcium carb
Ġtherap y
E CV
Ġrol stoel
cor rectie
Ġf oto
Ġop gevraagd
ĠPro tocol
ouw en
N L
F ietsergometrie
Ġterug gezien
in et
at osis
Ġ. ..
Ġt illen
Ġtricuspid alis
Ġs m
Ġaan vankelijk
ij f
y rax
Ġextra cardiale
Ġn atieve
boven kwab
hk v
Ġc q
Ġver meld
Ġsl ik
Ġanomalie Ã«n
hypert ensiva
houden de
VASTAT INE
ĠQu ad
sp ar
isf eer
Ġmedicijn gebruik
ver la
Ġmediastin ale
Ġsens or
ĠP resent
ex istent
Ġwandbeweg ings
Ġgelu kkig
Ġpost vak
Ġvoel en
79 1
pol ikliniek
M ol
O nt
Ġst oel
Ġst or
ati ons
m rt
Function ele
in en
Ġ16 8
Ġst re
10 7
Ġnierfunctie stoornis
ĠT UR
Ġer na
ry o
Ġgef axt
Ġuitbre iding
gra ft
Ġtint elingen
ĠDataLin q
Ġhart st
ĠZ ijn
opl ite
K ER
ic e
Ġcol lap
Ġvoor genomen
ĠM erkt
ĠOver name
Ġpanc reat
ĠI MA
Co C
ĠP ass
Ġduur t
Ġamylo idose
Ġf lecaÃ¯nide
Par ameter
Ġover vullingsbeeld
CD EF
lasse Guid
Function ality
Module Name
FUN CDEF
CoC lasseGuid
Functionality Name
a emische
ORDER COM
FN MK
Ġge scand
Me etwaardes
ĠDefin ition
Ġbeeld bel
Ġmis schien
Ġmens en
Ġver zoeken
Ġoes ophag
ĠA CHD
ĠT ur
ma xim
ĠExt r
Ġrol lator
Ġmidden kwab
st abiele
ĠPI CC
Ġinferopost erior
450 1
ge sproken
Ġvroe ge
ĠU CORBIO
ĠP te
Ġopvall ende
R PM
Ġrestri ctie
Ġzat erdag
Bel angrijke
Ġbeginn ende
k ed
bl ocker
ic iteit
ron ef
ĠAct ueel
ulp rit
f urosemide
Ġ17 6
Ġpla cement
Ġcongen ital
Ġa kinetisch
Aan meld
ĠU iteindelijk
Ġhyd ratie
49 40
] }
k as
ĠOp nieuw
ĠM oet
ĠE nt
behand eld
Ġatri umf
ĠGro ot
ak ken
ronef rose
Ġbronch itis
CON CLUSIE
Ġhom ogene
ĠTh ans
Ġmedi aal
" .
Ġreg adenoson
Ġcor respondentie
p pen
r isk
Ġopen en
z ocht
Ġonder houd
b ach
Ġrecidi verend
ne f
kl ierfunctie
ĠInt ern
ĠK reat
zetim ib
Ġerg omet
rocyt aire
ĠBe houden
Ġsnel heid
Ġretrogra de
ĠM ed
act ion
M ogelijk
onit raat
Ġfe it
FNMK ORD
U P
Ġlong ziekten
ĠJ C
Ġ12 1
ĠHoofd stam
Ġsuggest ief
i us
Ġafgrens baar
Ġdef ici
ema il
Ġinspann ingen
Ġom hoog
ĠSp rint
ĠEle ctieve
ĠB umetanide
Ġbep aling
V U
Ġdruk verband
K reatinine
Ġinge sproken
ast e
p ool
Ġre mmer
Ġonze ker
Ġhalver wege
Ġaf meting
ĠSp ort
Ġverwijz er
Ġin stellen
Ġpro ject
Ġavond s
w erd
Ġafge beeld
Ġz ouden
ĠIn middels
Ġgen etische
rip te
ol f
ĠF ont
Ġk er
lop ende
Ġnef ro
y le
ĠD NA
Ġcoarct atio
b ar
Ġwerk diagnose
Ġvoorzicht ig
vari atie
ol ute
Ġeven wicht
Ritme stoornissen
EE L
b ec
ĠE vent
Ġzelf s
d w
ec g
V E
en zymen
Ġtymp an
be elden
Ġemf yseem
on artrose
gev ity
H oe
bel consult
ĠRC C
Ġteken ing
Ġt emperatuur
Ġrib ben
Ġd ur
Ġrug klachten
Ġonder benen
leb oog
Ġtwijf el
ĠON DERZOEK
Ġparox ymaal
Ġbeg rens
ĠT VP
sne den
Ele ct
Ġapic o
Ġprogram ma
cluder end
Ġhet zelfde
Ġont bij
Ġelekt rocardioversie
Ġcircumsc ripte
ild klierfunctie
100 0
Le ver
Ġ( ?
Ġlesie s
in digd
Ġbeve stig
ĠE plerenon
Ġhev ige
Ġm igraine
Ġlinkerb oezem
Ġi CMP
Ġhypothyre oidie
contin entie
Ġ( #
rij gt
Ġvat slijden
Ġc l
Ġter t
R elevant
Ġ17 8
a ie
Ġg ram
Ġt rig
am sul
Ġa bl
Ġals mede
Ġm acro
Hemat ocriet
ĠD ub
metast asen
b o
Ġarterie el
Ġco il
Ġlang ste
et jes
ĠAut ogen
ys ma
Ġin derdaad
Ġvan morgen
Ġbij zonder
ĠMan agement
att ro
gev onden
ĠAm lodipine
all i
Ġper ip
ĠMy oview
t v
Ġpost operatieve
ĠEosin ofiele
ĠT end
er c
or ide
ĠD rug
U G
Ġn atrium
COR E
ob structie
Ġgeleid elijk
r eren
Ġkort durende
ocrin ologie
rofysi ologisch
Ġbur den
ĠOnge compliceerde
Ġklep functies
Ġkl ieren
Ġto x
Ġ/ /
we st
Ġged aald
umar aat
ĊĠĠ ĠĠ
Ġp seud
h oging
agelijk se
ets els
ĠMamm ografie
d osering
am eth
Ġinv asieve
Ġaangeb oden
isch emische
vo er
ĠA R
H als
sen en
ĠOn d
ĠBas ofiele
ĠP neumonie
ĠS CORE
Ġpre c
ĠN C
Ġb ul
Ġcontact persoon
ose dienst
ĠMedic amenteus
Ġcardi ovasculaire
st aand
ĠQ S
Ġtachy aritmie
Ġmat glas
ĠSinds dien
Ġaortaklep sclerose
ĠE L
sp atroon
ĠUitste kende
Ġk week
kk ingen
Ġh eft
p unt
Ġin sp
Ġhart afwijkingen
Ġble ef
Ġs r
Ġw rsch
proble matiek
Ġ7 74
ver zekeraar
rom y
Ġverdiep ing
at isch
Ġzorg instelling
on c
Ġmen eer
Ġbl okker
Ġgest egen
Ġhyper ventilatie
c irculatie
Ġd ensiteit
Ġm ixed
Ġdie pe
olog en
Af deling
Ġn agenoeg
rij f
Ġverb re
Hart revalidatie
eg istratie
LA VI
-------------------------------- --------------------------------
breed te
sept ale
ĠSch erp
p omp
Ġcardi omediastin
ruik te
ĠQu attro
om bin
ĠSV G
ĠNeut rofiele
Ġnef ropathie
Ġbronch iale
on chi
in itis
K an
Ġontbij t
k ijken
Ġz ondag
ĠMI BI
Ġoperatie f
Ġa ureus
eg ens
sy ncope
Ġul c
Ġge zicht
Z ij
Ġdys syn
fasc iaal
Ġinfectie us
aan vraag
Ġdiafragmat a
ĠIn gevity
Ġeven als
Door lichting
and aard
s inus
Ġro suvastatine
ĊĊĊĊ ĊĊĊĊĠĊĊĊ
im p
ic email
iek e
Ġd oel
F requentie
F ix
Ġkan didaat
f te
d an
Ġelect rocardioversie
Ġkan aal
amsul osine
la vic
Ġcrit erium
RV F
Aan vullende
ĠVoor alsnog
Rem ote
Ġmonitor ing
in er
10 1
Ġt end
Ġh orm
ĠO AS
u ide
ĠAC M
e valuatie
ĠG eeft
Ġoperatie ve
Ġmechan oprothese
Ġa sthma
Al les
oodsch appen
art sen
Bed rust
ĠP O
Ġst ekende
Ġbetre ffende
I muran
Ġ17 1
me an
asc al
ĠAn dere
Ġonder houds
ĠAan vullend
Ġlong vene
Aan wez
Ġvoorbe houd
Ġkun stklep
Post dilatatie
ĠI A
Ġb o
an is
ĠS B
verander de
rie ve
Ġcon c
Ġonder schat
f amilie
Ġur eter
Ġtand arts
ĠH om
ĠD OAC
ranspl ant
proble em
Ġlan oxin
af spraken
der ate
Ġgesla pen
di meer
Ġvoor gestelde
ĠD osis
F amiliaire
ĠCC S
d aling
Ġgele ide
S ym
vind t
cl ose
Ġgew one
13 8
H uid
Ġvoorbere iding
Ġ= >
ameth ason
midd elen
p h
Ġon gest
Ġz aken
Ġhoog gradi
Ġt ib
e xt
Ġsp u
Vis ueel
MM F
Ġslok darm
y rid
Ġregel en
Ġveget atie
Ġbloed ings
erol aterale
10 4
Ġom t
bel emmering
O G
Ġget rig
Ġbep erking
ĠO F
det ectie
erk omst
Ġelekt rolyten
n g
il stand
at a
l et
le dig
osf aat
Ġge metastase
L ong
Ġreg ulatie
Ġaort ic
Ġa g
Ġrood heid
op renaline
Ġgeh oord
r ight
Ġgec ombin
oth erapeut
10 6
M E
Ġdra ger
ĠF VT
Ġvan zelf
ad uw
Ġlong parenchym
od g
Ġout flow
Ġok sel
Ġbewegings artefacten
Ġn v
mon onitraat
Soc iale
ĠA OS
Ġcomp leet
Ġgereg uleerde
Ġc ompl
Ġm ast
Pra vastatine
ĠHier op
Ġvir ale
v ader
eri ode
Ġpost erolateraal
ge midd
Ġneu ropathie
M w
Ġinf lamm
/ (
kel s
Ġie mand
Ġf alen
rip rieve
Ġc lip
Ġdynam iek
Ġbro ers
antrum isolatie
Ġuitbre iden
h ypercholesterolemie
Vroe gere
Ġradi ofarmacon
ings datum
Ġont dekt
Ġsp m
Uit gebre
Ġsub fasciaal
ast enose
z ond
Ġhypertensie f
Ġna zorg
ar n
it air
Ever o
in test
rof umaraat
Rap a
ĠB uik
Atri ale
M y
Ġsigm oid
ĠA specifieke
venbe vinding
et up
Leeftijd score
on ly
Ġcomp artiment
ĠU I
Ġ Ã
p ak
Ġcardi ogene
Ġsteun kousen
ĠS l
Ġi hkv
oc kt
Ġple urale
Aanmeld ingsdatum
Ġo chtends
Ġr ing
rof ische
lop ig
ĠG uiding
reg istratie
opath ische
Ġgro tendeels
ĠP antoprazol
odg kin
are se
Ġaangep rikt
Ġspu rium
ĠCons ervatief
Ġ7 24
ĠR PL
Ġtoe valsbevinding
Ġvent ric
jectie f
ĠS ignificante
Ġw k
ale s
Ġst rum
D ischarge
s m
Ġdoor lopen
Ġ15 8
Ġrechts druk
Ġontw ater
Ġ16 4
ĠT T
Ġhal ve
ĠM ar
Ġbuik klachten
K CL
di k
Ġep ilepsie
Ġi dent
N F
Ġvl oe
Ġint ens
Ġmorgen ochtend
Ġverkal king
ĠL ater
Ġmaag klachten
ĠLV E
Ġover weging
ĠWandbeweg ings
m ovicolon
LIN ISCHE
Rv O
Ġas s
Ġk ind
ig ingen
P ET
ĠCapsure fix
' ,
Col ecalciferol
Ġv asculair
ĠVoor bereiding
ĠQT C
Ġsubt otaal
ĠS A
chn iek
ĠZorg verzekeraar
Ġbeg repen
Ġg aarne
Ġuter us
sl ip
verkal kingen
osorbide mononitraat
Ġtympan ie
id d
ĠLong v
Ġoesofag us
Ġob stru
pro tocol
G eleid
Ġt aal
Ġb ang
Ġt etrofosmine
d ynam
m sec
v lies
on ale
Ġrij bewijs
iÃ« mie
ĠProg nose
OL D
Ġ19 98
oen ingen
Ġlit er
Ġgec irc
: <
Ġins ult
Ġbe vinding
Ġ( '
k aart
Ġk lop
ap ar
ĠA M
Ġlinks zijdige
k et
oezem fibrilleren
Ġsterk e
Ġvert elt
Ġac cess
sh unt
Sh ort
st uren
Ġi CVA
Artikel nummer
Ġspre ken
Ġhyd ronefrose
el ink
ĠB en
in urie
Trans Text
Ġp T
G RACE
ic atie
ro ductie
LA X
Ġleef stijl
Ġbrid ging
al butamol
Ġin duc
Ġkalk score
Ġgraft s
Ġcomm on
d aan
Ġbij geruisen
ann ulus
vol ume
Ġdevic es
m onitor
ĠA dv
Ġschouder bladen
at s
LA A
Ġ- .
p rogramma
T EN
ĠSp oradisch
Ġspond yl
Ġgewicht sverlies
Ġsp asme
Ġb uurt
elefon ische
Ġf ysio
O edeem
Ġdi m
ul se
hoe st
sed atie
ĠP ulmon
Ġsp eelt
p la
pulmonaal venen
Ġd erde
ĠAl bumine
Ġpat inte
us h
Ġm emo
Ġverv roe
ĠC MV
Ġe valueren
ĠD irect
w acht
Ġgen orm
Z e
ĠVer m
Ġpresent eerde
ke bach
r alis
ĠP h
Ġbi opten
ĠC OR
Ġamb u
Ġen alapril
Ġg lobale
VP K
Ġpar asternaal
yst rofie
ĠC ent
e kt
stap eling
it im
T ricuspide
Ġontwik k
ĠB lijft
romy algie
Ġgeh al
Ġsens ing
am ycine
v v
ĠBe sproken
ic ardi
Ġgest enose
Ġepic ardiaal
13 9
if est
an ge
Ġhart functie
ĠSec ure
H C
Ġc ag
di mensie
Ġjaarlijk se
Ġvermoeidheid sklachten
art h
Ġs om
p os
Ġca ud
Ġrustig er
Ġpol icontrole
AR B
Ġ+/ +
U rine
w rijven
Ġech ografie
op sie
ĠB icarbonaat
Ġ16 6
j un
art eri
Ġdrie vatslijden
Ġro ot
Ġrem od
ĠF ormulier
gev al
lin ker
Ġfietserg o
ub itus
Ġaf stand
stell ende
Ġhart ziekten
Ġaanhouden d
ĠgeÃ¯n formeerd
Ġamp utatie
K LINISCHE
==== ==
RV SP
Ġb uis
Ġh oren
Ġd agelijkse
Ġgecirc uleerd
Ġch emo
iden t
Ġs low
Ġre missie
ĠH ernia
ĠPro te
Ġcon text
ĠLV P
14 5
m eter
st oon
Ġ17 2
Ġthuis zorg
re ctomie
st room
O rthop
ĠD abigatran
ĠTotaal score
Ġdiverticul itis
Ġmicro vasculair
Ġbot structuur
ĠHb A
a diging
Ġaan merking
Ġverd achte
R BTB
ĠO D
u f
ot a
Ġaritm ogene
ĠHals vaten
Ġmoment en
den d
Ġ ================================
Ġsu ik
imensie s
ignific ant
Ġem otion
p sis
19 88
Ġafge z
ten olol
p unctie
Ġoverge plaatst
ĠD eel
ĠĊ ĠĠ
Onge wijzigd
roep baar
requ ent
di st
z eer
ur et
Ġaccept abel
Ġide m
Ġcla udicatio
wijz en
Ġvis us
mal ige
ĠG old
Ġac cep
uizel ingen
Ġuitst ral
Ġfysi otherapie
Ġverbet eren
sproble men
mmet rische
Ġcontractie s
esl oten
C ath
femor al
Ġper im
ĠV ragen
Ġleg itim
U LE
Ġw erv
oc aine
Ġv el
Ġflin k
Ġge spannen
Ġhepat is
agg reg
Ġqu o
Ġom geving
CL S
Ġrun s
umat isch
Ġpijnst illing
kt ie
ann acht
Ġhem isfeer
ĠO DS
Ġverbre ding
Ġl isinopril
ru is
b aan
Ġpat ent
start en
Ġvent raal
Ġru ptuur
Over leg
heid s
Ġv acc
gele ide
door sneden
ĠP AT
Ġaden oom
Ġvolgen d
Ver geleken
Rv C
werd a
omin ant
l en
V olg
Ġas doorsneden
ĠSp ironolacton
H erkomst
Ġh iel
en uw
ĠAf spraak
g roe
Er ytrocyten
Ġaanwez igheid
gradi ent
Ġm cg
ĠH ili
Ġf lex
remm ers
F r
chn isch
ĊĊĊ ĠĊĊĊ
Ġro ute
Ġwij de
w erkingen
P R
a ctieve
Ġsc opie
ĠW BS
Ġma jor
Ġab normale
re x
ont t
ĠN ative
Ġmyocard scintigrafie
v p
ĠSch ildklier
Ġcoronair insufficiÃ«ntie
ici an
ef zol
Ġal tern
unction ele
heel kundige
ĠR Q
un stklep
oÃ¯ de
k linisch
Ġsuggest ie
ĠWandbewegings analyse
sie ke
ĠV ocht
per indopril
ĠIC U
Ġhart grootte
Ġt ijden
ockt ail
ĠD en
Ġvle es
is on
abet ica
P alpitaties
14 1
o o
Ġge ind
a sp
Ġejectie geruis
f ici
i alis
Ġaf komst
ies werda
======== ======
p ret
Ġregulier e
Ġhemodynam ische
sla at
Ġv ele
ys ician
l er
Ġveroorza akt
Ġro t
Ġkw eken
ol iose
Ġvoor uit
ĠL Cx
iet sen
ĠR PA
3 00
f ib
oc arcinoom
Ġopp ervla
aand ag
g oed
ĠO ste
10 8
pect omie
Ġ15 2
ĠC om
Ġplaats gevonden
n p
K ern
Ġna am
C onsult
Ġverwij dering
Ġcoron a
kan alisatie
Ġsinus ar
Ġvari atie
ĠH is
ag l
Di alyse
yrid amol
ĠAN IOS
Kern deel
ing le
Ġventrikel fibrilleren
Ġpath ologisch
Ġmyocard scintigram
c ostaal
Ġd oord
Di astolische
Ġm ot
ĠM ede
Ġ15 4
Ġj odium
ĠA ug
Ġimm uun
V andaag
Ġontwater ing
ot is
eter o
dys functie
ĠM edisch
Ġverw achten
Ġur oloog
ĠR ivaroxaban
Ġlies breuk
ĠAng io
amili air
Over igen
Ġnitro spray
E V
ĠUitgebre id
Ġdro ge
Ġc ip
ĠA v
Ġhart centrum
Ġziek ten
Ġk eur
Ġc yt
Ġw oon
ĠF unctie
ĉĉ ĉ
h alsvenen
st adium
ver loop
ĠO LVG
Ġmetast ase
Zwangerschaps hypertensie
Ġ================================ ================================
Ontslag datum
Ġep ig
le ctie
icoagul ation
yst itis
ca ve
Ġovertuig ende
Ġgen ot
Ġar ch
ret entie
ĠPer close
k op
ĠS C
par ameters
Ġongest oord
im al
. (
ĠAt orvastatine
M agnesium
ar ks
ĠNS A
DD D
Ġ15 6
snel heid
k atheterisatie
or st
Ġjaarlijk s
itr aten
p el
Ġtransm uraal
Ġverleng de
Ġneus spray
Inter val
Ġwel k
Ġbeh oren
---------------------------------------------------------------- --------------
y steem
Ġin cisie
c ap
Ġd ingen
Ġgeri atrie
oem d
Ġc ox
sp asme
di ment
aan vr
Ġcollap sen
Rem arks
Ġflu clox
Ġverslag datum
Ġbezoek datum
Ġ================================================================ ==============
R isicoprofiel
ĠI LR
ĠPAC s
ul eren
afrag ma
Ġb oodschappen
Ġgy naec
ĠH t
ĠHart team
is ol
Ġdo bu
er ve
ra ad
ĠS imvastatine
verm ogen
idi abetica
Ġd riet
Ġuter usextirpatie
MCH C
val ider
ĠOM T
Ġbe halve
Ġu ro
act aat
Ġpri k
Ġvar ices
Ġgro ve
Ġwaar des
ĠE C
Ġverh aal
P O
de ff
Ġg un
op y
F am
Ġg da
E chocardiografisch
CV RM
Ġw ed
Ġhepat itis
st ernaal
su ra
Ġ15 3
l it
ad a
ĠD us
ĊĊĊ ĠĊĊ
s ite
Ġou ders
c ocktail
ost oma
stoon issen
ĠE chtgen
Ġfra ctie
ĠS eg
Ġc ou
Ġhypertrof e
ger ust
Ġz acht
KER N
Ġver spreid
off en
cont rol
Cath kamer
dip ositas
ĠCath kamer
D VT
ag er
Ġuiter aard
er gering
ĠCol laps
Ġergomet rische
; }
um en
k opp
st abiel
Ġintra pulmonale
Ġ }
V ER
Ġprostaat carcinoom
ĠCAPS ULE
ĠNSA ID
Ġgeh aald
Geleid ingsstoornissen
op amine
Ġbacterie mie
Ġpol ar
Ġp ot
Pre dnisolon
Ġtrache a
s omeprazol
Âµ Gym
Ġen erg
Ge plande
ier e
Ġbeen merg
ĠA sc
ĠSeg oe
it iÃ«le
B asis
ar ch
Ġrechter onderkwab
ans i
TH ORAX
er m
P antozol
emb olische
Ġdaar op
rt f
Ġfoc aal
Ġhal veren
Ġj euk
Ġfit ness
m oe
Ġst im
Zwangerschaps diabetes
f ontt
Ġhypertensie ve
;} }
fontt bl
ĠW erkt
Ġdef ibrillatie
Ġdal end
juv ante
Ġiliac aal
onge erde
Ant icoagulation
col laps
Ġaccep teren
Ġro ker
ĠE ver
ĠĠĠĠ Âł
Ġpro minente
om eter
Geslacht score
Ġarteri Ã«le
O LO
ĠE CHO
Ġ19 97
Ġ17 3
Ġgep rikt
aggreg atier
do butamine
Ġspond ylo
ĠV itamine
Ġfor amen
Ġangi ografisch
ĠM AZ
lo os
Ġbloeddruk meting
Ġw sl
Ġaort ak
Ġbijk om
Ġs in
Ġals of
or ant
Ġpsych i
Ġdiafragmakoep els
ĠP OL
ĠÂ ±
Vol gende
r eng
T AP
lijk t
imm uun
ĠMAZ E
ĠTH P
as ix
. ).
Ġwand verdikking
Ġmin dere
Ġant agonist
Ġnef rologie
ĠNa zorg
Ġaccess oire
leb itis
Ġonge moeid
ĠSla apt
EA RT
reen end
ĠCa ve
ĠL ongembolie
ĠA bd
Ġonwel wording
L ipiden
ob asaal
hy thm
c ons
ĠW MA
gemidd eld
Ġge lopen
Ġmyocard perfusie
it atief
Ġlichamelijk e
Ġin gelicht
abd omin
ĠCon ditie
Ġtransp ir
gebre k
ĠHart catheterisatie
Ġec zeem
Ġont breken
F lecainide
ol yt
sup pletie
Ġing uin
Ġbel de
ĠSp ont
verdunn ing
6 00
ĠH eparine
clop idogrel
W il
Ġh arde
Ġprecordi aal
ON A
Ġov v
Ġbij lage
Ġaort astenose
Ġt tv
): {\
Ġdyspno isch
la gen
ro te
19 89
;}} \
Ġkauw tablet
Ġop merking
ĠL ife
12 2
Ġd ame
w eer
Ġla gere
Ġ15 1
ĠPL N
Ġde ath
ic illine
Ġgenorm aliseerd
al teparine
ĠA K
S U
Ġd ox
Ġorth ost
Ġk ast
Ġ15 7
dend um
ĠH IV
PV C
ĠTend ril
am ule
Ġmogelijk heden
Ġv w
Ġz enuw
ine x
agl if
ik s
ol pen
Ġactiviteit s
im a
H uidige
Ġtemp o
Doorlichting stijd
ĠT rop
Ġdu oden
kt ober
ĠMe vrouw
ĠVVI R
ĠA uteur
Ġ14 7
Ġgeh olpen
o ft
Ġc s
ĠAf name
i laat
Ġc atheterisatie
ĠInspanning s
ĠRes olute
? ),
Ġrib fracturen
amule au
Ġv alsartan
Ġs emi
Geb ruikte
bar ri
Ġmo de
16 5
V eel
ĠL F
dra den
Ġdal ende
ĠGe dilateerd
VEN S
Ġuitlok kende
ĠM ag
Ġchol ec
Ġinade quate
Ġhart ziekte
voor rang
ger aakt
ĠB ent
Ġbet ablokkade
Ġcirc ulatie
os us
Ġw anden
ĠAs sist
Ġart er
Ġbeter e
re c
Ġasyn chronie
M itralisklep
Ġonderzoek afd
ram adol
ĠGe compliceerd
Ġdat a
Ġcon genitale
Ġgewricht s
ĠS ystolische
emb ran
Op roepbaar
ĠVol ume
Ġf uro
Neur ologisch
wee gt
Ġge Ã«
Ġmediastin aal
Ġsc intigrafie
Ġ18 7
r k
Ġfysie ke
Ġw ie
K orte
aan vullend
kom end
ĠCor on
Ġreumat oloog
und el
Ġtri plet
Ġs lechter
ĠLV ED
st anden
ĠH aar
ĠN CC
Ġrechter atrium
ĠB l
ĠMax imale
Ġpolar iteit
Ġpra vastatine
Ġcor darone
ĠU P
Ġhi lair
1 12
Ġvis u
ĠR X
Ġre ag
Ġanti hypertensiva
LL EN
huis arts
t ig
ac ine
Ġwee fsel
ococ cus
Ġexpl antatie
Ġc t
Ġverkla ard
laats ing
Ġi di
Ġin dic
Ġ17 4
ge et
are a
bes artan
Ġst ra
Ġpancreat itis
Ġgen erator
er ingen
ĠVer kal
Ġhartfalen medicatie
Ġheup prothese
Ġtrac ing
Ġost iale
kk ige
Ġtert iaire
ĠProxim ale
TAP SE
ĠC BR
Ġgen etica
ĠPre dnison
Ġepig ast
Ġa cht
entie el
Ġrect um
ĠEver a
Ġbevestig d
ron inezuur
ĠGe sla
lu en
Ġvar kens
if urcatie
ĠH B
be staande
ĠLongv aattekening
Ġval v
Hel der
Ġgemetastase erd
S ense
ĠS te
Ġbi ventriculair
Res ultaat
Ġk oud
emmer s
el celcarcinoom
Ġc ovid
Ġst il
ĠNe emt
Ġvaat chirurg
s imvastatine
Ġcardi op
n iveau
ĠPersist erende
ĠE VAR
Red elijke
b eter
Ġvol w
ĠD yspneu
f r
Ġge laat
Ġs PAP
vent ion
Ġm Mol
af il
hy rox
o int
Ġlucht houdendheid
ĠEl ders
le ver
uc oom
In otropie
Ġver blij
Ġsy s
ol er
Cont roles
zet rol
col ecalc
an oom
Ġo meprazol
Stop pen
w erp
Ġf ragmin
ĠK nie
Ġirreg ulaire
Ġhartt onen
ID d
Ġlong ven
Ġgew richten
drempel ig
e vt
ĠAan sluitend
ist e
Ġop lopend
hal te
ul ator
ocyt ose
em men
Ġpericard wrijven
he se
Ġcoronair angiogram
ĠS e
Ġdefect en
aryn x
F T
m n
W ER
er ig
ex tra
T otale
advis e
Ġving ers
ĠN o
Ġdevic ete
ox ische
ĠT och
Ġdys kinesie
issel end
ĠGe start
ĠB isoprolol
ĠDe v
last ische
G AD
ĠS LE
ĠPer c
a O
ĠSn el
nes ota
ith me
reig ende
ode m
Ġt raag
Ġst raal
CHADS VASC
Ġfact oren
Z U
Puls aties
Ġzit tend
u z
ĠG OLD
Ġomt rent
Ġger ec
r ant
ĠAo i
Ġla adtijd
vol tage
Ġ2 60
Ġhuis houd
Ġhol os
e ens
iss ing
Ġbloed ingen
sc ontrole
A ug
an amnestisch
Ġthorax beeld
ĠZ N
c av
Ġged ocument
K ort
k m
. %
ĠK lep
Ġthorac alis
spunt en
Ġhoog stand
= >
Ġstenose graad
on itis
Ġv h
Ġbij nier
gen erie
Ġth or
Ġmedi aan
Ġaange sloten
Cardi ogene
Be oordeling
ren icus
1 75
ĠS kelet
F er
w ens
am in
S ept
ĠProxim aal
Ġverteb ralis
Ġbe kijken
ĠRD W
ĠD aags
ĠGe durende
eren ce
Ġannulus dilatatie
h an
to en
Ġaangeb oren
P Q
I CC
Ġas y
ĠP ositie
Ġdevicete chnicus
Ġverl iep
Ġtand heelkundige
b ipolair
ĠL i
Ġvast houden
Ġhier op
Ġvroe ger
Ġgra d
osu ctie
Ġm usc
ĠĠ ĠĊ
ĠSp ecialist
ĠEer st
Ġsep sis
Ġgestenose erd
t achy
Ġon sch
Ġtunn el
Ġpart ieel
g erd
Ġventrikel respons
Ġinter rogatie
Ġb on
ge halte
Ġhoud ings
VU LLEN
ĠWe et
f us
Ġw enst
ĠT ensie
ĠVan af
i be
Ġbest raling
arco umar
ĠA neur
y nt
ĠH Y
Ġne iging
spre ek
Ġkant oor
Ġvolum ina
Ġbil aterale
ĠH oge
Ġbuiten land
ĠParox ismaal
Ġvlees kal
ORA AL
is u
: *
Ġparoxys male
ĠX ECG
oeg de
kan ker
ĠElect rische
Ġvleeskal veren
Ġw rijven
ver w
min ste
spra k
S oms
Me i
blokker s
Ġ16 9
Ġdec omp
S e
Ġpalp atie
Ġbe ats
il us
ro sis
Ġsp ann
Ġhartk atheterisatie
ge p
ro ker
Ġhypok aliemie
Ġo oit
L N
Ġoste oporose
Vent riculaire
Ġver zorg
Ġdilat ed
15 8
ie erd
Ġt uin
le xt
Ġhoe ft
Puls breedte
Af gelopen
Ġ8 50
ĠBep erkte
RI MA
ĠDag behandeling
Ġbe gele
Ġk ar
st reef
SP V
uc eerd
orb us
A mplitude
I M
Ġang stig
ĠTel emetrie
ĠL aag
ĠP art
Atri um
L osartan
ĠOM H
Ġh ond
p art
gen d
Ġklep vervanging
ot oxic
in cl
ĠSat uratie
ĠR isico
S lank
m ate
s at
Ġm bv
ens ion
hal ings
Ġsign alen
Ġtablet ten
Ġam oxicilline
ee kend
ĠD ochter
den ken
Ġle uc
Ġs ingle
Ġ16 3
odi alyse
Ġrestri ctief
Ġwandbewegings stoonissen
ĠAc enocoumarol
ĠU r
diast olisch
13 7
ĠVP K
Ġpath ogene
ĠN ef
Ġhoofdstam stenose
ĠRE GAD
- )
Ġreg urg
k liniek
ak ter
m oeder
roe pen
ĠLinker ventrikel
dimensie s
Ġfront aal
ib iliteit
ENOS ON
Ġheb t
ĠQu ality
Ġcon stri
rel atie
na ud
oph age
Vocht balans
Ġo hm
LV AD
Ġjug ularis
I r
Ġbe sl
arde h
Ġdaar van
Ġart efacten
ĠR et
za ken
el o
G IE
19 83
Ġverbeter de
G AT
aritm ien
Ġ rill
Ġonder zocht
Al kalische
Ġsch ade
Ġf acet
ma and
p athologie
L T
Ġdoor genomen
Ġdepressie s
RA N
plat ting
ĠVer zoek
Di uretica
Ġgev isu
Ġref ill
e w
Ġt ub
ĠL eucocyten
ĠV aat
est enose
c alcificeerde
Ġisthmus block
ef low
Ġar ry
Ġc ulprit
Ġpalp abele
Ġgast ritis
Ġallerg ische
Ġde hydratie
ĠP H
ĠO og
Ġat rofie
14 2
Ġwand verdunning
er le
ile pt
Ġkauw tb
ĠS ieswerda
Ġp oplite
Ġrug pijn
Ġ15 00
ri o
ĠW ervel
e a
Ġret rop
Ox azepam
ĠREGAD ENOSON
Ġm ening
z n
Ġproject erend
Ġnier insufficintie
iteit s
as se
Ġdra den
Ġs lap
spoed patient
ĠL WI
ĠBe vindingen
19 87
Ġab usus
ar ly
Ġfysie k
Ġnorm alisatie
b ra
ĠI AP
Ġrec ompensatie
atri umfibrilleren
ĠIrreg ulaire
Ġ19 96
Toe voegen
aggregatier emmers
is eerd
s otalol
ij e
ra ject
Ġant ist
Ġsp anning
ru x
Ġlinker arm
Ġcoronari us
a us
Ġlon ge
bloed druk
In vulling
Ġben e
hoe k
Ġmarg in
Ġerosie ve
CT R
Ġl og
ĠL ow
W ordt
Ġzorg vraag
ĠB esloten
valv ulair
Ġimpon eert
st ens
Sub diagnose
C alc
F orse
n l
alcific aties
hyd rox
Ġ23 1
A AN
end ruk
pt om
Ġs il
Ġv itale
ik oorts
A O
ĠZ uurstof
comp action
put ting
ok ter
Ġcom bi
woor den
Ġdo ch
Ġlapar oscopische
Ġfil m
ĠAorta wortel
ĠDaar om
J aar
L isinopril
ĠGe plande
Ġrecon structie
p antoprazol
V ena
Ġtra umatische
D ou
Ġn iks
Ġgemidd elde
Radi alis
ĠL ok
Ġ18 4
omp lex
Ġall en
Ġtuss ent
Ġt ur
ct a
Ġsubend ocardiale
c f
Ġgevisu aliseerd
e se
w iss
19 85
ĠF ax
sch ool
Ġl oc
Ġmin or
Ġk lin
ĠF am
Ġlok aal
Ġsuspect e
ĠBe hand
Ġgeruis en
isor y
Ġt ransplantatie
Ġth rill
Ġor gaan
u plex
ĠMult idisciplinair
i alen
ĠT ri
Ġaug mentin
CA L
Ġdys lipidemie
ro me
Ġcom orbiditeit
oumar ine
GE VENS
Ġgecorrige erd
Ġsystol ic
Ġoptim aliseren
verander ing
maxim aal
rocedure el
Ġintracran iÃ«le
ĠI DM
hol d
ĠIV US
ĠTer ug
Ġbi om
Ġeff ectief
ĠP lavix
ver wijsbrief
ip el
Ġgenot eerd
ĠL IN
Ġaand oeningen
Ġont regel
ĠAl le
p rofiel
alis eerde
bec ularisatie
Ġafwez ig
Ġreg ulaire
Ġver deling
ĠCar elink
ĠMeest al
l ot
F low
ĠM AP
Ġn icotine
yl oc
N on
dition eel
Ġ y
Ġcol l
h n
aan vrager
Ã¨tablokker s
ricuspid alisklep
C alciumscore
Ġdaar mee
rol ithiasis
ĠS ymptomatische
os ynt
ĠSt reef
ĠM C
V C
st re
Ġgecombin eerd
v eerd
Ġcris iss
Ġweg geraakt
Ġcrisiss ituatie
ĠCardi omyopathie
ĠLinker atrium
Ġarteri Ã«n
Ġhe chtingen
Ġt no
Ġcardioversie s
ĠS tra
Ġonder v
Ġmeer maals
Ġlo bectomie
ĠGE GEVENS
v et
Ġre veal
17 4
as men
act er
vul dig
m utatie
ell cept
s er
Ġfunction erende
Ġvasc ulitis
Ġj unctioneel
M oet
Ġbep aalde
ĠT rig
iche w
Ġbra chi
ma ag
ct iva
ĠPL Cx
V en
ver teb
m o
Ġklep penteam
ĠĊ ĊĠ
V ast
ĠgeÃ¯ nd
Ġhyp on
ĠZ elf
Ġallerg isch
Ġsch ildklierfunctie
Ġopget rokken
Ġf asc
ul ent
Ġte pel
Ġaange wezen
Ġh een
Ġat ten
F eb
L ongembolie
ĠNu chter
Ġ ol
Ġn atief
Ġse dert
sch ouder
Sp ecial
Ġcerv icale
Ġop port
ĠW L
Ġant egra
op end
he im
En alapril
Ġpak je
ĠCh irurg
Ġv a
n ieren
Ġwacht tijd
Ġc ond
Ġt afel
luen za
Ġtranspir eren
e jectiefractie
ĠJ T
ĠIg G
Ġachter wand
ĠCOR ONA
Ġsuik er
ar get
Ġile us
Ġoptim alisatie
Ġmg r
Ġc T
ect io
ag ing
lo zine
Ġpost tra
Ġklier weefsel
ĠAd renaline
f L
procedure el
Ref erence
Ġhartst ilstand
if y
Ġm ac
alc o
Ġart h
ne x
Ġkar akter
ar s
Ġb aden
pol s
ĠA MI
ve is
Ġstuw ings
ĠM amma
Ġcol itis
Ġinterm itt
aal arts
Ġdiagon ale
Ġextre me
ĠV VR
ĠF actor
rop sych
Ġoorspron g
zi ens
vd H
roc ort
B as
Ġtachy aritmien
T wee
Medicatie gebruik
Ġpol iepen
ĠA mpl
pro fyla
f mol
atrie mie
Ġoorspron kelijk
umer us
ub b
Ġuitstral end
ru ct
Ġla c
yloc ain
an emie
Ġstatine s
V ader
ac illine
Ġinfarct en
ĠF osfaat
iden te
k napt
at ose
Ġsigm oÃ¯d
Ġd gn
y th
ĠM P
antagonist en
Ġint roductie
h aar
Trombocyten aggregatieremmers
res hold
Ġbe vindt
Ġvolg de
ĠH eel
Ġmorf ine
pati Ã«nt
Ġgebeur d
ĠD BC
zetim ibe
Ġp iep
ĠLD H
oper fusie
uw de
bi volol
ĠMen eer
Ġb urs
Ġgeleidings vertraging
or ine
Ġs im
ĠHypok inesie
Ġverk ouden
ĠVan ochtend
Ġgrac iel
k uur
V pk
Ġbij dragen
k ins
t al
ĠgeÃ¯ sol
D abigatran
aglif lozine
ĠDe pressie
Ġadvis eren
is sectie
ax a
ĠD uur
ief st
Tromb osedienst
ĠF EV
Ġ14 9
per foratie
Parox ysmaal
Dou chen
t otaal
Ġres ult
ĠVer wij
ĠR x
h ist
ĠL o
romb ose
Ġlitteken vorming
LO L
verla gers
Ġbiom ar
s zins
ĠB rug
h i
Ġt ran
Be vindingen
Ġtromb olyse
ele kt
19 86
U T
ou ders
in formatie
OP RO
ĠZ it
ĠVer moeidheid
ĠaV R
17 6
Ġcre stor
Ġpra ktijk
GAT ED
ĠE igen
h yper
Ġop laden
Ġfemor al
. /
re activiteit
ond anks
D ilat
ger inge
rex aat
sp ees
Ġmitralis insufficiÃ«ntie
ant us
Ġc uff
re eds
ĠCh amuleau
Ġo bl
Ġrec order
Ġal bumine
Ġth yre
opt ies
Ġrechter bovenkwab
ĠCapsure Fix
orf ologie
ĠPL CX
Ġbeve st
ĠJ J
rad axa
Medic ijn
Ġg onartrose
ĠE et
ge komen
red elijke
zy g
Ġeen heid
H yper
Ġimp uls
hydrox ide
it raat
i al
Ġafge geven
Ġopt imale
ĠT we
ĠMe di
Ġinstroom belemmering
st andige
den afil
Ġ19 95
en c
Ġz omer
ĠH O
ĠL ocatie
al in
de m
Ġoesophag us
Ġlong geneeskunde
Ġprec ies
ĠL age
Ġgetrig gerd
Ġden ken
Ġcereb ri
Ġpoplite a
d yspnoe
or y
17 9
Ġbe ademing
Ġzw anger
D ep
he pat
Ġgen oeg
Ġconcrement en
Ġcor pus
ĠMet formine
ma ken
Ġdysp lasie
Ġo cc
ĠA kinesie
s v
Ġcolon oscopie
ĠC P
Ġpassen de
Ġe cc
valu eerd
ĠOF F
ctasie Ã«n
Ġkil o
ĠMedic al
ĠHM C
itone aal
d in
Re gel
Ġvoel baar
Ġinterm itter
ĠM E
19 80
ĠCON CLUSIE
A stma
ut hyrox
Ġl iezen
gev oegde
ie m
sp ironolacton
rat ropium
Ġ( ?)
Ġr Ã¶ntgen
be spreken
Ġricht lijnen
Ġatten uatie
erg y
ul ose
Ġac etylsalicylzuur
Ġlinks zijdig
Ġin zicht
Ġh f
Ġuit putting
Ġwerk zaam
Ġhem odialyse
Ġzorg p
Th oracale
ĠCC N
Ġbelast baar
ay naud
Ġw sch
Ġel leboog
He den
Ġcoronair insufficientie
m aat
Ġhart klachten
ing ang
T elefonisch
s erie
ir us
re visie
ap ien
Ġov ale
G O
ĠV ena
ulier e
w en
r ate
Ġaand oening
Ġdik te
Ġrecht erkamer
v aart
itatief ractie
Ġintermitt ens
standig heden
Ġtechn isch
C entrale
ent iÃ«le
ĠB asaal
ĠC arb
ot ab
Ġboezem flutter
h emat
AS D
one f
Ġcardi oth
Eer ste
Ġklep blad
ĠGenees kunde
an uari
s ensing
Ġond uidelijke
om een
Ġst ro
Ġst ille
ĠGer ust
W P
as isch
kle mm
Ġbi atriale
Ġperip rocedureel
ĠO ne
Ġafger aden
Ġd iltiazem
igt ail
Ġasp ecifiek
Ġpre vious
Ġtricuspidalisklep insufficientie
ĠMult ipele
Ġaneurysmat a
oler ant
Ġpersist eren
Ġepigast rio
ot rexaat
ant erior
Ġin conclusief
Ġonder druk
Ġaf metingen
Ġsom ber
ĠVoor stel
Ġd ragen
Ġb ib
Ġan est
ĠR S
A H
Ġuit gesteld
Lab orant
Ġverm oe
Ġmitralisklep stenose
ĠPar acetamol
ĠHart kloppingen
arn idipine
F enprocoumon
Ġaden ocarcinoom
P ump
pl icht
b s
ĠSp oed
ĠFer ritine
ag d
ed el
ĠM aag
z alf
ĠP DA
Ġgeb rek
Ġhoofd ingang
Ver wijs
ati va
Ġwat t
ĠHemat okriet
Ã« mie
Al leen
Ġ18 3
vo erder
Ġsy n
er a
al pitatie
ĠProte cta
aan val
Ġad min
ĠV CS
Ġp rol
Ġs etting
ĠV al
Ġn ec
ĠP J
ille ctomie
ransth oracaal
cep ten
Ter ug
Ġlever cir
Ġbe sprak
kk eling
d ie
re ductie
Ġop roepen
Ver dere
ĠHart bewaking
ĠArt ikel
dw andig
t el
Ġmil rin
b asaal
ĠN E
Ġcost omy
Inspanning s
k ant
Ġaf platting
Ġs clerotisch
wij l
ĠG astro
ĠVer wezen
ĠBe ide
Ġregist reren
omet ason
Ġv s
AD L
Ġmar kers
Kle plijden
Ġop a
Sc reening
Max imale
Ġcongen itaal
Ver wezen
profyla xe
Ġge s
Ġre kanalisatie
ĠACI DO
ĠBor derline
ri st
Ġmonitor zone
ĠNeur ologie
H oudt
Ġoverge zet
ern ale
ĠI E
Ġgep aard
Ġc ryo
ĠG eef
ĠB roer
ĠATP x
ot iden
Ġ- /-
ĠQ U
Ġlever venen
lavic ulair
ge d
Ġventrikel s
Ġboven been
und aire
re actie
P sych
fer rine
Ġrestri ctieve
Ġaspir atie
ĠL CC
Ġbij houden
th mie
I PV
ju ist
Telefoon nummer
ist ers
Ġvo icemail
Ġdon or
ĠL umb
ic ulaire
15 5
inter val
V rij
He art
th oracaal
Een malig
Ġpart us
> <
su es
J icht
Ġne ut
Ġ69 35
Ġkortademigheid sklachten
al ingen
. ),
bloed ingen
Ġax il
Ġg luc
Ġischemie detectie
Ġzich zelf
Ġbronch us
Verwijs datum
Ġher opname
ra ctuur
D ag
chl oride
Ġcomp et
Ġmitralisklep plastiek
Ġzal f
il iter
ĠDist aal
Ġgeleidings stoornis
y line
ĊĊĊĊĊĊĊĊ ĠĊĊĊĊ
volg ens
z ame
R CX
Ġparoxys men
Ġtoe stand
Ġlaag drempelig
M ee
Ġbeweg ingen
low ing
idi afragma
ĠMe an
A CHD
Ġoverleg d
ĠL ast
he ugen
Ġbact eri
Ġre uma
lext achycardie
ic la
amp utatie
ĠT ype
Ġd ri
ons illectomie
i veren
op au
ĠDist ale
l umen
Ġnab ep
Ġ50 76
Ġcar b
Coronair angiografie
O HO
ĠV C
id on
ou ffle
ĠW egens
Calcific ations
Ġcardiomediastin ale
Ġn eer
Ġdal teparine
al geen
Ġontplo oid
Ġb v
Reg ie
Ġs ize
ik te
gesch at
ĠAp icaal
opy ramide
W erk
ĠAf ib
ĠV it
Ġpan iek
Ġper soon
Ġimm un
Ġ774 1
Ġcollaps neiging
Ġmill iliter
Ġholter onderzoek
gel uk
D igoxine
am lodipine
oes ophage
ĠCent raal
ĠPresent atie
) |
col lab
Ġmitralis insufficientie
h om
Ġ !
ĠD IS
zekerings nummer
o is
Ġh is
ĠA ureus
Q C
Ġwand elt
ac iteit
Ġpolym orfe
d ro
ĠVS M
icla zide
Ġb ukken
B Ã¨tablokkers
Ġp ack
Ġa o
A RT
Ġ0 29
Ġaf gifte
ĠS introm
al se
aden oom
ro of
Ġ17 9
Hyd rochloorthiazide
ĠS witch
Ġelect rische
Ġno ch
uw en
orth op
ab ase
ap r
Ġstrum a
sc or
er gen
Ġkamer lucht
f ellow
CM O
ocardi al
Ġvoor schrijven
S up
Ġst ond
11 3
IN SPANNINGS
Ġber ekend
ĠGra ad
Ġen ter
Ġincomp leet
ĠGro te
Ġaberr ante
Ġgel dt
ĠB etreft
Ġinterst itiÃ«le
OLO GIE
ĠEnt resto
ĠB MS
omat euze
ĠC ovid
Ġgister avond
Ġzwangersch aps
ĠRitme stoornissen
Ġthuis situatie
kins on
Ġal arm
B umetanide
Ġt ransplant
W anneer
aan de
Ġembol isatie
Ġne ven
B ep
erent iaal
A ut
o ir
Ġven sters
Ġmen iscus
ĠNeg atief
se p
hart falen
ĠAA I
Lipiden verlagers
Ġconstri ctiva
IR EN
ĠGesla agde
Ġover all
mp je
Ġsch atten
ĠM aakt
Ġst er
iÃ« ctasieÃ«n
f ocus
dip yridamol
I sch
Ġgehal veerd
cor onaire
Ġmult iforme
Ġbenader ing
Ġr he
/ |
ĠBe kken
adem igheid
ĠL WK
ac a
ĠL BBB
Ġdiast ologie
Ge gevens
sc op
10 9
Ox ycodon
Ġ19 5
Licht e
Ġover weg
Ġinguin alis
Ġox azepam
B isoprolol
Ġs cl
uit gang
Ġ7 50
Aanwez ige
Ġ18 6
ĠCORONA IREN
ĠCo A
h erapie
Ġper s
Ġs onde
rocort ison
Ġt ro
Ġbas o
ĠWervel kolom
ĠD agelijks
ass oc
ĠAn emie
ĠP lan
Ġbi plane
Ġangi ogram
SS S
: _
AZ N
H M
f ort
Ġfem ur
Ġcox artrose
im it
ĠVES SEN
Ġtherapeut ic
lo ze
sch ap
Ġpy el
le m
ne us
vel ine
ĠG eleid
Ġred uctie
V H
ĠW T
de viatie
F ragmin
Ġne bivolol
ĠPro x
ĠSoep el
Ġzicht bare
ads vasc
D imensies
Ġzw ak
Ġn ifedipine
Ġabdomin aal
Ġ15 9
H ist
T DI
z it
alcific eerd
iclo vir
iose al
Ġtra den
EM IE
ad rant
p ora
thuis medicatie
ĠT BC
acht er
Ġp g
Ġhooggradi g
re sten
p neumonie
Ġr it
vorm ig
ĠDen kt
ĠElekt rocardiografie
iot ens
Ġprogram mering
Retour reden
is eerde
Ġb ru
N itraten
Ġwens elijk
Ġlongven eflow
ĠPass ag
gebruik t
oel ing
diagnost isch
Ġzin vol
st im
ĠB F
ĠB oven
ĠB ar
ĠOverig ens
Ġpulmonaal ven
Ġinspannings onderzoek
Ġst ep
An atomie
Ġcardi ologisch
ĠT E
ĠF emor
ĠOpvall end
Huid hechting
Ġe quaal
ver deling
ĠH yd
A A
Elekt rofysiologisch
Ġax illair
Ġom standigheden
Ġrh onchi
u cht
Sc ar
Ġadip eus
Ġknie prothese
od y
Ġfysi otherapeut
Ġhev ig
Op er
hol te
vert eerd
iri um
Ġge diagnost
Ġextra ctie
Ġpost uur
rin sieke
Proxim ale
Ġinter collegiaal
ĠD ur
Ġgedocument eerd
ĠNederland se
ĠN O
M oe
Ġg roep
S lechte
Ġp alli
Ġatriumf ibrillatie
m ob
Ġk aken
Ġover slag
Ġvert icale
Ġc arcin
inter ventie
vocatie test
dis sectie
11 1
Ġhyper reactiviteit
Ġvoor ste
j aag
Ġaan spreek
sie f
p oint
OS AS
ĠZ iek
T emazepam
Ġb rug
Ġbijkom ende
Ġb ank
Ġgeh ouden
iotens ine
Ġmm hg
ĠR ookt
ardi g
par a
ĠIA BP
Ġzout beperking
Ġg uid
Ġin ziens
ĠVer zekeringsnummer
ĠCont act
iet st
S JM
ĠEosin ofielen
l on
Ġsub ple
ĠD rie
Ġval ve
ĠWe inig
onef ritis
Ġirreversib el
an desartan
ic eerd
ĠD uizeligheid
w issel
b oog
Ġbeoord elend
omp enseerd
Ġten minste
Ġwerv els
Ġg old
Ġp uf
Ġge compliceerde
der i
Ġple kken
Ġzo veel
Ġverbeter end
Ġr ithme
Ġcompartiment en
b y
Ġis oprenaline
ZU UR
ĠB ronch
e em
Ġbe iden
rest or
Dep ressie
ĠD A
Ġstuwings kenmerken
E zetimib
sn r
bep erkt
Ġn aald
Ġzw art
Ġmel anoom
Calcific aties
Ġfir ma
Ġbijdragen d
atri aal
Ġhyp ox
S ter
Ġsou ff
Ġt abl
ens huis
Ġrechts zijdig
ĠEn ergen
Ġrecon nectie
Orthop edisch
S Y
Ġf usie
Ġintra ventriculaire
deri vaten
Ġv oren
RI L
Ġdis cus
Ġdiagon al
Ġne o
Ġl d
gebre ks
ex istente
Nu chter
Ġdown sloping
Ġverdw ijnen
t r
id ol
E p
S G
h aald
Ġ4 80
at oren
pro xim
Calcium antagonisten
Ġtroponine s
Ġim aging
ĠW est
) -
ox azol
Ġge di
Ġdefin itieve
Ġbewustzijn sverlies
Min imal
Ġtach ycard
Ġge collab
Ġs clerotische
Ġdyssyn chronie
ge gaan
end roninezuur
ĠJ icht
analyse erd
Ġborst kas
Ġontwat erd
Ġopge knapt
vl oe
M CG
b ele
ien ce
pat ch
r ond
Ġopport uun
ie mie
ver schijnselen
C oumarine
ot rim
Ġur ologie
ap ine
Ġcombinatie afspraak
rouw d
mat ische
Ġslaap ap
ub atie
ra akt
Ġm ol
Ġhe chting
raag de
Ġregist ry
A ppendectomie
t umor
et iek
Ġverw ard
Ġst reven
Ġpar ese
Ġte veel
ĠD opamine
Ġfun ktie
uide d
rogram mering
Ġbloed onderzoek
Ġp raten
ne emt
Ġspecialist ische
Ġwijz igingen
Ġsubopt imaal
Ġhet ero
mp er
oe stand
Ġz elden
Ġbegrens d
N o
H G
de kken
com ma
Ġenig szins
gevoel igheid
Ġm i
ge durende
uc leaire
T VR
Ġpols frequentie
Ġvl ot
ĠBehouden s
k ram
em d
iss uur
ĠF L
Ġfeb r
Ġf out
Ġgesch ikt
Ġisch em
Ġc ef
E DV
ĠO ut
apt atie
ale d
ĠCat aract
ĠP CM
erv isor
Ġart efact
Ġadvis eerde
Ġvasovag ale
Ġeen malige
ĠS yst
ĠPer manent
Ġocclusie s
Ġbene den
ĠAF C
RA AG
ĠMit raclip
p es
Ġleuk o
dag en
Ġvi raal
Pra sugrel
Ġd os
Ġlumb aal
Ġkil ometer
Ġverne vel
Coumarine derivaten
Ġ1 200
Ġlegitim atie
Ġhyd rochloorthiazide
Ġh inge
Ġhern ieuw
ĠBas ofielen
cont our
Ġimm ob
? ,
s datum
W erkt
ĠSch ouder
ĠIn stabiele
rit eria
ed ie
Ġbe Ã«
Ġp ret
Ġtoe gestuurd
Ġlongv aat
Ġe iwit
Ġdi vert
Ġsp iro
Ġvervolg afspraak
inet ijd
Ġom slag
Ġintra veneuze
k ans
kan aal
ĠTel igen
itt end
cht e
Ġt acrolimus
Ġbloedverdunn ers
Ġbijzonder e
ra c
ede men
Ġcontrah erende
iot ropium
is ion
Ġlegitimatie bewijs
Ġbij v
Ġd uren
Ant idiabetica
ĠC ap
ek te
" ,
Interval anamnese
TI N
Ġb ee
ĠA MO
Ġinfectie s
b od
Ġop lopende
pass ingen
ran olol
Ġbib asaal
Ġrunn etjes
ĠOpt is
Ġwe kelijk
Ġvaat lumen
w are
ĠL ies
Ver denking
Ġnef rectomie
Ġexter na
rel ated
Ġvragen lijst
sp eriode
Ġsp ecifiek
z ending
ĠP PI
ĠM icro
Ġ16 1
Ġdu plex
A blatie
Ġhyp operfusie
Ã¯ sch
ĠD oel
ĠVO D
Ġc rux
an je
ĠU l
ĠVerm oedelijk
V itamine
schat ting
Ġin zakking
zak kingen
Beoordeling sdatum
vers malling
Ġthuis meting
midd el
Ġfilm om
cor der
ĠFiet st
ĠSh op
O AS
t re
Ġ20 23
ĠRe vascularisatie
Ang iotensine
ĠDilat atie
enter itis
Ġc yst
Ġwor k
p aal
st oestand
Ġverleng ing
Ġhoofd behandelaar
Regie voerder
z uigen
Ġver ergering
ĠA spirine
ĠOn voldoende
toe diening
Ġbe dragen
Ġop sturen
Ġal waar
Ġcontractie le
Ġpost erieur
ĠDi agnost
wand verdikking
Angiotensine blokkers
il mpje
ĠBent all
ss ss
Ġh umerus
lat e
Ġuit spraak
Voor stel
ĠB et
Ġir r
ĠExt remiteiten
Ġhals vaten
Ġuitvo erder
Ġge analyseerd
Ġbeh ulp
ĠG el
Ġoplos baar
Ġecc entr
ĠPV R
S lanke
ij nt
Ġl v
dik ten
Ġorthost atische
ĠB il
ed ocard
R isico
R ichtlijnen
Ġhi laire
Ġtrans fusie
jaag d
ĠAan vullende
ĠA ppendectomie
Hoe veel
pak ket
ro hn
Ġlinkerventrikel hypertrofie
ĠEch ocor
ĠF requente
Bi opt
Ġsc oliose
19 84
PL Cx
ragmat isch
zet te
gr ond
Ġgec alcificeerd
ar egistratie
ĠA chter
et ine
Ġdat aregistratie
Ġhaar den
ruct ureel
ar ine
ic ol
Ġtrans femorale
Ġcon centrisch
Ġsinus itis
ĠN ot
Ġ19 90
ĠPri mair
re cent
ĠP CR
Ġantibiot ische
beg repen
ext r
ĠF eb
fen ac
Ġopget reden
Ġhypothyre oÃ¯die
ge maakt
en den
ĠV o
ĠAssist ant
Ġd m
b oek
Ġonder buik
v loed
end oor
mm hg
Ġgecollab eerd
nem end
slaan de
Ġ+ +
Ġvo eren
B oven
ĠR OK
Ġre activ
N VT
p rolaps
Ġge geten
h olter
t ussen
ĠS aO
Ġ17 7
ĠA MS
ĠR ep
Ġborst klachten
Ġvalv ulaire
osynt hese
rogram m
LM WH
Ġter wijl
Cont act
om on
Ġom zetten
waar voor
Allergie en
ĠCH EMIE
ĠR aynaud
Ġmamm ogram
a ec
ĠLM WH
la ad
MI C
z aal
ĠN A
Ġcon vention
ome dic
Ġdruk meting
lox acine
Ġst erie
Ġhemat oloog
gest ie
ĠFemor ales
cess us
Ġobstru ctieve
ons c
s ign
ĠBrug ada
Ver richt
Ġpulmonaalven estenose
ĠR H
ĠPh ysician
xim ab
ul ant
es sie
A s
Ġh uidig
Ġse in
Âµ g
Ġberust en
G ro
Ġw a
ĠE S
2 10
Ġelev aties
Ġreag erend
Ġna denken
Ġpr eren
Ġbegrij pt
Ġli ft
blok kade
Ġcereb rale
Ġuit no
P OS
Ġuit gang
ch roon
l ing
ĠV raag
Ont slaande
ex c
Ġt ap
Ġbehoe fte
ĠL actaat
r atief
L ies
Ġverd raagt
Ġfra aie
ĠP eak
Ġinj v
Ġh aal
End ocrinologie
op lastiek
Ġged et
Ġle af
Ġh erkent
af leidingen
ĠR BK
ger ekte
ĠRv O
Ġhyperthyre oidie
Ġinduc eerbaar
Ġzw emmen
CO VID
Ġsch edel
Ġdefici entie
Ġh ypercholesterolaemie
Ġsch rijven
Ġvacc inatie
Ġin m
Ġeind stadium
ĠAT R
l otte
Ġmedicatiewijzig ingen
or et
ĠRV H
ript yline
rie ven
Ġintact e
t on
Ġac cel
Ġbelasting stest
ĠG ER
16 8
Ġs O
ĠK inder
ann uleerd
all ot
Ġdisc opathie
Ġpropofol sedatie
$ %
Ġhyp of
T T
Ġi at
ab ine
ĠO c
par atie
Ġclass ific
Ġhem opt
ĠCont rast
ro ss
ific eerd
ang io
Ġsport school
Ġpart iÃ«le
ac us
waar ts
Ġe ea
ĠJ vdH
Ġc ur
ra cy
ĠDi verticul
in atus
Ġstam c
ĠErg o
Ġbij nieren
h or
ĠD r
Ġaneurysmat isch
egra ft
y ro
Ġbloeddruk ken
b ot
ter echt
Ġru ime
iclo fenac
Ġmo derate
ĠAO V
XXXX XXXX
ĠO x
Ġmet al
Ġwaar onder
Ge checkt
ill ary
Ġarch ief
cep hal
omedic s
Ġin gestelde
Ġo gende
k ije
F ront
ĠA mb
ĠT KP
Ġmilligram start
ĠE arly
Ġballo ons
Ġn or
othyre oidie
vens duur
n s
Ġren ale
besch adiging
N ieuw
Ġged rag
ĠI mpedantie
ĠEen malig
elo os
Ġtrans vers
Ġreactie f
Ġf amiliair
ĠVent riculaire
Ġretrop er
Ġver geet
k leden
ĠDi ameter
Ġvocht retentie
Elekt rocardiografie
Ġantist offen
Ġd ystrofie
Ã ª
Ġte sten
th oracale
es se
Ġlac un
Ġf lank
ĠSc intigram
Oper ateur
ĠLa adtijd
T ER
T ambocor
Ġm uc
Ġfer riprieve
ĠPulmon es
ĠOntslag brief
ri kken
Ġar g
Ġvriend elijk
p roef
mper an
Ġn atuur
ogen etica
m ass
ĠX XXXXXXXX
Ġgel ok
yst olie
ĠV oorts
Ġstuk je
Ġrechterventrikel functie
oel i
zen der
adv iezen
Ġlucht weg
ĠXXXXXXXXX X
ar ium
Ġfysi ologisch
ol in
ĠK RE
Ġcons ulent
Ġcon st
N eg
Ġvaat tekening
Ġpro stat
Ġtre kt
ĠM L
Afspraak type
ĠL asix
J zer
Ġz oc
dat abase
pt ure
sel inge
Ġkl aring
Ġgebe uren
Ġf ax
H ypercholesterolaemie
WER MIC
p lasie
Ġb ic
St abiel
W arm
sp leet
Ġden k
ma ire
Ġgecon verteerd
f an
Pro b
ĠV D
Ġvasovag aal
H Y
ĠC entrum
Daarna ast
Ġhist orie
ĠS SS
sproble matiek
Ġbegele iden
16 2
Ġst opt
ĠHer senen
blij ven
Di agnost
nieuw e
ĠT SP
% [
ron ken
13 1
ĠV en
Ġlinker nier
Ġz oe
Ġou dere
ĠHoe st
eci Ã«le
Ġep ilept
Ġkanaal stenose
Ġmediaan lijn
ĠMS CT
ĠAL G
Ġenkel oedeem
Onder zoeken
in deren
ĠCh ronisch
V raag
ĠM MB
ĠR BBB
Ġoog arts
11 4
Ġfilmom huld
in ib
G A
N r
Arter ieel
Ġleuk ocyten
Ġport ie
Ġb undeltakblok
Ġpulmonaal klep
Ġext irpatie
Ġsh ag
ĠBe spreking
ocrin oloog
os ac
Ġsol itaire
Ġp ci
Ġz uur
t jes
Ġs vp
comp ressie
ĠV oelde
R el
ĠP D
Ġl iefst
ff ect
Ġisch aemische
yp s
Ġactiv atie
eer st
Ġparox is
ĠAm iodarone
eter ig
d ominant
ĠCT S
Ġsubend ocardiaal
ĠSoep ele
Ġin continentie
Ġop roep
ĠOpname database
Ġap pen
Le v
ge dilateerde
rofiel en
Ġhemat ologie
ĠAfwijk ingen
ĠP ulmonale
A VA
F ORM
Ġn ive
Hoofd behandelaar
S elokeen
in c
Ġtermin aal
ig o
rij pen
ĠD T
Ġirreversib ele
app elijk
Ġin structies
S albutamol
Ġint ensie
b odem
ol imus
p alpitaties
Na dien
Ġs epar
alpitatie klachten
ild iem
c alc
end o
m f
Ġdiast ole
H CT
l erg
ĠB L
enc kebach
Ġf entanyl
Ġindic atoren
14 3
Ġbeg int
Ġcompl ete
con clusie
ĠP rom
ĠPro b
ĠÃ ł
Ġhem olyse
c utaan
Ġprofylact isch
Ġover sensing
Ġal armen
e ind
it ies
Ġwekelijk s
re con
Ġfunctie s
Ġnorm otensie
Ġpla veis
k eer
Ġro de
18 5
re entry
oc aal
s r
haar den
Anest hesie
Ġdoor verwijzing
F ors
ĠEchtgen ote
Ġcardi ologen
Ġaanleg gen
Ġstuw ingsbeeld
Ġnorm ocytaire
Ġwand dikten
Ġzod ra
Ġsp oedig
Ġv ms
Ġgem akkelijk
ĠF enprocoumon
vraag d
gebre ken
int ake
intest inaal
Met h
Ġten zij
Ġaneurysmat ische
Ġgerec ompenseerd
Ġw iss
sist erend
Vervolg afspraak
k i
ire d
le kkage
Ġb Ã¨tablokker
g b
Ġgeb raakt
Ġstuk ken
Cont inueren
H uis
Ġf ijn
racy cline
Ġple isters
Ġtromb ocyten
ĠCardi ovasculaire
E igen
ander s
Ġontwikkel en
Ġbal ans
og ie
f lex
eg t
Be wegen
Ġcre p
Ġrel atieve
Ġweer standen
ĠEvent ueel
F older
I A
ĠAneur ysma
Ġbep alingen
Ġgest uwde
Ġmeege scande
in ject
Ġele ctief
hel ft
al iÃ«mie
M ijn
V ia
ĠM TX
erg ometrie
em et
ĠM J
st olling
Ġnive aus
ĠD V
Ġ19 94
uz umab
D EEL
Ġe d
gif tedatum
M Y
KERN DEEL
Ġe mail
ĠF O
ĠF allot
ĠLang ste
Ġoste of
Ġst em
ĠP rop
Ġlong circulatie
Ġram ipril
Ġlevercir rose
ĠMe i
ĠAI C
Ġkaak chirurg
Ġl ine
BP C
gen e
Ġkle ur
inf usie
Ġon gerust
et icus
Ġz ussen
el itis
Ġt elefonische
den se
Ġsh ort
Ġs essie
ĠM TP
Ġbeg innen
l engte
Ġsch ouders
Ġdri veline
Ge w
Ġber o
Ġcy cl
itie le
Ge pland
ĠUit gifte
Voorkeur speriode
Ġgrac iele
Ġmeet baar
Ġplot selinge
Ġz d
Ġon terecht
gele zen
Ġger elateerde
Ġt rouw
ĠU IT
Ġver loopt
ĠH AP
ĠGe d
Ġge annuleerd
Ġwaar in
Ġcap illary
Ġz agen
Ġaf spreken
ĠP KP
ĠN t
F entanyl
vol le
Ġinsuff icintie
Ġen orm
Uit giftedatum
Ġinfectie parameters
N AM
Ġaberr antie
Ġt ime
ĠOnd anks
Ġdoor geven
G isteren
Ġgew erkt
ĠDiff erentiaal
neur oloog
Ġexter ne
erose pt
en ste
Ġh eu
om geving
Uit er
it z
Ġdermat oloog
Ġo ed
Ġst res
Ġnod aal
w erken
men opau
Ġverst andig
P AF
oesophage aal
OP RAZOL
Ġstor ing
Ġle ek
oes ofag
o a
p d
ob ie
Ġgenees middelen
ot erol
ure au
Ġge isol
ĠB atterij
], \
if en
mat a
ut ie
L CX
Ġtot dat
ĠG y
Ġnet jes
is ode
Ġdefin itief
Ġmedicatiewijzig ing
Ġvolume verlies
Ġd w
sp inatus
H EART
ĠM inder
ĠW oont
ĠLong beeld
ac alc
ger elateerd
ab oog
ĠAut o
ip le
Ġb ouwen
Ġvert rouw
ul sen
ĠT n
Ġl id
V ragen
11 7
Ġber ekende
Ġperfusie stoornissen
Ġtaal barri
v ag
ĠSec ond
Ġvert eld
ĠSept um
oc a
Ġh alen
17 2
i op
pect oraal
Ġgez w
Ġmet een
u im
ĠW erk
op ende
x ATP
S la
Hb A
hyd rochloorthiazide
Ġvast gezet
Ġs oft
Ġde ppen
Hier na
N C
Ġgest oord
ĠDat alin
, .
d ol
P OB
com ycine
rof ib
Ġs le
Ġin di
ĠK oorts
Ġom vang
Ġge assoc
Ġge checkt
ĠV orige
A K
Ġo om
AT S
ge s
Ġstre pt
Ġhem idiafragma
L ower
ĠK rijgt
ĠP LAX
eg ic
remm ing
ĠEn kel
MI I
Ġsept ische
Bloedchemie Natrium
T en
Ġhyp og
Myocard perfusie
vel op
Arter iele
N eu
ĠRR SY
oret ex
Ġvoor dat
NT OPRAZOL
Ġsp elen
Ġd oppler
Ġa gv
ĠB M
Ġte kort
ĠK orte
ĠHart transplantatie
Ġge e
ĠV annacht
Ġhem i
Ġsubc utane
bi oprothese
Ġdi aph
Ġin eens
ĠAV B
v or
qu ired
Ġwervel cor
Ġre age
Ġexp irium
D alteparine
Ġm akkelijk
Ġcap itis
l etsels
il ie
ĠRR DI
Ġverd ubb
gl s
G l
Ġgest im
Ġdiverticul ose
Ġballoons ize
Ġk wij
Ġkin etiek
Ġle iden
Hart katheterisatie
hes us
Ġdynam isch
Ġverm oeden
ar el
ap agliflozine
r un
ver zekerings
: (
Ġhyper kal
Ġver plaatsen
Ġmee ste
q c
kn oping
Ġmid delen
b rug
ĠLVOT O
Ġogen d
ĠD oppler
Ġaspir ine
ver e
Ġver zekerings
Ġcon nectie
gebreks anemie
Ġgeind uceerde
C U
Ġten nis
Ġvag ale
ig m
Ã³ Ã³
ĠgeÃ¯sol eerd
k oorts
Ġchirurg isch
Ġb ov
ĠMob ilis
Ġs ectio
Ġad juvante
Waar de
Ġverblij f
min ent
Ġgla zen
il ot
ĠF ragmin
ĠIr reversib
Ġop laad
ru ptuur
Ġsc ar
Ġt ort
ĠGe w
Ġtu ber
ĠN eu
Ġvat s
Ġdotter behandeling
ron est
ĠM aart
ate us
Pre dnison
Y L
sp ectie
omy elitis
Ġvers lecht
m orfologie
ĠGra ves
v id
ĠBe spreken
Ġlo slaat
ĠP ER
A namnestisch
ĠH odgkin
kw adrant
Ġoperatie s
s els
Ġmob iele
Ġrem ote
S at
ĠGe zond
ĠS ol
me s
uli eren
superv iseerde
Ġins ert
ĠH U
Ã³Ã³ r
ronest yl
ĠC rohn
13 4
V RAAG
t c
sp asmen
Ġacc oord
Ġh oc
Ġadmin istratie
ifest yle
ĠO edeem
Ġer voer
ĠRE CH
Ġop merkingen
ĠCoron a
Ġeuvol eem
ĠTrig l
Ġaan be
inde x
omon as
S amen
nd rome
pulm o
Ġf rag
Ġvolw assen
Ġpass age
ĠD ys
Ver zender
Ġaan knoping
n iciteit
st iaal
Ġinf usie
ar ices
ĠST S
V ES
g ie
oe c
Ġvl ie
Ġwaar mee
Ġbloed vat
sl and
ĠDilat erende
Ġbur inex
Norm al
Ġmeld ing
Ġverdi chtingen
ĠC ine
itr eren
ĠCV VH
Ġfact ors
Ġt acro
ond yl
ilt ratie
H S
H V
ĠA ML
ĠBloed groep
Ġmicro vasculaire
s lechte
kla cht
Ġterug verwijzing
ĠC TI
Ġmag nesium
Ġrill ingen
ĠC WK
Ġfib ro
d uraal
Ġbevest iging
Ġrechter nier
b on
as ische
Ġtra ctus
ĠIVS D
rox in
v end
ull ie
Ġt arget
der ende
Ġge kend
ĠZ w
ĠBep erkt
AAN VULLEN
B lijft
pro ductie
itone ale
Ġachter ste
ĠAs sura
ĠZie kenhuis
Ġgr ens
ok ken
gelijk e
gest art
y cline
Al lopurinol
geb racht
ob v
otter d
ĠE t
sten osen
le sie
om eer
J uni
V VI
Ġ< [
Ġste atosis
Sinus bradycardie
op las
Ġtu be
Ġontwikkel de
Ġop hoging
Ġthorax foto
o us
ver wijzen
it ro
ĠOnge compliceerd
T riglyceriden
ĠL et
he sist
e igen
er entieel
wijz e
ystol ithiasis
Ġcereb rum
r atio
Ġen e
ĠOntslag bericht
Ġop v
ĠW Z
S VT
Ġwand standige
he up
oc edocard
ce aled
arel to
Bas eline
Ġ2 70
ĠL ip
Ġmult if
ĠVer groot
Ġborst been
Ġaan vals
Q u
sla pen
G ering
Ġvoor bij
r ati
Ġna vraag
armac ologische
u do
R UST
h uid
an eurys
Ġdi azepam
rose psis
Ġph renicus
Ġmid line
erg ens
Ġt riglyceriden
ĠN acht
Ġuit ing
uit y
MI NE
ac en
VS D
r v
t ijden
ver ificatie
atief ase
ĠM aandag
met formine
Ġontwikk eld
Ġdub bele
Ġg as
uizel ig
uur graad
OPRO LOL
menopau zaal
Ġse qu
n et
Ġver wek
iet en
yl ori
Ġcla vic
Ġbeste den
ĠF e
Ġafw achting
Ġbegrij p
h oudt
Ġd okter
Ġbil ateraal
A dv
a gel
Ġversn eld
Ġbe antwoord
Ġtre kken
Ġkwij t
Ġinspiratie stand
ab ces
Ġgez egd
Ġbev or
Pol iklinisch
J ude
v elijk
el lair
ĠM agnesium
ĠElektrofysi ologisch
erv entie
ĠNeut rofielen
ĠPro staat
r EF
Ġfocus ed
Ġhemor rag
Ġer voor
In f
Ġfra ction
K amer
Ġprik kel
Ġdocument atie
Ġp unct
Ġlipiden spectrum
Ġlux erende
b rad
Ġj ullie
ĠH eup
Ġher stellende
asc iculair
11 8
Ġz es
pri kken
Ġinflamm atie
12 8
Ġverminder en
y eb
Ge superviseerde
z ittend
ĠG la
Ġinter med
Ġvoor kom
11 6
ĠNa CL
A r
Ġzw eterig
oxic atie
ĠVAS c
ĠOm dat
D osering
Ġas ked
Ġcon f
re corder
ĠW J
Ġex it
Ġef o
Ġ ĠĊĠ
Ġinh om
Ġcontrast allergie
s oc
Gen erator
ĠAl daar
Ġarg ument
ĠDiff use
ĠAfwijk end
op ram
Ġonder arm
V KA
Ġwas sen
Ġcell cept
ĠC omp
eratie f
ĠR am
ne ar
ĠJ uli
Et niciteit
Ġkantoor uren
diagnost iek
Ġmit ella
Calc ichew
Ġis sues
aan vallen
ĠM o
Ġonsch ul
F ase
Ġontst ond
Ġdarm pakket
Ġcontract a
f al
Ġinfectie uze
ul opathie
ĠS inustachycardie
ĠAl gehele
17 8
Ġving er
F oliumzuur
ĠP laat
Ġhyp op
ĠZo wel
Ġdiaph ragmat
y me
Ġm erk
U sed
r yl
vall ing
y rox
]: *
Ġd acht
Ġa andachtspunt
13 3
Ġt ab
19 0
J uli
Ġtromb openie
Ġw issen
ĠE PD
Ġw oord
v oren
uit sland
Th erapie
Ġsp ect
or zaak
c k
ĠL osartan
we kt
Ġaanp rikken
ath oe
alcific atie
ie st
Ġz ak
itr atiefase
elt ransplantatie
g raag
Ġop gelopen
Ġt ele
CA D
Ġap paraat
Z uid
Ġzij tak
____ ____
val t
Ġs ach
Ġdik ker
ĠB S
mpl anteerd
i zen
ĠI P
ir st
Ġvit ium
Ġvan comycine
ĠCK D
Ġgewicht s
ĠMe diastin
ĠHer stel
Ġhart enzymen
ĠK erle
ĠW eekend
alg ia
ĠInf iltraat
Haematologie Hemoglobine
Ġcol or
ital opram
Ġlang gerekte
uit enshuis
Ġinst eek
Ġgezw ollen
Ġantegra de
P ri
in v
K S
Ġgroot ste
Ġh ep
lat ing
pro fen
sie ve
12 3
Ġspre iding
Ġd aalt
al get
Ġver erg
Ġ20 5
35 4
urc ation
G uidant
Ġstof zuigen
Ġvi abiliteit
Ġm er
Ġspl en
P E
Ġger eed
Ġvergelijk baar
Ġinfiltraat vorming
ĠAng ioseal
S ed
vol en
Ġkeur ing
M omenteel
om an
ien cy
verdi kkingen
ĠT av
tra ining
h en
Ġpro spectief
h s
ĠAl g
ĠHel aas
k atheter
ĠD isc
Ġsubopt imale
Ġcaud aal
Ġfir st
ĠJ uni
Ġrep resent
Cardi ologische
Ġlonge mbol
v oel
z end
Ġg uided
Ġp iepen
ul ine
ĠKerle y
Ġged ronken
h oopt
arteri Ã«n
ĠAp ril
Ġinv loed
Y LS
Ġhyper dynam
ĠAc uity
Ġ- ;
ĠT D
rot isch
Ġeccentr ische
ĠE vt
gro wn
Ġv alsalva
DI CATIE
P omp
ĠC L
ĠE iwit
Ġcond uit
Ġp eak
Ġho op
M ild
ĠCon cluderend
Ġvir us
deel te
Ġcran iaal
ra ventriculaire
F luticason
Ġreumat ologie
Ġgewrichts spleet
ĠFra ctuur
Ġversch enen
vloe istof
Boven staande
x DES
ub eerd
Ġgen en
ust rof
Ġuitvo eren
Ġinter actie
Ġsub klinische
Ġb undel
Ġged otterd
ĠMed ische
syst olische
ĠE ind
ĠB icuspide
Ġger aakt
ath iop
Ġas ystolie
Ġsubc ostaal
T ri
y f
ĠC ode
Ġgen eticus
Ġtransp ositie
z heim
Ġsub duraal
Ġremod elling
me chan
Ġve il
Ġonc ologie
ET YLS
Ġi ma
Ġhoe wel
7 21
Ġfra cturen
Ġpomp functie
ĠV raagt
ĠAt t
embran eus
ETYLS AL
Ġaanknoping spunten
rop s
iv eerd
dens iteit
an z
se udo
ĠAV SD
a ill
rog ene
Ġsept al
oud heid
Ġgesla agd
ĠVervolg afspraken
CAL CI
ĠL OK
be oordeling
Ġverz ocht
yeb all
Ġne venbevinding
13 2
Ġdis locatie
Ġwijz iging
Ġinzicht en
ĠO WI
rop ine
Ġwaar sch
ĠAs ymptomatisch
s ignificante
Ġven egraft
16 3
ĠAtri um
ĠToe genomen
V alsartan
Ġber oep
gank elijke
Ġkalk gehalte
Ġfra x
m oment
ĠMet ingen
athiop rine
: %
Ġ2 80
ill aris
Ġbronch iÃ«ctasieÃ«n
D EF
vol gen
St abiele
ĠL U
Ġpost erieure
Ġaanspreek baar
Ġw ind
ĠR Ã¶ntgen
Ġer f
ĠHR CT
h oor
p ees
iri va
Ġtrac king
Ġdag behandeling
g as
H ypert
Ġhartritme stoornis
sch aduw
Rec idief
ĠS lecht
Ġe osin
Ġre ken
ĠO ktober
ĠVoor af
B ur
Ġregel matige
Ġdiaphragmat ica
post erior
at electase
Ġle zen
b ronch
Ġt m
Ġon ly
i oloog
vals artan
Ġkla m
Ġbe geleid
Bel emmering
Ġap r
DR O
Ġonver hoopt
Ġd iet
Ġbi oklep
n vt
asc endens
19 82
ia zepam
Ġgep rogramm
S ysteem
Ġj ong
ĠCAR DI
Ġg ren
AC LE
ĠHer start
Ġint ram
Ġgroter e
ĠO rthop
dra ad
pol iklinisch
Ġp ulse
ĠV V
ath yre
Ġaf h
ĠLo ad
Ġv oed
ol ithiasis
ĠAV F
l umb
Ġinform ed
RA O
Ġdirect e
Ġflex pen
c ereb
Ġma akte
osf amide
Ġbil lowing
ĠA r
Ġher inn
Ver hoogd
Ġform ule
st uwing
Ġhel pen
Ġspre ekt
Ġge tra
IE T
ger elateerde
Ster k
m erkt
ĠP iek
Ġc al
Ġnatuur lijk
Ġbehoe ft
B et
14 4
ĠRV ED
Ġadem halings
Ġbe klemm
emor adi
g ast
or ale
Ġver traging
radi ent
Ġ3 50
Ġp soriasis
Ġover belasting
pro te
Atri aal
Ġemotion eel
Ġdruk op
d g
ĉĊ ĉ
v oeding
Ġverminder ing
di b
Ġ[ ]
p ress
Ġabl atio
LIN E
op namen
Ġfamilie leden
icardi tis
pat int
Ġs urve
Ġst aand
Ġ19 93
an ager
16 4
kamer s
N ef
dic itis
otrim oxazol
an oxin
id o
Ġtuss endoor
t ach
ui zen
trans fusie
Ġoss aal
Ġuitst room
Uitgebre id
S L
Ġ19 2
Ġkalk houdendheid
Ġband age
Ġdubie uze
Ġinge spannen
Te chnisch
Ġretro sternaal
am ter
ĠSt andaard
Ġlong carcinoom
und air
ĠFiet stest
Ġinspannings vermogen
Ġcost a
ĠSub c
el lo
Ġhernieuw de
Ġbi ologische
Ġc oeli
Ġover lap
ĠSt ructureel
Ġthromb ose
m odi
Ġbe keken
Ġelect rolyten
P ocket
Van af
Ġals ook
od ie
ĠGest oorde
Ġtechn iek
Ġ+/ +,
et ral
ob acter
Ġovereen komend
Ġdan k
ĠBas eline
ie erde
ĠA CT
on geveer
el et
I L
Ġb ran
Ġn as
Ġsp ieren
Ġs lu
orm icum
EP RAZOL
Ġtrac en
ĠRECH TS
Ġk op
ĠRe cept
ĠC are
Ġaccept abele
Ġvis uele
Ġcontra staan
Ġmedicatie verificatie
Ġlinker been
K reat
Ġpl ann
Ġt reden
Ġh ilus
Ġad nex
zw elling
E et
Ġcor relatie
Ġocc ip
ĠTh e
col lectie
Ġdysf unction
Ġal vast
Ġaangetast e
Ġdak lijn
Ġcol i
a ortaklep
lip se
P at
X A
sec retariaat
M oeder
ĠChol ecystectomie
Ġstreef waarde
Ġleg gen
zheim er
is aties
Ġkant oort
ĠbeÃ« indigd
di alyse
Ġaort ap
Le vensduur
ant el
Ġt rill
Ġpart iele
Ġre anim
Ġtransm urale
Ġpap illair
Ġp e
oc on
Ġbuik wand
Ġeuvol emisch
Ġdynam ische
Ġst ud
Ġgez in
Ġi FR
ĠF ORM
Ġsch one
Ġ25 00
der mie
Ġchec k
Ġafgez egd
Ġr onde
ax ter
Ġbevor deren
ĠVer d
Ġpreventie ve
ĠSub t
Ġvaat geruisen
ĠRe f
re p
ĠF ib
Ġkamer frequentie
ĠG GT
odynam isch
St andaard
Ġpassag Ã¨re
G er
Ġw ell
ĠBi VP
Ġaanbe volen
ĠM F
rijd ing
Ġv ul
ĠTur kije
Ġld CT
L ang
ĠN V
ĠDer mat
m amma
Ġuit p
S v
itr alis
bu profen
Ġpreren aal
gev ol
) ?
Ġmon otherapie
Ġricht lijn
Ġh y
ĠT icagrelor
De v
Ġvorm ing
Ġfluclox acilline
Ġboven staand
ĠE ss
Ġlong nod
Ġspra k
iek lachten
elen a
rie bel
neum othorax
fra ct
Ġp il
Ġklep gebreken
olerant ies
Ġe zetimibe
osac rale
Hemat okriet
Ġintermitter end
ill ance
Ġaan kle
spre ekuur
Ġberust end
ĠAn ders
hemat oom
ĠPulmonaal vene
ĠL L
ĠOnder liggend
Ġkamer ritmestoornissen
acalc idol
Ġox y
Ġretrogra ad
TE ST
ĊĊĊĠĊ ĊĊĊ
Ġm ater
Ġna ad
stre ek
Ġmictie klachten
ell ingen
er zijds
Ġg GT
ipel as
ysp lasie
Ġvl g
Ġpre dnisolon
ad ruk
16 7
Ġha em
ĠK on
w v
Ġs ac
Ġgeri ater
v pk
Ġbe valling
yc ycline
Ġlong afwijkingen
Ġintermedi are
Beeld kwaliteit
ĠPat inte
Ġre verse
ron g
aand oening
Ġh cl
Ġknie Ã«n
Ġj eu
Ġtussent ijd
Ġnabep alen
ĠAtt ain
he cht
Ġ19 4
Ġlipiden profiel
Ġge men
de se
Ġhem ostase
Ġnier falen
b randen
en chym
Document type
Ġarterie le
Ġhaal baar
Ġr r
15 6
Inspanning stest
ul de
Te chnicus
ĠSp anje
Ġblauw e
Ġla g
Ġing rijpen
r ink
Ġvervroe gd
ier adi
Ġpsychi ater
Ġstamc eltransplantatie
Ġpre operatief
Ġaan komen
minder d
Ġi ctus
ĠZ OC
ĠHart grootte
Ġfib romyalgie
ge heel
Ġ19 3
pt ake
H etero
Ġbij gevoegde
12 4
Ġgediagnost iceerd
Ġb are
reg io
Nov orapid
dra a
Ġextra cardiaal
ĠIV GS
Ġverz am
H t
z oon
be ens
Ġbed rijf
beter ing
Ġkantoort ijden
sy stol
Ġverv elend
ĠI Jzer
ver der
Ġsach et
E plerenon
ter usextirpatie
M ult
Con form
unt ing
etral ogie
ĠFORM TEXT
Ġfemor aal
ver apamil
ys ipelas
Ġp res
ind t
Ġp agina
ation ale
later ale
ret e
Ġintermedi ate
Ġcollega e
dist aal
ad ult
ĠAF L
Ġ-/- .
Ġonder werp
ĠOp namen
Ġin ductie
Ġgez onde
Ġb y
ĠM ijn
Ġhoogte verlies
s ignificant
Rel atie
rij gen
norm al
V erk
b roer
in clusief
Ġpsych oloog
ak been
Ġcholec ystitis
dition ering
D uplex
Ġdoorgankelijk heid
ĊĊĊĊ ĠĊĊĊĊ
Sym ptomen
ĠO CT
N IS
ro ok
Ġple gen
w ordt
A sc
ĠR elevante
Trans femoral
Ġexp ir
Volg t
Ġm ut
Ġoor zaken
Ġin zetten
Ġant woorden
Ġsub valvulaire
s yl
Ġverwijs brief
ĠW eer
Med isch
t afel
Ġstuk jes
oorde eld
Ġemf ys
d ate
Ġcan ule
Ġge groep
onsc ore
Ge schatte
Ġmoe ders
ĠGed uid
ĠGem idd
ĠDeel s
Ġuit gelezen
Ġdors ale
ot one
ĠAV L
din itraat
woor dig
ĠProm ocard
MB q
ĠB innen
ĠPA NTOPRAZOL
Ġwoon omgeving
Ġvaat chirurgie
Ġboven benen
M id
ran ium
depressie s
Q Q
Ġhier in
N aar
ĠPol icontrole
ĠReg ulair
cell ig
ĠHart klachten
17 7
h ad
st uzumab
G yc
ĠWand elt
Ġfib rotische
Basis ritme
ĠV oet
Ġon veranderde
kal k
Ġl ijnen
Calcific atie
ge wijze
Ġkamer septum
M x
it ud
ob servatie
Ġkin idine
Ġdepressie ve
Ġargument en
i ol
Sp oedeisende
ch emisch
e iden
p dr
ĠAan gemeld
Ġbenauwdheid sklachten
operatie s
gevol ge
Ġw all
slag ader
Ġd ens
B ypass
ĠT iet
ĠB elt
Col chicine
ĠAP TT
Ġontst ane
ĠSpont aan
Is osorbidemononitraat
ĠEl lipse
Ġ(- )
Ġfen omeen
Ġaf hankelijke
Ġw h
iÃ« n
ĠTrans oesophageaal
c atheter
PER TEN
d amycine
Ġdifferent iatie
Ġthromb i
ĠLVE DD
Ġposttra umatische
we et
par ox
Ġheft ige
Sym ptom
PERTEN SIE
ĠHom ogene
N ier
Ver ander
m ar
ĠP eri
ĠDub ie
Ġen do
Ġecht e
Ġmechan o
Ġarry thmie
ĠD igoxine
osorbide dinitraat
Ġz aalarts
ose ptaal
g o
Ġident ificatie
Ġchor da
b as
Ġade men
ho spital
ĠT NO
Ġr hythm
ĠA tenolol
Ġg aten
i os
Ġbere ikte
S etup
amter een
w on
Ġe mp
ropon ent
Ġflin ke
z athioprine
Ġmedic al
R PL
Ġge test
ag o
Ġgef ix
Ġpar ac
ĠMyocard perfusie
r is
Ġ18 9
Toe stemming
ust ained
Gyc m
K CA
ĠE valuatie
Ġpar enchym
toc ollen
Ġbasaal celcarcinoom
Ġv elden
12 6
14 8
kram pen
LA B
Ġhart spier
Ġvri enden
Ġdriet ak
Ġ3 60
Ġ2 25
Meer dere
Val ve
H ernia
Ġch emoradi
Ġpost stress
ĠGe accepteerd
Ġlichaam s
ĠPJ N
Ġkun st
S DS
W and
x tra
nt ie
sp r
Ġp ragmatisch
ĠEr vaart
ĠBi V
G GEN
Ġl at
ĠMY BPC
Ġspra ak
18 8
ĠNT proBNP
X thorax
ĠP roponent
ĠS er
Ġan deren
ĠS etup
icol ectomie
emat euze
Ġ- )
Ġaf gang
Ġgra de
ĠgeÃ¯ mplanteerd
Ġreden en
Ech ografie
Ġboven arm
ĠRec ente
Ġdoor verwezen
acem ak
ĠM ocht
qu or
Ġdm v
st ige
Ġen zym
Ġdec ubitus
op ic
OR ACLE
Ġstroom gebieden
E uthyrox
ĠN ycturie
ĠH ix
3 10
ĠgeÃ¯nd uceerde
S K
t eerd
im mer
ĠPM T
ĠFont aine
VRAAG STELLING
Ġsy ndrome
Ġfacet artrose
s iche
v uld
Ġonterecht e
ĠOc clusie
Ġpl m
pra ktijk
modi ficatie
Ġo ef
Ġe h
Ġover schat
Con cluderend
Ġaan passingen
Ġzorg vuldig
iat rische
spar ende
Ġge sc
ĠAc etylsalicylzuur
aort aal
l eng
Ġb undeltak
Ġs ick
Post op
ĠCardio versie
ĠNot eer
Ġaan kleden
Ġint oxicaties
Ġgeneesmiddelen kaart
b asis
Sp eciÃ«le
M aart
Ġ ).
exc itatie
ĠR eeds
Ġle eg
Ġgew end
Ġinterventie s
Ġbol le
ĠC I
Ġw onden
Ġsec onde
Ġkle ink
ĠFont an
ĠIN FORM
Elect rode
y algia
Ġvoor rang
Ġz innen
in aties
F ietsen
Ġbe weegt
ĠB R
Ġon begrepen
I p
u x
Ġver zeker
Ġwervel in
Ġend omet
gro ting
Ġperio des
ad ox
al bum
ut is
Aan vulling
Ġbeginn end
oman agement
ĠIM T
Ap ril
ĠP ra
Ġgel et
p te
drain age
An alget
Ġinsuff iency
Ġdoor gebeld
oster on
c usp
ĠK alkscore
t entie
ĠHartcatheterisatie kamers
Ġhem ip
par acetamol
Ad dendum
Ġvader s
ĠV ATS
hoe wel
Ġkram pen
Ġtrig ger
E DD
ĠX ylocain
ĠI mp
MV R
ĠPro tocollen
U C
aardi ge
ĠInspanning stolerantie
l eten
ĠM al
Ġher evaluatie
F osa
se arch
GGEN D
Ġh ogen
ĠE EP
e am
ed och
emm erd
Ġreversib el
zi atische
P U
orac otomie
acet yl
ĠINFORM ATIE
Ġw an
o clop
rij ft
Ġbij sp
ĠO pen
ĠB AV
Ġbur st
orie k
RO G
ĠTUR P
iv iteit
Ġge deelte
it riptyline
ĠM ail
Ġsn iff
aill ering
Post stress
Ġlaag gradi
Ġstra k
ĠV pk
ĠZ oon
ectie velijk
Ġzw akte
Ġhyper lipidemie
fib rose
ĠSt ichting
2 40
Ġre mm
ĠV lak
a h
m erk
ĠV asculaire
ĠE CMO
Ver wij
ant in
ibiot ica
Ġgegroep eerde
] '
er ectomie
Ġclavic ula
IN T
ym ptomen
Ġbloed kweek
CT O
hoofd pijn
Ġwerkzaam heden
ro vent
Magnesium hydroxide
se diment
ĠN et
CH T
eros a
Ġlinker onderkwab
Ġafbouw schema
p leg
Ġ19 6
di da
Ġhartk atheter
rop rote
ĠB uiten
vo eren
Ġn mol
ĠN ucleaire
ĠDe vic
Ġatrium septum
Et iologie
ĠF luoroscopie
Ġhart problemen
Hist ogram
do en
Ġnier arterie
ĠHypert rofische
ĠI LD
Ġg ent
vo eten
c ath
vi al
Ġvolwassen en
Ġb ox
oden se
carb asalaatcalcium
ot iveerd
Ġherst elde
scop ische
werk er
oclop ramide
of ilie
ĠPro ble
ĠD u
ax is
ĠVrij wel
:< [
1 73
ad ine
gel uid
Ġdis cre
Ġsteun hart
Ġgeocclude erde
osin opril
erv icale
ost ale
Ġrisic omanagement
O kt
el iner
Ġrhe umat
ect eerd
Ġeind diastolisch
Stud y
nef ropathie
ĠOog t
Ġk uit
Ġmamm aca
LI GGEND
Ġhartkatheter isaties
ĠA kkoord
Ġv gls
Bi VP
os itis
Ġpoli afspraak
uls aties
ĠF unctionele
Ġge fra
ĠA AN
Hart transplantatie
f in
oord elen
ĠNa Cl
rift elijke
Ġtur bul
acemak erd
Ġre entry
Ġbre de
P AC
Ġgek eken
Ġfun c
yt ische
ap en
ĠATP qc
Q T
ra a
w il
Ġcort icale
ĠSG LT
ĠMin imaal
14 6
Ġmin stens
18 1
ox aban
Ġdiff erentieel
Ġkra chts
i rofib
z innen
irofib an
ot se
Ġdiast ol
roc ranium
Ġamb ulant
F OR
vers al
ĠR ond
ĠGe vraagd
Ġr oepen
Ġopge wekt
ĠLong arts
ver pleegkundige
lan ge
aardi g
Ġaandachtspunt en
Ġven ster
Ġmult iform
ĠZ iet
LA O
ĠO meprazol
Ġr at
Ġj ournaal
ĠAan gezien
ec atie
W as
ĠLV d
Ġaccel eratie
T CH
] %
ĠC lin
gesch oten
. -
Nieuw e
Ġte en
af w
Ġmult i
Ġverdi chting
ĠChirurg ie
p rop
ib aar
15 7
orthop edisch
R ecidiverende
ĠP unctie
ĠAl lergie
Ġhypof yse
but ie
ĠL BK
reg ulatie
C ellcept
Ġ3 20
Ġbesch erm
ĠUit gelegd
ĠST A
ĠACE i
ist ratief
Ġmo cht
Ġs mall
last isch
ife ste
ĠO f
ĠAortaklep sclerose
Ġver geten
Ġventrikel systeem
On veranderd
Ġverm ijden
Ġhypok aliÃ«mie
Ġst eek
ĠAd min
Ġt ent
ĠSt aat
roprote ctie
ĠReg urg
Ġholos ystolische
Ġvertrouw en
ON T
Ġgla dwandig
Ġ> >
Ġbloedings risico
V asc
n ierfunctie
ect opie
Ġcon ditioneel
Long functie
wen dige
ĠĊ ĠĊ
12 7
Ġn oem
Ġsch il
ĠIsch emische
D at
Uitgebre ide
uro xim
Ġvriend in
c en
ĠB E
T oename
Ġopge laden
Ġhorm oon
1 19
Ġinv as
abdomin aal
ĠG ister
Ġob ject
Ġf lash
ĠVer t
g de
wee s
ĠH erkent
cent ratie
i val
fer ase
Ġvol zinnen
Ã¯ den
la udicatio
iv us
Ġmic rocytaire
A ziatische
ijn a
Ġge acht
Ġeff ort
aak e
Ġf oliumzuur
oel en
Th romb
ĠLinkerventrikel functie
ke uring
k racht
Ġaortaklep prothese
wer pen
ne em
rof loxacine
Ġlinkerb undeltakblok
Ġbloeddruk verloop
a a
Ġplaveis elcelcarcinoom
Pro BNP
g ren
et iri
M DL
ĠR hesus
E someprazol
epat itis
Ġtra becularisatie
ĠLab uitslagen
!! !
ur rent
ĠAC ETYLSAL
Sed ativa
ete chniek
Ġheft ig
riebel hoest
ĠM g
ĠD el
Ġ75 00
Prob ability
Ġhemodynam iek
Ġsec r
le ft
Ġman ifeste
M MB
S B
ap paraat
ĠEnd ocarditis
Drug s
A tenolol
Ġre actieve
CAR D
Ġlong itud
Ġsubple urale
ĠR ate
Ġduoden um
W acht
Ġant woord
Ġsinus knoop
fic eerbare
ĠB ot
f luticason
12 1
2 20
Ġbest uren
AR C
). |
ĠP alpitatieklachten
emb ra
ĠSy ncope
D B
oon de
Ġw ijn
j ul
Ġv ijf
app rop
ĠM PA
Ġe chocardi
daar na
Ġport aal
Ġs ele
wij nt
stell end
Ġvi ability
ĠS j
ĠIM HA
Ġzoe ken
ĠO OG
opro st
P te
Ġov arium
ĠEB V
n ing
Ġzorg vragen
adem ig
ĠC t
Ġval g
Ġanat om
Ġver richting
Ġ19 92
Ġnarc os
Ġdex tra
ĠV aak
Ġmic rog
ro mat
g olf
ool zuur
S MART
kle in
Ġext rem
Ġb rieven
eri ore
Ġwand afwijkingen
ĠV asc
vens lang
Ġklein er
etiri zine
ĠR EF
Ġth al
Ġnarcos etechniek
d den
ist ra
Ġwand beweging
ag ra
de eld
En kele
Ġl etsels
Ġverk ort
w an
Ġvervroe gen
Ġv iel
Ġb ron
oc ri
ĠMe etwaarden
ĠIV MD
Ġbre in
Car vedilol
W Z
Ġwond je
DD DR
el ithiasis
) \
og ingen
ĠDE B
ix atie
Ġhypert roof
hepat ische
D agelijks
D uizelingen
b uiten
C lip
) /
Ġstol sels
mat ch
r der
ant eroseptaal
ĠBe wegen
sc endo
Ġlum pectomie
yt vorming
inter rogatie
slip pen
Ġ- [
en kels
Ġafge wezen
ĠLong ziekten
ĠLIN KS
orie el
maand ag
inv asieve
ĠJ anuari
Ġ7 00
b ellen
ĠP laatsing
of osfamide
ĠC f
cl ometason
Ġm arcoumar
Ġst reng
Ġburs itis
ĠB T
Ġhyd rops
Ġs em
Ġcan desartan
Ġc over
ĠP oging
ĠCA VE
ĠW enckebach
IC YL
lo ad
Aut orijden
er nstig
Ġz ol
it te
O edemen
Ġvoort geleid
ĠCa S
lang s
Ġklachten patroon
Ġsens ibiliteit
ie ken
Ġinf luenza
ĠW O
Ġ urg
ĠV rouw
ĠNorm ocytaire
ĠVolg t
ra den
ĠF requentie
Ġdist al
kk elijk
Ġp ill
ER OL
Van wege
Ġo ma
Ġradic ulair
in emie
ĠW ellicht
Ġ ĉĊÂłĉ
ĠN athoe
pret atie
Ġint ima
Ġleef regels
ĠRep ol
i ver
ĠH and
ĠHoe sten
Ġkal chten
ĠPro vocatietest
P laats
di ameter
ax el
Ġa ch
Ġf ug
Ġvert egen
19 78
lopp ing
if ere
Ġmetab ole
Ġmaxim um
Ġtri ple
Ġn erv
he chten
ĠF or
ĠNT x
Ġpra sugrel
voltage s
M ET
Ġst oma
hr itis
Ġbezoek t
Ġa e
p assen
oc clusie
Ġ2 15
Ġbekken bodem
sch ildklier
inf erolateraal
Ġnuc leaire
Ġdruk ke
ĠC alc
ĠD uitsland
Ġtra umatisch
16 9
Ġons et
Start datum
Ġmes enter
Ġsub jectief
M igraine
Ġpro f
Ġsp rong
Ġser ologie
D ub
ĠT DL
Be iderzijds
ol oge
Radi ologie
Ġ4 30
I X
L ow
Ġk ap
Ġcogn itief
usc ult
is eren
artsen praktijk
z aar
Ġonder pool
Ġlymf klier
erol ateral
Ġover p
dis c
Ġdis opyramide
Ġuitstroom baan
ES T
ĠPro minente
Ġbif urcation
Inspanning stolerantie
om ycine
Ġon juist
ĠM ic
Ġrechter long
ĠMar fan
Ġech ografische
roe ven
app ing
ĠMyocard scintigrafie
B MS
Ġrecht op
16 1
ĠM igraine
ĠV E
od ulair
idente el
Over gevoeligheid
Ġverkl ar
ĠSinus bradycardie
Ġvernevel vlst
Ġver wees
ĠDoel belasting
Ġfug ax
l issen
Ġlong lijden
st ernale
Ġtensie s
ĠCor onaire
Ġpect oraal
s ma
Ġgeisol eerd
Ġover brug
reum at
Ġaltern atief
Ġe zetrol
SV G
I ON
ĠVer loop
Ġken nis
Ġdo of
ero dermie
ustrof obie
or atie
ĠA IE
Ġno ise
ĠTroponine T
Ġinjectie s
Ġm orbide
Ġgem otiveerd
onge wijzigd
m ag
Ġmis lu
Ġverk rijgen
Ġhypon atriemie
Ġl ijk
Ġpak ken
r aties
ĠLA HB
12 9
ĠRe visie
Ġlinker zijde
ĠRest ri
brad y
Ġnit roglycerine
ier ing
be hoe
E vent
Ġmm HG
Ġlow er
T ransthoracaal
Ġz akte
Ġverk oudheid
Ġgecorrige erde
A b
p mol
Ġb a
aritm ische
Ġgewricht sklachten
ĠP antozol
ĠAort aboog
Ġgun stig
dilat eren
cy sten
Ġe qu
Ġstreef gewicht
yeball ing
Z ou
ĠLV IDd
Ġbeh oor
ĠLe iden
Ġafwez ige
l ongeerde
Ġvloe ibaar
r ath
end ocarditis
Ġoste omyelitis
arth rose
Ġsub ac
Ġmoeilijk er
Ġrechter been
Ġradialis cocktail
Ġsin istra
al idon
tromb inetijd
ĠR IPV
Ġklop t
Ġs apien
ĠP l
Ġpulmonaalvenen antrumisolatie
Ġaange zicht
ĠMY H
as us
ijd ing
ist axis
opt imale
CC S
PV R
Ġover vuld
ĠgeÃ¯n fect
ĠV ztb
f ul
ov an
Ġm ent
Ġl ing
ĠSI M
lyc emie
Ġnefro sclerose
LO W
Ġhem icolectomie
ĠCK MB
Ġverzekerings gegevens
Be vinding
Ġap pl
Ġpat r
Ġherbe oordeling
Ġsurve illance
la d
Ġlux atie
sp orine
qu Ãª
In suline
quÃª te
ĠOpvall ende
Ġspiegel s
yrox ine
Ġrij den
2 11
la cement
ĠBar ret
Ġrechter zijde
Ġleven de
ĠBe oordeling
Ġbee indigd
ĠB le
Ġgedet ecteerd
van af
Ġdraa id
Ġuitno digen
asp oort
m icro
r aren
Ġsmal le
Dilat ed
Ġla mine
ip s
lit teken
D iazepam
Ġplaat jes
Ġplann er
opic lon
ĠT ijden
ĠVoor lopig
Ġbloed afname
ĠEx cess
Ġtrop o
P ace
ĠPar kinson
Ġm elena
Ġclassific ation
Ġlok alisatie
oolzuur spanning
Ġhoudings afhankelijk
Ġn ergens
Ġer op
Ġet ex
cordi ale
ic ardeffusie
Con text
rom bectomie
Ġben oemd
Ġetex ilaat
Ġsc intigrafisch
Ġp a
Ġge impl
Ġla gen
ĠW anneer
ĠDrug s
Ġaf tak
V AT
f un
Ġa st
Ġchemoradi atie
Ġst ero
Ġj un
inge oom
ĠRA VI
Ġcompressie band
as ker
Ġin brengen
ĠH LA
he ave
Ġgef ietst
Ġcris is
Ġtri pl
Ġret entie
Ġfraction atie
Ġgebruik te
stru eerd
Ġt ikt
stij la
X ECG
am iodaron
ĠL Y
Ġmyocard ischemie
Ġn am
opath isch
Ġgal stenen
oss a
u ter
Samen stelling
Ġn i
Ġdegeneratie f
ĠL aake
or ijk
ĠS O
f ietsen
ĠHolter onderzoek
T amsulosine
Ġrepresent atief
IV C
.... ....
tafel positie
Ġpro be
if ied
Ġorg anis
Ġper operatief
Ġsinusar rest
Ġpijn vrij
ĠRe gel
ĠAs ymptomatische
Ġile um
om ot
Ġverwek ker
Tromb us
Ġsol itair
H oog
Ġer yth
ĠW erd
Ġtach yp
sp oor
ĠSec r
Ġinferopost erolateraal
Ġischem ic
Ġklep insufficientie
Ġtri al
rain er
ĠP II
Ġvit aal
Ġh ar
AS A
Ġtuber c
EN T
Ġstraal t
Ġth ee
part um
ĠZ us
ĠAl zheimer
ere chte
itu ximab
Ġtermin ale
ĠRe umat
pra ak
on orm
uw e
Ġgren zen
o z
ft ie
re w
Ġgestim uleerde
wand infarct
At tentie
ĠV KA
e end
m us
Ġmob iliteit
Ġversn elde
Z ijn
Pro tocol
Ġg las
ĠP ilot
ĠH uid
Ġmod ule
Ġgefix eerd
HT x
Ġend ocrinoloog
EM AT
pleg ing
ĠE v
ou ch
gatst onscore
ICYL ZUUR
Ġoesofag itis
Ġperc ut
ĠIN SPANNINGS
ĠMob itz
ker ing
ade men
Ġgla ucoom
Ġv r
Ġd raag
Ġverricht e
ri ate
Ġmot or
j mal
Ġd ormicum
p au
Ġver antwoord
Ġth reshold
eu co
IN G
15 4
ival ent
ĠAmpl at
C omplex
Ġulc erosa
Ġmyocard scan
ic s
19 81
Ġ2 22
Ġvocht collectie
ĠAA IR
org aan
Ġgevo erd
ĠDevic es
K unstklep
IE D
org ens
geleid ingsstoornissen
Ġextrasystol e
Ġarter ien
ĠD L
er itme
os eren
P rogrammering
rit m
Ġvaat wand
ĠElekt rische
Ġoccip itaal
ans ki
rk a
Ġsch eur
rom ycine
he sis
Ġkn oop
Ġpsych ische
ĠP sych
Ġpre operatieve
Ġaortab i
Isch emie
Z at
za diging
Ġinc ision
embra an
sla ap
Ġdeel nemen
ĠTrans ferrine
ĠS CT
ĠB OL
Ġmetab ol
Ġh en
ĠL igt
CL C
S CD
ak eld
Ġher over
orad renaline
nem ing
Ã« t
ber g
Ġpat ente
Ġuitge zet
Ġec v
Hart kloppingen
ĠLumb osacrale
Ġgez akt
Ġneu ropsych
op merkingen
Ġcomplex e
Ġz sm
Ġtra ining
Ġresp ectievelijk
ME DICATIE
stroom snelheid
Ġbiomar ker
ĠI BS
med isch
Ġcardi ot
NT G
ast er
Ġcell ulitis
on ide
it s
ibril lator
ĠGastro scopie
Ġuitgang s
ĠL ipiden
Ġu ptake
lass ificatie
Ġsinusar resten
Ġhart bon
ĠBij werkingen
ene inde
et ide
Ġli quor
p aspoort
Ġc ellen
art ritis
In gestelde
17 1
ĠH a
Ġmedic ation
zym anski
RV OT
hist orie
Ġhemopt oe
Ġtri ge
Ġw ar
Ġal zijdig
druk meting
Ġverslecht erd
Ġinvas ief
af e
iel d
SL AG
eend uidig
Ġch ronic
recon structie
Ċ ĠĊĊĊ
ge heugen
Ġdors obasaal
Ġorgaan beschadiging
k reat
Ġst een
ĠS hock
Ġz akken
fasc iculair
5 77
ĊĊ ĠĠ
Ġactiviteits verdeling
ĠAn atomie
ĠS AL
kun stklep
Ġprob eert
ol ateraal
Ġpulmonalis stenose
Ġanest hesist
ĠN or
Ġventrikel tachycardie
org anis
et ra
re in
ĠV WI
Ġprote inurie
Ġconvention ele
Ġl ifestyle
Ġch ew
Ġlas er
ov irus
Ġse en
Ġmy x
Ġab uis
ĠER O
Ġtemp oraal
Ġrechter b
Hart catheterisatie
Ġmult iple
Consult en
Fer rofumaraat
Ġnormotensie f
geb roken
verteb rale
ĠPL R
ĠGezond heid
Ġbegeleiden de
n ationale
Ġd Ã©
pt ie
zw akte
g isteren
Ġmaag zuur
f acalcidol
Ġintrac ereb
elev aties
ĠM i
riet est
Ġreactiv ity
Ġtot al
Ġfer ritine
as k
ĠLong functie
p end
reg ulair
ĠR osuvastatine
Ġatri al
Ob esitas
ĠTT N
V oort
Ġinform eren
he ffen
lop ido
ĠDur ata
H ad
Ġver plicht
Ġverw achting
ĠCV L
tromb o
en brief
: >
Ġab normaal
+ .
Ġlevens jaar
Ġv ult
DI P
Min nesota
Ġgest rekt
ĠWond sluiting
Z iek
Ġth yrax
ĠOste oporose
Ġchol edoch
Ġdoel belasting
ce fal
erv lak
Ġpremat uur
Ġleven dige
vol gende
valider en
ĠNt ProBNP
romat ose
ĠP anc
Ġer uit
Ġslijm vlies
ab ilis
st udie
Ġk rans
ys is
Ġinst abiliteit
meter ol
Ġb aat
Ġduur de
Ġafgez akt
ij t
Ġthuis monitor
Ġher pes
Ġh un
rij fs
W oont
ystol isch
em end
ĠB oezemfibrilleren
omat ische
Ġcyste uze
ĠVer zending
ĠMin nesota
Ġgl en
Ġherinn eren
Ġprop ranolol
Ġbloeddruk beloop
Ġterug ge
p ocket
ĠOP NAM
egra ads
Ġlacun air
Ġz h
ĠS D
os clerose
eel den
Ġlong ontsteking
ĠR em
Ġgeb roken
Ġverne v
Ġle v
Ġzenuw achtig
Ġp acemakerd
Ġkra akbeen
ĠF ort
Ġpat ello
Dec ompensatio
asc arcinoom
org anen
Ġopge zette
ver hoging
Ġhuis waarts
Ġst elde
ĠP Y
sub o
ot he
ir al
Ġlymf klieren
ĠHoog uit
s onde
ĠT eneinde
Ġreken ing
on geval
Ġres id
Ġsn ur
lijk s
eb i
Ġren aal
Onge compliceerde
Ġverd wijnt
ĠRegurg itatiefractie
ĠBi atriale
G aarne
-- -
Ġal dus
Bij lagen
ens ive
ĠZ ending
Ġtoen emen
Pl otse
roe k
z onden
ĠN IT
or at
ĠBe en
Ġsinus sen
ĠIrreversib el
atie ven
16 6
el ongeerde
le k
othyre oÃ¯die
Ġinterst itieel
ĠKinder cardiologie
Ġp ronestyl
sp ons
Ġz oster
ĠDD I
c alcificaties
Con ditie
Ġimpon eren
Ġver plaatst
ijd t
rocardi ografisch
ĠIntra pulmonaal
Ġsuiker ziekte
c ur
rati ficatie
ur itis
it ive
Ġ2 14
ĠIN H
in jectie
Ġe plerenon
elt elijk
ĠLU TS
Ġsol ide
Door geven
cept ie
Ġk euze
ple k
O CARD
S CH
R otab
ur aties
Ġaf leiding
op a
ocyt openie
dec ompensatie
del ingen
Thromb osuctie
min ale
Post menopauzaal
MO L
Ġd raagt
Ġk ent
Ġvers malling
Ġpen icilline
Ġd reigende
Ġval vul
= <
Ġling ula
Ġcont our
ĠI HCA
Ã¶ r
Ġplus je
bot t
Ġrest stenose
T av
Ġre is
Ġu rosepsis
ĠGe sproken
arct atio
Ġten en
lopido gel
Ġben adruk
Ġoog dr
Ġalcohol abusus
ĠHO CM
gesch ikt
Af wijk
stim ated
las sen
L iezen
ond ing
ĠCon centrische
comp lextachycardie
Ġf ac
Ġro ok
c ellen
Ġv re
Ġvag aal
ĠSl uiten
Volg ens
le zen
C om
Ġontwikk eling
Ġescap eritme
ĠLok ale
EMAT OLOGIE
og nis
Ġ iter
ĠT F
be id
D an
Ġdriet al
uc asisch
Ġkw ant
S RS
ĠR ET
Ġdifferent iaal
Ġaf d
ĠAortaklep vervanging
inn ende
Ġparoxys me
ĠGerust stelling
Ġp uff
Ġdoor gestuurd
qu aat
int ensiteit
Ġfoc i
aneurys ma
x SD
Ġb arnidipine
ri ctie
gesch akeld
ĠInf erior
Ġpass eren
ĠD es
ĠN od
18 2
G em
N atief
leg ging
Ġpl ant
Ġbeh aald
Ġg rij
Ġintrac utaan
Geb eld
Ġlongembol ien
Ġaf ib
Ġob t
Ġradi us
et om
Ġge legd
ĠS U
ĠAan vankelijk
open ing
Ġf lebitis
ĠG T
wiss eld
d ale
ĠM K
zorg instelling
ĠInf ectie
w ervel
Ġf armacologische
up us
Ġverm oed
ĠNSAID s
ĠCol oscopie
Rotab late
HU LD
Ġpericard punctie
Ġ19 1
, ,
v reden
Ġop gesteld
Ġ= @
ablatie laesies
ĠStop moment
Ġbif asciculair
N ycturie
ĠGE EN
Ġap neu
ail le
Ġdochter s
Ġgem erkt
Ġbrad ycard
PL CX
m yocard
ĠVent rikel
disc itis
i pt
yst erectomie
Ġt aillering
ĠD d
ĠBel emmering
Ġcardi omegalie
entie le
Ġaf z
Ġvoorbere idingen
ĠOPNAM EN
Ġdyspno Ã¯sch
ang ineuze
Ġte k
s o
Ġlip itor
Ġhemip arese
AD IT
uro sis
ia e
Ġhem angi
Ġreage ert
ad issectie
ĠVol ledig
ern otomie
dra ai
F US
O stiaal
Ġpulmonaal druk
ch ant
Ġemotion ele
ys yndroom
Ġsc oot
ip arine
ĠD ie
Ġasy mmetrische
Ġp illen
ĠB la
be et
met rie
Ca ucasisch
k lasse
em erkt
Ġz et
Ġuitbreiden d
rec idief
Ġmargin al
K offie
ge maakte
Ġre minder
ne c
Ġneu rocranium
Kalium chloride
Ġspier klachten
Tra ct
belasting stest
L aad
J R
Ġin r
EN S
bi opten
ye em
ĠBi opt
Ġcon ve
Ġwand delen
Ġdoor lichting
ĠRv C
ĠC restor
ĠN L
ĠMO CX
ĠRechts drukken
Ġintake gesprek
oo ikoorts
ĠG al
h ernia
per im
ĠS AB
ĠK L
Ġvroe gt
Ġmilrin on
FUS IE
B ifurcatie
ied rank
verd acht
v re
os i
Ġcereb ellair
ĠN IET
Laad tijd
Ġleverfunctie stoornissen
ecidi verend
ĠFort ify
houden s
Ġrep air
Ġge opend
Ġge jaagd
ste un
later alen
Ġregurg itatie
Ġpr Ã©
ver wij
ic ryl
ĠIg M
ĠN itroglycerine
DIP INE
anim eerd
Ġbov endruk
Ġs ul
ĠP la
Ġverk eer
ĠVerwij de
onc oloog
Ġa ce
ub icine
B en
Ġb randen
Ġband gevoel
pd f
Ġkrachts verlies
Ġc ard
Ġaort ale
Ġp ogingen
Ġk o
Ġdys urie
ĠGest opt
I K
ĠZ egt
Ġdefici Ã«ntie
uw ingen
Ġplan e
Ġextre em
Ġf in
Ġrand ischemie
15 9
Ġan al
sl er
Ġten gevolge
ĠAng i
reumat oloog
ĠO ss
** **
l og
re sie
unn ing
ĠS oort
Ġ+ -
apar oscopische
Ġcollaps ing
ĠNov ember
Ġveil ig
aart al
de erd
Ġnee f
Ġsyst ole
ĠDec ember
it iden
ig uur
per ig
Ġgesp ec
Ġt olerantie
Ġperim embraneus
Ġline aire
Ġoog gel
c riteria
lopp y
Ġdifferent ial
Ġverpleeg huis
ĠRA P
Ġst ri
Ġdag boek
ĠER CP
Ġzwangerschaps wens
ĠD uurt
nam es
A dipositas
re a
Ġop starten
p iek
Ġm ogen
Ġst el
gel s
Ġd elt
ĠPO DB
Ġgew enste
Ġtechn ische
Ġdi gest
Ġdos eringen
Ġd ui
te chnicus
ma ak
My ocardial
ĠO rth
ĠIn stellingen
kun dig
Ġform ulieren
Vol ume
O og
el ft
Ġdan ken
over weeg
zw eten
ipol aire
P aced
ĠC ognis
Ġh r
dit is
V o
ĠVoor al
ĠM T
ĠA NA
ĠR ug
Ġin valider
Ġuit d
]) ;
ĠInt ake
best rijding
ebi volol
re end
36 62
] ([
Ġf aec
Ġbic ep
ĠRepol arisatie
o ie
form oterol
Di ff
Ġslik ken
Ġal lopurinol
Ġk las
Ġper fus
Ġint ubatie
ococ cen
c urve
Ġaut on
ĠL euk
Ġter rein
p ulmon
Ġp ees
over belasting
Ġdivert ikel
leg gen
kin etische
t rop
or derline
di um
Ġi mmer
Ġhartf ilmpje
Ġmedi ane
Ġv nl
cept a
Ġpuls atie
am ber
ĠF lecaÃ¯nide
ĠAf gesproken
ĠB rka
Sp oortje
Ġgefra ction
Ġn ut
EL AS
Ġge infect
Ġaange daan
Ġex per
Ġhem olyt
Ġsch omm
% ):
ĠI CMP
L oopt
ĠA ED
Ġstam cel
l id
mf yseem
Ġontslag recept
ĠBl ush
ir t
At ypische
Ġkleink inderen
ĠH VAD
L ast
hal f
37 1
D CM
15 2
Ġin gebracht
Ġuitste kende
ĠEet lust
Ġaan geven
lip id
Ġbegrens de
ab aline
Ġtox isch
Ġrat ec
Red elijk
ĠA de
ĠVerkal kte
Ġvertegen woordig
Ġher stellen
Ġgroe ve
ĠL SPV
Ġelekt rocardiogram
ĠD MII
Ġsh ow
Ġanders zins
ĠPlaat sen
Ġop leiding
is su
Ġbe schrijven
ĠIn cepta
Ġafge wisseld
Wat t
all y
cont ra
Complex iteit
Ġstap pen
van wege
kn ie
U W
o ikoorts
Ġ ator
oe men
Ġwor d
Vaat gebied
ge slacht
Ġp ump
ĠB LS
ĠZe ker
ĠFlow grade
etom acrogol
ĠD otter
ĠK P
ren aal
ur ine
eer ste
Ġre sist
Ġdis k
Ġp seudo
Ġ20 2
Ġb ier
re kkelijk
Ġsch roef
ruim te
) ):
ro ffen
Ġhiel p
ĠS ignificant
het icum
D oet
my oview
P laatsing
am ox
gep aste
chron e
ra Clip
Ġlinker as
Ġ029 3
Ġm antel
ol us
Ġzw ellingen
Myocardperfusie scan
ĠMobilis eert
leg ie
ĠF MS
Ġ ult
ĠHier mee
aort ale
Ġt al
am us
ot ide
Ġsupra spinatus
Ġrunn etje
Ġae quaal
Ġlater e
Ġpara valvulair
Ġw erking
ĠL anoxin
Ġhypo vol
b ril
shock s
+ +
b act
her senen
it ness
ver volg
LV F
ĠVO OR
ic or
Ġdun w
ĠHom ogeen
ĠSIM VASTATINE
ĠQuad ra
ĠB ase
els yndroom
ĠSec undaire
Ġhyd ro
ĠTijd elijk
Ġpalli atieve
pt opril
M RA
Ġklep prothese
ĠAan melden
over y
ĠElect rocardiogram
Ġtra stuzumab
Ġheup gewrichten
Ġbl oeden
ach irurg
Ġzuur branden
Ġontsteking s
ĠParox ys
Ġk efzol
Ġin gestuurd
Ġreumat oÃ¯de
ĠH uidige
nam ens
Ġknie en
Ġijzer gebrek
Ġox ycodon
il denafil
Ana est
ĠL v
Ġgeimpl anteerd
Ġwel kom
Ġverla ging
Ġn t
Ġs amens
Ver vanging
Ġablatie laesies
Ġhemor ro
ĠVer spreid
TA BLET
Ġe g
Ġcont usie
Ġvermoe ide
Ġcr yp
Ġzorgp ad
Ġdoord oseren
Thorax foto
ĠpatiÃ«nten portaal
Ġhuishoud elijk
il rin
par eerd
ĠVan middag
H CM
Ġbe oog
Ġgast ric
Ġvl otte
Ġul n
ĠAchter uitgang
lox apen
Ġsepar aat
Zie kenhuis
Ġinhal ator
Ġdigest ivus
V oeding
Ġ19 8
apt ive
erc lage
par athyre
al an
Ġan a
Ġhartklep pen
acetyl salicylzuur
ĠVer grote
Ġsinus aritmie
Ġtoe gankelijk
intest inale
ro geen
Ġon geluk
Ġkinder leeftijd
m orbiditeit
ul um
Anaest heticum
ĠH ist
oe mb
Ġob ductie
Ġpost ero
pp ort
Ġvertegenwoordig er
Ġgemen gde
Ġdi agn
to ch
Ġcontrast vloeistof
Ġverl oren
Q A
er oep
di x
Ġrepolarisatie stoornis
Ġspl it
Ġaf sluiting
ings stoornis
Ġbrachi alis
Ġhep ato
Ġlongitud inale
J aartal
on bekend
Ġop zet
Ġrecon structies
erk nie
Ġinade men
f ax
ul erend
LV IDd
ĠInf arct
Ġbre uk
voor lopig
Ġon bel
ĠV indt
hi lair
ine us
ĠO ude
ĠZorg instelling
Ġhart bewaking
B eg
ĠL N
ĠR OS
de fici
ĠHyp o
Ġherhaal de
L C
Ġklop pen
Ġstud y
Ġst orm
ĠMyocard infarct
Ġleuc o
e vent
al a
Ġst aar
alco hol
Ġneer slacht
ar ach
ĠF ysi
spre iding
Ġsim va
Ġper one
Ġpro vocatie
ĠHA EMATOLOGIE
Ġpre hydratie
Ġ ĠĊĊ
slip p
Ġre versal
Ġbehand elde
ver zadiging
Ġcoronair spasme
wek bare
Inter medi
ind weefsel
Ġnod ule
Ġmis match
Ġgere animeerd
ver sch
b il
ĠEp isode
Ġre valideren
ĠSt aande
Ġaantoon bare
VO D
or in
el ae
Ġkw art
Ġdu al
sh elft
s ymptomen
Ġstapeling s
ĠVan morgen
Ġj ul
erv atie
7 30
am anager
re mp
Ġrest shunt
Ġrecent elijk
C andesartan
in odulair
Radi oloog
z ou
Ġj unction
Ġhartteam bespreking
ĠSpont ane
ĠK en
Ġopge merkt
h racycline
F alse
Ġle vel
ĠIN T
omet rietest
Ġtijd stip
Ver zoek
Ġpar adox
Ġad renaline
Ġgl omer
Col laps
Ġdiscre p
T o
ĠArt rose
Ġloslaat pijn
ĠM ST
Ġmin ste
rof ur
vor ens
Ġt ol
gen erator
Ġbel emmerd
p ing
ĠB ed
ĠVervolg afspraak
Ġsoc iaal
Ġpsychi atrie
ĠRe search
Ġtricuspid aal
M C
de f
ĠMET OPROLOL
Dat amanager
ot ie
Ġged uurd
u ffle
Ġnier stenen
Ġwe ked
Ġ19 7
En kel
Per sisterend
Ġper sen
ĠCoronair en
Ġhyperthyre oÃ¯die
Ġopge slagen
ĠAug ustus
S inustachycardie
ĠB ra
ell ose
Ar m
Ġz k
Ġlamine ctomie
omet rainer
oesofag itis
tak ken
sign aal
Ġaan meldformulier
ase erd
Ġventrikel septum
Ġgesc reend
ĠR SPV
Ġget rouwd
Ġtib ia
ĠC EA
Ġcoronair arterie
ĠSla ap
Ġd gs
ĠPositie ve
ol i
ĠGe Ã«
Ġvoort zetten
Ġaortak unstklep
int olerantie
Ġcontrast toediening
Ġb yp
ĠL eft
ost enose
ĠX thorax
Ġex ces
Ġhyper g
Ġhal lux
Ġaxil laire
ch ronische
ĠDegen eratief
Ġcef uroxim
Ġinhom ogene
ie ctasie
PER FUSIE
act e
Ġguid eliner
P le
Ġwaar uit
ille spees
Ġcip roxin
kopp eling
Ġsamens praak
ast isch
Ġret ina
Ġuitge bl
Ġh ab
Ġca es
Ġsyn ergy
Z uurgraad
Ġdi p
ific eren
Holter onderzoek
o ensdag
v ond
Ġgesp leten
Ġleaf let
Ġ ĉĉĉ
Ġdi eren
Ġal geheel
PC WP
Ġpleura al
Ġopbouw en
ĠWerk diagnose
ĠV W
ĠPijn klachten
K rijgt
feb rie
T iotropium
Ġnec rose
ĠD O
carb onaat
Ip ratropium
Ġde ed
st erkte
ĠC olon
A mb
10 50
re edt
P lavix
ĠM CS
V ztb
v lak
Ġ9 00
Ġurineweginfectie s
Ġ4 20
Linker ventrikel
b urg
Ġou deren
zonder ing
Ġonc oloog
Ġdex amethason
Ġa ardig
ĠA sp
Ġst ee
Ġtripl etten
Ġ ĉĉ
Ġc ount
Ġpercut oir
f em
Ġang iod
ĠGen etisch
Ġbest eed
ap ro
met h
Ġiat rogene
OCARD PERFUSIE
O LVG
radi alis
ĠSept ember
Ġp ylori
Ġm ont
Ġo t
Ġgel dig
b it
art efact
Ġvooraf gaande
Ġost ia
ĠOb esitas
r elevante
Ġb Ã¨t
Ġp ut
gest opt
Ġhypotensie f
mob iel
ĠNS CLC
Ġtend initis
Ġdrager schap
Ġ20 4
ĠA g
ĠK w
Ġpyel onefritis
ĠD ig
Ġa ir
Ġbed rijfs
7 50
Ġtijd je
Ġblij vend
ĠAdmin istratief
ma urosis
St reef
ĠCH AD
f istel
ro s
Ġver ificatie
ĠHart ritmestoornissen
o sp
u il
ings vertraging
i end
cont roles
ĠC W
art raat
ens w
N RS
IN DO
ĠA dd
Ġribben boog
m of
Ġech orijk
f ase
s ouffle
ch ine
Ġpijn poli
Ġint rath
Ġjournaal informatie
Ġresult aten
Ġhyp odense
Ġnov orapid
Ġenerg iek
Ġd yps
Ġaange zet
M P
ĠSp ier
ĠOnt lasting
dro men
Ġbero erd
Ġheu pen
Ġover gaat
CI NA
Ġdu ale
0 25
Ech ografisch
heel kunde
Ġbetre kking
6 10
P SA
Ġantwoorden velop
ĠSp iral
Ġh oort
ĠProxim al
E chter
15 3
ri lob
ĠProp ofol
CINA AT
Ġhartf req
Ġsysteem kamer
Ġstij gend
ĠX ience
Ġbio chemisch
ĠG oretex
opath y
ĠTH ORAX
Ġbru ist
yd rink
nod ale
ri end
jectie ve
or azepam
ĠAF lutter
Ġgen oemde
Ġarth rose
Uiter lijke
18 3
ĠSy mmetrisch
CH OP
MA H
Ġobject iveren
19 79
ĠCont inueren
Ġver y
IS I
Ġklein ere
Ġsouff el
F B
Ġc oec
ant i
kk amer
Ġm U
te kort
ĠSt imulatiedrempel
Ġart hritis
Ġgewrichtsspleet versmalling
ĠM ictie
Ġma p
Int erventie
Ġhyperkal iemie
uit val
C lopidogel
M aandag
ip roke
Ġgevol gen
az ig
Ġparoxis men
MAH RAZ
oor te
ic c
ĠW acht
Ġp neu
F e
f ollow
M rt
ĠOn veranderde
Ġv est
Ġ4 40
clude erd
r ho
Al endroninezuur
ĠBP H
Ġge meld
o ing
xtra ctie
b ruik
Ġv iew
ĠE CLS
ĠPol y
Ġsubc ostale
Ġwet ensch
Ġo gv
all uc
ĠH CL
ten se
ĠH al
Ġrec overy
ĠSc rew
to ont
Ġsnel ste
it onitis
Ġver g
Co A
Ġrot ablatie
ulator ius
Ġal weer
pro x
Ġbenader d
ĠSp ondyl
cor d
Ġtroponine stijging
ont slag
Ġback up
ir en
ĠLD A
Ġs ur
Ġvast zittend
erosept ale
G eeft
v c
y ma
ĠK reeg
B a
ĠV TI
Ġ20 6
Aan gepaste
LO OR
ĠAf lutter
ie pectomie
Ġver se
Ġsh uffle
Ġc el
pp rik
Ġt rem
b oezemfibrilleren
Ġboven pool
ĠTwe emaal
Ġherbe spreken
T ricuspidalisklep
ar ed
Ġgev or
Ġklep functie
cont rast
E G
/ /
a zep
ĠTwe etal
ĉ Ġ
ĠM ilt
res ultaat
Ġhal dol
Ġpol ige
19 75
ĠEn ig
h ij
St olling
ĠL iggend
ĠMe chan
Ġk ruis
Ġactiviteits stapeling
Ġmaal tijd
ĠEer dere
urin ame
Ġq rs
Ġoverweg end
K lep
Ġcardi ogenetica
erken bare
ĠMid dels
Ġbruist ablet
wijz er
ĠPijn score
Ġsuper fici
ĠRadi alis
a chtend
D en
Ġverst re
Ġwervelcor pora
Ġequ ivalent
ĠGro tendeels
Ġretro spect
Ġrest erende
ĠOM EPRAZOL
ĠAH F
syn chronie
M ilde
ar min
ĠNov o
Van ochtend
I CE
RO X
ĠFra ai
alco aptatie
u ptuur
itter sma
ĠSpecialist enbrief
iere spons
ĠVen euze
Ġhersen bloeding
en il
Ġw en
Ġex c
Ġgep acet
houd ing
ĠSup raventriculaire
s lecht
re vascularisatie
Ġaort adissectie
ĠTn T
ĠDermat ologie
ĠM DS
ĠR ect
ĠACETYLSAL ICYLZUUR
ĠHier door
Ġinstroom variatie
Ġst ekend
Ġch l
o uren
Ġhem oglobine
Ġdiastol ic
RES S
Ġnoem ensw
ĠA antal
Ġk riebelhoest
Ġra ar
Ġre fract
Ġma ak
Ġdu ct
Ġobl ique
Ġenerg ydrink
Per icard
Ġonrust ige
ĠdÃ© ffort
Ġcardioth oracale
s stoornissen
ĠH r
Ġventrikel hypertrofie
ĠLDL chol
mpel la
Ã¯n urie
Ġbev onden
rocardi aal
Ġulc era
Hals ven
ur end
Ġf older
Pol ikliniek
vl ie
ien e
toen ame
Mee ste
ĠH IS
ĠOptis ure
c opie
ro duc
ense erde
Ġbrachi oc
ĠRegel matig
ro os
Ġman ifest
ĠM PS
ĠK C
ĠCont rol
Ġonver kla
ĠG radient
lipid aemie
Ġf ie
Ġbe vallen
Car otiden
ĠG I
Ġsubt iele
Ġna vel
Ġmon ocedocard
ĠCarb omedics
S erie
Ġ( ~
Ġz om
ĠFeb ruari
at raject
Ġe ut
Ġgesch rokken
ĠSup ervisie
B ic
st raling
Ġgal steen
Ġen quÃªte
t av
ĠAan gegeven
Ġstij gende
Ġcon centratie
Ġw ig
t x
OM T
ĠH K
vol ledig
Ġ56 00
ĠDiast olisch
Ġwed ge
en derende
Ġmo vic
g ar
of age
Dec ubitus
p g
sie l
auwd heid
Ġmeth otrexaat
Ġgee valueerd
Ġo mg
ag ulatie
ĠP ath
get rokken
Ġin houd
Ġbdz s
Ġant erolaterale
Ver wijsbrief
ELAS TIN
ĠHart kliniek
Ġn tg
ĉĊÂł ĉĊÂłĉ
K unt
Ġp H
Waar schijnlijk
A ort
al le
ĠGe scand
ter ug
PL R
Cardi o
ith ium
Ġbesl issing
FOR MINE
con ditionering
Ġab ber
Ġver kle
gel aten
Ġmeet waardes
W L
Ġlever chemie
Opname gegevens
ĠOnd uidelijk
ĠKl ik
kanaal stenose
d uizeligheid
osf ol
B ELASTIN
Ġm onit
Ġtre edt
f requent
Ġre cepten
Ġpri kkeling
or dil
Ġon geval
ĠPSA X
Ġd y
Ġbloed transfusie
ĠWij de
Glucose Glucose
Ġinf erolaterale
Ġidi opathische
ast ma
Retour datum
T irofiban
Nierfunctie s
N umber
ĠBen igne
ĠS amen
ĠGe gevens
Ġsh o
Ġep id
Ġcardiot oxische
Ġp ub
P a
ĠMit raClip
I vm
Ġ19 9
Z K
Ġh b
Ġ( (
ul atuur
col ecalciferol
de mie
ĠgeÃ« valueerd
Ġl imit
onder d
de gen
ĠRe cht
per ifeer
on um
C BR
Ġ7 122
Ġatheros clerotisch
ater ialen
Ġmamma e
Ġmax illaris
inu x
Ġst emming
Ġ(% ),
p ende
ĠL R
ĠPOL S
W oonplaats
oplas ma
Di urese
iri de
approp riate
Ġneerslacht ig
te vens
19 76
Sec ond
m ac
ER G
g lucose
vis ueel
P FO
atri Ã«mie
Ġvergelijk en
ĠF requent
Ġmac ula
Ġbem oe
M en
ĠD is
Ġsil denafil
Ġbij ge
Ġblijven de
Ġmargin alis
Ġk aart
Ġvoor grond
A I
in digen
Ġp rograft
Ġtek st
ot ope
Ġinter ventriculaire
Ġafge plat
Ġoverge gaan
ct omy
Ġge hand
Ġvullings status
Ġappen dicitis
Ġcoron ary
ĠLM NA
Ġbesch ouwen
Ġport ale
Ver hoogde
ompl ete
ĠRef lux
ĠK oolzuurspanning
Ġsc reenend
ĠIC R
spir atoire
Ġhyperdynam ische
S traat
e h
Ġscherp e
Ġk ost
Ġcerv icaal
arco idose
ĠZuurstof spanning
al meterol
Ġc ompli
it alis
Ġmy opathie
su daat
Ġman ier
Ġcoeli acus
nec rose
Ġgep re
Ġm orbus
ĠT P
Ġbl ijken
Ġpri m
Ġbrief je
rom ellose
Ġon afhankelijk
Ġac quired
ĠIN J
al at
of lebitis
Ġep istaxis
Ġspann ingen
ĠL yme
Ġmovic olon
ĠT est
ose ph
ĠNog maals
ĠT s
eloos heid
Ġhoe k
Ġdomin ante
! ).
ĠN R
umf ractuur
Ġonderhouds dosering
MY OCARDPERFUSIE
amox ifen
N H
ĠO u
sp ieren
be oordeeld
Ġtra ct
Ġser ies
ĠA dipositas
ĠS ens
ĠG ing
ĠBI J
Ġstres stest
Ġmut aties
ĠCar vedilol
pri k
Ġappl icatie
oseph son
Ġhuis houden
Be ide
Ġhuid afwijkingen
.|| |
Ġb ili
Ġaan sluiting
Ġmamm ografie
Ġcat egorie
el ende
Ġzorgp as
oemb olische
ĠH igh
Ġgisteren avond
B U
Ġble ven
abdomin ale
h oc
Ġ20 8
ĠV ital
ĠT ricuspidalisklep
Ġpneum on
Ġintens ive
and oz
ĠC an
to ber
Ġverna uwingen
b allon
ĠST J
Ġte va
if eratieve
iz ing
ĠAfwijk ende
Ġcostomy algeen
Ġcontrastaan bod
onair lijden
Ġshunt ing
ĠDeel name
Ġmitralisklep vervanging
ĠKort ademigheid
pulmonaalvenen antrumisolatie
p il
Ġex centrisch
Ġbal ie
Ġboven kwadrant
ĠCont inu
Ġverk orte
Parox ismaal
Ġbacteri Ã«mie
af en
Ġintern ets
f lecainide
Ġnerv us
Ġinternets ite
C lassificatie
ĠC Z
Ġritme st
D osis
ĠV AN
Verwijz ende
ĠUp grade
ok tober
ime p
OR VASTATINE
CT C
p ulsen
Ġver slagen
ont rouw
gele verd
Ġaneurysma vorming
Ac ute
az osine
Ġinc identeel
oort alidon
pra vastatine
Ġrust en
F ib
art iculaire
Ġnier schade
Ġspondylo dese
Ġtaalbarri ere
op elijk
ĠH or
lop ige
Pro ble
pre dnisolon
C ode
Ang ina
Ġerosie s
Ġan aemie
ĠMamm acarcinoom
B iotronik
g aten
re kte
os oc
Ġweked elen
Ġd iclofenac
oor den
ĠM itralis
min i
a ale
Ġhab itus
Ġin schatting
us sie
Ġachter halen
ĠMoe heid
Ġdoor gankelijke
Ġgewichts reductie
Trans septale
ij dige
Ġb indweefsel
Ġh aak
it ril
ĠD own
Ġboezem tachycardie
erv atieve
Ġtri f
ies o
Ġcon vert
vis ite
Is osorbidedinitraat
Diagnost ische
o oi
ac iclovir
Ġvert raagde
Ġcir kel
Ġh ometrainer
Ġauton ome
imep iride
Ġaf gebroken
Ġpneum onitis
Ġdig itaal
or ubicine
dig oxine
Ġerf elijke
Ger ust
Ġ20 3
ren ale
ĠCor darone
ĠStent s
AANVULLEN D
ĠIn itieel
Ġslaapap neu
Ġdrukop wekbaar
Ġexces sief
2 19
Ġl et
Ġl ytische
Ġer ysipelas
.|| <
Ġwortel compressie
ens us
ur t
ub itril
E chtgen
O ste
a N
ijst en
) ?:
Ġmen stru
Ġgebeur t
it idine
t amponade
Ġuit gaande
Ġcol la
vat scor
ĠM ON
EE KEN
ĠIsch aemische
Ge durende
ne sie
Ã« ctomie
els el
Ġwa it
Ġal vorens
al bumine
opt im
Ġz ending
ĠO W
ĠFunctie onderzoeken
2 30
Dub ois
Ver minderde
Ġelekt rol
VA S
J K
An ders
Ġvererg erd
Ġl arynx
Ġantibiot ic
ruim en
ĠDub ois
ar a
Ġpro dromen
ĠAortaklep stenose
Ġcolon carcinoom
Ġamylo Ã¯dose
sth erapie
ĠPiek stroomsnelheid
Ġclin damycine
V orige
v oelt
Ġs eg
iectasie en
inf iltratie
Ġbuitenland s
ĠE SC
ĠRe validatie
Ġperif erie
pe ak
My oview
z us
Ġbe weeg
ne ct
Ġrechtsdruk meting
Ġch ond
Ġbradycardie en
ĠCons ol
zie kenhuis
i amine
Ġsupra c
Number s
Ġdoor meten
Ġfer inject
O ktober
u ard
ĠS RS
Ġhartbon zen
ff er
ente se
Ġgaan de
Ġont sp
Ġop gel
Ġpuf je
ĠJ F
ĠSB E
Ġant e
Ġhemorrag ie
ĠH IX
Ġfer rofumaraat
gev uld
Ġile ostoma
f e
ĠAR B
e ve
ĠS DS
Ġvest ib
Ġv Ã³Ã³r
ĠBarret t
e kkamer
Ġrest afwijking
Ġwond controle
lo stri
Ġscho ol
ĠRem ote
Ġhyper parathyre
w erkt
Ġverward heid
k alium
ĠVan avond
ĠPri maire
B icuspide
h ouder
ĠSte atosis
Ġlaag lumb
g rad
ĠD EEL
Ġgynaec oloog
Ġpro minent
Ġ69 47
Ġf les
ĠRe versib
ĠGeleid ingsvertraging
igm oid
Ġrec iproke
Ġrest letsel
Ġinst abiel
ĠM ixed
Ġtest is
h l
k elijke
w ave
Ġdrie maal
Ġpancreas kop
Ġd c
ru ijsten
ĠCardi ac
H opende
Ġru is
Ġhypox emie
ch ond
Ġbij starten
ĠLV f
ĠF req
Ġmo del
Ġwarm te
p as
z in
Ġge int
Ġbelast en
con figuratie
der ig
Ġna chten
Ġbehoor lijk
m usc
Ġ Âł
Ġover slaan
Ġlever proef
F lu
ĠC ervicale
cav atum
R isk
ĠnsVT s
di stri
Ge zond
Ġonder nemen
iet rouw
es is
Ġreumat oide
ĠPart ner
S y
er on
rofur anto
Ġper itoneaal
ow ieso
Ġdox ycycline
Ġscl erodermie
Ġb axter
ĠM VA
Ġ20 7
ĠAF ib
ĠSp eed
Ġmen ingeoom
rom be
Ġm alcoaptatie
ĠAf ge
Ġflutter ablatie
Ġmechan isme
Ġ2 12
ĠAl lerg
Ġflauw vallen
Ġsym pt
v orige
ĠN J
M onitor
spre kken
Ġlever vene
Ġha emat
do chter
ĠTwee de
ger de
Ġopt itreren
ĠK Cl
ĠMediastin um
gev ende
ret ar
Ġsterie le
ĠD uidelijk
Ġwaar aan
Ġlip oom
ist hesis
14 9
angrijk ste
Ġdraaid uizeligheid
Ġbeoog de
Ġsl ot
Ġgevoel ige
ĠDubie us
D eel
er te
ĠT G
Ġvisu aliseren
On voldoende
ĠBP PD
Ġiedere en
ĠProble men
ĠH i
ĠChol ec
Ġbloed gas
I UM
p an
ĠLV ES
ost ratificatie
14 7
TH I
ĠPM R
ocri ene
Ġreanim eren
in at
Ġbuis maag
s matig
ik ken
wiss eling
D yspneu
Ġelect rocardiogram
ĠM orbus
Ġ19 91
ro otte
ond apar
Ġlever parenchym
Ġcoec um
hoe sten
ĠNa Bic
Ġdarm lissen
ĠTrans septale
ĠHyp othyreoidie
Ġv es
om osynthese
Ġpol iklin
odig d
H ulp
ro pen
Ġmobilis eert
D ist
Ġbe adem
Ġijzer gebreksanemie
ĠPassag ere
Ġcardioth oracaal
Ġsequ elae
ic ip
ĠP seud
ĠĠĠ ĠĊ
actie f
ĠR ij
be kken
Ġmass age
tre kken
Ġd armen
la zen
Ġk issing
ol ven
Ġonder beens
Ġba ffle
Ġgen oemd
Ġgep last
Ġallergie Ã«n
erc an
Ġult ra
M o
O D
Ġc erclage
ct er
ir olimus
Ġaf dekken
all erg
Y C
on or
ĠL ucht
Ġgezondheid stoestand
Ġwervelin zakkingen
H odgkin
st imulatie
Ġzitten de
pati ente
distri butie
ĠTra plopen
roeg de
Ġsch ors
Ġgeprogramm eerd
Ġsub pectoraal
RS A
ĠIg A
Ġsubac rom
Ġherover wegen
h aal
ĠB reed
Ġcirc ulatorius
ĠFer riprieve
Ġontregel ing
Contact persoon
Ġt ramadol
as ale
Ġmult idisciplinair
ĠAK I
Ġduoden i
Ġk yf
ĠR a
Ġextrem iteits
otoxic ose
ĠMedic ijnen
as h
ĠLok aal
Ġp ac
ĠV U
ce ctomie
Ġcardiop ulmonaal
Ġex cavatum
Ġafge d
lostri dium
rombe ctomy
Ġver pleging
nef roloog
Ġkal m
Ġcoarct atie
of en
geschat te
ART SEN
Ġinsert ie
c x
Ġtri fasciculair
Ġ3 80
Vervolg ens
gradi Ã«nt
Ġcla ustrofobie
AT ER
ĠGe calcificeerde
Ġgeind uceerd
cap sule
Ġgehand ha
h ulp
ĠP rin
Ġpot ent
I CHT
S CT
v elden
ĠKlachten vrij
ondapar inux
iv o
ĠAdv isory
org rootte
cereb rum
Ġt w
ĠM isselijk
Ġaut ologe
Ġbif asische
i an
DRO CH
ĠVlak ke
uit schema
w arm
Ġm emor
ĠMogelijk e
En ige
pre dnison
Ġbehoe ve
Ġlux erend
Ġaf loop
retar esse
t rek
ĠP ower
Ġwan kel
sche iden
Ġspre ekkamer
LO DIPINE
Ġtran sc
ĠZ at
Ġoverp acen
ĠDr inkt
ĠGe elongeerde
Ġmyel um
ĠDaar voor
Ġnier insuff
ĠEcho geleide
ament euze
Ġper iod
Ġmeth yl
Nef roprotectie
ont gen
m IU
radi al
I AS
ra y
iet est
orf ine
Ġhypovol emie
Ġsegment ele
Wacht tijd
ronch iale
ietserg ometrietest
Ġtib ialis
w kn
ĠSubc lavia
Ġbescherm ing
ver denking
ĠF ocale
Ġlid ocaine
Ġvermeld t
ĠVer gelijk
ĠVan uit
Ġgelok aliseerd
Ġw azig
Ġnier steen
Ġverbeter t
lot nummer
Ġs ense
ĠCon versie
Ġbet abl
Ġhad den
ĠAng st
Ġgefraction eerde
ĠS zymanski
Ġhyper plasie
Ġmult iv
e ch
ĠC E
id t
Ġmedi o
IV S
a ze
ĠGe adviseerd
Ġinf ra
ĠHer sen
Ġwij zen
Al tern
S I
Ġr v
Ġecho dense
ĠLaboratorium onderzoek
Ġverna uwd
extra ctie
ĠO st
od iek
ĠVital ity
Ġher e
ĠCABG x
uro score
Ġoste openie
ĠSy ndroom
SU C
- ....
Be clometason
oth yroxine
Ġbesch adiging
Ġv g
ap e
sp eed
Reg uliere
ĠPresent eert
Ġinm onding
h t
Ġdi ens
rilob ulair
M aterialen
Ġb uren
roe i
iber icht
bet rouw
Ġlinker bovenkwab
jmal ine
O nd
ic obacter
ĠB D
cor ding
el laire
Ġtransplant aat
azep ine
Ġpol ibericht
druk t
ĠE d
Ġl ife
Ġhel ft
Ġsuperfici alis
SUC CINAAT
ET R
ĠRVOT O
Ġrespir atoir
ĠF lu
ip p
Ġre do
Th yrax
ĠBel angrijke
Ġbiomar kers
Ġrest letsels
EP AM
ĠIrreg ulair
ber end
Th ans
Ġpro duct
Ġbi opsie
t elefonisch
E W
Ġbe vat
ĠD yslipidemie
Ġopname formulier
Ġsu dden
ĠAV D
Ġbesch ouw
ĠA cc
19 70
erg iedrank
ĠRA AS
Ġlongnod uli
ĠOOG DR
Ġm ri
B eroep
N Y
te kende
Op vall
osfol ipiden
oc ol
ĠG J
K efzol
n b
ma jor
ĠDCM P
ĠPulmonaal venen
ĠZ onder
femor aal
Ġcerv ix
Ġgel uid
Ġsm alc
ĠDiverticul ose
Ġpub is
ĠD B
Mee gegeven
n atrium
Ġsc reen
Ġmonit oren
af gaand
ĠOperatie gegevens
ot ype
In formatie
maat regelen
le ss
Ġwissel t
Ġdur ation
M an
c Gycm
Al le
Ġonschul dige
ĠS ug
Function eel
Ġslag volume
s uccesvolle
Ġre cessus
ide m
tijd elijk
Ġverz uring
Ġtel kens
f a
Ġl upus
ĠGe achte
]: .
pri kkeling
Ġoppervla kkige
Ġspondylo discitis
LE CALCI
Ġsch ok
ĠIn suline
Ġant erieur
Ġgeob serv
Ġmarg inale
P ower
ĠGe voel
Ġs inust
Ġinter ferentie
Ġhemat omen
Ġlig ament
Ġmast oÃ¯d
b isoprolol
ĠHart slag
T rop
ĠE M
ĠEn alapril
Ao I
P Y
atri umflutter
Ġeffect en
L antus
ĠC y
Ġsl iding
Ġcompet itieve
LECALCI F
' )
Ġkan ker
mer egistratie
Ġbeh oud
och ond
ĠCol ecalciferol
Ġslu iering
un g
ĠTra ge
asse s
Ġc utane
Ġna delen
emm ings
RAN K
c ran
Ġdimensie loze
lijk se
ver k
ĠD un
Met ingen
cl it
mass age
icon azol
Ġsc oop
Ġder gelijke
cre me
Ġgrie perig
Ġpseud onorm
LV EDD
ĠFiet sen
vas ale
Ġpret tig
neem baar
ĠA ss
app a
se cho
Verwij deren
Ġfin anc
ĠV AC
Ġverst uren
alluc inaties
en alapril
Ġext r
ĠGra c
Ġgehandha afd
m ult
ĠD RANK
ĠPra vastatine
Ġb aan
Ġ9 80
Ġimmob ilisatie
Ġm eng
ap te
ĠFamilie anamnese
Ġn oradrenaline
M on
le ijk
L CA
b ri
op d
ot rans
Ġmin i
Ġuro the
Ġca pture
l ymf
re erde
Ġeen vatslijden
Ġcav o
no oit
Ġhuid uitslag
Ġstof afwijkingen
Ġmoeheid sklachten
L GE
ĠH eb
acht ige
Ġpersist eert
Ġb ut
ĠE MV
Ġweg ge
ĠC orgrootte
ar ry
Ġon geschikt
Ġuitp lassen
Ġaorta dimensies
LU C
Ġbloedverdunn er
Ġhooggradi ge
Ġf ossa
groe ve
ĠV lotte
ĠG rie
Pol icontrole
Ap icaal
Ġi buprofen
ym etrie
Door lichtings
Ġop heffen
ĠD IP
ĠN ET
ĠSt re
V scan
Ġregel s
ĠAngi ografisch
P RIL
Ġde conditionering
ĠDatalin Q
Ġbeklemm end
clit axel
he em
eri al
ensch appen
ĠV roe
Ġcardi omy
15 1
Ġorthop edie
keur d
in derd
ase d
ĠI U
E stimated
ĠT acrolimus
ĠL aparoscopische
ĠW isselend
Ġ. .
Ġblok kade
Ġver laten
Ġbe zoeken
IE N
Ġantrum isolatie
Ġlucht wegen
Ġaanget roffen
ĠKRE A
Halsven endruk
egen er
erp es
Ġindi vid
Ġover al
ip v
Ġstern aal
Ġf ixatie
Ġper ib
19 77
Ġdoorge gaan
iclo sporine
t roponine
ar r
ĠAnt i
Ġecho dens
verm oedelijk
Ġsonde voeding
p antozol
Ġver toont
ter min
Ġsymptomat ologie
Ele ctieve
Ġleveren zymen
Ġhuishoud elijke
ssss ssss
Ġg olf
S l
Ġl ight
Ġj assen
Ġradic aal
Ġhem ib
Ġklepinsufficientie s
Ċ ĉ
ĠW egra
album inurie
h angen
ĠF in
kopp eld
oca Ã¯ne
RA Y
Ġretro sternale
Ġinterst itiele
Ġ il
Ġstent implantatie
Ġmilrin one
ver werking
O ost
ie ert
Ġb ouw
Over weeg
Ġblokker s
Ġb ody
ĠHem ostase
Ġopge haald
Ġl ukken
Ġmic roc
besch reven
Ġdiffusie stoornis
Ġpiep end
Ġt ica
Ġvoor gesteld
Ġstenos eringen
Ġra den
?? ?
ang itis
ring t
T ensie
p oort
IV US
Ġcollab erende
ĠSP AP
ĠCK max
ĠNeur oloog
M ag
ĠP omp
Ġgeb it
Ġbez inking
Ġrh initis
Ġecho geleide
Ġlapar otomie
Ġd a
Ġp us
ĠX perim
> ,
be ste
yla se
ĠHoofd pijn
ĠL isinopril
Medic ation
Ġafkomst ig
Ġcycl ofosfamide
ge f
iat a
er ative
ĠVer betering
Ġbl ijk
ĠVervolg consult
ĠE inde
Ġbur n
0 35
or del
ĠG l
Ġho oikoorts
O CO
or ro
ic ardiale
yl ococcus
Ġsh ift
as ymptomatisch
Ġpatient s
Ġlevens bed
Ġw oorden
agn orm
Ġbla d
Ġzeker e
Ġmont hs
e v
Ġer ectie
ĠVer sterkte
Ġsy mp
kle ding
Ġbreed complextachycardie
in ase
op ressie
imus ritme
ĠGeri ater
asse erd
ac ute
Ġwaarsch uwen
ĠCar otis
T acrolimus
Ġaf st
Ġbew aking
D ob
Ġa der
Ġsignaal intensiteit
nov ember
dra ger
mat isch
Ġvoorkom ing
my ocarditis
Ġker nen
ĠSC N
Ġth ym
Ġhorm onale
ĠQU AD
ĠMF L
ĠHt x
l atie
ast ische
ss o
M ictie
w ay
Ġlast ige
iliac aal
or ing
Ġax onale
sp lastiek
ĠMedi um
st elsel
resent eerd
Ġinspann end
Ġ2 16
Ġlaaggradi ge
Ġaftak king
% -
ral gie
Ġd rog
id azol
LECALCIF EROL
ĠMic rocytaire
DROCH LOOR
ue us
Ġmicro voltages
B roer
Ġb us
Ġart rotische
AV NRT
Ġm embraan
ĠT ekenen
Ġj ets
Ġur eth
ĠIsch emisch
Ġb ac
Ġhier onder
Ġdraa ien
ĠC ox
zaam heid
ĠTiet ge
Ġt im
Ġk iezen
CA S
ter us
K Z
ĠC ellcept
sc atheterisatie
Ġga af
atten uatie
THI AZ
Ġst ok
ĠS BC
ĠNe venbevinding
hy g
raren aal
% );
ĠZ elden
t a
ĠF em
ĠMET FORMINE
Ġer ytrocyten
Atriumf lutter
ro scopie
Ġherhaald elijk
hor end
Ġant agel
ĠD et
ou le
resp onder
ĠDiagnost iek
ro op
Ġkn ij
Ġthorac otomie
Ġonder b
Ġuitle zing
Ġs an
Ġdieren arts
Ġl im
ab e
Ġlog ist
Ġp vc
ap se
Ġgen er
E valuatie
Ġth rombectomy
Ġple uritis
BS A
Ġoppervla kte
ron idazol
Ġcereb ell
Ġregist raties
DROCHLOOR THIAZ
jan uari
ĠP igtail
Bloed afname
Ġ06 93
Ġechocardi ografische
af stand
Ġperc utaan
Ġ774 2
Ġneus gaten
ĠQu a
w ise
Ġmo oie
ZIE K
ĠMAP CA
s ens
Gl iclazide
Ġa uscult
te x
ĠRes on
ig er
Ġend ocrinologie
Per c
h uwd
Ã«nt ies
ISI CO
um achirurg
Ġinhalatie capsule
Ġver groting
ĠD issectie
ĠB OB
ĠW ardeh
# ,
ĠC ereb
ĠC eftriaxon
Ġj osephson
degen eratie
Ġth yro
LA N
Ġchec klist
h anden
ĠT ypische
6 25
om ast
OS E
Moe izame
Ġadv isory
R eeds
D er
O OR
ĠR ecidiverend
Ġaf asie
Ġat ropine
m ateriaal
Ġhart contour
Ġ20 9
erk ant
com mon
ĠEigen lijk
L ijnen
Meth odiek
w oon
at ypische
Ġkeel pijn
ru e
OR E
Ġar beid
RO M
ĠGeÃ« longeerde
m oet
la mp
ĠE V
ric a
ĠAtri aal
Ġchec ken
oc etirizine
Ġren alis
Ġse quentie
pol iepen
opp ervlak
Ġemfys emateuze
Ġde pletie
zonder e
oes ofage
Ġaberr ant
Kle ine
Ġverwijz end
Ġstim ulerend
otrans ferase
v abradine
CT OR
ĠAmplat zer
Ġk onden
ak inesie
Ġplaats elijke
ĠPerc utane
ĠV OL
Ġcarb asalaatcalcium
R D
m od
Ġnot itie
armin dex
Ġnacht zweten
rs iro
amin otransferase
sch appelijk
ĠAl tijd
gast ritis
b undel
al d
Ġjuist e
s ich
Ġgeassoc ieerd
Ġrechter arm
io en
Ġzol ang
di ff
on odig
Ge sloten
comp actie
clu deren
rof or
Ġbul b
Ġgespec ificeerd
ĠP ruijsten
ose al
ĠSt atine
ĠAT ORVASTATINE
los artan
Ġgeobjectiv eerde
Ġbl oeder
== >
ĠInt ensive
Ġintra vasale
uw elijks
lijk heid
Ġrest verschijnselen
Ġcontrast uit
En ergiedrank
st ra
oede men
Ġme vr
Ġvalg us
Ġparac ardiaal
p oeder
Ġt ijdig
Ġw inter
afen on
D NA
Ġd rop
Ġpreventie f
Ġzod an
Ġversn elling
Ġw eb
ec ut
Ġsch at
pp e
Ġgesch eiden
m eren
ĠR ittersma
Ġre distributie
Ġsp oedeisende
Ġapic oseptaal
Ġcholec ystolithiasis
ĠAmb ulance
t emperatuur
Ġst omp
Ġb erg
Ġover eind
ed P
vis u
ĠAmpl ia
Ġverv etting
Ġaxil la
R DA
uc er
Ġl uid
ĠOver all
Ġ4 60
dien en
PatiÃ«nt gegevens
Ġvoet bal
ĠV VF
Ġvast houdt
P P
ĠM ID
chter ew
Ġsport arts
f enprocoumon
Ġ !!
ĠOp genomen
Ġwe kken
ER I
Ġadvis eer
MV P
Ġmonom orf
Ġepilept isch
Ġp radaxa
ur ity
Ġi RBTB
Ġob jectiv
Ġverz w
Nov ember
Ġconf lu
Ġal g
Ġ' [
Ġdef ecatie
mis artan
ic alis
ĠI OM
% :
H E
d rank
ĠC NS
Ġa ios
Ġla p
Ġvit aliteit
Ġs imusritme
Ġhyd rocortison
Ġvag inaal
Ġcons ervatieve
ĠPri or
Ġontregel de
ĠC G
Ġheel kunde
ĠAug mentin
Ġsterie l
Intermedi ate
D rain
Ġaan vulling
Ġho of
ĠPost operatieve
ste in
hou et
Ġtox iciteit
orat adine
Ġn ons
il ine
dic ulair
ĠIC E
ĠCM C
Ġvar ic
Ġb lood
Ġcor grootte
De x
Ġgrad int
Ġkwart ier
Â ¹
Ġ2 90
d J
Ġdyps noe
18 6
ĠHV C
is sura
Ġbest ond
ĠHY PERTENSIE
ĠC yt
res sler
e ffect
ĠOp geroepen
Ġref lex
Ġc ann
Ġver me
val ve
ĠLies breuk
AG EN
Ġax iale
co h
ret our
Ġir besartan
p ace
lop i
ĠCoronair sclerose
Ġelect rode
Ġverander en
Ġfax en
othe ker
] ?
Sla ap
ĠD ominant
ĠSt aph
Ġbep erken
at om
Ġt onsillectomie
Ġc ross
oh umer
ou bl
Ġsplen omegalie
in oom
ĠM is
ĠM ADIT
ĠTri vial
Ġ+ .
mogelijk heden
Ġjeu gd
Ġhier aan
Ġantibiotic ak
Ġvoor deel
Ġdoor geschoten
Ġeerst egraads
Ġkamer tachycardie
P rogressie
cardi o
e inde
ER IE
ĠSt aken
Ġfrequentie spreiding
ĠDegen erative
Neu ropsych
3 371
in ische
spectie ve
Ġge wezen
Ġuit sluitend
Ġintensie f
ĠbÃ¨t ablokkade
ac and
ĠBehand eld
c alcificatie
23 1
et ie
Ġcomm issuur
ĠSA J
ĠV CT
ĠB ureau
18 4
Ġpan demie
pla que
oc entese
Ġvolg freq
ĠC ogn
ok inesie
Ġret rocardiaal
Ġafw achtend
ĠInspanning stest
ĠVragen lijst
s stoornis
Ġh epar
ĠSyn ergy
Ġlight speed
g abaline
Ġbronch opathische
uc ntie
Ġcar paal
Ġidi opathisch
Ġconst ant
neg atief
u ale
Ġaanzien lijk
Ġsupra coronaire
Ġintracereb rale
om ide
ĠGe sprek
RI FT
mes artan
in continentie
ĠH EART
ĠO ff
Ġhom ogeen
ĠE ven
Ġmorfologie en
Ġpat ella
Ġsh oot
Ġverl en
o ste
Ġvent rale
Ġmag na
Ġnauw e
Ir besartan
Ġkraakbeen verlies
D us
Ġk opp
ĠPro trombinetijd
f l
o eld
Ġthorax wand
AV B
Ġprostaat hypertrofie
Ġbeweg ende
ion eel
erp ret
hom ograft
Ġmyocard schade
inn ing
Ġgeobserv eerd
ĠS wan
Ġrechts onder
Ġof wel
Ġelect rofysi
T ramadol
Ġv als
Ġpro t
Ġmening itis
Ġhaak vorming
ge meten
ig mata
ĠV alsartan
Ġf rom
Ġret ractie
gevoel ig
4 10
LV OT
Ġdes at
Elect rocardiogram
Ġon e
Ġper itonitis
l ongembolie
Ġpar iÃ«
Ġoverge dragen
, (
art et
Ġaan wijs
Ġath er
och romatose
FA CTOR
Ġin structie
ĠD esc
Ġte gelijk
Ġlong oedeem
Ġprote Ã¯nurie
ic les
Ġvoor werpen
ac ubitril
Ġged raa
Ġstor end
ĠEchtgen oot
ron den
va ardig
h orm
Â ¯
CAR CC
Ġlevensbed reigende
ISICO FACTOR
ISICOFACTOR EN
ĠEen maal
Ġsug ger
Ġflauw gevallen
st it
ig enschappen
ĠTh romb
Ġnoemensw aardige
Ġzodan ig
ĠL ON
Ġmitralisklep prolaps
ĠR iata
Terug verwijzen
Ġaort atraject
CT IE
Ġpost hydratie
Ġgepre pareerd
ob al
iat risch
Ġstapelings ziekte
ĠC alcificaties
Ġre ferentie
Ġf ull
Ġla d
Ġm eek
de vice
AT ION
ĠR uim
Ġcon cealed
Ġgel den
Par asternaal
ĠBi ventriculair
Ġster ilisatie
R ond
int eg
Ġaortaklep implantatie
A AL
ĠAf hankelijk
Ġge able
Ġl is
Ġcor enzymen
ver b
Ġantrum lijn
ruim ten
O H
Ġst uurt
Ġmyel opathie
ĠGemidd eld
Ġbehandel opties
scap aciteit
Ġ2 18
Ġ> [
Ġtrans veneuze
Ġbegrij pen
Ġpericard patch
ĠAsc endens
Ġo oms
Ġmijn s
Ġnab ij
m uraal
ol ip
Ġin zakkingen
Ġlichaams beweging
d ocument
ib ele
Ġventrikel volg
Ġ23 5
f ysi
ĠA ER
---- -
Ġmass ale
Ġmidden segment
Ġdecomp ressie
Ġst uur
Ġkeur ig
F EN
V ON
Ġsub febrie
Ġmy ectomie
hart kloppingen
Druk ken
L ot
S n
ic ieel
Ġbij be
Ġfamilie gesprek
ĠBor st
Â º
Ġ3 40
ĠG ooi
ĠTra uma
Ġun iform
ĠĊ ĠĠĠ
Ġin versie
isch emisch
ust ard
ek ent
h v
ĠAB O
el y
Ġur olithiasis
ĠOptis ense
ic aria
Ġradic ale
Ġinter vent
â Ħ
iel ren
INDO PRIL
âĦ ¢
Ġantwoordenvelop pe
te voren
Ġbl unting
Ġant hracycline
Ġgep resenteerd
ĠSc reenend
omm un
ĠKlep penteam
Ġst igmata
ĠDi abetische
Ad aptive
Sub costaal
ĠSubt otale
M aag
ari alijden
wit te
Ġvoort gezet
Ġventric ular
Ġal lo
ĠOp hogen
ĠBeg in
it teken
Ġlu ide
Ġdermat ologie
Ġ2 24
sp ullen
be wijzen
Ġw on
Ġimp ressie
aster ide
it abine
ĠE D
ele ase
Ġwind ow
V annacht
ĠN itro
Ġd apagliflozine
Ġt etralogie
Ġvast gelegd
ĠHoog st
icles onide
ĠE mb
Ġonderv uld
Ġcarcin omat
E jectiefractie
ĠHe ijden
Ġgrie pprik
Ġcip rofloxacine
erg ill
pol iep
ock wise
Ao S
] >
t egen
HA L
dec ompensatio
Ġen cephal
Ġboven dien
Ġra akt
pre paratie
ĠNierfunctie stoornissen
Ġvroegt ijdige
ĠC NY
onc ologie
Ġop werken
p ath
Ġsten en
Ġmeth ode
ing reep
ik kel
Ġpseud omonas
ĠVer w
Ġ/ ><
Ġartik el
Ġmetab ool
Ġoverweg ingen
Ġklep slippen
Ġtricuspidaal klep
R x
Ġm orgens
ĠD uplex
geb lazen
ĠUit sluiten
Ġco Ã¶r
houder ij
ins uline
a emisch
Ġl ook
Ġwaar neming
Ġintra cardiale
Voor alsnog
Ġgemakkelijk er
ĠO k
SCH RIFT
ĠM CP
Ġhart operatie
AF SCHRIFT
ĠAct icor
Ġextremiteits afleidingen
o er
is a
ĠS K
kw ard
Ex pectatief
Ġorg anen
Ġna vragen
Ġor bit
Ġcoil ing
Ġbreed complex
ijnt eam
ĠM RSA
Al hier
EEKEN D
ens ioen
Ġradi ologisch
cons ent
Ġwond jes
M erkt
in el
ĠL open
t aal
ĠTe chnisch
L ip
Ge dilateerd
ĠN TX
Ġcereb raal
inn itus
lamm ing
Ġoppervla kkig
Ġsnell ere
Ġspoed poli
Ġfysi ologie
Ġholter registratie
ĠSV C
Links boven
Ġtrige minie
ĠO orzaak
ĠDi agon
Ġaanget oonde
on veranderd
Ġvoor over
Ġnorm alis
Ġcontrast nefropathie
ĠT ak
gen odigd
Ġtra inen
ĠS r
Ġwat ch
Ġwiss elen
Ġstrept ok
Ġp ed
if osfolipiden
bij werkingen
Ġsub arach
ĠO rsiro
ĠQu artet
Ġkramp ende
neg atieve
Ġaltern atieve
Ġrheumat ica
D RA
Ġc asus
siel la
S ure
il laire
en kele
Ġverv allen
Re st
Psych isch
K NO
ĠR en
ĠPOB A
sup pressie
Ġpocket preparatie
Ġh angen
Ġmon o
Ġfla il
Ġclip s
Ġpalli atief
ĠT achy
Ġlig gende
s onderzoek
s veld
Ġtre kkingen
Ġinzakking s
iol itis
Ġt te
ĠT S
P igtail
ra becularisatie
Ġer af
Ġoesophag itis
h isc
Wond sluiting
Ġbasis lijden
Ġseptum hypertrofie
Verk al
Ġstee g
ik els
b orst
ver pleeg
ors ade
Ġbyp asses
en ingen
Ġritme observatie
Cardi ovasculair
ay ed
Ġtap se
ĠG LUC
Ġl ob
Ġ3 30
Ġse diment
dv iezen
Ġsla chter
I H
m eest
Ġc ab
ĠO rig
Ġan am
ĠScherp e
S ystolische
sche id
Ġuitgebl ust
p ent
le veren
Ġmy omat
Ġaan staande
dist ale
m art
Ġra p
Ġla uw
Over all
ve ol
Ġt itratiefase
il ijkt
ĠSub klinische
Ġbijsp uitschema
Ġwand verdikkingen
og ren
Ġmo dus
73 6
Ġurine kweek
gene zing
ĠL ange
ĠM el
Ġop voeren
Ġste atose
mof orine
Ġ2 19
o ende
Ġradi o
Ġlegitim eren
vorm end
or da
um af
geb ruiken
Ġlever t
m ilde
Ġbed reig
ĠReson ate
s lo
w etten
Ġb rk
ost ar
pass end
Ġbul ging
Ġidentificatie plicht
x i
Ġonder rug
ĠG lobale
Ġmitr al
A specifieke
Ġr ange
ude bestrijding
Ġkn ik
Ġzk h
Ġbeschouw end
ĠA DD
Ġhol te
imp son
Ġseg m
Ġcardi otoxic
Ġinf eriore
ĠAdenosine belastingstest
Ġwond infectie
Ġcoronair systeem
Ġdet ect
Ġtussent ijds
ĠStra ight
Ġcont r
weg ra
waar nemend
Ġneu rofor
p sych
w ill
Ġvleeskalveren houderij
N OT
ie ze
ĠI p
Ġkn ieklachten
ĠLe ads
groe i
Ġ2 11
ercan idipine
ĠS etting
Ġg Ã©Ã©n
Ġbet ekent
ĠPC SK
Ġk opie
ĠS oc
oc ele
Al facalcidol
Ġn f
ra w
con azol
arco om
Ġguid eline
Ġantibioticak uur
om ag
Ġbla ascarcinoom
Ġmarg inaal
f aat
ĠT ablet
Ġgluc os
Ġbronchus wandverdikking
Ġverzeker den
Ġach illespees
ĠIntern ist
M it
wel wording
Ġzorg verzekerings
Ġfysi ologische
ension eerd
Ġhemangi oom
S er
Ġn icht
la g
ver zoek
em s
ĠD imensie
ĠHart functie
Ġpra kt
Ġfaec alis
Ġzorgverzekerings wetten
Ġaange houden
Ġorig ostenose
In middels
ude son
Ġass oc
yp t
resent atie
Ġfrax iparine
ne uro
Ġ2 13
Ġhart aandoening
tra uma
Ġaortap ositie
air ment
em ateus
Ġrib fractuur
Ġspect rum
c king
n y
ep sie
Ġgez ocht
L WK
Ġdur ft
Ġgesch reven
Ġherbe oordelen
ge in
em ende
iel der
ge dilateerd
ĠU K
Altern atieven
obal amine
G eri
L PA
ĠD arm
ĠLong circulatie
v ou
pl en
chen ne
ĠB io
ĠB ili
Ġlong fibrose
Ġdou ble
carb omeer
Ġa zathioprine
werk overleg
Ġbreed te
Ġrand je
Ġ âĢ¢
im ie
Ġerg ens
Ġaant rekkelijk
Ġarry thm
Ġoxy norm
I G
k eerd
Ġp up
Ġspann ings
Ġkrans slagader
Ant ibiot
n v
s il
.| -
Ġdra ins
ĠNID DM
Leef stijl
de ze
Ġgez eten
imm el
uret icum
Ġtijd s
Ġgeb oorte
Ġdiff us
Ġbericht geving
Ġinvalider ende
Ġplaats vond
Ġstaan de
oes ophag
verteb raal
Ġk uss
ten de
an itidine
Ġcy clus
Ġt ante
ĠC laudicatio
Ġop gevoerd
Ġsac rum
st rekt
ul sie
arterie ctomie
We et
inf eroseptaal
opt in
Ġat yp
ĠPer ifere
Ġet age
Ġcaes area
s et
v ist
Ġbij dra
ĠAM LODIPINE
in name
tak slijden
ĠB MD
Ġsc rot
t ip
/ :
in stellingen
Ġgev ulde
iss eld
DD RAN
CS DDRAN
Ġtermin atie
Ġonzeker heid
NOT ATION
CSDDRAN NOTATION
Ġk et
be sproken
ĠPA V
ĠRv K
T ransth
oep ele
amp icine
Ġmyel oom
S WI
T aal
Ġvent r
Ġremm ing
Ġmidden traject
gef axt
Ġd omein
A AT
P F
ve st
ĠVer di
Ġbas il
dra g
maxim ale
ĠSug gestie
ĠB emerkt
ap otheek
man ente
hal atie
Ġhyper p
Ġcerebell um
udeson ide
at ader
Ġw bs
Ġi ig
OM ETR
ĠAbd omin
ĠC yste
le us
ĠT erechte
stand aard
otrop ica
procedure voorstel
Ġon mogelijk
ut h
fra udebestrijding
Radialis cocktail
oe f
Ġvert igo
Ġtoilet spullen
l ets
Ġge dil
ĠH E
Ġpos ition
Ġdyspneu klachten
ĠLip itor
Hulp vraag
h ct
Ġp ne
Ġben auw
Ġnacht kleding
Ġregurg itatiefractie
Ġsc re
Met oclopramide
Ġmamm aria
tromb ose
bes ilaat
Ġmy otone
OMETR IE
Hyd rox
E ind
ic ardiaal
Ġ19 88
Ġnieuw s
licht e
Ġvent olin
ĠNe us
red elijk
parox ysmaal
Ġvoor zien
ĠF unctioneel
4 47
Ġn amen
yl line
Ġneut ropen
s ig
Ġb lin
Ġ2 17
HTX V
Ġminder en
A rg
v rijdag
ur oloog
RA M
Ġwoord vind
ele ens
Ġor ders
Ġgeable erd
Ġh allucinaties
ĠD uidelijke
Over gewicht
ĠHier onder
al p
ĠAl zijdig
tak s
ĠAd apt
Ġremod eling
Ġcolla berend
Tijd elijke
ĊĊĊ Ġ
ĠCARDI O
J anuari
ĠUl cus
at aract
Ġf ist
Ġlinks onder
voe ging
Ġuitvo erig
sp ijn
sie k
passen de
ĠenquÃªte formulier
f oort
Ġpre st
Ġreflux klachten
lu stig
Ġhypo densiteit
Aug ustus
et i
ĠF oliumzuur
Ġch est
ĠPer icarditis
PU L
Ġs owieso
ĠMax imaal
ĠEmb lem
Ġer a
Ġsy nov
yt openie
Ġzom aar
art o
RA AT
Ġcort ic
Ġbicep spees
i raal
Ġ area
Ġg ips
odynam iek
Van avond
Ġhinder lijk
Ġor en
Sp oeling
wez ig
Ġinformatie verwerking
Ġdal spiegel
CRT D
Ġconnectie s
f requente
oth er
ĠAl les
i i
Ġassist ant
Ġinflow variatie
ĠV ene
omm ige
Ġjodium houdend
rop ath
sch ak
End ocarditis
OOR NIS
j zer
Ġwe ig
ĠV M
ot roop
ĠTh erapie
Ġkamer respons
ĠVER SLAG
ste el
DF T
Ġbatterij spanning
ĠC RS
aan wijzingen
Ġopp akken
G UCH
e ste
Ġuit genodigd
Ġkn ielen
waar bij
Ġglen ohumer
on yma
ĠRV EDV
od ra
bri de
f o
Ġa maurosis
ĠE vents
ĠCh ec
spron g
Ġf loxapen
ĠF irst
pro duc
Ġonderv elden
Ġposttra umatisch
ĠT RI
Ġaan sluiten
D ochter
d agelijks
M amm
Ġspra ken
Ġcarcinomat osa
Reg ulair
rat eg
ĠPost erior
sup ple
Ġap noe
Ġob jectief
ĠEx acerbatie
Ġemp yeem
s oms
on ier
Ġend ocardiale
Ġonsch erp
Ġafged opt
al anc
ĠP aar
Ġvoor hoofd
RT AN
Ġperfus or
rol ijken
rof e
Ġlevens lustig
Ġopv rolijken
stijla dviezen
U zelf
proxim aal
z onde
Ġex ecut
ERG OMETRIE
B orderline
Ġsu f
ger lijke
Na Cl
Ġtoen e
Ġrechterkamer functie
Ġp ann
Ġpol iepectomie
ĠDoor gemaakt
de kte
Ġsubt iel
Ġallergie en
Ġvernev elen
Ġgevor kte
c reat
ro mpel
Ġhoog st
18 7
Ġzout beperkt
ĠLIN Q
Ġrechter lies
Chol ecystectomie
in tra
ĠT ildiem
ĠZo als
ĠPost hydratie
Ġra pport
Ġwait ing
ct ische
ard lopen
ĠW arme
Op nieuw
ile y
Kle in
ĠLVE DP
AD ENOSINE
Int ake
Pro staat
Ġintracran iele
ĠBeg innende
els ysteem
ĠNa dere
B uigen
Ġt um
ver na
ĠB iv
plat in
) );
Ġget rokken
C WK
Ġt artraat
ĠL IPV
ĠP rol
Ġ19 80
Ġdoorge sproken
oid ale
Ġbedrijfs arts
Ġbemoe ilijkt
Ġonderb roken
Ġt on
Ġvag inale
Ġera dicatie
act ueel
Ġpre d
Ġconc urrent
ĠA gatstonscore
Ġcontrol ler
ĠU terusextirpatie
als is
Ġasp egic
hyper plasie
voor heen
Ġmitralisklep blad
Ġanastom osen
Onge wijzigde
ĠR SV
ĠRT x
Ġpro du
Ġhemat othorax
T PG
Ġpar ast
Ġintermedi us
Ġafw isselend
V esiculair
ĠS ymptomatisch
ant woorden
Ġtort ueus
aale chocardiogram
chi alis
hisc entie
Ġgede eltelijk
5 18
v le
os ition
nu chter
ad res
oth oracale
ĠAf w
L aag
iet stest
Ġperc ussie
Ġmultiv essel
av ir
Ġcre scendo
Ġp cm
Ġpar ame
Ġtachycardi en
Ġluchtweginfectie s
ĠCap Sure
om ale
onderzoek er
Ġduur sport
Ġglomer ul
d ingen
ocyt oom
Ġpack years
Ġen cefal
daag s
ĠVoor heen
ĠAct iv
Ġendomet rium
Ġdraag ster
B V
Ġspecialist en
Ġvoed sel
Ġleuk emie
juv ant
ĠRij vaardig
Ġf issura
H onderd
la fax
Ġbeg ren
Ġup sloping
Ġall ogene
Ġdiafragmakoep el
heids bewijzen
ĠRijvaardig heidsbewijzen
ĠP soriasis
Be spreken
hart f
W eekend
u eerd
Ġp ept
art er
ĠM A
ap ex
ost omie
Ġstart te
pri mair
an oxische
Ġt emazepam
Ġonder ge
ec ulair
Ġlater alis
Ġdw ar
umaf actor
Ġge blok
Ġpro cessus
ĠE veneens
Ġacc um
ĠParoxys male
ĠC irc
Ġgun stige
comp enseerde
bep aling
ĠC r
ĠG B
Ġperfusie stoornis
Ġam ox
Ġtort u
L actaat
Ġpols ritme
Ġspoed indicatie
Ġfla con
ĠDF T
Ġaankle urende
ab ap
ĠECG s
ho ve
Ir r
av irus
DE B
Ġtoene emt
F lecaÃ¯nide
te sten
ĠAl tern
Ġerv aring
ast ine
Ġble ken
Ġ44 70
IM T
Fer ritine
Ġbev re
Ġmyocardperfusie scintigram
an dere
Ġ14 58
Ġant icon
Ġvar ieert
lamp sie
pl antatie
tra gende
ĠgeÃ¯nd uceerd
Ġde k
Ġac et
azol am
S almeterol
tra umachirurg
Ġplek je
dro og
Ġorg an
act orieel
Ġcy an
ĠStra in
ĠBL WI
ĠProb eert
ro k
Ġgro en
ĠCh adsvasc
Bur gerlijke
Ġmee geven
Ġliet en
ĠS uriname
r r
ĠB PM
ograf ien
Sp ec
ĠH ypercholesterolaemie
izont aal
GS TEST
b uitenshuis
Ġaan hechting
ich en
ĠCHADS VASc
Ġvulling spatroon
T GA
k regen
Ġgegener aliseerde
BELASTIN GSTEST
Z E
Ġanatom ische
it eratie
ĠR O
cardi oversie
Ġaan vullen
Dec ember
Aorta wortel
Ġverzorg ing
Ġseptum beweging
Int olerantie
Ġosteof ytvorming
Ġhyp oc
Ġhoofdpijn klachten
25 15
Ġwaarschijnlijk heid
Ġ4 10
inf uus
Ġzelf red
Ġverwijz ende
Ġb uitenshuis
eken ing
VS M
Ġmislu kt
Ġla sso
Ġnacht elijk
dec ember
Ġcalcium antagonist
Ġretroper itoneaal
Ġp orta
Ġinspanning scapaciteit
Ġinter pretatie
aug ustus
tach ysyndroom
k eerde
Ġge me
la v
infectie us
Ġt ropon
lafax ine
on ad
Al lerg
z ende
ĠP RE
Ġaange eft
vatscor onairlijden
en kel
n ost
Ġp sor
ĠH ER
Ġqu ad
Ġspier zwakte
ul ijn
Ġcon cluderen
Ġverm ogen
onum lijn
E nt
ĠZ al
Ġmitralis annulus
ho ge
Ġsm eren
Ġmyocardperfusie scintigrafie
Ap r
ĠDT MB
+ /
t and
Ġcor tex
stru ct
lever kwab
chant er
Ġ7 3662
ĠIV C
ĠIVS d
un ge
Ġsp it
AC ET
ĠBe chterew
omast ie
d ub
ui me
ĠNS IP
nem er
Ġtricuspidalis insufficiÃ«ntie
Ċ ĉĉ
rol ol
ib ond
ĠJ A
Ġpapillair spier
CAR B
Ġover geven
ĠBloed kweken
Proble em
Ġr ituximab
vasc ularis
le v
le ason
Ġ6 70
Ġscl eros
Ġbesch ik
ĠC ircumflex
Bij zondere
Ġcholedoch us
ĠG luc
Ġlever metastasen
ge m
ap a
Ġsucces ful
Ġindivid ueel
L asix
PT CA
Ġpotent ialen
C ave
F IE
te chniek
Ġgeassoc ieerde
J L
ĠVerkal kingen
Ġprostat ectomie
ĠTromb i
Ġoplos sing
C RS
ij s
Ġt aken
ĠN dJ
ĠBel oop
Ġv t
Bel angrijkste
ĠVocht balans
; .
ug h
Ġsup ervisor
Ġun ders
Ġvet weefsel
acus is
Ġper inat
Sp ier
ĠHyp on
Ġtunn elsyndroom
Ġvle kkige
Ġdef ibrillator
|| |
verw ijding
Ġdisc rete
Ġthyre otoxicose
at ric
ĠG G
T illen
ĠOver vulling
ĠAan houdende
Ġcan dida
Ġbron cho
at euze
la agde
ĠV alt
Ġzw acht
Ġres ol
AB O
n ulus
Ġhart aanval
lo ge
I RE
N b
CI L
Ġmid septaal
st ay
gest aan
Ġgranul omateuze
Ġhypox ie
ĠgeÃ¯nfect eerde
Ġpne ulijn
Ġd remp
Ġostium stenose
Ġbon zen
Ġgest rekte
ĠEt iologie
) ).
i FR
he parine
Ġchol elithiasis
Ġkra ppe
Ġuln aris
Ġge we
ĠAb normaal
imp ele
ĠDatalin q
orac aalechocardiogram
b ur
ĠRe Cre
ĠAT N
Per manent
Ġwervel kanaalstenose
ĠM ustard
ed ge
Ġtra in
Ġp ensioen
Ġn erve
ĠP rograft
ot act
rode se
Ġscoot mobiel
versch il
oorde elbaar
Ġvast e
Ġchor dale
H eup
le c
Ġpro ductie
Ġseptum verdikking
Ġhyper chol
ĠV US
ĠKort durend
n aald
Ġsc ap
Ġtra d
Ġkatheter ablatie
Ġburs a
M ate
Ge calcificeerde
Am oxicilline
Ġdon ker
Ġkuss ens
o ien
ĠOver dag
Ġ300 0
Ġprostat itis
Ġs aph
S erial
Ġx ylocain
Ġcor pora
cor on
ex ie
spar ingen
at resie
Ġgesp ort
su ik
Ġp ace
ĠK g
pulmonaal vene
Ġsucces kans
Ġpatello femorale
as ering
Ġgra uw
Ġmitralis kunstklep
ĠF amiliaire
valsbe vindingen
ire erd
Bij lage
pent ier
proxim ale
Ġontsp ringt
at ing
t wee
ff ici
ĠMoe izame
R PA
d uizelingen
ch olest
Ġv lagen
ĠE EN
Ġtherap ietrouw
Ġvalvul otomie
Ġangiod ysplasie
ĠP W
ĠD imensies
ĠUn ify
Ġf oet
Ġinf un
Ġsl otte
Ch ronisch
DROCHLOORTHIAZ IDE
Ġmult inodulair
deels arts
ĠM ass
ĠIs olatie
Z elden
w all
Ġont last
Ġpacemaker controle
Ġmast ectomie
ĠProstaat carcinoom
b atterij
d ystrofie
min or
beweg ingen
Ġnod ale
c zeem
ide erd
sept ember
ĠPanc reas
Ġn ie
oog d
ĠF en
com bin
open em
Ġhem ochromatose
On geveer
p ulse
Ġc urve
Ġschouder klachten
visu alisatie
or o
Ġt amsulosine
olyt ica
ep h
le d
vat e
Ġro cking
HB O
H NP
P lacement
Ġritme controle
Ġcardiop ulmonale
ĠOn geveer
Ġac idose
rh ag
ic ort
Ġinfectie ziekten
betrouw baar
i ons
ib iaal
J un
re f
Ġspre ek
1 200
e chocardiogram
u ch
ĠB VP
ment en
voor bereiding
Ġoef eningen
I ets
Ġch ir
Ġechoven ster
am id
ip en
gest aakt
Ġbetablokker s
Ġdunw andig
ĠHor izontale
Ġge optim
Ġbed rust
spir atoir
ĠPER INDOPRIL
st reven
ĠM AC
Ġtrans der
Ġpulmonaalvenen isolatie
Ġver stand
sub c
vit ium
Ġfrequent ierespons
Ġdiet iste
Ġcont ouren
Ġsc and
Ġcon gestie
over syl
Ġmitraalklep insufficintie
Ġdrietak slijden
i ra
Ġintrac av
O orzaak
n elijk
Ġd ent
ven a
contin ent
if low
Ġ? ?
Ġg ran
AS T
Meest al
Ġp PCI
ĠC l
spann ingen
rom os
an ke
act ulose
Ġgen mutatie
ĠB eelden
Ġt ildiem
voor sp
ĠF AC
ase ctomie
dat a
Ġonduidelijk heid
Ġn ag
Ġgehal te
ĠS tern
pro jectie
ĠHart ritme
âĢ ¦
ae ces
ĠS egment
Ġinter costaal
OC S
uret tage
Ġejectiegeruis je
ĠH o
ĠSec undair
Extra cardiaal
Ġt d
Ġ< =
Er g
ĠRel atief
ĠCath eter
ĠUit slagen
ĠAT TR
Ġchem ok
Ġd g
ĠI B
Ġpri mperan
ĠTra che
P soriasis
ĠUit er
by acusis
etra ced
ĠV orig
Ġmee genomen
Ġgeheugen klachten
A sp
om yocard
IS A
hyre oidie
Ġr ontgen
su izen
Ġgeb onden
Ġant istollings
Ġadem halen
M ocht
Ġste v
Ġloc alis
wee kt
ĠBuik pijn
ex cisie
gezet te
Ġangi oseal
Ġsuprac laviculair
ang t
Ġg land
ĠRitme stoornis
Ġabl aties
Sup ervisie
Ġm asker
Ġg lob
Ġuit komst
Ġcoronair spasmen
Ġ+/+ ;
Ġverstre ken
Ġbac kward
spre ide
Ġverander de
ul pm
RE L
Ġat rovent
Ġun iforme
ĠNeu ro
Ġblijk baar
J ul
Ġop kn
Ġsol ostar
ĠNP O
ist entie
Ġmodi ficeerbare
Ġpy rosis
CM V
ge deeld
Ġd alen
ov asc
Sch riftelijke
Ġovertuig end
Ġonderge tekende
UR OS
E inde
ĠC LO
Ġpolym yalgia
ĠImpl ant
Ġdem and
Antibiot icum
is waar
Ġopt reedt
ee per
Ġbelasting test
S omatisch
Ġhart actie
Hart ritme
Ġident iteits
draa ien
ak ie
ĠCAR B
Ġverdubb elen
i or
o denos
Ġres erve
F ax
Ġl ot
Ġhemat ocriet
Ġexpir atie
Oste oporose
ing er
le venslang
olog y
ĠAb normale
se in
con d
Ġ24 5
defect en
ĠD iep
Ġpect us
Ġtrem or
Ġrechter voet
Ġess entiÃ«le
ĠM n
est ratie
Ġhypo dens
Ġiliacaal vaten
Ġverdubb eld
H aar
Ġmeer der
ric al
Behandel voorstel
roek prothese
er ger
ĠST OP
Ġpericardi ocentese
ĠQUAD RA
Ġge sl
op ulmonale
LV ED
iat ica
ADENOSINE BELASTINGSTEST
ĠAS SU
ĠPA H
Ġhersen stam
ĠCh l
Ġg ist
ĠToe valsbevinding
ĠVaat lijden
Ġm yc
Ġevent recorder
Ġcom bin
osoc iale
sp ont
os itief
ap icale
org d
Ġterug komen
Ġbesch ouwd
Ġkleppen secretariaat
odenos copie
Ġk lap
ĠV as
Ġheup operatie
Sept ember
vrij e
Ġf oll
Ġecho beelden
Ġaanvals gewijze
Ġover matig
Ġboven velden
Ġel ong
Ġlo ad
Rap port
Ġbijk omen
Ġleaf lets
ant ago
Ġachter gelaten
Ġwond genezing
ib ratie
ui zing
ĠAp icale
Ġobl iteratie
N icotine
ick ness
isch aemie
21 6
Ġthorax drain
ĠCM R
Ġinduc eerbare
ĠBla as
Ġaan komt
Ġbel consult
Ġlevens duur
Ġsucces s
T itratiefase
ill i
Ġkom vormige
Ġpr eter
Ġleverproef stoornissen
S tra
y ocarditis
Ġlinker long
Int rinsieke
om pt
ijn ier
Ġmit s
wor dingen
Ġretroper itoneale
ond uidelijk
Ġdruk te
issel ende
Ġvers us
dip eus
Ġconversie pau
Ġdu otab
ĠS orin
Ġijzer suppletie
Ver gelijk
Ġf ut
Ġrechts falen
anc iclovir
Se arch
acht s
uc os
Ġvocht intake
Ġ22 3
Ġimpon erend
Ġvloe i
ĠCom uth
ĠBil aterale
Ġaf delingen
be se
Ġdis p
Ġmedi ast
D uizeligheid
Ġkinder cardioloog
f ill
Lichamelijk e
Ple uravocht
ĠA rth
Ġgebied je
kle ine
Ġinc ident
ĠHel emaal
spar ameters
h ot
ant erolateral
lan ken
ulpm id
Ġw ink
ĠE HBO
Eer st
ieradi us
et te
wij iz
Ġdoor gebruiken
ĠAf stand
ĠHT N
zo wel
beste ding
Ġmitralisklep insufficintie
Ġv icryl
int s
Ġsaph ena
Ġstuk s
Ġsuper ie
ielren nen
ĠC F
Om dat
Ġcholesterol spectrum
Ġvert ellen
X I
ĠO bt
ier ig
Ġelect rofysiologisch
Ġontst oken
se ct
Di ast
ĠAng iografie
Ġiat rogeen
mass a
rateg ie
ĠS ouffle
Ġomg aan
Z D
ass emie
inn emend
i laire
Di ag
du ced
Ġtre k
dys functies
k orte
ag t
Ġdoord at
Ġ ater
Ġvas eline
Ġtransder ml
ĠP radaxa
Ġstent en
ĠArt sen
Ġsele ctief
ont rol
ĠG V
AL S
Ġdig itale
Ġkyf ose
Ġca ptopril
Ġgeoptim aliseerd
I J
c N
vent il
P CR
Ġs i
Ġinfarct gebied
och rom
Gem idd
Ġk oort
Ġlong tekening
Ġlucht houdende
Gro tendeels
Re cept
stru eerde
act ive
Ġnier celcarcinoom
Ġregel maat
ME EN
Ġre ch
Amb ulance
19 6
Ġven osus
Ġorthop eed
of ylline
Ġgeh uwd
ĠPT SS
feb ruari
ĠDisc opathie
s amenvatting
ĠK A
th erapeut
Ġsubstraat modificatie
Ġop slag
' :
er isatie
ak ness
ĠgeÃ¯ nt
Ġant idiabetica
Ġweer stand
do end
Ġsplit sing
Ġw eleens
ĠI mm
Ġav n
Spec ificatie
ent ine
ĠD EF
ont in
Ġdu im
behoe fte
ĠControl eer
Irr elevant
Ġ22 6
wissel ingen
Ġcontra indicatie
Ġneur ogene
Ġect atisch
ĠObt use
Ġhartf iguur
gra stat
Ġvet infiltratie
ĠDu chenne
ĠB ack
Ġlang werkend
Ġlang zame
ĠAS T
Int erpret
Ġum bil
ĠRust ige
? .
ĠC ip
Ġonderschat ting
Lies breuk
aar zame
Ġspiro metrie
Ġin clusie
ĠH erpes
ĠD iltiazem
eld t
Ġgro eten
graad s
Interventie cardioloog
19 73
ĠP DF
Ġuit ruimen
col lateralen
ĠWe derom
b siella
ĊĊ ĠĊ
ĊĊ ĠĊĊ
tri plet
Ġb ieden
Ġpar an
acc inatie
iver ing
Leefstijl verandering
Ġf ys
Ġlab controle
Ġkw ets
chron isatie
ĠGla dwandig
Ġv age
Ġexit site
Ġk r
pen icilline
cardi omyopathie
Radi ofarmacon
Ġax iaal
C IED
ĠTrans femoral
ĠHoe veel
Ġbon ken
Ġp raat
Ġc ic
ĠL ate
CA VE
ĠIn gesteld
ion aal
Ġplaats gebrek
ex pectatief
Ġmenstru atie
ĠA ol
Ġco aptatie
lead s
CH AD
Ġst oot
ir ca
Ġan onyma
to y
Ġcom fort
Ġpsor iatica
sub cutaan
: +
Ġhem ith
Ġresp onder
ge wijs
ĠW K
ĠgeÃ¯ mp
oubl et
h am
ge e
Ġdi Ã«t
Ġsch aduw
ĠPass end
am iodarone
im ny
ĠG r
Ġpar keer
uk te
Ant istofscreening
bum etanide
dar uptuur
Ġhij gen
Ġfrequentie s
sla esie
be ide
GE MEEN
Ġzelfred zaamheid
Ġverwijding splastiek
ilrin on
Ġb ocht
ĠAAN VR
b undeltakblok
Ġterug komst
ĠEx centrische
AD I
P ID
ĠH ET
uc il
arteri Ã«ctomie
Ġtromb ocytopenie
Ġden ervatie
Afwijk end
ĠVer leng
Ġspondyl ose
Ġbran derig
N AG
hartf ilmpje
et am
Ġp MVL
Ġge consult
Ġgezicht spunten
Ġurg entie
N ifedipine
ib rose
ĠIntra vasculaire
di ale
Ġge or
Ġtrombose been
ĠDE XA
hyp op
Ġp ijnteam
ĠDe x
ĠB lijkt
Ġanest hes
ĠAANVR AGEN
K nie
ĠL euco
Ġnier f
Ġmicro bi
ĠC riteria
M R
Ġbloeddruk daling
mid den
Ġep ider
Ġvoed ings
Ġ DAT
vat a
Ġinm onden
Ġw onen
Ġj on
Ġgest ent
Ġgezicht sveld
Ġperib ronchiale
Ġterug koppeling
ĠPI P
ĠReg uliere
Ġinsp ectie
Ġureth ra
abap entine
d le
Ġla agnorm
mm el
Ġwe akness
Ġleuk ocytose
on geluk
Ġh ysterectomie
ĠS apien
et elet
Ġbel emmering
ĠAl l
ĠCO LECALCIFEROL
Basis programma
an ced
Ġdi enen
au ff
Ġorth otope
p idem
vas ief
Ġcuff ing
Ġon langs
ĠIN VULLEN
complex en
VER PL
event ueel
Ġpulmonale s
VERPL ICHT
Ġsp oelen
eu rige
Ġmetabol iet
UROS EM
st eek
ĠB unge
Ġuit blijven
Ġlinker voet
Ġaange maakt
Ġrest erend
Ġoperatie gebied
Ġhepat omegalie
ĠMede werker
Ġantagonist en
Ġsil houet
Ġm embran
Ġ3 99
Ġpol yc
Ġaritmie Ã«n
ĠSol ia
Ġk appa
Ġintervent ieradi
Rapport age
> >
Ġp ower
k uren
Ġpar iet
Ġziekenhuis opname
Ġurine sediment
Ġgegener aliseerd
et iologie
Res id
UROSEM IDE
cont usie
Ġtricuspidalisklep plastiek
Ġcatheter ablatie
Ġangst stoornis
ĠTur ner
Ġgenerator vervanging
rofuranto ine
ĠHersen infarct
p arese
x d
mm etrie
Ġbasis programma
Ġverz onden
Ġd yst
Ġb ril
Ġrechts decompensatie
ĠOp a
He FT
S yndroom
ĠDe stijds
Ġcap s
Ġcircumsc ript
Ġlinker schouder
Ġnons ustained
Ġaccum ulatie
Ġ it
Ġe someprazol
eg gen
ĠRect aal
Ġbloedings focus
Analget icum
st anders
co il
Pulmon alisklep
ĠMG US
% +
H inte
ĠVer wijsbrief
Ġvooraf gegaan
E uroscore
d l
Ġd aad
ĠK lopping
ĠAT A
ordel roos
p lavix
rij pt
Ġal fa
Ġsle eve
op bouw
Ġic d
dose erd
Ġop z
pl ate
bew ust
K l
Ġgeb aseerd
wand verdikkingen
Ġarteri osus
ĠAdv isa
Ġe vol
ĠVer ander
Ġvent rik
Af gesproken
ĠOperatie datum
Ġkatheter s
Ġtub ulair
ard ie
Ġch adsvasc
ĠLA FB
c r
Ġo ds
Ġin cre
ED ER
Ġdomein en
yt m
Â ±
Ġuit stellen
Ġvaat steel
Ġnot eert
Ġo vata
Ã« x
ĠX L
Ġgek weekt
Ġgroot cellig
Ġperist alsis
us es
ĠAF l
On c
Art rose
Ġneuropsych ologisch
ĠLeuk o
u v
w andige
ĠL ine
ĠOx azepam
Ġlaaglumb aal
ĠStre pt
ĠASSU RA
ĠB IV
Ġkort werkend
d omin
t ime
xi olytica
D ys
c in
meer dere
corrige erd
ĠHU IS
m itter
sist erende
Vrij e
Ġst rikt
Ġper manente
ĠDD x
Ġmob ilisatie
im ount
Ġparox isme
Ġspoed vragen
Ġstap h
Ġabces sen
Ġ2 21
Ġch olest
Ġir rit
: ([
ĠT acro
ĠI m
umar ol
Ġschat ting
T RI
rol de
Ġeind resultaat
S te
Ġboog vaten
Ġklep dysfunctie
Batterij voltage
Ġretina e
el k
EN D
Ġra ad
Ġsetting s
Ġtro chanter
ge daan
w ire
ĠF ocaal
ged acht
ĠP neumothorax
systol isch
G ister
ver len
ang ere
Be ste
ĠSVT s
Z opiclon
l isinopril
Ġcab g
on ine
ĠLA O
Is oprenaline
b ijna
ik ke
ier est
Ġac cording
cont inueren
Ġmamma sparende
Ġje jun
b ben
Ġf illing
ĠOver plaatsing
Ġra ken
Ġverl ichting
UC ER
S acubitril
19 72
Ġklep dysfuncties
Ġverzam elsysteem
Analget ica
Ġs ut
ĠIn dex
ĠPOL R
G astro
sch reven
ĠH P
Ġkort er
Ġgetrig gerde
Q TS
ĠS ym
ĠMedic amenteuze
ĠTV R
t ablokker
te kens
ĠF K
Ġhor izontaal
Ġge el
[...]
