{"<s>":0,"</s>":1,"<pad>":2,"<unk>":3,"<mask>":4,"!":5,"\"":6,"#":7,"$":8,"%":9,"&":10,"'":11,"(":12,")":13,"*":14,"+":15,",":16,"-":17,".":18,"/":19,"0":20,"1":21,"2":22,"3":23,"4":24,"5":25,"6":26,"7":27,"8":28,"9":29,":":30,";":31,"<":32,"=":33,">":34,"?":35,"@":36,"A":37,"B":38,"C":39,"D":40,"E":41,"F":42,"G":43,"H":44,"I":45,"J":46,"K":47,"L":48,"M":49,"N":50,"O":51,"P":52,"Q":53,"R":54,"S":55,"T":56,"U":57,"V":58,"W":59,"X":60,"Y":61,"Z":62,"[":63,"\\":64,"]":65,"^":66,"_":67,"`":68,"a":69,"b":70,"c":71,"d":72,"e":73,"f":74,"g":75,"h":76,"i":77,"j":78,"k":79,"l":80,"m":81,"n":82,"o":83,"p":84,"q":85,"r":86,"s":87,"t":88,"u":89,"v":90,"w":91,"x":92,"y":93,"z":94,"{":95,"|":96,"}":97,"~":98,"¡":99,"¢":100,"£":101,"¤":102,"¥":103,"¦":104,"§":105,"¨":106,"©":107,"ª":108,"«":109,"¬":110,"®":111,"¯":112,"°":113,"±":114,"²":115,"³":116,"´":117,"µ":118,"¶":119,"·":120,"¸":121,"¹":122,"º":123,"»":124,"¼":125,"½":126,"¾":127,"¿":128,"À":129,"Á":130,"Â":131,"Ã":132,"Ä":133,"Å":134,"Æ":135,"Ç":136,"È":137,"É":138,"Ê":139,"Ë":140,"Ì":141,"Í":142,"Î":143,"Ï":144,"Ð":145,"Ñ":146,"Ò":147,"Ó":148,"Ô":149,"Õ":150,"Ö":151,"×":152,"Ø":153,"Ù":154,"Ú":155,"Û":156,"Ü":157,"Ý":158,"Þ":159,"ß":160,"à":161,"á":162,"â":163,"ã":164,"ä":165,"å":166,"æ":167,"ç":168,"è":169,"é":170,"ê":171,"ë":172,"ì":173,"í":174,"î":175,"ï":176,"ð":177,"ñ":178,"ò":179,"ó":180,"ô":181,"õ":182,"ö":183,"÷":184,"ø":185,"ù":186,"ú":187,"û":188,"ü":189,"ý":190,"þ":191,"ÿ":192,"Ā":193,"ā":194,"Ă":195,"ă":196,"Ą":197,"ą":198,"Ć":199,"ć":200,"Ĉ":201,"ĉ":202,"Ċ":203,"ċ":204,"Č":205,"č":206,"Ď":207,"ď":208,"Đ":209,"đ":210,"Ē":211,"ē":212,"Ĕ":213,"ĕ":214,"Ė":215,"ė":216,"Ę":217,"ę":218,"Ě":219,"ě":220,"Ĝ":221,"ĝ":222,"Ğ":223,"ğ":224,"Ġ":225,"ġ":226,"Ģ":227,"ģ":228,"Ĥ":229,"ĥ":230,"Ħ":231,"ħ":232,"Ĩ":233,"ĩ":234,"Ī":235,"ī":236,"Ĭ":237,"ĭ":238,"Į":239,"į":240,"İ":241,"ı":242,"Ĳ":243,"ĳ":244,"Ĵ":245,"ĵ":246,"Ķ":247,"ķ":248,"ĸ":249,"Ĺ":250,"ĺ":251,"Ļ":252,"ļ":253,"Ľ":254,"ľ":255,"Ŀ":256,"ŀ":257,"Ł":258,"ł":259,"Ń":260,"en":261,"er":262,"ie":263,"in":264,"at":265,"or":266,"an":267,"ge":268,"on":269,"ar":270,"ch":271,"ij":272,"Ġv":273,"Ġd":274,"st":275,"al":276,"Ġm":277,"ol":278,"el":279,"et":280,"is":281,"ing":282,"di":283,"Ġb":284,"Ġp":285,"Ġn":286,"re":287,"Ġo":288,"Ġge":289,"Ġt":290,"ĠC":291,"Ġh":292,"oor":293,"Ġ(":294,"og":295,"Ġa":296,"cht":297,"Ġc":298,"Ġ[":299,"Ġ1":300,"la":301,"de":302,"Ġw":303,"Ġs":304,"--":305,"ra":306,"le":307,"it":308,"oe":309,"Ġen":310,"Ġin":311,"atie":312,"Ġde":313,"ardi":314,"us":315,"der":316,"Ġe":317,"den":318,"ro":319,"ct":320,"um":321,"ver":322,"ĠA":323,"am":324,"ul":325,"Ġvan":326,"em":327,"ent":328,"Ġop":329,"Ġ2":330,"aar":331,"Ġmet":332,"AT":333,"om":334,"Ġk":335,"Ġz":336,"ale":337,"olog":338,"ee":339,"se":340,"Ġver":341,"aal":342,"ologie":343,"UM":344,"ER":345,"ig":346,"Ġg":347,"isch":348,"ic":349,"id":350,"ON":351,"ĠT":352,"OON":353,"Ġl":354,"DAT":355,"DATUM":356,"ĠL":357,"ĠP":358,"ardiologie":359,"op":360,"PER":361,"ijk":362,"PERS":363,"PERSOON":364,"art":365,"ag":366,"Ġvoor":367,"ens":368,"Ġgeen":369,"Ġon":370,"ken":371,"ri":372,"eg":373,"Ġbij":374,"ur":375,"sch":376,"Ge":377,"----":378,"Ġst":379,"nt":380,"sp":381,"Ġre":382,"iet":383,"Ġbe":384,"ĠS":385,"ĠV":386,"eer":387,"Ġf":388,"ons":389,"ĠM":390,"ĠR":391,"ult":392,"CA":393,"onsult":394,"cl":395,"usie":396,"ot":397,"orm":398,"20":399,"Ġeen":400,"ĠE":401,"un":402,"ĠH":403,"il":404,"ctie":405,"Ġper":406,"ĠD":407,"ine":408,"ĠI":409,"ant":410,"and":411,"ĠO":412,"ele":413,"Con":414,"clusie":415,"Ġu":416,"oc":417,"ati":418,"ak":419,"gen":420,"Cardiologie":421,"atum":422,"ru":423,"ĠGe":424,"CAR":425,"as":426,"Ġaan":427,"ab":428,"]:":429,"Ġniet":430,"Ġonder":431,"ijn":432,"ische":433,"ingen":434,"ĠN":435,"Ġ3":436,"sla":437,"ĠConsult":438,"sie":439,"icht":440,"Ġis":441,"ce":442,"zoe":443,"ijd":444,"Conclusie":445,"Ġ-":446,"),":447,"te":448,"Ġi":449,"rij":450,"zoek":451,"Ġaf":452,"yp":453,"Ġhet":454,"ir":455,"ĠB":456,"min":457,"Ġ20":458,"dic":459,"Ġ0":460,"oord":461,"Ġ4":462,"oog":463,"ont":464,"gev":465,"ft":466,"):":467,"chten":468,"ne":469,"ose":470,"ĠTh":471,"Ġna":472,"oed":473,"ĠĊ":474,"ĠGeen":475,"nam":476,"ema":477,"rijv":478,"Ġte":479,"Ġ5":480,"ĠAnt":481,"--------":482,"schrijv":483,"Ġj":484,"woord":485,"me":486,"os":487,"schrijving":488,"pl":489,"end":490,"orie":491,"ĠCat":492,"Om":493,"dicatie":494,"egorie":495,"Omschrijving":496,"ĠAntwoord":497,"ĠCategorie":498,"ĠThema":499,"unctie":500,"Ġover":501,"Ġmm":502,"Ġr":503,"IE":504,"ik":505,"lachten":506,"ec":507,"elijk":508,"ort":509,"ĠLV":510,"Ġdi":511,"mg":512,"],":513,"Ġhart":514,"slag":515,"lin":516,"201":517,"he":518,"rol":519,"Ġonderzoek":520,"ang":521,"ter":522,"ure":523,"ok":524,"ige":525,"gevens":526,"ink":527,"ac":528,"eren":529,"ut":530,"ĠCardiologie":531,"00":532,"aat":533,"Ġx":534,"wij":535,"gel":536,"Ġnorm":537,"versie":538,"Ġwaar":539,"Ġ6":540,"Ġpro":541,"eld":542,"Datum":543,"Ã«":544,"Ġal":545,"AD":546,"iek":547,"ier":548,"ten":549,"ast":550,"con":551,"Ġdag":552,"ad":553,"Ġlink":554,"ff":555,"im":556,"EF":557,"Ġof":558,"ijden":559,"ĊĊ":560,"Ġdoor":561,"ven":562,").":563,"ĠĠ":564,"Ġcor":565,"es":566,"gegevens":567,"Ġer":568,"ist":569,"Ġcardi":570,"conversie":571,"conversiegegevens":572,"Ġcont":573,"Ġme":574,"Ġklachten":575,"ĠG":576,"wijz":577,"Nee":578,"ced":579,"Ġma":580,"ve":581,"eleid":582,"uis":583,"Ġla":584,"Ġnu":585,"Ġnaar":586,"Ġ|":587,"ou":588,"rie":589,"ram":590,"gesch":591,"ath":592,"cedure":593,"ieden":594,"entie":595,"nese":596,"yper":597,"CG":598,"sc":599,"eerd":600,"Ġan":601,"olg":602,"Ġrecht":603,"iedenis":604,"eeft":605,"geschiedenis":606,"be":607,"Ġ7":608,"EN":609,"pt":610,"ste":611,"Ġ201":612,"Ã«nt":613,"Ġuit":614,"if":615,"Ġpati":616,"air":617,"IS":618,"Ġsp":619,"uw":620,"lep":621,"ull":622,"leg":623,"lo":624,"Ġ8":625,"Ġcol":626,"onder":627,"CI":628,"mm":629,"ire":630,"ensie":631,"acht":632,"atri":633,"Ġvoorgeschiedenis":634,"ĠOver":635,"ap":636,"lat":637,"ib":638,"ard":639,"oede":640,"cho":641,"Ġor":642,"vat":643,"ĠK":644,"ĠVer":645,"ect":646,"Ġfunctie":647,"Ġ/":648,"urs":649,"ruk":650,"ril":651,"eu":652,"act":653,"voor":654,"wijk":655,"of":656,"erd":657,"Ġtot":658,"ium":659,"HU":660,"emie":661,"ill":662,"res":663,"KEN":664,"ZIE":665,"ĠU":666,"HUIS":667,"ZIEKEN":668,"ZIEKENHUIS":669,"sen":670,"ide":671,"ien":672,"role":673,"name":674,"abl":675,"Hg":676,"ursus":677,"af":678,"Ġ9":679,"ell":680,"itme":681,"Ġ10":682,"10":683,"ind":684,"aan":685,"vull":686,"Ġle":687,"Ġinf":688,"Ġgoed":689,"ze":690,"Ġpol":691,"ost":692,"ypert":693,"ting":694,"amen":695,"zicht":696,"ann":697,"zel":698,"raag":699,"erk":700,"Ġsy":701,"ich":702,"Ġth":703,"qu":704,"ĠF":705,"onair":706,"Ġbl":707,"----------------":708,"Aan":709,"eken":710,"alis":711,"Ġwor":712,"ia":713,"uur":714,"ore":715,"ula":716,"dilat":717,"eter":718,"ende":719,"ma":720,"eel":721,"namnese":722,"iklin":723,"CD":724,"uc":725,"Ġmg":726,"oloog":727,"amenvat":728,"TI":729,"amenvatting":730,"Ġlinker":731,"Ġoraal":732,"oel":733,"Ġtijd":734,"Ġatri":735,"ed":736,"Beleid":737,"Ġnormale":738,"hand":739,"Anamnese":740,"omen":741,"Ġom":742,"LE":743,"rief":744,"Ġook":745,"==":746,"Ġto":747,"ĠW":748,"Ġwaarvoor":749,"ĠCA":750,"ĠCT":751,"ys":752,"Ġnog":753,"eling":754,"Ġdatum":755,"arts":756,"Ġeer":757,"igram":758,"eratie":759,"LO":760,"ijst":761,"Ġpijn":762,"ĠECG":763,"enose":764,"ablet":765,"Ġiv":766,"Ġzijn":767,"ĠRV":768,"ĠOverzicht":769,"ĠIn":770,"functie":771,"ĠDe":772,"vullend":773,"gelijk":774,"Ġmill":775,"Ġwel":776,"ID":777,"Ġheeft":778,"].":779,"TE":780,"ypertensie":781,"spra":782,"fie":783,"rocedure":784,"TX":785,"heid":786,"Ġmilligram":787,"ATIE":788,"umf":789,"Ġtablet":790,"Ġnee":791,"Ġverv":792,"Ġafwijk":793,"Ġaort":794,"ibril":795,"CATIE":796,"ax":797,"ond":798,"Ġger":799,"nis":800,"Tijd":801,"Ġrechts":802,"Ġgoede":803,"LOCATIE":804,"aties":805,"Ġter":806,"Ġno":807,"Ġisch":808,"Ġont":809,"Ġhoog":810,"50":811,"spann":812,"etten":813,"Ġmo":814,"we":815,"alc":816,"Ġcolleg":817,"Ġsc":818,"kel":819,"zien":820,"Re":821,"su":822,"Ġja":823,"Over":824,"kend":825,"druk":826,"ĠmmHg":827,"Ġaanwijz":828,"dere":829,"ulm":830,"bl":831,"ies":832,"Ġgedilat":833,"spraak":834,"ific":835,"omp":836,"Ġgest":837,"chter":838,"inge":839,"ĠPCI":840,"mb":841,"Ġ]":842,"Ġmmol":843,"Aanvullend":844,"ardiale":845,"Keu":846,"zelijst":847,"Keuzelijst":848,"radi":849,"uit":850,"ecursus":851,"200":852,"Ġdec":853,"ĠpatiÃ«nt":854,"vent":855,"Ġivm":856,"ĠNorm":857,"ite":858,"Ġru":859,"ĠZ":860,"ke":861,"tra":862,"est":863,"spanning":864,"kt":865,"ente":866,"men":867,"JD":868,"isic":869,"TIJD":870,"LEEF":871,"LEEFTIJD":872,"dt":873,"Ġmeer":874,"Ġzetten":875,"edicatie":876,"Ġcon":877,"Ġwerd":878,"ĠICD":879,"Ġ40":880,"Ġ13":881,"Ġcoronair":882,"alen":883,"ibrill":884,"Ġaanwijzingen":885,"Ġmin":886,"dig":887,"Ġcontrole":888,"oornis":889,"consult":890,"ron":891,"ogra":892,"Ġnormaal":893,"VA":894,"sl":895,"int":896,"uid":897,"Ġrec":898,"ĠQ":899,"Ġdat":900,"ĠLAD":901,"na":902,"Ġdan":903,"Ġopname":904,"ibrilleren":905,"val":906,"od":907,"Ġlon":908,"antatie":909,"In":910,"Ġlinks":911,"Ġmaar":912,"Ġ14":913,"dien":914,"ion":915,"mpl":916,"Ġzonder":917,"Ġsu":918,"Ġbel":919,"Ġmedicatie":920,"inus":921,"RI":922,"Ġgeb":923,"olische":924,"iale":925,"xim":926,"Ġischemie":927,"Ġant":928,"hoog":929,"Ġjaar":930,"Samenvatting":931,"bij":932,"Ġvolg":933,"co":934,"orax":935,"Ġsyst":936,"dd":937,"Ġher":938,"eerde":939,"Geen":940,"Ġ12":941,"ocardi":942,"atige":943,"Ġinspanning":944,"wee":945,"stoornis":946,"ip":947,"ran":948,"th":949,"19":950,"ype":951,"ater":952,"Ġhuis":953,"Ġstenose":954,"roken":955,"Ġwordt":956,"nen":957,"slacht":958,"Ġex":959,"Ġprocedure":960,"vol":961,"Ġdd":962,"yc":963,"aker":964,"ric":965,"laat":966,"requ":967,"lijk":968,"Al":969,"arct":970,"Ġbloed":971,"ĠSt":972,"erol":973,"iden":974,"ikliniek":975,"ox":976,"amelijk":977,"lop":978,"ces":979,"Ja":980,"ign":981,"Ġecho":982,"ompl":983,"Ġtoe":984,"je":985,"Ġvent":986,"ulmon":987,"Brief":988,"12":989,"stell":990,"Ġbor":991,"rog":992,"acem":993,"ocht":994,"king":995,"agn":996,"baar":997,"atig":998,"Ġ50":999,"low":1000,"elijke":1001,"acemaker":1002,"ichamelijk":1003,"ĠAF":1004,"atief":1005,"Ġinter":1006,"Ġvervolg":1007,"datum":1008,"Medicatie":1009,"richt":1010,"ass":1011,"Ġ+":1012,"Ġcollegiale":1013,"Ġbehand":1014,"ug":1015,"Ġals":1016,"geb":1017,"ysp":1018,"Reden":1019,"weg":1020,"'s":1021,"Ġmid":1022,"pen":1023,"rikel":1024,"iteit":1025,"Ġborst":1026,"oven":1027,"umfibrilleren":1028,"Ġ100":1029,"Ġch":1030,"HTX":1031,"atus":1032,"Ġrechter":1033,"Ġ200":1034,"Ġimpl":1035,"Ġdit":1036,"ep":1037,"amil":1038,":[":1039,"ĠOp":1040,"Ġgeh":1041,"ritme":1042,"Ver":1043,"athie":1044,"ulaire":1045,"klachten":1046,"ĠCAG":1047,"score":1048,"achting":1049,"alcium":1050,"])":1051,"ECG":1052,"ach":1053,"Ġrust":1054,"Ġcardiale":1055,"Ġ:":1056,"Ġafwijkingen":1057,"Ġ([":1058,"form":1059,"Ġwat":1060,"Ġne":1061,"omplic":1062,"Ġhoogachting":1063,"FR":1064,"Ġgezien":1065,"Ġrisic":1066,"ĠMet":1067,"akt":1068,"Ġlong":1069,"lijden":1070,"abie":1071,"Ġ16":1072,"klep":1073,"suff":1074,"Di":1075,"Ġverhoog":1076,"eb":1077,"Lichamelijk":1078,"heden":1079,"ings":1080,"Ġ15":1081,"lan":1082,"ijdens":1083,"Decursus":1084,"Ġap":1085,"Ġzo":1086,"ĠNormale":1087,"nst":1088,"ker":1089,"eri":1090,"ĠMI":1091,"Ġvol":1092,"ĠEr":1093,"ĠRCA":1094,"Ġgele":1095,"ici":1096,"Ġml":1097,"als":1098,"ante":1099,"requentie":1100,"Ġmogelijk":1101,"genomen":1102,"ĠOn":1103,"80":1104,"Ġverb":1105,"ĠPol":1106,"CV":1107,"ber":1108,"Ġ;":1109,"Op":1110,"Ġsign":1111,"yten":1112,"Ġ25":1113,"MI":1114,"sproken":1115,"CT":1116,"ym":1117,"Ġ11":1118,"romb":1119,"Ġkom":1120,"yse":1121,"line":1122,"inf":1123,"Ġuur":1124,"Ġdaar":1125,"spre":1126,"BG":1127,"chocardi":1128,"Procedure":1129,"ĠMRI":1130,"opathie":1131,"noe":1132,"ĠLVEF":1133,"Ġgedilateerd":1134,"ede":1135,"Ġdysp":1136,"asc":1137,"ocard":1138,"ressie":1139,"Ġhartf":1140,"Ġpatient":1141,"wicht":1142,"ieuw":1143,"St":1144,"amnese":1145,"====":1146,");":1147,"Ġwas":1148,"oren":1149,"ief":1150,"Ġweer":1151,"anden":1152,"arige":1153,"orac":1154,"ruik":1155,"rop":1156,"Ġimplantatie":1157,"elen":1158,"Ġwand":1159,"inds":1160,"suffici":1161,"ĠAo":1162,"%.":1163,"Ġged":1164,"Be":1165,"CH":1166,"Ġeerder":1167,"Ġvia":1168,"Ġvervolgconsult":1169,"arm":1170,"ĠVerslag":1171,"Ġgev":1172,"linische":1173,"Ġang":1174,"Ġbeleid":1175,"oprol":1176,"ografie":1177,"aklep":1178,"Ġatriumfibrilleren":1179,"olest":1180,"ulair":1181,"agnose":1182,"abet":1183,"oprolol":1184,"ment":1185,"fusie":1186,"opt":1187,"yocard":1188,"inusritme":1189,"olesterol":1190,"Ġsec":1191,"ĠUit":1192,"ame":1193,"Overige":1194,"Ġac":1195,"40":1196,"ĠCon":1197,"do":1198,"alyse":1199,"Ġkan":1200,"Ġbet":1201,"stoornissen":1202,"aire":1203,"Hart":1204,"ĠRR":1205,".:":1206,"Ġzich":1207,"ycard":1208,"eng":1209,"stelling":1210,"Ġuw":1211,"ĠBij":1212,"--------------------------------":1213,"Ġ80":1214,"Ġgehad":1215,"Cor":1216,"Ġpre":1217,"ĠAV":1218,"els":1219,"ger":1220,"Ġritme":1221,"IN":1222,"dige":1223,"Ġart":1224,"ĠAan":1225,"Ġ30":1226,"Ġoede":1227,"eek":1228,"omy":1229,"Ġhuisarts":1230,"Met":1231,"ĠPati":1232,"ple":1233,"ĠEF":1234,"ucces":1235,"Ġsignific":1236,"Ġgeringe":1237,"rouw":1238,"Ġwv":1239,"alciumscore":1240,"Ġhier":1241,"Ġpulmon":1242,"ĠTI":1243,"Ġ>":1244,"Ġho":1245,"zen":1246,"De":1247,"ycardie":1248,"oort":1249,"Ġafspraak":1250,"Ġdie":1251,"Ġgaat":1252,"Ġkle":1253,"Ġtype":1254,"reat":1255,"meld":1256,"Ġbas":1257,"abetes":1258,"kun":1259,"Ġtijdens":1260,"ichting":1261,"Ġmatige":1262,"amer":1263,"one":1264,"iding":1265,"30":1266,"Ġgro":1267,"Ġweken":1268,"ate":1269,"Ġob":1270,"ES":1271,"Ġworden":1272,"Ġdecursus":1273,"Ġmaanden":1274,"ress":1275,"ĠII":1276,"ofd":1277,"Ġpar":1278,"ocyten":1279,"antie":1280,"Ġhij":1281,"ffle":1282,"omie":1283,"Ġbekend":1284,"ĠAl":1285,"Ġhypertensie":1286,"iets":1287,"itis":1288,"Ġbeeld":1289,"ock":1290,"Ġ19":1291,"Ġcm":1292,"org":1293,"olter":1294,"Ġas":1295,"erose":1296,"Ġsou":1297,"VI":1298,"lut":1299,"ui":1300,"met":1301,"waar":1302,"erg":1303,"aten":1304,"uccesvol":1305,"Ġaorta":1306,"11":1307,"Ġweg":1308,"ander":1309,"oracale":1310,"open":1311,"Ġconsult":1312,"ĠST":1313,"Ġdruk":1314,"erv":1315,"Ġvolgens":1316,"ĠGeslacht":1317,"Ġaortaklep":1318,"ml":1319,"Ġ17":1320,"Ġpost":1321,"Ġhem":1322,"Ġsouffle":1323,"Ġnier":1324,"Ġwe":1325,"Ġlicht":1326,"wijzig":1327,"Ġsystolische":1328,"blatie":1329,"Ġred":1330,"Ġsn":1331,"lu":1332,"xt":1333,"Ġernst":1334,"Ġdo":1335,"isatie":1336,"Ġstabie":1337,"kl":1338,"ov":1339,"tri":1340,"Ġse":1341,"TEL":1342,"eft":1343,"erior":1344,"ade":1345,"Ġgra":1346,"Ġventrikel":1347,"ĠHet":1348,"Ġgegevens":1349,"Ġsub":1350,"Ġontslag":1351,"Ġstart":1352,"oelichting":1353,"ble":1354,"Ġple":1355,"mmHg":1356,"lutter":1357,"vens":1358,"rofie":1359,"Ġneg":1360,"schijn":1361,"Ġmax":1362,"Ġtra":1363,"lap":1364,"]-":1365,"matig":1366,"mer":1367,"Sp":1368,"amilie":1369,"oom":1370,"innen":1371,"man":1372,"omyopathie":1373,"iv":1374,"ogram":1375,"atine":1376,"ĠProcedure":1377,"Ġ\\":1378,"Ġanamnese":1379,"age":1380,"laats":1381,"all":1382,"ouden":1383,"pleeg":1384,"RS":1385,"Ġdyspnoe":1386,"Ġverhoogd":1387,"RR":1388,"?:":1389,"kende":1390,"ator":1391,"roe":1392,"Ġade":1393,"dra":1394,"nd":1395,"cm":1396,"Ġstent":1397,"Ġklep":1398,"Ġdagen":1399,"ĠCR":1400,"ĠNa":1401,"reft":1402,"etrie":1403,"Hypertensie":1404,"ĠLA":1405,"Ġprog":1406,"lecht":1407,"pro":1408,"unt":1409,"Ġproxim":1410,"ĠVT":1411,"infarct":1412,"pit":1413,"verslag":1414,"ĠConclusie":1415,"Ġ60":1416,"ren":1417,"afwijk":1418,"Ġweek":1419,"OR":1420,"Ġbep":1421,"otal":1422,"ofact":1423,"Ġben":1424,"Toelichting":1425,"erap":1426,"Ġhartfalen":1427,"Ġbloeddruk":1428,"ĠRe":1429,"otalol":1430,"usp":1431,"ase":1432,"oon":1433,"loed":1434,"Echo":1435,"schijnlijk":1436,"%,":1437,".|":1438,"omin":1439,"Ġcontact":1440,"eratieverslag":1441,"ogen":1442,"Ġboven":1443,"Ġscore":1444,"Ġreg":1445,"Ġnodig":1446,"ameter":1447,"Ġgen":1448,"ĠCABG":1449,"Ġablatie":1450,"Ġsch":1451,"Ġ18":1452,"ueel":1453,"io":1454,"CK":1455,"ust":1456,"denos":1457,"ĠSR":1458,"idief":1459,"eringe":1460,"Ġlab":1461,"ĠJ":1462,"huis":1463,"Ġverder":1464,"ĠTA":1465,"Ġtach":1466,"Ġmoe":1467,"Ġdiast":1468,"90":1469,"insuffici":1470,"Ġthoracale":1471,"Ġele":1472,"ura":1473,"Ġlang":1474,"dv":1475,"thorax":1476,"ofactoren":1477,"oten":1478,"Ġeerste":1479,"AS":1480,"ĠX":1481,"gest":1482,"Ġ.":1483,"25":1484,"Ġpolikliniek":1485,"Ġzie":1486,"Ġ<":1487,"cont":1488,"Af":1489,"hal":1490,"kg":1491,"oth":1492,"ĠCardiale":1493,"15":1494,"wijzigd":1495,"Ġgedilateerde":1496,"eci":1497,"Ġsept":1498,"vic":1499,"AC":1500,"achte":1501,"Ġkort":1502,"maal":1503,"itr":1504,"ari":1505,"jarige":1506,"Ġbinnen":1507,"Ġperfusie":1508,"uut":1509,"minder":1510,"ĠCardi":1511,"Ġradi":1512,"ica":1513,"ace":1514,"Ġalle":1515,"Ġpoli":1516,"60":1517,"ĠHTX":1518,"ADS":1519,"ĠDi":1520,"itie":1521,"raagstelling":1522,"Ġlast":1523,"opie":1524,"regel":1525,"aag":1526,"sel":1527,"LV":1528,"RV":1529,"Ġcardioloog":1530,"Ġstop":1531,"deling":1532,"ĠDD":1533,"Ġasc":1534,"ject":1535,"Ġ90":1536,"Ġaange":1537,"Ġtoen":1538,"DL":1539,"engte":1540,"Ġveel":1541,"ectie":1542,"aren":1543,"ĠOnder":1544,"Ġlever":1545,"laps":1546,"rof":1547,"Ġdeze":1548,"Ġerg":1549,"Ġoedeem":1550,"mol":1551,"Niet":1552,"av":1553,"ĠAP":1554,"atio":1555,"Ġkomst":1556,"wand":1557,"vocht":1558,"VT":1559,"21":1560,"ijds":1561,"Ġspra":1562,"lob":1563,"Ġlaat":1564,"Ġsinds":1565,"cholesterol":1566,"Pati":1567,"ĠUitslag":1568,"wege":1569,"MER":1570,"are":1571,"igen":1572,"Ġhyp":1573,"Ġze":1574,"ĠBe":1575,"ĠQRS":1576,"van":1577,"vraag":1578,"geen":1579,"mie":1580,"Ġgebruik":1581,"oll":1582,"Ġverband":1583,"emen":1584,"Ġheb":1585,"NUM":1586,"mp":1587,"NUMMER":1588,"TELEF":1589,"OONNUMMER":1590,"TELEFOONNUMMER":1591,"sloten":1592,"pol":1593,"MA":1594,"operatie":1595,"clerose":1596,"Ġmee":1597,"pm":1598,"Ġperc":1599,"erkt":1600,"Ġstatus":1601,"Ġsignificante":1602,"Ġpal":1603,"ĠPolikliniek":1604,"igheid":1605,"dis":1606,"Ġafge":1607,"Ġslecht":1608,"13":1609,"ĠGoede":1610,"oop":1611,"Cont":1612,"gemen":1613,"gemene":1614,"Ġik":1615,"zonder":1616,"Ġ,":1617,"Ġ24":1618,"ilat":1619,"Ġpat":1620,"mensie":1621,"ijkt":1622,"Ġziek":1623,"Cardi":1624,"alisklep":1625,"Ġven":1626,"Ġbehandeling":1627,"70":1628,"yl":1629,"EH":1630,"bd":1631,"ef":1632,"egment":1633,"dag":1634,"ompens":1635,"staan":1636,"melding":1637,"inine":1638,"Lab":1639,"Ġlater":1640,"Ġterug":1641,"Ġ75":1642,"yes":1643,"riculaire":1644,"Ġ70":1645,"Ġperic":1646,"ĠSp":1647,"jectie":1648,"reatinine":1649,"vind":1650,"ob":1651,"radioloog":1652,"venen":1653,"Ġcollaps":1654,"Ã¯":1655,"hol":1656,"Ġbijw":1657,"osis":1658,"ĊĊĊ":1659,"RE":1660,"las":1661,"ometrie":1662,"uk":1663,"za":1664,"atrium":1665,"ĠLVF":1666,"ratie":1667,"Cardiale":1668,"mid":1669,"sist":1670,"cardi":1671,"Ġarts":1672,"Ġdimensie":1673,"PCI":1674,"orgen":1675,"Ġcardiologie":1676,"ere":1677,"gebre":1678,"Ġverminder":1679,"ĠECV":1680,"ering":1681,"ud":1682,"plan":1683,"2015":1684,"sy":1685,"uik":1686,"oem":1687,"Geachte":1688,"Ġwaarschijnlijk":1689,"ider":1690,"Ġechter":1691,"Ġaant":1692,"Ġmyocard":1693,"22":1694,"Ġstabiel":1695,"uizel":1696,"Ġat":1697,"elef":1698,"Âł":1699,"ĠNee":1700,"Ġev":1701,"ms":1702,"Ġopn":1703,"Ġcontra":1704,"Ġonge":1705,"liniek":1706,"HA":1707,"ader":1708,"GFR":1709,"entr":1710,"Ġdist":1711,"Ġsnel":1712,"Ġcordis":1713,"Ġhaar":1714,"slagen":1715,"lex":1716,"OB":1717,"Ġman":1718,"ilt":1719,"ĠDecursus":1720,"ix":1721,"gende":1722,"vice":1723,"elf":1724,"resent":1725,"Ġduid":1726,"rel":1727,"Ġdys":1728,"pijn":1729,"Afspraak":1730,"Ġconform":1731,"Ġinfarct":1732,"ction":1733,"ĊĠ":1734,"urende":1735,"ation":1736,"Ġdilat":1737,"Ġopgenomen":1738,"stenose":1739,"richting":1740,"Ġiets":1741,"erapie":1742,"chocardiogram":1743,"ĠPV":1744,"zol":1745,"Ġlead":1746,"elden":1747,"houden":1748,"medicatie":1749,"omat":1750,"2016":1751,"weest":1752,"ĠNiet":1753,"up":1754,"Ġdiff":1755,"14":1756,"eten":1757,"Ġcomp":1758,"Ġkun":1759,"Ġmaxim":1760,"room":1761,"Ġcollega":1762,"ĠSEH":1763,"Ġsh":1764,"Ġfor":1765,"toc":1766,"per":1767,"ĠHart":1768,"eros":1769,"vast":1770,"ening":1771,"ragen":1772,"atheter":1773,"Ġernstige":1774,"itu":1775,"Ġanalyse":1776,"Ġam":1777,"ĠIndicatie":1778,"199":1779,"Ġgeweest":1780,"75":1781,"Ġpleura":1782,"ben":1783,"Ġrecidief":1784,"AG":1785,"kele":1786,"linisch":1787,"zijds":1788,"arc":1789,"cor":1790,"LAD":1791,"alium":1792,"Ġsl":1793,"Ġbekende":1794,"Ġpath":1795,"iografie":1796,"Ġnieuw":1797,"Norm":1798,"Diabetes":1799,"Ã«ntie":1800,"Ġvanwege":1801,"oemde":1802,"ĠVoor":1803,"nee":1804,"2014":1805,"ument":1806,"ĠGeringe":1807,"Ġyes":1808,"tocol":1809,"ub":1810,"73":1811,"omplicaties":1812,"dens":1813,"Ġcalciumscore":1814,"Ġhartas":1815,"uro":1816,"ologische":1817,"Ġbelang":1818,"zonderheden":1819,"ICD":1820,"denosine":1821,"geven":1822,"ret":1823,"Ġevent":1824,"RA":1825,"Ġtoont":1826,"Ġmitr":1827,"ute":1828,"Ġgeleiding":1829,"genoemde":1830,"dvies":1831,"wel":1832,"onden":1833,"pitaties":1834,"Ġoverig":1835,"Atri":1836,"Ġverpleeg":1837,"REHTX":1838,"iderzijds":1839,"ocument":1840,"ummer":1841,"itus":1842,"Ġtachycardie":1843,"iklinische":1844,"gang":1845,"2017":1846,"ĠEcho":1847,"uwd":1848,"Ġret":1849,"Algemene":1850,"Ġsprake":1851,"Ġasp":1852,"Ext":1853,"NR":1854,"Het":1855,"========":1856,"Ġlaag":1857,"Ġint":1858,"ĠRC":1859,"TB":1860,"Ġpacemaker":1861,"ging":1862,"Ġkunnen":1863,"Ġextra":1864,"fisch":1865,"kundige":1866,"Âµ":1867,"Ġwegens":1868,"Ġcons":1869,"vastatine":1870,"ode":1871,"eeftijd":1872,"neum":1873,"ĠNormaal":1874,"olie":1875,"Ġzeer":1876,"loeddruk":1877,"Ġms":1878,"Ġrest":1879,"erie":1880,"Ġverm":1881,"uccesvolle":1882,"ĠAanmelding":1883,"Ġobv":1884,"ank":1885,"Ġzien":1886,"ypercholesterol":1887,"ĠPer":1888,"Ġmetoprolol":1889,"Ġstress":1890,"Ġhoofd":1891,"yt":1892,"Ġpresent":1893,"ĠAS":1894,"Ġoverleg":1895,"olling":1896,"acing":1897,"rofiel":1898,"medi":1899,"ance":1900,"dels":1901,"ĊĊĊĊ":1902,"16":1903,"aakt":1904,"ricusp":1905,"OS":1906,"Ġwaarbij":1907,"Ġpulmonaal":1908,"ĠOnderzoek":1909,"AF":1910,"adem":1911,"iod":1912,"complic":1913,"Â²":1914,"Er":1915,"Ġduizel":1916,"uele":1917,"ina":1918,"uiten":1919,"ĠpatiÃ«nte":1920,"BTB":1921,"kal":1922,"Ġdecompens":1923,"On":1924,"anging":1925,"Controle":1926,"Ġpass":1927,"ucc":1928,"gro":1929,"wez":1930,"ĠAT":1931,"SP":1932,"Ġzelf":1933,"Ġzal":1934,"Lengte":1935,"endens":1936,"urg":1937,"Ġvaat":1938,"Ġzij":1939,"aring":1940,"cept":1941,"Ġpl":1942,"orator":1943,"ĠCor":1944,"2013":1945,"gele":1946,"oelt":1947,"oratorium":1948,"iaal":1949,"Ġproble":1950,"Ġ%":1951,"Ġverander":1952,"Ġel":1953,"kken":1954,"Ġcardio":1955,"2018":1956,"ussen":1957,"Ġhoe":1958,"Ġbeter":1959,"Ġcoronairlijden":1960,"Ġgevoel":1961,"Ġvolgt":1962,"Ġpri":1963,"Bij":1964,"rose":1965,"None":1966,"fra":1967,"ca":1968,"ĠĠĠ":1969,"oment":1970,"Ġandere":1971,"ĠCO":1972,"Ġ'":1973,"Ġherst":1974,"Ġlijkt":1975,"neu":1976,"Ġprogressie":1977,"Ġrecente":1978,"chts":1979,"..":1980,"ĠKlinische":1981,"space":1982,"Ġminder":1983,"unction":1984,"Ġdis":1985,"iodar":1986,"frequentie":1987,"Na":1988,"Ġhel":1989,"elev":1990,"Ġplaats":1991,"lopp":1992,"ventie":1993,"rans":1994,"wijzing":1995,"reum":1996,"maakt":1997,"erken":1998,"veal":1999,"ĠKliniek":2000,"denking":2001,"erende":2002,"ĠOK":2003,"Ġkg":2004,"Behand":2005,"onen":2006,"DR":2007,"iÃ«":2008,"Ġmedic":2009,"ellitus":2010,"Ġprotocol":2011,"Ġthuis":2012,"Ġbed":2013,"Ġpla":2014,"vindingen":2015,"onderzoek":2016,"Ġsinusritme":2017,"dit":2018,"ventrikel":2019,"spreking":2020,"dip":2021,"Ġ_":2022,"Ġsegment":2023,"ize":2024,"oprofiel":2025,"ĠSc":2026,"lank":2027,"Ġgedurende":2028,"erend":2029,"uiden":2030,"Ġzw":2031,"oris":2032,"kw":2033,"leden":2034,"ypercholesterolemie":2035,"regelmatig":2036,"ollow":2037,"sem":2038,"Ġbasis":2039,"Ġep":2040,"Ġenkele":2041,"2012":2042,"hm":2043,"Ġeigen":2044,"Sc":2045,"tijd":2046,"Ġredelijke":2047,"arisatie":2048,"Ġgraad":2049,"Ġbeiderzijds":2050,"ĠVraagstelling":2051,"entiel":2052,"Ġbesproken":2053,"ĠRA":2054,"Ġsotalol":2055,"reep":2056,"Ġdevice":2057,"ntslag":2058,"Ġca":2059,"pacemaker":2060,"oit":2061,"Ġoperatie":2062,"kk":2063,"Tc":2064,"Ġhartk":2065,"Familie":2066,"mmol":2067,"Ġ23":2068,"eert":2069,"Ġpos":2070,"Ġverminderde":2071,"osc":2072,"Ġpleuravocht":2073,"Ġpercentiel":2074,"ees":2075,"Ġindicatie":2076,"Geslacht":2077,"Type":2078,"iggen":2079,"Ġnegatief":2080,"tis":2081,"cohol":2082,"Ġverricht":2083,"inu":2084,"ex":2085,"itale":2086,"eur":2087,"oep":2088,"Ġ--------------------------------":2089,"ĠHolter":2090,"luc":2091,"ĠVerrichting":2092,"Ġatriale":2093,"Ġsinus":2094,"Ġmaken":2095,"erkingen":2096,"Ġ120":2097,"ĠHeeft":2098,"loppingen":2099,"2019":2100,"ĠOverige":2101,"urosem":2102,"Ġoog":2103,"urosemide":2104,"Ġnieuwe":2105,"ĠCa":2106,"Pol":2107,"Ġwij":2108,"gelopen":2109,"Ġflow":2110,"ekend":2111,"Ġslechte":2112,"PatiÃ«nt":2113,"Ġ------------------------------------------------":2114,"Ġcardiomyopathie":2115,"rum":2116,"ĠVerslagdatum":2117,"Coronair":2118,"over":2119,"Ġ09":2120,"AP":2121,"Ġing":2122,"Aanvraag":2123,"ĠTTE":2124,"Ġbi":2125,"Ġelekt":2126,"Ġrisico":2127,"Ġapic":2128,"Document":2129,"dz":2130,"Ġbeoord":2131,"],[":2132,"atieve":2133,"Ġparox":2134,"Ġ2016":2135,"ili":2136,"ĠAf":2137,"ds":2138,"reening":2139,"rench":2140,"Ġafwijking":2141,"bekend":2142,"ĠPM":2143,"gaan":2144,"ss":2145,"Ġhebben":2146,"Ġmedi":2147,"24":2148,"ĠLVAD":2149,"Ġopt":2150,"Ġpect":2151,"Ġ150":2152,"Ġsten":2153,"rt":2154,"Ġverd":2155,"Ġpneum":2156,"ĠAC":2157,"Ġkamer":2158,"oofd":2159,"sec":2160,"iklinisch":2161,"stru":2162,"Ġintermedi":2163,"Ġverwij":2164,"elefon":2165,"vis":2166,"Ġbelast":2167,"Ac":2168,"Ġbdz":2169,"ypische":2170,"ropon":2171,"bel":2172,"ek":2173,"french":2174,"Size":2175,"ĠPatient":2176,"ulier":2177,"ern":2178,"ĠSamenvatting":2179,"pland":2180,"Ġlaten":2181,"ĠPVC":2182,"Ġmatig":2183,"Ġtromb":2184,"ĠLeeftijd":2185,"oms":2186,"ĠTel":2187,"TEMI":2188,"erking":2189,"geluiden":2190,"uren":2191,"ovengenoemde":2192,"Gewicht":2193,"oken":2194,"eftijd":2195,"Ġgestopt":2196,"Ġtussen":2197,"Ġrond":2198,"rad":2199,"MG":2200,"Ġtoch":2201,"ĠCK":2202,"Ġgestaakt":2203,"vorm":2204,"ymf":2205,"Bel":2206,"esie":2207,"irurg":2208,"Ġath":2209,"ĠInt":2210,"Ġachter":2211,"vall":2212,"Ġ500":2213,"Ġkomt":2214,"Ġro":2215,"ĠCV":2216,"ĠCont":2217,"istolling":2218,"Ġgew":2219,"18":2220,"Ġbijgeluiden":2221,"Ġkortadem":2222,"ziek":2223,"kom":2224,"17":2225,"Ġact":2226,"reveal":2227,"Ġmoment":2228,"adi":2229,"ronische":2230,"Ġsouffles":2231,"lucose":2232,"oorts":2233,"ĠRF":2234,"Ġverhoogde":2235,"zet":2236,"Ġtwee":2237,"Ġintra":2238,"etreft":2239,"2011":2240,"-->":2241,"lip":2242,"rug":2243,"istratie":2244,"ĠPatiÃ«nt":2245,"lanco":2246,"Ġ2015":2247,"iteiten":2248,"Ġpijnklachten":2249,"Klinische":2250,"klaring":2251,"Ġval":2252,"Ġnierfunctie":2253,"IMA":2254,"wezen":2255,"emor":2256,"ĠTe":2257,"afwijking":2258,"Ġpassend":2259,"waarden":2260,"ĠÂµ":2261,"igh":2262,"ĠZo":2263,"Ġpols":2264,"een":2265,"Ġ35":2266,"Ġbez":2267,"Ġzicht":2268,"ctomie":2269,"Ġpresentatie":2270,"Normale":2271,"ĠTele":2272,"Ġcoron":2273,"rijk":2274,"Ġvocht":2275,"Ġatheros":2276,"Ġhypert":2277,"plijden":2278,"Ġpersist":2279,"our":2280,"alcific":2281,"olatie":2282,"beeld":2283,"Ġdysfunctie":2284,"emische":2285,"Ġstenos":2286,"ĠINR":2287,"ografisch":2288,"dat":2289,"Ġdiastolische":2290,"ders":2291,"ded":2292,"ĠLab":2293,"Ġhartkloppingen":2294,"ptomat":2295,"Ġdecompensatio":2296,"Ġbuik":2297,"bare":2298,"ctieve":2299,"Ġeff":2300,"roponine":2301,"onregelmatig":2302,"ied":2303,"elefonisch":2304,"Ġmitralisklep":2305,"consultatie":2306,"Ġvergelijk":2307,"pect":2308,"intig":2309,"/-":2310,"ndroom":2311,"ĠTeleconsultatie":2312,"PD":2313,"Ġoor":2314,"NP":2315,"Ġduur":2316,"zem":2317,"mat":2318,"Ġbeg":2319,"ĠAoI":2320,"Opt":2321,"Ġdoen":2322,"Ġbetreft":2323,"ĠCRT":2324,"Ġcardiaal":2325,"oeid":2326,"fect":2327,"ule":2328,"ild":2329,"ember":2330,"ransp":2331,"Ġrisicofactoren":2332,"onregelmatigheden":2333,"opril":2334,"Ġverw":2335,"atter":2336,"Ġ2017":2337,"ow":2338,"Betreft":2339,"Succ":2340,"Ġgewicht":2341,"Ġgestart":2342,"Opties":2343,"Ġsup":2344,"eeded":2345,"Ġnon":2346,"Succeeded":2347,"ĠStatus":2348,"Bovengenoemde":2349,"sten":2350,"stijden":2351,"kte":2352,"Ġjarige":2353,"Ġ21":2354,"mbolie":2355,"Ġ22":2356,"uten":2357,"the":2358,"afwijkingen":2359,"insufficiÃ«ntie":2360,"CM":2361,"orte":2362,"Ġdaarna":2363,"Ġnov":2364,"ĠMedicatie":2365,"umar":2366,"Ġpatiente":2367,"Ġblij":2368,"stol":2369,"Voor":2370,"inesie":2371,"arcin":2372,"Ġopnieuw":2373,"Ġzorg":2374,"Ġten":2375,"Ġrepol":2376,"ral":2377,"Ġuitge":2378,"Ġventriculaire":2379,"Ġindien":2380,"ĠFFR":2381,"ong":2382,"CABG":2383,"ST":2384,"ergie":2385,"elde":2386,"Ġ45":2387,"ĠPOB":2388,"Ġdoorge":2389,"100":2390,"und":2391,"to":2392,"ĠCRP":2393,"Ġcir":2394,"imaal":2395,"Ġsamenvatting":2396,"ĠAn":2397,"Ġ2014":2398,"Ġgeleidingstijden":2399,"ecialis":2400,"slijden":2401,"YHA":2402,"doende":2403,"rag":2404,"Ġredelijk":2405,"Ġrisicoprofiel":2406,"2010":2407,"operatief":2408,"iÃ«le":2409,"ĠCalciumscore":2410,"zoeken":2411,"ĠNu":2412,"aken":2413,"uli":2414,"idi":2415,"Ġzichtbaar":2416,"BLE":2417,"Ġcar":2418,"ĠPG":2419,"Ġbijwerken":2420,"Ġpalpitaties":2421,"rem":2422,"lies":2423,"Ġinferior":2424,"weging":2425,"ecialisme":2426,"BS":2427,"ĠMV":2428,"ĠHCK":2429,"Ġlaatste":2430,"Ġaanwez":2431,"ĠĊĠ":2432,"Ã«n":2433,"Ġatrium":2434,"ĠPQ":2435,"Ġ36":2436,"Post":2437,"ĠHij":2438,"ude":2439,"ĠVAG":2440,"Ġhoge":2441,"Ġtoename":2442,"Ġkleplijden":2443,"Ġstuk":2444,"Ġbasaal":2445,"23":2446,"staande":2447,"Ġbijzonderheden":2448,"Ġfrequentie":2449,"Indicatie":2450,"euze":2451,"ysi":2452,"top":2453,"verander":2454,"ja":2455,"ers":2456,"Ġmag":2457,"Ġbpm":2458,"Ġpectoris":2459,"uiding":2460,"iodaron":2461,"razol":2462,"Ġverdenking":2463,"flutter":2464,"Ġuitgebre":2465,"Ġgep":2466,"ijnen":2467,"Ġbrief":2468,"ĠLVH":2469,"Ġpatint":2470,"Ġvragen":2471,"Ġ2018":2472,"Ġgb":2473,"85":2474,"ane":2475,"Ġthorax":2476,"Ġascendens":2477,"idatie":2478,"Ġteken":2479,"diagnose":2480,"ĠHem":2481,"insufficientie":2482,"Ġsla":2483,"ĠMO":2484,"Ġsitu":2485,"stam":2486,"Ġproximaal":2487,"ĠOnderzoekdatum":2488,"ĠIC":2489,"ilde":2490,"Ġleeftijd":2491,"Ġ2013":2492,"Ġdeel":2493,"Ġons":2494,"rg":2495,"Ant":2496,"Ġzou":2497,"compliceerd":2498,"ĠVCI":2499,"orth":2500,"45":2501,"oezem":2502,"arcinoom":2503,"CVA":2504,"these":2505,"Ġname":2506,"Behandel":2507,"Ġintermediaire":2508,"Ġcoronairen":2509,"iss":2510,"Sinusritme":2511,"Ġshock":2512,"Ġhe":2513,"ĠDaar":2514,"comp":2515,"yd":2516,"apamil":2517,"2020":2518,"wegen":2519,"Ġgaan":2520,"ĠIs":2521,"35":2522,"AL":2523,"Ġvull":2524,"mijn":2525,"Natrium":2526,"ET":2527,"Ġveranderingen":2528,"au":2529,"Ġgeleden":2530,"ifeer":2531,"ctuur":2532,"VAD":2533,"Ġkeer":2534,"01":2535,"OT":2536,"Ġcom":2537,"groot":2538,"Ġaspect":2539,"dilatatie":2540,"Ġmaximaal":2541,"Ġvolgende":2542,"Ġgraag":2543,"SR":2544,"Ġdiagnose":2545,"chocardiografie":2546,"Roken":2547,"ĠeGFR":2548,"deren":2549,"09":2550,"Ġafgelopen":2551,"Ġinsuffici":2552,"EP":2553,"lopen":2554,"Ġcardioversie":2555,"eds":2556,"Ġgek":2557,"okker":2558,"raagt":2559,"ans":2560,"Ġingreep":2561,"mger":2562,"Ritme":2563,"Ġproximale":2564,"Ġlongv":2565,"ateraal":2566,"geme":2567,"Ġbehandeld":2568,"kenhuis":2569,"mgeruis":2570,"okt":2571,"Ġur":2572,"ight":2573,"Ġslank":2574,"Ġmiddels":2575,"Ġrepolarisatie":2576,"Ġdilatatie":2577,"ĠHier":2578,"Ġmaand":2579,"onie":2580,"Ġ=":2581,"gemeen":2582,"Ġwandonregelmatigheden":2583,"Ġademgeruis":2584,"Ġpt":2585,"cc":2586,"Ġtermijn":2587,"uus":2588,"Ġtonen":2589,"pectatief":2590,".,":2591,"amma":2592,"oscopie":2593,"ĠAL":2594,"sectie":2595,"Ġvrouw":2596,"eest":2597,"Pacemaker":2598,"Ġpericard":2599,"Cardiomyopathie":2600,"Ġmy":2601,"LU":2602,"vorming":2603,"Ġlymf":2604,"Hoofd":2605,"08":2606,"Ġfra":2607,"Ontslag":2608,"illen":2609,"orf":2610,"rom":2611,"door":2612,"Ġinform":2613,"Ġcontinu":2614,"asculaire":2615,"Ġkal":2616,"rombocyten":2617,"ĠATP":2618,"ronic":2619,"eeds":2620,"Ġscan":2621,"ranspl":2622,"Me":2623,"agnost":2624,"Ġritmestoornissen":2625,"Ġminuten":2626,"Ġangina":2627,"ĠĊĊ":2628,"iel":2629,"los":2630,"nummer":2631,"ologisch":2632,"genitale":2633,"anc":2634,"ĠIII":2635,"Ġdus":2636,"Ġkoorts":2637,"Ġhad":2638,"Ġstru":2639,"Ġdra":2640,"dracht":2641,"Ġinfectie":2642,"]):":2643,"ĠIk":2644,"ĠNS":2645,"Ġar":2646,":\\":2647,"bezoek":2648,"remiteiten":2649,"Ġvermoeid":2650,"idemie":2651,"handeling":2652,"edt":2653,"Ġwarm":2654,"ysmaal":2655,"vrouw":2656,"inig":2657,"kamer":2658,"klepafwijking":2659,"Ġbelangrijk":2660,"Ġaanteken":2661,"Ġorth":2662,"36":2663,"Ġ26":2664,"ĠVAD":2665,"Ġsoep":2666,"last":2667,"Ġ140":2668,"Ġend":2669,"Ġpoliklinisch":2670,"Ġwil":2671,"ĠHT":2672,"Ġ55":2673,"iep":2674,"schat":2675,"Uit":2676,"Ġ-->":2677,"Ġaantekeningen":2678,"oumar":2679,"mal":2680,"elevante":2681,"Ġcontrol":2682,"zuur":2683,"gesteld":2684,"Ġklinisch":2685,"gt":2686,"que":2687,"Ġmorgen":2688,"erantie":2689,"Thuis":2690,"Ġtricusp":2691,"egen":2692,"plaats":2693,"par":2694,"ierfunctie":2695,"Ġongewijzigd":2696,"Ġhartfrequentie":2697,"allon":2698,"annen":2699,"ĠDit":2700,"steem":2701,"Ġvis":2702,"ĠEFO":2703,"ptaal":2704,"zorg":2705,"ouw":2706,"Laat":2707,"lipidemie":2708,"cardiale":2709,"emp":2710,"ogrel":2711,"Hartklepafwijking":2712,"bdomen":2713,"amine":2714,"idogrel":2715,"Ġholter":2716,"Ch":2717,"Ġtekenen":2718,"Ġvrij":2719,"RCA":2720,"Ġeviden":2721,"Ġreeds":2722,"team":2723,"Ġmeerdere":2724,"PM":2725,"Ġgroot":2726,"Ġantistolling":2727,"onit":2728,"vene":2729,"Ġsignificant":2730,"Ġverwijzing":2731,"Ġgradi":2732,"vatslijden":2733,"Ġatherosclerose":2734,"05":2735,"Ġherh":2736,"Ġ65":2737,"oglob":2738,"Ġfamilie":2739,"ĠMe":2740,"komst":2741,"ĠVerder":2742,"ĠCoronair":2743,"oston":2744,"erde":2745,"daag":2746,"ĠTAVI":2747,"zaak":2748,"Ġgr":2749,"roc":2750,"Ġfiet":2751,"dipine":2752,"structie":2753,"Ġeffect":2754,"Ġinge":2755,"Ġduidelijk":2756,"pressie":2757,"Ġkorte":2758,"Ġseptum":2759,"oorde":2760,"ĠAtri":2761,"isicofactoren":2762,"Bekend":2763,"ocarditis":2764,"LA":2765,"ĠPro":2766,"Ġdomin":2767,"Ġgebruikt":2768,"DS":2769,"RADS":2770,"Ġgrote":2771,"fractie":2772,"uni":2773,"oglobine":2774,"Pulm":2775,"oud":2776,"2009":2777,"Ġfunction":2778,"oet":2779,"Ġscreening":2780,"Ġec":2781,"teken":2782,"aand":2783,"ĠVF":2784,"agon":2785,"ĠTevens":2786,"ĠQTc":2787,"Coronairlijden":2788,"stellingen":2789,"Ġopge":2790,"Ġalleen":2791,"Behandelplan":2792,"ith":2793,"Atriumf":2794,"Ġziekenhuis":2795,"ĠDM":2796,"Ġmyocardinfarct":2797,"ĠVES":2798,"ĠHF":2799,"Diameter":2800,"Ġcomplicaties":2801,"jectiefractie":2802,"Ġenige":2803,"DP":2804,"Ġcre":2805,"Ġisolatie":2806,"Ġvergelijking":2807,"lasse":2808,"Ġtelefonisch":2809,"Ġrecent":2810,"lab":2811,"validatie":2812,"jes":2813,"65":2814,"Ġvl":2815,"astin":2816,"ĉĉ":2817,"lobaal":2818,"ĠÂµmol":2819,"Ġaanwezig":2820,"Ġsteeds":2821,"Ġadvies":2822,"enoc":2823,"Ġrug":2824,"Ġlage":2825,"ĠOok":2826,"Ġbenen":2827,"edtronic":2828,"elt":2829,"Ġvandaag":2830,"ulatie":2831,"Ġ2012":2832,"Ġinformatie":2833,"later":2834,"Ġregel":2835,"ibrileren":2836,"Guiding":2837,"MO":2838,"Congenitale":2839,"02":2840,"etwaarden":2841,"chtend":2842,"eurys":2843,"ransplantatie":2844,"afdeling":2845,"Pre":2846,"Ġcomplex":2847,"ocatie":2848,"ieren":2849,"onde":2850,"Ġsoms":2851,"oumarol":2852,"sprek":2853,"staat":2854,"Ġballon":2855,"Ġsyndroom":2856,"beweg":2857,"ĠNYHA":2858,"anamnese":2859,"ekende":2860,"enocoumarol":2861,"Ġlinkerventrikel":2862,"GT":2863,"Ġacuut":2864,"scan":2865,"Ġlu":2866,"Ġcap":2867,"Thuismedicatie":2868,"ĠCardioloog":2869,"erolateraal":2870,"erent":2871,"Atriumfibrileren":2872,"roon":2873,"raal":2874,"Ġstatine":2875,"ecif":2876,"Ġkunt":2877,"vulling":2878,"kn":2879,"spreken":2880,"Ġ2019":2881,"Ġangiografie":2882,"ellen":2883,"Ġber":2884,"Act":2885,"Ġdosis":2886,"ecifiek":2887,"Ġtevens":2888,"Ġcath":2889,"ĠAort":2890,"ressure":2891,"Ġdistaal":2892,"issel":2893,"indopril":2894,"uurd":2895,"Ġmoet":2896,"ĠGaat":2897,"Ġaut":2898,"Ġoedemen":2899,"lergie":2900,"Le":2901,"centr":2902,"ogelijk":2903,"nog":2904,"Ġplaat":2905,"rin":2906,"lopidogrel":2907,"Ġduidelijke":2908,"aban":2909,"Ġbeoordelen":2910,"Ġ28":2911,"26":2912,"iggend":2913,"ĠControle":2914,"03":2915,"Ġdimensies":2916,"zij":2917,"Ġdistale":2918,"Ġbeloop":2919,"ĠHb":2920,"midd":2921,"2021":2922,"PREHTX":2923,"ĠBrief":2924,"Ġevt":2925,"amens":2926,"Ġmellitus":2927,"Ġnooit":2928,"ĠCh":2929,"ditie":2930,"aak":2931,"auwd":2932,"ecial":2933,"Operatieverslag":2934,"andacht":2935,"sluit":2936,"atterij":2937,"arox":2938,"Ġweinig":2939,"afspraak":2940,"Ġsubc":2941,"Ġboezem":2942,"Ne":2943,"meten":2944,"ity":2945,"band":2946,"Ġapicaal":2947,".||":2948,"iot":2949,"Ġstenosen":2950,"Ġvoelt":2951,"abiele":2952,"isk":2953,"Ġadequ":2954,"Bespreking":2955,"Ġvanaf":2956,"ĠWel":2957,"uls":2958,"Ġright":2959,"SE":2960,"BMI":2961,"Ġechocardiogram":2962,"Ġ27":2963,"nose":2964,"Ġvast":2965,"Ġaneurys":2966,"Ġco":2967,"Ġafdeling":2968,"angiografie":2969,"Ġklein":2970,"Ġsuccesvolle":2971,"55":2972,"ortel":2973,"ĠRCX":2974,"Ġ180":2975,"Ġstaken":2976,"nest":2977,"matige":2978,"ĠLBTB":2979,"Laboratorium":2980,"%)":2981,"vers":2982,"rift":2983,"norm":2984,"Ġtotaal":2985,"Ob":2986,"ĠOnge":2987,"riet":2988,"hart":2989,"Ġverslag":2990,"ĠLink":2991,"Ġduizeligheid":2992,"Ġresp":2993,"Laatst":2994,"kle":2995,"Ġrate":2996,"2008":2997,"valu":2998,"rische":2999,"ĠNT":3000,"epar":3001,"Domin":3002,"verlies":3003,"Ġ130":3004,"ĠCVA":3005,"Ġstabiele":3006,"Bloeddruk":3007,"ĠIV":3008,"ĠHypertensie":3009,"Ġinst":3010,"Ġpulmonale":3011,"Ġlichte":3012,"EE":3013,"Soort":3014,"ĠPT":3015,"Ġbeperkt":3016,"bre":3017,"Ġfollow":3018,"veranderd":3019,"Ġvervanging":3020,"DI":3021,"Ġkrij":3022,"Ġtotale":3023,"asculair":3024,"95":3025,"drukken":3026,"rocardi":3027,"vallen":3028,"osering":3029,"imale":3030,"Ġkleine":3031,"Ġaanvullend":3032,"ĠLDL":3033,"Ġalcohol":3034,"Ġarm":3035,"aps":3036,"II":3037,"Ġneur":3038,"74":3039,"emt":3040,"ĠPREHTX":3041,"Ġjan":3042,"06":3043,"Ġverdere":3044,"ECT":3045,"halve":3046,"Ġhypok":3047,"ĠJa":3048,"Ġtak":3049,"hr":3050,"erder":3051,"Extr":3052,"Ġonderwand":3053,"Ġbehandel":3054,"aald":3055,"Meest":3056,"ĠKalium":3057,"eria":3058,"leca":3059,"chn":3060,"Ġ(>":3061,"Ġ160":3062,"du":3063,"rit":3064,"onitor":3065,"iron":3066,"Ġwerk":3067,"LIN":3068,"Ġpneumonie":3069,"raat":3070,"Ġbenauwd":3071,"Ġsnelle":3072,"col":3073,"otaal":3074,"Ġvor":3075,"Ġ250":3076,"ĠEn":3077,"Ġcarot":3078,"ĠMCH":3079,"Ġonderzoeken":3080,"olact":3081,"Ġwaarna":3082,"etica":3083,"ervatief":3084,"plande":3085,"reg":3086,"lijst":3087,"Ġ29":3088,"vents":3089,"/[":3090,"dnis":3091,"euk":3092,"Ġkn":3093,"Ġheel":3094,"ĠBloeddruk":3095,"Ġ2011":3096,"yslipidemie":3097,"04":3098,"Ġkomen":3099,"olacton":3100,"EPI":3101,"ĠCOPD":3102,"Ġpathologische":3103,"otherapie":3104,"Ġhyper":3105,"fibrilleren":3106,"Ġexpectatief":3107,"ĠLIMA":3108,"Ġbeide":3109,"volg":3110,"ĠDES":3111,"ogene":3112,"Ġadenosine":3113,"Ġgepland":3114,"Ġstruct":3115,"CHADS":3116,"Ġplaatsing":3117,"Ġfoc":3118,"Ġmal":3119,"istent":3120,"ecialist":3121,"va":3122,"Ġgradient":3123,"Ġtrans":3124,"Reg":3125,"ironolacton":3126,"ĠRec":3127,"Ġgegeven":3128,"Ġwelke":3129,"schrift":3130,"Ġres":3131,"ĠRVF":3132,"Ġab":3133,"Ġcontrast":3134,"intigra":3135,"ffort":3136,"UR":3137,"Ġuitslag":3138,"artan":3139,"Ġdifferent":3140,"kwab":3141,"Ġmga":3142,"ronch":3143,"Ġ48":3144,"Ġafwijkend":3145,"yste":3146,"pp":3147,"ĠTC":3148,"Ġlaesie":3149,"ĠOpname":3150,"Ġvoorschrift":3151,"Ġforse":3152,"Ġoperatieverslag":3153,"Ġepis":3154,"Ġernstig":3155,"falen":3156,"ĠHA":3157,"emaal":3158,"Ġbevindingen":3159,"ĠBlanco":3160,"ĠOperatieverslag":3161,"Extremiteiten":3162,"Ġprima":3163,"ient":3164,"ĠMatige":3165,"aard":3166,"Ġhemat":3167,"minuut":3168,"ive":3169,"Ġnacht":3170,"hier":3171,"Ġ99":3172,"hogen":3173,"37":3174,"Ġspont":3175,"Ġhand":3176,"Overweging":3177,"ĠEle":3178,"stand":3179,"yst":3180,"ĠRVSP":3181,"defect":3182,"enteus":3183,"Ġzit":3184,"Ġecht":3185,"Dyslipidemie":3186,"Ġmic":3187,"99":3188,"ĠCC":3189,"07":3190,"amenteus":3191,"luor":3192,"Ġascal":3193,"BP":3194,"arde":3195,"Ġsport":3196,"Ġklasse":3197,"Ġhal":3198,"Is":3199,"out":3200,"ĠSV":3201,"Ġ110":3202,"Ġpositie":3203,"Ġmeest":3204,"Ġsym":3205,"transplantatie":3206,"Ġstoppen":3207,"Verwijz":3208,"gebruik":3209,"assen":3210,"Events":3211,"ĠGezien":3212,"Ġprognose":3213,"Heeft":3214,"Ġgebied":3215,"gat":3216,"LUE":3217,"Ġ37":3218,"VALUE":3219,"Ġ41":3220,"RT":3221,"nstige":3222,"ablatie":3223,"vanging":3224,"Ġproblemen":3225,"losure":3226,"Object":3227,"cardioloog":3228,"Overig":3229,"gembolie":3230,"ĠThorax":3231,"AfspraakObject":3232,"reden":3233,"DRD":3234,"Ġgemeten":3235,"Ġwillen":3236,"Ġergometrie":3237,"Ġad":3238,"stest":3239,"Ġvergroot":3240,"Succesvol":3241,"Ġnemen":3242,"fs":3243,"ĠEen":3244,"bla":3245,"CL":3246,"utaan":3247,"rgentie":3248,"Ġcontinueren":3249,"Ġpulmonaalvenen":3250,"uting":3251,"Ġ08":3252,"VCI":3253,"Ġinspannings":3254,"Ġjaren":3255,"Ġfurosemide":3256,"Ġlopen":3257,"uring":3258,"ablokker":3259,"max":3260,"Urgentie":3261,"ĠIndien":3262,"ingsstoornissen":3263,"Ġantrum":3264,"rofysi":3265,"ynam":3266,"Ġmediastin":3267,"================":3268,"Ġgenees":3269,"Ġgebeld":3270,"Ġenkel":3271,"Ġand":3272,"anger":3273,"SV":3274,"ĠPI":3275,"2007":3276,"ecifieke":3277,"Ġverpleegafdeling":3278,"sn":3279,"MRI":3280,"atheterisatie":3281,"Ġspoor":3282,"pat":3283,"Ġtherapie":3284,"Ġinterventie":3285,"Per":3286,"Ġgez":3287,"Poliklinische":3288,"agelijk":3289,"Actuele":3290,"Ġtov":3291,"umflutter":3292,"brief":3293,"Ġverbeter":3294,"Risicofactoren":3295,"Ġeven":3296,"Ġder":3297,"ĠUreum":3298,"Ġoorzaak":3299,"ĠĠĊ":3300,"ĠCreatinine":3301,"CVD":3302,"ulp":3303,"Ġcoronaire":3304,"gra":3305,"radycardie":3306,"Ġbesch":3307,"Ġeventueel":3308,"ĠSVT":3309,"eparine":3310,"MB":3311,"Ġmed":3312,"CO":3313,"Ġkortademig":3314,"Ġong":3315,"Ġconditie":3316,"CX":3317,"Ġic":3318,"ĠHg":3319,"olom":3320,"arb":3321,"traat":3322,"76":3323,"Ġdiameter":3324,"Ġperifeer":3325,"=[":3326,"iz":3327,"Ġsysteem":3328,"Ġgemaakt":3329,"rig":3330,"Nierfunctie":3331,"ietserg":3332,"kunde":3333,"effort":3334,"eroseptaal":3335,"ziekten":3336,"VASc":3337,"hoogd":3338,"Ġanemie":3339,"ĠPA":3340,"ĠVS":3341,"Ġrel":3342,"gatst":3343,"Ġopen":3344,"gs":3345,"utatie":3346,"niet":3347,"Ġ(%":3348,"udie":3349,"oopt":3350,"46":3351,"isteren":3352,"Ġfors":3353,"rale":3354,"rest":3355,"Ġamiodaron":3356,"Ġroken":3357,"Ġwissel":3358,"Ġond":3359,"Ġmei":3360,"ors":3361,"Ġvooraf":3362,"Ġvoorwand":3363,"Ġpersisterend":3364,"MV":3365,"Ġwaren":3366,"Ġcf":3367,"ail":3368,"Ġuitgebreide":3369,"ymptomat":3370,"Namens":3371,"fer":3372,"lodipine":3373,"Ġbezoek":3374,"Instellingen":3375,"ientific":3376,"ĠCH":3377,"Ġaug":3378,"Onbekend":3379,"Ġnadien":3380,"bpm":3381,"Ġverla":3382,"osf":3383,"atm":3384,"scal":3385,"ĠRCx":3386,"Ġdiagnost":3387,"ĠAdenosine":3388,"Ġverwijd":3389,"Ġverkal":3390,"Ġmaximale":3391,"DD":3392,"Ġoc":3393,"Ġgestuwd":3394,"antal":3395,"aart":3396,"Ġ38":3397,"antop":3398,"Ġkader":3399,"Ġbedraagt":3400,"bin":3401,"Ġnegatieve":3402,"regen":3403,"vi":3404,"ĉĊ":3405,"Ġevidente":3406,"hank":3407,"Ġdaarom":3408,"iele":3409,"Ġlies":3410,"Ġ2010":3411,"kingen":3412,"reven":3413,"Ġatypische":3414,".\\":3415,"vang":3416,"iken":3417,"Ġstaat":3418,"CC":3419,"Pacing":3420,"ultaat":3421,"vervanging":3422,"Ġrelevante":3423,"sule":3424,"Ġcav":3425,"ĠNe":3426,"dikte":3427,"Ġcholesterol":3428,"IOS":3429,"âĢ":3430,"erkte":3431,"Ġopnemen":3432,"Ġiom":3433,"cess":3434,"ĠReg":3435,"Ġgroet":3436,"antoprazol":3437,"ventriculaire":3438,"Ġbijwerkingen":3439,"Ġverzoek":3440,"urie":3441,"roke":3442,"Ġwond":3443,"Ġeind":3444,"ĠaV":3445,"Ġaortaklepstenose":3446,"iltraat":3447,"zie":3448,"Ġvanuit":3449,"Ġflutter":3450,"itas":3451,"SC":3452,"Ġgewijzigd":3453,"Int":3454,"ĠEx":3455,"Stent":3456,"Ġherstel":3457,"Ġplot":3458,"Ġdyspneu":3459,"Ġconservatief":3460,"CKD":3461,"-,":3462,"umat":3463,"riculair":3464,"ĠRechts":3465,"Complicaties":3466,"OAC":3467,"Ġpreventie":3468,"Ġgehe":3469,"Opname":3470,"ert":3471,"Ġcirc":3472,"iculair":3473,"ins":3474,"ĠSN":3475,"BLET":3476,"Ġstarten":3477,"ĠDaarna":3478,"Ġparoxysmaal":3479,"ĠMedtronic":3480,"Pulmon":3481,"lyc":3482,"GIN":3483,"gatston":3484,"icus":3485,"140":3486,"anco":3487,"Ġmass":3488,"acet":3489,"impl":3490,"Ġokt":3491,"HR":3492,"chocardiografisch":3493,"controle":3494,"ĠMyocard":3495,"alsvenen":3496,"Ġvolle":3497,"Ġli":3498,"leair":3499,"oid":3500,"West":3501,"Ġpacing":3502,"Ġgevonden":3503,"Ġartik":3504,"Ġorthop":3505,"Ġgering":3506,"Ġ95":3507,"ronisch":3508,"mpel":3509,"Ġmean":3510,"stolerantie":3511,"29":3512,"Ġdiffuus":3513,"assistent":3514,"2006":3515,"Ġost":3516,"contact":3517,"ope":3518,"ocor":3519,"Ġonze":3520,"itief":3521,"ĠLicht":3522,"Ġlongvelden":3523,"amol":3524,"cus":3525,"Ġtroponine":3526,"ouder":3527,"ĠStart":3528,"ĠWij":3529,"Ġverklaring":3530,"zaam":3531,"klier":3532,"Ġvermoeidheid":3533,"Ġia":3534,"ĠVan":3535,"Ġchirurg":3536,"Ġeerdere":3537,"Aantal":3538,"eukocyten":3539,"oen":3540,"ĠdifferentiÃ«le":3541,"Ġachteruit":3542,"ĠCVD":3543,"77":3544,"PA":3545,"Ġjuni":3546,"Ġdoorgemaakt":3547,"Ġapex":3548,"Ġlateraal":3549,"Ġoverleden":3550,"Ġverleden":3551,"?)":3552,"Myocard":3553,"Ġpressure":3554,"derd":3555,"Ġwandbeweg":3556,"Ġnod":3557,"An":3558,"ĠTer":3559,"Ã©":3560,"Ġcapsule":3561,"Ġsecund":3562,"49":3563,"Hypercholesterolemie":3564,"Ġstand":3565,"Ġtel":3566,"Ġaneurysma":3567,"req":3568,"week":3569,"ĠPost":3570,"ongen":3571,"ĠBoston":3572,"Ġgeplande":3573,"ĠMIRADS":3574,"LING":3575,"Ġvaten":3576,"Ġfeb":3577,"Ġmsr":3578,"Kalium":3579,"astolische":3580,"Ã¯d":3581,"ĠCardio":3582,"Ġacute":3583,"ume":3584,"Ġoogt":3585,"ĠSinds":3586,"Hem":3587,"Ġfrequ":3588,"Ġdiabetes":3589,"Ġradiologie":3590,"ĠĊĊĊ":3591,"41":3592,"Ġverk":3593,"wit":3594,"Registratie":3595,"-[":3596,"yre":3597,"TIMI":3598,"Ġconversie":3599,"Lead":3600,"ote":3601,"inide":3602,"uld":3603,"28":3604,"Ġartikelen":3605,"Te":3606,"spunt":3607,"ĠTABLET":3608,"Zie":3609,"emoralis":3610,"achycardie":3611,"oeding":3612,"valuatie":3613,"%).":3614,"Ġanat":3615,"get":3616,"actie":3617,"IV":3618,"Ġocclusie":3619,"Ġgeeft":3620,"OL":3621,"achy":3622,"Ġweten":3623,"geveer":3624,"Ġbelt":3625,"Ġretour":3626,"Ġmilde":3627,"advis":3628,"Ġsegmenten":3629,"lecainide":3630,"ement":3631,"Ġonveranderd":3632,"carcinoom":3633,"47":3634,"dur":3635,"uteur":3636,"EC":3637,"Ġmult":3638,"Specialisme":3639,"Ġplaque":3640,"Ġrustig":3641,"opte":3642,"TID":3643,"nestisch":3644,"ĠSotalol":3645,"ctus":3646,"ĠCoronairangiografie":3647,"Ġ85":3648,"meting":3649,"iliteit":3650,"lig":3651,"Cre":3652,"ĠAoS":3653,"Ġbespreken":3654,"ero":3655,"adenos":3656,"Th":3657,"Geringe":3658,"afrag":3659,"agelijks":3660,"Ġup":3661,"Ġ2020":3662,"ĠSP":3663,"ĠInter":3664,"adenoson":3665,"Ġdosering":3666,"ĠMellitus":3667,"andaag":3668,"amm":3669,"Ġhartslag":3670,"Ġepisode":3671,"]).":3672,"ĠACS":3673,"Ġintern":3674,"dnison":3675,"83":3676,"Ġadem":3677,"Ġnef":3678,"aemie":3679,"Ġsoepel":3680,"-(":3681,"Wire":3682,"aden":3683,"Ġherhalen":3684,"Ġblijft":3685,"lijn":3686,"Ġbere":3687,"Als":3688,"Ġblok":3689,"Ġontslagen":3690,"88":3691,"Ġbronch":3692,"venbe":3693,"ĠgeÃ¯":3694,"ĠNSTEMI":3695,"Ġhartteam":3696,"uretica":3697,"Ġinfiltraat":3698,"Ġvader":3699,"Ġorig":3700,"Ġ52":3701,"Ġvri":3702,"Ġopnam":3703,"kkoord":3704,"Ġeerst":3705,"48":3706,"CR":3707,"gometrie":3708,"hmus":3709,"nc":3710,"Ġpoliklinische":3711,"ĠVP":3712,"vl":3713,"ĠPAC":3714,"Status":3715,"isselijk":3716,"Ġcalcific":3717,"ĠSuccesvolle":3718,"uidige":3719,"rogressie":3720,"Ġgemidd":3721,"stma":3722,"Ġlongen":3723,"via":3724,"Ġmaart":3725,"Ġbehouden":3726,"Ġdaarbij":3727,"Ġontw":3728,".):":3729,"oging":3730,"Ġapril":3731,"Ġglobaal":3732,"ister":3733,"stel":3734,"Ġvlgs":3735,"86":3736,"no":3737,"STEL":3738,"Ġist":3739,"Ġmaag":3740,"rempel":3741,"alt":3742,"Ġmnd":3743,"Ġgeduid":3744,"ĠTIA":3745,"angersch":3746,"Ġafgesloten":3747,"STELLING":3748,"ariaat":3749,"retariaat":3750,"Ġgecompliceerd":3751,"Goede":3752,"rust":3753,"Metoprolol":3754,"versib":3755,"RM":3756,"Ġuitgesloten":3757,"Ġ\"":3758,"Ġtraject":3759,"Ġcomplexen":3760,"Ġble":3761,"Ġqu":3762,"tekend":3763,"Nog":3764,"Ġ31":3765,"Ġclosure":3766,"Ġech":3767,"komen":3768,"bi":3769,"roep":3770,"imvastatine":3771,"yla":3772,"aine":3773,"allen":3774,"Ġ64":3775,"Ġradialis":3776,"aliteit":3777,"ay":3778,"atint":3779,"pass":3780,"Patient":3781,"Contra":3782,"27":3783,"sal":3784,"Ġneemt":3785,"Ġbeoorde":3786,"Ġjuli":3787,"amp":3788,"drachten":3789,"Ġisthmus":3790,"retard":3791,"Ġgedaan":3792,"luoroscopie":3793,"Ġaltijd":3794,"Ġactiv":3795,"Ġlongarts":3796,"PL":3797,"Ġpathologie":3798,"rect":3799,"ĠStop":3800,"Ġgereg":3801,"Ġurine":3802,"gd":3803,"Ġbla":3804,"Ġrisk":3805,"ĠBekende":3806,"2005":3807,"Ġir":3808,"zelf":3809,"Ġpolikliniekbezoek":3810,"Ġkw":3811,"Ġwer":3812,"uze":3813,"Ġgesproken":3814,"Ġkortademigheid":3815,"LS":3816,"79":3817,"Nierfunctiestoornis":3818,"oxic":3819,"lycer":3820,"Ġvisueel":3821,"2022":3822,"been":3823,"Ġchronische":3824,"Meetwaarden":3825,"Ġatriumflutter":3826,"32":3827,"lak":3828,"raagd":3829,"Ġnet":3830,"81":3831,"veel":3832,"NI":3833,"vrij":3834,"sych":3835,"ĠTR":3836,"Ġ?":3837,"Ġspre":3838,"ffusie":3839,"voldoende":3840,"Ġtav":3841,"VASC":3842,"tern":3843,"Ġmassa":3844,"ĠDiagnose":3845,"ĠNTG":3846,"Ġ97":3847,".)":3848,"Ġsterk":3849,"Diagnose":3850,"revalidatie":3851,"ĉĊÂł":3852,"92":3853,"ncope":3854,"ĠDDD":3855,"roef":3856,"ue":3857,"entrale":3858,"ervel":3859,"Ġoud":3860,"Ġdepressie":3861,"ijken":3862,"Ġangio":3863,"Ġresultaat":3864,"Ġtweede":3865,"akte":3866,"vullende":3867,"Ġlongembolie":3868,"ulus":3869,"Allergie":3870,"Ġverdacht":3871,"echo":3872,"Creatie":3873,"Ġri":3874,"Cx":3875,"Ġet":3876,"Ġinj":3877,"Ġtoegenomen":3878,"ĠAd":3879,"Pro":3880,"ĠNog":3881,"Ġvriend":3882,"150":3883,"INR":3884,"ytroc":3885,"JEC":3886,"OBJEC":3887,"OBJECTID":3888,"Ġboezemfibrilleren":3889,"Ġzn":3890,"Ġknie":3891,"Ġvert":3892,"wortel":3893,"ĠNF":3894,"Ġcent":3895,"Creatinine":3896,"Ġverl":3897,"ietsergometrie":3898,"DM":3899,"hesie":3900,"ĠSinusritme":3901,"ameters":3902,"unn":3903,"behandeling":3904,"Geb":3905,"Ġlevens":3906,"Hb":3907,"87":3908,"Ġkalk":3909,"ocriet":3910,"Ġimp":3911,"Ġafw":3912,"ĠPols":3913,"LVEF":3914,"96":3915,"Ġverwezen":3916,"Ġverpleegkun":3917,"Ġtoonde":3918,"Ġchol":3919,"DV":3920,"HT":3921,"ĠCCU":3922,"lang":3923,"ĠLD":3924,"Ġdel":3925,"blok":3926,"reef":3927,"BSN":3928,"visie":3929,"ĠHemat":3930,"imeter":3931,"Ġondertekend":3932,"Ġinspanningstolerantie":3933,"Ġhoofdstam":3934,"Ġ->":3935,"84":3936,"ĠZij":3937,"Ġeluting":3938,"Ġwacht":3939,"ĠTrombocyten":3940,"Ġpuls":3941,"andig":3942,"Ġthromb":3943,"Ureum":3944,"ĠAoV":3945,"Ġregulier":3946,"Ġalhier":3947,"Ġdrug":3948,"otomie":3949,"Ġhoogte":3950,"Ġmisselijk":3951,"ĠWat":3952,"TTE":3953,"Ġwerden":3954,"Ġsymptomat":3955,"Ġakkoord":3956,"ytrocyten":3957,"Ġgelu":3958,"ovasculaire":3959,"Ġendocarditis":3960,"ĠPL":3961,"merking":3962,"Ġstoornis":3963,"Ġanterior":3964,"orb":3965,"ZOR":3966,"ĠDeze":3967,"andachtspunt":3968,"Ġbeh":3969,"elefoon":3970,"Ġcontractie":3971,"ai":3972,"Ġip":3973,"Ġgekregen":3974,"Ġgeleid":3975,"Ġbelangrijke":3976,"etisch":3977,"Ġmedicijnen":3978,"tekening":3979,"ĠMogelijk":3980,"uwing":3981,"ZORGIN":3982,"ZORGINSTELLING":3983,"Auteur":3984,"64":3985,"Ġ2009":3986,"Ġlucht":3987,"Ġinsufficientie":3988,"sklachten":3989,"raling":3990,"Indien":3991,"Segment":3992,"cler":3993,"Ġaanwijzing":3994,"56":3995,"Hartfrequentie":3996,"Glucose":3997,"Ġverbetering":3998,"78":3999,"hock":4000,"Ġconsol":4001,"Ġbest":4002,"bep":4003,"Ġkrijgt":4004,"centrische":4005,"malig":4006,"Echocardiogram":4007,"ylzuur":4008,"Ġbeen":4009,"ookt":4010,"Ġgec":4011,"bum":4012,"geleken":4013,"ĠHV":4014,"ĠHR":4015,"salic":4016,"Ġarteria":4017,"Ġsituatie":4018,"uleerd":4019,"ĠTijdens":4020,"Ġrechtsdrukken":4021,"ibiot":4022,"arco":4023,"Verwijzer":4024,"ziekte":4025,"olisch":4026,"Ġbellen":4027,"adviseerd":4028,"gr":4029,"WI":4030,"weeg":4031,"racht":4032,"Ġav":4033,"diening":4034,"gment":4035,"pleegkundige":4036,"oeder":4037,"etyl":4038,"Ġfl":4039,"ĠAt":4040,"ĠRBTB":4041,"Ġvaatlijden":4042,"AV":4043,"Ġmorf":4044,"zep":4045,"ĠPijn":4046,"Ġadequaat":4047,"kelet":4048,"Ġ33":4049,"Ġdef":4050,"salicylzuur":4051,"Ġongeveer":4052,"Ġophogen":4053,"97":4054,"Ġverst":4055,"ĠAc":4056,"kinesie":4057,"ĠOngewijzigd":4058,"Ġhypokinesie":4059,"58":4060,"ĠBeleid":4061,"inde":4062,"Ġbezocht":4063,"Ġspecialist":4064,"Gaat":4065,"Art":4066,"asis":4067,"Ġovervulling":4068,"des":4069,"wijs":4070,"Ġ58":4071,"ĠCHA":4072,"ĠALAT":4073,"Dominance":4074,"atiek":4075,"otale":4076,"Ġgecont":4077,"ĠOhm":4078,"ĠZe":4079,"laatst":4080,"Ġdou":4081,"ĠDat":4082,"ardeffusie":4083,"SH":4084,"poli":4085,"Batterij":4086,"Ao":4087,"ekuur":4088,"ritis":4089,"uari":4090,"esiculair":4091,"Ġkin":4092,"Ġdirect":4093,"gv":4094,"chirurg":4095,"Ġstern":4096,"Ġmediastinum":4097,"Ġhypertrof":4098,"Ġgast":4099,"Ġbent":4100,"uratie":4101,"otische":4102,"Ġpalp":4103,"verende":4104,"infectie":4105,"Ġbro":4106,"Ġminimaal":4107,"Ġdig":4108,"Ġejectiefractie":4109,"43":4110,"relor":4111,"Ġgraft":4112,"indicatie":4113,"Ġvene":4114,"Ġspecialisme":4115,"ĠVG":4116,"ime":4117,"Ġbal":4118,"Onder":4119,"Ġpart":4120,"anks":4121,"elling":4122,"icag":4123,"Pulmones":4124,"Ġhouden":4125,"lijke":4126,"Ġie":4127,"segment":4128,"ĠGoed":4129,"middels":4130,"Gy":4131,"Ġinfilt":4132,"Ġdrie":4133,"Heparine":4134,"Ġgemiddeld":4135,"82":4136,"icagrelor":4137,"erp":4138,"Chronische":4139,"31":4140,"venbevindingen":4141,"Ã¨":4142,"Ġherken":4143,"Ġtegen":4144,"alsnog":4145,"Ġincomp":4146,"binatie":4147,"arit":4148,"Ġvoorsp":4149,"Col":4150,"Eerder":4151,"Neven":4152,"Ġafgenomen":4153,"Ġbelasting":4154,"ĠLM":4155,"Ġanti":4156,"Ġduizelig":4157,"Ġamb":4158,"Blanco":4159,"ucleair":4160,"ĠToe":4161,"dilateerde":4162,"erator":4163,"oraal":4164,"Ġdeels":4165,"Ġoverige":4166,"42":4167,"abel":4168,"Ġzoals":4169,"Ġverdi":4170,"opro":4171,"Ġpaar":4172,"ĠLeukocyten":4173,"ĠLe":4174,"start":4175,"72":4176,"Ġ32":4177,"ĠGewicht":4178,"Ġ56":4179,"ico":4180,"98":4181,"ĠRegadenoson":4182,"umflex":4183,"omplicatie":4184,"ikt":4185,"Ġns":4186,"Ġhelder":4187,"rub":4188,"isie":4189,"ruiken":4190,"ĠAls":4191,"Ġ42":4192,"Ġfietsen":4193,"Ġ46":4194,"ĠAVR":4195,"dragen":4196,"ranul":4197,"ĊĠĠ":4198,"ĠMCV":4199,"URL":4200,"Bloed":4201,"utane":4202,"38":4203,"ĠTEE":4204,"Ġafter":4205,"Ġoverzicht":4206,"Ġrecept":4207,"Ġgeschat":4208,"Ġverlopen":4209,"but":4210,"opname":4211,"Verapamil":4212,"ĠSPECT":4213,"ĠCHADS":4214,"93":4215,"Ġperist":4216,"ye":4217,"Ġhypertrofie":4218,"Ġlig":4219,"2004":4220,"ĠPatiente":4221,"130":4222,"rager":4223,"Ġhelemaal":4224,"Ġwith":4225,"44":4226,"Ġzeker":4227,"Ġregelmatig":4228,"ĠMB":4229,"ĠPerfusie":4230,"ĠKan":4231,"ĠinsufficiÃ«ntie":4232,"implantatie":4233,"Ġhuid":4234,"Ġmeting":4235,"NIBP":4236,"Ġtoekomst":4237,"XX":4238,"DO":4239,"Ġtricuspid":4240,"matiek":4241,"ĠASAT":4242,"Ġ62":4243,"fyla":4244,"Ġnovo":4245,"Ġwo":4246,"Tachy":4247,"Ġbloeding":4248,"Ġ1000":4249,"zepam":4250,"yspnoe":4251,"ochtend":4252,"was":4253,"inden":4254,"Ġdiafrag":4255,"Ġnit":4256,"Ġdiuretica":4257,"Ġextrasy":4258,"Contrast":4259,"ĠVVI":4260,"Ġindruk":4261,"ĠRecidief":4262,"ĠQT":4263,"Aandachtspunt":4264,"haling":4265,"Ġbepalen":4266,"Ġtricuspide":4267,"Verslag":4268,"vo":4269,"Ġsamen":4270,"Ġhierbij":4271,"Ġanders":4272,"eup":4273,"Ġreden":4274,"rijd":4275,"Ġmaal":4276,"Ġ~":4277,"tb":4278,"Ġgeadviseerd":4279,"52":4280,"bouw":4281,"Toe":4282,"Ġvena":4283,"rokken":4284,"Ġprobleem":4285,"BLED":4286,"Ġkl":4287,"etylsalicylzuur":4288,"scand":4289,"Ġatria":4290,"erkamer":4291,"Abd":4292,"Ġvasc":4293,"Ġdeelcontact":4294,"proble":4295,"ropathie":4296,"Ġdagelijks":4297,"rubine":4298,"Abdomen":4299,"sept":4300,"FO":4301,"CAG":4302,"test":4303,"Ġblanco":4304,"Nevendiagnose":4305,"Ġoverwegen":4306,"ilirubine":4307,"Ġtev":4308,"emisch":4309,"Ġalles":4310,"Alcohol":4311,"yn":4312,"emetrie":4313,"Ġinhal":4314,"plaatsing":4315,"vert":4316,"Ġsluiten":4317,"iezen":4318,"alisatie":4319,"Ġuitslagen":4320,"INE":4321,"Ġvat":4322,"ĠLCA":4323,"Ġafgesproken":4324,"Ġpericardeffusie":4325,"richten":4326,"][":4327,"voe":4328,"ĠVoelt":4329,"Ġ98":4330,"othorax":4331,"toond":4332,"Ġgisteren":4333,"Voorgeschiedenis":4334,"hankelijk":4335,"VID":4336,"VAI":4337,"33":4338,"ctief":4339,"Ġtrombus":4340,"Ġfosf":4341,"Ġve":4342,"Ġmedicamenteus":4343,"bere":4344,"Ġischemische":4345,"ĠUitgebre":4346,"Ġdal":4347,"Ġvo":4348,"Ġvorige":4349,"Ġgesprek":4350,"ĠElekt":4351,"Ġmedische":4352,"Ġgranul":4353,"geleiding":4354,"Ġstij":4355,"Holter":4356,"Ġgebruiken":4357,"Ġ170":4358,"gaand":4359,"ĠPC":4360,"ĠLong":4361,"Ġspoed":4362,"enst":4363,"rogram":4364,"Ġvullen":4365,"ĠAm":4366,"Sinds":4367,"Ġliggend":4368,"ĠPET":4369,"compliceerde":4370,"ixaban":4371,"Ġbegin":4372,"Ġoptimaal":4373,"Ġwijz":4374,"anim":4375,"Ġherstart":4376,"ĠVO":4377,"ereb":4378,"use":4379,"ĠASD":4380,"Ad":4381,"Temp":4382,"LD":4383,"Ġ69":4384,"Radi":4385,"Ġhypercholesterolemie":4386,"Ġaantoon":4387,"apt":4388,"Ġsite":4389,"COR":4390,"gestuurd":4391,"BL":4392,"Ġ43":4393,"Ġrecidi":4394,"ĠVis":4395,"ĠZeer":4396,"ome":4397,"kelijk":4398,"kleuring":4399,"Bijzonderheden":4400,"altiek":4401,"eut":4402,"ositie":4403,"Trombocyten":4404,"ĠBNP":4405,"Ġcc":4406,"agul":4407,"lanke":4408,"Ġsat":4409,"passing":4410,"Ġhuidige":4411,"ĠCTA":4412,"89":4413,"CRP":4414,"oden":4415,"Ġplannen":4416,"Ġsuccesvol":4417,"Ġabd":4418,"Ġtherap":4419,"ĠOS":4420,"tage":4421,"ocket":4422,"Ġobstructie":4423,"oudt":4424,"ly":4425,"Ġafname":4426,"esthesie":4427,"Ġgem":4428,"vrager":4429,"Ġdu":4430,"vit":4431,"mine":4432,"Ġext":4433,"vt":4434,"Ġcombinatie":4435,"Ġ44":4436,"Ġomdat":4437,"ferentie":4438,"ĠESV":4439,"Ġpositief":4440,"Ġuitst":4441,"ĠWand":4442,"ĠReden":4443,"ĠPAF":4444,"ĠRDP":4445,"iegel":4446,"Ġmoeder":4447,"emo":4448,"isc":4449,"amb":4450,"Vraagstelling":4451,"Patint":4452,"ĠHel":4453,"ĠAO":4454,"icoagul":4455,"Ġra":4456,"ĠHTx":4457,"ĠVR":4458,"Ġ125":4459,"Ġmob":4460,"Ġliep":4461,"Ġaangetoond":4462,"Ġpericardvocht":4463,"Ġ#":4464,"oedelijk":4465,"vasc":4466,"Ġsclerose":4467,"isoprolol":4468,"Ġstudie":4469,"acetamol":4470,"Ġeci":4471,"Ġ53":4472,"prothese":4473,"AN":4474,"Ġwilt":4475,"Ġvolledig":4476,"ĠMedic":4477,"Ġschouder":4478,"iber":4479,"resp":4480,"Access":4481,"stof":4482,"Ġ34":4483,"ĠnsVT":4484,"Ġperistaltiek":4485,"patroon":4486,"Ġgal":4487,"Ġblijven":4488,"Ġonvoldoende":4489,"Ġmutatie":4490,"Ġantibiot":4491,"ĠSpoor":4492,"ets":4493,"ĠZie":4494,"ĠAtriumfibrilleren":4495,"Ġgamma":4496,"irc":4497,"plannen":4498,"PAP":4499,"Soc":4500,"Ġversch":4501,"Ġstopdatum":4502,"Ġdiagon":4503,"Ġplaatse":4504,"oelde":4505,"ĠHemoglobine":4506,"teit":4507,"eGFR":4508,"atase":4509,"Ġlanger":4510,"achten":4511,"Ġgeneeskundige":4512,"houd":4513,"Ġoverdracht":4514,"intigr":4515,"BNP":4516,"Ġkon":4517,"Ġlaterale":4518,"Ġscintigr":4519,"ooit":4520,"bumine":4521,"Ġfosfatase":4522,"chan":4523,"Ġachteruitgang":4524,"Ġwegra":4525,"pitatie":4526,"Ġ@":4527,"%),":4528,"ĠAI":4529,"zak":4530,"Ġmon":4531,"Ġverwijz":4532,"Ġembolie":4533,"spir":4534,"Ġ(%):":4535,"berr":4536,"DF":4537,"VP":4538,"nemen":4539,"Ġhoesten":4540,"ĠVol":4541,"Ġverwijderd":4542,"Ġdesc":4543,"];":4544,"Ġprednison":4545,"Ġkans":4546,"Ġtoediening":4547,"Ġ135":4548,"SA":4549,"Ġevaluatie":4550,"Ġanatomie":4551,"Ġsubt":4552,"avond":4553,"Ġlip":4554,"ĠSter":4555,"Am":4556,"Ġinstelling":4557,"Ġneu":4558,"Ġout":4559,"kalische":4560,"ograft":4561,"ĠMDRD":4562,"Ġkla":4563,"Ġechtgen":4564,"fig":4565,"Ġ59":4566,"Ġoverge":4567,"Ġtri":4568,"olon":4569,"ato":4570,"Ġ39":4571,"intigram":4572,"Ġ2008":4573,"uisarts":4574,"voegen":4575,"loop":4576,"NB":4577,"ense":4578,"Ġspier":4579,"Ġatm":4580,"Deze":4581,"ĠTotaal":4582,"Ġhyd":4583,"clusief":4584,"Klinisch":4585,"Ġbetrouw":4586,"bling":4587,"ĠMBq":4588,"ĠPE":4589,"edantie":4590,"Ġvalt":4591,"Ġrondom":4592,"agonist":4593,"ypass":4594,"ĠEDV":4595,"indelijk":4596,"Ġinferolateraal":4597,"Ġadv":4598,"ĠCVRM":4599,"Ġpericardi":4600,"ĠLinker":4601,"witch":4602,"Dit":4603,"Ġwervel":4604,"Ġ54":4605,"ĠTAP":4606,"ieel":4607,"vragen":4608,"ks":4609,"Ġfreq":4610,"Ġsig":4611,"Â°":4612,"Ġbeeldvorming":4613,"ED":4614,"Ġann":4615,"esion":4616,"ĠVoorgeschiedenis":4617,"Ġ300":4618,"Ġhartritme":4619,"otensie":4620,"Ġklinische":4621,"dition":4622,"Ġloopt":4623,"digen":4624,"iditeit":4625,"SpO":4626,"Ġdr":4627,"Ġdissectie":4628,"Ġgraads":4629,"Ġspontaan":4630,"Ġtop":4631,"ĠAdvies":4632,"aattekening":4633,"Ġlijn":4634,"Ġtrap":4635,"Ġ63":4636,"PV":4637,"ĠImpl":4638,"ĠLVOT":4639,"alie":4640,"gevo":4641,"kking":4642,"Ġmit":4643,"Ele":4644,"flow":4645,"Tra":4646,"Ġruim":4647,"Ġ57":4648,"Normaal":4649,"Ġbespreking":4650,"ĠTroponine":4651,"Ġ66":4652,"Ġaantoonbaar":4653,"ĠSten":4654,"ĠMetoprolol":4655,"Ġseptaal":4656,"Ġwee":4657,"Hemoglobine":4658,"odynam":4659,"Ġprogressieve":4660,"-%":4661,"nr":4662,"ĠSTEMI":4663,"Ġheden":4664,"ĠHematocriet":4665,"ĠAorta":4666,"iveau":4667,"ĠTAPSE":4668,"Ġelect":4669,"ĠAnalyse":4670,"Ġwanddikte":4671,"zy":4672,"keur":4673,"Ġneus":4674,"Ġvriendelijke":4675,"Ġmonitor":4676,"ake":4677,"):[":4678,"igniteit":4679,"ĠBehandeling":4680,"oxine":4681,"ĠErytrocyten":4682,"Ġverbet":4683,"omt":4684,"Ġmaandag":4685,"ĠAlgemeen":4686,"Naam":4687,"Ġdiagnostiek":4688,"elbaar":4689,"Ġsubling":4690,"cel":4691,"ĠSTT":4692,"Ġbeoordeling":4693,"ju":4694,"oot":4695,"OK":4696,"62":4697,"year":4698,"chnicus":4699,"introm":4700,"ismaal":4701,"Ġpersisterende":4702,"Ġlum":4703,"etje":4704,"94":4705,"Ġperfusiedefect":4706,"catheterisatie":4707,"ĠOntslag":4708,"Ġveneuze":4709,"Ġvit":4710,"daar":4711,"ĠAgatston":4712,"Ġastma":4713,"ulmonaal":4714,"Ġuitleg":4715,"ĠPFO":4716,"Ġjanuari":4717,"Ġdient":4718,"otrop":4719,"Ġlan":4720,"Ġlit":4721,"Ġvolume":4722,"mee":4723,"ĠRed":4724,"Ġdochter":4725,"Ġ88":4726,"vel":4727,"Ġricht":4728,"Ġbesloten":4729,"Ġfemoralis":4730,"Ġprofyla":4731,"enen":4732,"Ġvlak":4733,"Ġ72":4734,"Ġ96":4735,"etsel":4736,"Ġmorfologie":4737,"Ġgeslacht":4738,"Ġdilatation":4739,"emb":4740,"Ġverlaag":4741,"Ġaanhouden":4742,"oprothese":4743,"Ġtest":4744,"Ġgeven":4745,"Ġpulsaties":4746,"okeen":4747,"ained":4748,"mair":4749,"SN":4750,"maals":4751,"ureel":4752,"Ġ47":4753,"Ġ68":4754,"HB":4755,"Ġsupra":4756,"umber":4757,"ymptomatisch":4758,"ĠQu":4759,"Ġcollab":4760,"Ġbuiten":4761,"ĠGen":4762,"rijdag":4763,"Longen":4764,"Ġqua":4765,"ĠCOVID":4766,"Ġhematoom":4767,"Ġuitgebreid":4768,"ambocor":4769,"ĠHVZ":4770,"Laboratoriumonderzoek":4771,"Ġblock":4772,"Ġhiervoor":4773,"Gest":4774,"hyd":4775,"iging":4776,"otheek":4777,"iew":4778,"Ġ67":4779,"Ġmij":4780,"eratieve":4781,"ober":4782,"gezien":4783,"AIOS":4784,"Ġdrukpijn":4785,"ĠACE":4786,"Ġaankleuring":4787,"ĠBeeld":4788,"Ġinhalatie":4789,"Ġfib":4790,"Ġfo":4791,"ĠKlachten":4792,"Kopie":4793,"durend":4794,"Ġvroe":4795,"anide":4796,"ree":4797,"ulance":4798,"icusp":4799,"rine":4800,"Ġbradycardie":4801,"formine":4802,"Ex":4803,"zer":4804,"ĠVSD":4805,"Ġpulmonalis":4806,"ength":4807,"Pl":4808,"Ġhern":4809,"Ġproces":4810,"Ġonbekend":4811,"Ġmn":4812,"Ġheup":4813,"bijv":4814,"Ġvulling":4815,"59":4816,"Ġdarm":4817,"ĠErnstige":4818,"Ġdet":4819,"Ġdik":4820,"hanc":4821,"AM":4822,"Ġvoldoende":4823,"plet":4824,"53":4825,"ateerd":4826,"STAT":4827,"RDP":4828,"ificatie":4829,"Ġgerust":4830,"Ġbif":4831,"ĠIN":4832,"Ġderhalve":4833,"68":4834,"sul":4835,"sclerose":4836,"Ġperindopril":4837,"anneer":4838,"Length":4839,"ĠMS":4840,"ompli":4841,"DER":4842,"Ġverapamil":4843,"intigrafisch":4844,"asie":4845,"Ġgeheel":4846,"Ġmitralis":4847,"Ġskelet":4848,"ital":4849,"Ġcarotiden":4850,"Ġstandaard":4851,"Ġlok":4852,"Ġballo":4853,"NRT":4854,"hancement":4855,"Nazorg":4856,"Ġverwijderen":4857,"Ġfmol":4858,"urc":4859,"Ġmamm":4860,"Ġparameters":4861,"zeker":4862,"atuur":4863,"Ġlinkerkamer":4864,"Ġopnamen":4865,"lair":4866,"Ġhersen":4867,"aris":4868,"uurstof":4869,"ĠCM":4870,"Ġtgv":4871,"raten":4872,"Leads":4873,"ĠEchocardiografie":4874,"lastiek":4875,"ĠLinks":4876,"IT":4877,"Pantoprazol":4878,"Acenocoumarol":4879,"ricuspid":4880,"off":4881,"Ġbeteken":4882,"34":4883,"Fluoroscopie":4884,"ustus":4885,"ĠNaam":4886,"veneus":4887,"57":4888,"ĠGlucose":4889,"formulier":4890,"Gesproken":4891,"Ġ400":4892,"39":4893,"Ġervan":4894,"Ġorde":4895,"imulatie":4896,"ĠDiabetes":4897,"Ġplots":4898,"Ġpassen":4899,"Ġbovengenoemde":4900,"tak":4901,"2003":4902,"Ġsyncope":4903,"Ġgranulocyten":4904,"Gym":4905,"cordi":4906,"Ġwachtlijst":4907,"ĠMCHC":4908,"idose":4909,"Ġaanvullende":4910,"HDL":4911,"ĠmV":4912,"Ġess":4913,"71":4914,"elokeen":4915,"HCA":4916,"vaten":4917,"acro":4918,"ilijk":4919,"merkingen":4920,"ise":4921,"Ġverminderd":4922,"Ġovername":4923,"iodarone":4924,"ĠEchocardiogram":4925,"asting":4926,"omet":4927,"vinding":4928,"Ġregistratie":4929,"valv":4930,"Furosemide":4931,"Ġaangep":4932,"april":4933,"Ġpneumothorax":4934,"Ġdialyse":4935,"Overdracht":4936,"Ġcontroles":4937,"angen":4938,"icuspide":4939,"Belconsult":4940,"Shock":4941,"progressie":4942,"Ġhoofdpijn":4943,"gesprek":4944,"ĠAng":4945,"Ġ74":4946,"Ġkaliber":4947,"amnestisch":4948,"ruikt":4949,"Ġlichamelijk":4950,"Ġerv":4951,"inder":4952,"Ġ(<":4953,"etanide":4954,"oortje":4955,"umor":4956,"ĠSch":4957,"ĠDiastolische":4958,"ding":4959,"nes":4960,"Ġmeet":4961,"sup":4962,"stip":4963,"Ġintact":4964,"itude":4965,"Ik":4966,"ĠAp":4967,"Ġeigenlijk":4968,"Ġostium":4969,"Ġmaligniteit":4970,"Ġlow":4971,"clerotische":4972,"Ġmijn":4973,"Ġnader":4974,"ĠSterk":4975,"Ġtachy":4976,"fore":4977,"Ġtijdelijk":4978,"Ġabdomin":4979,"Med":4980,"ĠHe":4981,"ampon":4982,"DA":4983,"Ġcentimeter":4984,"Ġfraai":4985,"Ġ49":4986,"Ġlangs":4987,"Ġbetekenis":4988,"67":4989,"Ġbefore":4990,"Ġinterne":4991,"Ġ51":4992,"ĠFollow":4993,"Ġgevolg":4994,"Ġbleek":4995,"Ġwandbewegingsstoornissen":4996,"Ġprimaire":4997,"Ġenhancement":4998,"Ġtensie":4999,"Ġ71":5000,"Ġ146":5001,"Ġ78":5002,"inust":5003,"Ġmicro":5004,"olol":5005,"igne":5006,"deel":5007,"Ġ86":5008,"ĠPVI":5009,"inst":5010,"ĠData":5011,"accept":5012,"Ġbeoordeelbaar":5013,"iaire":5014,"aardi":5015,"Ġsoepele":5016,"Ġaortawortel":5017,"Cardiovasculaire":5018,"BB":5019,"viaties":5020,"Nu":5021,"oracaal":5022,"Ġ)":5023,"atrie":5024,"Ġvoort":5025,"Ġanteroseptaal":5026,"etrof":5027,"leen":5028,"Ġstaan":5029,"Ġlaatst":5030,"cg":5031,"Ġeens":5032,"Ġklepvit":5033,"Ġventrikelfunctie":5034,"ĠJR":5035,"Ġ2007":5036,"Kolom":5037,"Kolomnr":5038,"onge":5039,"Ġopzicht":5040,"Referentie":5041,"reeg":5042,"normaal":5043,"Ġcarotis":5044,"Gestopte":5045,"Ġflecainide":5046,"Ġliggen":5047,"Ġ115":5048,"etrofos":5049,"Behandeling":5050,"aanden":5051,"ĠIM":5052,"Ġcode":5053,"geving":5054,"idaties":5055,"54":5056,"Ġdub":5057,"Ġnuchter":5058,"liggend":5059,"Ġavond":5060,"Lin":5061,"wek":5062,"Ġkant":5063,"Ġnumber":5064,"Ġverz":5065,"Ġplat":5066,"ĠHoog":5067,"âĢ¢":5068,"Ġtr":5069,"Par":5070,"licht":5071,"Ġ61":5072,"reed":5073,"etrofosmine":5074,"ĠKle":5075,"Ġpalpitatie":5076,"Ġreactie":5077,"Ġklachtenvrij":5078,"Ġgezond":5079,"Ġorigo":5080,"BI":5081,"ĠUn":5082,"animatie":5083,"Ġlaboratorium":5084,"Ġhili":5085,"CTA":5086,"oss":5087,"spraken":5088,"olgen":5089,"Ġref":5090,"aterale":5091,"Ġpositieve":5092,"Ġdominant":5093,"oper":5094,"Ġeventuele":5095,"ĠRVOT":5096,"ildklier":5097,"lood":5098,"antia":5099,"rocardiogram":5100,"Ġcentrale":5101,"ectomie":5102,"ĠGeb":5103,"Ġbew":5104,"Clopidogrel":5105,"rectie":5106,"Hoofdstam":5107,"Ġannulus":5108,"Ġvaatziekten":5109,"lijnen":5110,"Ġ76":5111,"ĠCX":5112,"Ġarterie":5113,"ĠAVNRT":5114,"intigrafie":5115,"Ġelektrofysi":5116,"ĠVAS":5117,"2002":5118,"Beloop":5119,"maanden":5120,"Ġlas":5121,"orden":5122,"Ġste":5123,"Referentiedatum":5124,"Ġondanks":5125,"Ġhor":5126,"emm":5127,"ĠWe":5128,"ijde":5129,"Ġhalf":5130,"aroxaban":5131,"Ã¨t":5132,"ĠJude":5133,"ĠRadi":5134,"Ġall":5135,"Ġopzichte":5136,"Ġthe":5137,"Ġprox":5138,"orad":5139,"Ġbypass":5140,"accepteerd":5141,"ĊĊĊĠĊ":5142,"ĠDataLin":5143,"dienst":5144,"Ġstroke":5145,"Acetylsalicylzuur":5146,"ĠHer":5147,"Ġlevenslang":5148,"own":5149,"Ġlijden":5150,"Ġziekte":5151,"Ġgel":5152,"Ġtrombose":5153,"Ġscientific":5154,"Ġmidden":5155,"her":5156,"Ġzwangersch":5157,"Ġspray":5158,"Ġleren":5159,"zo":5160,"Ġklepafwijkingen":5161,"ĠParox":5162,"hypert":5163,"isico":5164,"Ġfocus":5165,"Ġposterior":5166,"Sch":5167,"oÃ¯d":5168,"Ġbehandelen":5169,"Ġaantal":5170,"Ġgastro":5171,"Atriumfibrilleren":5172,"abiel":5173,"Ġvervolgen":5174,"Ġaanmelding":5175,"Ġvolgfrequentie":5176,"Ġverpleegkundige":5177,"rige":5178,"pk":5179,"ilis":5180,"ventriculair":5181,"Ġniets":5182,"compli":5183,"Ġser":5184,"Ġsarco":5185,"ikel":5186,"umetanide":5187,"geh":5188,"ligging":5189,"ĠErgometrie":5190,"Ġcomm":5191,"Ġessentie":5192,"Ġconsolidaties":5193,"Ġshunt":5194,"Ġvind":5195,"Ġveget":5196,"Ġvaak":5197,"Ġpericarditis":5198,"ruari":5199,"Ġochtend":5200,"ĠArt":5201,"ĠOSAS":5202,"Ġpanc":5203,"beleid":5204,"stained":5205,"stij":5206,"ĠAscal":5207,"Ġ73":5208,"Ġvooralsnog":5209,"Ġintraveneus":5210,"51":5211,"2000":5212,"Ġsecretariaat":5213,"Link":5214,"ĠPR":5215,"port":5216,"Ġjr":5217,"ALAT":5218,"Advies":5219,"spannen":5220,"Ġdrain":5221,"Ġpara":5222,"grote":5223,"Ġapotheek":5224,"Ġproximal":5225,"Ġklepvitia":5226,"sis":5227,"ORI":5228,"Echocardiografie":5229,"Ġamlodipine":5230,"buik":5231,"Ġcollabeert":5232,"Hartfalen":5233,"Ġ&":5234,"Ġperio":5235,"UST":5236,"ĠAlkalische":5237,"ĠLang":5238,"Ġbeperkte":5239,"Ġpte":5240,"Ġden":5241,"Ġstoornissen":5242,"Ġcollater":5243,"Ġperif":5244,"gevraagd":5245,"Algemeen":5246,"amponade":5247,"Ter":5248,"gebied":5249,"Ġ105":5250,"ĠZorg":5251,"icoagulantia":5252,"mV":5253,"Ġbroer":5254,"Hoofddiagnose":5255,"Ġgraden":5256,"idingen":5257,"normale":5258,"uidelijk":5259,"Ġbetablokker":5260,"Ġgeplaatst":5261,"lux":5262,"inaat":5263,"standig":5264,"Een":5265,"rter":5266,"Ġopdat":5267,"Ġsubcutaan":5268,"rengen":5269,"erieure":5270,"Ġdelay":5271,"hypertensie":5272,"Ġonderste":5273,"verd":5274,"aut":5275,"66":5276,"500":5277,"uccinaat":5278,"ĠIsch":5279,"ĠPoliklinische":5280,"ĠHierbij":5281,"urele":5282,"Ġstents":5283,"120":5284,"Ġherkenbare":5285,"Ġpsych":5286,"ĠConform":5287,"Ġnevenbevindingen":5288,"antagonist":5289,"Score":5290,"ry":5291,"ericht":5292,"Ġvermoedelijk":5293,"Ġeenmalig":5294,"ductie":5295,"Ġsnr":5296,"Ġlymfe":5297,"Ġschema":5298,"bal":5299,"ĠKN":5300,"mering":5301,"Ġontstaan":5302,"Ġbericht":5303,"Ġou":5304,"iasis":5305,"Ġmoeilijk":5306,"Ġpocket":5307,"kwaliteit":5308,"Ġvv":5309,"Tractus":5310,"kort":5311,"rox":5312,"kin":5313,"ĠLAVI":5314,"Ġinmiddels":5315,"||":5316,"ook":5317,"Ġgeworden":5318,"ĠPVAI":5319,"ĠBi":5320,"ĠfL":5321,"Ġcava":5322,"mmer":5323,"Ġ(/":5324,"Ġreversib":5325,"ĠMatig":5326,"Ġvrijdag":5327,"ĠLCX":5328,"ĠHartfrequentie":5329,"Ġ2021":5330,"reerd":5331,"esitas":5332,"91":5333,"ason":5334,"oscop":5335,"hoe":5336,"Ġtoevoegen":5337,"136":5338,"aags":5339,"Ġsecundair":5340,"Ġclopidogrel":5341,"alva":5342,"ĠPoli":5343,"urcatie":5344,"bericht":5345,"Ġongecompliceerd":5346,"ĠScintigrafisch":5347,"beperking":5348,"fic":5349,"Ġhals":5350,"succinaat":5351,"gegeven":5352,"Ġvorm":5353,"Ġect":5354,"Ġspontane":5355,"Ġdefect":5356,"Ġambulance":5357,"Ġakinesie":5358,"ĠEchter":5359,"keken":5360,"Ġ77":5361,"OP":5362,"Ġ82":5363,"inustachycardie":5364,"Ġkortdurend":5365,"kolom":5366,"Ġdanwel":5367,"Ġrichting":5368,"69":5369,"400":5370,"ypisch":5371,"ĠAortaklep":5372,"Ġvraagstelling":5373,"Ġstenosering":5374,"Ġzieke":5375,"compliant":5376,"ĠPt":5377,"Ġmen":5378,"At":5379,"riglycer":5380,"Ġdegen":5381,"iologie":5382,"gew":5383,"Ġgereguleerd":5384,"Ġactuele":5385,"Ġcalcificaties":5386,"ĠSub":5387,"rechts":5388,"Ġzowel":5389,"Ġballoon":5390,"artrose":5391,"Ġecg":5392,"Ġprecordi":5393,"ĠScientific":5394,"Complicatie":5395,"Ġnood":5396,"Ġinternist":5397,"colleg":5398,"ĠGFR":5399,"Ġrecidiverende":5400,"ĠPre":5401,"ASAT":5402,"Ġtrage":5403,"oview":5404,"GE":5405,"Ġzitten":5406,"Ġminimale":5407,"Ġhartinfarct":5408,"Sociaal":5409,"US":5410,"TA":5411,"ĠMDL":5412,"Ġopent":5413,"Ġdecompensatie":5414,"IP":5415,"63":5416,"Ġelk":5417,"Ġlongvaattekening":5418,"Ġsens":5419,"Ġstructureel":5420,"Rec":5421,"Ġgegaan":5422,"land":5423,"Ġrechterventrikel":5424,"Ġopgehoogd":5425,"Ġ84":5426,"legd":5427,"Ġmechan":5428,"attery":5429,"asaal":5430,"Ġdhr":5431,"bv":5432,"beelde":5433,"Ġfrequente":5434,"Ġpercutane":5435,"Ġ145":5436,"Ġhemodynam":5437,"groep":5438,"Ġpunctie":5439,"uma":5440,"efact":5441,"long":5442,"Ġkatheter":5443,"ositas":5444,"heen":5445,"Ġvolgen":5446,"Ġverleng":5447,"orse":5448,"dec":5449,"Ascal":5450,"calcium":5451,"oename":5452,"epat":5453,"Ġprob":5454,"Ġlek":5455,"emat":5456,"Ġadequate":5457,"chl":5458,"ĠLaboratorium":5459,"Ġsystemische":5460,"Ġdescendens":5461,"Ġritmestoornis":5462,"ĠTV":5463,"rolaps":5464,"Ġelektrische":5465,"HH":5466,"ĠCAD":5467,"Ġhartt":5468,"Ġchem":5469,"ack":5470,"2001":5471,"orta":5472,"ĠMy":5473,"ĠER":5474,"wijzigde":5475,"ĠFlow":5476,"ĠAVA":5477,"Ġlongvenen":5478,"Ġoude":5479,"abig":5480,"ikbaar":5481,"Ġmar":5482,"ionale":5483,"Ġdoet":5484,"ugen":5485,"ĠBekend":5486,"chen":5487,"Ġstuwing":5488,"Ġthrombus":5489,"-:":5490,"ĠDCM":5491,"alsalva":5492,"ocyt":5493,"ĠJL":5494,"Ġniveau":5495,"Ġem":5496,"tablet":5497,"Ġafgebeelde":5498,"Ġaanvang":5499,"maakte":5500,"ĠPatiÃ«nte":5501,"Ã¨tablokker":5502,"itting":5503,"Verder":5504,"Leeftijd":5505,"Ġslaap":5506,"belasting":5507,"Ġleven":5508,"Ġdecember":5509,"Jx":5510,"Ġhog":5511,"ĠSVES":5512,"Huisarts":5513,"Ġcircumflex":5514,"aced":5515,"NA":5516,"dil":5517,"inter":5518,"collegiaal":5519,"Ġbezig":5520,"icale":5521,"ĠTDI":5522,"ĠOHCA":5523,"Ġhypotensie":5524,"ularisatie":5525,"Ġcereb":5526,"derline":5527,"rain":5528,"adenopathie":5529,"ovasculair":5530,"Onderzoek":5531,"ostase":5532,"Ġkreeg":5533,"Ġ92":5534,"Ġbeelden":5535,"Ġuite":5536,"Ġactiviteit":5537,"zide":5538,"kan":5539,"med":5540,"boven":5541,"125":5542,"mis":5543,"Ġfractuur":5544,"euc":5545,"grens":5546,"atran":5547,"izont":5548,"Ġform":5549,"anto":5550,"Ġmede":5551,"veren":5552,"resto":5553,"Ġogen":5554,"Ġsporten":5555,"Ġtemp":5556,"Ġipv":5557,"ĠaVL":5558,"Ġtricuspidalisklep":5559,"Ġstreef":5560,"Ġoste":5561,"ĠHyp":5562,"abigatran":5563,"ylo":5564,"ĠON":5565,"icul":5566,"Ġglucose":5567,"Ġcolon":5568,"Ġantibiotica":5569,"Ġfact":5570,"ĠStabiele":5571,"Ġrugligging":5572,"000":5573,"icine":5574,"ĠDR":5575,"Myocardinfarct":5576,"ĠVervolg":5577,"ineuze":5578,"ĠAnamnese":5579,"uurs":5580,"heath":5581,"known":5582,"asen":5583,"Ġverpleegkundigen":5584,"Ġacenocoumarol":5585,"Ġhartrevalidatie":5586,"aline":5587,"del":5588,"Ġoktober":5589,"ool":5590,"Blood":5591,"Ġvue":5592,"xe":5593,"Ġswitch":5594,"Ġplaatsen":5595,"gezet":5596,"umon":5597,"Ġmaat":5598,"Ġ83":5599,"Dominantie":5600,"elect":5601,"wer":5602,"ner":5603,"Ġtwe":5604,"Ġvenen":5605,"Ġthuismedicatie":5606,"iom":5607,"morgen":5608,"Ġ94":5609,"vals":5610,"Ġcrit":5611,"ĠÂµg":5612,"Ġmamma":5613,"Ġvoet":5614,"iclo":5615,"Ġauto":5616,"ĉĊÂłĉ":5617,"Spironolacton":5618,"block":5619,"Ġ2006":5620,"Ġcoronari":5621,"Ġextrasystol":5622,"behand":5623,"duur":5624,"Ġseptember":5625,"arree":5626,"stig":5627,"Ġspironolacton":5628,"atible":5629,"Ġhernia":5630,"gevallen":5631,"elevant":5632,"Ġhandmatig":5633,"weken":5634,"Ġverh":5635,"ife":5636,"ĠDec":5637,"eucocyten":5638,"greep":5639,"Ġsed":5640,"TIA":5641,"Ġproblematiek":5642,"zym":5643,"??":5644,"geruis":5645,"Ġken":5646,"sion":5647,"ĠZD":5648,"sluiting":5649,"ontrole":5650,"Ġmsec":5651,"ĠRPM":5652,"onent":5653,"roleerd":5654,"adol":5655,"ĠgeÃ¯n":5656,"leidingen":5657,"Wat":5658,"pati":5659,"Ġsluit":5660,"enpro":5661,"Ġaandacht":5662,"sne":5663,"olerantie":5664,"merken":5665,"risch":5666,"lavia":5667,"Ġlasix":5668,"Ġorthopnoe":5669,"akker":5670,"Ġsignaal":5671,"oeden":5672,"Ġmogelijke":5673,"face":5674,"Plus":5675,"Ġstructurele":5676,"ĠUnknown":5677,"Ġpitting":5678,"jaar":5679,"Operator":5680,"manent":5681,"Ġincompatible":5682,"rs":5683,"ĠopPlus":5684,"intOperator":5685,"Ġvesiculair":5686,"Opdrachten":5687,"gehele":5688,"Ġadip":5689,"%;":5690,"cisie":5691,"ĠAblatie":5692,"ĠEchocardiografisch":5693,"Ġprimair":5694,"Tromb":5695,"odi":5696,"Ġnovember":5697,"Ġlinkerventrikelfunctie":5698,"MDRD":5699,"nstig":5700,"sth":5701,"Text":5702,"aritm":5703,"ĠDaarnaast":5704,"fractuur":5705,"Sotalol":5706,"Ġverbeterd":5707,"Ġdominance":5708,"ĠAG":5709,"coumon":5710,"Ġenkels":5711,"Ġarit":5712,"toppen":5713,".;":5714,"stijd":5715,"Ġverdw":5716,"ĠOrg":5717,"ending":5718,"for":5719,"oph":5720,"Ġtherapeut":5721,"ĠPacemaker":5722,"Ġinfiltraten":5723,"Ġblijkt":5724,"Ġwaarop":5725,"Ġlange":5726,"Ġvoorbere":5727,"Ġischaemie":5728,"Ġzout":5729,"Ġperifere":5730,"Ġelektronisch":5731,"Ġrevalidatie":5732,"Ġteam":5733,"Ġverdragen":5734,"com":5735,"iliac":5736,"othyre":5737,"kkage":5738,"Ġzwelling":5739,"Ġlymfadenopathie":5740,"Nazorginst":5741,"illine":5742,"ump":5743,"Ġaugustus":5744,"steking":5745,"Ġmeten":5746,"urale":5747,"enprocoumon":5748,"ĠNadien":5749,"Ġlos":5750,"itieve":5751,"Ġorale":5752,"Ġvraag":5753,"Ġlangzaam":5754,"Ġbra":5755,"Ġprostaat":5756,"Ġface":5757,"Ġanamnestisch":5758,"antwoord":5759,"ĠHDL":5760,"Ġtoenem":5761,"ystectomie":5762,"och":5763,"Ġgeval":5764,"asal":5765,"Ġmaakt":5766,"Ġgecontroleerd":5767,"ĊĊĠ":5768,"Ġzover":5769,"ullen":5770,"Ġpob":5771,"Ġvers":5772,"isicoprofiel":5773,"dr":5774,"azepam":5775,"pre":5776,"gaande":5777,"oriseerd":5778,"riglyceriden":5779,"Nevendiagnoses":5780,"RO":5781,"Nazorginstantie":5782,"ko":5783,"]/":5784,"Ġfysi":5785,"Ġspreekuur":5786,"Ġgeaut":5787,"Ġuiteindelijk":5788,"Ġfocale":5789,"oepen":5790,"mGy":5791,"ĠAB":5792,"istreerd":5793,"Ġvoorlop":5794,"oto":5795,"Toegang":5796,"Ġgeautoriseerd":5797,"oeg":5798,"Ġgeaccepteerd":5799,"ĠRUST":5800,"durende":5801,"lass":5802,"Ġechocardiografie":5803,"ossier":5804,"Ġ104":5805,"JM":5806,"Ġrustige":5807,"Ġging":5808,"Ġrol":5809,"Ġtamponade":5810,"gradi":5811,"Ġmild":5812,"Ġniertransplantatie":5813,"Ġregulair":5814,"Resp":5815,"Ġgein":5816,"Ġwaargenomen":5817,"diceerd":5818,"adium":5819,"Ġblaas":5820,"!!":5821,"):>":5822,"ĠLengte":5823,"Ġfrequent":5824,"piteren":5825,"Ġzuurstof":5826,"SPECT":5827,"ocardiale":5828,"Ġeinde":5829,"lasting":5830,"ĠWil":5831,"osin":5832,"Ġbehoudens":5833,"Ġbeetje":5834,"Ġactueel":5835,"Ġpijnlijk":5836,"Poli":5837,"ĠCTO":5838,"Ap":5839,"icaal":5840,"Ġpoging":5841,"rupp":5842,"Ġhom":5843,":-":5844,"serv":5845,"ĠDyspnoe":5846,"Ġtoegang":5847,"Battery":5848,"zijdige":5849,"UCH":5850,"Ġ87":5851,"Ġpalpitatieklachten":5852,"eef":5853,"Ġbetrouwbaar":5854,"oonplaats":5855,"Door":5856,"oradisch":5857,"weginfectie":5858,"Ġhoeveel":5859,"Ingreep":5860,"Ġparoxismaal":5861,"ĠVerhoogd":5862,"Ġondergaan":5863,"ĠCMP":5864,"rip":5865,"Ġrib":5866,"Ġzwangerschap":5867,"ique":5868,"uaal":5869,"Ġafbouw":5870,"zelfde":5871,"Ġmeetwaarden":5872,"STEMI":5873,"AGB":5874,"ĠEjectiefractie":5875,"Ġregionale":5876,"grade":5877,"110":5878,"Ġwaardoor":5879,"ĠLa":5880,"Ġ93":5881,"Ġhele":5882,"akantie":5883,"waarde":5884,"Ġdelayed":5885,"Ġget":5886,"Ġcort":5887,"ĠDoor":5888,"izontale":5889,"arge":5890,"Ġdraad":5891,"ĠCardiaal":5892,"Familieanamnese":5893,"isolatie":5894,"Ġwortel":5895,"Ġonrust":5896,"operatieve":5897,"Ġleverfunctie":5898,"Ġlitteken":5899,"Ġlesion":5900,"activ":5901,"hy":5902,"ĠNov":5903,"zymen":5904,"Ġsymptomatische":5905,"ipele":5906,"ĠEch":5907,"Tot":5908,"Ġvooral":5909,"astom":5910,"Ġvindt":5911,"Ġmomenteel":5912,"repen":5913,"ĠOM":5914,"Boston":5915,"Ġ79":5916,"vix":5917,"Ġontslagbrief":5918,"Ġkliniek":5919,"ĠStenosis":5920,"Ġamiodarone":5921,"Ġbovenstaande":5922,"orvastatine":5923,"Ġademhaling":5924,"ricuspidale":5925,"Ġlengte":5926,"Ġ138":5927,"dosis":5928,"ogn":5929,"verband":5930,"ĠDer":5931,"sluitend":5932,"Matige":5933,"ecystectomie":5934,"Ġperiode":5935,"orfe":5936,"iti":5937,"Ġreumat":5938,"Meer":5939,"Ġhypo":5940,"ĠInf":5941,"Ġligt":5942,"Ġclin":5943,"ĠAs":5944,"Ġbicuspide":5945,"bradycardie":5946,"Ġstap":5947,"Ġrichtingen":5948,"Ġorder":5949,"ĊĊĊĊĠĊĊĊ":5950,"Ġbenauwdheid":5951,"BR":5952,"Ġaspecifieke":5953,"Ġ89":5954,"Ġĉ":5955,"orijden":5956,"Ġ81":5957,"Ġide":5958,"Ġsecundaire":5959,"Ġnieren":5960,"leiding":5961,"ĠGenees":5962,"Ġpleister":5963,"Ġwisselend":5964,"Vaat":5965,"rot":5966,"Ġreceptie":5967,"Ġwakker":5968,"En":5969,"âĢĵ":5970,"zijn":5971,"asalaat":5972,"Ġkalium":5973,"Ġ190":5974,"ĠCol":5975,"ĠVerpleegkundige":5976,"STATE":5977,"waarschijnlijk":5978,"Ġgesloten":5979,"Ġtevoren":5980,"Ġleveren":5981,"Ġvorig":5982,"fsel":5983,"Ġcrepiteren":5984,"ĠNB":5985,"put":5986,"code":5987,"ĠaVF":5988,"Ġgehele":5989,"lust":5990,"Ġchemotherapie":5991,"NOAC":5992,"Ġgelegen":5993,"abd":5994,"Ġvervaardi":5995,"zijdig":5996,"jr":5997,"XT":5998,"Ġeenheden":5999,"yct":6000,"sh":6001,"-/":6002,"quis":6003,"ene":6004,"Ġaangepast":6005,"Rechter":6006,"ĠICC":6007,"Ġventriculair":6008,"MS":6009,"pletie":6010,"vandaag":6011,"Ġbestaat":6012,"Ġkrijgen":6013,"Ġvergrote":6014,"Ġwanneer":6015,"oversie":6016,"ĠSec":6017,"ĠKlinisch":6018,"Ġmetast":6019,"Ġverlaagd":6020,"Ġgrootte":6021,"ateur":6022,"Ġinjectie":6023,"icon":6024,"ĠCx":6025,"ymptomatische":6026,"Ġinplannen":6027,"aliseerd":6028,"Air":6029,"Ġ139":6030,"SS":6031,"Ġslagen":6032,"aam":6033,"Ġvervangen":6034,"prazol":6035,"Ġpalpabel":6036,"clus":6037,"Ġallergie":6038,"Ġechtgenote":6039,"Ġafwez":6040,"azol":6041,"gere":6042,"Ġhiervan":6043,"Ġ-,":6044,"Telefoon":6045,"perfusie":6046,"oidie":6047,"ollings":6048,"Ġfebruari":6049,"Ġkinderen":6050,"ĠMilde":6051,"entage":6052,"Ġharttransplantatie":6053,"ĠGraag":6054,"Ġtoepassing":6055,"Ġ(+":6056,"problemen":6057,"Ġspiegel":6058,"Ġvar":6059,"NT":6060,":|":6061,"stent":6062,"chron":6063,"Licht":6064,"Ġcrepitaties":6065,"aarne":6066,"isor":6067,"Ġresectie":6068,"ĠBSE":6069,"Ġshocks":6070,"doet":6071,"Ġwisselende":6072,"VR":6073,"nucleair":6074,"Ġmilt":6075,"ordt":6076,"ĠMG":6077,"oxicaties":6078,"Ġdiarree":6079,"Ġevents":6080,"ĠAlgemene":6081,"2023":6082,"ntgen":6083,"idie":6084,"ĠVerdenking":6085,"Ġzijde":6086,"Ġpunt":6087,"regelen":6088,"vangen":6089,"Ġnaast":6090,"middag":6091,"echt":6092,"ycturie":6093,"Ġbem":6094,"nier":6095,"Opmerkingen":6096,"Ġonderging":6097,"Ġbeeldkwaliteit":6098,"Calcium":6099,"Radiation":6100,"outine":6101,"da":6102,"ĠWaar":6103,"::":6104,"Ġpas":6105,"ament":6106,"ecalc":6107,"insuff":6108,"Ġlipiden":6109,"atriale":6110,"ĠTIMI":6111,"Ġcyste":6112,"Ġcomponent":6113,"respons":6114,"Ġnummer":6115,"Ġbewust":6116,"Ġasymptomatisch":6117,"Ġdilaterende":6118,"intie":6119,"Ġaanp":6120,"Ġuitstraling":6121,"plastiek":6122,"chec":6123,"Ġabdomen":6124,"Ã©n":6125,"================================":6126,"Ġscho":6127,"verwezen":6128,"Ġ07":6129,"ĠâĢĵ":6130,"ĠAtypische":6131,"Ġafgrens":6132,"Ġgevol":6133,"Ġartrose":6134,"Hier":6135,"dex":6136,"otricuspidale":6137,"Ġsedatie":6138,"mpedantie":6139,"Ġdiagonaal":6140,"Ġvrijwel":6141,"Ġander":6142,"Ġbisoprolol":6143,"asalaatcalcium":6144,"ĠValsalva":6145,"ĠMeer":6146,"Ġopdrachten":6147,"Ġpau":6148,"Ġaanvraag":6149,"ĠSoms":6150,"Ġradioloog":6151,"valvulaire":6152,"Ġactieve":6153,"tetrofosmine":6154,"quisitie":6155,"Perindopril":6156,"Thorax":6157,"onderdag":6158,"Ġepic":6159,"AoV":6160,"Ġelke":6161,"Ġweekend":6162,"antozol":6163,"alpitaties":6164,"Ġpomp":6165,"mTc":6166,"lechte":6167,"emming":6168,"leet":6169,"Ġ2005":6170,"blaas":6171,"alcificeerde":6172,"ĠĠĠĠ":6173,"emper":6174,"Ġbatterij":6175,"Ġvoorspeld":6176,"Ġsublinguaal":6177,"ript":6178,"sol":6179,"Ġopin":6180,"Ġtelemetrie":6181,"Ġhepat":6182,"alijden":6183,"iva":6184,"1999":6185,"ACE":6186,"ĠSat":6187,"ĠMR":6188,"straat":6189,"Ġzoon":6190,"aas":6191,"Ġrun":6192,"ĠRitme":6193,"Ġanesthesie":6194,"Ġul":6195,"Ġirreg":6196,"ĠDiff":6197,"ĠTSH":6198,"VS":6199,"Ġprop":6200,"ĠGer":6201,"ofiele":6202,"roles":6203,"Ġeet":6204,"Ġgesla":6205,"Ã¯n":6206,"Ġnl":6207,"Ġdoubl":6208,"inale":6209,"ignific":6210,"ept":6211,",:":6212,"gepland":6213,"Ġlate":6214,"meprazol":6215,"Ġpostoperatief":6216,"ĠAA":6217,"ther":6218,"Ġbeweg":6219,"ouwd":6220,"Ġhartcatheterisatie":6221,"endectomie":6222,"balans":6223,"Ġinh":6224,"Ġvari":6225,"Ġvervaardigd":6226,"mmet":6227,"Ġcardiovasculair":6228,"uraal":6229,"ĠRedelijke":6230,"Ġmelden":6231,"Ġhulp":6232,"Ġafwijkende":6233,"Ġnogmaals":6234,"gevoerd":6235,"Ġextrasystolen":6236,"sluiten":6237,"Ġvakantie":6238,"Ġafhankelijk":6239,"Ġrespons":6240,"ĠMVP":6241,"CMP":6242,"rid":6243,"Ġliet":6244,"ĠEer":6245,"AR":6246,"ĠNatrium":6247,"Ġrelatie":6248,"Ġsubtotale":6249,"Ġnauw":6250,"amiliaire":6251,"ĠTABL":6252,"les":6253,"Ġoper":6254,"ompensatio":6255,"COPD":6256,"Ġhorizontale":6257,",[":6258,"LM":6259,"{\\":6260,"Ġwaarvan":6261,"Ġalgemeen":6262,"Ġng":6263,"Ġconcentrische":6264,"Ġhoest":6265,"gank":6266,"Ġatriaal":6267,"arme":6268,"lechter":6269,"ĠHypercholesterolemie":6270,"pe":6271,"Ġopinion":6272,"ulmonale":6273,"NYHA":6274,"Ġ(=":6275,"Ġbijna":6276,"laesie":6277,"ĠCons":6278,"Nage":6279,"Ġpra":6280,"Collater":6281,"Ġoes":6282,"Sten":6283,"61":6284,"ĠLAB":6285,"Ġcontractiepatroon":6286,"Ġangineuze":6287,"ĠCar":6288,"Ġun":6289,"ĠThoracale":6290,"Ġoss":6291,"Nagekeken":6292,"ptomen":6293,"Ġ240":6294,"Spoor":6295,"Ġdoorgemaakte":6296,"verticul":6297,"drempel":6298,"Ġmoeheid":6299,"icintie":6300,"ĠMorgen":6301,"emperatuur":6302,"Time":6303,"Ġ450":6304,"LIMA":6305,"ĠMin":6306,"ĠCholesterol":6307,"formed":6308,"Ġplan":6309,"carb":6310,"Ġproef":6311,"Ġfietsergometrie":6312,"cre":6313,"stellen":6314,"Elekt":6315,"Ġwervelkolom":6316,"Ġum":6317,"Ġov":6318,"Ġanastom":6319,"clip":6320,"Ġ91":6321,"Eer":6322,"uun":6323,"ĠGedilateerde":6324,"Ġlinkeratrium":6325,"Ġbol":6326,"bp":6327,"laten":6328,"ĠLaat":6329,"ĠDDDR":6330,"Stroke":6331,"Ġsubclavia":6332,"Ġgerookt":6333,"Aberr":6334,"Ġgeob":6335,"ENOS":6336,"Ġopgestuurd":6337,"Ġloop":6338,"ĠPHT":6339,"Ġmoeten":6340,"renaline":6341,"Ġnierinsufficientie":6342,"ĠHS":6343,"Ġgeruis":6344,"ĠGUCH":6345,"nov":6346,"Ġrestri":6347,"+,":6348,"Ġechocardiografisch":6349,"Ticagrelor":6350,"app":6351,"oi":6352,"Ġradiotherapie":6353,"Stenose":6354,"Ġvoeten":6355,"Ġorthopneu":6356,"wekbaar":6357,"Ġaangemeld":6358,"Ġonderliggend":6359,"patie":6360,"jectiv":6361,"Ġevident":6362,"ĠDataLinQ":6363,"Ġwaarde":6364,"Actieve":6365,"ĠKomt":6366,"nieuw":6367,"Ġectopie":6368,"ĠOverweeg":6369,"Ġ600":6370,"ĠAdres":6371,"ĠUitgebreide":6372,"scintigrafie":6373,"Ġverrichten":6374,"Ġwet":6375,"klieren":6376,"aling":6377,"Ġrevisie":6378,"ĠKCL":6379,"Ġhard":6380,"zetten":6381,"Ġdigoxine":6382,"ĠHAS":6383,"ving":6384,"butamine":6385,"Ġlekker":6386,"ocale":6387,"verdi":6388,"1998":6389,"Ġcalcium":6390,"Ġcirca":6391,"ĠIom":6392,"ĠĠĉ":6393,"Ġicc":6394,"ĠWatt":6395,"Ġelev":6396,"breuk":6397,"elijks":6398,"etour":6399,"metast":6400,"Ġdoc":6401,"Ġmis":6402,"uss":6403,"ĠVergeleken":6404,"Ġbur":6405,"Ġatherosclerotische":6406,"ĠWoonplaats":6407,"Ġtypische":6408,"Ġcr":6409,"Ġnachts":6410,"ĠRoutine":6411,"lichtings":6412,"hes":6413,"Ġvinden":6414,"Ġobesitas":6415,"tedatum":6416,"Ġ137":6417,"Ġdors":6418,"Ġgeheugen":6419,"Ġdro":6420,"Ġleads":6421,"Ġconsent":6422,"Ġneuroloog":6423,"->":6424,"Bilirubine":6425,"ĠSlank":6426,"Ġstroom":6427,"VD":6428,"bloed":6429,"bladen":6430,"Medtronic":6431,"Ġboog":6432,"Ġbloedverlies":6433,"ĠRel":6434,"bloeding":6435,"ĠLichte":6436,"Ġij":6437,"egra":6438,"Ġgewricht":6439,"Ġeten":6440,"ĠOpmerking":6441,"Ġontwat":6442,"elateerd":6443,"Ġaanzien":6444,"Ġbasale":6445,"istollings":6446,"Ġproberen":6447,"ĠOnderstaande":6448,"ĠPoliklinisch":6449,"Ġgef":6450,"Ġgelukt":6451,"Ġintrac":6452,"Ġrepolarisatiestoornissen":6453,"alk":6454,"schatte":6455,"Ġcavotricuspidale":6456,"Ġiliac":6457,"Ġaldaar":6458,"Ġbot":6459,"ĠBI":6460,"ĠPTA":6461,"Ġmw":6462,"Ġstenoses":6463,"mcg":6464,"clude":6465,"laire":6466,"Ġlastig":6467,"Vrouw":6468,"Ġhervat":6469,"Postoperatief":6470,"uitslagen":6471,"Ġfibrilleren":6472,"Ġaanhoudende":6473,"Pijn":6474,"Ġzwaar":6475,"Ġcardiac":6476,"Ġzullen":6477,"feb":6478,"Ġacquisitie":6479,"Extra":6480,"dienings":6481,"ycine":6482,"ocardiaal":6483,"otter":6484,"irpatie":6485,"Van":6486,"geleid":6487,"Ġslechts":6488,"Ġwire":6489,"ditionele":6490,"Ġischemisch":6491,"Ġmate":6492,"Ġpm":6493,"Ġchronisch":6494,"cip":6495,"openie":6496,"Ġspecifieke":6497,"Max":6498,"Ġbuikpijn":6499,"Ingepland":6500,"Ġoverslagen":6501,"geschreven":6502,"Ġbehandelaar":6503,"Ġdaags":6504,"Ġalcoholgebruik":6505,"AZ":6506,"werkend":6507,"dieningsweg":6508,"Ġimm":6509,"Ġontvangen":6510,"Ġneurologie":6511,"Ġheer":6512,"Ġkreatinine":6513,"Ġnitraat":6514,"Function":6515,"Ġdose":6516,"TEXT":6517,"idieven":6518,"SIE":6519,"procedure":6520,"1997":6521,"Ġbetrokken":6522,"ĠRW":6523,"ete":6524,"depressie":6525,"Ġnormal":6526,"Ġgede":6527,"insdag":6528,"ĠToedieningsweg":6529,"ĠVandaag":6530,"Ġrect":6531,"Ġletsel":6532,"Ġpatroon":6533,"agen":6534,"ĠMonitor":6535,"Ġsternotomie":6536,"Ġprecordiale":6537,"Ġangi":6538,"servatie":6539,"Ġweet":6540,"ious":6541,"lead":6542,"chemie":6543,"Ġonderwandinfarct":6544,"ESA":6545,"missie":6546,"verse":6547,"VF":6548,"theros":6549,"Ġcontroleren":6550,"TEE":6551,"atoire":6552,"ictie":6553,"omatisch":6554,"ĠGro":6555,"Agatston":6556,"__":6557,"ijdig":6558,"ĠEGFR":6559,"RCx":6560,"alg":6561,"scopie":6562,"Ġvas":6563,"suline":6564,"Ġtelefoon":6565,"ĠAD":6566,"ĠVisueel":6567,"Ġopvall":6568,"Ġgesch":6569,"reas":6570,"ĠDhr":6571,"rijven":6572,"Ergometrie":6573,"jan":6574,"gewicht":6575,"Gezien":6576,"ORDER":6577,"Ġplaqu":6578,"Ġuitgesproken":6579,"Ġax":6580,"ichtlijnen":6581,"Ġvoldoet":6582,"Sec":6583,"osu":6584,"ichaam":6585,"Ġepisodes":6586,"ĠEnd":6587,"ĠBas":6588,"Ġcutaan":6589,"graad":6590,"geroepen":6591,"ACS":6592,"anning":6593,"orbide":6594,"Ġzeg":6595,"ernaal":6596,"rocardioversie":6597,"zout":6598,"Ġingev":6599,"ĠSlanke":6600,"OC":6601,"Ġgecon":6602,"ORAT":6603,"Ġvet":6604,"mplitude":6605,"cell":6606,"chting":6607,"HAS":6608,"Schema":6609,"rank":6610,"Medische":6611,"ORIUM":6612,"ORATORIUM":6613,"Halsvenen":6614,"Ġalgehele":6615,"ĠVeel":6616,"Ġgepaced":6617,"itaal":6618,"rill":6619,"160":6620,"overzicht":6621,"rograft":6622,"Ġzus":6623,"Ġafleidingen":6624,"foratie":6625,"houdend":6626,"Ġbereikt":6627,"Ġim":6628,"Ġhoeveelheid":6629,"Ġgezondheid":6630,"cep":6631,"WK":6632,"etische":6633,"Vaatlijden":6634,"ile":6635,"ĠKreatinine":6636,"ĠEnkele":6637,"iazide":6638,"ĠPTCA":6639,"wogen":6640,"auw":6641,"nu":6642,"ĠIntercollegiaal":6643,"baarheid":6644,"namnestisch":6645,"ĠIS":6646,"Vul":6647,"Ġaortaklepvervanging":6648,"Ġveneus":6649,"analyse":6650,"Ġapicale":6651,"Ġverdikt":6652,"Ġsluiting":6653,"Ġhypertrofische":6654,"ralings":6655,"Ġlekkage":6656,"BC":6657,"Ġverkalkte":6658,"mogelijk":6659,"Ġziet":6660,"ĠAtheros":6661,"Ġ06":6662,"coronair":6663,"Ġsinustachycardie":6664,"Ġlesie":6665,"bt":6666,"ML":6667,"rth":6668,"clusion":6669,"Ġontlasting":6670,"Leucocyten":6671,"Ġcy":6672,"esc":6673,"gener":6674,"Ġafger":6675,"ront":6676,"vlst":6677,"Ġcoronarialijden":6678,"ĠInjectie":6679,"Ġmisselijkheid":6680,"Ġdiafragmat":6681,"Ġbil":6682,"Ġcogn":6683,"Ġchirurgie":6684,"Ġ101":6685,"Ġkamerfunctie":6686,"pleren":6687,"Ġsug":6688,"Ġvastgesteld":6689,"Ġsmal":6690,"gebouwd":6691,"Ġmetingen":6692,"gestelde":6693,"ha":6694,"lycerine":6695,"Ġbifurcatie":6696,"Ġ136":6697,"Ġpmol":6698,"Ġdun":6699,"Ġleuk":6700,"Ġetc":6701,"FFR":6702,"tg":6703,"ischemie":6704,"Ġaanget":6705,"ĠAGB":6706,"Ġaortab":6707,"Ġharttoon":6708,"Ġcalcificatie":6709,"meldformulier":6710,"Âµmol":6711,"roglycerine":6712,"Ġprolaps":6713,"Ġdonderdag":6714,"Ġdienst":6715,"ille":6716,"Ġvaliditeit":6717,"Ġarteri":6718,"Ġtumor":6719,"issen":6720,"ricuspide":6721,"Ġautorijden":6722,"heel":6723,"Ġgere":6724,"Ġumol":6725,"Ġelectieve":6726,"Ġpercentage":6727,"fen":6728,"Ġhoud":6729,"beloop":6730,"leb":6731,"Ġent":6732,"zw":6733,"inn":6734,"alapril":6735,"Ġcave":6736,"Ġiniti":6737,"ĠHC":6738,"ĠGE":6739,"gebieden":6740,"Ġok":6741,"Ġbeschreven":6742,"ĠLE":6743,"Ġmitralisklepinsufficientie":6744,"femor":6745,"rikt":6746,"ateriaal":6747,"diabetes":6748,"Ġverpleegkundig":6749,"ĠDerhalve":6750,"ithiasis":6751,"eline":6752,"ĠForse":6753,"stklep":6754,"che":6755,"Ġtechnicus":6756,"Ġlocatie":6757,"Ġnuc":6758,"Ġbehandelend":6759,"Ġongecompliceerde":6760,"vascularisatie":6761,"water":6762,"Memo":6763,"Ġha":6764,"itt":6765,"Ġkuiten":6766,"Ġseconden":6767,"ĠThuis":6768,"Ġartritis":6769,"agde":6770,"gemeld":6771,"pulmonaal":6772,"icum":6773,"oh":6774,"iform":6775,"Ġinferoseptaal":6776,"spect":6777,"Ġonduidelijk":6778,"chi":6779,"Ġontwik":6780,"positie":6781,"Ġzod":6782,"deels":6783,"PS":6784,"Ġram":6785,"lopend":6786,"atorvastatine":6787,"Ġpoly":6788,"spray":6789,"Ġtre":6790,"Ã¶":6791,"Ġdominantie":6792,"Ġsystolisch":6793,"ficatie":6794,"ift":6795,"grootte":6796,"ĠCAR":6797,"efacten":6798,"Ġrecidieven":6799,"Device":6800,"Sub":6801,"ĠMid":6802,"imus":6803,"Ġbewegen":6804,"ĠTrans":6805,"Ġafbouwen":6806,"Ġduizelingen":6807,"Ġvag":6808,"rochl":6809,"Ġgevallen":6810,"Ġ112":6811,"eed":6812,"ijm":6813,"atische":6814,"Ġgestopte":6815,"sted":6816,"Ġaanvallen":6817,"ĠLaatste":6818,"Ohm":6819,"Ġlaesies":6820,"Ġthv":6821,"Ġcla":6822,"Ġinsuff":6823,"Ġkeel":6824,"Ġanastomose":6825,"vious":6826,"sed":6827,"inium":6828,"angi":6829,"Ġintake":6830,"Ġverlagen":6831,"ails":6832,"septum":6833,"post":6834,"erbumine":6835,"ĠPulm":6836,"Ġaden":6837,"Trans":6838,"inopril":6839,"usc":6840,"ensdag":6841,"oorth":6842,"ĠPostoperatief":6843,"uist":6844,"ĠPersist":6845,"Ġcontract":6846,"Ġwerkt":6847,"Adju":6848,"Ġgevo":6849,"gGT":6850,"ĠParoxysmaal":6851,"verdunn":6852,"Ġbegon":6853,"selen":6854,"vedil":6855,"Ġverderop":6856,"Wij":6857,"istollingsbeleid":6858,"Carb":6859,"Ġbesluit":6860,"Ġ(-":6861,"soon":6862,"Ġelders":6863,"Ġratio":6864,"vedilol":6865,"Vrouwelijk":6866,"hypertrofie":6867,"Ġadditionele":6868,"OM":6869,"Ġ2004":6870,"TC":6871,"Ġextern":6872,"Anticoagulantia":6873,"PatiÃ«nte":6874,"Ġverdwenen":6875,"Ġplotse":6876,"istof":6877,"Ġprogressief":6878,"GS":6879,"Ġhinder":6880,"Ġgevolge":6881,"schijnselen":6882,"Name":6883,"Ġprofylact":6884,"Ġlokale":6885,"Ġvoorafgaand":6886,"naal":6887,"isinopril":6888,"Ġperfusiedefecten":6889,"Adjusted":6890,"ernstige":6891,"Ġ(%/":6892,"Ġmeld":6893,"itieel":6894,"ituatie":6895,"DES":6896,"formeerd":6897,"ole":6898,"Ġthans":6899,"otropie":6900,"ĠFU":6901,"ĠLABORATORIUM":6902,"adolinium":6903,"Stralings":6904,"Ġvoorwandinfarct":6905,"BIO":6906,"metoprolol":6907,"Tijdens":6908,"ectief":6909,"Ġgene":6910,"Ġijzer":6911,"ĠUw":6912,"ĠPerfusiedefect":6913,"Ġsimvastatine":6914,"ĠRest":6915,"armac":6916,"Ġvasculaire":6917,"Ġenig":6918,"kade":6919,"itralisklep":6920,"Ġgeobjectiv":6921,"Ġopwekbaar":6922,"Voelde":6923,"Ġhanden":6924,"proBNP":6925,"ease":6926,"figuratie":6927,"ĠRFR":6928,"Ġmaatregelen":6929,"ĠCD":6930,"aad":6931,"moeid":6932,"ogeen":6933,"ĠIschemie":6934,"Ġbekken":6935,"cy":6936,"raclip":6937,"Gebruikt":6938,"Ġruimte":6939,"Ġstijging":6940,"Val":6941,"Ġsubstraat":6942,"electase":6943,"Ġbiopt":6944,"oordeling":6945,"ĠHeldere":6946,"ĠHoe":6947,"ĠElektrofysi":6948,"ofag":6949,"Ġbemerkt":6950,"FU":6951,"TSH":6952,"Ġuitbre":6953,"nesium":6954,"Ġwegraking":6955,"lichtingsgesprek":6956,"Linker":6957,"ĠMon":6958,"Ġpast":6959,"CORBIO":6960,"Rv":6961,"Ġvlakke":6962,"ĠEB":6963,"ĠWandbeweg":6964,"Ġconclusie":6965,"Ġprin":6966,"ĠArter":6967,"screening":6968,"brengen":6969,"Pressure":6970,"vinden":6971,"Ġsucces":6972,"Ġgeneeskunde":6973,"meer":6974,"Ġbact":6975,"Antistollingsbeleid":6976,"ĠHCM":6977,"ĠCPAP":6978,"Ġadipositas":6979,"lasie":6980,"Ġmicrogram":6981,"bu":6982,"Drug":6983,"Ġpatienten":6984,"nacht":6985,"Ġmedicatieoverzicht":6986,"Ġentresto":6987,"Ġsymptomatisch":6988,"edisch":6989,"chym":6990,"Ġkaak":6991,"Ġverwijs":6992,"Ġplaques":6993,"Ġgeschatte":6994,"Ġdeviaties":6995,"Ġwens":6996,"hankelijke":6997,"Ġnot":6998,"Ġinv":6999,"ofol":7000,"acarcinoom":7001,"Ġschildklier":7002,"ĠPVCs":7003,"Nucleair":7004,"ĠAtherosclerose":7005,"Co":7006,"ĠHNP":7007,"Plan":7008,"Antistolling":7009,"ena":7010,"Ġgadolinium":7011,"plopen":7012,"Nooit":7013,"Follow":7014,"hoogde":7015,"ĠCTR":7016,"Start":7017,"ztb":7018,"olyse":7019,"ĠAbdomen":7020,"ĠMESA":7021,"Uitleg":7022,"Ġpoeder":7023,"roloog":7024,"undelt":7025,"ĠMRA":7026,"Ġwandelen":7027,"MCV":7028,"Lesion":7029,"ĠMw":7030,"Ã©Ã©n":7031,"Artikel":7032,"Ġimplant":7033,"scap":7034,"ĠAH":7035,"ĠLesion":7036,"uin":7037,"ORA":7038,"isme":7039,"opp":7040,"hydratie":7041,"Intoxicaties":7042,"Ġborderline":7043,"vr":7044,"blokker":7045,"undeltak":7046,"Ġoverwogen":7047,"vullen":7048,"Ġreflux":7049,"my":7050,"rochloorth":7051,"alkscore":7052,"PT":7053,"ĠInspanning":7054,"Alg":7055,"Ġfietstest":7056,"1996":7057,"ality":7058,"Ġvullings":7059,"Ġdisease":7060,"lij":7061,"Plat":7062,"isende":7063,"emmering":7064,"ick":7065,"Ġrespir":7066,"ĠCTC":7067,"Ġtrop":7068,"Conclusion":7069,"Ġbepaald":7070,"Ġgegener":7071,"Ġergo":7072,"Ġdelen":7073,"Ġbeschikbaar":7074,"Platte":7075,"PI":7076,"werk":7077,"ĠTelefonisch":7078,"ĠRWBS":7079,"Ġcorrectie":7080,"PlatteText":7081,"chicine":7082,"Vasculair":7083,"Ġwegrakingen":7084,"ĠGra":7085,"ienummer":7086,"Ġband":7087,"voorstel":7088,"Ġdegeneratieve":7089,"oedeem":7090,"Ġ%:":7091,"Ġfla":7092,"Orale":7093,"gankelijk":7094,"ness":7095,"rinken":7096,"Ġpresenteert":7097,"Ġbrad":7098,"ycardi":7099,"ĠTra":7100,"pv":7101,"Ġoptie":7102,"ĠNeg":7103,"Ġmyocarditis":7104,"Ġinitiatief":7105,"rochloorthiazide":7106,"igra":7107,"ĠMult":7108,"scande":7109,"bekende":7110,"Ġcatheter":7111,"Ġ%,":7112,"ĠCON":7113,"Ġfer":7114,"ĠPar":7115,"ĠNooit":7116,"Ġinspanningstest":7117,"Mob":7118,"1995":7119,"Impedantie":7120,"Ġhierna":7121,"Proxim":7122,"Ġwijzend":7123,"Ġkreat":7124,"melden":7125,"Ġbezigheden":7126,"Pols":7127,"Ġvoorkeur":7128,"ĠCo":7129,"aract":7130,"Ġbovenbuik":7131,"EM":7132,"Ġmain":7133,"kweek":7134,"usus":7135,"Ġheart":7136,"Ġclinique":7137,"ĠSJM":7138,"Ġclass":7139,"Ġ141":7140,"Ġnvt":7141,"ĠKl":7142,"ĠNI":7143,"Ġsupraventriculaire":7144,"Ġlumb":7145,"ĠAfdeling":7146,"oma":7147,"oedeisende":7148,"ĠFys":7149,"Ġlaboratoriumonderzoek":7150,"Relevante":7151,"iri":7152,"III":7153,"ĠBel":7154,"Aandachtspunten":7155,"Ġzelfstandig":7156,"ĠDan":7157,"Ġplek":7158,"Stralingsdosis":7159,"ĠLaesie":7160,"ĠLymf":7161,"onse":7162,"urese":7163,"Ġzorgen":7164,"derom":7165,"mei":7166,"ĠOrale":7167,"oude":7168,"Ġbelafspraak":7169,"ĠGeneeskundige":7170,"Ġpen":7171,"Ġtand":7172,"Ġvi":7173,"ĠUp":7174,"TR":7175,"Ġpancreas":7176,"reversib":7177,"Ġplast":7178,"Ġsintrom":7179,"ĠCRTD":7180,"BD":7181,"ĠVASC":7182,"Ġoverigens":7183,"Ġprincip":7184,"ĠAct":7185,"Ġdinsdag":7186,"Ġhoudt":7187,"Ġvoorheen":7188,"Ġonderkwab":7189,"angrijk":7190,"wangersch":7191,"oes":7192,"ĠRisicoprofiel":7193,"Ġgenomen":7194,"acrog":7195,"Ġneem":7196,"roeg":7197,"Ġuter":7198,"Ġbestaan":7199,"Ġafspraken":7200,"Inlichtingsgesprek":7201,"Ġmoeite":7202,"Ġuitgevoerd":7203,"chef":7204,"Hij":7205,"Ġanterolateraal":7206,"Ġdynam":7207,"scintigram":7208,"Ġprincipe":7209,"dood":7210,"Paracetamol":7211,"Ġcirrose":7212,"Ġrood":7213,"Ġlichaam":7214,"Ġgroe":7215,"ĠHartfalen":7216,"Ġins":7217,"Ġleverenzym":7218,"Ġstimulatie":7219,"aise":7220,"ood":7221,"Ġassist":7222,"Ġleeft":7223,"ĠnierinsufficiÃ«ntie":7224,"Ġnadere":7225,"imum":7226,"Ġspec":7227,"Perifeer":7228,"leeftijd":7229,"Ġnav":7230,"mon":7231,"Ġrookt":7232,"ragmin":7233,"hals":7234,"teb":7235,"occlude":7236,"Ġovergang":7237,"iance":7238,"ĠBilirubine":7239,"Ġspoortje":7240,"acrogol":7241,"Ġadvis":7242,"Ã«le":7243,"Ġhartritmestoornissen":7244,"ĠIntact":7245,"patient":7246,"Ġopgeroepen":7247,"antrum":7248,"snede":7249,"liggende":7250,"ecidi":7251,"spirine":7252,"superv":7253,"Ġpleurae":7254,"Ġsternum":7255,"Ġtrac":7256,"plerenon":7257,"ĠGering":7258,"CHO":7259,"Ġdisper":7260,"Ġpermanent":7261,"Ġlinkerhart":7262,"TV":7263,"lichting":7264,"appen":7265,"sters":7266,"Ġlongfunctie":7267,"ĠIVS":7268,"Ġapixaban":7269,"ĠCLS":7270,"Ġmonom":7271,"delen":7272,"Ġcholecystectomie":7273,"Ġsol":7274,"]\\":7275,"lucht":7276,"Ġoperateur":7277,"Ġstolling":7278,"Ġmeen":7279,"Ġdouchen":7280,"medic":7281,"igraine":7282,"ĠRisicofactoren":7283,"Ġverkalkingen":7284,"ĠAmiodaron":7285,"Ġactief":7286,"elijst":7287,"ĠHM":7288,"ĠAut":7289,"Ġjet":7290,"ĠMedication":7291,"ĠOm":7292,"Ġbestaande":7293,"otisch":7294,"ĠVolg":7295,"Ġpassag":7296,"odig":7297,"Cardiaal":7298,"Locatie":7299,"gebonden":7300,"Ġsuggest":7301,"Ġoa":7302,"ĠDatum":7303,"ĠXT":7304,"Ġstol":7305,"Ġossale":7306,"minie":7307,"Ã¯dose":7308,"ary":7309,"ivaroxaban":7310,"Ġechografisch":7311,"weefsel":7312,"spro":7313,"Inspanning":7314,"Ġsuperior":7315,"Ġprothese":7316,"ĠEHH":7317,"Ġaangevraagd":7318,"Ġgebe":7319,"risico":7320,"Rechts":7321,"Ġverandering":7322,"Totaal":7323,"Ġcompressie":7324,"ĠProxim":7325,"Ġprogram":7326,"ĠNSVT":7327,"Atorvastatine":7328,"ĠHierna":7329,"Ġreanimatie":7330,"Studie":7331,"duct":7332,"Ġ230":7333,"...":7334,"ĠTM":7335,"anisatie":7336,"sverlies":7337,"Ġvoorgeschreven":7338,"inte":7339,"ĠDegen":7340,"spron":7341,"CE":7342,"acc":7343,"Ġwaarden":7344,"Ġdispertablet":7345,"gevoel":7346,"cturen":7347,"Ġmultipele":7348,"Ġdetails":7349,"ournaal":7350,"cardiaal":7351,"ĠGeschatte":7352,"enseerd":7353,"Ġselokeen":7354,"ĠReliance":7355,"Punctie":7356,"ĠVanwege":7357,"Verpleegkundige":7358,"ĠRecent":7359,"Ġstructuur":7360,"ateral":7361,"ated":7362,"Ġbegeleiding":7363,"Beeld":7364,"Ġgeleidings":7365,"ĠRIP":7366,"Ġaanvrager":7367,"Ġfemor":7368,"ĠWaarschijnlijk":7369,"Ġmeenemen":7370,"HCK":7371,"Ġvoel":7372,"Ġcriteria":7373,"Hartteam":7374,"ĠRechter":7375,"Ġmail":7376,"Ġingepland":7377,"viatie":7378,"ĠExpectatief":7379,"icard":7380,"regels":7381,"Ġopnames":7382,"ĠExt":7383,"Ġbewustzijn":7384,"entrum":7385,"Ġ||":7386,"Ġinstabiele":7387,"Ġnauwelijks":7388,"Ġslapen":7389,"onaat":7390,"pri":7391,"huld":7392,"ĠIr":7393,"Ġdrinken":7394,"ĠPri":7395,"Ġgestuurd":7396,"ĠLongen":7397,"Ġgevraagd":7398,"heeft":7399,"Ġvoorspelde":7400,"Ġfem":7401,"ĠDaarbij":7402,"zine":7403,"Ntg":7404,"Ġherhaal":7405,"Buik":7406,"Ġbein":7407,"Ġjicht":7408,"oortedatum":7409,"ĠHulp":7410,"Ġacc":7411,"ellicht":7412,"Ġvaker":7413,"Ġscherp":7414,"UK":7415,"Ġsigm":7416,"ĠmL":7417,"Inter":7418,"Ġonwel":7419,"ĠEnige":7420,"ĠDI":7421,"Ġmedicament":7422,"Ġbegonnen":7423,"neumonie":7424,"Ġorthostase":7425,"iter":7426,"aug":7427,"Ġdoorsnede":7428,"Ġos":7429,"stemming":7430,"ster":7431,"Ġhartdood":7432,"Ġfunctioneel":7433,"bio":7434,"metingen":7435,"Ġingescand":7436,"Ġafgevallen":7437,"chirurgie":7438,"type":7439,"Ġ*":7440,"ĠKNO":7441,"Ġdaling":7442,"diagnost":7443,"PC":7444,"ĠBeiderzijds":7445,"Ġparoxys":7446,"Cardioloog":7447,"Ġmalen":7448,"riax":7449,"ĠAanmeldformulier":7450,"Ġ155":7451,"?).":7452,"Ġangst":7453,"ellow":7454,"Ġjuist":7455,"wn":7456,"Simvastatine":7457,"illende":7458,"Ġklacht":7459,"ĠRE":7460,"ysie":7461,"bewijs":7462,"verdikking":7463,"Ġaangeb":7464,"aking":7465,"GM":7466,"Ġbige":7467,"QTc":7468,"Ġsusp":7469,"ĠmitralisklepinsufficiÃ«ntie":7470,"Ġterugverwezen":7471,"Ġvoltage":7472,"lok":7473,"ĠLangwerkend":7474,"acer":7475,"arcering":7476,"vloeden":7477,"Ġveranderd":7478,"Ġhersteld":7479,"dus":7480,"richtlijn":7481,"laag":7482,"riaxon":7483,"Ġeetlust":7484,"ĠDecompensatio":7485,"Pra":7486,"Ġserienummer":7487,"Ġverhogen":7488,"Ġsustained":7489,"Ġrelatief":7490,"Ġstadium":7491,"uig":7492,"Ġmeegegeven":7493,"Ġ142":7494,"iferol":7495,"ĠTriglyceriden":7496,"antwoordelijke":7497,"Ġelevatie":7498,"Ġdiam":7499,"epis":7500,"Ġdrukkend":7501,"Ġvoorwaarden":7502,"Ġ%.":7503,"Ġgerelateerd":7504,"ĠFysicon":7505,"Ġ2000":7506,"ĠSpO":7507,"Ġmobilis":7508,"Ġaand":7509,"vasculaire":7510,"ĠaortaklepinsufficiÃ«ntie":7511,"ho":7512,"Ġvervolgens":7513,"Ġgecalcificeerde":7514,"Ġovermatige":7515,"Ġsteun":7516,"Rookt":7517,"ularis":7518,"MOD":7519,"Verantwoordelijke":7520,"remmer":7521,"knoop":7522,"Ġinstantie":7523,"gif":7524,"Ġaneurysmat":7525,"Ġervaart":7526,"ĊĊĊĊĊĊ":7527,"Ġonregelmatig":7528,"Ġgeobjectiveerd":7529,"Ġmalaise":7530,"chronie":7531,"ĠSAM":7532,"nem":7533,"itiv":7534,"Ġrestenose":7535,"Meervatslijden":7536,"Ġrecon":7537,"Ġaanw":7538,"Ġnodus":7539,"ĠVolgende":7540,"Ġgeocclude":7541,"Rem":7542,"Ġhypertrofisch":7543,"Ġbeperkingen":7544,"Ġafwachten":7545,"itroglycerine":7546,"ĠAZ":7547,"ongembolie":7548,"CS":7549,"Ġwant":7550,"Ġmond":7551,"Verwijzend":7552,"ĠDef":7553,"waardes":7554,"orig":7555,"Ġwoensdag":7556,"mummer":7557,"Ġleg":7558,"pleegkunde":7559,"Telefoonmummer":7560,"tijdig":7561,"instelling":7562,"Ġhemodynamisch":7563,"zakelijk":7564,"Druk":7565,"Anest":7566,"Ġaritmie":7567,"ecalciferol":7568,"ĠBÃ¨tablokker":7569,"dnisolon":7570,"Ġtevreden":7571,"Ġvir":7572,"Ġopstaan":7573,"rolyten":7574,"ĠSy":7575,"het":7576,"ĠBloed":7577,"Ġleeftijds":7578,"LVH":7579,"portaal":7580,"Ġcortonen":7581,"Ġatorvastatine":7582,"Ġlymfeklieren":7583,"inking":7584,"Ġhypothyre":7585,"Patiente":7586,"Ġrisc":7587,"Ġorigine":7588,"Ġgla":7589,"Ġbezwaar":7590,"Ġverna":7591,"Ġbumetanide":7592,"Ġprikken":7593,"Ġcreat":7594,"ĠNOAC":7595,"NHR":7596,"femoralis":7597,"ĠTen":7598,"ĠHalsvenen":7599,"ĠBSN":7600,"asme":7601,"Ġile":7602,"Ġlijken":7603,"Ġexp":7604,"Ġgeoper":7605,"diast":7606,"Ġq":7607,"Ġtermin":7608,"ĠFors":7609,"Ġsarcoidose":7610,"Ġdevic":7611,"Ġopening":7612,"eth":7613,"ĠHeden":7614,"ĠChol":7615,"Zwangersch":7616,"opath":7617,"PW":7618,"kweken":7619,"rogra":7620,"old":7621,"lage":7622,"Ġontwateren":7623,"aritmie":7624,"figuur":7625,"activiteit":7626,"Ġtweemaal":7627,"Ġbeoordeeld":7628,"Ġregelgeving":7629,"Ġautomatisch":7630,"ads":7631,"ĠDC":7632,"acerb":7633,"erosol":7634,"TS":7635,"insufficintie":7636,"Ġbiventriculaire":7637,"IR":7638,"Ġperi":7639,"pping":7640,"zekerings":7641,"lateraal":7642,"1994":7643,"Klachten":7644,"uncus":7645,"ain":7646,"ĠINRs":7647,"ĠAOI":7648,"Ġbre":7649,"male":7650,"VL":7651,"Ġpartner":7652,"eluting":7653,"Ġox":7654,"centrum":7655,"erius":7656,"Ġdieet":7657,"Ġarmen":7658,"ĠmGy":7659,"Ġgeleidingsstoornissen":7660,"Ġnierfunctiestoornissen":7661,"Ġbreed":7662,"Ġamp":7663,"ĠNieuw":7664,"Ġgrie":7665,"Ġkauw":7666,"Bloeding":7667,"mbol":7668,"Ġrij":7669,"Ġslijm":7670,"Ġbeinvloeden":7671,"Ġnycturie":7672,"Ġleverenzymafwijkingen":7673,"Gedilateerde":7674,"Ġaerosol":7675,"kens":7676,"Ġleverziekte":7677,"Ġ--":7678,"MCH":7679,"aged":7680,"Ġkijken":7681,"Ġreversibele":7682,"Ġleft":7683,"Ġhiermee":7684,"Ġindex":7685,"ĠFamilie":7686,"offie":7687,"toe":7688,"Voelt":7689,"Vol":7690,"Ġkenmerken":7691,"ĠBP":7692,"doving":7693,"Ġtpv":7694,"Ġdrempel":7695,"Ġgalblaas":7696,"xtirpatie":7697,"syn":7698,"ĠRIMA":7699,"Desc":7700,"Ġvergeleken":7701,"He":7702,"Ġchron":7703,"Ġmgl":7704,"stolie":7705,"Ġexcentrische":7706,"ĠVER":7707,"Ġbenigne":7708,"minderde":7709,"celcarcinoom":7710,"prob":7711,"neur":7712,"Ġgang":7713,"Ġfunctioneren":7714,"Calcific":7715,"ĠASA":7716,"quentie":7717,"oral":7718,"ureus":7719,"Bent":7720,"Ġvanochtend":7721,"Ġjaarlijk":7722,"Ġgevolgd":7723,"stri":7724,"ptuur":7725,"Ġbio":7726,"lash":7727,"ingsbeeld":7728,"Ġriscofactoren":7729,"Overmatig":7730,"ĠGlobaal":7731,"XXXX":7732,"durig":7733,"Ġonderstaande":7734,"ĠProgressie":7735,"Ġspond":7736,"Ġgekomen":7737,"CLU":7738,"Ġpr":7739,"Atria":7740,"Ġinflow":7741,"Ġgeopereerd":7742,"iose":7743,"ĠTCH":7744,"Ġbeve":7745,"chol":7746,"Ġdocument":7747,"ĠAnamnestisch":7748,"ibrillatie":7749,"Ġmedicatielijst":7750,"oping":7751,"Ġprofylaxe":7752,"zetim":7753,"ephal":7754,"Ġgevoeld":7755,"otte":7756,"ites":7757,"parine":7758,"vats":7759,"inkt":7760,"ĠElect":7761,"MVL":7762,"ĠFietsergometrie":7763,"Ġleeftijdsgroep":7764,"ĠTH":7765,"stress":7766,"years":7767,"Ġvolledige":7768,"Labiele":7769,"Ġwit":7770,"Ġwarme":7771,"inueerd":7772,"uurt":7773,"Ġresponse":7774,"Ġverkl":7775,"ĠGLS":7776,"eftriaxon":7777,"Ġerger":7778,"Ġuurs":7779,"Ġseptale":7780,"veneuze":7781,"Ġminuut":7782,"ernia":7783,"indicaties":7784,"MART":7785,"Control":7786,"ENOSINE":7787,"Ġinfiltratie":7788,"Ġupgrade":7789,"Sens":7790,"ĠEl":7791,"Ġverschillende":7792,"Gelijk":7793,"ĠÃ©Ã©n":7794,"Ġeenmaal":7795,"Ġsamengesteld":7796,"ĠCaps":7797,"Ġinterm":7798,"ower":7799,"ĠDist":7800,"Ġticagrelor":7801,"Ġcan":7802,"Zwangerschaps":7803,"links":7804,"specifieke":7805,"ĠNID":7806,"LL":7807,"ĠRichtlijnen":7808,"Ġsnell":7809,"Ġgecontinueerd":7810,"blij":7811,"elaar":7812,"Ġinvullen":7813,"Gelijktijdig":7814,"erop":7815,"Ġrout":7816,"Ġfactor":7817,"Ġrelevant":7818,"plaat":7819,"Ġherhaling":7820,"icontrole":7821,"Secretariaat":7822,"blanco":7823,"inaal":7824,"Ġ134":7825,"ilatie":7826,"Ġcongen":7827,"vasculair":7828,"Ġgericht":7829,"Ġschoon":7830,"ĠBSA":7831,"Ġobstructief":7832,"Ġartsen":7833,"arterie":7834,"Ġmitraal":7835,"ĠOrganisatie":7836,"Ana":7837,"Ġmogelijkheid":7838,"Ġbelaste":7839,"ĠRoken":7840,"Ġstapeling":7841,"Geboortedatum":7842,"Tijdstip":7843,"benen":7844,"Belafspraak":7845,"Ġverstuurd":7846,"Scan":7847,"ĠKleine":7848,"Amiodaron":7849,"ĠArts":7850,"istel":7851,"Ġmbt":7852,"septaal":7853,"Ġretro":7854,"ĠAanvrager":7855,"CLUSIE":7856,"Ġalert":7857,"Ġleef":7858,"ĠCapsure":7859,"Ġ102":7860,"Ġlinkerb":7861,"Ġidee":7862,"Bloedchemie":7863,"Ġverwijde":7864,"Ġlinkerhartoor":7865,"ĠCalcium":7866,"ĠPS":7867,"Ġinfarcering":7868,"ĠDF":7869,"status":7870,"lecaÃ¯n":7871,"ĠStabiel":7872,"Ġkleppen":7873,"iepen":7874,"Ġstentplaatsing":7875,"zes":7876,"diastin":7877,"Ġsuperius":7878,"Ġserie":7879,"Ġtbv":7880,"Ġapp":7881,"ĠAIOS":7882,"Ġlo":7883,"Ġgaf":7884,"ircumflex":7885,"sub":7886,"uidant":7887,"ĠStent":7888,"ĠBericht":7889,"ription":7890,"Ġabces":7891,"odelijst":7892,"Ġtijde":7893,"lecaÃ¯nide":7894,"dar":7895,"ĊĠĊ":7896,"blad":7897,"izame":7898,"CHD":7899,"Ġactiviteiten":7900,"Ġhev":7901,"Ġgezet":7902,"Ġzat":7903,"EFO":7904,"Ġplas":7905,"ielen":7906,"duc":7907,"Ġ2003":7908,"ĠSI":7909,"Verwijzing":7910,"Ġsporadisch":7911,"Ġfiets":7912,"gaat":7913,"Ġgerustgesteld":7914,"Carbasalaatcalcium":7915,"kers":7916,"spital":7917,"Ġverloop":7918,"itter":7919,"Ġallerg":7920,"neuropathie":7921,"Ġtechn":7922,"utum":7923,"nie":7924,"regelmatige":7925,"Leef":7926,"Graag":7927,"Ġconfiguratie":7928,"egistreerd":7929,"Amlodipine":7930,"opor":7931,"PG":7932,"Verpleegkunde":7933,"Ġvpk":7934,"Ġontsteking":7935,"rode":7936,"Ġdaarvoor":7937,"klist":7938,"Ġnoodzakelijk":7939,"ĠTambocor":7940,"Hemat":7941,"Ġomgezet":7942,"Ġzachte":7943,"Ġmodi":7944,"ĠVesiculair":7945,"Ġgelaten":7946,"Ġdrukken":7947,"ĠLO":7948,"medicamenteus":7949,"Ġdikke":7950,"ilet":7951,"Ġkracht":7952,"ocrin":7953,"inspanning":7954,"Ġwederom":7955,"ĠChronische":7956,"Ġgehoor":7957,"dossier":7958,"ĠNovus":7959,"agement":7960,"Ġthorac":7961,"Ġdyspnoeisch":7962,"Tel":7963,"oralis":7964,"xeerd":7965,"etting":7966,"Ġbeta":7967,"oÃ¯die":7968,"verwijzing":7969,"Ġamylo":7970,"Ġingen":7971,"Ġgesp":7972,"Ġbioprothese":7973,"adv":7974,"Ġacra":7975,"ephalica":7976,"ĠHoofd":7977,"etal":7978,"ĠFurosemide":7979,"Ġ165":7980,"luoroscop":7981,"ĠClopidogrel":7982,"Ġback":7983,"Ġ{\\":7984,"Ġvallen":7985,"omein":7986,"Ġregist":7987,"Ġren":7988,"zijde":7989,"Ġbetre":7990,"Ġcommun":7991,"ĠAN":7992,"plo":7993,"ĠVerwijzing":7994,"DC":7995,"Ġug":7996,"ensiteit":7997,"ignificante":7998,"ĠMan":7999,"Ġ220":8000,"....":8001,"EA":8002,"Ġvoorlopig":8003,"Ġthoracaal":8004,"Ġpropofol":8005,"Ġverlengd":8006,"ĠFT":8007,"Ġaanval":8008,"Ġaccept":8009,"Ġmonomorfe":8010,"ĠGeregistreerd":8011,"Ġaangetast":8012,"Ġhinderlijke":8013,"Ġport":8014,"Ġmetastasen":8015,"luoroscopy":8016,"Ġgestoorde":8017,"ĠEosin":8018,"izaam":8019,"ĊĠĠĠ":8020,"Catheter":8021,"ition":8022,"Onge":8023,"TH":8024,"hyre":8025,"ĠRes":8026,"Ġinspann":8027,"Ġsecond":8028,"ystolische":8029,"ervisie":8030,"cent":8031,"amide":8032,"Ġdiverticul":8033,"Ġpan":8034,"Ġbereiken":8035,"Ġovergewicht":8036,"Ġmictie":8037,"Ġrand":8038,"Ġelektrofysiologie":8039,"Ġhi":8040,"Ġweke":8041,"ĠFiet":8042,"diging":8043,"plat":8044,"Ġvd":8045,"ĠNEE":8046,"mmetrisch":8047,"wijzingen":8048,"Ġpiek":8049,"Ġgeble":8050,"slocatie":8051,"ĠLymfocyten":8052,"ave":8053,"Ġbraken":8054,"rent":8055,"omenteel":8056,"Ġobservatie":8057,"veneens":8058,"RES":8059,"Ġdubie":8060,"itivity":8061,"ĠLever":8062,"Ġpatch":8063,"oegd":8064,"episodelijst":8065,"Ġdobutamine":8066,"acerbatie":8067,"Ġopties":8068,"Ġcat":8069,"Ġlukt":8070,"Ġterecht":8071,"105":8072,"Ġroutine":8073,"Ġdoorgankelijk":8074,"Ġinsuline":8075,"systeem":8076,"DG":8077,"Ġingenomen":8078,"Ġ103":8079,"bew":8080,"afhankelijke":8081,"Ġformulier":8082,"afhankelijk":8083,"Ġkuur":8084,"Ġduring":8085,"Ġvroeg":8086,"Ġfunctionele":8087,"Ġuitvo":8088,"ĠONT":8089,"zt":8090,"Ġnoduli":8091,"Ġlinkerkamerfunctie":8092,"Ġaanpassen":8093,"ĠVent":8094,"mall":8095,"Specialist":8096,"wijf":8097,"entan":8098,"Ġtransp":8099,"Maximum":8100,"Ġcardiologiedossier":8101,"Ġfam":8102,"Kalkscore":8103,"dc":8104,"liggen":8105,"Ġureum":8106,"traging":8107,"Anti":8108,"Ġnitro":8109,"Ġfase":8110,"AllergieÃ«n":8111,"ĠSure":8112,"formatie":8113,"iat":8114,"abetische":8115,"ĠGeri":8116,"Min":8117,"Daar":8118,"Ġdicht":8119,"Ġtraplopen":8120,"ĠOvermatige":8121,"idine":8122,"ipol":8123,"Ġvoortgeleiding":8124,"plex":8125,"]),":8126,"oxin":8127,"gevoegd":8128,"ĠEerder":8129,"reekuur":8130,"ĠVmax":8131,"Ġzag":8132,"sproble":8133,"Ġtypisch":8134,"spiratie":8135,"ĠMonocyten":8136,"Ġgister":8137,"clu":8138,"urin":8139,"Tevens":8140,"Prograft":8141,"Ġkwam":8142,"Ġkram":8143,"Ġverdoving":8144,"Ġverwijzers":8145,"arenchym":8146,"aliseren":8147,"Bi":8148,"Sheath":8149,"ĠARV":8150,"sustained":8151,"Ġconsolidatie":8152,"lator":8153,"car":8154,"Ġejectie":8155,"Ġaanleiding":8156,"Ġmammacarcinoom":8157,"Ġhol":8158,"Spreekuur":8159,"Cholesterol":8160,"ĠElektrofysiologie":8161,"Ġverwijzersnummer":8162,"ĠOnt":8163,"Ġextrasystolie":8164,"Ġfe":8165,"ĠEchografisch":8166,"eus":8167,"Ġhartafwijking":8168,"alsartan":8169,"ortaklep":8170,"Ġ175":8171,"Ġonbekende":8172,"vankelijk":8173,"Puls":8174,"valsbe":8175,"mede":8176,"ĠBur":8177,"Ġtruncus":8178,"Ġtambocor":8179,"Ġdiffuse":8180,"juni":8181,"Ġstof":8182,"uizeligheid":8183,"ĠMDO":8184,"Ġoptim":8185,"darm":8186,"Ġinstellingen":8187,"agnesium":8188,"uleerde":8189,"ĠAfwijk":8190,"Ġverwacht":8191,"zins":8192,"Ġpak":8193,"Eerdere":8194,"odule":8195,"varoxaban":8196,"Ġzware":8197,"Aangemeld":8198,"Ġtachycardi":8199,"Ġgl":8200,"plaatst":8201,"Ġafgrensbare":8202,"dering":8203,"Ġprofylactische":8204,"Ġgegenereerd":8205,"Ġmiddag":8206,"Trombo":8207,"ĠLaboratoriumuitslagen":8208,"Ġspecieel":8209,"Ġchirurgische":8210,"umatische":8211,"ĠDevice":8212,"tachycardie":8213,"Ġdes":8214,"ĠOverig":8215,"ĠgradiÃ«nt":8216,"Ġtoege":8217,"rat":8218,"Ġrep":8219,"overig":8220,"foto":8221,"Ġdenkt":8222,"aritmica":8223,"ovid":8224,"IU":8225,"Ġaard":8226,"ĠĊĊĊĊ":8227,"Ġrem":8228,"ĠGebruikt":8229,"Ġoverlijden":8230,"Ġhogere":8231,"ipiden":8232,"Ġbelastbaarheid":8233,"Zijde":8234,"Wond":8235,"Ġelektrofysiologisch":8236,"Ġplaatsvinden":8237,"Ġiedere":8238,"Ġfysie":8239,"Ġ5000":8240,"Left":8241,"Ġ133":8242,"ĠWas":8243,"Ġdrank":8244,"Ġneuro":8245,"Wilt":8246,"Ġpo":8247,"trans":8248,"ĠtachycardieÃ«n":8249,"rang":8250,"ecidiverende":8251,"ailure":8252,"Ġinjvlst":8253,"Ġdrainage":8254,"ĠMamm":8255,"Ġfit":8256,"Ġmateriaal":8257,"syndroom":8258,"ĠOverleg":8259,"Ġescap":8260,"ĠVerhoogde":8261,"Ġafwezigheid":8262,"Ġpolibezoek":8263,"ĠLAA":8264,"Ġenergie":8265,"Ġoorspron":8266,"Ġinterst":8267,"ruppels":8268,"fiel":8269,"Ġvond":8270,"Ġtoon":8271,"Ġtelefoonnummer":8272,"Ġnarc":8273,"ograf":8274,"gevoerde":8275,"agina":8276,"Ġ106":8277,"ĠEBU":8278,"deviaties":8279,"elingen":8280,"Staged":8281,"Ġcorfiguur":8282,"jection":8283,"Ġdood":8284,"ĠBep":8285,"Ġmyoview":8286,"Ha":8287,"Ġcost":8288,"osine":8289,"tendeels":8290,"parenchym":8291,"osorbide":8292,"Ġhervatten":8293,"uGym":8294,"Ġtoenemende":8295,"VO":8296,"Ġsymptomen":8297,"Ġvoelde":8298,"Ġoverweeg":8299,"iche":8300,"NE":8301,"103":8302,"ĠEDI":8303,"ward":8304,"Ġmarg":8305,"Ġingesteld":8306,"ĠNeut":8307,"itamine":8308,"Ġamplitude":8309,"Ġflu":8310,"Ġzon":8311,"ĠSG":8312,"umb":8313,"Ġinspannen":8314,"essel":8315,"Ang":8316,"Ġ188":8317,"Ġ2001":8318,"ĠPle":8319,"ixed":8320,"Ġabdominalis":8321,"Ġnp":8322,"Ġerbij":8323,"Ġcontractiliteit":8324,"eropost":8325,"ĠLichamelijk":8326,"ĠPAP":8327,"Hartslag":8328,"Ġechtgenoot":8329,"Ġepicardiale":8330,"ĠArteriÃ«le":8331,"Ġscintigram":8332,"LI":8333,"Ġinfero":8334,"ĠAZN":8335,"durige":8336,"Ġuitle":8337,"Ġdiagnostisch":8338,"AB":8339,"Ox":8340,"Ġ(+)":8341,"Ġhoor":8342,"Ġ800":8343,"Ġbev":8344,"Stud":8345,"Ġmediale":8346,"Ġpulmonalisklep":8347,"product":8348,"Ġdiastolisch":8349,"fasc":8350,"Ġjonge":8351,"Ġaanleg":8352,"Ġingevuld":8353,"radine":8354,"Ġmedicijn":8355,"ĠKlein":8356,"Ġslanke":8357,"Ġ108":8358,"ĠcLVH":8359,"Ġimpon":8360,"Ġmedicamenteuze":8361,"Ġsinusbradycardie":8362,"Dec":8363,"ĠCHADSVASC":8364,"Ġoverdag":8365,"vul":8366,"Recent":8367,".[":8368,"Ġvitamine":8369,"Ġcine":8370,"corrige":8371,"biopt":8372,"spiegel":8373,"egalie":8374,"otrope":8375,"cement":8376,"Ġverschijnselen":8377,"Ġdem":8378,"Ġprote":8379,"Ġvoorkomen":8380,"Ġinnemen":8381,"ĠPat":8382,"ozen":8383,"PatiÃ«ntnummer":8384,"Ġ-),":8385,"FA":8386,"aalde":8387,"Ġregio":8388,"ĠTc":8389,"abil":8390,"Ġinterna":8391,"Toegangslocatie":8392,"Ġintolerantie":8393,"ĠLoopt":8394,"Ġlangdurig":8395,"orbiditeit":8396,"Ġvle":8397,"juli":8398,"Ġcognitieve":8399,"FE":8400,"conform":8401,"Ġkra":8402,"Ġverslechter":8403,"Ġlact":8404,"ĠDiast":8405,"Ġonwaarschijnlijk":8406,"Ġlangere":8407,"diastolische":8408,"rection":8409,"Ġonderliggende":8410,"Ġmillimeter":8411,"az":8412,"abradine":8413,"Ġkil":8414,"osuvastatine":8415,"Ġgenetisch":8416,"Ġklier":8417,"laesies":8418,"ZO":8419,"Bericht":8420,"BK":8421,"Ġnefroloog":8422,"Ġhoger":8423,"Ġ132":8424,"ĠVA":8425,"resectie":8426,"algie":8427,"Ġpremat":8428,"Ġgewoon":8429,"Ġdak":8430,"Ġkeren":8431,"ĠHad":8432,"ovag":8433,"Ġatelectase":8434,"Ġgeluxeerd":8435,"Ġcerv":8436,"Ġechoven":8437,"ĠDE":8438,"Ġaberr":8439,"Ġhist":8440,"Ġcell":8441,"igt":8442,"Besproken":8443,"ĠToen":8444,"BSE":8445,"Ġtip":8446,"Ġovergenomen":8447,"ĠIg":8448,"sinusritme":8449,"Ġbetrokkenheid":8450,"Closure":8451,"Ġsuspect":8452,"HO":8453,"Ġbehoe":8454,"Ġontst":8455,"Ġbloedbeeld":8456,"Ġ2002":8457,"Ġcardiologische":8458,"Ġnek":8459,"EK":8460,"ci":8461,"Ġwrs":8462,"Ġmitraalklep":8463,"tromb":8464,"thuis":8465,"Ġretrogra":8466,"Ġartsenbezoek":8467,"Ġnucleair":8468,"Ġbovenste":8469,"ring":8470,"Ġdyspno":8471,"enter":8472,"Ġontstaat":8473,"Ġinferopost":8474,"Ġepisoden":8475,"Ġdroog":8476,"Ġtrombosedienst":8477,"inopathie":8478,"uff":8479,"Ġrh":8480,"teparine":8481,"Ġdezelfde":8482,"ĠVrij":8483,"ktijk":8484,"Tacro":8485,"ĠKort":8486,"ella":8487,"Ġabsol":8488,"ĠIntermedi":8489,"etentie":8490,"Bekende":8491,"Ġadviezen":8492,"daat":8493,"RF":8494,"Ġinjection":8495,"Sport":8496,"Ġmat":8497,"pulm":8498,"red":8499,"ventilatie":8500,"1993":8501,"Complic":8502,"Ġbeginn":8503,"ardiaal":8504,"Morgen":8505,"Description":8506,"asieve":8507,"Ġinternat":8508,"behandelaar":8509,"laden":8510,"Ġstolsel":8511,"Ġaansluitend":8512,"Controlateral":8513,"Ġwandbewegingen":8514,"ĠUWI":8515,"IEF":8516,"ĠADENOSINE":8517,"Ġvanavond":8518,"stipatie":8519,"Ġplavix":8520,"Ġsuppletie":8521,"ocker":8522,"Previous":8523,"letsel":8524,"ative":8525,"Ġtrauma":8526,"Ġouder":8527,"derland":8528,"oporose":8529,"lamm":8530,"Uitgevoerde":8531,"ematologie":8532,"Ġdaarnaast":8533,"Ġlocale":8534,"ypercholesterolaemie":8535,"Ġpunten":8536,"eenh":8537,"ĠNon":8538,"tot":8539,"Ġfunctioneert":8540,"Ġvoorbereiden":8541,"ĠMeest":8542,"Ġfibrose":8543,"Sensitivity":8544,"Ġemf":8545,"sor":8546,"Ġgeconst":8547,"gebeld":8548,"illair":8549,"afel":8550,"ĠHART":8551,"yseem":8552,"uravocht":8553,"persoon":8554,"ĠErnstig":8555,"wor":8556,"Ġbigeminie":8557,"ococ":8558,"tie":8559,"BBB":8560,"Ġstroomgebied":8561,"Ġdiep":8562,"102":8563,"verend":8564,"Ġberust":8565,"oge":8566,"vm":8567,"usen":8568,"istofscreening":8569,"Ġoutput":8570,"Ġwkn":8571,"Ġgebleven":8572,"Ġinterval":8573,"Ġspierpijn":8574,"Ġkoude":8575,"ĠWordt":8576,"Aorta":8577,"Ġaangezien":8578,"Ġuren":8579,"Ġpulm":8580,"ĠATPdc":8581,"mnd":8582,"ĠVia":8583,"Ġwerken":8584,"Punctieplaats":8585,"ĠAlleen":8586,"remm":8587,"Ġonregelmatige":8588,"Fluoroscopy":8589,"ĠNIDM":8590,"Ġ%;":8591,"ĠRVP":8592,"Sinus":8593,"ekenen":8594,"Ġverdikte":8595,"roer":8596,"genees":8597,"Divisie":8598,"Ġretard":8599,"Ġga":8600,"Ġopvragen":8601,"Ġaandachts":8602,"Journaal":8603,"ĠEGM":8604,"Ġoplopen":8605,"Ġaortaboog":8606,"abele":8607,"ĠMET":8608,"udic":8609,"Ġaa":8610,"idere":8611,"emi":8612,"elend":8613,"edeem":8614,"Ġascites":8615,"functies":8616,"seud":8617,"artefacten":8618,"Ġvier":8619,"Ġinfiltratieve":8620,"Ġntb":8621,"Ġsneller":8622,"aorta":8623,"angrijke":8624,"Ġrivaroxaban":8625,"abloeding":8626,"Ġrespiratoire":8627,"thm":8628,"omegalie":8629,"ĠOngewijzigde":8630,"zi":8631,"Ġsoc":8632,"ĠSlechte":8633,"rek":8634,"Ġplatliggen":8635,"jor":8636,"Ġvanmiddag":8637,"Ġlie":8638,"Ġsaturatie":8639,"probeerd":8640,"Leukocyten":8641,"ĠPulmonaal":8642,"ĠVader":8643,"lijft":8644,"Ġopp":8645,"Ġzakt":8646,"oppl":8647,"Ġextremiteiten":8648,"Ġmoeizaam":8649,"Ġpch":8650,"Ġdienstdoende":8651,"ymp":8652,"Ġlumen":8653,"ophag":8654,"ĠFer":8655,"ĠBMI":8656,"Ġ+/-":8657,"Ġtransm":8658,"vd":8659,"ĠDiffuus":8660,"zinking":8661,"MM":8662,"Ġtrappen":8663,"kloppingen":8664,"ĠKlaring":8665,"veld":8666,"Ġuitste":8667,"Ġparavalvulaire":8668,"Ġhalsvenen":8669,"ĠTwee":8670,"ĠEerste":8671,"ĠsarcoÃ¯dose":8672,"Ġonver":8673,"Vervolg":8674,"kkig":8675,"direction":8676,"Ġherhaald":8677,"ISCH":8678,"sproef":8679,"ĠStress":8680,"reen":8681,"Ġsep":8682,"echter":8683,"ices":8684,"geruisen":8685,":.":8686,"Ġondersteun":8687,"opten":8688,"ulitis":8689,"Ġstam":8690,"Ġopget":8691,"Ġopdracht":8692,"ĠDVT":8693,"ĠVerapamil":8694,"Ġabdominale":8695,"Ġverkalkt":8696,"Ġimpedantie":8697,"**":8698,"ĠEZ":8699,"vormige":8700,"undeltakblok":8701,"inetisch":8702,"alleen":8703,"Ciclo":8704,"Ġlosartan":8705,"Ġbewegings":8706,"eprazol":8707,"Ġdysf":8708,"Ġbidirection":8709,"ĠThuismedicatie":8710,"Ġversn":8711,"Ġ144":8712,"Ġvoorgaande":8713,"Ġpauzes":8714,"Ġcoloscopie":8715,"Ġ256":8716,"ronik":8717,"Ġ+/":8718,"Ġaandachtsgebieden":8719,"Ġpdr":8720,"Mode":8721,"imm":8722,"pra":8723,"Ġinc":8724,"Ġfun":8725,"stijl":8726,"spoed":8727,"Ġlymfeklier":8728,"elevatie":8729,"ĠRv":8730,"Ġicm":8731,"asternaal":8732,"Ġzone":8733,"itatie":8734,"dys":8735,"ether":8736,"ĠMGA":8737,"Ġbeweging":8738,"RAZ":8739,"Ġprofiel":8740,"chtingen":8741,"Ġirregulair":8742,"APT":8743,"Ġgebracht":8744,"Ġverdikking":8745,"ĠRadiologie":8746,"Ġanterieure":8747,"itone":8748,"order":8749,"Ġoesofag":8750,"mak":8751,"180":8752,"Ġpectoralis":8753,"ams":8754,"Ġfenprocoumon":8755,"Ġafgerond":8756,"Ġ01":8757,"entanyl":8758,"Ġstructuren":8759,"Ġcoarct":8760,"AVR":8761,"Ġpap":8762,"ĠFDG":8763,"sinds":8764,"Uw":8765,"iotronik":8766,"Ġgroei":8767,"Ġbegrij":8768,"Ġdoublet":8769,"voorbeeld":8770,"Ġhardlopen":8771,"rthop":8772,"QRS":8773,"Ġervaren":8774,"ĠHuis":8775,"Ġgeoccludeerd":8776,"Ġhelaas":8777,"Stop":8778,"ĠMeerdere":8779,"Ġdunne":8780,"metastase":8781,"ĠDag":8782,"Komt":8783,"Ġnab":8784,"oster":8785,"imulatiedrempel":8786,"Ġoverleggen":8787,"Ġjl":8788,"Ġvochtbeperking":8789,"ĠACI":8790,"Ġmapping":8791,"Ġmobiliseren":8792,"sequentie":8793,"Ġfailure":8794,"Vitale":8795,"mocard":8796,"Informed":8797,"ĠBIRADS":8798,"Ook":8799,"TM":8800,"Ġanom":8801,"Ġsputum":8802,"druppels":8803,"omvang":8804,"ĠHiervoor":8805,"Retour":8806,"stijds":8807,"Ġhersenen":8808,"SEN":8809,"Ġmevrouw":8810,"ĠLoh":8811,"Ġanatomy":8812,"Ġinstent":8813,"ostaal":8814,"dilateerd":8815,"adtijd":8816,"snel":8817,"ompensatie":8818,"laatste":8819,"ĠVisite":8820,"oscopische":8821,"olium":8822,"Ġgekozen":8823,"ĠERI":8824,"ĠARVC":8825,"aalt":8826,"Medic":8827,"Ġzorgproduct":8828,"ilep":8829,"hou":8830,"ĠToename":8831,"rium":8832,"Ġramus":8833,"esl":8834,"Andere":8835,"Ġtrache":8836,"uvol":8837,"Ġmeter":8838,"ĠZH":8839,"osen":8840,"Ġheldere":8841,"omm":8842,"pulmonale":8843,"Ġkwaliteit":8844,"ilepsie":8845,"Ġving":8846,"houdendheid":8847,"li":8848,"son":8849,"ritine":8850,"ular":8851,"stoename":8852,"Ġcomplicatie":8853,"Collaterals":8854,"Ġvullingsdrukken":8855,"Aberrant":8856,"800":8857,"ĠMoe":8858,"Reanimatie":8859,"oont":8860,"ochter":8861,"1990":8862,"Ġgesteld":8863,"minente":8864,"elfase":8865,"VG":8866,"schema":8867,"oide":8868,"embolie":8869,"att":8870,"ĠTromb":8871,"ĠIH":8872,"Ġaangekomen":8873,"bectomie":8874,"ĠControles":8875,"achtig":8876,"Ġ4076":8877,"Ġclassificatie":8878,"Nov":8879,"Hierbij":8880,"LDL":8881,"gn":8882,"oliumzuur":8883,"Ġingezet":8884,"Ġtoenemend":8885,"Ġmod":8886,"inatie":8887,"Ġflin":8888,"rax":8889,"ollen":8890,"yndroom":8891,"IDS":8892,"neiging":8893,"Ġbetrouwbare":8894,"ĠDilat":8895,"ae":8896,"CF":8897,"Ġaanbrengen":8898,"omeprazol":8899,"corbio":8900,"Ġlux":8901,"yspneu":8902,"Ġperforatie":8903,"Ġbovenkwab":8904,"Ġdrukpijnlijk":8905,"Ġostiaal":8906,"kinetisch":8907,"Functie":8908,"ofielen":8909,"Ġgeri":8910,"Ġvannacht":8911,"ĠScan":8912,"1992":8913,"Leefregels":8914,"ĠAtria":8915,"DE":8916,"Ġdabigatran":8917,"ĠQs":8918,"Ġbinnenkomst":8919,"Ġluchtweginfectie":8920,"Creat":8921,"Ġyears":8922,"ĠAcuut":8923,"ĠSla":8924,"Complication":8925,"ĠOpt":8926,"erdag":8927,"oppler":8928,"Red":8929,"ĠDob":8930,"sthma":8931,"Omeprazol":8932,"Ġceftriaxon":8933,"ĠStopreden":8934,"Ġrejectie":8935,"Voorkeur":8936,"uidig":8937,"schien":8938,"Ġstrain":8939,"Ġafgezien":8940,"axt":8941,"Ġinspanningsgebonden":8942,"spier":8943,"ĠNevenbevindingen":8944,"Ontslagbericht":8945,"Ġhomograft":8946,"Ġeffusie":8947,"Ġtrend":8948,"Metformine":8949,"kozen":8950,"ĠOb":8951,"Ġ107":8952,"zing":8953,"Haematologie":8954,"Katheter":8955,"TAVI":8956,"Proximal":8957,"Ġgenezen":8958,"geld":8959,"Anaesthesie":8960,"hb":8961,"Ġ02":8962,"Goed":8963,"ĠlongembolieÃ«n":8964,"valsbevinding":8965,"Ġinade":8966,"ĠLijkt":8967,"Ġaortae":8968,"Ġaangegeven":8969,"Ġingescande":8970,"entry":8971,"Ġarrest":8972,"Ġatypisch":8973,"Circumflex":8974,"bron":8975,"Ġsubend":8976,"Ġikv":8977,"rint":8978,"Ġballondilatatie":8979,"Ġgeconstateerd":8980,"ĠSinus":8981,"usextirpatie":8982,"text":8983,"Globaal":8984,"Ġfluoroscopie":8985,"Ġintracran":8986,"ĠSept":8987,"ĠScore":8988,"ĠNeur":8989,"Ġdubbel":8990,"udicatio":8991,"Aspirine":8992,"waren":8993,"Ġmetformine":8994,"Ġinspiratie":8995,"opl":8996,"clop":8997,"ĠNaar":8998,"infect":8999,"afd":9000,"Ġwoont":9001,"VEN":9002,"ĠY":9003,"Ġmodificatie":9004,"onderkwab":9005,"ovic":9006,"athether":9007,"Parox":9008,"Ġwellicht":9009,"Mobiel":9010,"Ġassistent":9011,"Ġexams":9012,"Ġeveneens":9013,"ĠRDA":9014,"unctioneel":9015,"Ġvraagt":9016,"Succesvolle":9017,"Ġlijst":9018,"Ġopvallend":9019,"ĠRust":9020,"ĠAAA":9021,"NO":9022,"Ġdyspnoeklachten":9023,"Ġfront":9024,"structies":9025,"ĠAtriale":9026,"Mede":9027,"beg":9028,"ropium":9029,"Kathether":9030,"geneeskunde":9031,"Ġwater":9032,"spectrum":9033,"bewaking":9034,"ĠNederland":9035,"Apixaban":9036,"illing":9037,"Ġdiurese":9038,"ĠVolgens":9039,"atenolol":9040,"Ġovereen":9041,"umab":9042,"ĠAlhier":9043,"ĠMob":9044,"Ġlapar":9045,"CHA":9046,"Hel":9047,"ĠSh":9048,"Ġbidirectioneel":9049,"Ġincl":9050,"Ġbijwerking":9051,"Ġgastroscopie":9052,"Ġmitraclip":9053,"besch":9054,"ĠCAPS":9055,"lavix":9056,"GEN":9057,"zone":9058,"DDR":9059,"bereiding":9060,"iforme":9061,"Ġalsnog":9062,"Ġinfo":9063,"Ġvoorstel":9064,"))":9065,"Ġieder":9066,"nectie":9067,"Ġkm":9068,"Ġcircum":9069,"ĠVerpleeg":9070,"Res":9071,"Ġlangdurige":9072,"namelijk":9073,"Rust":9074,"ĠPersisterend":9075,"Ġtwijf":9076,"Ġinfuus":9077,"},":9078,"Ġpijnlijke":9079,"Ġaortaklepinsufficientie":9080,"Ġbeste":9081,"ĠHyper":9082,"wond":9083,"ĠZou":9084,"Ġslag":9085,"Operatie":9086,"Ġontwikkel":9087,"ĠSMART":9088,"Ġbehandelingen":9089,"Ġgift":9090,"Ġstuw":9091,"neg":9092,"Ġus":9093,"Ġpromocard":9094,"ĠIntra":9095,"Ġverklaren":9096,"Ġgalwegen":9097,"|-":9098,"ĠGeriatrie":9099,"Ġbinnenkort":9100,"ivm":9101,"rotische":9102,"Ġnoodzaak":9103,"Ġvariant":9104,"ĠPMVL":9105,"Ġgrac":9106,"wijsbrief":9107,"ĠEp":9108,"Ġgebeur":9109,"dert":9110,"ĠFlecainide":9111,"gl":9112,"ability":9113,"uceerde":9114,"drain":9115,"Ġpolyneuropathie":9116,"erapeut":9117,"Ġmerkt":9118,"spectief":9119,"Ġtoestemming":9120,"digd":9121,"utamine":9122,"ĠSup":9123,"KP":9124,"hg":9125,"Ġzelfde":9126,"ĠGebeld":9127,"requente":9128,"ateerde":9129,"ĠExcell":9130,"Zeer":9131,"Ġomhuld":9132,"binnen":9133,"Ġoverplaatsing":9134,"iatie":9135,"ĠMinimale":9136,"acrol":9137,"Ġiliaca":9138,"Ġdiafragmatica":9139,"rocardiografie":9140,"Ġ126":9141,"):\\":9142,"Ġgeprobeerd":9143,"ĠWilt":9144,"ĠIets":9145,"Ġaanwezige":9146,"sport":9147,"ves":9148,"Ġtuss":9149,"armen":9150,"dent":9151,"ĠDefin":9152,"otak":9153,"Ġ00":9154,"Nitroglycerine":9155,"Ġzin":9156,"Ġhetgeen":9157,"eerder":9158,"Ġovert":9159,"Ġnabloeding":9160,"Arter":9161,"Ġws":9162,"dekt":9163,"able":9164,"Troponine":9165,"Ġjug":9166,"ĠExcellente":9167,"Ġjump":9168,"Ġconclusief":9169,"quate":9170,"SD":9171,"Ġelkaar":9172,"inding":9173,"Ġsindsdien":9174,"Ã¶ntgen":9175,"CRT":9176,"Ġaanpassing":9177,"Ġ03":9178,"gewricht":9179,"compenseerd":9180,"Ġ118":9181,"Ġ162":9182,"maar":9183,"osartan":9184,"Ġontslagbericht":9185,"iro":9186,"rogatie":9187,"Ġhartklep":9188,"Neoral":9189,"steen":9190,"Inplannen":9191,"Ġ143":9192,"ĠExtra":9193,"gesloten":9194,"cluder":9195,"Ġwest":9196,"bet":9197,"-.":9198,"Hyd":9199,"Ġ122":9200,"Ġnamens":9201,"Ġcontinue":9202,"rocyt":9203,"Ġabsoluut":9204,"omer":9205,"'.":9206,"ĠSelokeen":9207,"Ġwattage":9208,"Ġdermat":9209,"ĠToegang":9210,"Ġverzending":9211,"gifte":9212,"Ġmyocardiale":9213,"odon":9214,"ĠMVR":9215,"ĠImplantatie":9216,"Ġtoegevoegd":9217,"Ġtransmissie":9218,"Ġsigar":9219,"Ġonderbeen":9220,"supervisor":9221,"VAR":9222,"Hoofdstamstenose":9223,"Ġdefin":9224,"recept":9225,"ĠErg":9226,"osie":9227,"Ã¯ne":9228,"Ġanomalie":9229,"Ġ210":9230,"ĠSpoedeisende":9231,"hel":9232,"woor":9233,"ĠCre":9234,"atroon":9235,"ĠSpoortje":9236,"ĠScreening":9237,"dose":9238,"rofiele":9239,"ablok":9240,"ofarmac":9241,"Ġlymfoom":9242,"Module":9243,"rologie":9244,"centrisch":9245,"atitude":9246,"rim":9247,"ĠRVEF":9248,"iment":9249,"Ġaspir":9250,"WH":9251,"Ġexacerbatie":9252,"klinische":9253,"EMA":9254,"Ġvegetaties":9255,"Ġbad":9256,"Ġongewijzigde":9257,"Ġgeindiceerd":9258,"Ġ128":9259,"ĠKNUK":9260,"verm":9261,"rik":9262,"Ġ131":9263,"Ġzegt":9264,"Ġkoffie":9265,"Ġtint":9266,"det":9267,"Ġhooguit":9268,"Procedurevoorstel":9269,"Ġechovensters":9270,"gewrichten":9271,"Ġdiabetische":9272,"ĠPerifeer":9273,"Ġmrt":9274,"ensing":9275,"ĠSureScan":9276,"kla":9277,"checklist":9278,"maild":9279,"Matig":9280,"verkal":9281,"icro":9282,"Actueel":9283,"ount":9284,"Ġdotter":9285,"NSTEMI":9286,"sing":9287,"spreid":9288,"contin":9289,"icarb":9290,"otion":9291,"Ġcalc":9292,"250":9293,"oxicilline":9294,"Ġdrinkt":9295,"ĠLPA":9296,"ĠHals":9297,"acrolimus":9298,"Ġwijzigen":9299,"atoir":9300,"Ġanticoagulantia":9301,"hoofd":9302,"zouten":9303,"Ġeuvol":9304,"Ġverbreed":9305,"Ġirreversib":9306,"ĠFA":9307,"Ġflauw":9308,"ofarmacon":9309,"Car":9310,"Value":9311,"ĠNP":9312,"eerbaar":9313,"Ġontplo":9314,"Ġuitgel":9315,"Ġvisite":9316,"Ġdrupp":9317,"Kle":9318,"Ġdelier":9319,"Ġuiter":9320,"ilisatie":9321,"Ġother":9322,"Ġerosie":9323,"Cl":9324,"onaire":9325,"Ġrevascularisatie":9326,"angiogram":9327,"Anesthes":9328,"etwaardes":9329,"icot":9330,"ĠEndotak":9331,"ractie":9332,"Ġaanmelden":9333,"Ġgroter":9334,"ĠPacing":9335,"hyp":9336,"TP":9337,"ĠLead":9338,"ĠVerminderde":9339,"diend":9340,"------":9341,"ĠAcute":9342,"Ġradic":9343,"rekt":9344,"Ġparacetamol":9345,"Ġfamiliaire":9346,"Ġhigh":9347,"bespreking":9348,"ascore":9349,"PVAI":9350,"CON":9351,"Ġgewichtstoename":9352,"Vis":9353,"ĠAMVL":9354,"ĠEH":9355,"Ġmobiel":9356,"ĠOAC":9357,"Ġmeege":9358,"ipl":9359,"ĠOnveranderd":9360,"ĠDruk":9361,"Domein":9362,"Dhr":9363,"ĠWPW":9364,"ĠPOS":9365,"lobale":9366,"Ġ113":9367,"Ġbrengen":9368,"Ġmeestal":9369,"Adenosine":9370,"ĠTotale":9371,"imensie":9372,"ĠPatint":9373,"Ġplus":9374,"ĠOntslagchecklist":9375,"Ġduiden":9376,"sche":9377,"ĠuGym":9378,"Ġslaapt":9379,"ĠDoet":9380,"reig":9381,"Ġvoorlopige":9382,"LR":9383,"BRIEF":9384,"Ġ114":9385,"Ġduizeligheidsklachten":9386,"Ġstellen":9387,"ĠOnbekend":9388,"ppendectomie":9389,"ĠGaarne":9390,"sum":9391,"]/[":9392,"allergie":9393,"ondag":9394,"ĠAntistofscreening":9395,"Ġlactaat":9396,"freq":9397,"PVI":9398,"Pt":9399,"Ġef":9400,"isf":9401,"tend":9402,"Ġpulmonaalvene":9403,"Ġinclusief":9404,"schrijven":9405,"ĠAfgelopen":9406,"Ġonrustig":9407,"ppm":9408,"ablokkade":9409,"Ġdeviatie":9410,"Ġemboliebron":9411,"Ġ116":9412,"ĠpatiÃ«nten":9413,"Daarna":9414,"Ġherkenbaar":9415,"urve":9416,"ycodon":9417,"Ġherstarten":9418,"Ġcircumsc":9419,"sug":9420,"andige":9421,"ffen":9422,"stoel":9423,"Ġvoltages":9424,"Ġafnemen":9425,"nod":9426,"Ġbezwaren":9427,"oek":9428,"Ġtong":9429,"gamma":9430,"axatie":9431,"ining":9432,"aryn":9433,"makoep":9434,"cyste":9435,"astro":9436,"Ġinfect":9437,"uctie":9438,"Ġneurologische":9439,"ĠMY":9440,"Ġdetectie":9441,"Ġtoppen":9442,"ovicolon":9443,"Ġinstroom":9444,"atomie":9445,"ĠAb":9446,"ĠSoep":9447,"Ġcarcinoom":9448,"Drukverband":9449,"uidelijke":9450,"Ġmil":9451,"Rap":9452,"Ġrestfunctie":9453,"Ġzodat":9454,"urinol":9455,"vari":9456,"ĠZorgvraag":9457,"Ġbrady":9458,"umer":9459,"ĠMSR":9460,"Ġgeregistreerd":9461,"Ġvztb":9462,"ĠPericard":9463,"Ġdisfunctie":9464,"ĠTijd":9465,"ĠHCT":9466,"Ġ2022":9467,"Ġeinddiastolische":9468,"Ġcarvedilol":9469,"ĠToegangstijd":9470,"darone":9471,"aph":9472,"Zorg":9473,"mL":9474,"Ġinferieure":9475,"teren":9476,"Wel":9477,"omst":9478,"Gescand":9479,"ĠĠĉĠ":9480,"Ġverslechtering":9481,"ĠUitgebreidere":9482,"ĠVerdere":9483,"ĠĠĉĊÂł":9484,"Ġcentraal":9485,"Ġovertuig":9486,"Ġ1999":9487,"LVG":9488,"segmenten":9489,"Ġplastiek":9490,"Ġhartoor":9491,"Ġappendectomie":9492,"ografische":9493,"Ġheparine":9494,"oening":9495,"ĠBezinking":9496,"Ġgevuld":9497,"ĠFra":9498,"gelicht":9499,"stijging":9500,"Ġfistel":9501,"ĠCascore":9502,"Drempel":9503,"Ġvrije":9504,"Ġsoort":9505,"Ġontvang":9506,"Ġherseninfarct":9507,"older":9508,"crement":9509,"abiliteit":9510,"Ġingrepen":9511,"iwit":9512,"longarts":9513,"ĠIntermediaire":9514,"Predilatatie":9515,"ormulier":9516,"ĠGem":9517,"Ġ182":9518,"EL":9519,"ransth":9520,"ĠVervolgens":9521,"450":9522,"rand":9523,"Ġvasovag":9524,"Ġondersteuning":9525,"Impl":9526,"Charge":9527,"ĠÂ":9528,"lopurinol":9529,"zekeraar":9530,"ĠWandonregelmatigheden":9531,"Ġwijd":9532,"rsch":9533,"ISCHE":9534,"ĠMax":9535,"Ġtzt":9536,"Ġoogdruppels":9537,"ffende":9538,"170":9539,"ĠDegeneratieve":9540,"Ġ05":9541,"Ġinitieel":9542,"Ġdruppel":9543,"erium":9544,"HF":9545,"ocytaire":9546,"ĠTricuspide":9547,"Ġcreme":9548,"iazem":9549,"mail":9550,"Ġneen":9551,"Ġ124":9552,"Ġcoronairangiografie":9553,"Ġdoorgegeven":9554,"Ġgedacht":9555,"derdaad":9556,"ineel":9557,"randen":9558,"ysio":9559,"MK":9560,"Chol":9561,"Sintrom":9562,"Ġzonodig":9563,"ragmat":9564,"Ġtoegediend":9565,"MD":9566,"Ġklepbladen":9567,"Ernstige":9568,"voet":9569,"Ġgy":9570,"Iom":9571,"856":9572,"Ġhierover":9573,"Ġhemor":9574,"plaatsen":9575,"ĠCoronairlijden":9576,"uatie":9577,"mand":9578,"Ġuitgelegd":9579,"ĠPSA":9580,"Ġvoorzicht":9581,"unct":9582,"FUN":9583,"Ġherstelfase":9584,"ĠNIBD":9585,"icarbonaat":9586,"ensiva":9587,"ĠCath":9588,"ĠRD":9589,"emazepam":9590,"ĠPerindopril":9591,"Ġenzymen":9592,"Ġcommunis":9593,"Ġactie":9594,"ĠHD":9595,"ĠCS":9596,"ensch":9597,"ORAX":9598,"orige":9599,"Ġdementie":9600,"valueren":9601,"Ġslok":9602,"slaan":9603,"suvastatine":9604,"ĠBijzonderheden":9605,"Ġfamilieanamnese":9606,"Ġbacterie":9607,"ĠGest":9608,"ĠMyocardiaal":9609,"Ġstijgt":9610,"Ġverhoging":9611,"Ġrectaal":9612,"Ġdiffusie":9613,"itaire":9614,"non":9615,"vir":9616,"ondentie":9617,"conclusief":9618,"Ġhypokinetisch":9619,"syst":9620,"emmer":9621,"gering":9622,"Ġinterventiecardioloog":9623,"Ġtu":9624,"Ġspl":9625,"Ġgecorrige":9626,"Ġwitte":9627,"Ġafvallen":9628,"Ġdiameters":9629,"ritmestoornissen":9630,"Ġ109":9631,"Ġgebieden":9632,"Ġexter":9633,"Neem":9634,"Ġkinder":9635,"Ġtoelichting":9636,"Ġmyel":9637,"vak":9638,"Ġalgemene":9639,"Ġcare":9640,"ĠOP":9641,"Ġvochtbalans":9642,"Ġrelaxatie":9643,"Ġhartlijden":9644,"Ġdiafragma":9645,"Ġtijdelijke":9646,"ĠConsent":9647,"ĠGuidant":9648,"hk":9649,"4674":9650,"werking":9651,"Ġmel":9652,"hem":9653,"Ucorbio":9654,"Ġtherapeutisch":9655,"Ġzweten":9656,"Ġnadat":9657,"coronairen":9658,"Ġconsequentie":9659,"ĠOperatie":9660,"ĠBeg":9661,"paraat":9662,"ĠPalpitaties":9663,"locatie":9664,"afname":9665,"komt":9666,"Ġcolchicine":9667,"respondentie":9668,"ĠIHZ":9669,"Ã³":9670,"ramide":9671,"Ġbenader":9672,"IC":9673,"volgt":9674,"clerotisch":9675,"ischarge":9676,"enteam":9677,"JS":9678,"Ġwaarom":9679,"chtgen":9680,"Ġdoorgaan":9681,"ĠCreat":9682,"iteindelijk":9683,"Ġbolus":9684,"Ġopgebouwd":9685,"Ġrisicofact":9686,"therapie":9687,"abdomen":9688,"Ġtachycardieen":9689,"Ġused":9690,"Ġcollateralen":9691,"ĠCentrale":9692,"agenoeg":9693,"Ġcephalica":9694,"Ġherbe":9695,"Ġvoorgaand":9696,"aria":9697,"Ġje":9698,"traject":9699,"Ġatenolol":9700,"Laatste":9701,"ĠAtriumflutter":9702,"Ġuitgelokt":9703,"Ġfir":9704,"ifedipine":9705,"Collateralen":9706,"icotine":9707,"Ġoplos":9708,"Ġcris":9709,"ĠBBL":9710,"Ġforward":9711,"Behandelaar":9712,"iplin":9713,"Ġ-);":9714,"Ġsystol":9715,"ĠMaar":9716,"stor":9717,"Ġgly":9718,"Ġplaquevorming":9719,"8856":9720,"Ġsubopt":9721,"veranderingen":9722,"Macrogol":9723,"Ġsigaretten":9724,"Ġnear":9725,"Ġasymptomatische":9726,"summed":9727,"Gekozen":9728,"Ġverlaagde":9729,"glas":9730,"ĠRisk":9731,"checkt":9732,"Ġgeregeld":9733,"ĠBurst":9734,"ZOEK":9735,"ĠMit":9736,"idisc":9737,"okriet":9738,"ĠgeÃ¯ndiceerd":9739,"Ġivabradine":9740,"Vocht":9741,"Ġplotseling":9742,"Waar":9743,"ĠtricuspidalisklepinsufficiÃ«ntie":9744,"ĠEZIS":9745,"stenen":9746,"schade":9747,"Ġzekerheid":9748,"pacing":9749,"Links":9750,"Ġ123":9751,"ĠLabwaarde":9752,"Ġvessel":9753,"Ġuitsluiten":9754,"CP":9755,"Ġmechanische":9756,"ĠMoeder":9757,"Ġ117":9758,"breed":9759,"deelcontact":9760,"penteam":9761,"ipolair":9762,"ĠHelder":9763,"zeem":9764,"wat":9765,"idisciplin":9766,"uran":9767,"ĠEN":9768,"oorza":9769,"Ġverlies":9770,"Ġoptreden":9771,"Ġverkla":9772,"DERZOEK":9773,"Ġhoorbaar":9774,"Ġph":9775,"Ġlongbeeld":9776,"Ġnr":9777,"ora":9778,"Ġcollaterale":9779,"naar":9780,"didaat":9781,"ĠMen":9782,"Ġbloedverdunn":9783,"Ġdown":9784,"omschrijving":9785,"ĊĊĊĊĊĊĊĊ":9786,"ĠComplicaties":9787,"Ġallemaal":9788,"ĠMild":9789,"Ġverkregen":9790,"Ġligging":9791,"Ġextre":9792,"ergo":9793,"ruim":9794,"Ġdrugs":9795,"amili":9796,"ĠFr":9797,"Ġdegeneratie":9798,"Ġverteb":9799,"ĠUitste":9800,"Ġchronotrope":9801,"origineel":9802,"Ġglyhb":9803,"Ġdorsaal":9804,"ĠRntgen":9805,"Ġrisicofactor":9806,"Ġ+,":9807,"stat":9808,"Ġpassagere":9809,"ĠReveal":9810,"Ġmedicatiewijzig":9811,"inueren":9812,"Ġradial":9813,"Aberrante":9814,"Ġdiverse":9815,"ervla":9816,"Ġescape":9817,"ĠMM":9818,"ĊĊĊĊĊ":9819,"ĠBB":9820,"Ġretinopathie":9821,"akkelijk":9822,"goede":9823,"ĠTemp":9824,"vaat":9825,"ĠBor":9826,"Ġcusp":9827,"Ġpolym":9828,"drug":9829,"mentin":9830,"ĠHeart":9831,"ĠFlash":9832,"Ġradiatie":9833,"Ġfietserg":9834,"indien":9835,"wk":9836,"intern":9837,"ĠGisteren":9838,"vullingsbeeld":9839,"naec":9840,"tje":9841,"Ġorg":9842,"Ġvolgrespons":9843,"Ġgeinformeerd":9844,"Ġurineweginfectie":9845,"ĠpAF":9846,"egd":9847,"ĠNieuwe":9848,"ystol":9849,"actor":9850,"Ġaritm":9851,"Ġverbinding":9852,"ĠWond":9853,"ĠNAG":9854,"Ġuitlok":9855,"ĠAlcohol":9856,"ĠWD":9857,"Ġ127":9858,"ĠmIU":9859,"ĠCardiologische":9860,"ĠNier":9861,"Ġkramp":9862,"Ġdubieus":9863,"ĠTr":9864,"eak":9865,"Other":9866,"irculatie":9867,"ĠADL":9868,"acuut":9869,"ĠVerpleegafdeling":9870,"ĠDobutamine":9871,"gers":9872,"Ġkomende":9873,"Ġdon":9874,"oedig":9875,"alf":9876,"Ġtunn":9877,"Telemetrie":9878,"fix":9879,"Ġisthmusafhankelijke":9880,"clox":9881,"Ġbewezen":9882,"Ġbijk":9883,"Ġinotropie":9884,"rens":9885,"atten":9886,"Ġcran":9887,"Ġobstipatie":9888,"Ġdisc":9889,"igoxine":9890,"Overname":9891,"Ġ04":9892,"Ġtymp":9893,"Ġgeslaagde":9894,"ĠLatitude":9895,"osa":9896,"Sh":9897,"={":9898,"tijdens":9899,"ĠSCD":9900,"wording":9901,"iff":9902,"Ġmetab":9903,"Ġgeboren":9904,"Ġsuper":9905,"Ġsheath":9906,"Ġantero":9907,"Ġexpl":9908,"ralaterale":9909,"Ġnodulaire":9910,"ĠRecidiverende":9911,"Ġpantoprazol":9912,"ual":9913,"Ġmaligne":9914,"Ġaanvragen":9915,"Ġ185":9916,"hechting":9917,"complex":9918,"Vent":9919,"internist":9920,"ĠRadiation":9921,"Ġfen":9922,"gelegd":9923,"Ġmedisch":9924,"ĠTemperatuur":9925,"ĠUitleg":9926,"ĠDAPT":9927,"fiets":9928,"COM":9929,"Anesthesiologie":9930,"Ġgemaild":9931,"Ġ148":9932,"____":9933,"Artikelomschrijving":9934,"Ġechocor":9935,"Rosuvastatine":9936,"Ġvolum":9937,"Straling":9938,"NIN":9939,"vertraging":9940,"iltiazem":9941,"kousen":9942,"uitslag":9943,"Ġneurologisch":9944,"Ġsteken":9945,"Ġcataract":9946,"Ġtweetal":9947,"Ġuitsluiting":9948,"135":9949,"ĠSomat":9950,"Ġww":9951,"anen":9952,"xdd":9953,"Ġgriep":9954,"1991":9955,"Ġontvangt":9956,"Ġgeruststelling":9957,"Ġ129":9958,"ĠVERWI":9959,"Ġvoeding":9960,"sugrel":9961,"ademing":9962,"Ech":9963,"Ġrestafwijkingen":9964,"Ġhelpt":9965,"Ġbiv":9966,"ĠWire":9967,"ĠCONCOR":9968,"cir":9969,"ĠHypert":9970,"cline":9971,"Ġfietst":9972,"bes":9973,"eelt":9974,"ĠHuisarts":9975,"maart":9976,"Ġlongembolieen":9977,"ĠAFS":9978,"Ġarc":9979,"ĠBK":9980,"Ġwegen":9981,"Aortaklep":9982,"SEH":9983,"Ġ111":9984,"bul":9985,"ctasie":9986,"Ġonc":9987,"bed":9988,"fracturen":9989,"ĠLGE":9990,"Ġnamelijk":9991,"Ġberekenen":9992,"Neur":9993,"Ġgrond":9994,"ĠAngina":9995,"best":9996,"Ġdrukkende":9997,"Ġvegetatieve":9998,"ĠIrreg":9999,"VB":10000,"ĠHypok":10001,"Ġmedia":10002,"ĠMitralisklep":10003,"Ġnarcose":10004,"vas":10005,"Ġpy":10006,"zoals":10007,"merg":10008,"ĠStenose":10009,"namen":10010,"beweging":10011,"UCORBIO":10012,"Ġmooi":10013,"napt":10014,"Ġulcus":10015,":{":10016,"Ġondervulling":10017,"Buikomvang":10018,"Hyp":10019,"oÃ¯":10020,"juv":10021,"Ġmoeizame":10022,"Her":10023,"ĠRT":10024,"Ġmiddel":10025,"SPAN":10026,"Ġhierdoor":10027,"Ġvervolgd":10028,"Ġwachten":10029,"SPANNIN":10030,"ĠAanwijzingen":10031,"ĠVESsen":10032,"erkent":10033,"Ġincompetentie":10034,"Ġtachycardiomyopathie":10035,"ĠVERWIJS":10036,"Ġcysten":10037,"Ġmens":10038,"Ġmeldt":10039,"ĠVERWIJSBRIEF":10040,"stop":10041,"([":10042,"volol":10043,"Dyspnoe":10044,"Ġcoronairsclerose":10045,"Ġsturen":10046,"Ġrechtszijdige":10047,"Ġverne":10048,"Ġbijvoorbeeld":10049,"ĠProg":10050,"KA":10051,"calciumscore":10052,"Ġbrid":10053,"apid":10054,"ĠIAS":10055,"Ġhalver":10056,"Ġdaardoor":10057,"ĠNierfunctie":10058,"Ġwwsp":10059,"Ġlumbale":10060,"Ġdoubletten":10061,"Ġopbouw":10062,"Ġchec":10063,"ĠPleuravocht":10064,"Ġterechte":10065,"Ġfil":10066,"Ġbedroeg":10067,"ĠSomatom":10068,"ĠHIT":10069,"idisciplinair":10070,"ĠElektrocardiogram":10071,"ĊĠĊĊ":10072,"EMAI":10073,"We":10074,"Ġdiafragmakoep":10075,"Ġbackflow":10076,"Ġdiagnostische":10077,"ĠWandbewegingen":10078,"quaal":10079,"artiment":10080,"LADRES":10081,"ĠNormal":10082,"Analyse":10083,"EMAILADRES":10084,"ĠNegatieve":10085,"plane":10086,"Overlap":10087,"Ġuitval":10088,"lutic":10089,"moeidheid":10090,"Ġ167":10091,"irect":10092,"ĠAntistolling":10093,"Studies":10094,"cardiologie":10095,"ĠStopdatum":10096,"Ġhartfalenpoli":10097,"Ġpremature":10098,"ĠToelichting":10099,"lox":10100,"ORM":10101,"vocatie":10102,"Rivaroxaban":10103,"uigen":10104,"ECHO":10105,"ts":10106,"Ġverschil":10107,"geten":10108,"Bed":10109,"Ġafgebouwd":10110,"Ġmidventriculair":10111,"ĠRetour":10112,"Spoed":10113,"Ġarcus":10114,"ĠApixaban":10115,"Zo":10116,"Ġfellow":10117,"Ġdestijds":10118,"zakking":10119,"End":10120,"Ġconcrement":10121,"NS":10122,"Ġpijnst":10123,"Ġwilde":10124,"Ġverdiep":10125,"Ġrunn":10126,"Ġpoliep":10127,"Contralaterale":10128,"luticason":10129,"rast":10130,"Beschrijving":10131,"athologie":10132,"ĠJaar":10133,"Gen":10134,"Ġpauze":10135,"ĠVitale":10136,"Ġtrends":10137,"orapid":10138,"Ernstig":10139,"houds":10140,"Ġbloedkweken":10141,"breken":10142,"Ġmoest":10143,"Ġmes":10144,"ĠResp":10145,"ori":10146,"Ġbronchopathie":10147,"oklep":10148,"idipine":10149,"115":10150,"ieve":10151,"Ġtrombo":10152,"acenocoumarol":10153,"odium":10154,"Ġtherapeutische":10155,"Ġgevoelig":10156,"Tr":10157,"Ġstenting":10158,"Ġinname":10159,"Ġvernauwing":10160,"haven":10161,"Ca":10162,"FN":10163,"Ġplanning":10164,"eerbare":10165,"ĠAstma":10166,"Ever":10167,"anteerd":10168,"sloping":10169,"Ġintermediair":10170,"Ġdossier":10171,"Ġveroorza":10172,"loopt":10173,"Ġoff":10174,"iscus":10175,"ĠIntacte":10176,"Ġhyperthyre":10177,"agg":10178,"Ġguiding":10179,"desartan":10180,"Ġpantozol":10181,"leaire":10182,"SPANNINGS":10183,"ocus":10184,"Ġapical":10185,"Ġgedecompenseerd":10186,"ipril":10187,"Ġetiologie":10188,"ATP":10189,"ike":10190,"Ġvoornamelijk":10191,"Ġcreatinine":10192,"ĠBovengenoemde":10193,"Ġcentrum":10194,"Ġexcisie":10195,"RACE":10196,"atier":10197,"adenosine":10198,"elateerde":10199,"halen":10200,"itor":10201,"ontsteking":10202,"Guid":10203,"Ġ119":10204,"Ġasyn":10205,"Ġsupervisie":10206,"ĠBiotronik":10207,"topprogressie":10208,"ĠInterne":10209,"Uitslagen":10210,"rh":10211,"ĠTot":10212,"ĠOpvall":10213,"onderzoeken":10214,"Ġnachtelijke":10215,"ĠHartrevalidatie":10216,"Ġ181":10217,"Ġverwijding":10218,"Ġklaar":10219,"ĠSn":10220,"chtends":10221,"Ġmeth":10222,"Ġversterkte":10223,"Ġgelijk":10224,"ĠVTs":10225,"Ġfietsproef":10226,"erieur":10227,"Ġhematurie":10228,"Et":10229,"Ġcontrah":10230,"ĠUrine":10231,"Ġconsequenties":10232,"Ġgewenst":10233,"pus":10234,"situatie":10235,"shock":10236,"kenmerken":10237,"ical":10238,"!)":10239,"IDE":10240,"abusus":10241,"Ġductus":10242,"VAG":10243,"ĠRedelijk":10244,"Ġliever":10245,"Ã¨re":10246,"Elektrocardiogram":10247,"istente":10248,"ORD":10249,"apicaal":10250,"ĠNH":10251,"Ġtotaalscore":10252,"Implantatie":10253,"inferior":10254,"ukken":10255,"omediastin":10256,"aort":10257,"Ġvoorbe":10258,"Ġblauw":10259,"ĠSyn":10260,"rogramma":10261,"Ġhouding":10262,"Ġchor":10263,"Ġbestaand":10264,"Ġuitlezen":10265,"Ġhoestklachten":10266,"HD":10267,"ĠProgressieve":10268,"Ġkuren":10269,"ĠIvm":10270,"soriasis":10271,"Ġtakken":10272,"muran":10273,"rechter":10274,"overleg":10275,"VASTAT":10276,"oire":10277,"Opmerking":10278,"inezuur":10279,"stap":10280,"Ġdoorlopend":10281,"Recente":10282,"spagina":10283,"Ġverwijzen":10284,"ĠOverzichtspagina":10285,"Ġcollateraal":10286,"Ġplassen":10287,"Ġdeelname":10288,"ĠWarm":10289,"LBTB":10290,"butamol":10291,"ZorgDomein":10292,"Ġhospital":10293,"Stimulatiedrempel":10294,"CFG":10295,"Ref":10296,"ĠHoudt":10297,"ORIGIN":10298,"Ġsymmetrisch":10299,"ORIGINAL":10300,"Ġtoilet":10301,"Uitslag":10302,"Ġpacemakerimplantatie":10303,"ĠMomenteel":10304,"RAZOL":10305,"Ġbereikbaar":10306,"Ġtoeval":10307,"Ġdex":10308,"ĠIPL":10309,"oodsch":10310,"malling":10311,"ĠVB":10312,"Ġsociale":10313,"Ġdraa":10314,"Ġaankomst":10315,"structuur":10316,"Ġuitstekend":10317,"aliemie":10318,"advies":10319,"Ġjaarcontrole":10320,"ymaal":10321,"--------------":10322,"Vroe":10323,"Ġlager":10324,"Ġembol":10325,"ĠInformed":10326,"Ġhandhaven":10327,"Pulmonaal":10328,"femorale":10329,"Ġreversibiliteit":10330,"Ġzeggen":10331,"Ġchemische":10332,"Calciumcarb":10333,"Ġtherapy":10334,"ECV":10335,"Ġrolstoel":10336,"correctie":10337,"Ġfoto":10338,"Ġopgevraagd":10339,"ĠProtocol":10340,"ouwen":10341,"NL":10342,"Fietsergometrie":10343,"Ġteruggezien":10344,"inet":10345,"atosis":10346,"Ġ...":10347,"Ġtillen":10348,"Ġtricuspidalis":10349,"Ġsm":10350,"Ġaanvankelijk":10351,"ijf":10352,"yrax":10353,"Ġextracardiale":10354,"Ġnatieve":10355,"bovenkwab":10356,"hkv":10357,"Ġcq":10358,"Ġvermeld":10359,"Ġslik":10360,"ĠanomalieÃ«n":10361,"hypertensiva":10362,"houdende":10363,"VASTATINE":10364,"ĠQuad":10365,"spar":10366,"isfeer":10367,"Ġmedicijngebruik":10368,"verla":10369,"Ġmediastinale":10370,"Ġsensor":10371,"ĠPresent":10372,"existent":10373,"Ġwandbewegings":10374,"Ġgelukkig":10375,"Ġpostvak":10376,"Ġvoelen":10377,"791":10378,"polikliniek":10379,"Mol":10380,"Ont":10381,"Ġstoel":10382,"Ġstor":10383,"ations":10384,"mrt":10385,"Functionele":10386,"inen":10387,"Ġ168":10388,"Ġstre":10389,"107":10390,"Ġnierfunctiestoornis":10391,"ĠTUR":10392,"Ġerna":10393,"ryo":10394,"Ġgefaxt":10395,"Ġuitbreiding":10396,"graft":10397,"Ġtintelingen":10398,"ĠDataLinq":10399,"Ġhartst":10400,"ĠZijn":10401,"oplite":10402,"KER":10403,"ice":10404,"Ġcollap":10405,"Ġvoorgenomen":10406,"ĠMerkt":10407,"ĠOvername":10408,"Ġpancreat":10409,"ĠIMA":10410,"CoC":10411,"ĠPass":10412,"Ġduurt":10413,"Ġamyloidose":10414,"ĠflecaÃ¯nide":10415,"Parameter":10416,"Ġovervullingsbeeld":10417,"CDEF":10418,"lasseGuid":10419,"Functionality":10420,"ModuleName":10421,"FUNCDEF":10422,"CoClasseGuid":10423,"FunctionalityName":10424,"aemische":10425,"ORDERCOM":10426,"FNMK":10427,"Ġgescand":10428,"Meetwaardes":10429,"ĠDefinition":10430,"Ġbeeldbel":10431,"Ġmisschien":10432,"Ġmensen":10433,"Ġverzoeken":10434,"Ġoesophag":10435,"ĠACHD":10436,"ĠTur":10437,"maxim":10438,"ĠExtr":10439,"Ġrollator":10440,"Ġmiddenkwab":10441,"stabiele":10442,"ĠPICC":10443,"Ġinferoposterior":10444,"4501":10445,"gesproken":10446,"Ġvroege":10447,"ĠUCORBIO":10448,"ĠPte":10449,"Ġopvallende":10450,"RPM":10451,"Ġrestrictie":10452,"Ġzaterdag":10453,"Belangrijke":10454,"Ġbeginnende":10455,"ked":10456,"blocker":10457,"iciteit":10458,"ronef":10459,"ĠActueel":10460,"ulprit":10461,"furosemide":10462,"Ġ176":10463,"Ġplacement":10464,"Ġcongenital":10465,"Ġakinetisch":10466,"Aanmeld":10467,"ĠUiteindelijk":10468,"Ġhydratie":10469,"4940":10470,"]}":10471,"kas":10472,"ĠOpnieuw":10473,"ĠMoet":10474,"ĠEnt":10475,"behandeld":10476,"Ġatriumf":10477,"ĠGroot":10478,"akken":10479,"ronefrose":10480,"Ġbronchitis":10481,"CONCLUSIE":10482,"Ġhomogene":10483,"ĠThans":10484,"Ġmediaal":10485,"\".":10486,"Ġregadenoson":10487,"Ġcorrespondentie":10488,"ppen":10489,"risk":10490,"Ġopenen":10491,"zocht":10492,"Ġonderhoud":10493,"bach":10494,"Ġrecidiverend":10495,"nef":10496,"klierfunctie":10497,"ĠIntern":10498,"ĠKreat":10499,"zetimib":10500,"Ġergomet":10501,"rocytaire":10502,"ĠBehouden":10503,"Ġsnelheid":10504,"Ġretrograde":10505,"ĠMed":10506,"action":10507,"Mogelijk":10508,"onitraat":10509,"Ġfeit":10510,"FNMKORD":10511,"UP":10512,"Ġlongziekten":10513,"ĠJC":10514,"Ġ121":10515,"ĠHoofdstam":10516,"Ġsuggestief":10517,"ius":10518,"Ġafgrensbaar":10519,"Ġdefici":10520,"email":10521,"Ġinspanningen":10522,"Ġomhoog":10523,"ĠSprint":10524,"ĠElectieve":10525,"ĠBumetanide":10526,"Ġbepaling":10527,"VU":10528,"Ġdrukverband":10529,"Kreatinine":10530,"Ġingesproken":10531,"aste":10532,"pool":10533,"Ġremmer":10534,"Ġonzeker":10535,"Ġhalverwege":10536,"Ġafmeting":10537,"ĠSport":10538,"Ġverwijzer":10539,"Ġinstellen":10540,"Ġproject":10541,"Ġavonds":10542,"werd":10543,"Ġafgebeeld":10544,"Ġzouden":10545,"ĠInmiddels":10546,"Ġgenetische":10547,"ripte":10548,"olf":10549,"ĠFont":10550,"Ġker":10551,"lopende":10552,"Ġnefro":10553,"yle":10554,"ĠDNA":10555,"Ġcoarctatio":10556,"bar":10557,"Ġwerkdiagnose":10558,"Ġvoorzichtig":10559,"variatie":10560,"olute":10561,"Ġevenwicht":10562,"Ritmestoornissen":10563,"EEL":10564,"bec":10565,"ĠEvent":10566,"Ġzelfs":10567,"dw":10568,"ecg":10569,"VE":10570,"enzymen":10571,"Ġtympan":10572,"beelden":10573,"Ġemfyseem":10574,"onartrose":10575,"gevity":10576,"Hoe":10577,"belconsult":10578,"ĠRCC":10579,"Ġtekening":10580,"Ġtemperatuur":10581,"Ġribben":10582,"Ġdur":10583,"Ġrugklachten":10584,"Ġonderbenen":10585,"leboog":10586,"Ġtwijfel":10587,"ĠONDERZOEK":10588,"Ġparoxymaal":10589,"Ġbegrens":10590,"ĠTVP":10591,"sneden":10592,"Elect":10593,"Ġapico":10594,"Ġprogramma":10595,"cluderend":10596,"Ġhetzelfde":10597,"Ġontbij":10598,"Ġelektrocardioversie":10599,"Ġcircumscripte":10600,"ildklierfunctie":10601,"1000":10602,"Lever":10603,"Ġ(?":10604,"Ġlesies":10605,"indigd":10606,"Ġbevestig":10607,"ĠEplerenon":10608,"Ġhevige":10609,"Ġmigraine":10610,"Ġlinkerboezem":10611,"ĠiCMP":10612,"Ġhypothyreoidie":10613,"continentie":10614,"Ġ(#":10615,"rijgt":10616,"Ġvatslijden":10617,"Ġcl":10618,"Ġtert":10619,"Relevant":10620,"Ġ178":10621,"aie":10622,"Ġgram":10623,"Ġtrig":10624,"amsul":10625,"Ġabl":10626,"Ġalsmede":10627,"Ġmacro":10628,"Hematocriet":10629,"ĠDub":10630,"metastasen":10631,"bo":10632,"Ġarterieel":10633,"Ġcoil":10634,"Ġlangste":10635,"etjes":10636,"ĠAutogen":10637,"ysma":10638,"Ġinderdaad":10639,"Ġvanmorgen":10640,"Ġbijzonder":10641,"ĠManagement":10642,"attro":10643,"gevonden":10644,"ĠAmlodipine":10645,"alli":10646,"Ġperip":10647,"ĠMyoview":10648,"tv":10649,"Ġpostoperatieve":10650,"ĠEosinofiele":10651,"ĠTend":10652,"erc":10653,"oride":10654,"ĠDrug":10655,"UG":10656,"Ġnatrium":10657,"CORE":10658,"obstructie":10659,"Ġgeleidelijk":10660,"reren":10661,"Ġkortdurende":10662,"ocrinologie":10663,"rofysiologisch":10664,"Ġburden":10665,"ĠOngecompliceerde":10666,"Ġklepfuncties":10667,"Ġklieren":10668,"Ġtox":10669,"Ġ//":10670,"west":10671,"Ġgedaald":10672,"umaraat":10673,"ĊĠĠĠĠ":10674,"Ġpseud":10675,"hoging":10676,"agelijkse":10677,"etsels":10678,"ĠMammografie":10679,"dosering":10680,"ameth":10681,"Ġinvasieve":10682,"Ġaangeboden":10683,"ischemische":10684,"voer":10685,"ĠAR":10686,"Hals":10687,"senen":10688,"ĠOnd":10689,"ĠBasofiele":10690,"ĠPneumonie":10691,"ĠSCORE":10692,"Ġprec":10693,"ĠNC":10694,"Ġbul":10695,"Ġcontactpersoon":10696,"osedienst":10697,"ĠMedicamenteus":10698,"Ġcardiovasculaire":10699,"staand":10700,"ĠQS":10701,"Ġtachyaritmie":10702,"Ġmatglas":10703,"ĠSindsdien":10704,"Ġaortaklepsclerose":10705,"ĠEL":10706,"spatroon":10707,"ĠUitstekende":10708,"Ġkweek":10709,"kkingen":10710,"Ġheft":10711,"punt":10712,"Ġinsp":10713,"Ġhartafwijkingen":10714,"Ġbleef":10715,"Ġsr":10716,"Ġwrsch":10717,"problematiek":10718,"Ġ774":10719,"verzekeraar":10720,"romy":10721,"Ġverdieping":10722,"atisch":10723,"Ġzorginstelling":10724,"onc":10725,"Ġmeneer":10726,"Ġblokker":10727,"Ġgestegen":10728,"Ġhyperventilatie":10729,"circulatie":10730,"Ġdensiteit":10731,"Ġmixed":10732,"Ġdiepe":10733,"ologen":10734,"Afdeling":10735,"Ġnagenoeg":10736,"rijf":10737,"Ġverbre":10738,"Hartrevalidatie":10739,"egistratie":10740,"LAVI":10741,"----------------------------------------------------------------":10742,"breedte":10743,"septale":10744,"ĠScherp":10745,"pomp":10746,"Ġcardiomediastin":10747,"ruikte":10748,"ĠQuattro":10749,"ombin":10750,"ĠSVG":10751,"ĠNeutrofiele":10752,"Ġnefropathie":10753,"Ġbronchiale":10754,"onchi":10755,"initis":10756,"Kan":10757,"Ġontbijt":10758,"kijken":10759,"Ġzondag":10760,"ĠMIBI":10761,"Ġoperatief":10762,"Ġaureus":10763,"egens":10764,"syncope":10765,"Ġulc":10766,"Ġgezicht":10767,"Zij":10768,"Ġdyssyn":10769,"fasciaal":10770,"Ġinfectieus":10771,"aanvraag":10772,"Ġdiafragmata":10773,"ĠIngevity":10774,"Ġevenals":10775,"Doorlichting":10776,"andaard":10777,"sinus":10778,"Ġrosuvastatine":10779,"ĊĊĊĊĊĊĊĊĠĊĊĊ":10780,"imp":10781,"icemail":10782,"ieke":10783,"Ġdoel":10784,"Frequentie":10785,"Fix":10786,"Ġkandidaat":10787,"fte":10788,"dan":10789,"Ġelectrocardioversie":10790,"Ġkanaal":10791,"amsulosine":10792,"lavic":10793,"Ġcriterium":10794,"RVF":10795,"Aanvullende":10796,"ĠVooralsnog":10797,"Remote":10798,"Ġmonitoring":10799,"iner":10800,"101":10801,"Ġtend":10802,"Ġhorm":10803,"ĠOAS":10804,"uide":10805,"ĠACM":10806,"evaluatie":10807,"ĠGeeft":10808,"Ġoperatieve":10809,"Ġmechanoprothese":10810,"Ġasthma":10811,"Alles":10812,"oodschappen":10813,"artsen":10814,"Bedrust":10815,"ĠPO":10816,"Ġstekende":10817,"Ġbetreffende":10818,"Imuran":10819,"Ġ171":10820,"mean":10821,"ascal":10822,"ĠAndere":10823,"Ġonderhouds":10824,"ĠAanvullend":10825,"Ġlongvene":10826,"Aanwez":10827,"Ġvoorbehoud":10828,"Ġkunstklep":10829,"Postdilatatie":10830,"ĠIA":10831,"Ġbo":10832,"anis":10833,"ĠSB":10834,"veranderde":10835,"rieve":10836,"Ġconc":10837,"Ġonderschat":10838,"familie":10839,"Ġureter":10840,"Ġtandarts":10841,"ĠHom":10842,"ĠDOAC":10843,"ransplant":10844,"probleem":10845,"Ġlanoxin":10846,"afspraken":10847,"derate":10848,"Ġgeslapen":10849,"dimeer":10850,"Ġvoorgestelde":10851,"ĠDosis":10852,"Familiaire":10853,"ĠCCS":10854,"daling":10855,"Ġgeleide":10856,"Sym":10857,"vindt":10858,"close":10859,"Ġgewone":10860,"138":10861,"Huid":10862,"Ġvoorbereiding":10863,"Ġ=>":10864,"amethason":10865,"middelen":10866,"ph":10867,"Ġongest":10868,"Ġzaken":10869,"Ġhooggradi":10870,"Ġtib":10871,"ext":10872,"Ġspu":10873,"Visueel":10874,"MMF":10875,"Ġslokdarm":10876,"yrid":10877,"Ġregelen":10878,"Ġvegetatie":10879,"Ġbloedings":10880,"erolaterale":10881,"104":10882,"Ġomt":10883,"belemmering":10884,"OG":10885,"Ġgetrig":10886,"Ġbeperking":10887,"ĠOF":10888,"detectie":10889,"erkomst":10890,"Ġelektrolyten":10891,"ng":10892,"ilstand":10893,"ata":10894,"let":10895,"ledig":10896,"osfaat":10897,"Ġgemetastase":10898,"Long":10899,"Ġregulatie":10900,"Ġaortic":10901,"Ġag":10902,"Ġroodheid":10903,"oprenaline":10904,"Ġgehoord":10905,"right":10906,"Ġgecombin":10907,"otherapeut":10908,"106":10909,"ME":10910,"Ġdrager":10911,"ĠFVT":10912,"Ġvanzelf":10913,"aduw":10914,"Ġlongparenchym":10915,"odg":10916,"Ġoutflow":10917,"Ġoksel":10918,"Ġbewegingsartefacten":10919,"Ġnv":10920,"mononitraat":10921,"Sociale":10922,"ĠAOS":10923,"Ġcompleet":10924,"Ġgereguleerde":10925,"Ġcompl":10926,"Ġmast":10927,"Pravastatine":10928,"ĠHierop":10929,"Ġvirale":10930,"vader":10931,"eriode":10932,"Ġposterolateraal":10933,"gemidd":10934,"Ġneuropathie":10935,"Mw":10936,"Ġinflamm":10937,"/(":10938,"kels":10939,"Ġiemand":10940,"Ġfalen":10941,"riprieve":10942,"Ġclip":10943,"Ġdynamiek":10944,"Ġbroers":10945,"antrumisolatie":10946,"Ġuitbreiden":10947,"hypercholesterolemie":10948,"Vroegere":10949,"Ġradiofarmacon":10950,"ingsdatum":10951,"Ġontdekt":10952,"Ġspm":10953,"Uitgebre":10954,"Ġsubfasciaal":10955,"astenose":10956,"zond":10957,"Ġhypertensief":10958,"Ġnazorg":10959,"arn":10960,"itair":10961,"Evero":10962,"intest":10963,"rofumaraat":10964,"Rapa":10965,"ĠBuik":10966,"Atriale":10967,"My":10968,"Ġsigmoid":10969,"ĠAspecifieke":10970,"venbevinding":10971,"etup":10972,"Leeftijdscore":10973,"only":10974,"Ġcompartiment":10975,"ĠUI":10976,"ĠÃ":10977,"pak":10978,"Ġcardiogene":10979,"Ġsteunkousen":10980,"ĠSl":10981,"Ġihkv":10982,"ockt":10983,"Ġpleurale":10984,"Aanmeldingsdatum":10985,"Ġochtends":10986,"Ġring":10987,"rofische":10988,"lopig":10989,"ĠGuiding":10990,"registratie":10991,"opathische":10992,"Ġgrotendeels":10993,"ĠPantoprazol":10994,"odgkin":10995,"arese":10996,"Ġaangeprikt":10997,"Ġspurium":10998,"ĠConservatief":10999,"Ġ724":11000,"ĠRPL":11001,"Ġtoevalsbevinding":11002,"Ġventric":11003,"jectief":11004,"ĠSignificante":11005,"Ġwk":11006,"ales":11007,"Ġstrum":11008,"Discharge":11009,"sm":11010,"Ġdoorlopen":11011,"Ġ158":11012,"Ġrechtsdruk":11013,"Ġontwater":11014,"Ġ164":11015,"ĠTT":11016,"Ġhalve":11017,"ĠMar":11018,"Ġbuikklachten":11019,"KCL":11020,"dik":11021,"Ġepilepsie":11022,"Ġident":11023,"NF":11024,"Ġvloe":11025,"Ġintens":11026,"Ġmorgenochtend":11027,"Ġverkalking":11028,"ĠLater":11029,"Ġmaagklachten":11030,"ĠLVE":11031,"Ġoverweging":11032,"ĠWandbewegings":11033,"movicolon":11034,"LINISCHE":11035,"RvO":11036,"Ġass":11037,"Ġkind":11038,"igingen":11039,"PET":11040,"ĠCapsurefix":11041,"',":11042,"Colecalciferol":11043,"Ġvasculair":11044,"ĠVoorbereiding":11045,"ĠQTC":11046,"Ġsubtotaal":11047,"ĠSA":11048,"chniek":11049,"ĠZorgverzekeraar":11050,"Ġbegrepen":11051,"Ġgaarne":11052,"Ġuterus":11053,"slip":11054,"verkalkingen":11055,"osorbidemononitraat":11056,"Ġtympanie":11057,"idd":11058,"ĠLongv":11059,"Ġoesofagus":11060,"Ġobstru":11061,"protocol":11062,"Geleid":11063,"Ġtaal":11064,"Ġbang":11065,"Ġtetrofosmine":11066,"dynam":11067,"msec":11068,"vlies":11069,"onale":11070,"Ġrijbewijs":11071,"iÃ«mie":11072,"ĠPrognose":11073,"OLD":11074,"Ġ1998":11075,"oeningen":11076,"Ġliter":11077,"Ġgecirc":11078,":<":11079,"Ġinsult":11080,"Ġbevinding":11081,"Ġ('":11082,"kaart":11083,"Ġklop":11084,"apar":11085,"ĠAM":11086,"Ġlinkszijdige":11087,"ket":11088,"oezemfibrilleren":11089,"Ġsterke":11090,"Ġvertelt":11091,"Ġaccess":11092,"shunt":11093,"Short":11094,"sturen":11095,"ĠiCVA":11096,"Artikelnummer":11097,"Ġspreken":11098,"Ġhydronefrose":11099,"elink":11100,"ĠBen":11101,"inurie":11102,"TransText":11103,"ĠpT":11104,"GRACE":11105,"icatie":11106,"roductie":11107,"LAX":11108,"Ġleefstijl":11109,"Ġbridging":11110,"albutamol":11111,"Ġinduc":11112,"Ġkalkscore":11113,"Ġgrafts":11114,"Ġcommon":11115,"daan":11116,"Ġbijgeruisen":11117,"annulus":11118,"volume":11119,"Ġdevices":11120,"monitor":11121,"ĠAdv":11122,"Ġschouderbladen":11123,"ats":11124,"LAA":11125,"Ġ-.":11126,"programma":11127,"TEN":11128,"ĠSporadisch":11129,"Ġspondyl":11130,"Ġgewichtsverlies":11131,"Ġspasme":11132,"Ġbuurt":11133,"elefonische":11134,"Ġfysio":11135,"Oedeem":11136,"Ġdim":11137,"ulse":11138,"hoest":11139,"sedatie":11140,"ĠPulmon":11141,"Ġspeelt":11142,"pla":11143,"pulmonaalvenen":11144,"Ġderde":11145,"ĠAlbumine":11146,"Ġpatinte":11147,"ush":11148,"Ġmemo":11149,"Ġvervroe":11150,"ĠCMV":11151,"Ġevalueren":11152,"ĠDirect":11153,"wacht":11154,"Ġgenorm":11155,"Ze":11156,"ĠVerm":11157,"Ġpresenteerde":11158,"kebach":11159,"ralis":11160,"ĠPh":11161,"Ġbiopten":11162,"ĠCOR":11163,"Ġambu":11164,"Ġenalapril":11165,"Ġglobale":11166,"VPK":11167,"Ġparasternaal":11168,"ystrofie":11169,"ĠCent":11170,"ekt":11171,"stapeling":11172,"itim":11173,"Tricuspide":11174,"Ġontwikk":11175,"ĠBlijft":11176,"romyalgie":11177,"Ġgehal":11178,"Ġsensing":11179,"amycine":11180,"vv":11181,"ĠBesproken":11182,"icardi":11183,"Ġgestenose":11184,"Ġepicardiaal":11185,"139":11186,"ifest":11187,"ange":11188,"Ġhartfunctie":11189,"ĠSecure":11190,"HC":11191,"Ġcag":11192,"dimensie":11193,"Ġjaarlijkse":11194,"Ġvermoeidheidsklachten":11195,"arth":11196,"Ġsom":11197,"pos":11198,"Ġcaud":11199,"Ġrustiger":11200,"Ġpolicontrole":11201,"ARB":11202,"Ġ+/+":11203,"Urine":11204,"wrijven":11205,"Ġechografie":11206,"opsie":11207,"ĠBicarbonaat":11208,"Ġ166":11209,"jun":11210,"arteri":11211,"Ġdrievatslijden":11212,"Ġroot":11213,"Ġremod":11214,"ĠFormulier":11215,"geval":11216,"linker":11217,"Ġfietsergo":11218,"ubitus":11219,"Ġafstand":11220,"stellende":11221,"Ġhartziekten":11222,"Ġaanhoudend":11223,"ĠgeÃ¯nformeerd":11224,"Ġamputatie":11225,"KLINISCHE":11226,"======":11227,"RVSP":11228,"Ġbuis":11229,"Ġhoren":11230,"Ġdagelijkse":11231,"Ġgecirculeerd":11232,"Ġchemo":11233,"ident":11234,"Ġslow":11235,"Ġremissie":11236,"ĠHernia":11237,"ĠProte":11238,"Ġcontext":11239,"ĠLVP":11240,"145":11241,"meter":11242,"stoon":11243,"Ġ172":11244,"Ġthuiszorg":11245,"rectomie":11246,"stroom":11247,"Orthop":11248,"ĠDabigatran":11249,"ĠTotaalscore":11250,"Ġdiverticulitis":11251,"Ġmicrovasculair":11252,"Ġbotstructuur":11253,"ĠHbA":11254,"adiging":11255,"Ġaanmerking":11256,"Ġverdachte":11257,"RBTB":11258,"ĠOD":11259,"uf":11260,"ota":11261,"Ġaritmogene":11262,"ĠHalsvaten":11263,"Ġmomenten":11264,"dend":11265,"Ġ================================":11266,"Ġsuik":11267,"imensies":11268,"ignificant":11269,"Ġemotion":11270,"psis":11271,"1988":11272,"Ġafgez":11273,"tenolol":11274,"punctie":11275,"Ġovergeplaatst":11276,"ĠDeel":11277,"ĠĊĠĠ":11278,"Ongewijzigd":11279,"roepbaar":11280,"requent":11281,"dist":11282,"zeer":11283,"uret":11284,"Ġacceptabel":11285,"Ġidem":11286,"Ġclaudicatio":11287,"wijzen":11288,"Ġvisus":11289,"malige":11290,"ĠGold":11291,"Ġaccep":11292,"uizelingen":11293,"Ġuitstral":11294,"Ġfysiotherapie":11295,"Ġverbeteren":11296,"sproblemen":11297,"mmetrische":11298,"Ġcontracties":11299,"esloten":11300,"Cath":11301,"femoral":11302,"Ġperim":11303,"ĠVragen":11304,"Ġlegitim":11305,"ULE":11306,"Ġwerv":11307,"ocaine":11308,"Ġvel":11309,"Ġflink":11310,"Ġgespannen":11311,"Ġhepatis":11312,"aggreg":11313,"Ġquo":11314,"Ġomgeving":11315,"CLS":11316,"Ġruns":11317,"umatisch":11318,"Ġpijnstilling":11319,"ktie":11320,"annacht":11321,"Ġhemisfeer":11322,"ĠODS":11323,"Ġverbreding":11324,"Ġlisinopril":11325,"ruis":11326,"baan":11327,"Ġpatent":11328,"starten":11329,"Ġventraal":11330,"Ġruptuur":11331,"Overleg":11332,"heids":11333,"Ġvacc":11334,"geleide":11335,"doorsneden":11336,"ĠPAT":11337,"Ġadenoom":11338,"Ġvolgend":11339,"Vergeleken":11340,"RvC":11341,"werda":11342,"ominant":11343,"len":11344,"Volg":11345,"Ġasdoorsneden":11346,"ĠSpironolacton":11347,"Herkomst":11348,"Ġhiel":11349,"enuw":11350,"ĠAfspraak":11351,"groe":11352,"Erytrocyten":11353,"Ġaanwezigheid":11354,"gradient":11355,"Ġmcg":11356,"ĠHili":11357,"Ġflex":11358,"remmers":11359,"Fr":11360,"chnisch":11361,"ĊĊĊĠĊĊĊ":11362,"Ġroute":11363,"Ġwijde":11364,"werkingen":11365,"PR":11366,"actieve":11367,"Ġscopie":11368,"ĠWBS":11369,"Ġmajor":11370,"Ġabnormale":11371,"rex":11372,"ontt":11373,"ĠNative":11374,"Ġmyocardscintigrafie":11375,"vp":11376,"ĠSchildklier":11377,"ĠcoronairinsufficiÃ«ntie":11378,"ician":11379,"efzol":11380,"Ġaltern":11381,"unctionele":11382,"heelkundige":11383,"ĠRQ":11384,"unstklep":11385,"oÃ¯de":11386,"klinisch":11387,"Ġsuggestie":11388,"ĠWandbewegingsanalyse":11389,"sieke":11390,"ĠVocht":11391,"perindopril":11392,"ĠICU":11393,"Ġhartgrootte":11394,"Ġtijden":11395,"ocktail":11396,"ĠDen":11397,"Ġvlees":11398,"ison":11399,"abetica":11400,"Palpitaties":11401,"141":11402,"oo":11403,"Ġgeind":11404,"asp":11405,"Ġejectiegeruis":11406,"fici":11407,"ialis":11408,"Ġafkomst":11409,"ieswerda":11410,"==============":11411,"pret":11412,"Ġreguliere":11413,"Ġhemodynamische":11414,"slaat":11415,"Ġvele":11416,"ysician":11417,"ler":11418,"Ġveroorzaakt":11419,"Ġrot":11420,"Ġkweken":11421,"oliose":11422,"Ġvooruit":11423,"ĠLCx":11424,"ietsen":11425,"ĠRPA":11426,"300":11427,"fib":11428,"ocarcinoom":11429,"Ġoppervla":11430,"aandag":11431,"goed":11432,"ĠOste":11433,"108":11434,"pectomie":11435,"Ġ152":11436,"ĠCom":11437,"Ġplaatsgevonden":11438,"np":11439,"Kern":11440,"Ġnaam":11441,"Consult":11442,"Ġverwijdering":11443,"Ġcorona":11444,"kanalisatie":11445,"Ġsinusar":11446,"Ġvariatie":11447,"ĠHis":11448,"agl":11449,"Dialyse":11450,"yridamol":11451,"ĠANIOS":11452,"Kerndeel":11453,"ingle":11454,"Ġventrikelfibrilleren":11455,"Ġpathologisch":11456,"Ġmyocardscintigram":11457,"costaal":11458,"Ġdoord":11459,"Diastolische":11460,"Ġmot":11461,"ĠMede":11462,"Ġ154":11463,"Ġjodium":11464,"ĠAug":11465,"Ġimmuun":11466,"Vandaag":11467,"Ġontwatering":11468,"otis":11469,"etero":11470,"dysfunctie":11471,"ĠMedisch":11472,"Ġverwachten":11473,"Ġuroloog":11474,"ĠRivaroxaban":11475,"Ġliesbreuk":11476,"ĠAngio":11477,"amiliair":11478,"Overigen":11479,"Ġnitrospray":11480,"EV":11481,"ĠUitgebreid":11482,"Ġdroge":11483,"Ġcip":11484,"ĠAv":11485,"Ġhartcentrum":11486,"Ġziekten":11487,"Ġkeur":11488,"Ġcyt":11489,"Ġwoon":11490,"ĠFunctie":11491,"ĉĉĉ":11492,"halsvenen":11493,"stadium":11494,"verloop":11495,"ĠOLVG":11496,"Ġmetastase":11497,"Zwangerschapshypertensie":11498,"Ġ================================================================":11499,"Ontslagdatum":11500,"Ġepig":11501,"lectie":11502,"icoagulation":11503,"ystitis":11504,"cave":11505,"Ġovertuigende":11506,"Ġgenot":11507,"Ġarch":11508,"retentie":11509,"ĠPerclose":11510,"kop":11511,"ĠSC":11512,"parameters":11513,"Ġongestoord":11514,"imal":11515,".(":11516,"ĠAtorvastatine":11517,"Magnesium":11518,"arks":11519,"ĠNSA":11520,"DDD":11521,"Ġ156":11522,"snelheid":11523,"katheterisatie":11524,"orst":11525,"Ġjaarlijks":11526,"itraten":11527,"pel":11528,"Ġtransmuraal":11529,"Ġverlengde":11530,"Ġneusspray":11531,"Interval":11532,"Ġwelk":11533,"Ġbehoren":11534,"------------------------------------------------------------------------------":11535,"ysteem":11536,"Ġincisie":11537,"cap":11538,"Ġdingen":11539,"Ġgeriatrie":11540,"oemd":11541,"Ġcox":11542,"spasme":11543,"diment":11544,"aanvr":11545,"Ġcollapsen":11546,"Remarks":11547,"Ġfluclox":11548,"Ġverslagdatum":11549,"Ġbezoekdatum":11550,"Ġ==============================================================================":11551,"Risicoprofiel":11552,"ĠILR":11553,"ĠPACs":11554,"uleren":11555,"afragma":11556,"Ġboodschappen":11557,"Ġgynaec":11558,"ĠHt":11559,"ĠHartteam":11560,"isol":11561,"Ġdobu":11562,"erve":11563,"raad":11564,"ĠSimvastatine":11565,"vermogen":11566,"idiabetica":11567,"Ġdriet":11568,"Ġuterusextirpatie":11569,"MCHC":11570,"valider":11571,"ĠOMT":11572,"Ġbehalve":11573,"Ġuro":11574,"actaat":11575,"Ġprik":11576,"Ġvarices":11577,"Ġgrove":11578,"Ġwaardes":11579,"ĠEC":11580,"Ġverhaal":11581,"PO":11582,"deff":11583,"Ġgun":11584,"opy":11585,"Fam":11586,"Ġgda":11587,"Echocardiografisch":11588,"CVRM":11589,"Ġwed":11590,"Ġhepatitis":11591,"sternaal":11592,"sura":11593,"Ġ153":11594,"lit":11595,"ada":11596,"ĠDus":11597,"ĊĊĊĠĊĊ":11598,"site":11599,"Ġouders":11600,"cocktail":11601,"ostoma":11602,"stoonissen":11603,"ĠEchtgen":11604,"Ġfractie":11605,"ĠSeg":11606,"Ġcou":11607,"Ġhypertrofe":11608,"gerust":11609,"Ġzacht":11610,"KERN":11611,"Ġverspreid":11612,"offen":11613,"control":11614,"Cathkamer":11615,"dipositas":11616,"ĠCathkamer":11617,"DVT":11618,"ager":11619,"Ġuiteraard":11620,"ergering":11621,"ĠCollaps":11622,"Ġergometrische":11623,";}":11624,"umen":11625,"kopp":11626,"stabiel":11627,"Ġintrapulmonale":11628,"Ġ}":11629,"VER":11630,"Ġprostaatcarcinoom":11631,"ĠCAPSULE":11632,"ĠNSAID":11633,"Ġgehaald":11634,"Geleidingsstoornissen":11635,"opamine":11636,"Ġbacteriemie":11637,"Ġpolar":11638,"Ġpot":11639,"Prednisolon":11640,"Ġtrachea":11641,"someprazol":11642,"ÂµGym":11643,"Ġenerg":11644,"Geplande":11645,"iere":11646,"Ġbeenmerg":11647,"ĠAsc":11648,"ĠSegoe":11649,"itiÃ«le":11650,"Basis":11651,"arch":11652,"Ġrechteronderkwab":11653,"ansi":11654,"THORAX":11655,"erm":11656,"Pantozol":11657,"embolische":11658,"Ġdaarop":11659,"rtf":11660,"Ġfocaal":11661,"Ġhalveren":11662,"Ġjeuk":11663,"Ġfitness":11664,"moe":11665,"Ġstim":11666,"Zwangerschapsdiabetes":11667,"fontt":11668,"Ġhypertensieve":11669,";}}":11670,"fonttbl":11671,"ĠWerkt":11672,"Ġdefibrillatie":11673,"Ġdalend":11674,"juvante":11675,"Ġiliacaal":11676,"ongeerde":11677,"Anticoagulation":11678,"collaps":11679,"Ġaccepteren":11680,"Ġroker":11681,"ĠEver":11682,"ĠĠĠĠÂł":11683,"Ġprominente":11684,"ometer":11685,"Geslachtscore":11686,"ĠarteriÃ«le":11687,"OLO":11688,"ĠECHO":11689,"Ġ1997":11690,"Ġ173":11691,"Ġgeprikt":11692,"aggregatier":11693,"dobutamine":11694,"Ġspondylo":11695,"ĠVitamine":11696,"Ġforamen":11697,"Ġangiografisch":11698,"ĠMAZ":11699,"loos":11700,"Ġbloeddrukmeting":11701,"Ġwsl":11702,"Ġaortak":11703,"Ġbijkom":11704,"Ġsin":11705,"Ġalsof":11706,"orant":11707,"Ġpsychi":11708,"Ġdiafragmakoepels":11709,"ĠPOL":11710,"ĠÂ±":11711,"Volgende":11712,"reng":11713,"TAP":11714,"lijkt":11715,"immuun":11716,"ĠMAZE":11717,"ĠTHP":11718,"asix":11719,".).":11720,"Ġwandverdikking":11721,"Ġmindere":11722,"Ġantagonist":11723,"Ġnefrologie":11724,"ĠNazorg":11725,"Ġaccessoire":11726,"lebitis":11727,"Ġongemoeid":11728,"ĠSlaapt":11729,"EART":11730,"reenend":11731,"ĠCave":11732,"ĠLongembolie":11733,"ĠAbd":11734,"Ġonwelwording":11735,"Lipiden":11736,"obasaal":11737,"hythm":11738,"cons":11739,"ĠWMA":11740,"gemiddeld":11741,"Ġgelopen":11742,"Ġmyocardperfusie":11743,"itatief":11744,"Ġlichamelijke":11745,"Ġingelicht":11746,"abdomin":11747,"ĠConditie":11748,"Ġtranspir":11749,"gebrek":11750,"ĠHartcatheterisatie":11751,"Ġeczeem":11752,"Ġontbreken":11753,"Flecainide":11754,"olyt":11755,"suppletie":11756,"Ġinguin":11757,"Ġbelde":11758,"ĠSpont":11759,"verdunning":11760,"600":11761,"ĠHeparine":11762,"clopidogrel":11763,"Wil":11764,"Ġharde":11765,"Ġprecordiaal":11766,"ONA":11767,"Ġovv":11768,"Ġbijlage":11769,"Ġaortastenose":11770,"Ġttv":11771,"):{\\":11772,"Ġdyspnoisch":11773,"lagen":11774,"rote":11775,"1989":11776,";}}\\":11777,"Ġkauwtablet":11778,"Ġopmerking":11779,"ĠLife":11780,"122":11781,"Ġdame":11782,"weer":11783,"Ġlagere":11784,"Ġ151":11785,"ĠPLN":11786,"Ġdeath":11787,"icilline":11788,"Ġgenormaliseerd":11789,"alteparine":11790,"ĠAK":11791,"SU":11792,"Ġdox":11793,"Ġorthost":11794,"Ġkast":11795,"Ġ157":11796,"dendum":11797,"ĠHIV":11798,"PVC":11799,"ĠTendril":11800,"amule":11801,"Ġmogelijkheden":11802,"Ġvw":11803,"Ġzenuw":11804,"inex":11805,"aglif":11806,"iks":11807,"olpen":11808,"Ġactiviteits":11809,"ima":11810,"Huidige":11811,"Ġtempo":11812,"Doorlichtingstijd":11813,"ĠTrop":11814,"Ġduoden":11815,"ktober":11816,"ĠMevrouw":11817,"ĠVVIR":11818,"ĠAuteur":11819,"Ġ147":11820,"Ġgeholpen":11821,"oft":11822,"Ġcs":11823,"ĠAfname":11824,"ilaat":11825,"Ġcatheterisatie":11826,"ĠInspannings":11827,"ĠResolute":11828,"?),":11829,"Ġribfracturen":11830,"amuleau":11831,"Ġvalsartan":11832,"Ġsemi":11833,"Gebruikte":11834,"barri":11835,"Ġmode":11836,"165":11837,"Veel":11838,"ĠLF":11839,"draden":11840,"Ġdalende":11841,"ĠGedilateerd":11842,"VENS":11843,"Ġuitlokkende":11844,"ĠMag":11845,"Ġcholec":11846,"Ġinadequate":11847,"Ġhartziekte":11848,"voorrang":11849,"geraakt":11850,"ĠBent":11851,"Ġbetablokkade":11852,"Ġcirculatie":11853,"osus":11854,"Ġwanden":11855,"ĠAssist":11856,"Ġarter":11857,"Ġbetere":11858,"rec":11859,"Ġasynchronie":11860,"Mitralisklep":11861,"Ġonderzoekafd":11862,"ramadol":11863,"ĠGecompliceerd":11864,"Ġdata":11865,"Ġcongenitale":11866,"Ġgewrichts":11867,"ĠSystolische":11868,"embran":11869,"Oproepbaar":11870,"ĠVolume":11871,"Ġfuro":11872,"Neurologisch":11873,"weegt":11874,"ĠgeÃ«":11875,"Ġmediastinaal":11876,"Ġscintigrafie":11877,"Ġ187":11878,"rk":11879,"Ġfysieke":11880,"Ġwie":11881,"Korte":11882,"aanvullend":11883,"komend":11884,"ĠCoron":11885,"Ġreumatoloog":11886,"undel":11887,"Ġtriplet":11888,"Ġslechter":11889,"ĠLVED":11890,"standen":11891,"ĠHaar":11892,"ĠNCC":11893,"Ġrechteratrium":11894,"ĠBl":11895,"ĠMaximale":11896,"Ġpolariteit":11897,"Ġpravastatine":11898,"Ġcordarone":11899,"ĠUP":11900,"Ġhilair":11901,"112":11902,"Ġvisu":11903,"ĠRX":11904,"Ġreag":11905,"Ġantihypertensiva":11906,"LLEN":11907,"huisarts":11908,"tig":11909,"acine":11910,"Ġweefsel":11911,"ococcus":11912,"Ġexplantatie":11913,"Ġct":11914,"Ġverklaard":11915,"laatsing":11916,"Ġidi":11917,"Ġindic":11918,"Ġ174":11919,"geet":11920,"area":11921,"besartan":11922,"Ġstra":11923,"Ġpancreatitis":11924,"Ġgenerator":11925,"eringen":11926,"ĠVerkal":11927,"Ġhartfalenmedicatie":11928,"Ġheupprothese":11929,"Ġtracing":11930,"Ġostiale":11931,"kkige":11932,"Ġtertiaire":11933,"ĠProximale":11934,"TAPSE":11935,"ĠCBR":11936,"Ġgenetica":11937,"ĠPrednison":11938,"Ġepigast":11939,"Ġacht":11940,"entieel":11941,"Ġrectum":11942,"ĠEvera":11943,"Ġbevestigd":11944,"roninezuur":11945,"ĠGesla":11946,"luen":11947,"Ġvarkens":11948,"ifurcatie":11949,"ĠHB":11950,"bestaande":11951,"ĠLongvaattekening":11952,"Ġvalv":11953,"Helder":11954,"Ġgemetastaseerd":11955,"Sense":11956,"ĠSte":11957,"Ġbiventriculair":11958,"Resultaat":11959,"Ġkoud":11960,"emmers":11961,"elcelcarcinoom":11962,"Ġcovid":11963,"Ġstil":11964,"ĠNeemt":11965,"Ġvaatchirurg":11966,"simvastatine":11967,"Ġcardiop":11968,"niveau":11969,"ĠPersisterende":11970,"ĠEVAR":11971,"Redelijke":11972,"beter":11973,"Ġvolw":11974,"ĠDyspneu":11975,"fr":11976,"Ġgelaat":11977,"ĠsPAP":11978,"vention":11979,"ĠmMol":11980,"afil":11981,"hyrox":11982,"oint":11983,"Ġluchthoudendheid":11984,"ĠElders":11985,"lever":11986,"ucoom":11987,"Inotropie":11988,"Ġverblij":11989,"Ġsys":11990,"oler":11991,"Controles":11992,"zetrol":11993,"colecalc":11994,"anoom":11995,"Ġomeprazol":11996,"Stoppen":11997,"werp":11998,"Ġfragmin":11999,"ĠKnie":12000,"Ġirregulaire":12001,"Ġharttonen":12002,"IDd":12003,"Ġlongven":12004,"Ġgewrichten":12005,"drempelig":12006,"evt":12007,"ĠAansluitend":12008,"iste":12009,"Ġoplopend":12010,"halte":12011,"ulator":12012,"ocytose":12013,"emmen":12014,"Ġpericardwrijven":12015,"hese":12016,"Ġcoronairangiogram":12017,"ĠSe":12018,"Ġdefecten":12019,"arynx":12020,"FT":12021,"mn":12022,"WER":12023,"erig":12024,"extra":12025,"Totale":12026,"advise":12027,"Ġvingers":12028,"ĠNo":12029,"Ġdevicete":12030,"oxische":12031,"ĠToch":12032,"Ġdyskinesie":12033,"isselend":12034,"ĠGestart":12035,"ĠBisoprolol":12036,"ĠDev":12037,"lastische":12038,"GAD":12039,"ĠSLE":12040,"ĠPerc":12041,"aO":12042,"ĠSnel":12043,"nesota":12044,"ithme":12045,"reigende":12046,"odem":12047,"Ġtraag":12048,"Ġstraal":12049,"CHADSVASC":12050,"Ġfactoren":12051,"ZU":12052,"Pulsaties":12053,"Ġzittend":12054,"uz":12055,"ĠGOLD":12056,"Ġomtrent":12057,"Ġgerec":12058,"rant":12059,"ĠAoi":12060,"Ġlaadtijd":12061,"voltage":12062,"Ġ260":12063,"Ġhuishoud":12064,"Ġholos":12065,"eens":12066,"issing":12067,"Ġbloedingen":12068,"scontrole":12069,"Aug":12070,"anamnestisch":12071,"Ġthoraxbeeld":12072,"ĠZN":12073,"cav":12074,"Ġgedocument":12075,"Kort":12076,"km":12077,".%":12078,"ĠKlep":12079,"Ġthoracalis":12080,"spunten":12081,"Ġhoogstand":12082,"=>":12083,"Ġstenosegraad":12084,"onitis":12085,"Ġvh":12086,"Ġbijnier":12087,"generie":12088,"Ġthor":12089,"Ġmediaan":12090,"Ġaangesloten":12091,"Cardiogene":12092,"Beoordeling":12093,"renicus":12094,"175":12095,"ĠSkelet":12096,"Fer":12097,"wens":12098,"amin":12099,"Sept":12100,"ĠProximaal":12101,"Ġvertebralis":12102,"Ġbekijken":12103,"ĠRDW":12104,"ĠDaags":12105,"ĠGedurende":12106,"erence":12107,"Ġannulusdilatatie":12108,"han":12109,"toen":12110,"Ġaangeboren":12111,"PQ":12112,"ICC":12113,"Ġasy":12114,"ĠPositie":12115,"Ġdevicetechnicus":12116,"Ġverliep":12117,"Ġtandheelkundige":12118,"bipolair":12119,"ĠLi":12120,"Ġvasthouden":12121,"Ġhierop":12122,"Ġvroeger":12123,"Ġgrad":12124,"osuctie":12125,"Ġmusc":12126,"ĠĠĠĊ":12127,"ĠSpecialist":12128,"ĠEerst":12129,"Ġsepsis":12130,"Ġgestenoseerd":12131,"tachy":12132,"Ġonsch":12133,"Ġtunnel":12134,"Ġpartieel":12135,"gerd":12136,"Ġventrikelrespons":12137,"Ġinterrogatie":12138,"Ġbon":12139,"gehalte":12140,"Ġhoudings":12141,"VULLEN":12142,"ĠWeet":12143,"fus":12144,"Ġwenst":12145,"ĠTensie":12146,"ĠVanaf":12147,"ibe":12148,"Ġbestraling":12149,"arcoumar":12150,"ĠAneur":12151,"ynt":12152,"ĠHY":12153,"Ġneiging":12154,"spreek":12155,"Ġkantoor":12156,"Ġvolumina":12157,"Ġbilaterale":12158,"ĠHoge":12159,"Ġbuitenland":12160,"ĠParoxismaal":12161,"Ġvleeskal":12162,"ORAAL":12163,"isu":12164,":*":12165,"Ġparoxysmale":12166,"ĠXECG":12167,"oegde":12168,"kanker":12169,"ĠElectrische":12170,"Ġvleeskalveren":12171,"Ġwrijven":12172,"verw":12173,"minste":12174,"sprak":12175,"Soms":12176,"Mei":12177,"blokkers":12178,"Ġ169":12179,"Ġdecomp":12180,"Se":12181,"Ġpalpatie":12182,"Ġbeats":12183,"ilus":12184,"rosis":12185,"Ġspann":12186,"Ġhartkatheterisatie":12187,"gep":12188,"roker":12189,"Ġhypokaliemie":12190,"Ġooit":12191,"LN":12192,"Ġosteoporose":12193,"Ventriculaire":12194,"Ġverzorg":12195,"Ġdilated":12196,"158":12197,"ieerd":12198,"Ġtuin":12199,"lext":12200,"Ġhoeft":12201,"Pulsbreedte":12202,"Afgelopen":12203,"Ġ850":12204,"ĠBeperkte":12205,"RIMA":12206,"ĠDagbehandeling":12207,"Ġbegele":12208,"Ġkar":12209,"streef":12210,"SPV":12211,"uceerd":12212,"orbus":12213,"Amplitude":12214,"IM":12215,"Ġangstig":12216,"ĠTelemetrie":12217,"ĠLaag":12218,"ĠPart":12219,"Atrium":12220,"Losartan":12221,"ĠOMH":12222,"Ġhond":12223,"part":12224,"gend":12225,"Ġklepvervanging":12226,"otoxic":12227,"incl":12228,"ĠSaturatie":12229,"ĠRisico":12230,"Slank":12231,"mate":12232,"sat":12233,"Ġmbv":12234,"ension":12235,"halings":12236,"Ġsignalen":12237,"Ġtabletten":12238,"Ġamoxicilline":12239,"eekend":12240,"ĠDochter":12241,"denken":12242,"Ġleuc":12243,"Ġsingle":12244,"Ġ163":12245,"odialyse":12246,"Ġrestrictief":12247,"Ġwandbewegingsstoonissen":12248,"ĠAcenocoumarol":12249,"ĠUr":12250,"diastolisch":12251,"137":12252,"ĠVPK":12253,"Ġpathogene":12254,"ĠNef":12255,"Ġhoofdstamstenose":12256,"ĠREGAD":12257,"-)":12258,"Ġregurg":12259,"kliniek":12260,"akter":12261,"moeder":12262,"roepen":12263,"ĠLinkerventrikel":12264,"dimensies":12265,"Ġfrontaal":12266,"ibiliteit":12267,"ENOSON":12268,"Ġhebt":12269,"ĠQuality":12270,"Ġconstri":12271,"relatie":12272,"naud":12273,"ophage":12274,"Vochtbalans":12275,"Ġohm":12276,"LVAD":12277,"Ġjugularis":12278,"Ir":12279,"Ġbesl":12280,"ardeh":12281,"Ġdaarvan":12282,"Ġartefacten":12283,"ĠRet":12284,"zaken":12285,"elo":12286,"GIE":12287,"1983":12288,"Ġverbeterde":12289,"GAT":12290,"aritmien":12291,"Ġrill":12292,"Ġonderzocht":12293,"Alkalische":12294,"Ġschade":12295,"Ġfacet":12296,"maand":12297,"pathologie":12298,"LT":12299,"Ġdoorgenomen":12300,"Ġdepressies":12301,"RAN":12302,"platting":12303,"ĠVerzoek":12304,"Diuretica":12305,"Ġgevisu":12306,"Ġrefill":12307,"ew":12308,"Ġtub":12309,"ĠLeucocyten":12310,"ĠVaat":12311,"estenose":12312,"calcificeerde":12313,"Ġisthmusblock":12314,"eflow":12315,"Ġarry":12316,"Ġculprit":12317,"Ġpalpabele":12318,"Ġgastritis":12319,"Ġallergische":12320,"Ġdehydratie":12321,"ĠPH":12322,"ĠOog":12323,"Ġatrofie":12324,"142":12325,"Ġwandverdunning":12326,"erle":12327,"ilept":12328,"Ġkauwtb":12329,"ĠSieswerda":12330,"Ġpoplite":12331,"Ġrugpijn":12332,"Ġ1500":12333,"rio":12334,"ĠWervel":12335,"ea":12336,"Ġretrop":12337,"Oxazepam":12338,"ĠREGADENOSON":12339,"Ġmening":12340,"zn":12341,"Ġprojecterend":12342,"Ġnierinsufficintie":12343,"iteits":12344,"asse":12345,"Ġdraden":12346,"Ġslap":12347,"spoedpatient":12348,"ĠLWI":12349,"ĠBevindingen":12350,"1987":12351,"Ġabusus":12352,"arly":12353,"Ġfysiek":12354,"Ġnormalisatie":12355,"bra":12356,"ĠIAP":12357,"Ġrecompensatie":12358,"atriumfibrilleren":12359,"ĠIrregulaire":12360,"Ġ1996":12361,"Toevoegen":12362,"aggregatieremmers":12363,"iseerd":12364,"sotalol":12365,"ije":12366,"raject":12367,"Ġantist":12368,"Ġspanning":12369,"rux":12370,"Ġlinkerarm":12371,"Ġcoronarius":12372,"aus":12373,"Ġlonge":12374,"bloeddruk":12375,"Invulling":12376,"Ġbene":12377,"hoek":12378,"Ġmargin":12379,"Ġerosieve":12380,"CTR":12381,"Ġlog":12382,"ĠLow":12383,"Wordt":12384,"Ġzorgvraag":12385,"ĠBesloten":12386,"valvulair":12387,"Ġimponeert":12388,"stens":12389,"Subdiagnose":12390,"Calc":12391,"Forse":12392,"nl":12393,"alcificaties":12394,"hydrox":12395,"Ġ231":12396,"AAN":12397,"endruk":12398,"ptom":12399,"Ġsil":12400,"Ġvitale":12401,"ikoorts":12402,"AO":12403,"ĠZuurstof":12404,"compaction":12405,"putting":12406,"okter":12407,"Ġcombi":12408,"woorden":12409,"Ġdoch":12410,"Ġlaparoscopische":12411,"Ġfilm":12412,"ĠAortawortel":12413,"ĠDaarom":12414,"Jaar":12415,"Lisinopril":12416,"ĠGeplande":12417,"Ġreconstructie":12418,"pantoprazol":12419,"Vena":12420,"Ġtraumatische":12421,"Dou":12422,"Ġniks":12423,"Ġgemiddelde":12424,"Radialis":12425,"ĠLok":12426,"Ġ184":12427,"omplex":12428,"Ġallen":12429,"Ġtussent":12430,"Ġtur":12431,"cta":12432,"Ġsubendocardiale":12433,"cf":12434,"Ġgevisualiseerd":12435,"ese":12436,"wiss":12437,"1985":12438,"ĠFax":12439,"school":12440,"Ġloc":12441,"Ġminor":12442,"Ġklin":12443,"ĠFam":12444,"Ġlokaal":12445,"Ġsuspecte":12446,"ĠBehand":12447,"Ġgeruisen":12448,"isory":12449,"Ġtransplantatie":12450,"Ġthrill":12451,"Ġorgaan":12452,"uplex":12453,"ĠMultidisciplinair":12454,"ialen":12455,"ĠTri":12456,"Ġaugmentin":12457,"CAL":12458,"Ġdyslipidemie":12459,"rome":12460,"Ġcomorbiditeit":12461,"oumarine":12462,"GEVENS":12463,"Ġgecorrigeerd":12464,"Ġsystolic":12465,"Ġoptimaliseren":12466,"verandering":12467,"maximaal":12468,"rocedureel":12469,"ĠintracraniÃ«le":12470,"ĠIDM":12471,"hold":12472,"ĠIVUS":12473,"ĠTerug":12474,"Ġbiom":12475,"Ġeffectief":12476,"ĠPlavix":12477,"verwijsbrief":12478,"ipel":12479,"Ġgenoteerd":12480,"ĠLIN":12481,"Ġaandoeningen":12482,"Ġontregel":12483,"ĠAlle":12484,"profiel":12485,"aliseerde":12486,"becularisatie":12487,"Ġafwezig":12488,"Ġregulaire":12489,"Ġverdeling":12490,"ĠCarelink":12491,"ĠMeestal":12492,"lot":12493,"Flow":12494,"ĠMAP":12495,"Ġnicotine":12496,"yloc":12497,"Non":12498,"ditioneel":12499,"Ġy":12500,"Ġcoll":12501,"hn":12502,"aanvrager":12503,"Ã¨tablokkers":12504,"ricuspidalisklep":12505,"Calciumscore":12506,"Ġdaarmee":12507,"rolithiasis":12508,"ĠSymptomatische":12509,"osynt":12510,"ĠStreef":12511,"ĠMC":12512,"VC":12513,"stre":12514,"Ġgecombineerd":12515,"veerd":12516,"Ġcrisiss":12517,"Ġweggeraakt":12518,"Ġcrisissituatie":12519,"ĠCardiomyopathie":12520,"ĠLinkeratrium":12521,"ĠarteriÃ«n":12522,"Ġhechtingen":12523,"Ġtno":12524,"Ġcardioversies":12525,"ĠStra":12526,"Ġonderv":12527,"Ġmeermaals":12528,"Ġlobectomie":12529,"ĠGEGEVENS":12530,"vet":12531,"Ġreveal":12532,"174":12533,"asmen":12534,"acter":12535,"vuldig":12536,"mutatie":12537,"ellcept":12538,"ser":12539,"Ġfunctionerende":12540,"Ġvasculitis":12541,"Ġjunctioneel":12542,"Moet":12543,"Ġbepaalde":12544,"ĠTrig":12545,"ichew":12546,"Ġbrachi":12547,"maag":12548,"ctiva":12549,"ĠPLCx":12550,"Ven":12551,"verteb":12552,"mo":12553,"Ġkleppenteam":12554,"ĠĊĊĠ":12555,"Vast":12556,"ĠgeÃ¯nd":12557,"Ġhypon":12558,"ĠZelf":12559,"Ġallergisch":12560,"Ġschildklierfunctie":12561,"Ġopgetrokken":12562,"Ġfasc":12563,"ulent":12564,"Ġtepel":12565,"Ġaangewezen":12566,"Ġheen":12567,"Ġatten":12568,"Feb":12569,"Longembolie":12570,"ĠNuchter":12571,"Ġol":12572,"Ġnatief":12573,"Ġsedert":12574,"schouder":12575,"Special":12576,"Ġcervicale":12577,"Ġopport":12578,"ĠWL":12579,"Ġantegra":12580,"opend":12581,"heim":12582,"Enalapril":12583,"Ġpakje":12584,"ĠChirurg":12585,"Ġva":12586,"nieren":12587,"Ġwachttijd":12588,"Ġcond":12589,"Ġtafel":12590,"luenza":12591,"Ġtranspireren":12592,"ejectiefractie":12593,"ĠJT":12594,"ĠIgG":12595,"Ġachterwand":12596,"ĠCORONA":12597,"Ġsuiker":12598,"arget":12599,"Ġileus":12600,"Ġoptimalisatie":12601,"Ġmgr":12602,"ĠcT":12603,"ectio":12604,"aging":12605,"lozine":12606,"Ġposttra":12607,"Ġklierweefsel":12608,"ĠAdrenaline":12609,"fL":12610,"procedureel":12611,"Reference":12612,"Ġhartstilstand":12613,"ify":12614,"Ġmac":12615,"alco":12616,"Ġarth":12617,"nex":12618,"Ġkarakter":12619,"ars":12620,"Ġbaden":12621,"pols":12622,"ĠAMI":12623,"veis":12624,"Ġstuwings":12625,"ĠMamma":12626,"Ġcolitis":12627,"Ġintermitt":12628,"aalarts":12629,"Ġdiagonale":12630,"Ġextreme":12631,"ĠVVR":12632,"ĠFactor":12633,"ropsych":12634,"Ġoorsprong":12635,"ziens":12636,"vdH":12637,"rocort":12638,"Bas":12639,"Ġtachyaritmien":12640,"Twee":12641,"Medicatiegebruik":12642,"Ġpoliepen":12643,"ĠAmpl":12644,"profyla":12645,"fmol":12646,"atriemie":12647,"Ġoorspronkelijk":12648,"umerus":12649,"ubb":12650,"Ġuitstralend":12651,"ruct":12652,"Ġlac":12653,"ylocain":12654,"anemie":12655,"Ġstatines":12656,"Vader":12657,"acilline":12658,"Ġinfarcten":12659,"ĠFosfaat":12660,"idente":12661,"knapt":12662,"atose":12663,"ĠsigmoÃ¯d":12664,"Ġdgn":12665,"yth":12666,"ĠMP":12667,"antagonisten":12668,"Ġintroductie":12669,"haar":12670,"Trombocytenaggregatieremmers":12671,"reshold":12672,"Ġbevindt":12673,"Ġvolgde":12674,"ĠHeel":12675,"Ġmorfine":12676,"patiÃ«nt":12677,"Ġgebeurd":12678,"ĠDBC":12679,"zetimibe":12680,"Ġpiep":12681,"ĠLDH":12682,"operfusie":12683,"uwde":12684,"bivolol":12685,"ĠMeneer":12686,"Ġburs":12687,"Ġgeleidingsvertraging":12688,"orine":12689,"Ġsim":12690,"ĠHypokinesie":12691,"Ġverkouden":12692,"ĠVanochtend":12693,"Ġgraciel":12694,"kuur":12695,"Vpk":12696,"Ġbijdragen":12697,"kins":12698,"tal":12699,"ĠgeÃ¯sol":12700,"Dabigatran":12701,"agliflozine":12702,"ĠDepressie":12703,"Ġadviseren":12704,"issectie":12705,"axa":12706,"ĠDuur":12707,"iefst":12708,"Trombosedienst":12709,"ĠFEV":12710,"Ġ149":12711,"perforatie":12712,"Paroxysmaal":12713,"Douchen":12714,"totaal":12715,"Ġresult":12716,"ĠVerwij":12717,"ĠRx":12718,"hist":12719,"ĠLo":12720,"rombose":12721,"Ġlittekenvorming":12722,"LOL":12723,"verlagers":12724,"Ġbiomar":12725,"szins":12726,"ĠBrug":12727,"hi":12728,"Ġtran":12729,"Bevindingen":12730,"Ġtrombolyse":12731,"elekt":12732,"1986":12733,"UT":12734,"ouders":12735,"informatie":12736,"OPRO":12737,"ĠZit":12738,"ĠVermoeidheid":12739,"ĠaVR":12740,"176":12741,"Ġcrestor":12742,"Ġpraktijk":12743,"GATED":12744,"ĠEigen":12745,"hyper":12746,"Ġopladen":12747,"Ġfemoral":12748,"./":12749,"reactiviteit":12750,"ondanks":12751,"Dilat":12752,"geringe":12753,"rexaat":12754,"spees":12755,"ĠmitralisinsufficiÃ«ntie":12756,"antus":12757,"Ġcuff":12758,"reeds":12759,"ĠChamuleau":12760,"Ġobl":12761,"Ġrecorder":12762,"Ġalbumine":12763,"Ġthyre":12764,"opties":12765,"Ġrechterbovenkwab":12766,"ĠCapsureFix":12767,"orfologie":12768,"ĠPLCX":12769,"Ġbevest":12770,"ĠJJ":12771,"radaxa":12772,"Medicijn":12773,"Ġgonartrose":12774,"ĠEet":12775,"gekomen":12776,"redelijke":12777,"zyg":12778,"Ġeenheid":12779,"Hyper":12780,"Ġimpuls":12781,"hydroxide":12782,"itraat":12783,"ial":12784,"Ġafgegeven":12785,"Ġoptimale":12786,"ĠTwe":12787,"ĠMedi":12788,"Ġinstroombelemmering":12789,"standige":12790,"denafil":12791,"Ġ1995":12792,"enc":12793,"Ġzomer":12794,"ĠHO":12795,"ĠLocatie":12796,"alin":12797,"dem":12798,"Ġoesophagus":12799,"Ġlonggeneeskunde":12800,"Ġprecies":12801,"ĠLage":12802,"Ġgetriggerd":12803,"Ġdenken":12804,"Ġcerebri":12805,"Ġpoplitea":12806,"dyspnoe":12807,"ory":12808,"179":12809,"Ġbeademing":12810,"Ġzwanger":12811,"Dep":12812,"hepat":12813,"Ġgenoeg":12814,"Ġconcrementen":12815,"Ġcorpus":12816,"ĠMetformine":12817,"maken":12818,"Ġdysplasie":12819,"Ġocc":12820,"ĠAkinesie":12821,"sv":12822,"Ġcolonoscopie":12823,"ĠCP":12824,"Ġpassende":12825,"Ġecc":12826,"valueerd":12827,"ĠOFF":12828,"ctasieÃ«n":12829,"Ġkilo":12830,"ĠMedical":12831,"ĠHMC":12832,"itoneaal":12833,"din":12834,"Regel":12835,"Ġvoelbaar":12836,"Ġintermitter":12837,"ĠME":12838,"1980":12839,"ĠCONCLUSIE":12840,"Astma":12841,"uthyrox":12842,"Ġliezen":12843,"gevoegde":12844,"iem":12845,"spironolacton":12846,"ratropium":12847,"Ġ(?)":12848,"ĠrÃ¶ntgen":12849,"bespreken":12850,"Ġrichtlijnen":12851,"Ġattenuatie":12852,"ergy":12853,"ulose":12854,"Ġacetylsalicylzuur":12855,"Ġlinkszijdig":12856,"Ġinzicht":12857,"Ġhf":12858,"Ġuitputting":12859,"Ġwerkzaam":12860,"Ġhemodialyse":12861,"Ġzorgp":12862,"Thoracale":12863,"ĠCCN":12864,"Ġbelastbaar":12865,"aynaud":12866,"Ġwsch":12867,"Ġelleboog":12868,"Heden":12869,"Ġcoronairinsufficientie":12870,"maat":12871,"Ġhartklachten":12872,"ingang":12873,"Telefonisch":12874,"serie":12875,"irus":12876,"revisie":12877,"apien":12878,"Ġovale":12879,"GO":12880,"ĠVena":12881,"uliere":12882,"wen":12883,"rate":12884,"Ġaandoening":12885,"Ġdikte":12886,"Ġrechterkamer":12887,"vaart":12888,"itatiefractie":12889,"Ġintermittens":12890,"standigheden":12891,"Ġtechnisch":12892,"Centrale":12893,"entiÃ«le":12894,"ĠBasaal":12895,"ĠCarb":12896,"otab":12897,"Ġboezemflutter":12898,"hemat":12899,"ASD":12900,"onef":12901,"Ġcardioth":12902,"Eerste":12903,"Ġklepblad":12904,"ĠGeneeskunde":12905,"anuari":12906,"sensing":12907,"Ġonduidelijke":12908,"omeen":12909,"Ġstro":12910,"Ġstille":12911,"ĠGerust":12912,"WP":12913,"asisch":12914,"klemm":12915,"Ġbiatriale":12916,"Ġperiprocedureel":12917,"ĠOne":12918,"Ġafgeraden":12919,"Ġdiltiazem":12920,"igtail":12921,"Ġaspecifiek":12922,"Ġprevious":12923,"Ġtricuspidalisklepinsufficientie":12924,"ĠMultipele":12925,"Ġaneurysmata":12926,"olerant":12927,"Ġpersisteren":12928,"Ġepigastrio":12929,"otrexaat":12930,"anterior":12931,"Ġinconclusief":12932,"Ġonderdruk":12933,"Ġafmetingen":12934,"Ġsomber":12935,"ĠVoorstel":12936,"Ġdragen":12937,"Ġbib":12938,"Ġanest":12939,"ĠRS":12940,"AH":12941,"Ġuitgesteld":12942,"Laborant":12943,"Ġvermoe":12944,"Ġmitralisklepstenose":12945,"ĠParacetamol":12946,"ĠHartkloppingen":12947,"arnidipine":12948,"Fenprocoumon":12949,"Ġadenocarcinoom":12950,"Pump":12951,"plicht":12952,"bs":12953,"ĠSpoed":12954,"ĠFerritine":12955,"agd":12956,"edel":12957,"ĠMaag":12958,"zalf":12959,"ĠPDA":12960,"Ġgebrek":12961,"Ġhoofdingang":12962,"Verwijs":12963,"ativa":12964,"Ġwatt":12965,"ĠHematokriet":12966,"Ã«mie":12967,"Alleen":12968,"Ġ183":12969,"voerder":12970,"Ġsyn":12971,"era":12972,"alpitatie":12973,"ĠProtecta":12974,"aanval":12975,"Ġadmin":12976,"ĠVCS":12977,"Ġprol":12978,"Ġsetting":12979,"ĠVal":12980,"Ġnec":12981,"ĠPJ":12982,"illectomie":12983,"ransthoracaal":12984,"cepten":12985,"Terug":12986,"Ġlevercir":12987,"Ġbesprak":12988,"kkeling":12989,"die":12990,"reductie":12991,"Ġoproepen":12992,"Verdere":12993,"ĠHartbewaking":12994,"ĠArtikel":12995,"dwandig":12996,"tel":12997,"Ġmilrin":12998,"basaal":12999,"ĠNE":13000,"Ġcostomy":13001,"Inspannings":13002,"kant":13003,"Ġafplatting":13004,"Ġsclerotisch":13005,"wijl":13006,"ĠGastro":13007,"ĠVerwezen":13008,"ĠBeide":13009,"Ġregistreren":13010,"ometason":13011,"Ġvs":13012,"ADL":13013,"Ġmarkers":13014,"Kleplijden":13015,"Ġopa":13016,"Screening":13017,"Maximale":13018,"Ġcongenitaal":13019,"Verwezen":13020,"profylaxe":13021,"Ġges":13022,"Ġrekanalisatie":13023,"ĠACIDO":13024,"ĠBorderline":13025,"rist":13026,"Ġmonitorzone":13027,"ĠNeurologie":13028,"Houdt":13029,"Ġovergezet":13030,"ernale":13031,"ĠIE":13032,"Ġgepaard":13033,"Ġcryo":13034,"ĠGeef":13035,"ĠBroer":13036,"ĠATPx":13037,"otiden":13038,"Ġ-/-":13039,"ĠQU":13040,"Ġlevervenen":13041,"laviculair":13042,"ged":13043,"Ġventrikels":13044,"Ġbovenbeen":13045,"undaire":13046,"reactie":13047,"Psych":13048,"ferrine":13049,"Ġrestrictieve":13050,"Ġaspiratie":13051,"ĠLCC":13052,"Ġbijhouden":13053,"thmie":13054,"IPV":13055,"juist":13056,"Telefoonnummer":13057,"isters":13058,"Ġvoicemail":13059,"Ġdonor":13060,"ĠLumb":13061,"iculaire":13062,"155":13063,"interval":13064,"Vrij":13065,"Heart":13066,"thoracaal":13067,"Eenmalig":13068,"Ġpartus":13069,"><":13070,"sues":13071,"Jicht":13072,"Ġneut":13073,"Ġ6935":13074,"Ġkortademigheidsklachten":13075,"alingen":13076,".),":13077,"bloedingen":13078,"Ġaxil":13079,"Ġgluc":13080,"Ġischemiedetectie":13081,"Ġzichzelf":13082,"Ġbronchus":13083,"Verwijsdatum":13084,"Ġheropname":13085,"ractuur":13086,"Dag":13087,"chloride":13088,"Ġcompet":13089,"Ġmitralisklepplastiek":13090,"Ġzalf":13091,"iliter":13092,"ĠDistaal":13093,"Ġgeleidingsstoornis":13094,"yline":13095,"ĊĊĊĊĊĊĊĊĠĊĊĊĊ":13096,"volgens":13097,"zame":13098,"RCX":13099,"Ġparoxysmen":13100,"Ġtoestand":13101,"Ġlaagdrempelig":13102,"Mee":13103,"Ġbewegingen":13104,"lowing":13105,"idiafragma":13106,"ĠMean":13107,"ACHD":13108,"Ġoverlegd":13109,"ĠLast":13110,"heugen":13111,"Ġbacteri":13112,"Ġreuma":13113,"lextachycardie":13114,"icla":13115,"amputatie":13116,"ĠType":13117,"Ġdri":13118,"onsillectomie":13119,"iveren":13120,"opau":13121,"ĠDistale":13122,"lumen":13123,"Ġnabep":13124,"Ġ5076":13125,"Ġcarb":13126,"Coronairangiografie":13127,"OHO":13128,"ĠVC":13129,"idon":13130,"ouffle":13131,"ĠWegens":13132,"Calcifications":13133,"Ġcardiomediastinale":13134,"Ġneer":13135,"Ġdalteparine":13136,"algeen":13137,"Ġontplooid":13138,"Ġbv":13139,"Regie":13140,"Ġsize":13141,"ikte":13142,"geschat":13143,"ĠApicaal":13144,"opyramide":13145,"Werk":13146,"ĠAfib":13147,"ĠVit":13148,"Ġpaniek":13149,"Ġpersoon":13150,"Ġimmun":13151,"Ġ7741":13152,"Ġcollapsneiging":13153,"Ġmilliliter":13154,"Ġholteronderzoek":13155,"geluk":13156,"Digoxine":13157,"amlodipine":13158,"oesophage":13159,"ĠCentraal":13160,"ĠPresentatie":13161,")|":13162,"collab":13163,"Ġmitralisinsufficientie":13164,"hom":13165,"Ġ!":13166,"ĠDIS":13167,"zekeringsnummer":13168,"ois":13169,"Ġhis":13170,"ĠAureus":13171,"QC":13172,"Ġwandelt":13173,"aciteit":13174,"Ġpolymorfe":13175,"dro":13176,"ĠVSM":13177,"iclazide":13178,"Ġbukken":13179,"BÃ¨tablokkers":13180,"Ġpack":13181,"Ġao":13182,"ART":13183,"Ġ029":13184,"Ġafgifte":13185,"ĠSintrom":13186,"alse":13187,"adenoom":13188,"roof":13189,"Ġ179":13190,"Hydrochloorthiazide":13191,"ĠSwitch":13192,"Ġelectrische":13193,"Ġnoch":13194,"uwen":13195,"orthop":13196,"abase":13197,"apr":13198,"Ġstruma":13199,"scor":13200,"ergen":13201,"Ġkamerlucht":13202,"fellow":13203,"CMO":13204,"ocardial":13205,"Ġvoorschrijven":13206,"Sup":13207,"Ġstond":13208,"113":13209,"INSPANNINGS":13210,"Ġberekend":13211,"ĠGraad":13212,"Ġenter":13213,"Ġincompleet":13214,"ĠGrote":13215,"Ġaberrante":13216,"Ġgeldt":13217,"ĠBetreft":13218,"ĠinterstitiÃ«le":13219,"OLOGIE":13220,"ĠEntresto":13221,"ĠBMS":13222,"omateuze":13223,"ĠCovid":13224,"Ġgisteravond":13225,"Ġzwangerschaps":13226,"ĠRitmestoornissen":13227,"Ġthuissituatie":13228,"kinson":13229,"Ġalarm":13230,"Bumetanide":13231,"Ġtransplant":13232,"Wanneer":13233,"aande":13234,"Ġembolisatie":13235,"Ġneven":13236,"Bep":13237,"erentiaal":13238,"Aut":13239,"oir":13240,"Ġvensters":13241,"Ġmeniscus":13242,"ĠNegatief":13243,"sep":13244,"hartfalen":13245,"ĠAAI":13246,"Lipidenverlagers":13247,"Ġconstrictiva":13248,"IREN":13249,"ĠGeslaagde":13250,"Ġoverall":13251,"mpje":13252,"Ġschatten":13253,"ĠMaakt":13254,"Ġster":13255,"iÃ«ctasieÃ«n":13256,"focus":13257,"dipyridamol":13258,"Isch":13259,"Ġgehalveerd":13260,"coronaire":13261,"Ġmultiforme":13262,"Ġbenadering":13263,"Ġrhe":13264,"/|":13265,"ĠBekken":13266,"ademigheid":13267,"ĠLWK":13268,"aca":13269,"ĠLBBB":13270,"Ġdiastologie":13271,"Gegevens":13272,"scop":13273,"109":13274,"Oxycodon":13275,"Ġ195":13276,"Lichte":13277,"Ġoverweg":13278,"Ġinguinalis":13279,"Ġoxazepam":13280,"Bisoprolol":13281,"Ġscl":13282,"uitgang":13283,"Ġ750":13284,"Aanwezige":13285,"Ġ186":13286,"ĠCORONAIREN":13287,"ĠCoA":13288,"herapie":13289,"Ġpers":13290,"Ġsonde":13291,"rocortison":13292,"Ġtro":13293,"Ġbaso":13294,"ĠWervelkolom":13295,"ĠDagelijks":13296,"assoc":13297,"ĠAnemie":13298,"ĠPlan":13299,"Ġbiplane":13300,"Ġangiogram":13301,"SSS":13302,":_":13303,"AZN":13304,"HM":13305,"fort":13306,"Ġfemur":13307,"Ġcoxartrose":13308,"imit":13309,"ĠVESSEN":13310,"Ġtherapeutic":13311,"loze":13312,"schap":13313,"Ġpyel":13314,"lem":13315,"neus":13316,"veline":13317,"ĠGeleid":13318,"Ġreductie":13319,"VH":13320,"ĠWT":13321,"deviatie":13322,"Fragmin":13323,"Ġnebivolol":13324,"ĠProx":13325,"ĠSoepel":13326,"Ġzichtbare":13327,"adsvasc":13328,"Dimensies":13329,"Ġzwak":13330,"Ġnifedipine":13331,"Ġabdominaal":13332,"Ġ159":13333,"Hist":13334,"TDI":13335,"zit":13336,"alcificeerd":13337,"iclovir":13338,"ioseal":13339,"Ġtraden":13340,"EMIE":13341,"adrant":13342,"pora":13343,"thuismedicatie":13344,"ĠTBC":13345,"achter":13346,"Ġpg":13347,"Ġhooggradig":13348,"resten":13349,"pneumonie":13350,"Ġrit":13351,"vormig":13352,"ĠDenkt":13353,"ĠElektrocardiografie":13354,"iotens":13355,"Ġprogrammering":13356,"Retourreden":13357,"iseerde":13358,"Ġbru":13359,"Nitraten":13360,"Ġwenselijk":13361,"Ġlongveneflow":13362,"ĠPassag":13363,"gebruikt":13364,"oeling":13365,"diagnostisch":13366,"Ġzinvol":13367,"stim":13368,"ĠBF":13369,"ĠBoven":13370,"ĠBar":13371,"ĠOverigens":13372,"Ġpulmonaalven":13373,"Ġinspanningsonderzoek":13374,"Ġstep":13375,"Anatomie":13376,"Ġcardiologisch":13377,"ĠTE":13378,"ĠFemor":13379,"ĠOpvallend":13380,"Huidhechting":13381,"Ġequaal":13382,"verdeling":13383,"ĠHyd":13384,"AA":13385,"Elektrofysiologisch":13386,"Ġaxillair":13387,"Ġomstandigheden":13388,"Ġrhonchi":13389,"ucht":13390,"Scar":13391,"Ġadipeus":13392,"Ġknieprothese":13393,"ody":13394,"Ġfysiotherapeut":13395,"Ġhevig":13396,"Oper":13397,"holte":13398,"verteerd":13399,"irium":13400,"Ġgediagnost":13401,"Ġextractie":13402,"Ġpostuur":13403,"rinsieke":13404,"Proximale":13405,"Ġintercollegiaal":13406,"ĠDur":13407,"Ġgedocumenteerd":13408,"ĠNederlandse":13409,"ĠNO":13410,"Moe":13411,"Ġgroep":13412,"Slechte":13413,"Ġpalli":13414,"Ġatriumfibrillatie":13415,"mob":13416,"Ġkaken":13417,"Ġoverslag":13418,"Ġverticale":13419,"Ġcarcin":13420,"interventie":13421,"vocatietest":13422,"dissectie":13423,"111":13424,"Ġhyperreactiviteit":13425,"Ġvoorste":13426,"jaag":13427,"Ġaanspreek":13428,"sief":13429,"point":13430,"OSAS":13431,"ĠZiek":13432,"Temazepam":13433,"Ġbrug":13434,"Ġbijkomende":13435,"Ġbank":13436,"Ġgehouden":13437,"iotensine":13438,"Ġmmhg":13439,"ĠRookt":13440,"ardig":13441,"para":13442,"ĠIABP":13443,"Ġzoutbeperking":13444,"Ġguid":13445,"Ġinziens":13446,"ĠVerzekeringsnummer":13447,"ĠContact":13448,"ietst":13449,"SJM":13450,"ĠEosinofielen":13451,"lon":13452,"Ġsubple":13453,"ĠDrie":13454,"Ġvalve":13455,"ĠWeinig":13456,"onefritis":13457,"Ġirreversibel":13458,"andesartan":13459,"iceerd":13460,"ĠDuizeligheid":13461,"wissel":13462,"boog":13463,"Ġbeoordelend":13464,"ompenseerd":13465,"Ġtenminste":13466,"Ġwervels":13467,"Ġgold":13468,"Ġpuf":13469,"Ġgecompliceerde":13470,"deri":13471,"Ġplekken":13472,"Ġzoveel":13473,"Ġverbeterend":13474,"Ġrithme":13475,"Ġcompartimenten":13476,"by":13477,"Ġisoprenaline":13478,"ZUUR":13479,"ĠBronch":13480,"eem":13481,"Ġbeiden":13482,"restor":13483,"Depressie":13484,"ĠDA":13485,"Ġstuwingskenmerken":13486,"Ezetimib":13487,"snr":13488,"beperkt":13489,"Ġnaald":13490,"Ġzwart":13491,"Ġmelanoom":13492,"Calcificaties":13493,"Ġfirma":13494,"Ġbijdragend":13495,"atriaal":13496,"Ġhypox":13497,"Ster":13498,"Ġsouff":13499,"Ġtabl":13500,"enshuis":13501,"Ġrechtszijdig":13502,"ĠEnergen":13503,"Ġreconnectie":13504,"Orthopedisch":13505,"SY":13506,"Ġfusie":13507,"Ġintraventriculaire":13508,"derivaten":13509,"Ġvoren":13510,"RIL":13511,"Ġdiscus":13512,"Ġdiagonal":13513,"Ġneo":13514,"Ġld":13515,"gebreks":13516,"existente":13517,"Nuchter":13518,"Ġdownsloping":13519,"Ġverdwijnen":13520,"tr":13521,"idol":13522,"Ep":13523,"SG":13524,"haald":13525,"Ġ480":13526,"atoren":13527,"proxim":13528,"Calciumantagonisten":13529,"Ġtroponines":13530,"Ġimaging":13531,"ĠWest":13532,")-":13533,"oxazol":13534,"Ġgedi":13535,"Ġdefinitieve":13536,"Ġbewustzijnsverlies":13537,"Minimal":13538,"Ġtachycard":13539,"Ġgecollab":13540,"Ġsclerotische":13541,"Ġdyssynchronie":13542,"gegaan":13543,"endroninezuur":13544,"ĠJicht":13545,"analyseerd":13546,"Ġborstkas":13547,"Ġontwaterd":13548,"Ġopgeknapt":13549,"vloe":13550,"MCG":13551,"bele":13552,"ience":13553,"patch":13554,"rond":13555,"Ġopportuun":13556,"iemie":13557,"verschijnselen":13558,"Coumarine":13559,"otrim":13560,"Ġurologie":13561,"apine":13562,"Ġcombinatieafspraak":13563,"rouwd":13564,"matische":13565,"Ġslaapap":13566,"ubatie":13567,"raakt":13568,"Ġmol":13569,"Ġhechting":13570,"raagde":13571,"Ġregistry":13572,"Appendectomie":13573,"tumor":13574,"etiek":13575,"Ġverward":13576,"Ġstreven":13577,"Ġparese":13578,"Ġteveel":13579,"ĠDopamine":13580,"Ġfunktie":13581,"uided":13582,"rogrammering":13583,"Ġbloedonderzoek":13584,"Ġpraten":13585,"neemt":13586,"Ġspecialistische":13587,"Ġwijzigingen":13588,"Ġsuboptimaal":13589,"Ġhetero":13590,"mper":13591,"oestand":13592,"Ġzelden":13593,"Ġbegrensd":13594,"No":13595,"HG":13596,"dekken":13597,"comma":13598,"Ġenigszins":13599,"gevoeligheid":13600,"Ġmi":13601,"gedurende":13602,"ucleaire":13603,"TVR":13604,"Ġpolsfrequentie":13605,"Ġvlot":13606,"ĠBehoudens":13607,"kram":13608,"emd":13609,"issuur":13610,"ĠFL":13611,"Ġfebr":13612,"Ġfout":13613,"Ġgeschikt":13614,"Ġischem":13615,"Ġcef":13616,"EDV":13617,"ĠOut":13618,"aptatie":13619,"aled":13620,"ĠCataract":13621,"ĠPCM":13622,"ervisor":13623,"Ġartefact":13624,"Ġadviseerde":13625,"Ġvasovagale":13626,"Ġeenmalige":13627,"ĠSyst":13628,"ĠPermanent":13629,"Ġocclusies":13630,"Ġbeneden":13631,"ĠAFC":13632,"RAAG":13633,"ĠMitraclip":13634,"pes":13635,"Ġleuko":13636,"dagen":13637,"Ġviraal":13638,"Prasugrel":13639,"Ġdos":13640,"Ġlumbaal":13641,"Ġkilometer":13642,"Ġvernevel":13643,"Coumarinederivaten":13644,"Ġ1200":13645,"Ġlegitimatie":13646,"Ġhydrochloorthiazide":13647,"Ġhinge":13648,"Ġhernieuw":13649,"ĠBasofielen":13650,"contour":13651,"Ġimmob":13652,"?,":13653,"sdatum":13654,"Werkt":13655,"ĠSchouder":13656,"ĠInstabiele":13657,"riteria":13658,"edie":13659,"ĠbeÃ«":13660,"Ġpret":13661,"Ġtoegestuurd":13662,"Ġlongvaat":13663,"Ġeiwit":13664,"Ġdivert":13665,"Ġspiro":13666,"Ġvervolgafspraak":13667,"inetijd":13668,"Ġomslag":13669,"Ġintraveneuze":13670,"kans":13671,"kanaal":13672,"ĠTeligen":13673,"ittend":13674,"chte":13675,"Ġtacrolimus":13676,"Ġbloedverdunners":13677,"Ġbijzondere":13678,"rac":13679,"edemen":13680,"Ġcontraherende":13681,"iotropium":13682,"ision":13683,"Ġlegitimatiebewijs":13684,"Ġbijv":13685,
[...]
