#version: 0.2
e n
e r
a n
Ġ v
d e
i n
i e
a t
Ġ de
e t
a r
g e
Ġv an
Ġ m
o r
i j
c h
Ġ h
i s
o n
s t
Ġ b
a l
e l
Ġ en
Ġ e
Ġ w
Ġ d
Ġ p
r e
Ġ t
Ġ o
in g
r o
Ġ ge
t en
Ġ in
Ġe en
Ġ (
d en
o or
i t
Ġ a
d er
Ġm et
l e
Ġv er
is ch
d i
c t
Ġ s
Ġh et
Ġ c
isch e
Ã «
Ġ n
l a
o m
at ie
at i
o l
a s
t e
Ġ z
Ã« n
a ar
i c
Ġb e
Ġ k
er d
Ġv oor
ati Ã«n
i d
ij k
Ġ on
en t
o e
g en
Ġp atiÃ«n
r a
Ġo p
de l
ar t
ĠpatiÃ«n ten
Ġa an
Ġ 1
o t
Ġb ij
o g
Ġ st
o c
k en
o p
i re
D e
ar di
r i
a m
s e
al e
Ġ l
Ġ re
s s
Ġh art
i g
u l
Ġ g
ct ie
u n
Ġt e
ch t
ie k
v e
Ġ is
r u
Ġon der
in e
Ġd ie
h e
Ġ f
Ġ 2
v er
Ġ C
s ch
ij n
Ġw er
Ġ r
Ġ al
e e
s p
u r
i l
l en
Ġw erd
an t
k el
u m
Ġ De
Ġ A
e p
ing en
Ġwer den
Ġt ot
i k
Ġo f
u la
i f
z e
an g
v al
v en
y p
h an
i a
d ie
st e
ula ire
he id
u s
Ġ I
Ġw or
Ġ H
Ġ u
e er
Ġd oor
Ġw as
Ġz ijn
h o
e s
Ġo m
a k
l ijk
t er
Ġn ie
er s
Ġonder z
Ġ E
el e
oe d
Ġw aar
Ġ le
Ġc ardi
Ġu it
is ic
Ġ 3
Ġd at
r an
Ġh e
Ġ j
a p
u t
id del
u w
0 0
han del
Ġ er
er en
- -
) .
Ġge b
Ġc on
isic o
z iek
i m
at h
Ġn a
o s
an d
f f
Ġ P
f t
om en
ent r
Ġb l
Ġnie t
or m
er e
Ġ S
Ġ B
as s
la g
y c
a at
if ic
ro ep
Ġ 0
t ro
Ġp ro
a d
Ġr isico
n en
) ,
it e
a al
el d
a an
Ġbe handel
b b
ijk e
in der
a g
Ã ¯
as c
oc ardi
Ġge m
m ie
o se
e c
Ġh yp
bb en
Ġhe bben
z a
a ct
Ġs y
* *
Ġal s
a ire
l o
u die
Ġo ver
v ol
Ġj aar
ij d
ite it
on der
b et
Ġp er
Ġonderz oe
o v
Ġde ze
m en
ar en
Ġ 4
Ġ M
ss en
Ġwor den
asc ulaire
i de
i ge
ziek ten
k er
ig n
ge lijk
Ġ T
Ġm y
an der
l in
atie s
o d
e g
Ġ 5
Ġd ia
a b
Ġ V
e erd
Ġst udie
v o
u ssen
d u
Ġ D
er f
' s
ent ie
Ġ L
ru ik
Ġs ign
ar d
Ġk an
og ra
d t
Ġ ische
Ġe ff
Ġbl oed
Ġon t
ul t
Ġt ussen
Ġbehandel ing
om y
i den
o on
Ġver ho
Ġ 6
Ġver m
ij den
s ie
Ġ N
Ġa f
. "
Ġw aren
i on
a st
at en
Ġsign ific
e m
o st
i v
or en
am e
er de
ol og
b e
Ġhyp er
( (
Ġgeb ruik
re ss
s m
o le
o en
+ /
al en
Ġd an
or t
Ġl in
ov asculaire
ro uw
a ch
i b
Ġp re
Ġz o
e ctie
Ġwor dt
Ġc or
Ġh ad
Ġ -
t ra
Ġcardi ovasculaire
at ri
ent ri
un ctie
lin ische
a der
Ġver sch
a c
Ġ gen
entri kel
Ġonderzoe k
m e
ĠI n
oc ard
Ġverho og
+/ -
i ch
o k
Ġb et
Ġm aar
Ġd o
Ġh o
w e
ru k
al y
Ġm o
i p
Ġ =
i er
Ġ O
Ġs p
w ij
h er
e ct
-- --
op ath
Ġk linische
Ġv ol
Ġverm inder
el l
f ie
Ġ la
m p
r on
er k
Ġt oe
ie erd
entr ic
Ġa c
val len
Ġ 9
atie ve
a f
tro le
c on
Ġm an
ar die
is t
w ee
ijden s
Ġs u
Ġv aat
yc ardie
Ġversch il
Ġ ant
e ft
aly se
ro om
en de
Ġuit ge
o f
entric ulaire
Ġb el
eer de
Ġre s
Ġlin ker
Ġm e
om p
g roep
m m
an te
u ur
o x
t ie
Ġz iek
ach ycardie
Ã¯ n
on aire
s el
opath ie
Ġ R
Ġg roep
ass oc
za ak
ig heid
Ġvaat ziekten
Ġ +/-
w el
i en
Ġge assoc
Ġmy ocard
Ġ 7
Ġbel ang
eft ijd
u i
Ġv rouw
Ġge en
Ġ ch
Ġal le
Ġw e
val u
ven s
us ie
n d
Ġ ro
Ġgeassoc ieerd
Ġ W
Ġ atri
lag ader
di g
k e
Ġle eftijd
er ing
iddel de
an alyse
in f
i o
Ġg ro
her ap
s en
Ġe er
i cht
ten sie
Ġt er
b aar
Ġin f
Ġbe p
omy opathie
Ġonderz o
Ġac u
Ġk ran
d ruk
Ġont w
0 1
g n
% )
i r
ress ie
di ge
Ġt ijdens
el len
l atie
gen omen
ik kel
Ġcor onaire
i Ã«
z en
y s
: **
m ische
Ġt achycardie
ing s
Ġk un
q u
c e
Ġverschil len
on d
Ġkun nen
p ro
as e
Ġhart f
Ġp la
H et
Ġontw ikkel
Ġ 8
ge st
Ġd it
act oren
Ġst erf
Ġbelang r
Ġt wee
Ġbe sch
Ġver oor
ar it
at e
Ġkran ss
ult aten
in d
Ġhad den
Ġv entriculaire
Ġin ter
Ġsignific ant
Ġge z
ĠB ij
c entr
Ġw ij
s y
Ġcon trole
l u
c ardi
cht er
Ġver gelijk
Ġ1 0
ĠpatiÃ«n t
Ġ G
Ġn aar
ri l
vo erd
Ġdia bet
ec ten
Ġver ander
ar e
k ing
Ġuitge voerd
Ġvrouw en
n ame
Ġm in
Ġz onder
Ġe x
Ġonderzo cht
ge le
Ġm eer
on en
ĠH et
r ij
ep t
n st
Ġgem iddelde
ar ct
et en
ge vens
ee ft
st er
s lag
atiÃ«n ten
al s
olog ische
u p
i ve
Ġv entrikel
gen de
V D
ocardi ocardi
Ġsterf te
herap ie
nd room
a ak
Ġge vol
Ġverhoog de
ziek te
ro m
iÃ« le
on den
Ġc omp
d oen
Ġh og
ogra fie
Ġres ultaten
Ġm g
Ġische mie
c l
ie ken
Ġstudie s
Ġ ang
Ġh eeft
Ġveroor zaak
Ġer nst
Ġver bet
Ġ ander
ib ril
der e
I n
Ġkranss lagader
i um
Ġn orm
w aar
Ġge d
el ijk
e en
u is
ul p
ati on
Ġre g
iv iteit
mp t
Ġa ct
Ġeff ecten
gn ose
Ġdo el
a ctie
v an
iddel en
Ã ©
Ġ art
Ġhyper tensie
st ol
e f
it ie
m er
l ant
Ġbe st
Ġhartf alen
' -
Ġt ran
Ġ1 9
p er
Ġatri um
b ij
Ġho ge
Ġ ele
m in
p en
r it
o gen
Ġziek te
Ġh er
v entie
g aan
n el
Ġo ok
yp e
Ġander e
Ġ1 2
Ġman nen
p atiÃ«nten
Ġ im
Ġdiabet es
lo w
an e
b are
'- '-
g et
Ġs ch
Ġsignific ante
Ġe valu
. .
C M
han kel
Ġ F
ul atie
f unctie
r ie
iek e
Ġen d
op er
arit mie
l ic
Ġbe h
inf arct
et er
e u
a ge
Ġrisico f
---- ----
Ġa b
Ġeer ste
Ġeff ect
aan den
Ġge gevens
M I
am en
Ġm ee
Ġaan doen
ur ende
at ten
r en
ie den
Ġm aanden
on g
g ra
u d
el atie
ro p
Ġp ost
Ġvoor sp
Ġwaar bij
ch ocardi
we z
h al
n am
ol low
Ġo or
Ġaan get
a am
f ibril
k omen
(( ((
Ġn o
ge b
Ġre sp
Ġv e
Ġische mische
B ij
ieken h
Ġb as
Ġge vallen
oon de
Ġant i
Ġv ast
k t
Ġver b
Ġsy mpt
ĠE r
Ġcardi omyopathie
Ġacu te
u den
Ġgebruik t
centr aties
Ġin tra
or g
Ġverschillen de
Ġ [
ch an
Ġonderzoe ken
Ġaan t
ken d
Ġmo gelijk
Ã Ĥ
Ġbloed druk
Ġm m
Ġgevol g
c ent
gele ken
ron ische
m o
f ische
Ġverander ingen
d at
D L
Ġm iddel
Ġv s
gest eld
oc i
ĠL V
ole ster
o h
del ijk
Ġbe oor
Ġd a
sch ap
op ro
k ers
v entrikel
l oed
k s
af hankel
A D
al is
m ent
Ġz iekenh
olog ie
Ġk w
Ġt oen
Ġver k
ive a
Ġs c
Ġde el
h y
Ġbeh ulp
Ġv ar
ion ele
Ġf ollow
stol ische
C S
re gen
Ġ <
ĠE en
t ific
Ġzo als
Ġnie uw
heid s
Ġp ers
Ġwaar genomen
Ġw at
Ġge Ã¯
Ġ aritmie
Ġl ich
Ġ ra
Ġbe v
an n
Ġg er
Ġdia gnose
Ġe p
oon d
Ġver geleken
en d
z ien
at or
Ġro l
io de
Ġmyocard ische
re qu
Ġk en
Ġch ronische
Ġaanget oond
ge l
Ġ analyse
di c
ĠW e
ĠC VD
g ing
Ġhart ziekten
Ġsu b
Ġbas is
Ġm inder
Ġa p
oc y
p ressie
Ġ3 0
Ġbelangr ijk
ĠC I
is ten
ij f
C G
Ġverhoog d
Ġaan wez
k om
Ġernst ige
de eld
Ġe chocardi
Ġme chan
Ġaant al
Ġm en
Ġp ar
en te
act or
Ġd is
Ġvoor komen
Ġ9 5
Ġo u
Ġm a
in ter
re s
Ġgen ee
Ġnorm ale
n e
st ru
Ġf unctie
Ġl ang
ic ro
Ġziekenh uis
Ġge s
Ġged urende
ĠA F
u b
Ġ1 5
Ġd rie
c iden
o ten
ge sch
Ġsympt omen
ri g
olester ol
f ra
Ġ2 00
Ġrisicof actoren
Ġ2 0
m et
o ven
el ijke
sm iddelen
p erf
Ġ el
Ġveroorzaak t
Ã¯n e
at ische
Ġwaar onder
ath er
du c
Ġzo wel
ocardi ale
Ġge p
Â ±
n t
Ġd i
ieden is
de x
lant atie
om b
ctie ve
et ische
ell ing
z oe
Ġb ere
za ken
0 5
Ġgroep en
cl er
ectie v
j ectie
Ġbe g
e st
Ġal ge
Ġ Z
Ġm on
Ġop er
Ġgem eten
ĠI I
st and
opro te
ee m
ectiev elijk
Ġ Q
Ġr elatie
E en
aar d
Ġgez ond
eren de
Ġbelangr ijke
ss oci
os itie
Ġt en
Ġverminder de
Ġacu ut
y m
del ijke
perf usie
Ġhyper tro
lo k
% ,
Ġmet ab
Ġhe m
Ġ1 1
t ran
os cler
Ġh un
Ġlinker ventrikel
wij l
re k
la at
v ang
Ġresp ectievelijk
la mm
rom b
Ġge le
Ġ ather
Ġhog er
Ġ lag
ass en
Ġda gen
Ġp l
Ġ K
del en
Ġp ol
Ġt ype
Ġonder gaan
ie s
Ġverb and
requ entie
Ġver t
Ġu ur
el f
Ġontwikkel ing
u te
Ġin ciden
ys i
Ġb le
t ing
Ġla ge
Ġver s
j es
e d
Ġnieuw e
w icht
Ġbehandel d
Ġart er
Ġm icro
Ġevalu atie
Ġst at
ri m
Ġre c
Ġsy ndroom
is me
Ġs le
Ġmee st
Ġ >
C D
Ġvergelijk ing
ken de
Ġ2 4
vo el
9 5
er o
u g
Ġz e
Ġw ee
Ġs er
w ijk
Ġver w
Ġtran s
Ġl ong
Ġe i
d o
od y
ĠDe ze
00 1
f in
il le
Ġter wijl
Ġim p
at er
Ġpers onen
om yc
oe wel
Ġz ich
v orm
Ġge de
kom st
a cht
Ġl ip
omy omy
Ġgenee smiddelen
a de
w it
Ġken mer
Ġziek ten
1 0
gen s
ag n
en ing
Ġaandoen ingen
Ġk inder
ar i
Ġ1 4
Ġp at
Ġho og
Ġ U
c es
ar m
le x
ocardiocardi ocardiocardi
l ij
fibril latie
op ulatie
is atie
u it
st en
) ;
t ig
Ġdo od
Ġp rim
ri ge
ot h
erk t
o ire
id ing
Ġ1 3
el en
op p
lic aties
ho uden
Ã ³
w assen
ge m
os is
Ġm ult
mo del
Ġtoe ge
oper atieve
g er
con centraties
Ġon afhankel
Ġover le
l yc
kel ijk
Ġte gen
Ġtot aal
cent age
v at
ĠE CG
d ra
Ġvast gesteld
Ġs nel
Ġvol wassen
aak t
Ġge Ã«
Ġsp ec
Ã© n
cht s
Ġa ssoci
Ġinciden tie
Ġn e
el at
Ġp oten
v ing
ke u
ĠS T
v loed
l ip
Ġhog ere
st elling
Ġather oscler
Ġact iviteit
Ġmin u
C A
Ġprim aire
1 2
Ġme d
Ġb i
n is
Ġv ro
Ġv aak
in nen
ind ingen
i ale
Ã© Ã©n
be handel
Ġn ivea
t re
Ġtoen ame
ati o
Ġt oonde
) )
Ġop genomen
e x
di en
er g
am ine
N A
Ġt ra
Ġvoor vallen
lu c
Ġon ge
Ġ1 8
s ul
Ġ Ã©Ã©n
u re
p h
Ġaanwez igheid
C I
du ctie
Ġo b
Ġalle en
cardi omyopathie
ĠgeÃ« valu
Ġhart slag
Ġd aar
Ġtot ale
Ġbep alen
or st
r el
Ġt romb
Ġv orm
'-'- '-'-
fra ctie
Ġbep aal
.. ..
on de
d s
Ġe chter
y l
Ġn ier
im ale
Ġst ress
H D
ic a
k ken
wijk ingen
Ġbelangrijk ste
un ct
ch ten
Ġaritmie Ã«n
n em
f sel
ath eter
Ġinf lamm
Ġge voel
Ġz w
ce du
Ġs amen
del ing
Ġge sch
in a
Ġpla at
Ġp ositie
st eem
o de
he den
Ġle ver
con trole
or b
ch n
Ġische m
Ġhart ziekte
Ġv et
1 1
ogra m
Ġper iode
ĠgeÃ«valu eerd
Ġm it
k g
Ġ1 6
Ġ2 5
oth el
Ġre chter
Ġge val
e k
ra cht
Ġge v
or e
er t
Ġle id
is men
ogen e
Ġd osis
y t
Ġa ort
t ij
Ġk le
gesch iedenis
ĠN a
un d
Ġg ere
Ġt ijd
Ġwe ken
-------- --------
ui zen
lijk e
W e
ar ten
p ass
Ġele ct
am il
ui dige
Ġkinder en
st ig
Ġo ef
Ġwer k
ogra fische
Ġb orst
omb in
at eg
Ġminu ten
Ġa ut
o ver
i Ã«n
ot ische
Ġact iv
at oire
re ven
Ġt herapie
Ġab latie
p p
p laat
Ġve el
m b
Ġang i
omyc omyc
eu ze
Ġ iden
Ġkenmer ken
Ġv oed
Ġf actoren
al ing
Ġgevolg d
Ġcomp licaties
Ġbe ide
Ġlich aam
ul ar
wij z
if ieke
st room
Ġre perfusie
Ġarter iÃ«le
Ġinter ventie
Ġhart infarct
v ent
Ġ an
Ġ5 0
Ġre actie
ĠA l
ab ie
zoe k
er te
ati ge
Ġl an
oh ort
Ġh uidige
ot sel
ie d
C T
r ische
Ġ "
Ġend othel
Ġpre ventie
k an
ff en
inter val
Ġmy ocardiale
Ġv asculaire
ia b
Ġmo del
c op
o ch
in ge
nem ers
atie f
on t
Ġ4 0
sp ro
ant ie
b re
Ġr atten
Ġp ac
Ġd ag
ĠA CS
st el
sp lantatie
Ġveroorzaak te
Ġc ombin
Ġn eg
Ġgro ter
R P
Ġb ero
g ressie
it is
Ġbero erte
st of
Ġser um
de el
Ġmed ische
Ġ Ġ
Ġverminder en
ĠV T
Ġechocardi ografie
ody nam
Ġiden tific
Ġgez onde
Ġp opulatie
Ġle iden
z et
Ġvro eg
Ġsy stolische
men e
p ar
Ġges la
v oor
hal te
Ġaan ge
gen e
al c
Ġvers us
Ġ1 7
Ġst ee
e el
te st
Ġv rij
Ġz org
Ġgro te
di a
we ge
Ġalge mene
Ġop name
t s
1 9
Ġpl otsel
Ġatrium fibrillatie
A C
at uur
m ijn
L V
Ġbev indingen
centr atie
Ġs ec
ten s
e ut
Ġle vens
Ġpla sm
al l
Ġbet ro
Ġz waar
f er
Ġte st
cl usie
Ġp ijn
Ġk regen
c omp
lij v
Ġgem aakt
ĠO n
Ġsu c
Ġf unct
Ġwee fsel
ar kers
V T
j ar
Ġbet rouw
Ġn og
Ġwij zen
Ġcombin atie
Ġd ruk
Ġbl ij
Ġd ui
vol gende
luc ose
Ġg oed
1 5
ĠV er
l ig
em b
H R
Ġmyocard infarct
groep en
Ġb en
A F
behandel ing
Ġb innen
vorm ing
E r
N P
ie ve
l ing
val entie
ept or
st r
Ġoper atie
O m
0 2
Ġs in
Ġzwaar lijv
Ġter ug
Ġmetab ole
c ellen
gn ost
Ġn on
Ġmet ho
n a
S T
jar ige
Ġaandoen ing
om m
Ġsy ste
Ġdis functie
o ot
waar den
den tific
ri p
et ers
Ġang ina
jectie fractie
Ġen kel
u de
am er
Ġcon tra
Ġoor zaken
Ġ2 01
ĠS t
u le
e i
el de
b le
st oor
re actie
orm atie
ic iÃ«n
% ),
V A
Ġ6 0
De ze
Ġin sul
Ġbetro kken
ion ale
Ġgro ot
Ġelect ro
ar c
Ġper centage
ch olesterol
i kel
Ġ ru
nt slag
tij dige
Ġvoorsp ellen
Ġbeoor deeld
R S
I I
Ġv ier
Ġaf wijkingen
Ġk la
ĠgeÃ¯ dentific
za am
f usie
pass ing
an ks
Ġ19 9
un t
Ġpat ho
Ġst erk
A P
Ġ et
herap eut
ro se
oe den
Ġd uur
i ru
Ġn u
st udie
Ġg ra
Ġverminder d
Ġin vloed
Ġverminder ing
1 4
act iviteit
abie le
Ġbepaal d
Ġhem odynam
Ġdeel nemers
Ġa d
Ġverk regen
yp er
Ġsuc ces
Ġbe kend
Ġonder ste
Ġevalu eren
Ġver z
m on
ysi ologische
v ul
Ġassoci atie
gem iddelde
Ġv ia
Ġc ellen
b lok
Ġhypertro fische
Ġno dig
oe de
O R
Ġvoor geschiedenis
Ġmechan ismen
Ġst im
in ale
ĠH e
Ġbetrouw baar
m i
Ġ i
Ġc ohort
r isico
der en
s se
o b
Ġh and
Ġ1 00
wij s
Ġve il
fibril l
Ġvan wege
Ġpre valentie
houden de
Ġplaat s
a x
Ġgevoel igheid
Ġt herapeut
1 3
el den
Ġverbet ering
Ġla ag
ve stig
w erk
Ġ or
orb id
Ġe ind
Ġeff ectie
oven dien
ir c
Ġon ze
ĠC h
Ġ ri
al iteit
il iteit
ijn en
Ġge Ã¯n
ve er
Ġh oe
m at
id u
op en
le p
nis sen
Ġwer king
os f
Ġble ek
Ġr atio
rit me
ateg ie
gra mm
di agn
f a
Ġgede fin
Ġz eer
Ġge analyse
re mm
k se
om e
di l
rek king
Ġvert oonde
Ġf ib
2 0
R T
k te
s er
Ġvar iab
keu rig
Ġbesch ik
m iddel
Ġpro te
am eters
ia al
Ġvoorsp ell
Ġno od
b o
Ġge lijk
S A
Ġim m
h og
ĠgeÃ¯dentific eerd
Ġl o
Ġch olesterol
C VD
it y
% ).
Ġlag ere
Ġz elf
Ġvergelijk baar
Ġin dex
O ntslag
Ġcontrole s
ge en
Ġbet a
Ġger elat
re g
ud ing
Ġgezond heids
k tro
Ġer op
Ġou dere
Ġpro gressie
Ġplotsel inge
g ol
Ġbl oot
or te
re c
y ndroom
E F
i ten
is ode
f isch
on e
s c
Ġgeanalyse erd
2 5
ak er
dat um
v as
n orm
Ġge c
Ġn ut
ich te
Ġvol le
Ġpoten t
vo u
h a
Ġin di
s ole
y sm
Ġactiv atie
r in
Ġra pp
or ph
Ġsc ore
cedu re
g ang
Ġbe Ã¯n
de m
lyc er
Ġvoorkomen de
at ine
Ġbe vol
Ġnivea us
sch ijn
00 01
ell ulaire
o la
Ġgeb as
om atische
Ġzwaarlijv igheid
z uur
sp re
schap pen
Ġra di
er den
Ġmee ste
um e
m y
Ġwaar de
Ġla at
Ġvolwassen en
B P
ic ardi
la gen
l ante
rit er
Ġgezond heid
Ġe ven
ite iten
Ġmogelijk e
Ġh arten
Ġaan houdende
ĠD it
Ġw ille
v idu
Ġbesch er
et ro
Ġreg ressie
d oor
stoor nissen
Ġoor zaak
Ġsin us
Ġver wij
Ġbeg in
di p
d it
Ġbest aan
Ġeer der
d ro
Ġel k
plaat jes
lo b
A T
he se
Ġei wit
Ġgeb ied
Ġbij dra
% .
Ġf amil
1 6
Ġfunct ionele
Ġge k
G F
Ġlag er
Ġsec und
Ġbetrouwbaar heids
Ġoef ening
em ische
Ġc alc
Ġatheroscler ose
gnost ische
Ġm il
Ġte chn
we zen
ogra fisch
ole c
Ġbere ik
ire ct
Ġna uw
Ġst and
ĠC ardi
Ġ J
Ġst r
Ġl ijk
O n
ver s
Ġhyp ot
Ġv it
Ġzo u
t h
Ġ at
ĠW ij
Ġaan zien
ĠgeÃ¯ sole
Ġper fusie
Ġdia stolische
t o
Ġg lucose
men ten
Ġneg atieve
Ġex tra
Ġsle chts
(((( ((((
aal de
baar heid
Ġmo et
Ġma x
ie t
it us
w oor
lo op
Ġl it
Ġtherapeut ische
Ġd y
sp ann
Ġop een
Ġbet rekking
Ġvoor af
ers en
Ġep isode
Ġd irect
Ġover l
Ġgedefin ieerd
Ġleid t
ĠB ovendien
st an
Ġv ijf
w ak
Ġel ke
Ġwaar door
d ag
Ġ **
Ġidentific eren
ide mie
Ġbeoor delen
orbid iteit
Ġopeen volgende
riter ia
Ġ and
M P
o Ã¯
ie f
Ġm oe
Ġz uur
onder zoek
3 0
v entriculaire
Ġge wicht
la st
Ġop tre
Ġin ge
p ra
z onder
Ã¯ nen
Ġpar ameters
ell itus
Ġ2 2
5 0
1 8
Ġpla ce
h yper
in dex
Ġbe eld
der ing
Ġpositie ve
ur en
Ġof wel
Ġaan vang
Ġde pressie
Ġlin kse
Ġgem eld
an ten
Ġo x
Ġa sp
Ġro ken
Ġm ellitus
oh ol
Ã³ Ã³
Ã³Ã³ r
men de
Ġonafhankel ijke
Ġendothel iale
Ġgesla cht
iciÃ«n tie
Ġrisicof actor
Ġn ame
4 0
a ste
Ġw and
t herapie
arm ac
Ġverbet eren
Ġgerelat eerd
Ġwerk zaam
1 7
yc l
Ġom ge
ĠO m
Ġf actor
schijn lijk
Ġbetrouwbaarheids interval
c ut
Ġn eu
ĠA V
w eg
Ġmen sen
ge halte
Ġcomp lex
per im
p ast
on ine
e iden
Ġonafhankel ijk
Ġcon s
ĠL DL
ass a
ru ct
Ġei gen
Ġge st
Ġenkel e
Ġindi vidu
Ġd u
omyomy omyomy
s l
Ġp ath
ocardiocardiocardiocardi ocardiocardiocardiocardi
Ġoverl ijden
Ġbe vestig
Ġischem ia
Ġbesch rij
Ġv Ã³Ã³r
Ġzw ang
sy ndroom
ost en
Ġ un
Ġ2 3
Ġmit r
k in
s ent
in u
vas ieve
Ġcalc ium
ge vallen
m l
Ġlan ge
Ġstee ds
Ġ '
i delijk
tran splantatie
Ġcon t
Ġle ven
a di
r elatie
o om
Ġpre sent
m ing
Ġ ar
o ol
ocy ten
H g
" .
Ġp ra
op t
Ġin t
ag on
Ġele kt
Ġd ys
afhankel ijke
H F
v l
nel ijke
Ġ3 5
aan se
Ġs ept
v asc
Ġge pro
ĠD aar
isten tie
Ġonderzo chten
00 0
Ġk on
v erd
ge wicht
Ġspec ifieke
om et
Ġtoe komst
V an
a a
z elf
diagn ost
R I
Ġri cht
re erd
er atuur
f ic
sp ie
Ġtoege di
H A
Ġoverle ving
Ġ ÃĤ
Ġaort a
l op
ele ct
Ġwaar van
ĠV oor
Ġs e
ĠI CD
ĠM et
ox ide
len de
ĠA T
eer t
op name
i erf
t ijd
m erkt
d is
Ġbe he
oper atie
n g
Ġom dat
Ġc irc
Ġmo eten
Ġgere g
Ġ2 8
Ġhypertro fie
Ġblij ft
A CS
ula ir
Ġveroor zaken
oprote Ã¯ne
c ohol
Ġou der
Ġgen etische
sp lant
Ġf requentie
ose s
Ġin st
Ġlaat ste
Ġgev onden
a u
ĠO p
Ġlang du
Ġh onden
is eerde
diagnost ic
Ġk atheter
Ġe jectiefractie
Ã İ
hog ing
Ġzuur stof
Ġinflamm atoire
Ġr el
os ine
Ġo c
.... ....
ven euze
o uw
ĠH DL
oc um
Ġpotent iÃ«le
Ġpol ym
Ġal cohol
ĠQ T
s u
Ġm orbiditeit
l y
Ġer van
Ġmetho de
Ġge controle
Ġm ate
Ġst ruct
I V
Ġplace bo
Ġcon gest
tensie ve
ĠAl le
ar ine
Ġ2 6
'-'-'-'- '-'-'-'-
Ġge ken
P A
Ġstand aard
Ġm iddelen
Ġge h
gol f
oc k
Ġpac ing
iv ari
Ġab norm
Ġgeken merkt
Ġtwee de
Ġvroeg tijdige
2 4
ge Ã¯n
Ġst ellen
ol ie
v ar
me en
Ġd aling
Ġ2 1
Ġwaar den
per iode
omm ige
Ġmm Hg
cut ane
Ġkranss yndroom
Ġhemodynam ische
Ġc o
Ġbloed plaatjes
h or
v el
Ġa sy
on s
Ġf en
Ġvoor al
Ġg un
Ġcon centratie
Ġvol gens
Ġz ien
Ġma ken
ate d
r ine
Ġb yp
ur ale
Ġmy ocardi
Ġzwang er
s oor
vol gens
Ġonder ging
Ġge w
Ġman nelijke
Ġb oven
r y
ĠH CM
g ment
f actoren
te erd
Ġv as
Ġter mijn
rig lycer
Ġz ij
Ġhart k
Ġvar i
Ġcontrole groep
duc eerde
Ġm uizen
Ġob stru
Ġgep aard
0 3
t a
m atige
ge ven
Ġonge veer
Ġbest ude
Ġt he
ĠC VA
Ġh ersen
Ġinsul ine
n ivea
Ġge diagnostic
Ġj on
Ġinflamm atie
Ġaan be
ken en
Ġinf ormatie
dia bet
gra m
Ġher stel
Ġex perim
ver ander
Ġhartf unctie
z ame
Ġsu pra
vasc ular
Ġcon centraties
Ġmeer dere
ele v
Ġdui delijk
om ische
Ġf armac
Ġbe wijs
sy steem
o ffen
Ġaanwez ig
or ator
Ġ4 5
sy ch
g ro
zelf de
Ġm s
Ġ2 7
in ig
Ġnorm aal
icardi ale
gaan de
Ġj ong
Ġb re
Ġwaar schijnlijk
Ġkan ker
O p
Ġgele id
is ering
w er
Ġ +
or ing
Ġver st
Ġger icht
Ġtoegedi end
Ġt o
Ġon s
lig gende
Ġver tra
l ies
ot ype
Ġatri ale
Ġbesch reven
arit m
Ġher zien
A A
atiÃ«n t
Ġz es
Ġper if
l ang
ter n
v atten
ivari ate
Ġin dic
Ġonderste un
Ġverbet erde
Ġf ase
kel ijke
Ġw eer
a z
Ġpost operatieve
Ġalge meen
2 3
Ġv en
Ġkransslagader ziekte
spie gel
Ġele ktro
Ġf o
% ;
Ġs ele
Ġsnel le
ĠC AD
Ġbyp ass
0 4
gene se
ĠII I
ann eer
Ġkla sse
and om
ra gen
Ġvol ume
Ġant ist
Ġang io
in er
Ġmechan isme
Ġs eg
nd anks
l an
z ym
Ġcor relatie
r atie
zoe ken
Ġm l
waar de
ex pressie
Ġop ge
dil at
8 0
b el
ab latie
p t
Ġoptre den
Ġt onen
ĠB MI
Ġdie et
Ġpolym orph
te erde
ĠH R
Ġwerkzaam heid
---------------- ----------------
c le
wijz ingen
l ijnen
Ġre cht
Ġlip ide
lip idemie
Ġh el
P C
g d
Ġben ader
Ġepisode s
Ġt oon
ĠH oewel
gramm a
Ġreg ionale
Ġs h
W ij
ĠH F
Ġpro gnose
Ġsu g
O S
Ġk osten
Ġvol gende
Ġsucces vol
ĠQ RS
Ġs lagader
Ġb lijk
ine s
oe f
Ġgen en
Ġgeb ru
omycomyc omycomyc
Ġb ra
geb ruik
Ġverander ing
ouw d
Ġf ys
sp ec
6 0
ĠV an
ol isme
Ġgereg ist
Ġeer dere
Ġpro ble
a ir
v asculaire
a and
ie erde
Ġst abiele
Ġaan passing
Ġinf ectie
Ġom vatten
ĠA mer
E S
Ġl ater
ĠgeÃ¯sole erde
ch te
or ter
2 2
or der
Ġg et
Ġinf arct
ur ele
ati g
Ġh oewel
Ġc yt
Ġlangdu rige
Ġver d
ĠD CM
Ġpra kt
g if
Ġatri ov
ra ag
be eld
ad ren
u st
Ġverw ijd
do od
olog isch
D it
Ġstat ist
Ġh ulp
v i
ol ol
dig heden
Ġzwanger schap
ul mon
Ġnivea u
Ġlijk t
Ġbevol king
ĠC K
Ġt ij
an en
st at
Ġde c
). "
A S
spro ken
Ġop t
Ġeigen schappen
orator ium
Ġon be
Ġaan wijzingen
Ġsyste mische
C E
ĠG e
Ġsp ier
of d
Ġme di
Ġkle ine
Ġvoed ing
Ġa dem
om t
du ur
Ġk ort
kan aal
ond ri
el t
op sie
N a
B G
remm ers
ĠHe art
ĠM I
Ġterug k
Ġre vascular
och ondri
Ġbl ok
Ġh om
R NA
ar ker
Ġgeregist reerd
Ġoc clusie
Ġsecund aire
f ect
Ġde fin
f orm
Ġd if
Ġover een
ĠH g
Ġpla qu
du idelijk
Ġgem een
Ġdu bb
Ġblijk t
se gment
Ġs ommige
Ġcont inu
Ġfys ieke
m an
D M
Ġvoor t
tens ine
V er
c or
m a
Ġinge deeld
2 1
cht ere
Ġwe inig
Ġ2 9
omb ine
Ġ3 1
i eren
at ale
Ġkan s
ir ine
Ġn atri
ge len
Ġ6 5
or f
Ġontwikkel de
Ġpoten tie
Ġmitr alis
Ġverz am
z y
Ġpro cedure
Ġontwikkel en
ge gevens
ur s
ast ing
erg ie
ul ering
Ġveil igheid
st aan
ff iciÃ«ntie
za kelijk
Ġkransslagader s
Ġstr ategie
ĠC a
Ġc ent
vou dige
ro on
Ġher h
l er
keu rige
Ġ7 0
ic iteit
Ġn am
Ġart ikel
Ġlich am
Ġdood soor
isten t
in ine
Ġmen sel
Ġm aat
Ġ3 6
opath ische
Ġf ibril
Ġhypertensie ve
lang s
c re
Ġt ach
Ġ4 8
ie ten
Ġsy n
Ġbesch ouwd
Ġom vat
in tig
Ġs la
r et
Ġcardi over
Ġimm un
7 5
Ġrec ente
in en
st ige
Ġd er
er bare
or es
Ġangi ografie
Ġontwikkel d
stan digheden
Ġper i
om ie
ken ing
Ġ9 0
z icht
ulmon ale
Ġonder liggende
3 5
Ġw anneer
p ol
Ġvolle dig
Ġper cutane
Ġperif ere
Ġaanzien lijk
Ġverho gen
- ,
Ġd icht
Ġv aker
Ġm olec
vent ionele
t achycardie
Ġneu ro
m aal
+ )
Ġk omen
Ġpro gnostische
itie ve
Ġox id
z org
Ġuitge bre
Ġcor rel
Ġadem hal
Ġbere kend
gelijk e
Ġru st
Ġop sp
Ġmax imale
lo ten
ui ten
n o
Ġgec ombine
spre iding
mp ath
Ġ Â±
mat ure
ĠC A
p aste
Ġst ij
ol ische
f ysiologische
v la
sch il
Ġvit amine
Ġ ane
Ġcardi ale
M T
ra g
m ut
Ġbep erk
Ġhypot hese
Ġsug ger
ĠT ijdens
Ġver len
P E
ser v
Ġm atige
x t
Ġc ar
ocy t
b um
2 8
2 6
Ġaf hankel
M R
Ġ19 8
c ijf
ab an
Ġeind p
Ġi di
Ġver e
ocard ocard
ver w
Ġcongest ief
Ġleeftijd s
Ġkw aliteit
geÃ¯n duceerde
nam es
Ġbij werk
b ut
Ġeven als
is eerd
Ġin spann
S D
Ġk g
Ġgediagnostic eerd
Ġjon ge
Ġ8 0
ĠI V
Ġelekt rische
ĠB P
ur ine
ct ion
Ġp iek
Ġabnorm ale
Ġte kenen
Ġt riglycer
Ġc ol
Ġk racht
Ġpro p
Ġpre mature
Ġbeschrij ven
gen en
ĠĠ Ċ
9 9
ĠA r
l and
Ġd il
p tie
mm ing
u k
Ġj aren
it u
ru m
am eter
Ġprakt ijk
Ġhart dood
k lep
2 7
3 6
res ultaten
rec eptor
Ġla es
Ġm arkers
Ġk orte
Ġfamil ie
ie uw
Ġst am
Ġverho uding
ru g
Ġleid de
Ġp sych
Ġcon ventionele
Ġsupra ventriculaire
Ġl ieten
tran s
cedu res
M D
c ellulaire
Ġa chter
Ġbloot stelling
Ġop z
arc ten
st ers
ĠC T
Ġm agn
ult aat
Ġeffectie ve
( -
Ġsp elen
Ġl ate
er atie
ĠB e
un ten
Ġde zelfde
Ġdi eren
Ġvorm en
i der
Ġl et
ra at
adi um
c o
Ġintra veneuze
k amer
gesch reven
Ġhart st
Ġwij st
Ġgebas eerd
Ġvoed ings
7 0
Ġfibril latie
3 8
oprote Ã¯nen
ĠC O
ĠA an
Ġmit ochondri
en s
c y
aar t
Ġlit eratuur
Ġc el
Ġd oses
dit ion
is ter
Ġprote Ã¯ne
Ġernst ig
l ut
Ġwille keurig
Ġ7 5
Ġrel atieve
Ġm ut
Ġn ierf
Ġvariab elen
Ġplasm a
Ġasp irine
n eu
Ġver hoging
Ġsy steem
Ġasy mpt
Ġsp ont
2 9
it atie
Ġzelf s
Ġw il
Ġresp ons
Ġassoci aties
k un
Ġricht lijnen
Ġbeeld vorming
en ose
Ġkransslagader ziekten
Ġvergelijk bare
Ġst room
tro l
Ġhyp o
ent ele
Ġbep erkt
4 5
Ġopz ichte
Ġgroter e
la sm
stol isch
ĠI HD
v oe
s loten
vl oeden
Ġp ept
Ġgemeen schap
Ġaf wez
ation al
Ġaan vul
per vla
Ġom vang
i ken
entr ale
Ġgevol ge
Ġbijwerk ingen
en g
ce ss
rij gen
Ġla b
T n
Ġbet er
ox ysm
ĠH IV
Ġ3 3
ide mi
ĠDaar om
cardi ogram
if est
Ġ x
Ġc re
Ġantist ol
Ġz eld
s ub
Ġsterf gevallen
ind ing
Ġz al
Ġbeschik baar
b loed
u id
Ġ3 4
Ġc ap
Ġwaar in
lu it
lin isch
re gelen
Ġa dip
Ġg aan
Ġver volgens
Ġatheroscler otische
r as
ge z
M A
ie l
Ġre m
Ġvoor delen
Ġkw ant
P atiÃ«nt
te s
Ġf osf
op last
Ġk re
Ġda gelijk
V C
Ġafhankel ijk
ra an
p re
Ġbijdra gen
Ġt rop
fibrill ator
in et
aritmie Ã«n
Ġdoodsoor zaak
Ġ5 5
Ġkre eg
k la
Ġgeb le
Ġble ef
e ur
Ġtoen e
Ġgesch iedenis
Ġ3 2
k w
sp ron
geb oren
Ġbehe er
i or
ur g
z el
Ġidi opathische
d l
ul erende
ysi ologie
ig de
Ġlet sel
9 0
u un
Ġ3 7
Ġsc re
Ġ3 8
Ġa den
p le
3 4
r ic
Ġr elev
Ġvrouw elijke
Ġc entrale
Ġnut tig
Ġbest ond
oc ol
in vasieve
Ġont staan
Ġpotentie el
Ġstim ulatie
Ġhart transplantatie
su fficiÃ«ntie
opp ler
Ġin jectie
Ġbe kende
Ġbeoor deling
Ġst op
Ġin b
test s
eer bare
Ġv is
act ive
ept oren
P S
ĠbeÃ¯n vloed
id ine
v ast
Ġv al
Ġh ep
cardi ale
Ġaf gif
Ġges elect
Ġsinus ritme
Ġc riteria
Ġfo et
erf te
vat ting
Ġimp lantatie
Ġon middel
Ġoef en
Ġomge k
Ġdiabet ische
l ering
ur ve
ĠC D
Ġdicht heid
s lagader
Ġl ig
ud y
m iddelen
Ġanalyse s
Ġoor spron
H oewel
Ġl og
Ġafgif te
Ġh um
Ġvoor ste
Ġh y
Ġgevol gen
ol er
or ten
Ġvergelijk en
fie l
Ġbi om
Ġm is
Ġherzien ing
Ġpac em
Ġverminder t
alis atie
ent iÃ«le
Ġechocardi ografische
ke mie
ve el
Ġin name
ul eren
t ype
Ġres ultaat
eem t
Ġvoorspell ers
E CG
cop e
eter mijn
Ġz en
u ele
Ġvoorspell er
f requentie
Ġnier ziekte
model len
Ġg lyc
P D
Ġwee k
Ġsp ra
Ġh al
Ġgele iding
Ġdirect e
ron en
3 3
t ocol
Ġtoe stand
re perfusie
Ġop en
di gen
Ġlicham elijke
Ġon duidelijk
M S
arit mische
im aal
spec ifieke
A l
Ġf e
Ġt ri
Ġcontinu e
Ġpositie f
C RP
Ġsla ap
Ġw el
Ġho uden
at um
Ġbloed stroom
i gen
Ġzen uw
Ġpar oxysm
ĠbeÃ¯n vloeden
lante erbare
b ere
ĠAmer ik
ub lic
hor ac
ar y
F A
I D
name datum
Ġnood zakelijk
Ġspra ke
og lob
ect or
Ġoper atieve
ĠU it
Ġeffect iviteit
Ġdaar van
d re
i ologie
t ri
Ġv o
ĠI L
sp it
6 5
A R
Ġb io
r g
Ġverzam eld
ot herapie
rop e
sten ose
Ġoxid atieve
Ġ Ãİ
Ġwij ten
om ent
Ġstat us
Ġnauw keurig
B NP
Ġal tern
ĠP CI
7 3
Ġgeble ken
ant woor
4 4
Ġl u
Ġ %
ater ale
Ġgra ad
ter min
Ġmm ol
Ġd erde
ox iciteit
l it
iner es
Ġantistol ling
Ġver deeld
Ġr isic
Ġbehandel ingen
N F
Ġverwijd ing
ĠP ro
Ġm oment
Ġziekenhuis opname
Ġtij delijke
Ġtach y
met ho
V oor
ag de
it ro
Ġpatho genese
Ġbereik t
un del
onder zoeken
m erk
or ie
nd ro
um ptie
Ġlich te
vast atine
E D
Ġmet ingen
Ġl open
u us
doen de
org an
Ġobstru ctieve
at s
di men
Ġstij ging
il t
Ġl ok
Ġart sen
Ġver dere
ST E
Ġbevestig d
ten is
Ġtran splantatie
kan ker
om at
g aand
con centratie
Ġmult ivariate
Ġlab oratorium
it atieve
Ġbestaan de
Ġinter actie
Ġsnel heid
te el
Ġr etro
Ġont de
wak ing
op au
ich aam
Ġa ute
Ġre st
4 3
Ġge ven
ineres istentie
ĠOn der
L A
Ġtest s
e ff
Ġhoe veel
L DL
Ġangio tensine
it me
il stand
d a
iru s
al th
ĠN e
Ġtrop onine
zet ting
Ġbenader ing
Ġp ulmonale
Ġreg io
st erfte
Ġon d
ĠV eren
en ten
' :
6 6
7 7
an s
Ġge geven
Ġafwez igheid
p ac
Ġc ru
Ġonder sch
ycl us
Ġstruct urele
an u
Ġsign aal
in de
ell ingen
" "
Ġ3 9
Ġinb eg
Ġwer eld
og rel
Ġom standigheden
y st
at oren
ocy ste
a ort
aritm ica
Ġgecontrole erde
Ġgeh ele
Ġond anks
Ġherh aalde
ol ter
Ġsch ade
4 8
is s
Ġimp lanteerbare
Ġgun stige
in stru
ei wit
nel heid
ĠCK D
Ġbra d
id ogrel
B B
Ġder gelijke
vol en
Ġblij ven
im p
Ġv i
ĠR e
k ort
Ġspont ane
od ar
Ġstatist isch
ctie s
Ġsy mpath
anu ari
dig d
Ġge halte
mo di
ĠH art
ac ro
Ġen ergie
Ġro ute
il ijk
pol ar
Ġre gel
ĠS D
Ġrelatie f
o u
ĠR V
Ġaan geboren
Ġgebas eerde
Ġlu cht
model lering
Ġm id
Ġtoe passing
Ġst e
s ver
A V
] ,
ol ip
Ġzo uden
Ġaanbe volen
Ġdys lipidemie
ĠP C
Ġbe w
ur et
3 7
ho ud
5 5
der s
im e
Ġsle chte
dis functie
Ġinbeg rip
r ijk
lop idogrel
Ġdui delijke
dic atie
AC E
e ge
ur ie
Ġvert onen
ĠC RP
ur ysm
ul i
ere b
Ġsy ndro
Ġexperim entele
Ġzeld zame
met ab
T ijdens
Ġm ass
ar f
in sufficiÃ«ntie
Ġgez ien
ikel ijke
ĠZ o
Ġgeb eur
oler antie
mi odar
Ġj anuari
t jes
he sie
Ġonbe kend
Ġscre ening
B I
Ġvooraf gaand
ap p
Ġex pressie
Ġt h
Ġep idemi
Ġmolec ulaire
Ġsh ock
Ġsele ctieve
6 4
ho og
l ar
Ġbehandeling s
Ġres ul
Ġradi of
a y
lo ss
el ing
weg ing
Ġrevascular isatie
Ġvoorspellen de
ic al
Ġ Y
Ġver spreiding
gest elde
Ġmeest al
Ġde te
la ss
3 1
Ġmechan ische
al fa
geb onden
b eerd
ro fie
Ġhartst ilstand
Ġmyocard itis
Ġaute urs
Ġwille keurige
Ġ ult
par aat
Ġlang etermijn
( )
Ġep icardiale
dimen s
Ġinst abiele
Ġver der
sp ectie
Ġst offen
Ġtoege past
Ġpresent atie
nivea u
Ġdaar op
ot yp
st ij
Ġe ss
l et
Ġgesch ik
di ast
Ġbl oeden
Ġsc ores
Ġhypo tensie
p at
Ġverm ogen
Ġsyn cope
Ġkw am
Ġgepro beerd
r ale
Ġcons istent
Ġm arker
Ġa cht
Ġ4 2
Ġsterfte cijf
Ġcomplex e
Ġc lopidogrel
3 9
C P
Ġap opt
Ġt ren
fibrill eren
Ġlo op
Ġprogressie ve
Ġmet en
Ġs oor
fer entie
ĠHe alth
af wijkingen
Ġdil at
R R
a v
M B
Ġsp eel
ant agon
Ġven euze
Ġaf gele
f en
ĠAT P
Ġ X
verander ingen
Ġd ien
Ġgen omen
Ġverwij de
Ġverbet erd
Ġsch at
C AD
sp ect
Ġrec eptor
ĠC ox
m ine
7 4
Ġb undel
ut ine
Ġischem ic
Ġob serv
str ategie
diabet es
Ġeffectie f
e mie
Ġm orf
Ġhart ritme
Ġgeb racht
hy dro
Ġgep ublic
or ale
Ġst ier
chocardi ografie
e ven
la ire
3 2
ĠA f
stat us
Ġc ellulaire
Ġk omt
Ġlan den
or pen
Ġg aat
Ġvas o
Ġstier ven
ĠLV EF
Ġinsul ineresistentie
Ġsterk e
Ġhoog ste
Ġbepaal de
k linisch
Ġindividu ele
Ġhyp ox
Ġtoekomst ige
Ġze ven
all on
ken s
Ġreactie s
Ġcardiover ter
Ġgebeur tenis
Ġonder druk
Ġgesch at
Ġa ctieve
Ġfarmac ologische
ho uding
ĠE u
Ġho ofd
Ġde m
Ġaanvul lende
m atig
Ġopt imale
oÃ¯ de
Ġgebruik ten
ab lok
Ġasympt omatische
Ġidentific atie
p opulatie
7 9
w intig
iru rg
es it
e ks
Ġres on
Ġspeel t
1 00
Ġst aat
6 8
omen teel
oci ale
j ect
inf lamm
nam elijk
Ġk in
te chn
Ġaut on
7 8
miodar on
Ġvoor namelijk
Ġgecombine erde
D atum
Ġv ragen
Ġbe sproken
Ġfib rose
Ġet iologie
H DL
m assa
op ul
Ġtoon t
tran splant
Ġmensel ijke
inf arcten
Ġdi alyse
Ġb ron
Ġken nis
er ie
m atische
ia ire
Ġ6 4
u sp
u ter
z ij
Y HA
p elijke
Ġh orm
Ġd ier
rop h
m d
ati fic
Ġpre st
gra de
n ieuw
ch ron
ĠM e
Ġbet e
Ġ4 4
Ġpol y
dit ionele
r atio
Ġver antwoor
Ġk aart
Ġ4 6
Ġterugk erende
on ale
Ġdy sp
in den
Ġh ij
ĠA MI
p ositie
oglob ine
Ġlip iden
z i
ig ing
geb ied
Ġd urende
omyomyomyomy omyomyomyomy
Ġaange paste
esit as
Ġover gewicht
sm iddel
f osf
Ġbehandel de
Ġmedi ane
vel ingen
olester ole
ost er
Op namedatum
Ġt a
ul len
ation ale
is m
ĠP V
l og
Ġmogelijk heid
dimens ionale
b i
le cht
ri k
5 7
Ġbep aling
m ol
ocardiocardiocardiocardiocardiocardiocardiocardi ocardiocardiocardiocardiocardiocardiocardiocardi
Ġ urine
Ġbe do
ocum ente
e jectiefractie
Ġimm uun
8 8
Ġb il
p ress
Ġte mp
Ġt yp
ĠE D
Ġtra ditionele
Ġinterventie s
re sen
Ġpro ce
Ġatrium fibrilleren
fra ct
Ġeindp unt
acht ige
a in
Ġma and
........ ........
ĠD ia
Ġbe ats
Ġro utine
st ellen
B e
4 1
Ġlin ks
Ġtechn iek
arf arine
Ġr et
Ġpro fiel
O ndanks
alis eerde
Ġvrij e
Ġaange past
6 9
Ġmodel len
Ġvolle dige
Ġp g
Ġgem e
Ġstat ines
Ġbloot gesteld
Ġbij zonder
at inine
ic ale
urysm a
Ġaf ge
Ġauton ome
Ġbl an
Ġverantwoor delijk
R A
Ġtoene mende
s lagen
den s
Ġl ine
Ġgep resen
ĠA ssoci
ĠN aam
amen vatting
Ġseg ment
te g
ec rose
e den
w and
j e
pervla kte
Ġn g
Ġ4 1
Ġher hal
lic atie
Ġmitralis klep
Ġuitgebre ide
7 2
I CD
U it
Ġpath ologische
Ġc m
eren d
ec on
ĠC or
Ġp ector
ĠH olter
ron d
Ġoverle ven
Ġsept ale
i ver
st re
Ġk rijgen
Ġmitochondri ale
Ġtriglycer iden
in t
Ġaan van
ĠJ ap
ĠA R
Ġcontra ct
Ġm aakt
ific iteit
Ġverhoog t
ĠAssoci ation
die erde
ly kemie
s luit
Ġged rag
om ografie
Ġmicro gram
Ġa miodaron
8 5
m it
Ġvert oon
Ġneg atief
Ġ4 9
k ings
Ġgro ei
ĠC ar
Ġpector is
risico factoren
c riteria
Ġal fa
ĠM y
Ġgek opp
Ġmaat regelen
oper atief
orter en
Ġdif fer
Ġge con
Ġd ocum
l ine
Ġen zym
Ġgro e
P O
Ġver erg
Ġbest aat
Ġpept ide
Ġ4 3
Ġh aar
Ġge wijz
ken is
kom t
Ġbete kenis
D CM
Ġsub st
Ġgelijk tijdige
Ġlaes ies
Ġw ie
ĠA D
Ġkw amen
er ingen
Ġademhal ings
6 7
aly s
ig h
re ct
Ġre chts
loss ing
s om
Ġm acro
'-'-'-'-'-'-'-'- '-'-'-'-'-'-'-'-
S E
Ġbi ologische
Ġk rit
Ġsch a
Ġr andom
ox id
Ġged ocumente
bum ine
P I
V F
Ġo est
Ġsuccesvol le
al ine
Ġvoor gesteld
Ġ- )
inflamm atoire
Ġvoor deel
Ġverschillen d
Ġkran s
eng te
ro ss
Ġc ereb
ĠgeÃ¯ mp
Ġf ra
4 2
y n
entr ant
hyper tro
omyc ine
Ġf or
os om
d acht
4 9
Ġc um
isten te
' '
ig d
dra gen
i le
er ior
2 00
Ġe inde
Ġtran splant
ĠD oppler
ch o
ro geen
oc a
Ġrapp orteren
ĠH ier
z uren
ĠE chter
Ġnatri um
Ġe mb
mp el
f lex
w onden
lag ing
du ct
sp atiÃ«nten
um or
vou dig
ate ch
y le
aa aa
Ġ5 9
os cop
ag d
Ġsyndro men
Ġ5 8
bet a
Ġor ale
Ġdagelijk se
de fibrillator
ch olesterole
Ġsympt omatische
Ġre ductie
Ġvers lecht
Ġbedo eld
Ġ ort
Ġg oede
T S
ific atie
Ġg lob
o ff
ec ente
Ġberoerte s
Ġcardi oprote
Ġgepresen teerd
Ġomvat te
ac iteit
ar ak
st im
ĠM R
Ġver la
Ġw it
Ġop nieuw
ĠS p
y r
Ġaan dacht
Ġelectro fysiologische
Ġfib rin
Ġh ist
arak ter
ble men
7 6
S R
Ġer var
Ġdocum ent
p m
Ġf alen
Ġgekopp eld
ab il
nt h
kel et
Ġverz wak
Ġ5 6
Ġplaat sen
ĠAr ts
g t
Ġbehandel en
st it
C C
Ġb ieden
II I
but amine
gel open
Ġspec ificiteit
Ġziekenh uizen
ol yt
ss lagader
Ġm al
Ġgeb oor
Ġdiabet e
ac on
Ġ5 2
Ġgest art
ak kelijk
te gen
Ġf lu
Ġac cess
d om
Ġm emb
On der
Ġuit komst
Ġuitge sloten
ren gen
Ġhoeveel heid
me di
Ġnierf unctie
Ġpresent eren
lip oproteÃ¯ne
H CM
ind s
h arten
Ġd aalde
ag as
Ġte sten
Ġdis c
t ak
erk amer
ab iliteit
g or
Ġtrans c
ĠSt udy
Ã ¢
Ġman ifest
ot te
gel aten
ĠC P
Ġpatho f
Ġpro ductie
ation ele
Ġl engte
ĠVeren igde
ĠN O
ra al
Ġvro ege
Ġgem iddel
Ġver l
Ġbescher ming
sp er
Ġmoe ilijk
Ġw arfarine
5 9
en n
de f
Ġhum ane
Ġbestude erd
ĠgeÃ¯mp lante
Ġon vol
Ġpat roon
metab olisme
hypertro fie
m ax
tij dig
ĠN ational
Ġo verd
ĠSt aten
Ġpro cent
an im
Ġlinker kamer
Ġn eer
Ġgecontrole erd
Ġm od
an se
ĠC V
if e
ĠO ndanks
n it
Ġc om
Ġ5 4
Ġbiom arkers
emb er
Ġreson antie
D ia
uis te
te xt
Ġcon trol
Ġtromb o
Ġaf komst
Ġontwikkel den
hy l
der d
Ġgra den
b ra
Ġtromb ose
Ġm elden
aal d
Ġ7 2
Ġpacem aker
Ġplaqu e
ider ende
l ijn
ĠP A
lij st
v rij
Ã¯ de
Ġb u
be waking
Ġdubb el
Ġen ige
Ġ5 3
C O
Ġaf gelopen
Ġ4 7
stru ct
p hy
Ġveil ig
Ġhartritme stoornissen
Ġan at
Ġver lies
ik stof
0 9
op names
m aat
ge w
Ġondersteun ing
ĠS y
ule erd
Ġa ctie
Ġseg menten
sm et
le g
Ġcon c
Ġpro cedures
6 3
inter ventie
al ie
2 01
Ġl icht
rop ath
ot is
ut ie
E T
8 9
i atie
is sel
Ġhyper cholesterole
Ġsu per
Ġtegen stelling
nivea us
ĠA CE
ĠA n
ste st
gez ond
Ġechocardi ogram
o od
Ġont slag
it ud
op ische
Ġdec ember
Ġhom ocyste
s cop
Ġd ig
Ġkon ijn
Ġkwant itatieve
tegen woor
Ġopsp oring
Ġinter val
Ġcontrole patiÃ«nten
Ġstrategie Ã«n
Ġaden osine
oster on
Ġj uiste
On ze
Ġproble men
6 2
re ft
schil lende
PE CT
Ġm eld
Ġt ric
u cle
ine se
Ġbij na
Ġpro ces
Ġgede elt
omycomycomycomyc omycomycomycomyc
v ings
alis eerd
omet rische
met ingen
Ġnu cle
Ġoefen ingen
k pro
i z
metho de
Ġtoe gelaten
ĠR A
Ġdiabete spatiÃ«nten
Ġgeb rek
uit gang
mb ul
N T
p ers
Ġst ikstof
m ot
comp lex
4 7
Ġmen s
t ische
s ol
gra ad
aort a
he el
5 8
Ġin duc
Ġnu chtere
Ġsugger eert
Ġparoxysm ale
Ġproble em
Ġonmiddel lijk
st adium
Ġn et
Ġbescher mende
Ġverbet ert
Ġbeschik bare
Ġ5 7
we gen
Ġkle in
i x
et ten
R F
Ġor aal
ablok kers
an den
ĠM S
atech ola
Ġaf name
Ġvan af
i gende
iv a
0 8
Ġbeperk te
% -
Ġta ille
Ġreg ister
Ġapopt ose
i al
Ġdubb ele
Ġd us
Ġpre operatieve
pac ing
Ġgeboor te
Ġ6 2
Ġangi oplast
ch emische
Ġs oc
bere ik
Ġk onden
Ġgebru ikelijke
ge zet
Ġb uiten
Ġbi opsie
Ġbre ed
Ġbrad ycardie
Ġprest aties
Ġge eft
Ġaanzien lijke
Ġr at
ag ing
Ġ6 3
m uizen
Ġpers oon
Ġbetrokken heid
Ġtren d
Ġgemiddel d
Ġtachy aritmieÃ«n
Ġdo butamine
d ds
Ġver lagen
urg itatie
analyse s
wee fsel
i vers
ang i
Ġre ferentie
up periode
im m
inf ormatie
Ġglob ale
Ġmetho den
P ro
Ġhel pen
Ġk al
ver houding
ox ine
ropath ie
5 6
st ri
oca Ã¯ne
se qu
Ġm aal
Ġdilat atie
ĠT wee
L D
7 1
se c
per centage
hy re
ver m
Ġgezondheids zorg
Ġd ist
Ġvere ist
Ġbet ere
irurg ische
Ġver deling
ĠC on
ĠE x
pro te
k ru
Ġre fract
Ġal l
Ġ5 1
Ġaccess oire
Ġdi ameter
w en
y la
l if
ym f
Ġpre sen
Ġpl us
c el
Ġanti hyper
4 6
p o
ke ur
ne um
Ġhal sslagader
n ische
or k
Ġf ysiologische
m yc
ĠG een
on ie
Ġst enose
Ġm ic
zy g
Ġlog ist
9 8
G e
sp ra
bel asting
T ran
M et
Ġhet er
Ġhartf requentie
Ġsecund air
kpro ef
ĠM RI
Ġoorspron g
N O
Ġon langs
Ġant ib
ĠCA BG
Ġz ullen
Ġtoege wezen
Ġin vasieve
Ġover w
0 6
Ġverd ov
5 3
us c
Ġpost men
c er
Ġin tens
Ġradiof requentie
Ġlit te
Ġaut o
con s
Ġbev or
Ġondersteun en
-------------------------------- --------------------------------
Ġhe modi
Ġrelev ante
C V
Ġver van
H O
Ontslag s
Ġmin ste
Ġbevol kings
Ġindividu en
Ġs itu
Ġ6 1
u ze
ĠD NA
Ġlok ale
o og
Ġzo ut
ger elat
ĠV F
Ġdete ctie
Ġin dien
Ġg luc
N E
ĠAmerik aanse
l is
Ġhyper t
Ġsp ect
Ġlichaam s
) :
Ġg ast
T T
Ġve zel
is e
Ġver laging
Ġc lass
ie dt
Ġventrikel s
Ġsle cht
h am
P V
u ss
ge zien
Ġfunct ion
AT P
Ġtechn ieken
Ġst er
Ġnood zaak
Ġervar ing
Ġhypercholesterole mie
tro mb
Ġvorm ing
Ġversch eiden
u c
Ġdaar om
Ġcru c
Ġresul teerde
+ -
b ep
pro duc
Ġb iedt
Ġjong eren
Ġh aal
Ġcomp licatie
ateg orie
Ã« in
ol y
ĠA ng
or s
valu atie
il laire
Ġbas ale
Ġ12 0
b lin
ĠC HD
Ġcontra st
Ġcyt ok
Ġverlen ging
8 4
Ġ ann
5 4
Ġa mbul
ger ichte
oÃ¯ die
Ġom k
Ġpathof ysiologie
l ijf
Ġmetab olisme
Ġge active
ap amil
Ġonder w
sen s
gerelat eerde
ĠB NP
N aam
s nelheid
lut ter
os it
Ġkenmer kende
Ġschat ting
is eren
Ġd ra
Ġnauwkeurig heid
Ġvoor geschreven
Ġbe Ã«in
Ġgun stig
s on
Ġbijdra ge
st ress
remm er
Ġf rom
z er
pro BNP
f rine
Ġto elat
as is
Ġre eks
Ġstat ine
Ġs ep
Ġgeb ieden
Ġbere iken
polar isatie
Ġvoor dat
ro ffen
Ġre kening
wer kende
dig de
9 6
v ie
Ġk arakter
Ġverander en
Ġsympath ische
bet es
Ġbest and
ho spit
cardi ografisch
blok kers
Ġhy dro
if actor
Ġgenee smiddel
voor beeld
atri um
Ġonderw orpen
y steem
Ġinspann ing
Ġwij z
d urende
rit is
Ġpolymorph ism
Ġane urysma
Ġsoor ten
om er
ĠH ij
Ġdie p
ar te
ocardocard ocardocard
Ġaf zonder
Ġtrans vers
Ġbestude erden
ĠN T
Ġaanget roffen
Ġcirc ulerende
Ġre p
Ġischem isch
) ).
F R
6 1
r ijke
ĠMet S
Ġepidemi ologische
8 2
o geen
Ġmet a
Ġna ast
ich ten
Ġb pm
Ġn or
Ġbloed som
H T
w il
er c
re pen
Ġz elden
Ġbio chemische
Ġuit vo
Ġoest rogeen
ge voel
Ġh s
Ġcor re
Ġbloedsom loop
acon centraties
Ġsoc iaal
Ġhemodi alyse
Ġ( -
ĠR F
r aten
of age
ijf heid
E R
8 1
par atie
Ġtric usp
m ogene
Ġvari atie
Ġver tegenwoor
Ġlong itud
ĠS c
ĠT T
alis eren
Ġvar kens
Ġstikstof oxide
' ,
Ġn ef
ĠS A
ĠD M
Ġvertra agde
. )
Ġweer stand
atheter isatie
Ġ qu
9 4
be dre
Ġatriov entriculaire
Ġm omenteel
Ġ6 7
an ce
en zym
Ġont bre
Ġmagn etische
on ect
ogra phy
Ġdy nam
Ġne on
art iel
Ġline aire
Ġ8 5
Ġdefin itie
oor d
Ġno ch
Ġwel ke
Ġvaso dilat
P P
m ide
Ġdia gnostische
Ġver do
Ġobstru ctie
olyt ische
Ġlijk en
dition ering
duc eerd
ste mming
merk ing
ab y
Ġventrikel fibrillatie
k king
ol ine
ĠZ e
Ġf requ
Ġn eemt
Ġeiwit ten
v aar
Ġtoe genomen
stand aard
e de
Ġmemb raan
Ġr itme
v indingen
Ġm i
c ap
sch ade
Ġr en
pro cedure
Ġd oen
Ġo dds
ĠgeÃ¯mplante erd
imp lantatie
dig ing
Ġne men
Ġvariab iliteit
am p
Ġintra cellulaire
â ģ
Ġ Â
Ġk eer
ijden de
ĠNe w
Ġdaarop volgende
str atific
9 1
vol ume
dip ine
Ġge wee
Ġst ent
Ġcereb ro
et isch
5 1
Ġpro tocol
Ġgewee st
l aren
H S
b and
onder d
Ġ6 6
d itie
Ġgevoel ig
Ġget est
Ġomgek eerd
Ġopsp oren
l opp
ĠH o
Ġap o
Ġc atechola
Ġfunctie s
it oring
og n
Ġherhal ing
Ġb aby
Ġd on
Ġo ud
8 3
ak lep
mut atie
Ġverdov ing
ver se
all el
ĠP T
Ġaan merking
Ġlevens bedre
H C
Ġn od
Ġne ut
b en
l or
Ġgeselect eerd
ĠA b
Ġhart infarcten
ade m
Ġan alys
P T
Ġplotsel ing
v et
Ġe ct
Ġc Tn
ul us
9 7
Ġre mming
Ġpro f
Ġper man
e dt
Ġh uid
Ġvrij wil
Ġh uis
in sul
ĠEu rope
ker ing
Ġzw ak
Ġst ap
di kte
Ġmicro g
Ġsp i
5 2
Ġop le
f alen
Ġro kers
Ġhart cardiomyopathie
00 2
Ġ6 8
s kun
st horac
Ġlevens vat
Ġhypertrofische cardiomyopathie
d ys
Ġs arc
reactie ve
a ut
vrij e
Ġtransc rip
Ġvooraf gaande
Ġgeleid ings
x y
ot o
it ale
âģ Ħ
n ing
u se
ph a
Ġ ing
Ġk o
im a
ĠAl s
am in
ĠS er
Ġtran sm
j aren
druk king
Ġa de
Ġre entrant
Ġ7 4
tre ff
Ġde fect
Ġvoorsp elde
oef te
spect ive
lin iek
her stel
controle erde
Ġverk laren
Ġin ductie
oor ts
Ġn atuur
Ġbeg on
h art
Ġre modellering
Ġperi operatieve
Ġmon sters
in name
mb er
Ġneer gaande
ĠR ecente
8 7
ĠgeÃ¯sole erd
Ġtransvers ale
T wee
ola ire
Ġs kelet
ĠM an
Ġim aging
laat st
Ġw eten
et s
aar dige
ir ale
Ġgroot ste
Ġse qu
o del
m ee
Ġant it
Ġweefsel s
Ġb allon
Ġvoor komt
l ol
ov asc
A an
Ġa g
Ġhart operatie
Ġ6 9
Ġde termin
Ġlip oproteÃ¯nen
eeft ijd
Ġbet ablokkers
Ġgep laatst
Ġlinkerventrikel functie
Ġtoelat ing
ok ken
e in
Ġc ross
Ġvol doende
Ġinf uus
Ġp an
Ġg l
rij pen
ofage ale
Ġgemeenschap pelijke
Ġproce ssen
P CI
Ġla ct
stij l
Ġv raag
treff end
g lucose
Ġbel asting
ĠVer schillende
omat isch
ĠAf rik
anim atie
8 6
c ep
erie ure
Ġgen oe
Ġz od
Ġdec enn
o ut
Ġhel ft
d y
Ġbe m
O T
oe stand
ĠO R
ran olol
ĠS amenvatting
onect ine
la cht
ĠN YHA
Ġant ic
0 7
Ġelect roph
S VT
Ġ9 9
e us
Ġ ij
Ġ organ
ri cht
ysi ologisch
Ġtra in
f ib
le eftijd
ĠU n
Ġangioplast iek
er ve
F ollow
dilat eerde
f lu
P W
sp ier
rouw en
Ġc ase
if iek
is sie
Ġ200 0
Ġbil aterale
C HD
Ġs ociale
Ġrecht se
Ġpro gramma
gen d
cor onaire
ĠE ng
pro gramma
ad ruk
Ġroutine matige
abie l
Ġslagader s
Ã ¨
sel en
Ġch ron
Ġafkomst ig
ol isch
sp ieren
pro ductie
f ase
tro p
Ġspec ifiek
Ġvrijwil lig
Ġman ier
Ġoverw ogen
Ġdubbel blin
Ġbevolkings groepen
9 2
z ing
hyre oÃ¯die
nt hese
C R
Ġwij ze
Ġaort aklep
Ġpol ik
Ġhartk lopp
mat isch
Ġhep arine
sol ute
insul ine
st herapie
os et
D A
s ign
u deren
Ġk ind
st am
Ġlevensbedre igende
na ast
f actor
s or
Ġrec eptoren
al iÃ«
Ġop pervlakte
Ġuit ein
ĠCh agas
Ġap paraat
Ġsyste matische
g reg
Ġart s
Ġsy stolisch
Ġpol s
comp lic
vi vo
ver schil
Ġont slagen
il d
Ġap icale
Ġhand ha
Ġt ien
Ġfoet us
Ġvi vo
ĠC RT
Ġverw ijdende
Ġdem ografische
ox iderende
or ische
Ġcon st
00 5
ĠP re
Ġvet zuren
i ot
GF R
Ġafzonder lijke
Ġinciden t
l im
un de
Ġ201 0
spann ing
ra ire
Ġgeselect eerde
Ġged aan
STE MI
trans form
antagon isten
Ġt umor
Ġmil de
( +)
Ġmeer voudige
Ġbevor deren
vie w
Ġmult ic
Al le
Ġonder v
p ret
ĠY ork
c ar
u ste
Ġcerebro vasculaire
Ġ= .
ster se
pass ingen
Ġaanbe velingen
00 3
Ġverst erkt
ele ktro
Ġkin ase
Ġrefract aire
Ġsele ctie
wijk ing
Ġvere is
g ere
h orm
opro lol
m olec
Ġmoe der
p oten
Ġl on
Ġscha delijke
Ġomgek eerde
oe p
di ale
t ingen
ven eus
Ġregressie analyse
Ġbe wij
Ġeer st
Ġst of
Ġverk la
Ġfen otype
no opp
o di
ĠF ra
Ġp ass
le den
plaat s
Ġse ks
Ġv at
at aal
Ġhartklopp ingen
Ġbet reft
Ġbest uderen
9 3
entie el
zy men
oor b
is k
Ġmetab ool
Ġin ot
Ġst adium
o te
Ġonder wijs
LV EF
ome ost
omt rek
Ġmut aties
Ġlongitud inale
Ġbeg rip
D D
Ġver apamil
Ġin zicht
Ġgev order
Ġo ste
Ġhem at
con tra
lit ude
ĠB ody
ge me
Ġtoon den
as p
Ġp neum
iekenh uis
ater iaal
I C
Ġuit dag
Ġdoel treffend
M E
Ġsept um
oc clusie
Ġambul ante
Ġvoor uitgang
c yclus
Ġin tensieve
Ġlo od
Ontslag datum
ilt ratie
Ġb inding
Ġger andom
sver lies
ogn itieve
i dering
Ġk ader
age ment
Ġcons umptie
Ġmensel ijk
Ġb ar
ep ine
om a
vang ing
Ġal bumine
i ent
Ġbe wezen
Ġop gele
C L
ha z
Ġte xt
r atten
en e
Ġstee kproef
kin ase
Ġ7 1
ĠĠ ĠĠ
Ġlogist ieke
Ġrapp ort
Ġaanvan kelijk
Ġendothel ium
G E
ĠA d
B MI
Ġn amen
l eten
ne a
Ġneuro log
uret ica
strategie Ã«n
Ġvrijwillig ers
S P
om in
Ġex p
ĠI C
v itro
en se
ut ch
entric ulair
Ġjaar lijk
beeld vorming
as es
diabet ische
Ġf oc
Ġf orm
Ġmult i
Ġrem men
Ġverm oe
opau ze
Ġk oorts
z o
act iv
wijz ing
Ġver loop
haz ard
acht ing
Ġgepro gramm
Ġgebru iken
Ġfamilie geschiedenis
Ġverslecht ering
Ġhomocyste Ã¯ne
adren oc
Ġmet ing
ra c
Ġc oorb
Ġgem elde
ede em
m al
cons umptie
Ġkle p
A mer
Ġantihyper tensieve
Ġp le
ver b
ĠA P
omm un
Ġperi od
Ġst a
Ġkal ium
lis h
k l
v ige
be oor
Ġg etro
vol g
ĠST E
ĠEng lish
S H
Ġindic atie
Ġver gro
ĠD utch
Ġmon ster
Ġeind stadium
ĠI sch
Ġoverle vings
Ġtromb us
Ġgebruik te
Ġvariab ele
Ġgeschik t
d L
di d
op lossing
ver hoging
Ġgeassoc ieerde
ĠCh inese
b A
Ġst ijfheid
Ġg rond
em y
ĠT NF
Ġre animatie
Ġde genen
Ġstam cellen
Ġmic rom
L E
Ġanti aritmica
Ġmil j
j aar
Ġmed isch
Ġcontract iliteit
oe k
ig ar
Ġgew oon
Tran sl
r al
Ġonder wer
opau z
ĠO SA
Ġch em
Ġsub klinisch
PatiÃ«nt informatie
I L
{ '
di Ã«n
hy d
Ġ' **
instru ction
Transl ate
Ġgeh ad
Ġmid den
' }
Ġfe it
ĠMe dic
in urie
Ġm assa
Ġa mp
Ġro ok
Ġondersch eiden
Ġopge we
N OS
Ġb ot
hog ingen
Ġanat omische
Ġer f
Ġont h
intig ra
Ġade qu
Ġble ven
Ġcontra ctie
O D
Ġtoe voe
Ġbundel tak
Ġlact aat
Ġlang er
Ġpatho fysiologische
Ġgelijk tijdig
Ġjong ere
eer den
ter ende
olog y
st ellingen
Ġstee g
u rige
I HD
Ġv ele
Ġge dilateerde
M ed
ct omie
ic ine
Ġex t
Ġbu ik
m L
Ġl ymf
econ omische
ĠT ran
Ġou deren
te kening
Ġbe houden
stru ctie
Ġbe val
Ġventrikel tachycardie
Ġcomp uter
ming ham
ag t
Ġru im
C a
Ġvari anten
C ardi
Ġf atale
c entie
Ġs lagen
ar g
Ġblok k
i kelijk
ic an
oede em
Ġdat aban
Ġge l
Ġplaqu es
M C
t ige
Ġuit gang
Ġmultic entr
Ġm RNA
ĠOn ze
Ġcol la
ĠD rie
ĠC an
Ġbloed ingen
Ġang st
Ġa ard
Ġuitgebre id
h el
Ġbe en
Ġou de
Ġbeg rijpen
Ġm atig
Ġpre c
Ġintra veneus
Ġplasm aconcentraties
Ġcohort studie
Ġafgele id
Ġsterftecijf ers
n ale
Ġbe spre
Ġonder ha
Ġ< .
inter vallen
Ġonderha vige
Ġpro x
Ġverander de
ot al
se pt
ĠDaar naast
diagn ose
N RT
Ġac et
emy emy
] '}
Ġcardi omy
Ġcardi op
Ġinspann ings
"" ""
a ven
Ġpro duc
Ġover ige
adren erg
Ġverla agd
Ġverscheiden heid
m onaire
Ġhemodynam ica
Ġpath ologie
Ġult ras
dom inale
Ġad hesie
Ġo edeem
D S
Ġarter ie
p ak
Ġst abiel
Ġsugger eren
Ġdubbelblin de
C K
g lykemie
Ġane st
Ġgepublic eerd
f lutter
Ġ7 3
k am
%) ;
ocy tes
Ġhulp middel
I R
ĠE n
H and
Ġhorm oon
z ijn
Ġelk aar
Ġess entieel
Ġprop ranolol
ach te
wij ze
Ġbe ste
Ġz icht
ang io
die erd
ran d
ub atie
reactie s
Ġreg urgitatie
Ġdif f
opauz ale
le ad
Ġminu ut
Ġre um
I A
Ġge ste
Ġextra cellulaire
me chan
Ġ Ã
Ġl oc
Ġend ocardiale
w issel
Ġb rengen
Ġge houden
Ġaan vallen
Ġ200 5
Hand tekening
Ġin stelling
fect eerde
Ġmin imale
inet herapie
Ġhypox ie
Ġontbre ken
ovasc ulair
Ġn ecrose
ul ator
druk t
geb racht
h ulp
Ġrechter ventrikel
Ġben adruk
Ġde len
Ġd os
ĠE F
Ġtoe geschreven
ĠOn langs
Ġfamil iaire
lasm a
ĠE T
ad a
Ġrapp orten
Ġin stru
Ġc an
Ġre cent
Ġ7 8
Ġend ogene
Ġhem oglobine
g de
Ġgeme dieerd
Ġmiddel bare
gen er
S S
ogen iteit
Ġ200 9
sy n
Ġreg ulering
Ġgast ro
r yp
om eg
Ġst ille
Ġlaag ste
Ġverwij derd
Ġbew ust
Ġk ool
Ġc ognitieve
Ġverk al
c irc
Ġpro st
Ġdoel wit
geme dieerde
la sie
Ġcontrol eren
es lacht
Ġend ot
Ġeindp unten
Ġlitte ken
Ġs om
art an
ĠA c
Ġme dic
el ingen
Ġf ol
ĠL p
mut aties
angi ografie
Ġbeg repen
in s
hoog de
Ġdien en
sper centage
er p
ran e
g lycer
Ġ( <
Ġmo di
deel s
C h
Ġte kort
Ġdia gnost
pro cedures
Ġverk ort
Ġcorre ctie
Ġ7 6
Ġat leten
Ġfrequ ente
Ġterug werkende
Ġg ing
Ġ7 9
ase d
Ġsch atten
l ings
Ġgecombine erd
T ussen
Ġlaes ie
Ġpresen teerde
Ġsch ijn
ent iatie
on ische
ul atieve
ist ische
Ġwe sterse
Ġsubst raat
Ġv ag
Ġnierf alen
ten deels
Ġimp licaties
Ġon g
Ġgro tendeels
Ġvar ieerde
ule erde
Ġgebeurtenis sen
ol en
ĠIn dex
Ġ15 0
ĠFra mingham
k le
ĠCor onaire
Ġinter ne
Ġad ren
Ġcre atine
Ġter t
Ġob esitas
ol utie
Ġant agon
diast olische
kla sse
ur etische
ne men
Ġtyp ische
t her
ĠS VT
h et
yr id
Ġgeste gen
Ġimp act
Ġrapp orte
oly se
ĠS PECT
c la
az ard
oc on
am ide
Ġuit zonder
Ġer kend
sy stolische
bum inurie
Ġmeld ing
Ġab solute
Ġblan ke
Ġk opp
onen ten
Ġretro grade
Ġbevestig de
Ġnatuur lijke
gol ven
(((((((( ((((((((
Ġhersen en
Ġobserv ationele
Ġbeval ling
ific eerd
Ġre paratie
Ġangi ografisch
un i
rij ven
et rische
vol le
Ġhyper lipidemie
Ġintra c
Ġoverleven den
c ohort
res stest
gro otte
Ġh ier
ce d
Ġperman ente
Ġop names
Ġonth ul
M e
] .
Ġtachycardie Ã«n
(((( ((
Ġather ogene
Ġroute s
inf usie
Ġ200 7
stroom kanaal
ste men
eer baar
Ġademhal ing
Ġ201 1
ĠIn ter
of de
Ġrevascular isering
Ġp o
Ġbev at
Ġerf elijke
Ġtra d
w ijd
Ġs l
Ġhyp ok
Ġkatheter ablatie
Ġon geb
Ġbeg innen
Ġle uk
Ġ200 6
L R
Ġst re
yc ard
iÃ« ren
spectie f
Ġb ody
ĠV ol
Ġhyper glykemie
Ġinter le
Ġsamen ge
Ġ201 2
Ġtoe gang
ann ing
N S
Ġlang ere
A MI
Ġc yclus
ist ratie
Ġc ut
Ġdi ent
Ġlinkerventrikel disfunctie
art um
Ġgesla chts
l os
Ġovereen stemming
reactie f
ĠLV AD
on ent
ĠR R
gezond heid
n aam
Ġtriglycer ide
Ġd re
Ġij zer
re gel
ver en
H art
Ġre polarisatie
Ġs igar
be weging
erk te
Ġimp lant
Ġkla ss
Ġstruct uur
Ġoptre edt
otyp es
Ġpreventie ve
Ġanalys eren
Ġh en
ant i
Ġdefin itieve
Ġbestand delen
spectie ve
Ġp h
oprote in
Ġgewoon lijk
il ichaam
Ġhulp middelen
Ġd omin
Ġ( (
ra y
in dt
Ġvar ie
Ġex tre
ĠZ uid
Ġzwaarlijv ige
ĠC MR
Ġne gen
Ġvertra ging
Ġsterftecijf er
c a
Ġt ak
Ġst ierf
Ġver ou
ik er
Ġap olip
Ġmax imaal
Ġbenader ingen
p ijn
Ġbe smet
ĠT ri
dens ity
s h
Ġ org
ĠH T
p unt
Ġ +/
Ġb er
Ġmilj oen
ĠN iet
Ġuitge sproken
Ġra dic
w ay
Ġ7 7
Ġvoed sel
Ġdysp neu
ge controleerde
my lo
Ġess entiÃ«le
Ġaf deling
Ġcent rum
Ġle ad
vol um
Ġk er
ĠH O
Ġj uni
Ġ200 8
Ġuitge drukt
Ġ8 4
hor ax
st ole
Ġper icardiale
Ġneurolog ische
e ss
ro ute
Ġverb onden
Ġmen opauze
Ġgewicht sverlies
oef en
Ġcon ditionering
Ġver wezen
isch a
fosf aat
Ġgluc oset
Ġgroot te
t el
Ġs n
Ġc ry
hy ro
ĠSTE MI
erk ing
Ġalcohol gebruik
ĠI MT
Ġadip onectine
I T
ĠS CD
actie ve
Ġgeprogramm eerde
Ġh an
Ġh ele
id s
Ġdo delijke
Ġatri al
Ġverb lijf
lar ing
ge veer
ul s
Ġcre atinine
Ġonmiddel lijke
Ġa m
sp at
verschil len
ĠT e
gele iding
Ġmicro vasculaire
er dere
Ġele v
voe gd
Ġgrond slag
on ucle
oscler ose
romb otische
Ġint ima
Ġcontrole groepen
ĠP R
pat roon
ĠL AD
Ġgepublic eerde
ij ft
ent wintig
op y
atri x
ox ische
Ġgewijz igd
Ġge standaard
Ġdia stolisch
ac k
ie ts
Ġnier insufficiÃ«ntie
Ġactiv iteiten
Ġbespre ken
w ant
ot oxiciteit
N C
u iv
Ġinter n
Ġzod at
Ġge vestig
verm ogen
ent herapie
Ġgl omer
Ġgevorder de
e id
Ġtoekomst gerichte
Ġgeschik te
Ġonvol doende
Ġv irus
r ingen
or ige
Ġbeh oefte
Ġcardiover sie
Amer ik
Ġk ru
Ġgedocumente erd
is c
Ġs et
pro blemen
Ġachter af
Ġinf erieure
Ġaltern atieve
or den
ĠV S
Ġ200 4
Ġgele idelijk
h om
ot sub
es ium
gressie ve
Ġindic aties
Ġver hogingen
ra z
Ġn it
Ġlevens stijl
beoor deling
Ġt omografie
lip oproteÃ¯nen
Ġgere kru
A L
vang ers
bel oven
Ġveel beloven
Ġet nische
Onder zoek
Ġs inds
Ġarter i
Ġuitein delijk
ve st
ple eg
p ut
Ġaut opsie
Ġongeb ru
in atie
Ġdi uretica
Ġm sec
Ġcardi ovasculair
ĠM MP
Ġme dicatie
dys functie
I S
Ġc ategorie
Ġz eg
Ġre den
spro gramma
Ġbeperk ingen
Ġvervan gende
Ġd ip
Ġc ort
Ġn ationale
me dia
u dt
er v
)) ))
E C
der heid
E E
Ġb iv
Ġver vanging
Ġc av
ol us
Ġbe sl
Ġsc intigra
Ġper ic
Ġ200 3
p ath
Ġnucle aire
Ġk ant
Ġclass ificatie
Ġvertoon t
transplant aten
ĠA S
Ġterugk eer
Ġect opische
st alen
Ġoper aties
u ig
Ġe cho
ĠG en
mer g
Ġzeg gen
Ġsympt oom
ĠDia betes
L C
al buminurie
stel sel
Ġcum ulatieve
ot ide
Ġsch aal
Ġrecht erkamer
Ġletsel s
Ġtaille omtrek
ĠL eeftijd
Ġbev atten
o it
Ġover zicht
emb olie
Ġort ho
Ġdig oxine
Ġgerekru teerd
00 4
Ġ y
stan den
da ag
Ġnut tige
ĠI g
c eerde
Ġ8 8
Ġb ele
iv ar
Ġgetro ffen
h yp
Ġ ischa
Ġl ijden
ĠO ok
Ġvragen lijst
Ġtemp eratuur
Ġm aak
gem akkelijk
Ġk euze
molec ule
S t
Ġhart slagader
ee d
ĠI D
Ġcytok inen
f ataal
ol ogen
act e
Ġmon om
o ge
Ġver gemakkelijk
Ġverwij dering
k eten
Ġp ap
Ġre al
ĠS R
rek ken
cardi ocardi
ĠJap anse
Ġonge acht
Ġbescher men
di cht
ĠP D
Ġsigar etten
sy nth
ĠAan gezien
Ġtrain ing
Ġk orter
han d
Ġatrium tachycardie
Ġdist ale
Ġin teg
Ġs im
Ġgen eratie
Ġ8 1
Ġhep at
Ġmal ign
ar ch
ol f
ĠM E
Ġult ra
Ġa mylo
Ġna druk
Ġpostmen opauzale
ĠÂ ¥
u str
Ġmeer derheid
Ġcardi ologie
CA M
Ġvertoon den
Ġt re
Ġkan did
be elden
ĠOnder zoek
Ġdynam ische
s is
Ġt horac
om i
ter en
werk ing
D NA
le ment
sl uiten
L P
ar s
Ġcardioprote ctieve
diÃ«n t
Ġt hal
Ġg af
ion al
Ġ8 2
emb olische
sluit ing
Ġboven ste
ifest yle
Ġdagelijk s
Ġvan uit
Ġa min
del inge
ĠH bA
Ġjong er
greg atie
at ran
Ġr as
Ġ199 9
Ġong un
ze m
ec ardi
opul monaire
Ġtherapie Ã«n
Ġfib ro
Ġhartk atheterisatie
Ġ8 3
am ma
ast enose
Ġgedeelt elijk
H E
Ġl id
Ġpro lif
atri ale
P G
ct or
as en
vo er
Ġsamen han
ĠAmer ican
BB B
act er
Ġnorm o
aritm isch
Ġklass ieke
om een
Ġziekenhuis opnames
) -
m arkers
Ġh azard
se ctie
Ġun ieke
L I
Ġch irurgische
Ġpolymorph ismen
Ġc ycl
Ġpost p
Ġnauw keurige
ĠBe ide
Ġ9 6
Ġreactie ve
Ġr s
nst ige
ische mische
ĠR eg
Ġkonijn tjes
u e
or gen
la d
ver za
Ġatrium flutter
Ġelektro cardiogram
Ġbe houd
Ġter min
Ġmorf ologische
st eld
Ġver stoor
Ġal tijd
Ġintra m
Ġglucoset olerantie
Ġ 001
Ġ3 00
Ġpost erior
Ġmon delinge
Ġ8 6
ta ille
Ġaf wijking
Ġend ocard
Ġverdo ofde
ĠM eer
min ste
re erde
Ġsec onden
ob er
Ġstop pen
Ġopgele verd
f oto
h ang
re ep
Ġsle chtere
Ġh igh
Ġsub groep
ver sie
Ġinter mit
a ad
Ġgroe ifactor
Ġtrans gene
gen eratie
Ġf em
techn iek
Ġuitzonder ing
Ġt oxiciteit
ĠC HF
Ġlinker kam
Ġmanifest aties
................ ................
Ġgew orden
Ġmyocard isch
adem igheid
uk ine
Ġantistolling smiddelen
) ),
in k
el s
ol ys
Ġdiffer entiatie
stratific atie
Ġa st
Ġwat er
ator vastatine
Ġd en
ap paraat
Ġwit h
Ġverou dering
w n
Ġd rug
Ġab dominale
Ġgev aar
spra ken
tri ale
la b
ĠEurope se
Ġverk rijgen
Ġtoevoe ging
Ġtran sp
C HF
Ġeen voudige
id ose
prote Ã¯nen
O b
den t
mo de
Ġcorrel aties
f unct
c Tn
o cht
ch iale
ĠB loed
Ġnor epine
CA BG
PA R
app ing
ver la
Ġpar as
aaaa aaaa
ter isico
Ġgewijz igde
cap aciteit
skun de
ĠP er
Ġdre mpel
Ġbeschik baarheid
l ichaam
Ġv ent
p l
er wijl
Ġres olutie
ĠQT c
Ġval v
a us
Ġe cardiogram
og roep
Ġch rom
Ġgede taille
V R
Ġis of
ab ig
Ġbesl iss
Ġbe vest
Ġverbet eringen
Ġ200 2
Ġmicro M
Ã¯ den
ĠT ot
ed s
Ġaltern atief
Ġintra cardiale
reg ul
dro eg
a ve
Ġpercentage s
Ġgedocumente erde
r ing
ge dragen
handel ing
Ġmaar t
h ol
Ġde l
em ic
res ent
Ġonze ker
r at
Ġis ol
Ġor gaan
Ġasp ecten
Ġmut atie
P ost
test inale
Ġfosf or
L T
y ro
Ġv asc
or ub
Ġin tro
Ġin clusie
z ine
in ciden
ra di
Ġmyocardi aire
Ġstatist ische
Ġmulticentr ische
Ġe ch
Ġwereld wijd
h ib
abig atran
st ijd
ro kers
Ġ9 2
'' ''
my ocard
yn chron
ĠV A
Ġl at
Ġcon ditie
trop onine
Ġvet zuur
Ġtoen eemt
sten s
Ġweten schap
k al
Ġd ragen
Ġp og
Ġk noopp
geb ieden
Ġuit drukking
Ġp art
Ġver slag
ĠT G
ste un
ox aban
Ġalle maal
ild kl
Ġt ele
Ġjaarlijk se
p an
Ġtwee maal
Ġlever en
lop ende
Ġoorspron kelijke
def ecten
Ġverkla ard
Ġc ommun
ab ole
Ġmil ie
Ġpept iden
Ġbep er
Ġgen er
gor itme
Ġsta dia
B C
re den
Ġon verander
Ġhoog te
Ġbe d
Ġg ang
vl oe
spit al
Ġgevestig de
bij voorbeeld
Ġ atorvastatine
ij st
re st
Ġg ren
Ġsu iker
behandel de
c um
al ve
Ġverw acht
G T
Ġom zetting
voor sp
U S
Ġvoor naam
Ġomk eerbare
Ġvoornaam ste
m icro
up ple
Ġechocardi ografisch
] )
Ġd im
ĠC AC
Ġbev order
Ġdos ering
p jes
w aal
antagon ist
Ġtran sthorac
na uw
Ġantib loed
ĠP ost
ĠMy ocardiale
Ġdetermin anten
ter ne
ĠE p
ocon stri
Ġbe elden
Ġinf arcten
M RI
ific eren
Ġ200 1
Ġren ine
Ġadequ ate
s ofageale
Ġc yc
Ġdis e
osom ale
Ġhet ero
ĠAfrik aanse
Ġbevest igen
Ġ- ((
er ge
Ã ¶
Ġverm oede
entr y
Ġgesla chten
ĠCardi omyopathie
Ġv aste
Ġt al
Ġcoorb id
d osteron
Ġhet zij
he m
ib il
ĠCO PD
Ġen ig
ic s
art sen
omeost ase
Ġartikel en
iteit s
/ -
d ing
rit mie
ri min
ĠE l
Ġt ab
ken ning
Ġcon tro
ĠM ult
her mie
Ġgevoel ige
Ġkracht ige
ĠH em
Ġ8 7
Ġ ur
ak ers
waal f
k atheter
t elijke
Ġver dragen
C on
jectie f
arm oede
Ġwil den
be h
ip olaire
rige erd
kin son
ĠC R
Ġkarakter iseren
ver lies
ĠP E
Ġver za
Ġimmun os
Ġtrans l
Ġborst kanker
Ġkort ademigheid
Ġtherapeut isch
Ġchron isch
Ġmicrom ol
in dic
Ġm ig
Ġk atten
Ġna dat
za kelijke
Ġanti oxiderende
he er
Ġv l
Ġcardi ogene
Ġten minste
Ġst resstest
ver deling
ĠC ol
im aliseren
studie s
fa gen
orub icine
I MT
ks gezondheid
Ġbasis lijn
" -
Ġuit sluiten
Ġgest eld
Ġmagn esium
Ġdiffer entiÃ«le
aar ten
Ġonder deel
il l
Ġna cht
ĠM B
Ġlong ader
Ġm ater
Ġelectro f
Ġcap aciteit
Ġafgele ide
Ġuitdag ing
H I
Ġm ot
ĠO b
Ġonthul de
w on
Ġinter pret
Ġongun stige
Ġc urve
Ġaan pak
Ġgem akkelijk
verla gende
in n
Ġge acht
Ġkrit ische
ĠA nt
die et
ĠCar otis
Ġrisico stratificatie
Ġperic ard
medi aan
der tig
ur atie
Ġtricusp id
ĠV E
C o
Ġbe droeg
O H
Ġgen e
Ġgediagnostic eerde
Ġbundeltak blok
Ġant rop
Ġ8 9
be se
Ġverschil den
Ġtwee dimensionale
Ġop tie
ul ine
Ġelev ation
gen otype
Ġinterle ukine
st ip
Ġsu pp
Ġvast stellen
b ased
rec eptoren
Ġdon or
Ġonge wen
omyomyomyomyomyomyomyomy omyomyomyomyomyomyomyomy
ĠAR VC
ĠA ustr
Ġeff usie
tig ing
Ġcent ra
Ġcap illaire
Ġre eds
t oe
Ġvoor val
Ġcolla geen
Ġhe den
ocardi omyopathie
Ġtransplant aat
n eg
Ġziek e
gew oon
Ġcruc iaal
o zyg
produc ten
Ġvol de
ĠVer geleken
erf usie
Ġslaap ap
ĠC o
ĠT I
ach ten
Ġex c
Ġvari ant
ĠE chocardiografie
p omp
Ġb olus
Ġmyocardi um
s elect
sch iedenis
ran sp
Ġlong slagader
nit ine
poten t
yrid am
Ġj uli
omeg alie
Ġgerelat eerde
el ine
Ġd ik
Ġa ug
Ġc lu
vallen d
ĠNa ast
Ġmyocardi aal
verw ante
Ġdise ase
Ġme is
Ġabnorm aal
T I
Ġgestandaard iseerde
L AD
Ġcardi opulmonaire
Ġr ond
Ġ9 3
gem b
Ġge complic
ant ilichaam
ĠP P
Ġspect rum
la es
Ġgec or
opul aties
pleeg kun
Ġde fibrillatie
ch lor
Ġpsych ologische
Q T
Ġanti oxid
ĠV ier
percentage s
Ġm atrix
Ġintra operatieve
ept orb
Ġvezel s
Ġc ocaÃ¯ne
Ġ9 4
to o
Ġ9 7
Ġter men
Ġacet yl
Ġver duidelijk
ĠC S
it one
Ġex terne
Ġzorg vul
Ġgeme dieerde
Ġongewen ste
Ġe mot
Ġgen expressie
Ġserum concentraties
Ġvit ro
h onden
Ġde fibrillator
Ġd raag
act ion
a van
i at
ar b
pro tocol
Ġken merk
Ġverkort ing
op ril
met hyl
orbid iteiten
Ġgeactive erde
P ar
re sp
vang er
over y
Ġtoene men
Ġsch ildkl
Ġelectro gram
Ġomge ving
Ġcru zi
'-'-'-'-'-'-'-'-'-'-'-'-'-'-'-'- '-'-'-'-'-'-'-'-'-'-'-'-'-'-'-'-
P R
Ġtijd stip
omet ry
di ameter
Ġle dem
Ġgepro duceerd
ĠE SR
Ġamp litude
w ikkel
lin ical
ĠL in
Ġonderzoek s
Ġ9 1
spro blemen
Ġd rin
myc ine
Ġ ide
ic ul
in o
Ġap ril
i ze
Ġtra ge
elev atie
Ġkru is
Ġaange zien
Ġgek regen
pervla k
om standigheden
Ġ aritmische
Ġan al
Ġheter ogeniteit
Ġch emische
Ġlevensvat baarheid
Ġp H
Ġf low
Ġben eden
Ġregel matige
Ġst udy
Ġdo x
Ġatriov entriculair
al a
rop ische
Ġsamen stelling
Ġzicht baar
Ġvoor doen
ĠE nd
Ġdefin iÃ«ren
Ġa s
ĠP M
Ġcomp onenten
it or
ab oratorium
ĠL an
Ġ9 8
ĠLV H
Ġhaal baarheid
d ine
Ġe vent
gehalte s
ĠN F
Ġinf usie
Ġlig gen
ch oline
Ġbloed ing
ox y
Ġo kt
op or
Ġverlen gd
dra g
Ġle ef
Ġverander d
Ġdier modellen
stim ulatie
Ġperiod ont
R D
ĠZ ij
ion eel
be vindingen
Ġcardioprote ctie
Ġc are
Ġvol too
Ġmin stens
Ġv ul
Ġintermit terende
G A
W h
on ary
han ol
ĠS urve
Dia gnose
Ġr it
ĠH yper
Ġgenee skunde
Ġlip oproteÃ¯ne
Ġat yp
Ġlon gemb
Ġokt ober
Ġorg anen
Ġen t
Ġmet oprolol
ren g
Ġgebru ikelijk
ocardiocardiocardiocardiocardiocardiocardiocardiocardiocardiocardiocardiocardiocardiocardiocardi ocardiocardiocardiocardiocardiocardiocardiocardiocardiocardiocardiocardiocardiocardiocardiocardi
ĠAn dere
Ġneut rofie
daag se
Ġperiode s
Ġe con
Ġaf genomen
Ġla st
Ġverkal king
Ġrapporte erden
V O
Ġcon f
kw aliteit
cep tie
t omografie
omen de
Ġgen otype
stre den
Ontslags datum
W A
Ġverw ond
Ġvasc ul
n ecrose
v ari
Ġro de
Ġfen omeen
eptorb lok
c lu
val v
kan alen
Ġaan verwante
Ġlang zame
Ã ª
Ġl aten
ĠJap an
Ġb ijk
ol oog
Ġverm oed
stru ctieve
upple menten
ĠS BP
ĠG ro
ĠUn ivers
oe sofageale
struct uur
it amine
Ġlevens verw
Ġgedefin ieerde
od ds
cre atinine
f or
ge d
Ġwaar uit
con trol
ation aal
Ġan om
Ġvrij wel
Ġasympt omatisch
Ġn itro
Ġtoege voegd
Ġkle iner
ĠZo wel
Ġintens iteit
N R
Ġverm oeden
lip iden
Ġactiv ator
Ġom streden
Ġoefen ings
Ġbew uste
Ġplacebo gecontroleerde
Ġmacro fagen
Ġgecor rigeerd
Î ¼
Ġh iel
ĠG eslacht
ter end
Ġnatri uretische
ĠHo spital
Ġintram urale
op aus
Ġuit ste
Ġmon otherapie
Ġwijz iging
Ġing reep
. ,
Ġver h
o ft
se ct
Ġwaar nem
Ġges ug
sch at
Ġsy nth
inf ectie
Ġonverander d
Ġbloed armoede
ol in
ff er
Ġgenoe md
Ġend oc
Ġre flex
um inale
Ġho udt
Ġa gressieve
Ġdecenn ia
la p
Ġindex en
v aard
komen de
O X
Ġant erior
avan ceerde
Ġa ss
Ġont van
Ġart ritis
Ġfibrin ogeen
gere erd
Ġlevensverw achting
Ġgesug gereerd
Ġmult ip
Ġbeschrij ft
id de
pat ronen
Ġhet zelfde
te mber
ĠN ieuw
rop ine
Ġsub groepen
Ġatheroscler os
Ã« ro
sm e
Ġlater ale
imm un
k ingen
ent er
Ġort h
Ġactie f
S c
Ġst art
Ġcon centr
Ġintro ductie
m de
Ġbeh alve
Ġpneum onie
ge k
Ġa chtere
ĠM AP
be en
Ġachtere en
a den
Ġl ifestyle
Ġis opro
ec la
ox idering
stit iÃ«le
ĠP W
Ġ100 0
ĠSer um
v aren
Ġeen maal
ĠIn f
)) )
Ġnef ropathie
e iding
al le
Ġgen etisch
ent ale
Ġversch ijn
adrenoc eptor
oh orten
Ġlong oedeem
Ġnier ziekten
Ġm ag
ss ysteem
cardi o
Ġexperim enten
is ol
Ġischemische cardiomyopathie
n iet
Ġstim uleren
Ġprote Ã¯nen
Ġsom s
press iva
st oestand
it es
inf uus
ĠM ass
Ġvol ksgezondheid
Ġmon itoring
or ven
Ġn mol
Ġsy nthese
ĠZ es
Ġweer spiegel
ati ve
Ġreg uleren
transplant aat
ch em
K linische
in aire
Ġin it
Ġst rom
mm etrische
alis ering
Ġemb olie
is ende
ent an
es ultaten
ĠO ntslag
Ġres istent
ĠVan wege
Ġbegon nen
ia anse
III a
con ver
Ġneon atale
Ġgedetaille erde
B S
h ele
N YHA
V I
di eren
ere mm
scop ie
Ġgedeelt elijke
Ġel im
Ġindi rect
jectie ve
k no
Ġp as
vorm ige
Ġbetrouw bare
Ġcholesterol gehalte
Ġlongemb olie
Ġp ts
ĠS C
zi atische
] ;
Ġt olerantie
Ġventrikel functie
Ġne iging
bra ak
Ġma ag
Ġgele verd
Ġpost operatief
dic ap
Ġcirc um
gewoon ten
t ime
ĠC omp
Ġbloed glucose
Ġdeel s
Ġsamen gestelde
ĠAV NRT
Ġmilie u
potent iaal
ero Ã¯den
Ġblan ken
Ġs luit
let e
Ġu p
h onderd
ing le
ex c
Ġgeval ide
Ġondersch eid
ĠR NA
Ġbre de
ad v
Ġc al
Ġwit te
in c
is ie
ert ijd
Ġbypass operatie
re modellering
Ġbehe ers
Ġlicham elijk
Ġvo eren
D E
st ap
mpath ische
Ġbijk omende
a i
Ġverzwak t
Ġver pleegkun
Ġver onder
Ġk amer
be velingen
ĠAmerik anen
ol ff
Ġk n
Ġvoorsp elling
Ġuitvo eren
C or
Ġh am
Ġdiagnose s
sm ateriaal
Ġ199 0
Ġprox imale
Ġ ion
D I
v irus
eer baarheid
bet ering
ect omie
lij sten
hand ha
it el
Ġn ale
comp ense
ĠCardi ovasculaire
opaus ale
zet ten
Ġvas oconstri
Ġ199 8
eff ect
Ġurine zuur
omycomycomycomycomycomycomycomyc omycomycomycomycomycomycomycomyc
otal ol
ne se
Ġcar otis
Ġker n
Ġvoor behandeling
Ġkinder tijd
Ġveil ige
bloed ingen
Ġnormo tensieve
u an
ĠP K
ĠS NP
ente el
rin s
Ġstop gezet
Ġleuk ocyten
af d
Ġprop ort
Ġfoet ale
Ġsuper oxide
ĠcTn I
Ġset ting
Ġisol atie
b la
Ġm es
st ro
Ġon behandelde
oh ist
Ġd abigatran
Ġs ek
ic e
geÃ¯n fecteerde
yst rofie
hydro xy
ia zem
Ġoverle ef
in ogen
Ġp omp
art s
ĠD ise
ĠL AA
Ġrec overy
Ġsep tember
yridam ole
c ept
w eer
dilat atie
Ġbenadruk t
Ġb ovendien
ĠI GF
ĠD oor
Ġricht ing
Ġregel matig
Ġverzwak te
R V
st ent
ag gregatie
eg a
Ġsp oren
ĠM ACE
Ġbesch eiden
Ġbijdra agt
Ġflu or
p la
ox ic
Ġgep land
Ġpat ronen
Ġm uis
il atie
ĠS oc
ĠN orm
ivar iab
Ġbe weging
he em
Ġgeactive erd
Ġme i
Ġvoorsp eld
Ġpar allel
PC R
gebruik ers
Ġaanvan kelijke
o den
Ġpro t
Ġne ur
Ġendothel ine
Ġantit rombotische
ĠI R
Ġpl at
y tro
la v
ĠC C
Ġcon clusie
dig heid
Ġverwijd de
Ġcruc iale
d atie
ĠN S
oede isende
ome in
d ose
Ġer kenning
ĠL A
Ġopgewe kt
U p
ge lu
Ġg lut
aam de
Ġmogelijk heden
Ġzw arte
E M
Ġontde k
ver len
ran s
imm uun
Ġmi R
Ġtal rijke
- (
Ġn ic
ol lar
Ġun ivers
Ġafge sloten
Ġbewij smateriaal
H cy
le ster
Ġle den
orb ide
Ġg olf
gelijk ertijd
ver t
Ġsyste matisch
Ġcan ine
b u
an nen
Ġv orige
Ġc ir
Ġwe zen
Ġge handha
Ġz oe
yp es
sy stemen
Ġged aald
var iab
g gen
Ġap ex
Ġtransplant aten
Ġantic on
ran k
ag eren
ĠN oord
Ġgen orm
ĠII b
Ġoste opor
dil ol
Ġverschil de
Ġkw ets
oÃ¯ den
) /
Ġpro b
Ġper ip
ĠR T
Ġ199 7
dre mpel
Ġmorf ologie
Ġgerandom iseerd
Ġbewust zijn
P H
ge keur
ta il
in testinale
techn ieken
Ġt om
Ġsoor t
Ġaut omatische
Ġfoc ale
Ġdataban k
Ġdiff use
Ġl os
Ġext ras
Ġatyp ische
Ġinter stitiÃ«le
Ġ201 3
iss ion
Ġe m
ĠE R
Ġbe waking
Ġer varen
mp sie
ors ade
Ġv le
Ġo og
ade ming
Ġratten harten
Ġtransm urale
Ġlead s
Ġlat ere
b ru
Ġvoor keur
op ie
Ġonderzoek ers
Ġsubst ant
Ġvl oe
s il
Ġm V
yc ine
Ġgoed gekeur
Ġer ytro
CM R
Ġimmunos up
a ag
orm e
ac et
ĠZ even
ycl ine
wissel ing
I NE
u rose
ch e
requ ent
Ġspi erd
Ġe vol
cardi omycine
Ġ14 0
Ġkomen de
Ġgev aren
kw artiel
Ġgehandha afd
R eden
S C
Ġhart problemen
Ġf und
Ġhyp og
ĠG P
Ġangio genese
Ġgedrag s
Ġelectroph ysiologische
urose mide
Ġde s
ve zel
ĠIn tern
oed ing
Ġge avanceerde
Ġvoorspellen d
Ġdisc rimin
dicht heid
Ġal pha
Ġbelang stelling
Ġrest ri
e chocardiografie
Ġkw artiel
ĠESR D
a w
i di
st erkte
ĠP AD
Ġfalen de
Ġfem orale
D rie
g ren
Ġno oit
Ġ18 0
fic atie
g ingen
Ġs ur
behandel ingen
Ġonbe kende
Ġstop zetting
Ġvererg ering
Ġtab ak
c urve
Ġventrikel uit
Ġsep sis
angio tensine
Ġt hyro
ig ingen
Ġgele den
Ġcatechola mine
kno op
Ġop lossing
it er
ust achycardie
N I
g rond
Ġs al
ocardocardocardocard ocardocardocardocard
Ġamylo Ã¯de
r isch
Ġdeel tjes
f il
Ġvers nel
iciÃ«n t
Ġhart spier
gra diÃ«nt
vaar digd
Ġantrop ometrische
o us
Ġet hanol
ĠGe gevens
Ġontde kking
Ġradiofrequentie ablatie
Ġtranscrip tie
Ġveelbeloven de
Ġsubstant iÃ«le
Ġd arm
Ġar be
Ġhom ozyg
Ġcatechola min
Ġver nauw
DL INE
ĠVer volgens
Ġgek want
Ġvit ale
Ġhandha ven
Ġmater nale
re m
Ġkw aad
Ġrelev ant
Ġscintigra fie
Ġevalu aties
Ġtest osteron
Ġst abil
Ġz one
am ent
ve dilol
ste m
ap t
ist r
ĠW olff
Ġbestude erde
g aat
Ġd ollar
Ġc y
i erd
Ġoor zakelijke
ĠgeÃ¯n ject
Ġcalcium kanaal
Ġloop band
U FA
i ers
ijk en
Ġ19 95
Ġend omi
Ġspec iale
Ġprec ie
Ġcardiop leg
sect ionele
e valuatie
Ġvet weefsel
Ġd ringen
Ġ( ((
del ingen
Ġ11 0
ize d
sch a
Ġtra um
sc an
Ġintern ationale
c ain
Ġanest hesie
S V
om ic
ĠT en
ib ele
Ġnod al
ro l
Ġver di
Ġpro v
Med ische
lu cht
gevoel igheid
Ġzwangerschap s
Ġconc ept
ro ken
ocy te
cijf ers
Ġcum ulering
hyd raten
Par kinson
idde la
ĠSoc iet
M AP
Ġc ell
Ġwaar voor
Ġher steld
Ġantist offen
Ġop los
Ġis o
ste chn
os ociale
wen en
positie ve
art er
Ġcont act
Ġverduidelijk en
Ġp aar
ĠGe schiedenis
Ġbiom arker
r s
Ġs em
ss p
omet rie
Ġrel aties
sequ entie
Ġschildkl ier
i la
Ġe GFR
as men
me de
Ġsch okken
Ġsub end
ule ert
ot on
Ġ5 00
ke ken
ode s
Ġelectro cardi
Ġverd wenen
Ġslaapap neu
iver en
glycer ine
Ġcircum flex
Ġover gang
Ġbar or
P atiÃ«nten
al iteiten
Ġ( ((((((((
Ġkenmer kend
ĠOm dat
Ġverwond ingen
ic i
Ġsin ustachycardie
er ol
Ġa der
ich am
Ġble ken
Ġver volg
Ġontw erp
do el
Ġprof yla
is functie
ĠA po
gif tiging
Ġmitochondri a
Ġonvol le
Ġoverd racht
A H
an at
ĠH D
Ġdoor gaan
ĠV ijf
Ġsp oedeisende
Ġbeen merg
Ġber oep
Ġneutrofie len
ohist och
Ġproce d
Ġast ma
"- "-
ot isch
app a
Ġnale ving
Ġo ut
ĠP O
Ġbem iddela
Ġcyc lo
U C
Ġp unten
mer ase
Ġhemodynam isch
Ġinst abiliteit
Ġkool hydraten
om arkers
os iteit
veer tig
adrenerg ische
ecla mpsie
m eer
op h
Ġsnel heids
Ġwand beweging
Ġemot ionele
t ot
Ġre activiteit
Ġgem eng
Ġgemeng de
de pressie
Ġaan vaard
ru it
ran diale
Ġmicro albuminurie
Ġvereis en
Ġapolip oproteÃ¯ne
Ġge spec
ok in
plaat j
vul d
icardi um
bru ari
Ġaort astenose
Ġde sm
im um
ijd ing
Ġkwant ificeren
ĠMedic al
ĠSociet y
or ff
op pervlakte
Ġontde kt
Ġdiep e
Ġovereen komst
myocard infarct
arc in
Ġgekwant ificeerd
Ġdrie dimensionale
ĠT erwijl
Ġdosis afhankelijke
bi opsie
won ers
en c
ĠC M
Ġbem oe
o zen
Ã« ff
Ġmo b
Ġander s
ĠPC OS
Ġin n
ati ent
ol on
sor i
Ġpo in
v a
Ġm entale
Ġ4 00
blok ker
Ġchem otherapie
Y P
Ġeen heid
Ġ- ((((
t et
Ġdaar mee
ĠgeÃ¯dentific eerde
Ġpacem akers
Ġtyp isch
Ġrep resent
Ġe cardiocardi
Ġant ip
pt ine
Ġadhesie molecule
Ġbeper ken
Ġosteopor ose
Q R
p opulaties
s ge
Ġvoorsp elt
Ġwerk nemers
Ġversch a
Ġun ivariate
m us
Ġf le
CM O
Ġmis lu
Ġzenuw stelsel
res erve
Ġret in
fra g
tri al
gevoel ige
gend orff
Ġgecomplic eerd
L S
Ġl um
ĠH ST
ĠS LE
Ġse dent
Ġcongest ieve
Ġb Ã¨
di vidu
Ġges cre
Ġvoort gezet
Ġblokk ade
al pha
Ġalge hele
oscop ische
eff ecten
" ,
T G
ro t
Ġhart herstel
ĠM D
Ġstat inetherapie
Ġmitr ale
cent rum
Ġar hy
Wh ite
ische mie
Ġfamil ies
Ġvi erde
f low
p lasm
Ġc at
sel ijke
Ġ13 0
Ġth uis
Ġledem aten
ĠO ver
Ġvol um
o un
Ġint ubatie
Ġlangdu rig
gezond heids
Ġdoorgaan s
p unten
oor delen
Ġk eten
Ġtra c
Ġmedic ijnen
o w
Ġendot heel
ĠT C
Ġprote Ã¯n
weg ings
ife ste
Ġte k
ĠA A
icul um
ĠSurve y
al ity
Ġeen voudig
vorm ende
gest uur
Ġlig t
hydro gen
Ġdraag t
f al
at oÃ¯de
Ġs ingle
rop a
Ġinduc eerbare
T NF
h s
Ġp il
Ġhoog st
Ġvertegenwoor dig
Ġag on
Ġtermin ale
Ġ199 4
ĠDise ase
b inding
l oc
Ġt et
ist ar
Ġvasodilat atie
Ġdomin ante
Ġspierd ystrofie
Ġv la
Ġin komen
Ġon op
ver tra
Ġaf stand
Ġuit bre
Ġradi o
Ġmanifest atie
otsub ocardiomyopathie
Ġdrug s
Ġvalv ulaire
vent raire
Ġkwaad aardige
h etische
iek atheter
ath eters
ectie ve
Ġcomp lete
Ġprecie ze
icham elijk
A triale
ĠCh ina
Ġopge lo
teren ol
m es
en ergie
Ġover wegen
remm ing
Ġvo cht
Ġd ro
Ġver gez
ĠPC R
unde erd
ivariab le
K A
Ġmin imaal
Ġlangetermijn resultaten
Ġdip yridamole
Ġlinkerkam erkamer
neg atieve
Ġontvan gen
te kort
00 7
Ġmy opathie
fie len
ept ide
Ġwaarschijnlijk heid
Ġtij delijk
Ġverstoor de
I F
ĠL e
rit mogene
Ġdaar na
Ġongebru ikelijke
Ġhetero zyg
mon sters
Ġlucht weg
interventie s
Ġomge zet
aand oen
Ġsuiker ziekte
uw en
00 6
icht ing
Ġkw al
Ġtromb otische
Ġgere cht
Ġcyt os
Ġtricusp ide
oefen ingen
Ġversnel de
Ġvergez eld
Ġamin o
chlor ide
Ġvoor zien
ot ine
Ġst abiliteit
alen de
Ġsc ala
Ġregressie modellen
Ġantib iot
Ġvereis te
Ġvolde den
Ġecon omische
ĠP VC
par aten
m g
o und
Ġb ro
Ġstudie populatie
ĠL at
con t
Ġzw are
iciÃ«n te
Ġk at
Ġhart my
ores centie
m od
v ragen
Ġint acte
Ġgeboorte gewicht
d oses
Ġp ub
ĠN STE
Ġpre cor
Ġplace b
Ġkort durende
Ġnam elijk
cardi omy
Ġvers n
t iazem
Ġp osit
Ġon ver
ep en
me dicatie
ei z
spat ronen
Ġdox orubicine
ent raire
lo od
Ġover t
ĠHR M
Ġfe bruari
d nis
ĠM ed
Ġziek terisico
Ġresp on
Ġsyste men
Ġlo zing
Ġuitgang s
r ist
ĠA SA
ap o
ĠgeÃ¯n teg
Ġann ulus
al bumine
Ġanalyse erden
itu atie
Ġimplant aten
l i
lin ieken
Ġtoe passingen
ust us
sme chan
W T
ĠC ent
Ġstudie groep
res istentie
Ġsitu atie
Ġbiv entriculaire
Ġvergemakkelijk en
u v
at ment
ter ing
vol ging
Ġpass ende
Ġonderwer p
Ġvag ale
Ġman ifeste
Ġaant onen
ĠOp name
Ġvis cer
Ġn ec
Ġop vallend
im eter
ĠW istar
Ġ199 2
Ġplaats v
r id
Ġl and
ĠE chocardi
Ġ199 6
Ġbloedplaatjes aggregatie
radi ol
d ur
agn etische
soor ten
Ġin hib
Ġeen s
Ġgerecht vaardigd
ĠQ u
Ġpsych osociale
Ġwil d
olys is
oc ine
Ã«ro be
Ġsluit ing
ane st
Ġonderste und
m t
ĠCardi ology
heem se
b oven
Ġsign alen
Ġangi ogram
ĠOn s
Ġen zymen
ul f
ve mber
Ġmy osine
Ġextre m
t al
le ct
ĠIn stit
olie ten
Ġrest erende
Ġinstru ment
z iekenhuis
ar k
ine frine
ĠN AF
Ġaf braak
Ġpersoon s
ben ader
â Ģ
te erden
Ġre d
Ġfoet ussen
Ġuitsluiten d
dy sp
Ontslags amenvatting
di al
ĠT ak
Ġwand dikte
ĠVE GF
ge paste
id t
Ġre age
Ġvol gt
Ġdete ct
E G
u ri
ĠH is
ĠB rug
Ġfamilie leden
metho den
Ġconst ante
ycard ycard
conver terend
On langs
Ġbeheers ing
orf e
ijft ig
Ġg lad
os oom
actie s
Ġanti aritmische
Ġangi ografische
Ġbeschrij ving
Ġpolik linische
mal ige
Ã ł
Ġc ult
aar s
ĠM on
uss ie
Ġnitro glycerine
r is
at uratie
it oren
ĠI A
och rane
d heid
o ag
Ġb aat
Ġre produc
Ġf ruit
fer ase
Ġbrad y
Ġmi RNA
ĠLan gendorff
V eel
b ruik
Ġb if
Ġb uur
Ġbe sluit
ut ion
Ġven a
ilt r
N e
Ġver g
Ġle ptine
ĠN CT
Ġman agement
Ġdem entie
arg inine
Ġn ationaal
kla ar
et h
b ron
et ine
ĠA p
uur s
requent iekatheter
C H
an c
ĠEr nstige
ĠEn gel
or ac
Ġpar a
Be handeling
Ġskelet spieren
Ġontdek ten
Ġ( >
sch rijven
ch rom
Ġatri a
Ġser iÃ«le
hyper tensie
Ġinfectie s
Ġdialyse patiÃ«nten
plaats ing
Ġcontractie le
F T
S PECT
he s
ĠA ther
ui ver
pro ces
Ġat ropine
Ġneu ropathie
stij ging
Ġcategorie Ã«n
Ġm M
se ud
Ġonderwer pen
v aat
ri but
ĠI CM
Ġtrans ient
sori asis
Ġ il
Ġm apping
rip t
Ġdil tiazem
ĠgeÃ¯nject eerd
Ġin z
Ġvast gestelde
Ġvervan gen
pre ventie
ca Ã¯n
ĠM A
vent ion
Ġtranscrip t
I P
Ġc ov
Ġontwikkel ings
schijn selen
Ġknoopp unt
m ale
ĠM T
Ġgen oom
et itieve
Ġp unt
Ġge lok
amen stelling
Ġel ast
oprote Ã¯n
Ġsitu aties
Ġgescre end
Ġant h
ĠBe vindingen
in us
Ġpro min
olin ium
Ġge heel
id ase
Ġover maat
acht ig
ĠAc ute
opy opy
Ġkandid aat
Ġpericard itis
i wit
ĠI S
ov irus
ced urale
Ġhan dicap
ot one
Ġkle ur
Ġmethode s
oscop ie
k ere
ĠK on
Ġhandha ving
c ard
Ġc ohorten
ath ion
Ġontw orpen
Ġpostp randiale
Ġ iets
Ġt horax
ec ifieke
we st
is erende
Ġinter view
Ġmicro scop
Ġverw orven
Ġstim uli
Ġpoly merase
ĠNAF LD
Ġuit ing
ne ss
var oxaban
Ġspont aan
instru cties
Ġinterpret atie
Ġpoin tes
ĠC ochrane
Ġiden t
T c
ir atoire
Ġnier transplantatie
Ġ199 1
Ġverz org
ynchron ie
itone ale
ĠC B
Ġaug ustus
Ġt im
Al s
ele ctieve
Ġgro enten
Ġontwikkel t
Ġ16 0
Ġdy st
le y
ĠInstit ute
l on
ic ag
odynam ische
gor it
synth ase
Ġkorter e
D G
E A
L ijst
T C
Ġmetab olisch
Ġpersoons jaren
ac c
o ok
nam nese
Ġlong ziekte
PW V
hom ocyste
Ġverscha ffen
U A
Ġs ens
Ġg ad
Ġpro spectief
Ġsamenge vat
Amerik aanse
it atief
as ische
ef lex
Ġdecenn ium
Ġlid ocaÃ¯ne
Ġde x
Ġre stenose
ĠC F
Ġverminder den
Ġonderste unt
Ġherh aald
Ġople veren
P M
ĠV rouw
ĠO x
Ġcorrel eren
Ġret iculum
ĠME DLINE
b ec
Ġw arm
Ġt waalf
he ers
Ġal goritme
ĠP ar
ab ase
ĠD uit
ĠF ollow
assa y
Ġgoedgekeur d
sch eiding
Ġont spanning
Ġ199 3
Ġeffectie ver
gener atieve
Ġisopro terenol
ken nen
op amine
Ġtren ds
"""" """"
ge v
Ġbe gele
Ġme et
Ġemb ry
emyemy emyemy
Ġoplos baar
at ch
ver wij
Ġhem ost
Ġoxid atie
Ġonderdruk king
inciden ten
at isch
Ġri varoxaban
sequ ent
Ġsequ entie
O C
der ne
cess ieve
Ġvertegenwoor digen
Ġantioxid anten
Ġverschijn selen
Ġon even
ĠP AF
ĠS ch
Ġbest eed
Ġep inefrine
Ġvoort durende
m is
ĠL M
Ġkan alen
Ġmon onucle
lan ge
Ġimmun ohistoch
complex en
b es
p ort
ak ken
Ġpers istente
weg ingen
Ġhypert hyreoÃ¯die
se ff
Ġsamen vatting
Ġste delijke
ĠSc ale
syn chron
sge wijze
v rouwen
Ġp al
ste king
Ġstim ulering
pers ie
Ġproduc eren
C RT
Ġe st
rec eptorblok
verander ing
ĠbeÃ«in digd
in al
ie el
Ġinclusie f
ar io
Ġk liniek
ivea us
och rom
Ġvroeg tijdig
Ġindic atoren
Ġcent imeter
Ġverm ijden
hel derd
LI SA
Â ²
or atio
Ġf it
Ġhyp ere
Ġzout oplossing
Ġonver klaar
sm assa
ĠPW V
c alc
m inder
Ġpro duct
Ġt rig
Ġwer kelijke
act iver
ĠV O
Ġpan cre
i delijke
Ġop komende
Ġstudie periode
Ġap ical
pers onen
S BP
ar me
Ġ( "
ĠA cht
Ġopge helderd
organ isatie
Ġcomp onent
Ġgevalide erd
in duc
ov erd
Ġno vember
Ġna b
Ġintens ive
Ġuitste kende
rins ieke
u ra
de hydrogen
sept ale
Ġg ran
inder en
Ġontwikkel ingen
rel or
Ġhart hypertrofie
onder s
Ġdi verse
ĠPT CA
Ġdoelwit ten
v irale
Ġeen heden
Ġre ageren
gele gd
12 3
Ġinot ropische
g ov
Ġindic ator
Ġparoxysm al
o op
Ġ Ċ
Ġexperim enteel
Ġhoeveel heden
b reng
onder steun
Ġleeftijds groepen
et ic
Ġw issel
le menten
ĠE MB
Ġmy ocyt
tra c
Z es
n oe
at ing
Ġstr atific
Ġrestri ctieve
e fficiÃ«ntie
Ġv inden
ĠC ho
Ġr isk
gelijk heden
Ġklein ere
entr ar
alis klep
my ocardiale
maat regelen
ix aban
Ġhaal baar
Ġruim telijke
i ro
Ġact iveren
Ġgezondheid stoestand
ĠAng i
Ġverpleegkun digen
ĠBrug ada
ijn s
ĠH z
dien sten
def iciÃ«ntie
m ate
u ken
w a
sm odel
ĠPro gram
ink rijk
re e
Ġwaar mee
ĠKon inkrijk
ver schijnselen
Ġcent raal
Ġfra ctie
ĠI U
ĠS le
Ġfen otypes
Ġd un
Ġst aan
im er
Ġna der
Ġroutine matig
E erdere
de d
Ġb acter
Ġt orsade
orm en
Ġprolif eratie
Ġv ond
Ġmil d
co Ã«ff
on es
la s
sch er
il ie
oren de
Ġreum atoÃ¯de
D R
en en
Ġ12 3
ĠK ore
dur end
y mpathische
de hy
ĠVoor t
Ġschat tingen
Ġvarie erden
y R
en sie
Ġge sp
ss ynchronie
ivea u
ug rel
Ġ25 0
Ge gevens
s ine
der iv
ver betering
val id
Ġmy el
oscler otische
ĠVeren igd
ĠAD P
Ġseks uele
Ġreden en
ap ril
00 8
Ġperif eer
vi val
Ġdoodsoor zaken
Q RS
Ġhart troponine
Ġ201 4
lipoproteÃ¯ne cholesterol
ĠVol gens
Cor onaire
Ġcov ari
t ings
Ġt ime
Ġhart disfunctie
aan s
ac ute
ĠZ ijn
12 0
ph rine
Ġmaak te
b ine
Ġver ster
Ġkla ssen
Ġsn ell
Ġwaarnem ing
Z o
v is
Ġeen malige
Ġf ist
ĠC are
rom et
Ġtrans fusie
Ġachter grond
Ġrisic op
oor t
Ġbereik ten
Ġbe ademing
ĠpatiÃ«n te
Ġlever t
Ġham sters
Ġver spre
Ġoverle den
Ġmetho d
ĠPV I
contra ctie
c ell
ĠO S
tie ve
Ġkw art
ĠOp namedatum
Ġdisc ussie
Ġall el
Ġrec ombin
open ie
Ġtri al
Ġsedent aire
breng st
dehy de
Ġv entie
Ġn ife
Ġont st
gesch a
Ġwee s
Ġzorg t
g lyc
h oek
Ġ1 01
rie t
Ġpat ch
Ġzenuw systeem
Ġvo ert
spra ak
Ġbevorder t
ĠH C
af en
Ġvergelijk ingen
agon ist
Ġmut ant
Ġnod ale
erv atie
Ġw onden
Ġl ys
Ġcardi otoxiciteit
Ġgek ozen
st offen
Ġb rug
Ġasy mmetrische
myc ard
horm onen
ge val
Ġg al
Dia betes
ĠT oen
M G
s z
Ġs otalol
Ġger ep
Ġlan delijke
index en
Ġonderdruk t
Ġlichaams gewicht
Ġvermoe delijke
Ġpog ing
V P
ad ox
of ol
ĠG H
isode s
Ġpolymorph ische
Ġbra chiale
Ġdiagnost ic
gestuur de
f ac
de fect
O L
e ind
Ġer g
of ren
Ġhartk lep
Ġradic alen
Ġbuur t
Ġgad olinium
l eren
Ġre model
Ġr ate
im uleerde
kom ing
m s
Ġaf spraken
Ġverw ar
variab elen
p elijk
Ġo var
Ġgeb oren
Ġfunction eel
activ atie
Ġp ri
ĠC HA
Ġcon text
Ġgesch eiden
reg ister
Ġalcohol ische
Ġvragen lijsten
ul en
me d
smet ho
Ġglomer ular
Ġtransl uminale
n ier
s upplementen
Ġs ament
am ers
ce fal
ologie Ã«n
ĠIg G
M y
c ip
x e
id ingen
oe g
Ġmen ing
ger icht
sens us
A MP
a il
Ġwer ken
rel ated
Ġlever ziekte
c yt
w an
Ġin woners
Ġgereg uleerd
Ġfosf olip
lester ol
arcin oom
on u
sch ien
Ġantibloed plaatjes
q ui
Ġom ega
hal ing
ed urende
Ġat t
Ġleeftijds gebonden
Ġretin opathie
at o
ĠP PAR
sul f
Ġsept al
---------------------------------------------------------------- ----------------------------------------------------------------
h en
op ress
Ġf urosemide
um oren
Ġdeel name
Ġd al
ĠS ur
d arm
Ġhart t
fractie s
Ġgewicht s
Ġtumor necrose
Ġprost aat
volum es
Ġstresstest s
Ġst oor
ĠU A
let ie
Ġheter ogene
k aarten
ĠIn tra
Ġhypot hermie
Ġzeld zaam
Ġkrit isch
hol te
dehydrogen ase
v igheid
Ġbloed lichaam
VA Sc
iz ofren
Ġbemoe ilijk
ent ig
Ġop pervlak
Ġrisico beoordeling
ĠM it
t ine
ie len
Ġbij gedragen
Ġgeneesmiddel entherapie
Ġvarie ert
ĠHyper tensie
Ġen ter
Ġmy oc
sel ijk
Ġovereen komen
ransp lante
id on
Ġg ingen
ver gelijk
Ġher stellen
Ġintra coronaire
Ġko ude
b allon
r isic
ro tische
Ġmet h
ĠO nt
functie s
Ġl ij
Ġrem mende
Ġsupp lementen
ĠP atiÃ«nt
Ġex erc
ĠK ap
fibrill atoren
Ġelekt ronische
B L
Ġde f
Ġs elect
Ġal dosteron
Ġbloed stol
cl ide
vorm en
Ġspier cellen
ras ugrel
d osis
or ine
om eter
se arch
Ġtegen st
Ġrelev antie
Ġbewij zen
Ġplaceb ogroep
g aven
x pressie
Ġd oppler
Ġvol gen
Ġsub s
verza digde
Ġp aren
Ġwaar op
Ġvaak st
Ġplaat selijke
Ġultras on
Ġproced urele
P LA
Ġtert ile
ge drag
sm o
% ]
R e
ĠL D
be heer
Ġcardiomyopathie Ã«n
Ġmetab ol
om ere
Ġverst re
lan de
pre valentie
Ġanom alie
on tre
Ġin ten
Ġres erve
oef ening
Ġverd w
Ġneon aten
Ġgroei ende
vragen lijst
S p
Ġglut athion
y lo
Ġb rand
ist isch
Ġcontra ctieve
etro virale
Ġhum aan
yst ole
Ġelectrof ysiologisch
Ġtegenst rij
A namnese
g ue
it aties
Ġwer kt
Ġreg istratie
Ġmyocardische mie
Ġmon ocyten
Ġeven wicht
Ġinspannings capaciteit
ob structie
ser um
ola ct
Ġbereik te
ĠGe zien
Ġbron nen
Ġbloed stalen
wij de
Ġze ker
k osten
or i
ot omy
pra gue
Ġvoort durend
Ġcom orbiditeiten
ine sie
lop ige
Ġvertra gen
d P
Ġk west
ĠL C
over belasting
lan den
Ġbeperk ing
Ġverdo ofd
ui gen
ĠgeÃ¯n tro
U R
Ġp lant
Ġp rasugrel
as k
as me
Ġle eft
Ġals mede
Ġendocard itis
iat rische
R ecente
Ġvoor koming
Ġte gelijkertijd
spie gelen
Ġverst oring
Ġre mm
em a
Ġserum cholesterol
Ġweer spiegelen
onu clide
I QR
ge ving
is aties
Ġp soriasis
ap en
ĠS ommige
Ġbehandel t
Ġbetro f
vertra ging
Ġa ff
ĠC H
ax atie
Ġint rinsieke
Ġcry o
Ġbe keken
Ġr an
Ġkracht ig
Ġloc atie
select ine
icag relor
ondersteun ing
vent ig
Ġmalign e
Ġventrikeluit stroomkanaal
P L
Ġm ond
Ġmult ivariable
pp ort
therapie Ã«n
riglycer idemie
c al
Ġmy of
Ġoper atief
stat isch
aliÃ« mie
ĠP ub
Ġverk eerde
eut ische
Ġpath way
Ver geleken
ryp an
Ġcoorbid iteiten
de fin
ĠpatiÃ«nten populatie
Ġintra vasculaire
Ġcirc uit
ider s
Ġsegment ale
Ġcardi o
Ġover heers
Ġglyc oproteÃ¯ne
or y
Ġvast en
Ġhuis artsen
ĠIC U
Ġthal ium
Ġonderzo chte
adren aline
ĠPA I
le ven
Ġsp anning
Ġac idose
Ġ12 5
Ġbere kening
Ġverw achte
PE T
Ġradiof requentiekatheter
Ġhs CRP
Ġnab oot
Ġaan val
ogene se
ĠgeÃ¯n f
Ġreum atische
ĠOntslag datum
T R
Ġkopp eling
Ġverster ken
j ecten
Ġde p
ĠC YP
otsel inge
Ġserum creatinine
Ġzorg verlen
Ġactie potentiaal
uiv ing
Ġm el
Ġcardi ogram
Ġhyp op
sper iode
aut omat
Ġwetenschap pelijke
Ġsek se
A b
S inds
Ġge est
ĠA MP
Ġenzym atische
Ġw eg
ran iÃ«le
inet iek
Ġcytok ine
Ġent iteit
ĠKap lan
Ġbev elen
gorit men
Ġbe zoeken
un g
comp action
Ġopgewe kte
n iciteit
mechan ismen
Ġin c
Ġsch epen
b asis
Ġge adv
la ge
ole sc
Ġcomp ens
Ġdis funct
Ġmult if
12 5
ĠAR VD
Ġomk eerbaar
odi fic
ie le
ol oge
Ġvoor gestelde
Ġad v
Ġmis schien
L aboratorium
een s
ĠF A
ĠgeÃ¯n ter
Ġcorrel eert
ĠID C
Ġant er
duur zame
Ġstap sgewijze
Ġvla k
Ġa sc
Ġbe zorg
ĠM omenteel
Ġget ransplante
Ġsuper ior
gescha ft
Ġgeadv iseerd
c ult
di alyse
id heid
Ġop volging
ĠS ub
ĠD DD
Ġoor zakelijk
Ġzwang ere
Ġacetyl choline
stechn ieken
aandoen ing
benader ing
ribut ie
al ip
Ġver wijzing
Ġnatri uret
Ġcap t
Me ier
Ġvernauw ing
ra ine
ĠA ziatische
Ġactiviteit s
Ġhypot hyreoÃ¯die
Ġadip ose
H P
Ġp seud
le d
ĠS prague
Ġrecht erk
Ġdel ta
ent ing
Ġper itoneale
Ġextra stim
Ġinfectie uze
Ġster ker
richt lijnen
ĠUnivers ity
G P
m ia
id ings
ri ene
ĠV as
Ġaf geschaft
Ob esitas
Ġsament rekking
er eld
ĠS E
Ġover expressie
AS E
mot or
Ġdataban ken
Ġsl uiten
i ende
s aturatie
in aal
ot opische
ur r
ĠE erdere
Ġcomplex en
Ġmeis jes
sil on
D oor
om k
ste mische
ĠD at
ium zuur
ente gen
ob structieve
Ġk et
plaatj est
ĠS e
Ġcatecholamin en
m aten
u res
Ġh omeostase
Ġpre dis
ron olact
Ġradi ale
Ġech ografie
ĠE PC
sub st
eremm ers
p atiÃ«nt
Ġ arm
ia ir
min istr
sl and
Ġcar vedilol
st ee
min istratie
Ġnauw e
ĠcTn T
Ġinteg r
le iding
ist offen
ĠR o
Ġsch izofren
behandel d
ĠproteÃ¯ne kinase
ĠCho lesterol
w ort
Ġ ante
Ġv entric
Ġuit een
AD S
Ġzuurstof soorten
Ġmedi aan
A f
Ġcon sensus
lo ze
ule s
rag ers
Ġendomi ocardiale
T itel
Ġv aten
inter kwartiel
Ġhemodialyse patiÃ«nten
Ġatherogene se
Ġindirect e
Ġbaror eflex
v ingen
at ose
al ische
Ġge stratific
ot a
oc atie
ĠD ES
Ġmult ifactor
Ġcav a
Ġin heemse
der de
ĠA BI
cor p
ĠEu ropa
Ġrandom iseerde
Ġthorac ale
regul ation
O ver
st ering
Ġre entry
ĠVer hoogde
c ode
ge geven
al ige
Ġbe k
ĠH yp
ĠH ist
Ġinter vallen
Ġaant oon
Ġeven eens
Ġz oek
am ycine
ĠW at
Ġ198 8
p art
it aire
ke d
Ġonge paste
Ġfo laat
ĠbeÃ«in diging
Ġbesluit vorming
der land
Ġu re
yc ardi
con structie
ce ssen
ed antie
sc re
Ġbron ch
Ġgerandom iseerde
Ġv rijk
ĠF H
Ġlinkerventrikel hypertrofie
deel tjes
oxid ase
flu raan
pro duct
gem erkt
Ver hoogde
Ġsympath ieke
Ġhorm onen
he en
Ġer voer
Ġhypertro f
Ġconc lu
Ġischa emic
Ġtek st
Ġplasm inogen
Ġonderdruk ken
di ffer
ul atoire
we k
Ġdeel nemen
Ġinspann ingen
Ġbloeden de
Ġfra ct
Ġsamenhan gen
ritmie Ã«n
ri um
ĠC L
ĠH er
Ġcon serv
ab le
mon itoring
Ġorgan ische
exc itatie
Ġb ipolaire
Ġcon sequent
Ver loop
Ġhart re
Ġg amma
ĠA C
ere g
ĠT re
ĠV als
ĠR adi
Ġelektro de
m oe
it raat
ss ituatie
Ġaf lopende
reg urgitatie
Ġtoegedi ende
ĠCan ade
Ġgevaren ratio
Ġuitbre iding
Ġpromin ente
E V
or gaan
oc ale
he imer
Ġcardi ologen
Ġcardi oloog
Ġhe art
ane urysma
Ġmitr al
Ġleeftijds groep
sor ptie
Ġmodi fie
g lut
Ġst ol
ul l
Ġ6 00
LV H
Ġtechn ische
Ġdepressie ve
Ġbijzonder e
horm oon
Ġdim ensie
bla sten
Ġgeest elijke
ct ische
om zetting
Ġdoel stellingen
Ġouder s
Ġantic oag
Ġsamenhan gende
Ġonverklaar bare
M M
ge gaan
Ġhart index
Ġu ter
ho u
ĠE G
Ġcardi omet
tie el
Ġatrium pacing
Ġmon o
(- /-
Ġradic ale
la ag
Ġonderv raag
Ġstoor nissen
Ġe mp
stol ic
ex ic
Ġprop ofol
a ant
k opp
lijk heid
Ġant ir
Ġreg urg
Ġgaan de
ĠTri al
Ġnorepine phrine
Ġvasoconstri ctie
z heimer
Ġziekte s
ĠgeÃ¯ntro duceerd
u ut
Ġhart afwijkingen
ang ina
im uleerd
ĠV rouwen
Ġvorm t
Ġelectro cardiografisch
Ġbetrouwbaar heid
Ġatriov entraire
Ġtransp ort
H o
S er
S CD
w are
Ġp akken
form ine
ro ege
Ġon verw
Ġon regel
qu Ãª
Ġsamen hang
lig atie
Ġglyc emische
Ġpap illaire
Ġout put
L ichamelijk
Z even
le ge
00 9
lo z
ist of
Ġverschil t
Ġsug gest
Be oordelen
Ġruim te
Ġt el
Ġin sufficiÃ«ntie
Ġz u
ĠG FR
Ġgere md
agas ische
hospit alisatie
T A
g amma
k appa
in ductie
ge assoc
Ġdo wn
ind ings
amil ie
ĠRe search
Ġcort ic
Ġass ay
Ġv als
te ert
Ġz etten
Ġer kende
Ġont vangers
dien st
Ġtromb ine
Ġvis uele
sign aal
Ġen e
Ġp atient
ĠD u
een heid
Ġcorrel eerden
Ġlitte kens
Ġtim ing
ar cop
ĠL ichaam
Ġ10 5
Ġhypert riglyceridemie
ĠEl ke
ssp ecifieke
Ġsubend ocardiale
V ol
l otselinge
it al
it ation
ia c
ĠB i
est s
ĠNe derland
Ġnorepine frine
+ +
Â °
en cy
er ale
ĠT c
Ġmon of
Ġradi onuclide
dis persie
V ier
en dertig
et hy
sch aal
ific ante
ĠM Y
Ġ- ((((((((
Ġvat baar
artum cardiomyopathie
path way
tail s
Ġleeft ijden
d omein
la se
Ġbij voorbeeld
ak om
cent ra
Ġcardiomy ocyten
\ '
k racht
la bel
Ġsur ro
akom elingen
b as
on eel
Ġonder stre
ĠT R
Ġ19 80
Ġmaak ten
Y Y
ĠW ereld
man agement
ret ie
Ġtransthorac ale
ĠAustr aliÃ«
Ġhypog lykemie
Ġventie l
d on
Ġcardi omegalie
aaaaaaaa aaaaaaaa
Ġpolymerase keten
Ġlij vigheid
Ġconclu deren
Ġ( ()
om isch
Ġuit sluiting
hoog d
bep erking
- /
] :
t age
ro log
Ġcomp lement
dat aban
Ġrec id
Ġjon gen
Ġvoeding smiddelen
man nen
Ġepidemi ologie
Ġgenoe g
Ġzorgvul dige
erol aterale
me dic
up us
ĠAl zheimer
ĠT n
ip lin
ĠO f
ble ss
Ġsh am
Ġ-(( )
ĠTI MI
Ġt reft
Ġon omk
ri de
Ġgez icht
Ġsch ool
Ġelectro cardiogram
cain ide
Ġinz ichten
o el
Ġs oep
Ġer yt
waar schijnlijk
Ġger ichte
Ġortho statisch
Ġover matige
Ġzo gen
diast olisch
max imale
aties nelheid
Ġmoe st
Ġ198 9
Ġherhal ingen
s gewicht
cy ten
Ġbestand deel
V oeg
al va
Ġn akomelingen
ĠS ten
lip ide
Ġad j
Ġuitgang ssituatie
b ar
b orst
Ġ( +
art ering
ep ten
tro ke
ĠN AD
Ġant ide
Ġple urale
) :**
Ġmet hyl
ur t
ren gt
isc iplin
'''' ''''
Ġrepresent atieve
op atische
Ġaanget ast
Ġintra ventriculaire
Ġdiagnostic eren
Ġverstre kt
Ġantir etrovirale
Ġre kru
erg ische
ĠHart slag
s la
Ġm irale
Ġop w
ĠI mp
ĠE S
zaam heid
Ġar rest
Ġpostmen opausale
Ġantagon ist
Ġbeginnen de
Ġcyclus duur
tel and
F P
or ig
Ġw acht
ĠC linical
Ġpro gest
Ġeven re
Ġaltern ans
circ uit
Ġsynth etische
Ġver en
Ġc ur
Ġkan aal
Ġth i
tromb ose
verb ruik
stap eling
A I
A c
ĠG I
Ġtromb olytische
alc ohol
bo uw
termin al
ĠCor onary
amp litude
Ġtele f
ochrom ocyt
3 00
p to
Ġd achten
Ġt op
Ġge he
Ġf et
ĠP I
ĠG R
Ġgede compense
Ġaanvul ling
ĠTri als
A d
ra p
omm elingen
Ġdringen de
f et
l ation
v ijftig
om ot
Ġz orgen
ĠM en
Ġveroorzaak ten
Ġverb inding
ne de
oef ten
Ġcorrel eerde
Ġster ven
hulp middel
ĠMeer dere
Co A
Ġm erende
Ġp mol
Ġ( +/-
Ġvol doen
Ġrecht vaar
Ġrem t
Ġmerende el
b rand
op lasm
ia z
ĠP h
vo cht
ĠR es
iru bine
Ġverlen gde
press ion
ĠPK C
C CD
ch ym
Ġd opamine
Ġvoor schrijven
Ġleven de
Ġopt imaliseren
V E
Ġpro ef
ĠL BBB
cre ening
Ġur inaire
Ġbloedlichaam pjes
ĠA den
Ġlang s
Aan gezien
ĠCol lege
Ġoverleef den
automat iseerde
- .
k et
Ġp ent
Ġc la
ĠT h
Ġmo derne
Ġinter ventrikel
Ġvari antie
Ġhersen bloedingen
Ġovereen komt
Ġvis u
Ġhalsslagader s
ryp t
circ ulatie
Ġsim vastatine
i lep
al len
Ġpro m
af deling
Ġlip oprotein
wikkel ing
se ction
ĠC E
sch okken
ĠE LISA
ort ic
dic eerd
Ġox iderende
Ġhiel d
i i
Ġhart blok
Ġzoe ken
ĠA NP
Ġaf geb
lit az
Ġvoert uig
V ijf
Ġh ond
Ġcor on
Ġkun st
15 0
ĠVer der
OR E
Ġsarc omere
Ġantibiot ica
ur n
ac yl
Ġfunction eren
Ġfoc us
mechan isme
laes ies
l aties
sen se
Ġkosten eff
âĢ ĵ
qui val
Ġn ieren
eer tig
Ġbl ot
Ġvoort vloe
t ypes
Ġ aten
Ġs cler
os ity
Ġlinker atrium
Ġscha delijk
Ġvertegenwoordig t
in tens
ho ofd
Ġex ogene
Ġonge complic
Ġgek wee
zy me
Ġhorm onale
ĠproteÃ¯n urie
Ġbezorg dheid
l ong
et nische
con ditionering
yl ering
Ġlichaam smassa
Ġcontra cties
ĠBloed druk
b s
on ium
Ġt we
ot onine
ot omie
ĠA I
Ġob jectieve
Ġkatheter isatie
Ġhartk amer
ie zen
Ġt ub
Ġpro band
con dition
M eer
a as
z w
Ġen ox
Ġt icagrelor
Ġo gen
ul aties
Ġap ixaban
Ġsterk ste
Ġwerking smechan
afen on
Ġrecid ief
V ID
v itamine
Ġverb orgen
ID DM
raz ol
Ġmonom orfe
o bese
Ġm ac
sm aat
Op name
Ġann ul
sthorac ale
l ot
o os
Ġop get
ver ontre
ap arine
ĠN ut
Ġgew one
Ġkin idine
Ġis op
ocardi ogram
lok k
Ġpotent iaal
Ġfibrin ogen
Ġbesmet ting
Ġagon ist
pto z
ĠR ec
sy stolisch
Ġsyndro me
Ġlichaams vet
ĠCan ada
le ving
ot ica
am ylo
Ġf iets
ĠI s
Ġhyper insuline
Ġgebruik ers
Ġmetab olieten
Ġcombinatie therapie
str aten
reperfusie wonden
Ġcereb rale
Ġpersoon lijke
Ġh ol
asc ade
Ġch agasische
ĠIsch emische
ĠEp idemi
deriv aten
Ġcapt opril
plaatjest herapie
ep isodes
os y
gelijk heid
af name
vas ie
Ġweerspiegel t
Ġschizofren ie
T l
t ijden
Ġm um
ĠT rop
Ġ- ((((((
Ġsub cutane
ure el
Ġplat teland
T P
Ġv order
la pp
Ġper centie
mer c
Ġlong kanker
Ġhoofd pijn
activ iteiten
Ġprolif er
Ġe jectief
Ġver richt
Ġc yst
Ġg ron
of ilie
ce spercentage
ĠCI MT
Ġdig itale
ĠVals alva
ct ine
ĠP UFA
Ġdo den
Ġlucht wegen
Ġkrit ieke
Ġfol iumzuur
t oestand
w w
Ġw anden
Ġt and
Ġuit stroom
ĠL ong
ort aliteit
Ġhoe st
Ġlymf ocyten
ĠHO CM
oun ders
K I
l at
or d
ro scopie
ĠN C
Ġhoe k
Ġdien st
n atale
Ġw ig
Ġp assen
ĠB el
Ġex on
vorm d
tens iva
Ġgemeen schappen
Ġ198 5
k laring
Ġver leden
Ġs ed
Ġbe waarde
Ġtijd s
Ġ198 7
Ġcommun ic
caÃ¯n ide
ĠTre atment
Ġmodifie erbare
g ers
Ġle v
ap opt
ĠL ip
Ġcomplex iteit
Ġvertra agd
Ġtransthorac ische
Ġnife dipine
Ġopget reden
Ġw ijd
oe st
ĠS HR
we den
andom iseerde
ijft ien
ĠT A
em ent
Ġ10 2
Ġ10 4
Ġcar b
voe gde
ĠĠĠĠ ĠĠĠĠ
P re
Ġd ragers
Ġt oxische
Ġge komen
Ġtot dat
Ġgez in
Ġpar adox
kla ssen
Ġcardioverter defibrillator
Ġvererg eren
ĠgeÃ¯nteg reerde
M en
m RNA
ver loop
Ġle ggen
Ġaf metingen
ib i
ien e
sse ss
rin cip
bloed plaatjes
spat roon
Ġverzorg ing
Ġbemoeilijk t
R etro
Ġb la
Ġst eroÃ¯den
aan gepaste
wij f
pro p
Ġno de
Ġverk laring
Ġbra ken
laes ie
Ġantide pressiva
mat ch
mut ase
Ġmod aliteiten
raz il
antilichaam pjes
Q TS
b last
Ġe os
ĠS ign
men teerde
af il
ation s
Ġbev re
Ġbehe ersen
Cardi ovasculaire
ĠIntern ational
ierd isfunctie
m Tc
al april
Ġvoor lopige
se g
be wegings
Ġvroeg ste
inu e
Ġretro tro
Ġtraum a
i ologische
Ġbe at
oen ame
pac em
Onder zoeken
ĠCP B
Ġin cre
Ġhart cellen
ver oor
sp orine
Ġverl ichten
Ġlevensvat baar
Aan bevelingen
Ġdetermin ant
Ġv acc
at ografie
di meer
Ġter m
duc ation
Ġer ectie
tran sp
ek ent
Ġnacht elijke
Ġoneven wicht
h abil
Ġbe z
Ġvoor bere
Ġpro tromb
lok darm
ĠOn geveer
Ġsoep ele
+ ]
A B
L p
m emb
Ġe NOS
oe uv
Ġl upus
Ġhart weefsel
ran ken
ĠW PW
Ġnor adrenaline
Ġprotocol len
Ġbemiddela ars
Ġsurro gaat
Ġhyper homocyste
ir atie
14 0
Ġprote in
norm ale
Ġgren zen
Ġextrem iteiten
N H
V S
Ġtussen liggende
ation eel
end an
riter ium
Ġregressie model
Ġmolec ulen
Ġuitdag ingen
Ġschijn baar
................................ ................................
Ġextras ystole
Ġstratific atie
p ost
or ingen
Ġander en
ĠLV OT
Ġad olesc
Ġafge ste
ĠSy stem
wa ys
Ġoverheers ende
Ġm ar
Ġw oon
Ġt her
Ġvaso sp
Ġstre ef
Ġevol utie
Ġviscer ale
D F
l ingen
Ġa Ã«robe
Ġac cel
Ġvas opress
Ġbiopsie Ã«n
Pro spective
Ġproduc ten
Ġremm er
Ġzogen aamde
el te
ĠA trial
ĠP o
ĠMult ivariate
ic k
ĠR isk
Ġgez ocht
Ġar g
ĠNO AC
verm inder
p assen
Ġaan genomen
iek te
Ġ- ()
Ġbet ekent
lu raan
Ġaant ast
hospit al
Ġmonom orph
Ġchrom osoom
Ġin gesteld
Ġl ijn
ĠR yR
Ġpar ameter
hoog te
cTn T
Ġmislu kte
litaz on
il de
ĠS ES
ib iliteit
Ġelektro den
duct ase
Ġarbe id
s k
am entele
Ġr ij
ap tieve
Ġvet ten
Ġnon ische
enc ing
Ġlum en
Ġv ector
Ġinf iltratie
ĠG em
Ġarter io
Ġjon gens
Ġrisic om
O P
s electieve
ur kin
Ġgem odific
ĠT ien
ĠN eg
rit ion
Ġkla chten
Ġstr aling
ĠTran s
Ġcort isol
Ġoptie s
vari anten
Ġgelok aliseerd
Ġper f
Ġonderdruk te
sept um
Ġcycl ische
h omeostase
z ende
ĠD C
ĠD BP
Ġun if
trans ferase
Ġverh inder
oft ware
ĠbÃ¨ t
o j
ot rope
Ġ201 5
ĠgeÃ¯n diceerd
Ġzwak te
Ġendoc riene
ar de
Ġop gemerkt
tra in
orph ologie
Ġpolymorph isme
Ver gelijk
dition eel
ĠCanade se
m agnetische
Ġde skun
Ġdia stole
ogra ph
ub eerd
fen otype
Ġverscheiden e
P er
Ġo lig
Ġcor rect
Ġverander t
Ġoper ationele
Ġaut osomale
Ġdy ssynchronie
Ġzwanger schappen
Ġcre Ã«
anat omische
Ġge vormd
Ġs ulf
Ġcor p
Ġbescher mt
kun dige
Ġwereld wijde
Ġlucht verontre
fib rose
Ġpols druk
W F
Ġaan passingen
ocardi um
Ġinf orm
Ġsch apen
lic e
Ġnet to
Ġvul ling
Ã ĥ
al t
Ġst ri
Ġte ken
he mat
ĠS MI
sm olol
Ġsp asmen
ĠW C
Ġtemp o
Ġvergro ten
rypan osom
Ġc ode
ĠA ct
Ġres istentie
ĠG ra
ore se
Ġstre ptoz
lav on
scre ening
ĠLichaam sgewicht
Ġsed atie
Ġde generatie
Ġhart spieren
ur b
Ġont vanger
ĠW anneer
Ġcirc adi
Ġbre uk
Ġste un
Ġberoep s
Ġmum ol
A r
k n
en ze
in iteit
Ġop mer
Ġpro gramm
Ġdeel genomen
Ġhem or
adren erge
Ġhy b
ĠDia gnose
Ġcommun aut
v ale
Ġgeb lokk
Ġpro spectieve
Ġdis sectie
Ġpraktijk en
ĠD ie
Ġverbet erden
ren aline
Ġpost natale
Ġintra per
met hy
Ġ11 5
iru ssen
Ġkandid aten
ĠOb esitas
Ġprecor diale
Ġb al
Ġen orme
Ġonder houd
ander ingen
ĠZ iekte
ĠEurope an
dysp lasie
ĠSle chts
z u
Ġt umoren
Ġhart schade
Ġcardi omycine
ĠD D
ion aal
ĠF GF
Ġgevoeligheid s
Ġhy d
Ġanth rac
Zo wel
Ho ofd
Ġpost ische
all oproteÃ¯n
Ġvijf de
Ġalcohol consumptie
Ġelektro cardi
modi fic
oscop y
medi ane
Ġople vert
gezondheids organisatie
ĠEMB ASE
Ġultrason ografie
5 00
n et
ĠP lasma
Ġongebru ikelijk
T ot
b ele
e cho
Ġvoor zicht
Ġf il
gel matige
Ġafwez ig
zel igheid
Ġnet werk
n atri
r ende
u ten
ĠWe st
Ġsh unt
Ġverl oren
flu or
verminder ing
A ng
p lant
is te
Ġw an
op e
ĠH un
ĠE CMO
mm un
Ġkransslagader syndroom
Ġ198 6
Ġantihyper tensiva
Ġzorgvul dig
] ).
di gende
Ġover weging
ĠM V
bloed ing
cTn I
Ġ-(( ()
urkin je
i an
k ant
t wee
Ġf lutter
Ġvoorsp el
Ġsuc cespercentage
Ġmoe heid
Ġpsych ische
Ġgespec i
b il
Ġs lokdarm
ĠIn it
Ġmyocard infarcten
Ġlinkerventrikel ejectiefractie
Ġplasm alip
Ġconcentr eren
/ /
b er
ĠM in
Ġgez innen
Ġduur de
Ġfrequentie s
ĠMS C
ĠbeÃ«in digen
valv ular
Ġanticon cept
Ġwijd ver
L eeftijd
t rek
ul ant
ĠH uidige
deel nemers
Ġverwij deren
Ġconst ant
Ġpog ingen
Ġfund amentele
Ġdyst roph
S OD
zij dige
sign alen
Ġgang l
beh oefte
Ġevent uele
Ġsem i
Ġ are
Ġaf wijzing
Ġuitge wezen
ĠgeÃ«valu eerde
Ġperiodont ale
Ġachtereen volgens
Ġdun ne
Ġgekwee kte
st ra
it ten
ter s
ĠP e
lo dipine
Ġmed iter
Ġsupra ventraire
Ġprest atie
elektro de
Ch irurgische
Ġerytro cyten
arter iÃ«le
Ġadv ies
a ff
Ġin activiteit
Ġver f
ot he
Ġf iltratie
ĠA m
iÃ« mie
Ġimp uls
erg y
isering stherapie
ver giftiging
ĠE C
ont an
Ġlevens duur
ĠCardi omy
Ġcons istente
Ġcongest ie
Ġco ag
Ġcom merc
lim us
Ġdiagnost iek
quÃª te
p e
Ġb is
Ġp ren
Ġs arcop
id urale
Ġbij nier
Ġlinker boven
HR M
Ġfen otyp
ĠZo als
Ġpas geboren
S y
s nel
il ide
Ġzo og
af e
Ġgede elte
E x
k noopp
le ktro
Ġk atheters
id isciplin
Ġeff iciÃ«ntie
cent reerd
Ġmon otone
Ġlichaam ss
Ġlon gen
Ġmetabool syndroom
Ġschijn bare
Ġkwets bare
o laat
Ġgevoelig er
lap se
ĠNieuw e
c ategorie
ss ies
ap ine
Ġbehandeling smo
be at
Ġdysp noe
int olerantie
Ġreductie s
Ġgenorm aliseerde
Ġopgelo st
A M
st oename
Ġbij beh
ri Ã¨
ĠH el
Ġsp ann
Ġmoe ders
kla cht
Ġtricuspid alisklep
Ġcalciumkanaal blokkers
g an
on afhankelijke
Ġo l
Ġ( ((((
Ġs m
ĠA M
ere actie
be scher
ort ale
Ġaut ologe
ĠgeÃ¯n fecteerde
Ġgest imuleerd
az ine
Ġparas ympathische
Ġbesliss ing
Ġbijbeh orende
Ġc eld
Ġg o
sch ik
ĠM g
ui dig
Ġ24 0
Ġser otonine
Ġleeftijds afhankelijke
Ġcom orbiditeit
Ġpolik liniek
Ġorth op
Ġrecombin ant
Ġplant aardige
w ite
en za
Ġm usc
Ġh elling
Ġle u
ĠS S
ĠT F
ĠT ai
Ġbloed cellen
ib en
Ġverzam elen
ĠATP ase
ecardi ogram
Ġisof luraan
Ġachtereen volgende
Ġstabil isatie
ĠWereld gezondheidsorganisatie
Ġinter fer
Ġ10 6
Ġintra myocardiale
ateg or
Ġgewicht stoename
trans fusie
ĠMe di
ĠLin kse
Ġcardiopleg ie
Ġkwal itatieve
Ġonomk eerbare
A ther
Ġh arte
ze s
Ġuit stroomkanaal
os a
ĠN STEMI
ĠF MD
hal am
Ġlig atie
Ġhypox emie
Ġfol der
angiotensine systeem
H yper
Ġt ar
Ã¯ sole
Ġpol yp
ure erde
Ġperfusie defecten
Ġetiologie Ã«n
Ġflu orescentie
ĠTT C
Ġcardiop ulmonale
ĠHO MA
Ġzorgverlen ers
A n
A NP
x ine
Ġge oxide
ĠI MA
ĠM exic
ĠN I
Ġvol tage
Ġdysp nea
Ġverza digde
ochromocyt oma
Ġp ut
ro f
Ġover b
Ġper ox
ome inen
Ġsyn cop
Ġbesliss ingen
Ġmeis je
ut ing
ag land
stru eerd
ei gen
Ġven e
Ġzwak ke
Ġanticoncept iva
s arc
u ro
ver gro
Ġwer vel
ĠB razil
Ġ10 3
LV AD
Ġdui zeligheid
Ontslag g
Ġherh aal
Ġmis sense
Ġide e
Ġprov inc
Ġonvolle dige
ĠCent re
wort el
Ġgestratific eerd
p iek
t on
Ġmet formine
he x
ĠT GF
Ġimp edantie
comp ens
Ġdu al
Ġbevestig den
Ġischa emische
Ġovereenkomst ige
C B
o ad
Ġge ac
om st
ont wikkeling
Ġextra corp
Ġstandaard behandeling
Ġcyt och
ecardi omyopathie
ĠgeÃ¯nf undeerd
S I
c ur
Ġ( )
ĠpatiÃ«nten groep
udie s
Ġsept ische
active d
zij de
vezel s
it s
Ġuit er
du bb
vul ling
Ġglucose metabolisme
ablok ker
(-/- )
t ussen
ĠS troke
ort ality
Ġgele idelijke
Ġtrans oesofageale
Ġcirc ulatie
dy nam
en ario
at ho
Ġm L
ro gene
Ġge lu
Ġbe urt
ĠM a
Ġra c
Ġvet te
Ġaange eft
Ġgezondheids resultaten
Ġsinus knoop
Ġaten olol
G edurende
N N
T wintig
k artering
en veertig
Ġh uidig
Ġw ijn
Ġla min
wee d
Ġvergelijk ende
Ġsub opt
Ġlang zaam
ĠZ iekenhuis
instru ment
amp on
ess ant
Ġfit ness
ĠNut rition
sch rij
Ġuit druk
ib le
tra ct
ĠW T
ator y
Ġaange geven
kin ine
Ġernstig er
gek eerd
ĠHis pan
1 10
k nea
Ġge automatiseerde
ri Ã«n
ĠA PD
Ġper spectief
ĠM PI
Ġpre di
Ġgen der
Ġather ot
CT A
spro fiel
voor val
Ġor de
Ġar ritmogene
stest s
ged aan
Ġposit ron
H onderd
ru ss
Ġf iltr
um atische
Ġventrikel hypertrofie
Ġgele gd
all y
Ġri chten
Ġstruct uren
Ġprakt ische
erie ur
Ġontwikkelings landen
ĠI NR
Ġverm eden
pro cedurale
amin ation
ĠLat ijns
Ġtegenstrij dige
interkwartiel bereik
m eter
p itaties
y stemen
in eren
Ġw k
Ġge sproken
Ġvoor gedaan
oe gen
ĠVer dere
Ġmodi fic
Ġantagon isten
Ġmig raine
Ġinhib itor
ot ocine
Ġst uden
ĠP an
ĠS I
ose pt
sy nthese
Ġmin imaliseren
controle s
sl otte
yle frine
Ġpresen teerden
Ġbenadruk ken
l ium
y na
Ġgen otyp
Ġcalcium antagonisten
Ġmagn etic
Ġveronder stellen
O SA
k atheterisatie
ic os
ĠIn di
Ġter u
ĠLV ED
Ġsignaal gemiddelde
unde erde
Ġtert iair
Ġkn ock
Ġvrijk omen
ot oxische
ĠD SE
ĠL GE
afhankel ijk
Ġne urale
ĠgeÃ¯mplante erde
Ġvergro ting
Ġantip sych
ran en
ĠR CT
Ontslag instructies
ĠHart falen
entan yl
ĠNorm ale
Ġbegele iden
Ġuiteen lopende
Ġw ave
Ġd P
Ġge ografische
Ġre view
bet ische
Ġgez amen
Ġblok kering
Z eel
an al
ers nede
os er
ĠT WA
ĠEx perim
Ġelectroph ysiologie
elektro gram
CK D
ronolact on
rypanosom a
Ġm erk
Ġprop afenon
car nitine
receptorblok kers
weed se
Ġs ol
Ġst ad
oren s
Ġsp ieren
Ġsch aars
rop russ
Ġsterk ere
ĠAr g
ĠCO VID
Ã¶ r
Ġbacter iÃ«le
o assay
ĠA PO
ĠF in
par ameters
Ġhiel den
Ġafgeste md
Ġonder bre
ĠA t
eer s
em ission
Ġpre dnis
Ġbest r
ocyt ose
Ġrisic ogroep
Ġclu ster
che ale
ĠcreÃ« ren
I CAM
h ip
Ġin stroom
Ġc ine
Ġl iet
ib are
Ġoverleving spercentage
Ġhypo tensieve
ĠRe gelmatige
vergro ting
Ġ iv
Ġf asc
sp opulatie
Ġwaar om
ĠT M
Ġnaar mate
itie s
MI BG
iÃ«n t
Ġinfarct grootte
Ġapo B
Ġstap pen
ĠAnt i
ropruss ide
n aar
z wak
Ġe c
ver e
ost eroÃ¯den
Ġreg ulerende
Ġaut of
ool de
Ġatriov entrikel
ret e
Ġval idering
MS C
Ġondersch at
Ġdier model
Ġnic otine
Ġamino zuur
Hoofd klacht
ri amycine
ĠA ort
ingen omen
ho sp
ĠS P
fie le
Ġla par
af spraken
Ġlip o
SA ID
fen yl
struct urele
graad s
ĠPP CM
rem issie
geassoc ieerde
Ġvorder ingen
ssess ment
eigen schappen
G eslacht
ri ve
Ġdat um
Ġcomp ute
ĠZ weedse
Ġoverle ed
Ġzw art
Ġaange vuld
Ġgroot sch
Ġstim ulerende
reg ulering
Ġun iek
Ġherstel de
Ġantistolling stherapie
Ġonderv onden
Ġcav ia
Ġbele mm
seg menten
N D
N G
Ġz ones
Ġmy ectomie
met ing
Ġmult idisciplin
und aire
Ġmig ratie
Ã¯sole erde
T ak
Ġver pl
spro ces
ob ut
ĠbeÃ¯nvloed t
Ġgecon centreerd
Ġcoorb ide
S NP
Ġt it
ĠD i
Ġcross over
Ġgren s
Ġgene zen
e kt
h ing
digen d
ĠInf arct
Ġgenorm aliseerd
Ġtabak s
c lass
Ġm arg
Ġb y
ĠA sp
Ġpre men
Ġhypot halam
Ġapopt otische
d ist
s al
Ġ %,
Ġ11 2
Ġvermoe idheid
b roken
z one
Ġ uren
ro op
ast om
ib r
ron ic
af wijking
lu st
Ġpost m
hyper tensieve
Ġindividu eel
Ġindic es
Ġangio gene
staan de
ĠNe gen
asp ect
Ġperiodont itis
Ġenox aparine
l ymf
m ass
Ġv eter
11 1
Ġaut osom
app orte
F H
ĠP L
eg et
ug ulaire
Ġplaats ing
Ġgroe ien
ĠLin ker
ila ment
Ġcryo ablatie
p ine
Ġb a
Ġp en
Ġte am
ĠI P
ĠD atum
Ġgra datie
Ġkosten efficiÃ«ntie
uli ere
wite xpressie
Zeel and
i als
n ie
p lan
Ġ ul
Ġals ook
Ġac id
Ġcar nitine
Ġliteratuur onderzoek
kal ium
uiver de
Ġventric ular
E nd
H H
h ist
u eel
Ġp ÃĤ
Ġn arc
Ġl op
ur ing
os ide
Ġact ive
Ġserum lipiden
Om dat
Ġregressie analyses
Ver schillende
Ġslaap stoornissen
Ġhuis arts
Ġdiff uus
ĠPub Med
on geveer
Ġz in
ĠT oe
ĠD E
Ġla ser
Ġtran ss
inter acties
Ġonge controleerde
Ġdaar uit
agon isten
Ġachter uitgang
Ġperman ent
Ġselectie f
seff ecten
Ġgeac cep
H z
n ÃĤ
ra mide
ĠE ducation
Ġaf wijk
Ġac cum
Ġreg ulator
ĠSt at
imp lant
Ġapo E
Ġjaarlijk s
oe mde
Ã¯ dose
Ġ10 8
Ġbeeld vormende
Ġantistol lings
termin ale
enzym remmers
Ġgel digheid
ĠGen etische
voorsp ellingen
Ġlichaamss amenstelling
ampon ade
ĠH cy
ĠD rug
co dering
Ġrook status
ĠAngi ografie
Ġpri or
Ġonregel matige
d aan
ati c
Ġle ek
Ġover gebracht
Ġdaar entegen
ĠEx amination
Ġrep etitieve
sh ock
I sch
e GFR
k k
o L
ar ium
ar ray
Ġk ri
ver vanger
ad at
ox if
Ġbesch a
02 5
HF R
Ġafhankel ijke
Ġreage erde
( ))
v oeding
Ġop ening
Ġvaat ziekte
osf aat
Ġglucose spiegel
Ġgeschat te
yr idine
el ta
ov ormen
ĠT LR
Ġep idurale
Ġvolwassen heid
Ġtromb ox
dem ografische
ĠCardi al
ĠCardi ale
contra ct
ĠSur vival
Ġbal ans
er baar
if actoren
Ġpercentie l
A G
Ġ rig
Ġpro ject
Ġep ilep
Ġser ie
ola mine
ocyt openie
N iet
c yc
on nen
el ings
Ġzo ver
ĠF e
Ġexperim ent
CE P
Ġfosf aat
Ġobserv aties
Ġfra gment
sens ibil
Ġorth otopische
smaat regelen
st isch
ĠN SVT
Ġdo ss
Ġme dia
ster ase
een zuur
Ġvooraf gegaan
Ġtach yp
ĠTT E
Ġren ale
Ġperiod ieke
Ġpil ot
N K
Ġt wijf
Ġo st
Ġk eiz
op brengst
Ġna vel
Ġversch uiving
ings graad
vent ilatie
AV NRT
Ġverdi kking
part ment
C ross
x x
Ġver rijk
ĠP a
ĠL og
ĠCO X
Ġlig gende
Ġelectrogram men
Ġprofyla xe
stee kproef
yna ec
E u
or n
el uting
ĠV entriculaire
ac a
Ġsch rijven
Ġverw achting
ĠMet abole
p erk
Ġde positie
on verzadigde
am eth
Ġre sectie
Ġgeb onden
ĠG lob
requ ency
Ġsub straten
ne den
vul lende
AA AA
Ġleu kemie
F S
v atie
Ġv onden
Ġom trek
Ġvrouw elijk
Ġbeh oeften
Ġmiddel ste
iru dine
vl ies
az ol
AR VC
Ġskelet spier
jaar s
p on
ent ien
opathie Ã«n
romet rie
l oor
s orb
Ġv ullen
Ġm aten
Ġd ranken
ĠH LA
lo os
ĠL aboratorium
ĠG ep
Ġsc an
golf snelheid
polar isering
Ġrandom ized
Ġverdw ijnen
M ACE
i ing
Ġv aart
her entie
her haling
ĠR ep
lu enza
In ter
Ġab ru
Ġep idemie
p ul
Â ©
Ġin gebracht
ra m
Ġof f
ho ut
ĠE valu
ere i
ĠR M
est ion
Ġasy n
Ġfarmac eutische
Ġlok aal
ĠHo ge
Ġnit raten
E p
P B
w in
Ġhe cht
Ġoverl ijdens
Ġreson ance
bi omarkers
ĠCon trole
Ġdefinitie s
Ġadren aline
Ġintrac raniÃ«le
Ġdik te
"-"- "-"-
Ġsubs et
N STE
t elling
Ġp e
Ġt Hcy
Ġaan komst
ĠT EE
Ġla gen
ings groep
ef ening
AP D
Ġverla agde
Ġverl ichting
omot orische
Ġde le
oc riet
Ġg aven
ĠT romb
ĠF ontan
Ġtrans fer
Ġline air
TT E
Ġoverwegen d
Ġceld ood
le s
ĠP ac
Ġcor onary
Ġaanget oonde
ont vangers
ĠCO F
poten tieel
Ġprostaat kanker
alcohol ische
k ade
n aire
Ġbe zoek
os im
Ġaf loop
ĠF ran
Ġwand bewegings
Ġantistolling smiddel
Ġmeld de
Ġvasodilat ator
Ġdon oren
t ale
t ren
er der
Ġd w
ul ation
Ġr ijk
Ġgeb oe
ĠP H
ĠP rop
Ġvast gelegd
controle groep
Ġpresent aties
ES RD
Ġgroe ifactoren
Ġvoortvloe iende
Ġs oj
Ġn ov
Ġf in
be v
pen d
Ġger aamde
res istente
Ġexerc itie
( ))))
W H
er get
al dosteron
id den
Ġf entanyl
ĠS V
Ġeff iciÃ«nte
Ġaf ger
cardi cardi
vorm ings
ĠCon trol
uc ces
de p
Ġhet geen
ant istoffen
ĠE P
ĠT rypanosoma
od ine
du ction
be d
ĠR D
Ġsub aort
Ġlinkerventrikel druk
Ġwaarde vol
Ġkort etermijn
Ġaanvul len
Ġinot rope
Ġtom ography
Ġcommunaut aire
E chocardiografie
or p
re fract
Ġver ze
Ġc atheter
Ġst em
ĠS ec
ĠW ille
rige erde
Ġglyc ogeen
Ġelim inatie
Ġstreptoz otocine
h um
l us
Ġv on
Ġre verse
Ġg as
Ġtoe zicht
rom eg
Ġact uele
Ġ12 6
ĠCh ronische
Ġcol on
Ġvo et
Ġvloe ibare
Ġovar ium
Ġpren atale
O x
t ach
Ġn ierdisfunctie
Ġj eu
be stand
Ġpostp artum
ĠDuit sland
Ġdal ingen
L M
an k
Ġe cardiografisch
del ings
Ġ10 7
Ġzw arten
Ġtechn ologie
Ġcommunic atie
Ġspann ings
C OS
P VC
k linische
ar men
Ġp rincip
est enose
Ġkeiz ersnede
Ġgeboe kt
n itro
Ġv eget
de s
Ġc elt
Ġover sch
du ctieve
Ġele ment
Ġstruct ureel
PV I
Ġpseud o
4 00
g as
ie p
ge s
ĠP S
yc yst
ĠD S
Ġeerste hulp
tens ive
Ġwaarde volle
Ġbevestig ing
Ġlaboratorium tests
Ġdra matische
Ġuitvo ering
asp ase
Ġextrastim uli
kappa B
Ġmet hy
ad raat
Ġap art
igen schappen
Ġdra matisch
Ġsequ entiÃ«le
Ġconcentr ische
Ġgespeci aliseerde
I CM
Ġw onen
re paratie
Ġver sie
Ġn M
ĠM icro
ion ine
Ġstim uleert
Ġinst ellingen
Ġfarmac ok
Ġparoxysm aal
Ġontde kte
igh t
ĠSy mpt
synth et
Ġgemodific eerde
G I
Ġh ang
al goritme
Ġen alapril
Ġs il
ak e
ĠV II
ĠO AC
yro sine
Ġvascul atuur
Ġstrom ing
Ġneur onen
Ġpaar den
ail ure
s up
Ġ Î¼
ĠE t
ĠIn c
Ġele menten
ĠZ weden
Ġleiden de
Ġzuurstof verbruik
Ġfen ylefrine
Ġscre en
Ġhypox ische
Ġblokk eren
Ġveelbeloven d
Ġheterozyg ote
w ater
Ġvoor heen
gen itale
ĠC x
um in
Ġover belasting
ĠD er
atri al
qu e
slag slag
ym orph
Ġ11 8
Ġob ser
dip onectine
Ġelekt risch
Ġvererg erd
gren s
okin ase
bron nen
ĠCH ADS
den afil
Ġbe middelen
gen etische
ra pport
rom usc
Ġh omeost
Ġo es
ati er
ĠT SH
mp ing
ero ute
Ġcons um
Ġhartfrequentie s
Ġhypok inesie
Ġlongader s
Ġimmunosup pressie
Ġaff initeit
Ġcortic osteroÃ¯den
P K
f atale
i op
Ġn um
Ġaf d
ist ry
Ġaant asting
Ġuitein delijke
Ġthal lium
Ġperip artumcardiomyopathie
Ġbro ers
Retro spective
Ġo chten
Ġbe geleiding
um ab
Ġle uc
ap l
Ġkranss lag
Ġinb rengen
zi aten
ĠSp aanse
Ġadequ aat
ĠÃ ł
Ġfiltr atiesnelheid
c m
c om
g r
Ġh als
on aat
ol ic
ss ch
isico factoren
Ġover gedragen
tie s
Ġro bu
Ġgro up
gele ide
Ġventrikel aritmieÃ«n
Ġlinkerventrikel e
Ġane mie
Ġhang t
Ġb ood
Ġe quival
ĠI F
ĠI tal
ĠB innen
Ġdi vers
Ġcar otische
Ġ198 4
pre st
Ġspect rale
Ġpan el
ĠAd ult
Ġvermoe delijk
Ġademhaling sproblemen
chym ale
Ġnarc ose
B D
V rouwen
Ã Ń
Ġge frag
ic ulaire
Ġcon dition
ib er
Ġbetrouwbaarheids intervallen
Ġlig and
Ġconditie s
Ġiso volum
Ġimmunohistoch emie
ato ir
Ġpatient s
osim endan
A UC
y re
oc ortic
Ġdat a
ad y
ĠN OS
Ġpost urale
Ġregel t
Ġmacro vasculaire
Ġpass ieve
Ġcal orie
M MP
de fibrillatoren
Ġm ateriaal
Ġd ens
oc alc
ver laging
sp ar
ĠA kt
Â± -
Ġ11 1
voor zien
Ġmedi um
ĠSp an
Ġbreed te
ĠTT R
Post operatieve
et ica
ar be
le et
di rect
ati de
ver di
Ġwaar na
im es
Ġnier transplantaten
Ġinterventie groep
pra kt
gor de
Ġtransc atheter
resp ectievelijk
Ġvle kken
Ġimmunosup pressiva
Ġdiscrimin atie
overd racht
Ġatt ack
Ġpolymeraseketen reactie
H is
a eenzuur
Ġv eld
in duceerde
ge select
Ġp ublic
as on
ĠA ne
Ġbas eline
frequentie s
transplant aties
Ġconc urr
ĠRF CA
ack ie
Ġtijdstip pen
Ġante grade
Ġbek ijken
databan k
ĠSten ts
E P
di ening
Ġg if
Ġper in
ox on
een heden
Ġbehandelings strategieÃ«n
Ġischemic cardiomyopathie
Ġhepat itis
Ġil lu
ĠgeÃ¯nter pret
Ġrechterk am
b rengen
e gen
n amen
v le
ch ar
ic um
sp laat
Ġsy stole
pro lif
pen s
Ġmon ocyt
Ġgesla agde
Ġepidemi ologisch
Ġanalys is
Ġcomputer tomografie
Ġcy an
Ġonvolle dig
Ġhypere mie
oos heid
ar ly
Ġen cefal
Ġo ct
ic yl
ĠA AA
Ġpers istentie
Ġondersteun ende
Ġrisic oratio
Ġrefract air
Ġpathologie Ã«n
Ġsl ot
Ġsarcop lasm
D C
k liniek
Ġ aritm
Ġh eers
Ġs en
gen oemde
Ġpla cent
ly ten
econ centraties
Ġcontractie l
Ġpart ic
Ġisop renaline
Ġheers ende
f eren
f ormatie
Ġ %)
Ġge op
ĠN adat
lu x
yl ine
Ġlo zen
AV R
Ġph ysiologie
Ġbele id
ĠEnd othel
Ġbloedstol ling
H e
f ron
t om
an ine
ĠT achycardie
ĠV LDL
be ur
ĠO C
Ġgep ul
Ġbere kenen
Ġtromb olysis
inig ing
lan k
Ġstij gen
Ġadip osity
Ġprox imaal
Ġmot orische
dial dehyde
ĠgeÃ¯nterpret eerd
a h
g luc
is en
Ġl oci
ĠS H
Ġher kennen
res ultaat
13 3
Ġthe or
Ġnucle otide
glycer ol
regul ated
Ġleef stijl
Ġcir rose
ĠMedi ane
A RT
f orese
et herapie
or an
re activiteit
ĠH aar
ĠS h
Ġad aptieve
N STEMI
u gen
Ġe e
ĠDe partment
Ġhe up
ĠM PO
ogra de
Ġpers ister
Ġru ggen
Ġget e
Ġopt imaal
Ġkunst matige
A HA
b undel
du stri
Ġru we
Ġet h
On geveer
Ġvoort plant
Ġvererg erende
car b
zo als
ĠAustr alische
Ġ-(((( )
Ġintegr iteit
Ġverf ijn
Ġfin anc
A p
c ement
i od
ĠS inds
onder wijs
ab ra
vo fluraan
ĠL T
ĠO H
ola zine
Ġregister s
ĠTran sthoracale
Ġhomozyg ote
S ub
Z iekenhuis
k on
t riglycer
Ġc ann
ra mine
ot id
Ġsc enario
Ġtrans veneuze
Ġlong functie
ycl ische
Ġun ipolaire
Ġstikstofoxide synthase
ĠIsch emie
Ġfist el
Ġhemor rag
T EE
f s
Ġw inter
ĠC re
Ġlevens kwaliteit
gro ei
Ġelim ineren
Ġteru gn
v ice
in jectie
at rol
st ell
be ide
pro fielen
ĠK C
Ġpra vastatine
Ġbehe erd
Ġverkla art
Ġkopp elings
Ġvergemakkelijk t
vaat jes
Ġinterview s
Ġsnell er
s im
Ġv ide
st atische
Ġa x
Ġc afe
ijn a
il ing
ste in
Ġsign al
Ġep icardium
Ġbegin t
Ġdyslipidemie Ã«n
Ġam lodipine
ĠAther osclerose
smetho den
p te
ro s
op pervlak
am m
ru cht
vo erde
13 0
ĠCh irurgische
Ġlok alisatie
horax foto
TI MI
entan il
U T
v ig
Ġde generatieve
Ġe smolol
Ġbe antwoor
og ie
ĠE lect
ĠV KA
Ġmiddel lange
ĠK la
reg io
Ġboven genoemde
Ġopt im
Ġafhankelijk heid
positie f
zo cht
adrenoc eptoren
cardiomy ocyten
n ucle
Ġvoor waarde
ĠS inus
ac ycline
Ġsp inale
Ġsnel heden
LV ED
orac ale
Vol gens
match ed
Ġcircadi aanse
Ġfarmacok inetiek
" )
b ic
Ġo bese
Ġge struct
Ġ( ((((((((((((((((
der ende
Ġk off
Ġpre operatief
waar dige
van kelijk
Ġbelangrijk er
Ġlong ziekten
odynam ica
Ġ17 0
Ġpatho gene
Ġeigen schap
Ġvoedings gewoonten
CO PD
Ġkwart ielen
Ġv oren
Ġaan houden
ver atrol
lin kse
Ġpar ox
Ġpl an
bre de
HO CM
Ġconf ounders
ĠWille brand
ĠA H
ĠA ut
Ġpro motor
Ġsp ort
CM P
Ġbre uken
Ġvis olie
Ġbevor dering
Ġkopp elen
Ġbrady kinine
Ġscler ose
Ġopmer kelijke
ac char
ok ine
ĠR FA
ir t
ĠF all
Ġab sorptie
opt im
ly k
Ġhep atische
Ġmal on
Ġfle caÃ¯nide
Ġonverw achte
pacem aker
m arker
ar ia
Ġa v
Ġhyper k
Ġdys functie
au k
Ġval len
Ġmitralisklep insufficiÃ«ntie
bestand delen
B ep
Ġa z
Ġwer kende
ĠP ÃĤ
ĠP SVT
Ġmy ocytes
ab el
Ġaf weer
01 1
Ġgele ide
ĠU nit
Ġmult is
Ġmil t
Ġopge slagen
irurg ie
ĠKore aanse
Ġmetabol iet
Ġgroeien d
P lotselinge
b aten
p rec
t wintig
u kin
Ġb order
am inen
Ġre cessieve
Ġges loten
Ġsle ut
Ġtach ycardi
Ġcorre sp
Ġcyclo sporine
Ġincre ment
Ġluchtverontre iniging
x in
er kende
oen en
Ġlo ssen
Ġprofyla ctische
ĠTai wan
ĠSpan je
geselect eerde
E RP
s ackie
in st
in stellingen
di er
ĠP F
Ġmin imum
ble em
cholesterol concentraties
Ġextre me
Ġcontro verse
Ġgeblokk eerd
Ġstuden ten
O AC
n elijk
p s
p ing
at a
Ġp all
oor den
ĠH arten
os omen
mp eratuur
Ġtoe standen
ĠR CA
hal ings
Ġverb anden
Ġdrie voudige
Ġbi ologie
Ġbevestig t
Ġthe orie
Ġklep pen
Ġfosfor ylering
Ġem issie
ocardocardocardocardocardocardocardocard ocardocardocardocardocardocardocardocard
G S
s um
et ium
as se
ver sterkte
Ġper ceptie
ĠL PS
deel den
Ġhartst erfte
Ġtachy aritmie
Ġcycl ussen
ycardycard ycardycard
sulf aat
Ġwig druk
N V
n eemt
Ġge gaan
art ikel
og lyc
ĠC al
ĠE PS
iden de
ĠR AS
Ġwe kelijk
Ġbere ken
yl choline
ax ie
Ġretro spectieve
PT CA
Ġsarc ole
ĠQu estion
Ġprom ille
Ġerectie stoornissen
habil itatie
os us
ad ministratie
zen uw
vi atie
Na ast
ote en
Ġknoopp unten
'-'-'-'-'-'-'-'-'-'-'-'-'-'-'-'-'-'-'-'-'-'-'-'-'-'-'-'-'-'-'-'- '-'-'-'-'-'-'-'-'-'-'-'-'-'-'-'-'-'-'-'-'-'-'-'-'-'-'-'-'-'-'-'-
lon idine
Ġconserv atieve
beur tenis
A nt
t aliÃ«
ig er
ant h
00 05
Ġkan kers
Ġhartf ib
ax is
ĠgeÃ¯n form
norm al
Ġverst erking
Ġstam men
Ġextras y
bless ures
2 000
C ar
ĠpatiÃ«nten groepen
ĠC lin
il ity
ĠE PO
ater aal
ĠCardi ologie
Ġvent ilatie
Ġreproduc eerbaarheid
ĠVoort zetten
Ġnaboot sen
Ġhypertrof ecardiomyopathie
ĠDie et
Ġantipsych otica
d ische
h aalde
n er
p rim
st rom
ol d
Ġf ac
Ġom kering
Ġna bij
ĠO P
Ġbi op
plaat st
Ġqu in
Ġbeschermen d
verza diging
bescher ming
H ier
ar ach
Ġver giftiging
ag ale
her me
Ġeer stel
Ġcontrole personen
Ġmon itoren
Ġ11 4
Ġlinkerventrikel massa
Ġtromb ocytopenie
ĠMan nen
gelu id
uri kemie
Ġarrest atie
ĠFall ot
E valuatie
m orf
u dering
del ta
00 02
Ġinst antie
Ġelektro cardiografisch
Ġmolec ulair
Ġcol or
ĠHolter bewaking
Ġzoe kt
Ġarhy th
Ġaanvullen d
Ġgepul ste
H L
Ġle ft
aan val
Ġaant rek
Ġervar ingen
ĠSc ien
syn cope
inciden tie
eremm er
Ġdef iciÃ«ntie
Ġjeu gd
l yt
Ġm urine
ch en
Ġe et
Ġp rik
re ductie
le ver
ul ose
ijd t
ĠM inn
ĠL P
of requentie
Ġnorm alisatie
comp ressie
Ġpotent ials
Ġdepressie s
Ġco deren
pre pre
Ġrandom isering
Ġhemat ologische
IC U
] ),
i dil
Ġe d
la ct
Ġst en
lin ked
ment atie
Ġbev indt
rel atieve
Ġan astom
spro tocol
Ġrem issie
techn ologie
anim eerd
bep erk
indic atoren
resp onders
okin etische
Ġcardiomet abole
beurtenis sen
A rg
D P
K G
et te
su vastatine
Ġelektro magnetische
(- )
oglob uline
Ġtemp orale
Ġnit raat
Ġtre edt
D aar
M ult
S F
f e
v ier
Â ¥
Ġen train
ĠH SP
ĠS OD
Ġ10 9
Ġep silon
Ġmaat st
Ġretro spective
Ġkrans ziekte
Ġmod aliteit
Ġbu ffer
G en
ge defin
Ġonge voel
Ġinge vuld
wer ken
raag d
uleren d
Ġinduc ibele
Ġcoorbid iteit
v it
te d
gen otyp
Ġis th
Ġwaar sch
Ġac yl
Ġtra bec
AP T
werk ers
Ġomge vings
Ġdomin ant
Ġpancre as
sz ins
refract aire
d rug
ge sie
Ġp i
ati d
Ġpropranolol ol
omycomycomycomycomycomycomycomycomycomycomycomycomycomycomycomyc omycomycomycomycomycomycomycomycomycomycomycomycomycomycomycomyc
E l
m orphologie
or ele
oe standen
Ġbij ge
ss yndroom
ĠA de
Ġsub cla
Ġne op
Ġendothel ische
Ġgoed aardige
eert ien
Ġveiligheid s
ĠHier in
neum onie
hospit ale
Ġelectrocardi ografische
Ġdetect eren
ĠDat abase
Ġongecomplic eerde
A po
p lasma
Ġdoor ver
ader s
ac ks
Ġpost er
Ġne o
ĠSt udies
BP C
ĠTen slotte
Ġtrac Ã©
Ġondervraag den
Ġgehe ugen
Ġgrootsch alige
ĠEvalu ation
h i
se iwit
Ġer toe
Ġlever den
blok kering
periode s
Ġmis selijk
ĠPost operatieve
Ġvoltoo id
anest het
Ġanter ograde
aant al
Ġsleut el
M HC
k ol
Ġ --
Ġbloed monsters
be zoeken
Ġsp oed
Ġ11 3
ex p
Ġgeble ven
ĠAb latie
Ġdrin ken
Ġkruis ing
Ġuitgangs waarde
A ziatische
s ing
Ġf lavon
Ġont ving
voor delen
sc ript
receptor antagonist
Ġritme stoornissen
Ġovert ui
ĠTrop onine
Ġnov o
Ġkoff ie
Ġp et
ocard ische
ien iveaus
Ġsub jectieve
tran sm
Ġkrans ziekten
Ġhist amine
Ġanticon ceptie
scha kel
Ġverg rij
Ġveter anen
a e
b inden
Ġop slag
ss ie
il etine
val irudine
Ġho uding
reg ime
my ocytes
Ġhartk amers
Ġsugger eerde
Ġzenuw en
Ġdig it
fib ro
Ġenig szins
n ode
re Ã«
Ġin vloeden
Ġover lapp
ĠF P
Ġet niciteit
Ġbescher md
Ġest hetische
I nst
g ie
Ġst orm
Ġg entherapie
ĠO PG
ron isch
sen zym
01 5
Ġdruk gradiÃ«nt
Ġelectro anatomische
Ġru g
woor den
spann ings
F MD
Ġ ingenomen
Ġk aarten
Ġon gem
Ġhart patiÃ«nten
Ġhe mo
ĠS up
ĠS CI
ite d
lo of
ĠT ussen
Ġman ip
ĠF ab
Ġpers oneel
Ġmicro RNA
oplast ie
Ġprost agland
ĠTe kenen
Ġinteg ratie
drag ers
opyopy opyopy
Ġee uw
B est
s n
Ġventrikel wand
Ã¯ne zuur
Ġpoten te
CA T
Ġgec reÃ«
armac ologische
Ġocclusie ve
verb indingen
Ġrapporte erde
"""""""" """"""""
Ġmultifactor iÃ«le
d in
p as
ge perf
il aterale
aly tische
Ġac romeg
Ġdrie maal
Ġkwant itatief
Ġonderv oeding
ĠReg istry
Ġevenre dige
ĠSign ificante
Ġp r
Ġon c
io tensine
CA B
reg ulerende
Ġgezondheid sproblemen
DM D
urs us
bloed stroom
Met S
Ġwijz igingen
sequentie s
ĠItal iaanse
] -
Ġop gaande
Ġwor tel
ĠT wintig
lin ker
ĠO ost
opath ologische
Ġact in
Ġgep lande
oth aan
Ġhom ocy
houd ingen
Ġmes enter
ĠNorm aal
Ġeryt hemat
Ġhyperinsuline mie
oran dil
en zymen
Ġhart cardiomycine
Ġro suvastatine
Ġreperfusie wonden
idu en
Ġmax imum
Ġfe ochromocytoma
lit er
da gen
Ġprof ess
idi ver
Ġverwar rende
Ġzoekt ocht
ĠgecreÃ« erd
S HR
nel le
Ġ12 2
Ġ13 5
ĠVer anderingen
Ġdisc rete
Ġziekterisico factoren
Ġkri mp
Ġochten d
abra dine
a vi
Ġver dubb
Ġre constructie
Ġg ynaec
Ġman oeuv
Ġ11 7
ĠK auk
do et
uit drukking
Ġneu rop
Ġbil irubine
Ġhypert hermie
Ġph ysiologische
AL Y
moe der
Ġvaart uigen
de erd
or ad
Ġhart opbrengst
Ġ12 8
ĠF rank
Ġbeh oren
Ġbi ologisch
zet tings
Ġtri als
Ġmic ron
Ġstent trombose
Ġverstoor d
funct ionele
omyomyomyomyomyomyomyomyomyomyomyomyomyomyomyomy omyomyomyomyomyomyomyomyomyomyomyomyomyomyomyomy
schat tingen
B A
T W
c ol
in teg
re ken
Ġre par
ĠE mer
ĠS eg
Ġsy mp
ĠN IDDM
ip ril
Ġaanget aste
Ġpath og
Ġste ady
ĠSc ore
ĠPO N
ĠSec undaire
M an
V AD
el ast
gen cy
sch eiden
es ota
ele inden
Ġle ken
Ġch lor
Ġkransslagader occlusie
Ġsch erp
Ġvar ken
Ġobserv atie
Ġsequ encing
Ġhemat ocriet
Ġwarm te
ameth ason
c ix
r iek
t t
Ġin te
it ude
Ġf oci
ĠC X
ĠA g
me abiliteit
Ġ11 6
Ġtra ditioneel
unct ionele
Ġgecon dition
ĠHem odynamische
indic aties
bes met
Ġasc ites
Ġveren ig
c us
m ografische
an odine
Ġver tro
ĠP ET
af yla
ari gen
Ġejectiefractie fractie
Ġverlen gen
ĠAr ter
yla se
lis ec
Ġdynam iek
Ġbemiddela ar
activer ende
Ġure mische
kopp eling
Ġisth mus
er antie
Ġw ak
ic es
ag lucose
wee k
Ġnieuw ere
do delijke
yt h
Ġnood gevallen
MD A
ĠPro te
Ġultra structurele
Ġinit iÃ«le
Ġmuis model
Ġparallel le
Ġgran ul
Ġmel k
differ entie
Ġlop ende
K Y
T erwijl
h igh
j u
s A
ch i
Ġe cardi
re flex
Ġ( ((((((
ot t
ot rans
oc oc
ep icardiale
ĠI PC
ter e
od on
ĠW HO
ys ische
Tn T
diast ole
ris is
emyemyemyemy emyemyemyemy
Ġcompens erende
Ġgeoxide erde
m ic
er on
os idase
and aard
Ġman ieren
ĠR esultaten
Ġ12 1
CA C
atine s
Ġmass ale
Ġvent il
Ġvle es
Ġuitgangs waarden
Ġherhaal delijk
ĠPan el
Ġafd alende
C linical
M O
j arigen
sch ri
of ib
stol erantie
ĠbeÃ¯nvloed de
Ġinclusie criteria
immun oassay
condition ing
z ep
ge beurtenissen
Ġge compense
om eren
ur c
ĠB ra
Ġont steking
ĠR I
Ġbepalen de
Ġet c
Ġclass ific
adrenerg y
Ġneur onale
Ġkwest ies
hou delijke
L F
M icro
O M
a ken
Ġc erv
ĠT he
Ġresp onders
Ġaange wezen
Ġfrequ ent
Ġhypok aliÃ«mie
Ġgener eren
Ġdoss iers
E CMO
it eren
Ġver dra
ox ia
voor deel
02 2
Ontslag toestand
my osine
Ġmil lisec
ated cardiomyopathie
gro te
Ġgeleidings stoornissen
Ġembry onale
L VD
s onde
ĠA triale
we en
ĠVT E
loss ingen
dom in
Ġdiep gaande
Ġko ers
Ġclu stering
vari ant
Ġmethod ologische
Ġtwijf el
Ġcafe Ã¯ne
lyk emische
R adi
Ġmet ast
le idingen
om geving
Ġbe middel
ant igen
Ġuit gaven
ere ctomie
Ġch i
Ġminder e
yl ori
ĠAan vullende
Ġprost acycline
Ġemp ir
Vergelijk en
Ġcytoch room
W P
at ter
Ġs eiz
Ġr ing
Ġdoor d
ĠS AP
up t
gra datie
Ġresp iratoire
Ġap othe
Ġcorrel ated
ary n
Ġvergro te
Ġzicht bare
Ġinstru cties
Ġopgelo ste
Ġpub licaties
Ser um
. -
V eertig
f os
o erei
st ot
al ings
id atieve
Ġr assen
ĠH P
Ġcon stat
ĠD OX
ex erc
Ġvet massa
Ġgere animeerd
Ġhal f
dens ine
ral ogie
ĠInter ventie
Ġtak otsubocardiomyopathie
ĠEchocardi ogram
iÃ«nt atie
ĠKla sse
r ant
in it
om ine
im et
ĠR en
Ġbere id
Ġzich zelf
su c
valv ulaire
ĠUnivers iteit
Ġlos artan
ĠBel ang
icyl zuur
Ġdoorver wezen
\ "
h alen
at rische
Ġe chte
Ġk linieken
Ġst arten
ale s
ĠM ilde
ĠL VD
be vol
ac u
Ġpl anten
Ġden kt
Ġsoort gelijke
Ġtorsade s
Ġpublic atie
E q
T M
p eptide
st al
Ġin geschreven
te am
op o
ir st
Ġsch e
Ġmicro s
Ġpat ent
Ġneu romusc
Ġmod uleren
vet zuren
Ġident iek
Ġtelef oon
ĠGR ACE
b al
v reden
Ġin eff
Ġz ussen
Ġverm eld
opath ologie
Ġcomp rom
Ġpopulatie studie
comp onent
ei ten
verw ijding
ben z
Ġorgan isatie
Ġbar riÃ¨
Ġgedecompense erde
Ġrechtvaar digen
Ġverhinder de
aspect rometrie
Best udering
h uis
m aak
Ġh olter
Ġin valid
ĠB lood
be ats
pro gnose
16 0
Ġox y
Ġasp ir
Ġelekt ronen
Ġwel zijn
Ġwijz igen
Ġide ale
ĠbÃ¨ ta
Ġhypop erfusie
Ġverpl icht
a id
u dere
Ġs lag
Ġc AMP
ant ies
ĠW BC
Ġsignificant ie
Ġse vofluraan
Ġhersen bloeding
Ġlipide per
Ġoverleven de
Ġaanvaard baar
loc aties
Af rik
Ġafger ond
g al
w anden
or ax
Ġc aspase
ent al
ĠC ity
ĠP urkinje
ĠM DA
ĠD R
Ġpre paraten
Ġonderzoek spopulatie
Ġuitge voerde
oper aties
Ġgele gen
Ġrec ept
Ġru ste
Ġelektro lyten
ochondri ale
Ġsla cht
Ġmillisec onden
B M
at ase
el et
Ġd omein
Ġver den
ign e
ĠT IA
Ġhyper urikemie
schap pelijke
Ġger uis
Ġaantal len
ts ub
Ġgra diÃ«nt
On s
Ġat axie
Ġasp ect
Ġvitamine s
ATP ase
ĠAfrik aans
Ġtom ografische
Ġcytos kelet
Ġnatriuret ic
ĠMinn esota
- >
Ġver lu
ele kt
ĠM AC
ĠM CP
Ġmy oglobine
ĠD MD
ac iteiten
Ġch an
Ġap paraten
do den
woor dig
Ġobserv ationeel
Ġunivers iteits
Ġdro ge
Ġeos ino
ategor iseerd
obut amine
Ġverlu idt
P AF
U w
Ġd alende
Ġf eiten
len g
ste en
Ġpro lapse
Ġme x
Ġresp ectiev
ert ien
iner ge
itu ut
Ġmalign iteit
aw ley
curve s
Ġarhy mogene
activer ing
Ġsamenhang t
Ġactive ert
prest atie
Ġgefrag menteerde
chen ne
Ġrespectiev elijke
t oxiciteit
Ġw en
Ġver een
Ġc ard
Ġc riterium
Ġaan gren
ig t
ion ering
Ġsch u
Ġan a
Ġste den
Ġstent ing
ĠIsch emic
Con trole
Ġarhyth mogene
beperk ingen
or isch
Ġb inden
ro ok
it ril
ĠC ohort
ide s
ip atie
Ġbeoor deelden
CS K
Ġdi ar
Ġsamen gesteld
emb rane
Ġresul teert
Ġverslecht erde
Ġmulticentr isch
lab oratorium
vergelijk ing
Ġextrasystole s
ĠQuestion naire
l ichting
Ġs omatische
ol ar
ag s
Ġper for
vo ering
Ġ12 4
sc ans
Ġar ach
vel ing
Ġfarmac okinetische
otsub o
Ġselect eren
ĠLD H
Ġaangren zende
l ige
de erde
Ġt ent
ro gra
og ere
Ġf oton
Ġr un
ĠE A
im al
ĠP PI
Ġtoe val
Ġsamen werking
Ġademhalings frequentie
Ġinduc ible
Ġangioplast ie
car oteen
opy ramide
R CA
h eren
l d
re eks
Ġna am
Ġbloed lipiden
ac idose
Ġ13 6
Ġactiv ity
Ġsin o
Ġar r
Ġvertra gingen
let ten
Ġdien sten
Ġantit romb
ĠlipoproteÃ¯ne cholesterol
Ġoes ofageale
Ġentrain ment
C F
k orten
o B
w ley
Â ®
de viatie
Ġp op
ss lag
un ts
ĠA dem
ĠA LT
ĠB ec
ĠV roege
ĠL QTS
ĠIn tensive
amen teel
vascular isatie
Ġatriov entrar
Ġdichtheid lipoproteÃ¯nen
Ġortho statische
hem oglobine
Ġstol lings
Ġprik kel
B F
D BP
i deren
or eg
Ġd iÃ«
re p
Ġin houd
Ġonder ver
elf s
Ġad ministr
25 0
oÃ¯ dose
Ġcol l
da wley
Ġann ular
Ġoverlevings graad
Ġident ieke
gev onden
Ġaantoon baar
omzetting senzym
X R
on ad
Ġge lang
erd y
Ġrisico gebied
Ġtoe stemming
Ġextra ct
verd raag
Ġgew onnen
Ġster n
cla mide
Ġfosfolip iden
Ġabru pte
is su
ak i
ĠB as
lo ad
ĠN SAID
Ġbest onden
AS H
Ġinjectie s
ID C
kort ing
Ġcohortstudie s
ĠÃ ģ
Ġproport ionele
Ġcovari anten
Ġanthrac ycline
Ġverenig baar
re d
ĠC FR
ĠDe ense
ĠO efening
Ġventrikel hulpmiddel
CS F
oten t
Ġpol ys
Ġfib rine
Ġlit er
olip iden
Ġcult uur
valid atie
Ġwerkingsmechan isme
Ġillu str
Inst ru
in ere
Ġge optim
Ġre pro
ĠE mb
Ġventrikel mycine
Ġ14 5
18 0
bep erkende
li ance
Ġongevoel ig
Instru cties
v isc
ĠI mmun
Ġont oerei
Ġbegin stadium
Ġdist ributie
Ġbevorder d
Ġogen schijnlijk
Ġsoj a
H bA
I M
I GF
h ersen
k sel
is ome
st ate
aar dig
ang schik
ker n
ĠF FR
Ġger inge
tens ion
Ġet iologische
Ġox ide
Ġbijwerk ing
Ġoverd osis
Ġfund amenteel
Ġgetransplante erd
Ġperf us
Ġgezamen lijke
Ġverden king
1 000
E N
F DG
Ġm Eq
Ġs oftware
Ġhart cyclus
be str
Ġman nelijk
dig ma
Ġmin erale
Ġ13 3
Ġrechter atrium
Ġgec ategoriseerd
cijf er
iver ing
Ġonzeker heid
Ġwekelijk se
te min
ver van
ĠA B
Ġle vel
im ab
Ġant ich
ĠG er
rit ine
Ġrol len
ijf ers
off ers
Ġgevorder d
Ġsta ken
ĠAS CVD
Ġarbe ids
osept ale
v orens
Ġ aritmisch
st abil
ĠN eu
ĠIn dia
ok inen
Ġab er
hy th
ather ogene
ont ale
Ġinge wikkel
Ġzuurstof saturatie
Ġmaat regel
Ġbeper kende
Ġontst aat
Ġge we
Ġn al
Ġvoor conditionering
Ġf usie
Ġr and
Ġsterf terisico
bij gaande
NA ME
voor ste
comp onenten
Ġpsych iatrische
Ġadip ocyten
Ġbil ateraal
Ġfibrin olytische
Ġnatuur lijk
iben clamide
Ġperin atale
B loed
C l
k o
u z
re gressie
Ġk rist
Ġf ysiologie
Ġal goritmen
ĠV AD
Ġvol gorde
Ġ12 7
fil tre
pend age
c in
y se
Ġd ichte
ct omy
ep er
Ġbet ablokker
Ġres istente
sy mpt
Ġnorm ot
Ġminder heid
ed ische
10 4
Ġstim ulus
pt uur
fosf or
Uit komst
Ġstent s
Ġsamenge voegde
gelu iden
sal icylzuur
Ġborder line
d rie
e ende
Ġm at
gen o
ijn e
Ġj icht
ĠR S
een komst
Ġbere kende
Ġlo opt
Ġtrop on
Ġhal othaan
Ġimmuun reactie
ĠCar otid
Ġinstru menten
Ġtoenemen d
schat ting
Ġem ission
Ġred ox
ĠHel aas
Ġgete ste
H oge
i be
p lasie
er wijs
de tails
et entie
on y
Ġc a
Ġz el
oe pen
Ġre habilitatie
ĠP ol
blok kade
Ġgeleiding ssysteem
ĠSD B
Ġimplant aat
Ġanal gesie
loz apine
Ġonderstre ept
Ġhemorrag ische
stot ing
z am
Ġh ip
Ġe icos
it te
Ġvoor uit
io den
centr ische
Ġmult ivari
ma ken
Ġvere isten
Ġhydro chloride
Ġantibloed plaatjestherapie
cain amide
ĠIA BP
Ġmononucle aire
+ ,
b urg
t umor
is sen
Ġs elen
Ġon bep
ri b
nt gen
receptor antagonisten
Ġtri acyl
dimen sie
econ trole
Ġgecon sum
mpel la
Ġoverd ag
Amerik a
lement atie
Ġmag er
Ġconclusie s
Ġmethod ologie
Ġdystroph ine
T O
m orbiditeiten
an om
Ġe cht
um p
Ontslag medicatie
CP B
Ġhoofd zakelijk
Ġlactaat dehydrogenase
Ġisof orm
Ġfle cainide
ĠLM NA
risic oratio
Ġaccel er
vervan gende
i atieve
t he
Ġ ir
oor deel
la sten
la my
Ġk lank
Ġre vers
Ġonder ben
ĠS ER
ĠB cl
Ġziek tet
Ġtijd afhankelijke
02 3
Ġdys ritmieÃ«n
Ġocclusie s
Ġbeschrijven de
Ġgetro kken
Ã¶ ntgen
subst raat
b a
b y
i alis
s oci
Ġdia gn
Ġpre klinisch
Ġpol sslag
Be handel
Ġret inale
gew ogen
tromb us
Hart falen
Ġvoltoo iing
ĠGro up
ĠbÃ¨t ablokkers
Ġrac iale
andaard iseerde
G MP
R CT
w ork
Ġde tail
Ġin d
it on
Ġc l
ent ijd
ĠC ont
ĠT N
ĠF or
par atuur
oplast iek
uter iene
ĠMy ocardi
Ġsuper ie
Ge zien
ĠHem oglobine
Ġparadox ale
in age
as eremmers
ve s
ĠA UC
ran ten
sie ve
Ġsterf geval
oscler os
Ġzenuw activiteit
Ġbehandelings groepen
Ġple ura
Co V
Ġcardiopleg ische
compens atie
Ġul cer
Ġcerv icale
: //
o der
z onde
Ġt herap
ro pen
Ġgeb oden
Ġmin st
gra al
ĠK re
Ġser a
Ġgesch eur
Ġpotent ial
Ġradi otherapie
Ġgest uur
Ġstroom reserve
Ġsignaal trans
ĠMB F
ĠMAP K
Ġsnell ere
ĠAMP K
Ã Ħ
st rie
Ġz uiver
Ġl ijst
ings criteria
ĠF amil
Ġmicro circulatie
Ġplasm ac
Ġrecht stre
Ġvoeding spatronen
oplast y
horm onale
Ġapolip oproteÃ¯nen
Ġrit m
Ġplaatsv indt
Ġkwest ie
Ġgangl ion
ĠFran se
1 05
I g
c arcinoom
t DNA
Ġm ol
Ġb rengt
Ġk l
op nam
ver wek
ath yre
ĠS EM
Ġsu been
Ġmyocard inf
01 2
01 4
pro cessen
gest ief
Ġex cessieve
elijk heid
end oc
ĠU S
02 1
rin on
pol ymorph
Ġadhesiemolecule s
atch ed
Ġgadolinium verbetering
Ġgetransplante erde
tren d
C omp
M V
in um
at itis
Ġb ic
ĠB rit
of lu
Ġ201 6
verw anten
Ġsynth ase
Ġproport ioneel
ĠMed line
Ġopw inding
Ġhypothalam us
G een
P AD
Ġs mal
Ġre us
Ġf ataal
Ġal f
ĠS U
Ġverm eende
ir en
Ġ13 8
Ġbi valirudine
Ġcombin eren
Ġcombin aties
ĠĠ Ġ
Ġgezondheids risico
Ġzuurstof consumptie
Ġder gelijk
Ġademhal ingen
Ġvoedings stoffen
hydro x
Ġrandom isatie
Ġdefect e
rid ge
Ġstreef waarden
Ġuitdruk ken
apporte erde
Ġmex iletine
f amilie
Ð Ĵ
ch ain
Ġh erk
ro o
sch ema
ut riÃ«n
ast er
ĠR atten
01 0
Ġ12 9
Ġmon oc
Ġpol ycyst
Ġsle chter
Ġei witexpressie
Ġvoorspell ingen
MP I
Ġblok kers
kun de
spect rum
Ġkwets baarheid
chrom atografie
ĠDuit se
Ġzu ige
Ġvacc inatie
Ġstri kte
Ġverdra ag
Ġseiz oen
Ġrechtstre eks
Ġb ru
Ġe duc
Ġge lijke
di opathische
ĠC G
im us
du strie
ĠN P
em orale
Ġtoe pas
cardi ografie
Ġdis mutase
ĠOm gekeerd
Ġbloedplaatjes functie
Ġprognose s
Ġmedi ast
ĠBe handeling
Ġballon nen
Ġgene se
Ġdik heid
Ġrit mes
Ġhoek steen
z iÃ«
Ġ 003
di end
ra b
ele menten
ĠM K
mm Hg
ept iden
res se
met rische
Ġ13 1
Ġlevens wijze
unt y
Ġgeanalyse erde
orte m
Ġstr alings
Ġgespec ificeerd
Ġinvalid iteit
m ann
t ien
Ġv indt
ur m
Ġbloed transfusie
Ġlever transplantatie
vasc ul
Ġaorta wortel
Ġfra ction
ĠSA RS
Ġople iding
Ġkamer lucht
acet yl
dividu en
Ġsubaort astenose
4 50
L AA
Ġen zyme
Ġf er
ab ele
ĠL F
Ġvast stelling
AD P
Ġimmun ologische
Ġpoly onverzadigde
Ġall ogra
Ġect opie
Ġmonomorph ische
ucces volle
Ġobser veren
prolif eratie
b oe
c g
al goritmen
Ġbe wegings
Ġonderzoek t
ocard itis
ĠF DG
Ġan afyla
Ġrel axatie
Ġ198 2
Ġmorf ine
odel len
Ġsamenge voegd
Ġnec rotische
ĠEpidemi ologische
h ock
Ġin tensie
Ġz itten
Ġop nam
art ritis
Ġl us
ctie f
ru st
ĠI DCM
01 6
pro ject
hal ve
ont ane
iciÃ«n ten
Ġatriov entric
diÃ«n ten
Ġperip ro
Ġregurg itation
upt uur
) (
1 12
u al
Ġmet alloproteÃ¯n
Ġst elt
ĠL oop
Ġaf neemt
ĠW omen
ĠW HR
Ġverander den
Ġ11 9
Ġsyste m
Ġad ditie
ĠCT A
Ġfe ite
Ġrisic omarkers
Ġhomocyste Ã¯n
stress s
ĠMan nelijke
plasm aconcentraties
Ġzoog dieren
Ġepilep sie
Ġmisselijk heid
N on
b ach
n ia
Ġk oper
Ġop gesteld
Ġop zet
am ple
ver vanging
Ġsympt omatisch
11 3
Ġkwaliteit s
Ġfibro blasten
vloe istof
ocardiocardiocardiocardiocardiocardiocardiocardiocardiocardiocardiocardiocardiocardiocardiocardiocardiocardiocardiocardiocardiocardiocardiocardiocardiocardiocardiocardiocardiocardiocardiocardi ocardiocardiocardiocardiocardiocardiocardiocardiocardiocardiocardiocardiocardiocardiocardiocardiocardiocardiocardiocardiocardiocardiocardiocardiocardiocardiocardiocardiocardiocardiocardiocardi
Ġgerep ar
Ġonderbre king
Ġmalon dialdehyde
idiver ende
) );
e chocardi
re am
aties ysteem
Ġventrikel pacing
ĠLV NC
Ġtijd perk
ola m
Ġgest abil
Ġhersen infarct
diabet ica
tri als
Ġvi raal
Ġlinkerkamer wand
Post operatief
Ġlaten te
oser oser
gedefin ieerd
F AP
W C
X A
o wn
w or
Ġh apl
Ġn ul
ri ficatie
ru im
ĠE AT
ĠIn sul
ok ines
Ġventrikel disfunctie
org anen
Ġdeel namen
PA I
Ġgeh oor
Ġverst rekken
ĠHR Q
Ġth iaz
Ġtransm it
Ġinn ov
Ġmanifeste ert
seff ect
Ġlev osimendan
Ontslagg medicatie
Ġafwijk ende
tt p
A SA
Ġp uls
Ġt oxic
Ġonder broken
ĠI taliÃ«
Ġj ugulaire
ĠN oor
be zoek
Ġsp ee
Ġsub acute
do elen
ob arb
Ġlo w
Ġopge zet
bloed druk
ĠDu chenne
athyre oÃ¯die
A ritmogene
H yp
w ist
ant s
Ġcardi ologische
roep en
ad j
Ġper meabiliteit
Ġlinker hart
ys functie
ĠF V
Ġpar ac
Ġdis opyramide
Ġgev raagd
ore ductie
Ġgew ogen
ilt raten
Ġbehandelings groep
Ã¨ ne
ĠOSA S
Ch ronische
cum ulering
Ġcelt ypes
verdraag zaamheid
Ġzel fra
k ige
v id
w nst
er nstige
Ġb ind
ul are
un it
ere se
ac ine
Ġi NOS
Ġplaats gevonden
opul ation
Pro gnose
Ġautosom al
Ziekenhuis verloop
) ]
T ien
p uls
er al
ch ronische
Ġge synthet
Ġaan passen
ik et
ĠH S
lo x
ĠT waalf
Ġ20 20
Ġtrans f
Ġ13 4
Ġint act
Ġsignaal route
lar g
usp id
Ġmod ulatie
Pro cedure
Ġdefinitie f
ĠÃ Ĺ
Ġelast ische
D ES
b l
l iek
ver vangers
ĠI mpella
ap ent
ĠS B
ab in
Ġch or
ĠpatiÃ«nt jaren
Ġap neu
Ġ13 2
lip oprotein
Ġplasm aglucose
sc rip
Be eld
Ġspi ronolacton
Ġ-(((( ()
zwak te
ĠGlob al
Ġf ysiologisch
Ġmyocard ale
fra gment
Ġaort ast
Ġsele en
Ġhel pt
no od
ĠDia betische
Ġspect roscopie
Ġbescha digde
Ġwandbewegings afwijkingen
fron teerd
a gen
Ġt on
ele ase
Ġsp orad
of en
01 8
Ġinter ventriculaire
Ġex press
Ġab cix
Ġanti aritmisch
Ġep it
lamm ing
Ġco un
ons et
03 3
ile s
ĠCP AP
erc ulose
morf ologie
L e
M ate
T F
z ijd
or ide
Ġz or
Ġaan leiding
Ġr y
ĠD en
Ġbloed verlies
Ġant ilichaam
Ġziek tel
Ġbev inden
ĠK aw
gem aakt
Ġpra ct
ĠAmerik a
Ġoverd rive
Ġantit achycardie
fib an
Ġvolde ed
Ġfluor oscopy
Ġhemost ase
Ġfist els
Ġadolesc entie
Ġw all
am ol
Ġis ovormen
ang er
ran te
ab ases
Ġdis soci
Ġser ies
Ġlever de
bre ed
wer p
ycard ische
Ġantioxid ant
adv ies
doel stellingen
Ġarterio veneuze
en chymale
an o
ge meen
Ġen erg
Ġw ond
Ġin voering
Ġal len
ĠI MR
ĠT S
Ġcomp lic
Ġra m
ciden t
Ġhem olytische
Ġ13 7
Ġstandaard afwijking
gez uiverde
ĠAfrik a
Ġkn ie
Ac ute
Ġhyb rid
Ġwijdver spre
ĠKre bs
ĠKaw as
6 00
Ã« le
sp annen
ĠH MG
ĠT l
ĠN MR
Ġdo wnst
Ġac cept
stol en
Ġmyocardi ografische
geven de
Ġoefen en
Ġhist ologie
Ġwaarsch uw
visc ositeit
S e
h iv
la den
Ġbe dre
im ibe
be ctomie
ĠR P
Ġinf erieur
ud ingen
Ġra ad
Ġ198 1
Ġta urine
odi um
ĠSC ORE
Ġmob iele
Ġtet ralogie
Ġbevre digende
erget ische
ĠBrit se
P lasma
Ġre delijk
ĠB I
ov ole
ĠIn dische
Ġex per
norm aal
Ġtransm embrane
Ġden ervatie
Ġcontro versie
Ġversn ellen
Ġran olazine
Isch emische
Ã¶ntgen foto
% /
( Â±
ol yc
og litazon
ut atie
ĠM PS
Ġres veratrol
ster oÃ¯de
met az
ont steking
zet imibe
Ġad riamycine
Ġtechn etium
Ġmoe sten
cor d
Ġdien den
Ġgecon fronteerd
odi Ã«
Ġinspannings angina
ereg ime
Ġhol te
Ġmultidisciplin aire
voorzien ing
arach n
T he
c ort
t otal
v ia
Ġf ot
ĠC RF
il line
Ġmyocard um
Ġvrij heid
Ġsarc oÃ¯dose
Ġadren erge
Ġuitste kend
ĠInf ormatie
Bep alen
Ġpathog Ã¨ne
Ġcontroversie el
w al
Ġp hosp
Ġge differentie
le erd
ath yro
ab ain
Ġ14 2
Ġ13 9
ĠVer hoogd
Ġsterk te
zuur stof
Ġint imale
AA S
Ġopen bare
Ġdocument atie
Ġprocent uele
hyp ot
Ġthyro t
Opname details
b ack
el oosheid
Ġen quÃªte
Ġge ometrie
Ġin vasie
ot iden
Ġre fer
ste mperatuur
ĠE RP
ĠE KG
ĠP AP
ĠB MD
Ġmy ocyten
Ġreg ime
Ġaut omatisch
201 0
uss entijd
Ġvergro ot
cell ulair
Ġremodel ing
Ġatherot rombotische
A cht
F GF
R E
b iologie
al ase
Ġe in
Ġn at
te it
ver st
ff ect
per oxide
Ġrec epten
komst ige
Ġ14 1
Ġprogressie f
ĠÃĤ Î¼
Ġpolymorph ic
acon centratie
ĠAb normale
anti genen
hyp op
Ġglucosetolerantie test
ĠEngel and
Ar ts
Ġbehandelingsmo gelijkheden
Ġvoortplant ing
ĠSeg ment
Ġdownst ream
ro eg
Ġa ders
ver korting
ĠA chten
ho udt
onder druk
ion aliteit
end othel
Ġtotaal cholesterol
Ġcohort onderzoek
raag bare
Ġple iot
Ġmodi ficatie
Me dicatie
hs CRP
dynam ica
bevol king
- /-
e eld
Ġm u
ch ial
Ġhart risico
Ġhart insufficiÃ«ntie
Ġdat abase
ĠD FT
Ġant im
ate uze
Ġtromb olyse
yl transferase
Ġgoed k
Ġricht lijn
ouw en
Ġfo uten
Ġmitochondri al
Ġverslecht erende
HO MA
HS S
Ġhartmy ocytes
Ġbif urc
Ġprior iteit
Ġdiar ree
P AP
Ġe v
om n
as ker
omp e
ui del
01 7
Ġda ags
Ġlong veneuze
bre uken
Van wege
Ġpathof ysiologisch
Ġkarakter isatie
ĠTe gelijkertijd
Ġbed wel
Ġmag ere
Ġfract ionale
pens ity
ĠFab ry
Ġcoll ater
A N
M H
s duur
it ine
Ġis ometrische
ĠM idden
Ġgen omic
tie l
rij f
stan dig
Ġ198 3
acro limus
200 2
leg ie
sens it
ĠSA ECG
Ġanest hes
Ġtrig gers
smetho de
transp ort
ĠBrazil iÃ«
oxif en
n i
en ce
ar a
Ġu ro
os orbide
ĠP ylori
ĠT ur
ĠN ort
Ġcomp etitieve
ĠAF L
Ġpo int
Ġpart iÃ«le
Ġmicroscop en
Ġgestruct ureerde
c ine
in ofilie
st achycardie
Ġn oe
ol inerge
ĠI CAM
dt herapie
ĠR ho
Ġgele iders
ure se
Ġvoeding ss
ĠRV OT
Ġemb olische
Ġdocument eren
Ġcut off
micro scopie
ĠgeÃ¯nteg reerd
Ġsuggest ief
A ziaten
c ru
is on
Ġe ut
Ġc omm
la chten
Ġaan deel
Ġre ct
Ġdoor zocht
Ġhe el
aan delijk
ĠT DI
ort ing
Ġgez ins
Ġanti gen
Ġep igen
Ġvoorkomen d
Ġvet rijke
fer entiÃ«le
Ġzelf m
orator ia
stat ist
kw adraat
Ġmis bruik
ĠX a
Ġpoly fen
complex e
Ġinduc eerbaarheid
Ġcry ob
Ġexc itatie
Ġdex amethason
Ġnatriuret isch
apopt ose
Ġp rel
Ġt ussentijd
Ġvoor ke
Ġop geb
ri er
ver zorg
if ib
ĠP TS
ĠP Ã¢
omy osine
pro gramm
spro bleem
ob last
Ġtoekomst ig
gro ter
Ġget ra
ID CM
Ġoest radiol
Ġproband s
C ont
G H
d omy
g o
h is
ar yl
Ġs ite
Ġvoor waarden
Ġvoor beeld
ien op
mo te
na ag
Ġhartk lachten
Ġlok aliseren
Ġprec urs
uan idine
Ġstaan de
coÃ«ff iciÃ«nt
ĠAden osine
- )
k aart
Ġt or
Ġvoor kw
Ġl ijdt
ur in
ec eptor
rig eren
Ġmit raal
Ġradi ologische
ĠJ o
Ġweer gegeven
AR B
oefen en
Ġmalign iteiten
acet aat
Ġcat ar
Ġnec rop
Ġmeth ionine
Ġunif orme
Ġbereken den
A sp
L BBB
er atieve
Ġb ib
Ġc DNA
Ġc lozapine
Ġop port
ĠC om
ap ische
ĠB r
ĠWe b
Ġmechan istische
Ġzorg de
werk ingen
Ġleven smiddelen
Ġtij dige
ĠAan vankelijk
Ġresonantie beeldvorming
Ġqu int
path ologie
Ġhartre synchron
YY YY
intens iteit
Ġperox isome
Ġperipro cedurale
P a
p neumonie
Ġv lucht
Ġm or
Ġge f
Ġk ra
Ġst ero
sch ommelingen
ant ant
ĠM o
ĠV ers
Ġtoe gan
Ġsch ema
ne us
Ġ14 7
Ġgezondheids werkers
Ġgl ibenclamide
Ġdrin kers
Ġembry o
Ġopport un
b anen
p osit
et ra
Ġm tDNA
Ġge wezen
aan bevelingen
ĠD P
In tra
Ġend ovasculaire
Ġverk eerd
ne y
Ġlevens jaren
Ġovereen stem
Ġresul terende
ĠSy stolische
hyd rop
Ġtoevoe gen
ĠMT HFR
ĠHer haalde
Ather osclerose
Ġsyncop ale
Ġcolor ect
ĠAdem halings
utriÃ«n ten
T E
a H
e chn
n on
t ellingen
z osine
is o
ro me
Ġge str
Ġbij gew
op slag
Ġr h
ag ie
Ġover vloed
tra umatische
Ġla c
uur stof
sel s
inf luenza
Ġgro ene
over leven
Ġben en
Ġtoekomst gericht
Ġinot rop
Ġultras ound
Ġcanine model
fet amine
o sp
t ub
st a
Ġa ero
Ġre ductase
iv aca
Ġdoel stelling
gel d
Ġse ssies
Ġaanbe veling
Ġgecon strueerd
struct uren
Ġzod an
Ġsequentie s
'''''''' ''''''''
Ġkosteneff ectieve
Ġejectief rificatie
Ġtrombox ane
ĠCal if
Ġ Ì
ar in
Ġt rip
Ġn iers
Ġon no
ant ib
Ġna delen
ĠT itel
em ar
Ġab laties
Ġverk orte
Ġsub arachn
Ġad d
Ġopt ische
Ġveiligheid sprofiel
Ġgemeenschap pelijk
bra in
iz ation
Ġall elen
Ġmicroscop ische
oort gelijke
razol ium
Ġdeskun digen
natri uretische
Ġplacent a
ge lab
Ġge genotyp
Ġver plaatsing
Ġk omst
Ġbloed verwanten
entri f
Ġap pro
Ġmult im
ogram men
Ġpath ways
Ġcre pitaties
Ġpara digma
Ġonderhoud s
Ġruggen merg
Ġmesenter ische
B W
p ÃĤ
s index
Ġde tails
ge past
Ġover wegingen
Ġdo et
af stand
mm et
Ġtachycardie syndroom
gest andaardiseerde
Ġsub types
ĠgeÃ¯n dustri
ierf unctie
Ġopen lijke
Ġnic orandil
Ġmob il
Ġinten se
aaaaaaaaaaaaaaaa aaaaaaaaaaaaaaaa
sla ap
ĠScien ce
Ġhemo chrom
Ġvarken smodel
a chter
f out
um a
ere erd
Ġcor rigeren
ĠF EV
LV OT
02 4
ĠSt ress
vul lings
Ġneuro de
Ġval ideren
Ġelectroph ysiologisch
Ġpols golfsnelheid
Ġarteri osclerose
Ġorthop neu
Ġconstat ering
Ġd ar
Ġd omeinen
Ġop io
Ġf ron
ĠE vent
Ġna chts
Ġper icardium
ĠT a
Ġch olec
inf iltratie
ĠG L
Ġdis section
zoe ks
Ġtegen woordig
Ġtromb i
Ġserum albumine
Ġpijn lijke
mon oxide
dro mische
Ġhom ogene
Ġgroei hormoon
ĠPre vention
Ġleef den
mis bruik
Ġrisicop atiÃ«nten
Ġbis oprolol
ĠKawas aki
( )))
< .
B innen
O B
p ent
t ip
Ġ ater
ge diagnostic
re ferentie
den de
Ġz uiv
Ġon verdraagzaamheid
ant ine
ĠB MS
Ġper icardi
ĠV PC
ich amen
Ġele ctieve
Ġ> /
Ġspec iaal
02 6
ĠIV US
Ġdier lijke
dens iteit
Ġoverd reven
richt ing
ĠTI MP
Ġunivers iteit
Ġtrac king
Ġonop houdelijke
Ġkwal itatief
Ġgesp eeld
Ġvisu alisatie
Ġcoag ulatie
Ġtricuspidalisklep insufficiÃ«ntie
schrij ving
Ġsil denafil
direct ionele
prakt ijken
M g
er b
Ġp lu
Ġon vermogen
Ġ2 20
ĠI m
Ġwas hout
Ġdat abases
Ġer voor
Ġbloed vaatjes
ress ure
Ġla ad
ĠG u
Ġziekenhuis sterfte
Ġze kere
uit stroom
Ġvet metabolisme
Ġgev oed
Ġachter halen
Ġrem de
Ġfosf odiÃ«
Ġimmuun deficiÃ«ntie
Ġpersoon lijk
Ġamino zuren
Ġbif asische
Ġost ium
Ġbind weefsel
ĠgeÃ¯ndustri aliseerde
b or
z in
Ġon waarschijnlijk
Ġop brengst
se en
ul atoren
ĠS CA
ĠgeÃ¯n dividu
Ġgeslacht sspecifieke
Ġgew en
Ġperi operatief
inet ri
Ġtert iaire
immuun ziekten
Ġ((((((((( ((
rot isch
glyc os
Ġscreen ings
Ġpolycyst ische
Ġmet alen
aar de
aar digheden
Ġf lex
we ken
ĠG GT
uit val
Ġfarmac otherapie
Ġantist of
ĠMI BG
Ġaute ur
ĠPT H
Ġvag inale
ĠNiet temin
Ġdringen d
Ne gen
Ġran ge
ĠToe komstige
Ġdigit alisering
Ġarach idon
Ġzodan ig
U NE
at in
ch emie
on ge
on ia
Ġa gressie
Ġc ascade
Ġbe waar
Ġhart her
ĠH b
ĠH oe
ĠV eel
dt max
Ġtoe diening
Ġap ische
lij m
comp licaties
herapeut ische
ĠgeÃ¯n c
Ġag gregatie
BMI PP
Ġ((( )
Ġanticoag ulatie
Ġemissie tomografie
Ġgestuur d
ĠA RT
Ġend omet
cut aan
Ġtri age
Ġanat omie
Ġmultip ele
elekt rische
Ġgegenotyp eerd
Ġzuiv el
D T
ar ische
ati enten
Ġk naag
ver hoogde
il la
ĠE MS
Ġuit st
Ġbl ock
ĠO TS
ĠF rie
gel s
Ġsub maximale
Ġtegen over
Ġgeval rapport
Ġpath ologisch
verander lijkheid
pat ho
Ġinterle ukin
Ġhetero geen
Ġimmunohistoch emische
ograph ic
bev order
Ġspee ksel
Ġzor geen
Ġ ip
Ġd ru
Ġc er
ĠH IF
Ġuit da
ĠS oortgelijke
yl line
Ġablatie procedure
AP AP
Ġgewicht sver
ĠBMI PP
Ġvalv ular
Ġversn elling
Ġpredis pon
anal og
Ġpersister ende
Ġdoord ren
Ġgescheur de
E n
b indings
c an
it ieerd
Ġc risis
Ġk uur
Ġk inese
Ġhart structuur
ul la
he p
if t
01 3
11 4
Ġneuro hormonale
Ġrust ende
AR VD
ou ten
Ġloc us
Ġcreatinine klaring
Ġparas iet
Ġcla u
cyc lase
ĠÃģ l
H B
V CAM
d omen
r ieken
Ġge organ
Ġvoor waar
ver houdingen
con ditie
Ġkransslagader angiografie
Ġher verdeling
Ġ14 3
Ġablatie procedures
tak blok
Ġform ul
Ġintrac ereb
Ġgeslachts verschillen
olys acchar
Ġhemost atische
Ġafgeb roken
Ġencefal opathie
Ġterugn ame
Ġadministr atieve
Ġgestr at
) =
I G
W I
c are
m ateriaal
Ġd oc
as em
ve ctor
Ġ2 10
ĠA CC
du i
Ġeff iciÃ«nt
em ia
Ġex acte
Ġsamen leving
Ġgere con
Ġun it
000 3
osit ol
Twee Ã«n
Ġwetenschap pelijk
voorsp elling
ĠSC N
ĠApo E
Ġgran en
ĠNederland se
enze ventig
Ġelektrocardi ografische
Ġtranss ofageale
D awley
K D
R M
b olische
o id
at ur
Ġde fibrillatoren
Ġp ool
Ġ( Â±
ol id
as ie
ĠC omm
Ġcon stri
Ġaf nemen
ib ut
ĠF ood
Ġep is
Ġmicro V
yt o
Ġbevol kingen
th etische
ly se
Ġrecht op
Ġdicht heids
Ġcap s
Ġglyc emie
Ġemb ol
Ġhist orische
Ġuitvo erbaar
Ġchron ot
Ġsl otte
Ġprob eren
Ġcy ste
Ġplasmalip iden
Ġsuperie ure
UNE L
P PAR
Ġb ased
Ġop nemen
ran ge
ell ulair
wee g
Ġleven d
Ġfo ut
Amer ican
ĠGro te
Ġecardiocardi ografisch
Ġgelok aliseerde
Ġwoon den
Ġfinanc iÃ«le
Ġovertui gend
Ġongem ak
E lektro
T IA
s amenstelling
st resstest
al lo
Ġc is
del et
Ġte vreden
Ġuit oefenen
ect oren
ĠR isicofactoren
gest imuleerde
MI BI
romb ose
isatie therapie
ule uze
Ġwand verdi
Ġplaqu er
Ġobserv ational
Ġtransplant aties
bep aling
Ġbeginnen d
Ġvoedsel frequentie
Ġanticoag ulant
memb raan
Ġcompute d
aldosteron systeem
otrans ferase
Ġeduc atieve
N ES
l t
er pen
Ġv rucht
in i
st ijden
Ġe qu
re atine
Ġo sc
Ġc lonidine
ra ad
ul te
ul sen
ĠA L
ĠA tri
ĠA ssessment
ĠB er
ocardi ografie
Ġgen otypes
ĠO rale
ulp rit
Ġ19 0
ane mie
Ġzw elling
Ġ201 7
Ġperfusie druk
verw ikkel
Ġapo A
Ġlevensvat bare
Ġradiofrequentiekatheter ablatie
bele id
ĠAsp irine
Ġpall iatieve
Ġperfor atie
ĠEmb ase
Ġzelfm oord
I mp
P F
Ġin testinale
Ġz est
Ġhart aritmieÃ«n
Ġhart remodellering
Ġf asen
ho ge
ĠE ind
Ġwaar naar
Ġ3 50
Ġlinker atriale
Ġinf latie
Ġ14 9
Ġbi directionele
etro fos
Ġsla p
Ġbehandelings strategie
av y
Ġdysp lasie
gere g
Ġverdi ent
class ificatie
l id
v eld
w aa
ar r
Ġk laring
Ġg la
ĠC CA
ĠB M
Ġla s
ien cy
oven de
Ġ14 4
Ġaut omat
Ġoperatie kamer
werk te
Ġverzam eling
Ġth ienop
ĠSy stemische
ĠIg M
Ġacetyl salicylzuur
Ġverpleegkun dige
stra ct
anesthet iseerde
Ġsubarachn oÃ¯de
k a
Ġm ij
or ds
al ingen
Ġt ijden
it Ã©
ri ers
Ġre mote
cht se
ur ance
Ġcardi ocardiogram
ĠD ig
ĠL a
omy ocardiale
Ġres ynchron
ĠG lyc
eu ten
Ġpl ate
bere idingen
Ġenergie metabolisme
dimens ionaal
Ġvererg erde
Ġgeprogramm eerd
QT c
Ġgevalide erde
Ġsal p
Ġrisicop ositie
Ġgeaccep teerd
Daar om
ĠFrank rijk
aryn ge
Ġziektet oestanden
I NR
f ol
g ar
it ion
Ġa ge
op ties
Ġg aten
ap ro
ĠS an
ĠB D
Ġgem ak
ĠD HA
ĠR BC
Ġvoorsp elden
Ġverw erkt
uit slag
rel axatie
Ġnon compaction
vas ief
Ġat leet
Ġpra zosine
segment verhoging
ĠAD DA
Ġcurve s
mod ulatie
Ġcovari aten
ĠFe der
Ġacromeg alie
Ġrepro ductieve
Ġgeconsum eerd
olyc olyc
D er
E chocardi
Ã ħ
re chts
Ã« tine
del ige
ver sch
ver kal
il len
Ġcardi opathie
Ġverho udingen
Ġme de
Ġdiabet ici
Ġventrikel druk
Ġsch eiden
lijv igheid
Ġstr et
ĠHeart Mate
ĠAD R
ĠCP VT
Ġinfusie s
dnis olon
Ġpal mit
ministr ation
loz ingen
Ġsubopt imale
tom idine
Ġonbep aalde
A chten
b rengt
c eptor
d ycardie
l etische
en han
Ġm cg
ch loor
Ġw ell
Ġp ret
di oxide
Ġop lossingen
Ġg lycer
ze stig
ran splantatie
Ġch ain
Ġ19 79
Ġevalu eert
Ġverw anten
Ġ14 6
uit gaven
spann ingen
Ġoc c
orter s
Ġinfarct e
Tn I
rect omie
Ġnet vlies
Ġstrom ingen
kol om
ĠCont inue
R AS
S LE
st ander
Ġd ors
ati eregime
Ġl im
od ale
ab olisme
tie le
Ġaant oonde
NA F
Ġat rofie
Ġwil de
Ġaden os
Ġafzonder lijk
Ġextrasy stolen
Ġinte graal
Ġgecompense erd
Ġillustr eren
Ġziektel ast
b uis
z ingen
el im
Ġp au
Ġo vale
ite ct
ĠL S
ion en
Ġinter essant
Ġatrium druk
Ġsch eiding
Ġsub type
ente se
Ġges imuleerde
Ġpl anning
do elde
Ġ16 2
Ġsec retie
mi RNA
fa iling
Ġdys ritmie
sych ologische
Op gesteld
atig de
Ġstatist ieken
Ġspier zwakte
pol ip
Ġverla gende
Ġdra inage
Ġgestandaard iseerd
Ġkant oor
voorsp ell
Ġanal get
Ġinn ervatie
anest hesie
iro fiban
cult uren
ĠRadi ofrequentie
medic ijnen
Ġextracorp orale
ibr ary
Ġhomocy sten
larg inine
entrif ug
a Ã¯
c ascade
r f
Ġm ortaliteit
Ġt hy
Ġc rypt
ische mia
Ġaan wijzing
ul d
Ġg lykemische
ine erde
il lage
Ġer fen
im etische
Ġnorm alisering
Ġ15 2
Ġaange du
cholesterol gehalte
MB F
Ġhaal bare
Ġontbre ekt
Ġdynam isch
Ġgron dige
Ġpostm ortale
ĠRD W
E PS
F amil
b ale
m isch
in vasie
et hyl
on antie
ul ated
ĠI GT
ĠP lasm
rij p
Ġ15 3
tran sl
fractie erde
Ġij z
Ġhypok in
Ġdim ethy
Ġtransl ocatie
cont inue
Ġtrig ger
veroor zaken
Ġvasosp asme
Ġmediter rane
Ġcommerc ieel
Ġatrioventrikel blok
End othel
Ġpi oglitazon
exerc ise
issu e
H b
m uis
Ġbe mon
Ġhart occlusie
Ġf irst
Ġna belasting
Ġbl ind
Ġpro pensity
ĠT est
of te
01 9
Ġged acht
Ġdoel gerichte
Ġher kend
Ġel f
Ġhypertro p
ger andomiseerde
cardiomyopathie Ã«n
Ġgere geld
Ġand ro
az olam
Ġvoort komen
active erde
merk ingen
Ġafge geven
stam ibi
Ġent iteiten
ĠMD CT
Ġrekru tering
Ġprostagland ine
R O
p ot
p aren
v entrar
il standen
ĠA SD
ff ecten
ĠT er
ĠV ijftien
ĠD is
ĠD if
ĠL ung
ĠN CEP
Ġtran st
Ġ15 5
Ġdi ameters
Ġmult iv
ĠgeÃ¯n duceerde
Ġgew onde
Ġhouden d
Ġmanifest eren
Ġrook gewoonten
Ġcatecholamin erge
uv ante
ĠMY BPC
Ġcorp us
His pan
ialis ten
Ġplaquer uptuur
O f
Ġh ard
ten ded
it h
ss ystemen
ul entie
ap ar
Ġont spannen
ĠO CT
Ġhoge frequentie
Ġou abain
ĠCardi op
Ġblok ker
Ġgeleiding stijd
hospit aal
Ġdiagnost isch
Ob serv
opie Ã«n
ĠAPO E
sensibil isatie
Ġparox ys
Ġed oxaban
ĠdiÃ« ten
Ġtriacyl glycerol
Ġnecrop sie
e NOS
de te
ge ometrie
Ġm aandelijk
Ġt aal
le vens
ri vatie
Ġis t
Ġis osorbide
Ġf ases
sp aren
ĠH CV
ap tische
Ġcon duction
ĠS G
ĠN H
ĠO r
af spraak
Ġmon op
ositie ve
Ġne ovasc
Ġterug t
IV US
inet ijd
alys is
Ġpolik linieken
contra cties
verb inding
Ġcreatine kinase
cla mp
infectie s
oxic ose
ĠTak otsubocardiomyopathie
Ġonderstre pen
Ġvasopress ine
lymf ocyten
ĠgeÃ¯nc ubeerd
M it
i ere
u in
Ġk il
Ġhart transplantaten
Ġcardi ografisch
im s
ĠS uccesvolle
age erd
Ġpar athyro
Ġimp lic
Ġtegen hang
11 5
Ġ16 5
ĠGe Ã¯soleerde
Ġimmun oglobuline
pol y
ĠBe eld
co ag
Ġhydro x
Ġproduc eert
Ġloc aties
ĠTn I
ww w
Ġare a
Ġmediter raan
Ġhecht ing
Ġgesynthet iseerd
Ġdissoci atie
g lob
h ale
atie ven
ra ctie
Ġg uan
Ġpro vi
ist ieke
Ġpost erieure
AC R
ob lasten
to elat
Ġelektro lyt
PC OS
ID S
instru menten
Ġalbumine urie
Ġreage ert
osy nthese
Ġwervel kolom
Ġverrijk t
Ġselen ium
; &
r un
Ġde b
or al
Ġe sc
am b
Ġg ar
ĠC he
Ġr ati
em isch
ib el
Ġ19 2
ne mende
ĠK ort
jar ig
vel op
DM A
ou ders
Ġgeleidings blok
ĠAd ministration
hulp middelen
infusie s
Ġverblijf sduur
weer stand
enze stig
Ġoverlijdens ak
Ġoptim alisatie
Ġsymp atho
Ġonno dige
Ġaangedu id
r gen
Ġh or
al dehyde
ĠI K
ĠH V
ĠP G
ĠT em
af scheiding
ering s
Ġtachycardie s
Ġinter atriale
Ġsymptomen de
Ġimp lementatie
ĠSt r
ob acter
elev ation
Ġadip ositeit
Ġgluc ocortic
Ġhydro xy
Ġprof iteren
calc ium
Ġmonof asc
Ġvoorspel er
knoopp unt
N ieuw
f ten
Ġ /
in igende
Ġc lin
Ġvoor gaande
Ġaan gebracht
ĠP ulmonale
ĠT oonde
Ġpre diabetes
Ġgen o
up tijd
Ġkransslagader stenose
elijk tijdige
uit wisseling
bre uk
Ġfactor s
Ġgest opt
Ġrest erend
200 4
Ġhan del
verwij dering
Ġwacht lijst
veroor zaak
Tak otsubocardiomyopathie
Ġhyperk aliÃ«mie
emar ken
Ġendomet rium
bevorder ende
G ly
k inderen
o ur
Ġv ij
ge plaatst
Ġp it
am aat
ran splant
aan passing
ast ische
cardi ovasculaire
ĠG A
ĠZ uurstof
behandel ings
02 9
Ġverd ween
200 6
Ġfibrin olyse
LD H
Ġvoltoo iden
Ġthyro id
cont act
VE GF
Ġslacht offers
. ),
1 01
ar re
il ijke
Ġbl inde
ac ub
Ġwe der
over leving
modi ficatie
ou der
keur ing
oly oly
Ġwijz igt
Ġvascul itis
Ġmarg inale
ĠAde densine
geperf undeerde
acub itril
K O
Ġm urm
Ġk rij
Ġk inetiek
ra ventriculaire
Ġf ysi
Ġle ed
ĠP CSK
Ġpro gnost
Ġpro cainamide
Ġdo eleinden
ke bach
iÃ« rs
Ġinter cellulaire
gele idings
ĠZ w
Ġwee fs
Ġser op
Ġactiv ation
par te
Ġrisic oreductie
diast olic
SE M
uste d
Ġreflex tachycardie
Ġham ster
Ġprot hese
Ġinten t
don oren
Ġcur atieve
Ġprolifer ator
kn ock
snel heden
knoopp unten
Ġpositron e
Ġbelemm eringen
Ġpilot studie
Ġanastom ose
ĠBelang rijk
Ġpolys omn
Ġdiagn oset
Ġstret ch
i ative
Ġ ie
ar rest
re a
Ġin actieve
Ġver waar
la c
Ġvoor l
Ġop merkingen
ĠH L
ĠL ibrary
Ġont le
wit ser
ex press
dis c
Ġproble matisch
Ġtachy aritmica
uter ol
Ġcontrast middelen
Ġmob iliteit
Ġuter o
Ġcyst atine
ĠInit iÃ«le
ĠIndi anen
Ġasyn chron
Ġtheor etische
Ġlipideper oxidering
breed te
inetri fosfaat
U V
V orige
m ings
s artan
le ine
Ġc ursus
ak al
tro uw
Ġhyp erf
Ġover vloe
ĠV itale
ĠN o
Ġhyper par
Ġend ocardi
ont herapie
Ġbre king
Ġangio tens
Ġdos eringen
kle uring
want itatieve
oxy glucose
Ne w
Ġverwar ring
Ġzeker heden
Ġblot ting
Ġtar get
Ġtachycardi en
m aanden
Ġvoor beelden
un ning
Ġal vorens
Ġcon n
ĠB et
ĠL ichamelijk
Ġziekte sterfte
Ġend oscopische
do wn
Ġ14 8
02 8
16 5
Ġvoort zetting
Ġoorspron kelijk
Ġafge zien
Ġpersoon lijkheid
Ġlogist ische
Ġgeslachts gebonden
molecule s
ĠCR M
enc kebach
Ġconcurr erende
Ġmanip ulatie
Ġingewikkel d
Ġappro ach
arynge ale
B i
ie uze
Ġt ilt
ct us
Ġc arcinoom
Ġk linisch
Ġon aan
Ġhart transplantaties
Ġf oto
ĠA KI
lin ks
valu aties
Ġventrikel ect
ĠF actor
Ġken merkt
agn es
lip tine
Ġgroot st
Ġnood s
Ġgeregist reerde
Ġverzwak king
Ġmaal tijd
metaz idine
ĠAdemhalings frequentie
ĠfosfodiÃ« sterase
Ġbewaar d
Ġerfen is
G TT
y ru
Ġm ortality
ij e
Ġre con
Ġcardi oth
Ã¯ d
Ġtwee kamer
ĠG LP
alis aties
ĠK D
ser ine
Ġmoe ilijke
opt ische
Ġvloe istof
Ġvolum es
induc eerbare
vergelijk ingen
Ġtwe eling
Ġrisicogroep en
Ġgestabil iseerd
D oppler
D SE
M omenteel
ge cor
il ine
ĠB S
ĠT otal
od al
ĠN et
Ġpla us
cardi over
Ġmin i
rij s
ren ds
Ġsc anning
isten s
Ġdi ende
ling u
Ġbeeld vormings
Ġsyn chron
ret entie
Ġth romb
Ġmedic atieregime
eed back
arb onaat
Ġvasoconstri ctor
Ġinhib itoren
Ġec ologische
Ġcyan ose
Ġvide o
lamy dia
Ġadditie f
Ġcollater al
Ġdoordren kt
O A
a ids
h t
Ã ¼
in opril
Ġh arde
Ġt hyre
gen oten
ult atie
Ġvol k
dig t
ĠG est
Ġimmun iteit
Ġhartst ilstanden
Ġcum ulatie
Ġverkal kte
ĠPM N
Ġzwangerschaps leeftijd
caÃ¯n amide
Ġpancre atitis
. ;
F I
G l
H er
P ÃĤ
v elijk
Ġin sp
Ġz ink
ĠpatiÃ«nten populaties
ĠH an
ĠT E
Ġaf spraak
Ġant erolaterale
ox orubicine
ĠF ib
Ġ15 1
ciden tie
Ġrechter hart
wijz ende
reg ulatie
neu ropathie
Ġrisic oc
pak t
for d
Ġoverleef de
oplasm ische
Ġpremen opausale
ĠAne st
bestr ijding
Ġanticoagulant ia
E PC
P ol
c ir
o ir
Ġz aten
ic ient
ĠS VC
ad m
onder drukking
tra ctie
Ġro od
Ġcomp liance
ĠF ibril
ĠF ailure
Ġne us
Ġtra cheale
Ġaort o
iru rgen
ax ine
Ġnood zakelijke
Ġwerkzaam heden
Ġhartfunctie stoornissen
ES V
metab olieten
Ġlangetermijn prognose
fosf amide
int uig
Ġgecon stat
ĠAb orig
Ġhemat oma
Ġtak ken
Ġion ische
MAP K
Ġtranscript ion
Ġvond st
ĠIs ra
Ġbevre digend
Ġconsum eren
Ġgeop ereerd
Ġgewe kt
Ġry anodine
Ġcatar act
2 40
W PW
b ody
l onale
in komen
Ġver nie
om ics
Ġst uren
Ġf ilament
ĠC AP
il ichamen
Ġant ia
sy stolic
age s
duc er
uit stroomkanaal
Ġgoed keuring
13 5
sc en
Ġhartk atheter
Ġscre enen
line aire
Dia gnostische
Ġultras onische
Ġendot oxine
kle m
Ġcycl i
neg entig
Ġcardioprotectie f
Ġmononucle otide
Ġwissel end
Ġverdw ijn
Ġgedecompense erd
Ġvoorzicht igheid
Ġsmal le
ifib atide
Ġsalp eter
A m
o o
t isch
z amer
ten t
it ol
la ving
ĠC u
ĠD obutamine
Ġvaat stelsel
Ġkransslagader lijke
par oxysm
Ġhoe ver
Ġwand afwijkingen
ĠOp mer
Ġzes de
Ġder mat
Ġlaboratorium resultaten
Ġdilat atedcardiomyopathie
nit roprusside
NO VA
use d
Ġext ubatie
Ġortho dromische
ĠPD E
Ġreproduc eerbaar
coÃ«ff iciÃ«nten
Ġiv abradine
Ġrobu uste
Ġana Ã«robe
Ġonderben ut
ĠMyocardi al
l um
Ġb indings
ot om
se stamibi
ig ratie
ig litazon
ĠC OS
sch reven
ĠA CT
ĠE erder
Ġuit maken
entr al
ĠT horaxfoto
ĠN E
me ster
ne xin
stru cties
Ġgep ost
ĠZ witser
ĠQ OL
12 6
risico factor
relatie f
Ġint r
Ġonbe doelde
Ġane urysm
Ġglyc atie
Ġpolymorphism s
Ġvascul opathie
Ġprob eerden
categorie Ã«n
Ġpen et
implant aten
Ġimmunosuppressie ve
triglycer ide
ofib raat
Ġreus achtige
Ġrati os
Ġkrij gt
p ts
Ġe ier
Ġd alen
se igenschappen
Ġl is
ĠC MP
ur ic
ĠDe pression
ĠA AD
os en
Ġged reven
actie f
hal ium
ure erd
Ġad ministratie
Ġverwij der
Ġhum orale
Ġlaboratorium gegevens
Ġademhalings stoornissen
stit ut
gew one
Ġverspre id
Ġarg inine
Ġvergrij zing
Ġprofess ionele
ju ge
Ġwen selijk
overleven den
Ġdimethy larginine
G L
T WA
i ose
de polar
Ġuit sluit
ĠB ijna
ĠV itamine
Ġex tern
Ġmetab olische
Ġwerk ten
Ġwerk ple
ĠCardi o
000 4
Ġbesliss ings
ĠER K
amylo Ã¯dose
Ġgo ud
ĠAort a
Ġlapar oscopische
ĠSER CA
Ġhoever re
H uidige
R ec
f amil
Ġs on
ri chten
ru chten
ang inale
Ġ3 60
Ġaf sluiting
ĠBij voorbeeld
Ġventrikel ejectiefractie
Ġsub ject
Ġ15 9
icardi pine
Ġar ch
cre atine
Ġfunction al
Ġantagon isme
ĠInter vention
Ġbevat te
Ġledem aat
verwij derde
Ġpent obarb
Ġonderver deeld
Ġsporad ische
Ġgewen ste
t yp
Ġe zetimibe
Ġz intuig
Ġk amers
se p
Ġhart wonden
ul min
Ġbloed concentraties
Ġsp re
Ġdiagnose criteria
Ġlinkerventrikel dysfunctie
Ġpl annen
ĠU K
Ġ17 5
Ġbeeld kwaliteit
Ġduidelijk er
Ġverl os
Ġpacemaker implantatie
Ġstatine behandeling
Ġform ule
path ways
Ġil iac
Ġwerkingsmechan ismen
Ġpasgeboren en
PK C
NAF LD
O nt
i qu
l ate
m aand
Ġd ron
Ġge keken
se s
ĠP ers
ĠL ife
Ġontw erpen
Ġtra jecten
Ġbepaal t
Ġlever functie
02 7
ĠCh ine
Ġasy stole
03 5
Ġfarmac ologisch
04 4
waarde erd
Ġblijven de
200 5
ĠCo unty
-------------------------------------------------------------------------------------------------------------------------------- ----------------------------------------------------------------
bar st
ĠInit iative
ĠMexic aanse
Ġtabaks gebruik
Ġverdraag baarheid
Ġram ipril
ivaca ine
f yla
Ġde parte
Ġin druk
der male
ri ct
ze ventig
ĠS al
Ġpro caÃ¯namide
ort herapie
ron e
Ġvaat resistentie
Ġbasis onderzoek
ather ap
aard oor
Ġtrans iÃ«n
Ġserum concentratie
AC C
ĠOn afhankelijke
ĠVer bet
Ġperfusie beeldvorming
Ġun der
Ġar te
dis mutase
Ġzuurstof verzadiging
Ġhypothese s
but amol
voe ging
TT C
ĠPre operatieve
Ġelev atie
Ġreflex en
mede tomidine
frag menten
Ġvoorzicht ig
Ġhartfib rose
L eu
S MR
f iltratie
i ated
le en
ven de
Ġom schreven
ĠT ra
ĠD APT
ect ion
Ġant is
Ġdoel orgaan
Ġverb indingen
ĠLV M
Ġ15 7
ug h
oth orax
elat onine
Ġlevens lange
sc ore
Ġbre iden
Ġterugk erend
Ġkalium kanaal
St ress
Ġheden daagse
Ġtranscriptie factoren
Ġhoogst waarschijnlijk
Ġmyel oper
Ġinc isie
Ġonevenwicht igheid
Ġprovinc ie
Ġequival ent
ĠEmer gency
Ġbemon stering
D i
j ood
Ġd aardoor
Ġge filtre
Ġon du
Ġ2 30
ĠH E
Ġgeb lin
ĠM C
ĠM DD
mm ol
ĠW enckebach
Ġinf iltr
pro motor
Ġventrikel cardiomyopathie
Ġsc ans
ator s
duc ten
Ġtra che
19 94
AF L
Ġmil rinon
Ġdepressie f
inu stachycardie
Ġcar oten
ric uspid
zij dig
Ġflu ores
Ġmeld ingen
Ġcut ane
Ġbiv entrikel
Ġhartslagader s
ĠReg ister
Ġvent rogra
resent atie
Ġprecor dial
ĠKore a
mycard infarct
Ġcommerc iÃ«le
benz yl
ĠDen emarken
Ġhypertrop ische
in ac
al ol
al ose
Ġp ieken
Ġt aak
Ġver gele
ati ca
id ol
han dicap
Ġu rem
Ġ3 20
Ġgem od
ĠM uizen
ĠT O
ĠL eu
ac erb
ept ine
Ġventrikel massa
Ġ19 70
Ġsub klinische
Ġ15 4
Ġ16 4
MP O
kin etische
Ġdys knea
bra chiale
Ġgel dige
Ġacet aat
ĠEl f
Ġmes enchymale
Ġecardiocardi ogram
Ġcircuit s
Ġtub erculose
Ġgron dig
huis houding
ĠCalif orn
n atrium
Ġt am
Ġin con
Ġin deling
ine zuur
Ġf la
ver ze
ĠC irc
ĠA HI
val vul
ĠH onderd
Ġgeb reken
ass end
Ġhyp of
ĠD elta
Ġhyper plasie
tra bec
Ġkran stisch
Ġ8 00
Ġventrikel remodellering
Ġpost erolaterale
geb re
hy ret
Ġsub epicardiale
Ġble ss
Ġvet verdeling
Ġaort adruk
comp etentie
oot st
Ġgra m
Ġharten zymen
su been
Ġsympath ic
Ġrepresent atief
plasm inogen
Ġgecondition eerde
Afrik a
Ġejectiefrificatie fractie
verkal king
Ġvergele ek
N CT
Ġde polar
ro g
aar moeder
ĠA MD
act informatie
onder ste
ox sackie
Ġontwikkel ende
gest ie
Ġreg ionaal
Ġanti genen
Ġap arte
Ġ16 8
str aling
ĠgeÃ¯n itieerd
Ġinge voerd
Ġverzwak ken
Ġgluc agon
Ġtrain ings
Ġfeit elijke
intigra fie
uiv erd
Ġtricuspid alis
Ġantibiot ic
Ġdown regulation
ĠTn T
Ġprincip es
splaat s
stell ings
hypot hese
Ġbedwel ming
I U
i atief
ge sp
st oft
om zettings
Ġaan leg
ot s
Ġst il
Ġf ijne
ĠT CM
Ġbloed uit
ĠIn vent
Ġho of
up studie
Ġatrium diameter
gra den
Ġpar enter
Ġ16 1
Ġborst slagader
plaat sen
19 0
Ġvolume overbelasting
Ġlipide verlagende
Ġcol leg
Ġanat omisch
heel kundige
Ġneut r
Ġdubbelblin d
elektro forese
Ġgecomplic eerde
Ġerytro po
Ġremodel leren
Ġatrioventric al
Ġhor iz
Ġglucocortic oÃ¯den
6 77
D elta
V KA
Ġver hel
Ã« x
Ġk appa
Ġre hospitalisatie
uw elijk
ĠB ilaterale
vol gen
eg entig
ĠV ele
sie s
Ġtoe gest
Ġinf iltraten
Ġdoel vat
Ġsub tiele
Ġplasm aconcentratie
Ġri b
ĠQT d
Ġverst oringen
trans gene
ary ng
Ġnauwkeurig er
int ima
medi um
Ġdra ad
ER K
Ġpolik linisch
volg ings
Ġwater stof
trac king
Ġmultif ocale
Ġket amine
schri ften
Ġritm econtrole
Ġondu idelijke
B V
g uanidine
t ic
Ġ %.
an us
Ġb ul
Ġp atienten
re constructie
Ġge laden
oe stro
ss nelheid
Ġf ruct
men teerd
ĠM H
ĠM ark
gele gen
Ġep icardi
Ġsub lingu
10 8
Ġgelijk waardige
reg ulator
vasc ulair
Ãİ oB
Ġmid azolam
arf an
Ġimmuun systeem
Ġademhalings ziekten
Ġweerspiegel d
cult uur
ĠFin land
Ġsche del
A BI
P UFA
t gang
z inn
in dicatie
Ġh oc
Ġin versie
as isch
op dra
Ġal ve
Ġal lo
ĠA ED
eer ste
Ġhe ad
ĠB B
iv atie
Ġlinker voorste
cardi op
Ġkransslagader estenose
Ġ19 77
Ġbev r
chts no
Ġgere cru
mi x
gol fin
Ġkosten be
sub groep
Ġtri mester
CC Q
olyt isch
Ge schiedenis
ĠPost operatief
Ġagon isten
Ġprotromb otische
ĠInfarct ion
Eu ropa
Ġsen es
besmet ting
Ġpleiot rope
Ġepigen etische
waa i
veroorzaken de
T N
b uterol
m usc
o ken
Ġv ader
st rofie
Ġn m
ĠH um
Ġwas h
Ġbl ote
sel ing
Ġcontrole dieren
Ġab domen
gra ft
hal ten
Ġ15 8
ĠZ elfs
10 2
ĠVer apamil
Ġzwaarlijv ig
Ġradi ografie
segment stijging
RF CA
ĠMedic are
Ġfol ders
Ġhyperhomocyste mie
verwikkel ingen
S ommige
t je
at atie
on a
on ken
le vingen
Ã« l
ide mische
ult s
Ġreg ulatie
Ġlong hypertensie
Ġgezondheids gedrag
Ġblok ken
Ġhy st
Ġbew on
Ġidentificatie code
ĠMe chan
Ġall ergie
NO AC
Ġster ft
flu x
zo chten
ringen de
++ ++
Ġfasc ic
dist ributie
Ġcalorie Ã«n
Ġprel oad
T h
e jectief
k atheters
u ul
ge du
ge halten
al gie
oor de
Ġa k
ati en
Ġf rag
ter m
ov entriculaire
Ġsp in
Ġend ocardium
oten te
Ġpl oegen
ex istente
nem er
Ġaange pakt
Ġglucose concentraties
Ġgest orven
wer pen
ocyt ische
CP R
Ġdem ografie
Ġconc epten
Ġdobutamine stress
uig ingen
ĠLat ere
smodel len
iac ine
ĠNAD PH
Ġ-(((((( )
ĠHispan ics
Ġtachyp neu
Ġbemiddel t
Ġvereen voudig
T DI
c ohorten
en cefal
Ġh ttp
al tern
el la
ct ive
art erie
og ingen
se ssies
Ġhart dysfunctie
ĠM al
du ced
ĠN HE
Ġdeel groep
ann er
Ġgep oolde
Ġsin uss
ĠMet ho
inet ests
201 2
methode s
Cardi ale
Ġnit roprusside
Ġtre m
Ġdesm in
Ġrespon sen
sz one
dep letie
Ġdens iteit
ĠClin ic
Ġmaatst af
Cont actinformatie
Ġvij an
A kt
A HI
Ġm ark
Ġb aarmoeder
ro e
it r
Ġonder gaat
ee s
Ġversch oven
ox ib
Ġpla st
geb oden
mo gelijkheden
Ġor iÃ«ntatie
bloed plaatjestherapie
kw ater
PO TS
ĠSA M
Ġtrombus vorming
Ġinspannings dysp
Ġadren ergische
ĠInter essant
Ġvals artan
rolog ische
Ġevenre dig
Ġempir ische
gal act
Ġlevel s
l iot
er ste
st on
om ed
Ġz aak
Ġbe kken
ĠI CA
ĠM M
ĠM VO
af delingen
inf latie
Ġinter vent
Ġverb lin
Ġmen stru
vers lagen
Ġbre dere
ider ings
ens ele
Ġnoodzakelijk erwijs
pers oon
po int
ĠIF N
Ġtherap euten
Ġsignaaltrans ductie
itect uur
V itale
Y R
a ver
h uid
l ys
m orbide
Ġt ient
Ġs imp
Ġc c
Ġbe dra
Ġon gelijkheid
Ġhart reactie
Ġal om
Ġal kal
um mer
ĠH ep
Ġuit oef
ip er
vallen de
ĠG edurende
Ġziekte proces
Ġra p
do butamine
Ġlan di
ikel s
Ġoefening stolerantie
Ġmedi ale
Ġaden ovirus
dre ich
ĠPro cedure
ĠHart katheterisatie
Ġradiof requency
Ġbron cho
ĠUn ivariate
Ġloc alisatie
Ġdrin kwater
Ġversn eld
Ġglad heid
Ġgerep erf
Ġfet ale
ĠOH CA
Ġadd itieve
Ġhyperpar athyreoÃ¯die
Ġeier st
L ip
S ch
p al
w ard
en vijftig
de de
Ġde polarisatie
Ġm yc
Ġt ox
Ġs CD
am etrische
Ġrisico vermindering
ĠD A
ĠN iger
ĠO ut
Ġtoe passen
Ġ15 6
Ġser ine
Ġspec ialisten
Ġstress oren
02 0
ĠSt atines
vers us
Ġget rans
Ġhum an
uter ende
Ġdiffer ent
heel kunde
Ġdiep te
elektro den
Ġoverb rug
Ġuiter lijk
ĠÎ¼ g
Ġontoerei kende
Ġnormot herme
Ġlac un
Ġzuivel producten
Ġrechtop staande
invasie velijk
M annen
at rofie
or iÃ«n
Ġh is
Ġl ijnen
ep silon
ĠS a
ov ine
ab ol
Ġversch enen
ĠO xy
Ġverminder ingen
Ġwe gen
pro gressie
ade mische
gem eten
Ġdu iden
olol ol
ĠSp O
tet razolium
Ġcat alase
binding seiwit
urb ulentie
Ġgo uden
liot he
Ġtient allen
Ġuitoef ent
2 001
F V
T LR
h als
o qu
Ġv atten
Ġde sign
st age
re ef
Ġs ap
Ġn as
Ġz achte
Ġbe sloten
ri ft
ĠC AT
ĠH AA
Ġuit geno
ĠP AR
lo zine
Ġper t
ab dominale
ocardiocardi ale
Ġher in
ĠF HC
Ġechocardi ography
11 7
Ġserum kalium
Ġben igne
Ġ201 9
Ġwaarschijnlijk heids
Ġwil len
gew ichten
lif lozine
Ġvertegenwoor digd
Ġonderwijs niveau
Ġlactaat acidose
uiv ingen
Ġbevatten de
Ġverza digd
Ġeffusie s
Ġtraum atische
ĠPO AF
Ġonverw acht
Ġsarcoplasm isch
Ġzelfra pport
ĠInvent ory
Ġgerecru teerd
ensele it
0 30
L O
Ġ eten
Ġt ip
Ġt acrolimus
te x
Ġst aten
Ġhyp ovole
ĠV eertien
be wegingen
entri k
ac e
Ġwe ig
ĠW or
05 5
Ġgede elde
Ġendothel ial
Ġgoed aardig
Ġhand matige
RI C
ES C
Ġbedo eling
Ġmemb ranen
Ġstof wisseling
Ġy e
Ġdiscrimin eren
Ġcyclo fosfamide
Ġaanvaard bare
orac ische
iro limus
Ġelement aire
Ġgynaec ologische
gedu reerde
c i
l aterale
v entriculair
Ġ |
Ġde cardiomyopathie
ge houden
ge volgen
den osine
ra ct
Ġaan b
op lasma
ver hoogd
ĠI CE
Ġper oxidering
ĠT P
Ġaf scheiding
ĠR an
sy bolische
Ġcomp ressie
In it
Ġdoel en
Ġgere ageerd
vi ane
Ġlab oratoria
Ġste atose
av itaire
klinisch trials
gevoel ig
ĠHo ud
Ġmilj ard
ĠEl k
Ġhartt amponade
Ġdisfunct ionele
ĠLong itud
Ġhyperhomocyste Ã¯ne
osa hex
H t
b anden
d ate
o et
ro te
ĠH ong
ĠE EG
ĠP lotselinge
oon an
ĠG SH
12 1
Ġlichaam stemperatuur
Ġlaag st
Ġzuurstof behoefte
03 8
gro e
Ġblijk en
Ġnatrium kanaal
Ġhypercholesterole mische
PP CM
Ġtre atment
stechn iek
Ġcytos olische
Ġviscer aal
scheiden e
. ).
B ovendien
H igh
g kin
Ġvan daag
ij en
la y
Ġk ring
Ġvoor doet
art aat
ul o
Ġr is
ĠH A
ap atiÃ«nten
ĠB io
Ġ- ))
Ġbloeddruk metingen
Ġbasis gegevens
Ġtoege voegde
Ġcholesterol concentraties
Ġint rat
Ġelekt ronisch
Ġgecon tra
oca Ã¯n
stit ution
ĠSA H
Twee honderd
omeg al
Ġevent s
Eu rope
"-"-"-"- "-"-"-"-
Ġnum er
oflu orescentie
Ġdeparte ment
Ġbedra agt
S ES
b rie
i rium
n es
t rig
v ir
Ġv acu
Ġde polarisering
is of
Ġb and
Ġt amponade
Ġo sm
ĠE W
ag greg
aren ine
ĠT och
Ġch irurg
Ġmee brengt
Ġvolwassen e
Ġstress volle
Ġoef ent
comp rom
ĠAV R
Ġdu idt
Ġfosf atase
Ġgraad meter
Ġcom a
Ġfibro blast
chem otherapie
ĠMon itoring
ĠOnt ario
ĠMY H
Ġaccel eratie
kk age
xx xx
ocalc iÃ«mie
ĠSinus ritme
Ġuniversiteits ziekenhuis
apent aeenzuur
Ġtussentijd se
Ġovereenstem mende
ĠFrie dreich
H enseleit
S O
T e
b an
t se
in houd
or rel
st reng
re ductase
Ġt yrosine
Ġin s
Ġn v
ra cheale
Ġonder houden
ver hogingen
il lan
Ġom zet
ĠE b
Ġuit put
aan gepast
ĠL E
Ġvol g
Ġeerste graads
Ġverw erking
Ġoefening stests
Ġcirc ular
su iker
Ġget racht
Ver volg
Ġmaat schappelijke
pre dnisolon
Ġtachy knea
Ġrevascularisatie procedures
defibrillator s
Ġaccess oir
Ġing repen
cyclus duur
ĠComp licaties
hydroxy vitamine
ĠLM WH
Ġwijdver bre
ĠLVED P
kon ijn
B T
M K
V M
Ġin cons
le dige
om ography
as eerde
Ġbe wegingen
id iteit
sp asmen
ĠH M
Ġom loop
ĠE CT
Ġcon ver
ĠP ath
ĠM arfan
ĠD HE
Ġmechan isch
Ġten zij
ody strofie
bre iding
14 5
Ġstij gende
iel d
myc ardi
ĠÂ µ
Ġker nen
Ġvervolg afspraken
Ġinstrument ale
net werk
Ġbehandelingsmo gelijkheid
ĠFin se
ĠFor ce
golfin versie
m ult
y e
ent olamine
Ġop tra
oc reatine
Ġal lop
sp unt
ik t
ĠB ay
ĠM PV
od ing
Ġatrium aritmieÃ«n
Ġ[ (
Ġger iatrische
ĠK an
12 2
ure au
CI MT
Ġwerk ingen
ob ser
bo om
Ġdy stro
Ġar sen
Ġgemeenschap s
da ad
spect roscopie
Ġexp on
Ġprov oc
ĠTak o
bless ure
Ġcode ert
hum orale
Ġeet lust
Ġslag volume
Ġaccept atie
Ġsalpeter oxide
w ond
Ġb ase
der daad
Ġk cal
Ġvoor behandeld
ra ys
Ġ2 15
Ġr elease
ific eerde
ĠL G
end ocardiale
Ġsub cellulaire
Ġges neden
ather osclerotische
Ġonge wijz
Ġ16 3
Ġ16 7
Ġtechn isch
ĠVoor behandeling
Ver scheidene
Ġverzam elde
av ir
Ġmacro f
off erd
Ġambul ance
Ġlymf atische
Ġpap ier
methyl glut
Ġcoron ar
Ġprogramm ering
ĠOP CAB
uidel ines
hydrop yridine
Ġwell icht
Ġtegenhang ers
Ġzintuig lijke
d aling
o ct
Ġ 002
Ġv ectoren
Ġw h
Ġin ade
Ġa miodar
Ġa ssessment
ol imus
Ġz et
Ġhart syndroom
ul opathie
il en
il and
ste d
ĠH ogere
Ġmy x
Ġaf scha
sm atched
ist ol
Ġreg imes
Ġsch ok
10 6
Ġweefsel schade
Ġget it
Ġspier massa
ĠAr t
Ġvoedings status
Ġhal ver
fen omeen
ĠCar vedilol
200 8
Ġamp utatie
ess ante
Ġenter ov
memb ranen
Ġprovinc ies
ĠbarriÃ¨ res
ĠFibril lation
ĠIsra Ã«l
atherap ie
C RF
L in
b aan
b iliteit
g ated
ge lo
Ġm amm
Ġb ip
Ġp unctie
di uretica
ct oren
as u
Ġk lok
Ġaan vaar
ul ke
ĠC art
ĠC ommun
il ip
uw e
ĠP ort
lo zing
ĠM ar
ign alen
Ġbloed vat
In sul
Ġreg uliere
Ġend oscopie
ment ation
met h
Ġgezondheid sprobleem
17 5
Ġoverw innen
oog st
lim it
Ġoverlevings cijfers
Ġproced uret
ĠEchocardi ografische
Ġfosfolip ase
Ġinc ubatie
differ entiatie
Ġgenotyp en
win ning
cardicardi cardicardi
tach y
Ġeerstel ijn
Ġbijge werkte
ony lu
elim inatie
H em
c c
p H
in dividu
Ġs ICAM
Ġre ce
ĠS UA
ĠD ys
Ġsu p
qu ate
Ġkransslagader ligatie
alis eert
ĠU SA
ĠU rine
Ġendothel iaire
Ġfamil iale
armac eutische
HA NES
Ġvas omotorische
Ġlangetermijn effecten
ĠSp i
ĠCP K
Ġgemiddel den
Ġpan iek
ĠPre ventie
Cardi ac
circ ulatoire
ransp orter
Ġoneven re
ĠSch ot
fac ten
Ġinform eren
Ġcryob allon
g ave
Ġb indt
al ous
it onine
op olysacchar
ri a
sp lan
sp lasie
Ġuit maak
ĠD T
Ġlin k
Ġuitge steld
Ġinter ageren
ger oepen
Ġob jectief
11 8
Ġreperfusie therapie
vent ien
Ġstim ul
Ġhand g
Ġextra c
Ġmolec uul
kla chten
FA E
ĠRe chter
houd ings
Ġkrit iek
lijf olie
hart slag
Ġultra geluid
Ġwaarnem ingen
Ġsal butamol
Ġaantast en
Ġrij ping
ĠhomocysteÃ¯n econcentraties
pot pot
Ġaccessoir eroute
M Y
R es
t Hcy
Ġv aardigheden
ge komen
om od
Ġk no
ig ranten
he d
ĠA N
ĠS nelle
Ġgem atigde
ĠV en
ĠD iet
Ġant ero
Ġsch olen
lig and
Ġbloot gestelde
Ġidi opatische
Ġbio actieve
ĠEu ro
yle erde
Ġong rijp
ĠGen eral
Ġhepat omegalie
chem a
Ġbaror eceptor
Ġther mische
Ġprednis on
Ġcompute dt
statist ieken
Ġhemochrom atose
Ġtoegest aan
P lan
W at
d omeinen
s i
s lice
di fosfaat
Ġk iezen
Ġr angschik
Ġal arm
Ġcardi otoxische
ran iale
ap ap
Ġ4 50
ĠM ay
ĠL ine
ĠL ate
Ġbloed suiker
ĠN LR
Ġgen mutaties
Ġant woorden
ĠW arfarine
Ġmin er
ĠQ ALY
Ġarter iÃ«n
over eenkomst
19 99
Ġcontra ste
Ġalcohol isme
Ġtrain ingen
ĠIC H
ral azine
Ġhele maal
Ġden ibril
ĠOb serv
Ġevol u
Ġelectrocardi ografie
Ġlum bale
Ġradio actieve
Ġextrem iteit
Ġhyb ride
Ġsubopt imaal
Ġovarium syndroom
ĠSympt omen
Ġbeantwoor d
eper centage
Ġaero bic
Ġvernie tiging
ĠHAA RT
M L
v ijf
Ġde ed
et st
Ġh uwelijk
Ġb up
el o
re vascularisatie
Ġz on
ic o
Ġvoor arm
un nel
val sartan
Ġdat as
im ulatie
ĠS O
Ġper im
ĠM HC
ast atine
ĠW KY
Ġnorm en
Ġsch ommelingen
Ġvast end
Ġges c
Ġbinnen ste
stoor nis
ĠgeÃ¯n hale
17 4
Ġprakt isch
ĠGe wicht
PatiÃ«nt naam
Ġresul teerden
clu der
ĠIntern et
overd raagbare
stabil isatie
Ġniers lagader
Ġclau dicatie
Ġwerkple k
Ġbewon ers
I diopathische
c ycl
Ġde press
on yl
Ġt wintig
Ġk op
id ale
if entanil
ole s
ĠO ff
Ġ19 76
Ġdis order
met alloproteÃ¯n
Ġtrans form
ari atrische
Ġtra cer
Ġvet arme
my opathie
Ġcalcium antagonist
Ġstroom snelheid
Ġfosf atid
Ġglyc olyse
amin o
Ġgel dt
Ġchrom atografie
Ġcontro ler
Ġvertegenwoordig den
Ġapothe kers
Ġocc ulte
G er
S AP
Ġh ers
Ġh onderd
Ġop volgings
Ġst resse
Ġonder ge
Ġf ab
ant it
ĠS inustachycardie
ĠV SD
ĠV VI
ĠV PB
ĠD F
ĠL AV
sm atige
Ġuitge schakel
Ġact u
kom ingen
Ġonge daan
yl cyclase
Ġgesch onken
Ġ17 2
olec ulaire
oxid ant
Ġkonijn harten
Ġreferentie groep
prote ctieve
Ġcontrast middel
Ġtekort komingen
toe passingen
Ġeffectiever e
Ġknock out
Ġvoedingss upplementen
ĠEvent s
cir rose
e ch
i val
s ite
Ġv ing
Ġm A
st uk
Ġp up
Ġin dustrie
le kt
Ġn iacine
ol it
se con
Ġl ib
os ure
ag liflozine
lo ssen
ĠIn s
pro port
Ġprim air
unct uur
14 6
Ġgun ste
gro ot
Ġsh ort
Ġfys iek
Ġlichaams oppervlakte
aut on
Ġneurolog isch
for ceerde
schat te
Ġendotheel cellen
Ġventil ator
zijd s
Ġneurode generatieve
Ġfron tale
Ġkring loop
Ġ \"
Ġver men
aar se
oc us
se d
Ġhart sarc
ĠA HA
ze ven
Ġhe avy
Ġer ger
ĠS ter
ĠV I
Ġbloed volume
iden ce
em issie
Ġsu perf
Ġro t
stol ling
Ġatrium elektrogram
min uut
ĠF RS
Ġdi urese
Ġnier vervangende
Ġan aly
Ġoorzaak specifieke
40 3
Ġco Ã¶r
Ġconcentratie afhankelijke
AA A
lar ingen
fosf okinase
Ġgecon juge
Ġtric yclische
Ġexp lante
Ġhormoon therapie
Ġstre pt
isol atie
Ġprot on
Ġthorax foto
Ġerg on
ii i
Ġput atieve
Ġdw ars
slagslag slagslag
suc ces
letten d
Ġmobil isatie
knock out
% :
D iet
I N
er at
Ġv entr
Ġc il
te korten
oc entese
ĠA ziÃ«
Ġdeel nemende
est am
Ġvet inname
comp ati
Ġduur zame
Ġzelf standig
Ġgezondheids onderzoek
ha gen
Ġstand aar
Ġfarmac ologie
Ġmagn et
Ġkin etische
Ġko ud
lim iet
gek opp
Ġvloe istoffen
aandoen ingen
Ġplaatsv inden
Ġbegele id
bas eerd
medic ijn
Ġgeaccep teerde
Ġrechterkam erkamer
Ġpartic uliere
He art
Ġafweer systeem
otent iÃ«le
Ġherk omst
Ġzuige ling
Der tig
Ġongewijz igd
E PI
Ġk wij
Ġst ere
ter mijn
Ġhe alth
bet alol
ĠL ifestyle
Ġcontrole harten
Ġventrikel septum
Ġep t
res olutie
Ġlang werkende
Ġlinkerventrikel s
Ġplasm arenine
ĠVer loop
orph ine
Ġcons istentie
Ġherzien ings
04 6
scop ische
asp irine
kam ers
clu ded
plaatj etherapie
ĠVoort durende
Ġontst ond
Ġlys osomale
Ġtegenstrij dig
ĠVas o
Ġzu iden
Ġstreef waarde
Ġunif orm
Ġsulf aat
uro x
strom ing
Ġmanoeuv res
Ġwijdverspre ide
ĠAborig inal
Ġcolleg a
Ġaanvaar de
f olaat
o artritis
Ġv WF
di ol
Ġn oor
oc al
Ġre ken
ĠDe mografische
od gkin
be ste
ier elatie
con gestie
Ġziekte verwek
10 3
open hagen
Ġtechn ologische
Ġwerkzaam heids
kin as
Ġfen ofibraat
Ġmut anten
ĠPro spective
dens iteits
ĠJap ans
Ġomk eren
PT H
Ġsn ur
ĠIg A
Ġhepat ocyten
rat atie
Ġinit iatie
Ġinn er
Ġbacter iÃ«n
Ġverspre ide
Ġstol ling
Ġwaarschuw ing
Ġcolorect ale
Ġdoc osahex
ĠtransiÃ«n te
N SVT
a vel
h oe
l iss
s inus
Ã ¡
Ġ &
de sign
Ġe isen
re flow
Ġge grade
Ġvoor stel
art h
sp el
ff ectieve
ĠS yndroom
ĠS creening
iv ity
of ylline
ĠR os
Ġvergelijk t
ĠF urosemide
Ġno ten
Ġlinkerventrikel systolische
19 98
ĠSt ate
ob serv
ĠAV RT
Ġkort ste
kanaal s
Ġzwak heid
Ġhypog onad
Ġtek orten
Ġkleur ing
ĠLog istische
iop rine
arbe iders
Ġcoun seling
Ġosc ill
Ġslap eloosheid
Ġbloeduit st
Ġvolg den
F C
O N
n or
de c
Ġw achten
Ġp A
Ġbe zochten
Ġon verzadigde
Ġte a
ĠA ST
Ġcardi omyomy
os yndroom
Ġpro thetische
aan vallen
ĠN A
Ġinter essante
In dividuen
sten en
Ġnier schade
11 6
Ġaort ar
ST Z
Ġtechn ologieÃ«n
03 4
04 5
28 2
Ġslaap duur
oxid anten
200 9
Ġkool stof
Ġintern ationaal
Ġrechterkamer cardiomyopathie
Ġdrempel s
indic eerd
apo B
ĠQu ality
Ġmar kt
Zeeland se
init iatie
Ġgerepar eerd
Ġtoegan kelijk
gediagnostic eerde
S K
a ang
v ices
Ġv oeden
Ġw et
Ġt an
Ġt rekken
Ġa Ã«ro
Ġs ig
Ġ2 16
ath ioprine
ĠM CE
ĠT ha
ĠL QT
Ġbehandeling speriode
Ġgen etica
Ġkran ische
ocardiocardi ocardi
Ġbeh avi
rek te
ĠK a
Ġspec kle
Ġbepaal den
Ġcalc ine
Ġperfusie defect
spiegel ing
Ġcol itis
Ġtri metazidine
Ġret entie
Ġvasodilat atoren
HS P
Ġtele metrische
SC ORE
Ġmultifactor ieel
Ġondervraag d
Ġprolifer atieve
acks c
gebre ide
Ġuitgeschakel d
R yR
V L
i del
o yl
v roege
w ogen
Ġde mon
ge p
is eringen
it ant
Ġn icardipine
om ica
om ateuze
Ġonder huid
ĠE H
ĠP olen
ander en
ast rische
ĠIn t
af geleide
sy stole
ĠK linische
Ġlong chain
Ġpreventie strategieÃ«n
15 5
13 7
rec ept
Ġtij de
inen ucle
Ġdiabetische cardiomyopathie
iss on
Ġapopt osis
Ġoest ro
uc oom
adem isch
IA BP
Ġamylo Ã¯dose
Ġimmunos orb
Ġvl ie
Ġmilieu factoren
Ġhomozyg oten
My BP
Ġongecomplic eerd
Ġbestr ijding
ĠControl led
Sub jecten
tsub ocardiomyopathie
ĠMK Z
gelab elde
Ġmaandelijk se
galact osidase
L aag
ge modific
on in
Ġb ol
el in
Ġa ids
Ġk opieÃ«n
Ġf eedback
ter esultaten
-- -
ĠM P
erf unctie
ĠN or
ĠN oonan
Ġaf spiegeling
wij zen
ox ie
dig ingen
sy mpathische
Ġdrie voudig
ĠK ent
CA S
erg lykemie
11 9
Ġse ssie
Ġ28 0
elt jes
itu aties
oplast ic
Ġontslag instructies
usc ultatie
Ġspi raal
Ġballon pomp
Ġaortaklep insufficiÃ«ntie
CL S
los bare
Ġextre em
Ġthorac otomy
stent ing
Ġstabil iseren
Ġrecombin ante
Ġpredis positie
Ġtel omeren
ĠGra ves
arbe id
Ã«x istentie
Ġuitgeno digd
Ġept ifibatide
c k
v iv
st aat
di b
Ġs urve
as yndroom
Ġaan geboden
ers on
Ġle g
ff e
ĠS CAD
ĠT H
rij ze
up gegevens
Ġdis tensie
Ġmon ob
Ġmult in
Ġverwij st
vers laving
Ġand rogeen
Ġomge vingen
Ġcel therapie
Ġobstructieve cardiomyopathie
eff lux
stre am
201 1
dy ssynchronie
Ġhemat opo
Ġthyro xine
Ġtranscriptie factor
Ġeos inofilie
Ġhyd rop
ĠAM MA
Ġgelu ids
Ġeerstehulp dienst
ĠDer tig
ĠCre atinine
Ġaantrek kelijk
transm it
Ġtoepas baarheid
Ġpolyfen olen
R H
S le
d b
p artum
t ag
in tra
in stelling
re act
Ġge deeld
Ġk eren
Ġon bel
Ġsy stolic
ĠT ype
ac ing
Ġres iduen
Ġtwee voudig
ind opril
ĠWe sterse
ute d
Ġonge vallen
str atie
Ġet iket
ĠCh lamydia
Ġpiek snelheid
Ġrat model
TT R
Ġclass ificeren
Ġdra stisch
verb lijf
Ġoverlevings kan
Ġsem ik
coÃ«ff icient
Ġplatteland s
Ang iotensine
Ġol ie
Ox idatieve
Gen etische
ĠKauk asische
oqu ine
illan ce
Ġwijdverbre ide
estam ibi
2 10
i alen
y d
er ger
Ġm uc
Ġb ur
Ġb ran
Ġd p
Ġt irofiban
ro de
Ġs omat
Ġc GMP
Ġn ot
Ġl ife
Ġre delijke
ĠA mp
val ente
ĠS K
ĠB ru
Ġbloed afname
ion s
Ġsterf elijkheid
ept idase
Ġim pro
Ġverb indt
lok ale
Ġrec ords
ob alt
norm aliteiten
opt ose
Ġkwant ific
Ġste delijk
uret h
def iciÃ«nte
leg gen
ĠÃ ª
ĠReg ionale
Ob structieve
Ġgedetaille erd
ĠVier entwintig
ĠCM V
ĠPo isson
Ġfenotyp ische
binden d
verzorg ing
Ġgemod uleerd
omegal ovirus
F F
V LDL
V itamine
r ele
v roeg
Ġp yro
Ġt elling
it ut
te mp
ic on
Ġbe se
00 001
Ġgem et
Ġhyp oth
Ġper iv
ĠM agn
ĠT ask
Ġpre syncope
Ġla den
herap y
ĠF unct
Ġintra operatief
Ġ20 5
met a
Ġtrans dermale
Ġveel voor
Ġmodel leren
Ġad apt
Ġstim ulator
Ġri chtsno
(((((((( ((
woor d
Ġrel ax
Ġcol le
stij len
Ġvaso actieve
Ġneut ropen
Ġform ologie
adrenoc eptorblok
Ġcardiomy ocyte
voorsp el
Ġonop vallend
Ġtumornecrose factor
ĠIntra veneuze
Ġmyof ibil
Ġbla as
ĠProp ort
ĠimmuundeficiÃ«ntie virus
Ġneovasc ular
Ġparenter ale
liothe ek
1 95
en ergy
is erend
Ġo lijfolie
ot er
Ġonder gingen
ĠH igh
Ġcon form
lo ot
Ġaf leidingen
ip oride
Ġvol gde
ĠW il
Ġher ken
Ġtra ject
Ġ17 6
RT O
ĠDaar entegen
Ġcol i
metab ol
Ġfor ce
kle ur
ĠHT x
Ġ((((((((( ((((
orig ine
ĠgeÃ¯nform eerde
ococ cus
Ġgedifferentie erde
UV EC
Ġgepost uleerd
Ġhyst erectomie
comprom it
N M
V ijftien
k ra
m orbiditeit
r p
in hib
st ische
st ilstand
Ġb acksc
Ġp aden
ri en
ĠH B
ĠH sp
ter men
Ġna vig
os kelet
ĠB ep
vol t
we kken
Ġbel ofte
Ġch irurgen
Ġwe in
Ġ19 5
ĠF S
Ġverw achten
Ġborst voeding
Ġplasm am
Ġru ptuur
Ġor ig
Ġgezondheids diensten
Ġthe ofylline
Ġneuro humorale
AV I
Ġbloeden d
Ġscha kel
Ġrat es
Tran s
Ġstatine gebruik
Ġneut rale
IC H
Ġexp iratoire
Ġcardiomy opatische
Ġscintigra fisch
Ġdel irium
Ġnacht elijk
Ġmot ion
Ġide aal
Ġsens ibil
ĠPar kinson
receptorblok ker
cyt ometry
Ġasc orb
Ex perim
Ġinterfer on
W HO
l ife
z oline
in ele
ie pen
re ction
Ġge voerd
gen expressie
am es
ĠI dentific
ĠP B
lo on
ĠR E
waar dig
Ġsub cutaan
Ġdi alys
ĠK ATP
Ġvert aling
Ġwerk druk
antie le
kw ant
ĠCan cer
Ġkool monoxide
ĠVol g
Ġleveren zymen
Ġclu sters
Ġdisfunct ion
Ġconserv atief
Ġcorrect e
Ġfiltratie percentage
Inter ventie
Ġsten oses
Ġerythemat odes
domy olyse
Ġstero Ã¯de
Ġautomat isering
Ġplate au
Ġfruct ose
Ġongrijp baar
C x
H olter
c ommun
r h
in ase
Ġp t
Ġp ed
Ġa mb
ra den
ra dic
Ġhart markers
ĠA GE
Ġuit wisseling
ĠB ax
ĠD ieren
ac ten
Ġwe kken
ĠW h
ĠW aar
zen uwen
ane se
mo bil
Ġtromb in
19 2
Ġweefsel plasminogen
04 3
Ġernstig ste
bi qu
Ġorgan isme
ĠAc uut
verza digd
Ġisol eren
ĠPub med
don or
ĠPh ys
prop ion
Ġvoorbere iding
asse mie
oglyc an
ĠHP LC
ĠIm aging
Ġtevreden heid
Ġist mus
P GF
b innen
d p
i oen
p ool
v elen
an aly
at t
at rogene
ar one
re x
Ġver re
Ġk ost
erd am
ĠE jectiefractie
Ġhyp ocalciÃ«mie
Ġover geplaatst
ĠIn dien
ok okken
we d
ip ro
Ġex tension
ks h
ĠK v
Ġverw ante
Ġbi opro
Ġmit ogen
Ġgezondheids voordelen
Ġgezondheid seffecten
au se
Ġelektro gram
04 8
oef end
Ġverd acht
Ġrust tijd
slagader s
Ġcontrol led
Ġpresen teert
ĠMedic ine
Ġglomer ulaire
Ġgener aties
aden osine
Ġcir rotische
fil ter
Ġcell ulair
minder ing
Ġuter us
Ġafgeb ouwd
Ġsubcla viane
Ġuitput ting
G R
L ong
S MI
W HR
W anneer
y osine
Ġd istens
Ġge forceerde
Ġc atheterisatie
Ġbe houdt
Ġst elden
Ġhart onderzoek
ru is
yp ro
ĠE PI
ff ing
ose d
ĠT UNEL
ĠL os
her ent
ĠR OR
ĠR BBB
Ġinter kwartiel
sy mb
Ġverb re
Ġbev onden
Ġap p
ger y
Ġinterventie onderzoeken
och emische
Ġzuur stoft
inu x
golf amplitude
Ġ27 0
ĠGe dilateerde
Ġhypox ia
200 7
out put
sor pt
Ġijzer stapeling
Ġph en
ĠVS MC
Ġsnelheids druk
fac e
rolog ie
databan ken
circuit s
Men sen
Ġav ond
Ġoverlapp ende
ĠgeÃ¯ndividu aliseerde
ĠFeder ation
Ġtranst hyret
Ġgar anderen
Ġtam oxifen
( +
E LISA
K T
k linieken
l aten
t hy
y dro
ar son
st alige
Ġp pm
Ġn est
ine d
ep idemie
Ġj e
Ġac ademische
con f
Ġ19 75
Ġ19 78
Ġsch ol
ĠF PG
hy se
tran script
wit ch
Ġbi osynthese
Ġonge lu
Ġ201 8
Ġgra ft
Ġlo zingen
18 7
Ġgest imuleerde
ĠOp t
03 2
man ente
kw ab
Ġaltern atieven
Ġverla agt
Ġqu a
Ġontbre kende
Ġgenoe mde
zo dia
Ġsupp lement
Ġexc isie
Ġproport ies
Ġsuperoxide dismutase
drempel s
Ġenter ovirus
................................................................ ................................................................
gan gen
Ep idemi
ĠKC N
ycardycardycardycard ycardycardycardycard
integ ratie
endoc rine
ĠÌ Ħ
delet ie
apar inux
b io
t elijk
Ġde den
et a
Ġm elatonine
Ġt oler
ro blasten
Ġge glycos
Ġc ost
Ġst elde
ĠC SA
ĠA rab
Ġhe x
Ġpro fielen
Ġper oxide
ĠV asc
ĠD y
Ġhyper activiteit
Ġhyper ventilatie
sm arkers
ach ine
me el
per atuur
Â± ,
Ġpijn loze
Ġbinnen komst
03 6
Ġrem ifentanil
tes hock
ĠCV B
sec retie
Ġhuid uitslag
Ġcolla ps
Ġtriglyceride concentraties
Ġglomer ul
Ġarteri ografisch
Ġgoedgekeur de
Ġdex medetomidine
Ġtijds intervallen
Ġuiter st
ĠDer gelijke
Ġdivers iteit
lact aat
w is
w ust
en gd
ol l
ent ile
Ġaan gem
Ġst ra
am nese
ĠC alc
ter ings
ĠE CV
ff usie
Ġgem engd
be scha
Ġsp el
iÃ« r
ĠST Z
Ġsamen levingen
Ġ16 6
och e
Ġ17 3
Ġlevens omstandigheden
14 4
Ġint ron
Ġverst rekking
Ġder iv
Ġblijven d
Ġnet werken
use a
Amerik anen
ĠPer cutane
Ġverschijn sel
ĠInstitute s
Ġbrand bare
Ġeerstel ijns
uz umab
entrik ulaire
Insul in
N CEP
k arakter
Ġb ast
Ġge oogst
Ġk eerde
Ġ2 25
ĠC entral
il lip
ĠH GF
ĠT horac
ab laties
ĠV III
Ġont koppeling
Ġsp ij
Ġch olester
Ġ19 66
ĠF as
Ġbasis waarden
Ġziekenhuis dag
est radiol
Ġverw oest
ĠCh ar
Ġar men
Ġalcohol misbruik
Ġco Ã«xistentie
03 7
23 5
Ġbeeldvorming stechnieken
indic es
Ġendotheel functie
ĠEngel s
eind producten
Laboratorium bevindingen
Ġcardiomet ab
Ġadolesc ente
Ġobservatie periode
Ġthyrot oxicose
oestro genen
Ġbevr oren
Ġmacrof age
% ])
O udere
R OC
X a
c riterium
de positie
or ex
el uterende
Ġs irolimus
Ġc odon
ol idine
id o
ig o
ep ro
ze d
ste matische
Ġna usea
ĠB orst
Ġch oline
Ġro s
dig it
pro t
ĠG DM
ĠK atheter
ute erde
Ġatheroscler otisch
Ġ16 9
fer ent
ĠVer gelijk
ĠCh ild
Ġaanbe velen
Ġven o
ulmon ary
ĠAan houdende
Ġsympath isch
Ġgehalte s
Ġbron chiale
Ġnef ro
Ġrapport age
angio gene
Ġovereenkomst en
Ġrespon spercentage
Ġplaatsv ond
ĠTak otsubo
Ġrechterk ant
Ġ-(((((( ()
apopt otische
Ġgangl ia
Ġpredi ction
Ġmediast inum
Ġpredispon erende
Ġcrypt ogene
Ġspij sver
G B
U N
s otalol
x is
z ak
di r
Ġvoor gelegd
Ġst ate
Ġg ap
ĠD an
ĠD ag
Ġvol bloed
ĠR OC
Ġmen g
Ġvet zu
stof wisseling
Ġ17 4
Ġ17 9
Er nstige
vl ie
az ep
04 7
waarde tijd
Ġopge offerd
Ġbundel blok
ĠAf ro
Ġag greg
Ġkool dioxide
ĠMon itoren
ĠIS O
ĠLip iden
Ġrisicom arker
ĠHispan ic
adj usted
Ġvereenvoudig de
G C
T GF
l ijden
r assend
v re
Ġm atch
st art
Ġb ig
Ġb ruik
it onale
Ġvoor kant
Ġop lossen
ot ic
ot erol
ri kan
am a
Ġre validatie
ss chema
ver werking
han s
Ġwor k
ĠP AC
ĠB a
Ġpro spective
Ġover grote
ĠL ab
tie len
Ġventrikel dilatatie
Ġtegen gestelde
Ġlever cirrose
Ġgev entile
Ġleiden d
Ġaange ven
Ġvoeding spatroon
Ġdif ferentie
Ġx en
bra dycardie
ĠAng iotensine
Ġform ulering
Ġoverlevings voordeel
Ġlymf oom
Ġanest hetische
Ġcontro vers
ĠCo Q
ĠLan ge
Ġendoc rin
ĠNSTE ACS
ĠAcht tien
Ġactiviteits beperkingen
Ġbez ig
contract iliteit
Ġvertro uwen
ĠmetalloproteÃ¯n ase
Ġvoorwaar delijke
Ġgerecon strueerd
Nieuw e
Ġvoorl oper
Ġalve olaire
sorpt i
K inderen
T romb
f l
Ġv irussen
ge acht
le vel
Ġver erger
di ent
aar mate
Ġbe weeg
ĠC CR
Ġuit houdings
ĠP l
ĠS il
ĠB TW
Ġaf wissel
ost atine
ron ine
ond aparinux
Ġart h
Ġher opname
ĠK en
10 9
12 9
Ġkla agde
13 1
Ġwand spanning
ĠAlle en
Ġvertra agt
ĠDCM P
ĠAan bevelingen
igen d
ou rier
Ġpoly neuropathie
Ġmemb ra
Ġverdov ings
blin de
ĠUn ieke
Ġgezicht s
Ġprotromb ine
Ġstem mings
vle kken
Ġaantrek kelijke
Radi of
Ġgeoptim aliseerd
wor ld
Ġadenos inetrifosfaat
Ġpolysomn ografie
Ġgefiltre erde
A ut
H ST
b ank
r ate
at tract
ar iteit
is opro
Ġp ul
Ġt anden
Ġo oit
ro fische
Ġa deren
Ġc IMT
Ġc oxsackie
am i
am o
Ġf ailure
men ted
ĠT dP
ĠL R
ĠO A
Ġla ding
icht lijnen
Ġverander ende
Ġ18 5
Ġborst foto
Ġan is
kan did
Ġratten model
ĠDaar na
ĠMet a
ly mp
sol uut
Ġreferentie waarden
ĠID F
Ġanal oge
Ġinit ieren
Ġtwe elingen
ĠEndothel iale
erdy nam
Behandel end
Ġinnov atieve
ĠNoor wegen
scrip tie
Ġstandaar dtherapie
iÃ«r arch
O ct
c ale
v isie
Ġde compensatie
ch icine
Ġp Ã¢
Ġc ombine
am s
se ssie
Ġf ulmin
sch ok
sch eid
ĠA NOVA
ho of
ĠB RS
Ġrisico voorspellingen
ĠT AVR
ab solute
ip ramine
ind ol
ĠG elijktijdige
nst ig
AD MA
Ġdeel nemer
CA P
Ġ18 2
wijz ings
Ġlevens red
Ġgec ode
Ġvoedings factoren
Ġstop zetten
chron iseringstherapie
Ġtemp erat
Ġgeboor ten
enn egentig
ĠPA H
stri ctie
Ġgeleidings afwijkingen
out h
rimin atie
Con clusie
Ġneutrofie le
clu deerd
Ġdep osit
Ġdisfunct ioneel
ĠExperim entele
Ã¶r dine
Ġbeantwoor den
Ġchlor ide
ĠCG RP
Ġbifurc atie
onderste unde
E ind
E PA
I B
K linisch
V ieren
k it
l icht
n s
v aart
x p
ar ing
Ġm eg
Ġw oede
Ġin put
di aal
Ã« mie
Ġop wekken
Ġre cess
Ġonder ling
Ġ2 12
ver de
ĠA ICD
ocardi ografisch
per igheid
oten tieel
Ġbi of
Ġ17 1
15 4
ax el
Ġcholesterol spiegel
Ġactivatie tijd
Ġeiwit concentraties
Ġneuro gene
ĠAf gezien
activ ity
cardiocardi ogram
Ġoverleef d
Ġred den
Ġsulf onylu
ĠMexic o
Ġprednis olon
AAAA AAAA
Ġhapl otype
Ġplu rip
etrofos mine
ĠTem peratuur
Ġfrag menten
Ġcontroler atten
aang et
Ġbast aard
a dip
de pen
Ġp or
Ġn ÃĤ
Ġhart s
ig heden
ĠC AS
us land
ĠP MI
ĠS W
ĠB W
Ġgem an
ĠM n
ĠV eertig
Ġbloed groep
gra diÃ«nten
Ġdis cre
Ġziekenhuis patiÃ«nten
Ġmicro array
10 7
Ġtra ag
Ġonge zonde
Ġgezondheids bevorderende
BP M
cy ste
sub groepen
Ġafgele gen
bra chial
atechola min
Ġqu erc
Ġtak o
ĠTe chn
Ġgevestig d
Ġdonor harten
Ġloopband oefeningen
methy lering
Ġextracorp orele
Ġpostm ortem
ĠEt niciteit
Ġisovolum ische
splaat sen
Ġsarcole male
Ġposter oseptale
Ġerythemat osus
Ġgehoor verlies
Ġbedre iging
Ġ>/ =
yru vaat
Ġtrem or
obser ver
Ġbese f
A CT
E t
an agement
ar ge
ge mene
st uzumab
Ġon voorspel
ter ine
ap paratuur
ĠP it
ĠP atient
ĠS GA
ĠT or
Ġmy ocy
ĠV al
ĠD irect
iden d
ort a
ox in
inf ase
Ġcontrole waarden
are se
Ġ19 72
rop olit
Ġra b
ĠK linisch
arm onische
Ġterug val
ĠCh i
inu cle
Ġbenader d
PS C
Ġlucht ballon
Ġbehandelings wijze
Ġgepresen teerde
Ġhuis houden
Ġzod ra
Ġonthul d
toe voer
pla ce
ĠEngel se
homocyste Ã¯ne
Ġure um
Ġwak ker
Ġmat he
ĠEb stein
ĠMay o
Ġmeng sel
B as
on air
Ġen z
Ġk ol
Ġaan brengen
ot rop
ig uratie
Ġ2 17
ĠI QR
ĠH U
Ġwaar nemers
Ġj odium
ap pen
Ġpro mot
Ġhyp om
ĠM ale
ab e
Ġbloed gas
Ġversch ijnen
ĠR est
Ġro kende
Ġex pression
ĠF D
ĠF DA
AD E
Ġmon ok
Ġmult ivar
Ġtromb ocyten
ek ort
ore activiteit
Ġ17 8
Ġlevens jaar
II b
rin kers
ola ir
Ġcel proliferatie
oplast ische
Ġaden yl
Ġval vul
ĠMe dt
Ġverl iezen
Ġreferentie lijsten
Ġendothelium afhankelijke
syn aptische
Ġgevaar lijke
lichaam smassa
ĠMed ische
benader ingen
Ġdep letie
ĠGep lande
baten analyse
itude s
ĠNort h
Ġembol isatie
K L
P EF
R FA
g assen
Ġv iru
Ġd rank
le m
le ent
ic ard
ot oxine
Ġf entolamine
il it
ĠI B
es erve
ĠP lan
ĠP OD
Ġover gevoeligheid
ov agale
men s
Ġont m
we gende
Ġinter cellulair
Ġreg istr
ĠLV MI
Ġ20 21
zoe kers
Ġinciden ten
ĠU PH
dra aid
19 95
14 1
Ġgeh aald
Ġkanker patiÃ«nten
ĠCA G
Ġbehandelings opties
Ġzeven de
oxid atie
Ġnatrium nitroprusside
amin otransferase
Ġevent ueel
ĠCC U
Ġcult urele
Ġverg ader
induc eerbaarheid
ĠBrazil iaanse
Ġatherot rombose
Ġrobu ust
"""""""""""""""" """"""""""""""""
zep am
Ġperfus aat
Ġvijan digheid
2 20
8 00
I s
L ang
L PS
y ocardiale
Ġde kking
Ġin ademing
Ġs lijm
Ġz aken
ot in
Ġr onde
Ġal anine
ĠD PP
Ġsch ede
arm an
Ġdruk overbelasting
14 8
Ġgec lass
Ġnauw lettend
24 3
Ġverst oren
Ġherzien e
04 9
Ġimmun ob
CP VT
Ġimmuun reacties
Ġflu id
Ġflu vastatine
Ġmoeilijk er
Ġvasodilat erende
Ġcort icale
aden os
Ġup regulation
loc us
Ġdyst rofie
Ġfil ter
ĠLog istieke
Ġprincip e
Ġverfijn de
Ġoverlapp ing
Ġeosino fiele
Ġeicos apentaeenzuur
Ġrevers ibiliteit
olidine di
+ .
t it
t ise
en zuur
ch est
Ġt ol
Ġs aline
Ġc ijfers
Ġvoor bij
Ġst ro
Ġg rijze
Ġu biqu
ap s
ĠP ompe
Ġgem odel
her in
Ġman uele
Ġant id
Ġventrikel complexen
waar tse
Ġkw ad
Ġsc aven
res onantie
Ġ20 4
Ġlever ziekten
Ġveel gebruik
14 3
mi R
Ġoefening stest
Ġasp iratie
ool se
Ġkatheter isering
Ġwaarschijnlijk er
Ġaden ov
ED V
Ġgeleidings vertraging
Ġoste oartritis
Ġkalium kanalen
Ġrook ten
Me dic
ĠVol ledige
hyro xine
Ġmultip el
Ġstrom ings
ound ation
Ġpub liek
ĠMT WA
-------------------------------------------------------------------------------------------------------------------------------- --------------------------------
leven de
Laboratorium resultaten
Ġmethyl prednisolon
Ġmodific aties
Ġnavel ader
Ġmicros feren
vloeistof chromatografie
Ġsignaalroute s
seen heid
Ġprognost isch
ĠNet work
% ],
C r
G SH
I MA
K K
g ran
in stroom
at ortherapie
Ġb o
Ġd up
ĠpatiÃ«nten zorg
Ġst u
Ġf mol
ĠE arly
ĠV and
Ġcontrole honden
Ġventrikel hulpmiddelen
Ġ25 6
Ġneg entig
Ġvroeg ere
Ġ17 7
Ġdruk ken
dil ution
gang l
AT AT
ĠAV F
Ġgest aakt
Ġopen en
metho xy
Ġsignaal vorming
Ġonderdruk kende
CC U
ĠAng ina
Ġorgan ismen
omeg a
Ġimplant eren
Ġbesmet telijke
Ġcell s
tet ra
Ġmanifeste erde
Ġextrastim ulus
Ġpredis p
ĠNeg atief
Ġdeskun dige
Ġmultidisciplin air
Ġexpress ieniveaus
Ġangiotens in
Ġgoud standaard
Ġsnur ken
F U
L QTS
t ar
v raag
w k
w eten
Ġin vasief
la m
id a
oe der
Ġhart resultaten
Ġhart wand
Ġg ering
ur onium
ĠA mbul
ik te
ĠI T
os ering
ĠM ann
Ġdia st
Ġdia frag
Ġstudie groepen
ĠO udere
Ġant if
Ġbel ast
ien iveau
ĠW ales
Ġinf ra
rie p
Ġser ologische
Ġpac e
14 7
diagn oses
to om
diabet isch
Ġgenen overdracht
AS P
Ġmedi atoren
MD CT
Ġvaso active
Ġcontract uur
Ġgeschikt heid
Ġapolip oprotein
ransp ort
Ġdrin k
ĠGro tere
Ġup date
Ġhartherstel programma
Ġadj uvante
Ġvisu aliseren
Ġeth ische
Ġineff iciÃ«nt
Ġpleura vocht
Ġopio Ã¯den
Ġintracereb rale
Ã¼ m
Ġgeblin deerde
istol ling
ival is
Ġcontrovers iÃ«le
T er
b rug
h oc
o elen
r rigeerde
an z
et echn
Ġin schrijven
gen te
op io
Ġre fractie
Ġre flux
ĠI H
ap e
and ro
Ġpro aritmica
Ġla betalol
Ġcoronaire stenose
Ġpla k
ĠF oundation
Ġsub studie
Ġlinkerventrikel wand
Ġrec idiverende
vorm ig
ha im
Ġcyt omegalovirus
ndro me
oscop ic
Ġhist opathologische
Ġgedilateerde cardiomyopathie
stro men
lav onen
ript yline
Ġwarm teshock
Ġsuggest ie
cur onium
Ġoversch r
prepre prepre
opyopyopyopy opyopyopyopy
Ġaortast ijfheid
Ġoverlijdensak tes
Ġarch itectuur
benzyl guanidine
Ġvetzu urox
B MD
T horaxfoto
c ulprit
j un
m aar
n ers
Ġb indingen
el y
Ġo v
Ġver lamming
Ġc as
op leiding
ver lichting
Ġr al
han cement
ĠE lektro
ab lation
af stoting
ings fractie
Ġmeer voudig
rom bectomie
Ġend omyocardiale
Ġpost isch
rim aire
Ġverw er
Ġverw ard
ĠST AT
Ġ18 1
Ġablatie katheter
Ġbloedplaatjes remming
Ġidiopathische cardiomyopathie
ĠCox sackie
angi opathie
lif eratieve
rac il
hel dering
Ġnit riet
lab or
Ġmatrix metalloproteÃ¯n
ĠamyloÃ¯de se
Ġprov ocatie
ĠApo B
mis artan
My ocardiale
ĠGem een
ĠSH BG
Ġmultivari ale
agnes iÃ«mie
Ġgeconstat eerd
Ġneutropen ie
bescha diging
2 23
e arman
Ġv irt
ij zer
re chtse
der eg
di ameters
la ad
te Ã¯nen
op a
Ġ2 18
sch oenen
Ġ0 4
Ġhyp erdynam
ĠT RP
Ġverm ijd
Ġpre m
ĠO c
ect omy
Ġant woord
ĠG DF
itie f
inter actie
Ġlong klep
pass age
ĠOm ega
Ġdu ctus
Ġmyocardi ogram
Ġspier biopsie
ĠIV G
Ġadip ocyt
abil ity
Ġsoc io
Ġrep licatie
Ġmot ivatie
Ġdik ke
card ische
Ġtrig g
Ġsuperior iteit
Ġmonomorph ic
binden de
Ġmanoeuv re
Ġwak kere
Ġtoeval lige
Ġfer ritine
patho genese
Ġepis od
Elektro cardiogram
Ġsinuss yndroom
Ġye ars
Ġrece iver
ĠSpi ronolacton
Ġhydrop s
E B
T g
v oed
in ing
Ġm er
or vastatine
Ġb ariatrische
Ġp lex
Ġmet aal
as h
Ġon gelijk
Ġst omp
Ġf lus
ik ken
Ġuit barst
ut aties
ĠD oel
Ġont houding
ĠN G
Ġman ch
assoc iated
Ġleeftijd sspecifieke
Ġventrikel e
rom y
ĠF ourier
AD IT
Ġdi uret
05 0
ositie f
ger apporteerde
Ġaort ab
13 8
Ġgek arakter
Ġcirc ulatoire
diabet ici
PS VT
Ġglyc os
Ġwel k
cholesterole mie
Ġmod uleert
Ġradiofrequentie stroom
adrenerg ic
Ġultras oon
Ġintram usc
ĠEp icardiale
Ġveronder stelling
Ġsur vival
Ġoppervlak kige
Ġstem ming
Ġgeop end
Ġomgevings factoren
heren te
versch uiving
Ġdiagnoset ests
methylglut aryl
rex aat
Ġdiscre p
ĠMedt ronic
S G
f asc
f armacologische
st ijfheid
Ġp ad
re entrant
ic illine
ss creening
ve diol
ine mie
ep i
ula e
Ġom stander
os itis
ard ing
Ġcor e
ier atio
ĠR andom
Ġventrikel herstel
Ġventrikel dysplasie
Ġ19 4
Ġhem ofilie
Ġoverle g
Ġ18 3
Ġgezondheids studie
16 3
fic iency
Ġinst itut
ĠPro ject
Ġlaboratorium onderzoeken
pac e
Ġbele diging
hem odynamica
Ġinterpret eren
Ġperip artum
ĠCent rum
Ġstratific eren
ĠProgram me
Ġgender verschillen
Ġgoedk ope
Ġurem ia
Ġmenstru ele
Ġros iglitazon
Ġbastaard honden
Ġgeclass ificeerd
E L
o attract
v aten
Ġ ik
in sen
ie m
Ġh iÃ«rarch
Ġk am
Ġon behandeld
Ġop gericht
ot rexaat
ĠC CC
ĠE M
os ie
entr ische
ific aties
ĠV erg
ĠL aag
ĠN CD
Ġac on
Ġvaat verwijding
Ġvaat weerstand
rom ycine
In f
ane urysm
amen te
Ġbloeddruk controle
Ġ20 8
Ġ18 4
Ġ18 7
clusie f
Ġweefsel factor
emb ol
II a
17 7
Ġdys k
PA H
Ġsupra ventrikel
Ġpiek oefeningen
Ġmoeilijk heden
Dia betische
Ã¯de Ã¯de
CO X
Ġgast heer
Ġnef rectomie
Ġinot roop
Ġgevaar lijk
TI MP
immun iteit
ĠIGF BP
pla qu
ĠCB F
bes liss
ĠSub groep
pe ak
Ġmusc arine
Ġfragment atie
Ġbijge volg
Beeld vormende
neus yndroom
ĠSchot land
Ġstresse chocardiografie
Ġgemodel leerd
b erg
p EF
w ave
Ġw t
Ġge perf
Ġs i
te ken
te sten
Ġbe diend
Ġk loof
Ġon v
De pressie
Ġre gener
un ting
Ġf ung
ap er
Ġcon nexin
ĠP sych
ĠS FA
ĠS ME
Ġmy ocyte
ab ine
ĠL PL
ĠO or
Ġatri o
Ġinf luenza
Ġhypertensie s
ĠF T
ud it
Ġvast houden
Ġap nea
Ġather oma
NA HL
Ġ18 8
Ġben zodia
AP SE
cor relatie
Ġfosf ocreatine
Be ide
Ġnierfunctie stoornissen
sens ing
ĠSer vice
epine frine
Ġexp lantatie
Ġorg aand
)))) )
Ġadj ust
Ġdystroph in
Ġtheor etisch
Ġmaatst aven
Ġrepar eren
ĠBec ker
Ġsubeen heid
Ġfraction al
boe zem
Ġparac rine
Ġhoriz ontale
individu ele
Ġdocosahex aeenzuur
C N
C FR
H MG
L Y
b ase
l ating
p ren
s id
Ã ı
er baarheid
re um
gen atie
Ġhart gewicht
Ġhart bescherming
ine erd
es se
ĠB H
Ġbloed toevoer
Ġpre excitatie
ectie f
Ġsp oel
Ġgez onder
ĠF FA
Ġpost conditioning
hy dra
uit dag
Ġwerk last
Ġpatho geen
Ġgec o
03 1
mut ant
MS I
ĠSD S
Ġdilat atieve
matig heid
Ġhist ologische
Ġhist opathologie
Met s
ĠIsch emia
Ġanest het
dicht heids
Ġsim uleren
Ġverwond ing
ĠER M
Ġcalciumkanaal blokker
Ġecardiocardi ografische
Ġmislu kt
Ġtet ra
uri ene
Ġanth rale
gev order
BL ED
Ġdep rivatie
ronolact one
Ġprom illage
snel heids
Ġorthop edische
fenyl tetrazolium
Ġba PWV
Ġbood schap
Ġwinter slaap
LVED P
Ġulcer a
Ġopgeb ouwd
Ġhartresynchron iseringstherapie
Ġbijgew erkt
Ġthienop yridine
Init iÃ«le
Ġdeposit o
V aak
a ath
c ente
c ore
m el
p ad
r ar
et ing
re if
Ġin schrijving
Ġs ites
Ġvoor del
ri chter
Ġal umin
sp asme
ter t
Ġle s
ĠM inder
Ġbloed ings
ĠN och
Ġwe b
min uten
Ġab soluut
Ġverb inden
lex e
Ġveel zijdige
ĠVer minder
ome chan
Ġbra chten
gif tig
Ġanat omy
Ġople idings
Ġverza chten
Ġsupp ort
Ġlongslagader s
Ġbronch itis
Ġisovolum ic
ĠElect roph
Ġtransmit rale
Ġmor gens
Ġgla ucoom
Ġprovi ders
ĠProport ionaliteit
Ġaangem oe
Ġrab domyolyse
P urkinje
c odes
d x
l open
u er
et iologie
st abiele
Ġe uro
Ġop geroepen
Ġhart activiteit
ĠC yt
ĠC ET
ĠH s
ĠP la
ĠB ID
ite m
Ġaf w
ocard infarct
of et
Ġex tended
Ġ19 6
Ġ19 74
Ġher nieuw
Ġkw ik
12 4
Ġmit och
Ġpopulatie onderzoek
voor oordeel
Ġeind diastolische
(((((((( ((((
Ġfarmac odynamische
vla k
ĠRe sp
olip ide
Ġscores ysteem
Ġcontract uele
200 3
ME DLINE
Ġhan delingen
Ġtraining sprogramma
ĠReg ressie
Ġelectrof ysiologie
Ġplat form
Ġbrady aritmieÃ«n
ĠOx LDL
ballon pomp
ĠNAD H
ĠPac ing
Ġax iale
anger schap
mmet risch
Ġzorgeen heid
Endothel iale
velop ment
Ġaangemoe digd
A ustr
A trial
a diponectine
o zine
v rouw
y y
is u
Ġver kennen
Ġl ign
Ġhart massa
ver rijk
ee ee
ĠB K
ass ende
ag liptine
Ġhyper coag
Ġinf antiele
ĠG y
Ġventrikel contracties
Ġsch rift
ĠF C
Ġ20 6
Ġdi vert
Ġmon ocardiale
ĠK leine
ed arone
Ġ18 9
Ġmodel groep
voor tgang
Ġvrij gegeven
Ġi atrogene
Ġbloot stellings
Ġcyt oprote
co derende
weefsel s
Ġfosfor isatie
Ġmuis modellen
Ġonop gelo
ĠEchocardi ography
Ġdex tro
deriv aat
Ġselect iviteit
Ġactiviteits niveaus
Ġfract uren
iaz ide
lat zer
Ġvoorbere id
Ġzest ien
omed ul
c ross
f outen
p il
v irussen
is oprolol
on isch
on itor
Ġa cties
Ġs ou
ent ra
Ġf QRS
sch e
ee skunde
ĠA IDS
ĠE valuatie
os ens
lo kt
Ġsign alisatie
Ġbloed onderzoek
Ġpre domin
baar heids
ĠG oed
aak te
Ġbeg infase
Ġrec an
Ġei eren
Ġpat entie
Ġtest te
ĠgeÃ¯n t
Ġar ray
Ġ26 0
ĠEx pressie
vet zuur
amin ase
Ġopgele ide
Ġarterie druk
Ġveronder steld
variab iliteit
Ġ((( (
Ġzwangerschaps diabetes
Ġdro egen
Ġest radiol
ĠEC HO
Ġgelu id
afhankelijk heid
Ġbestr aling
Ġleuc ocyten
Ġaz athioprine
Ġcorresp onder
ĠPF O
Ant i
Man nelijke
Ġgeoptim aliseerde
iton itis
ruim te
lox acine
ofen olaat
ĠPTS MA
vullings druk
verze kering
Ġhypovole mie
ĠArt sen
I PC
L an
L ge
R C
T x
T sub
U ST
c ost
n omen
z apine
it ische
der ings
Ġc ogn
Ġz it
Ġvoor de
Ġon gesch
Ġbij n
Ġhart model
ĠA NF
of osf
Ġex centrische
Ġverk orten
Ġten dens
Ġrec order
12 8
deel de
Ġterug ge
16 4
Ġzuurstof vrije
Ġpolym orfe
ĠIV S
int imale
Ġgeleidings defecten
Ġmultip le
loc atie
ĠRo utine
Ġtelef onische
Ġmodific ation
emyemyemyemyemyemyemyemy emyemyemyemyemyemyemyemy
Ġgewichtsver mindering
Ġasynchron ie
cardiover sie
Ġpentobarb ital
Ġzelfrapport age
Ġarsen icum
ĠLine aire
reif uss
D HA
e valuaties
i dere
k ent
m acro
p eptiden
s oftware
at ologie
ar aat
Ġb ut
Ġl aryng
ig vul
ak te
ĠE Ã©n
ĠS te
Ġstudie cohort
ĠD OAC
Ġmo gen
ox yl
van gen
ĠF F
met ast
Ġgep erson
Ġlong ontsteking
Ġimp licatie
Ġaort ac
Ġat letische
Ġgew ichten
AS D
Ġimmun ofluorescentie
ĠCT n
Ġlog ism
CP AP
iz umab
Ġtransvers aal
ĠPT X
leeftijd s
Ġform ele
onucle ar
Ġpart ner
Ġgren szone
Ġventrikeluit stroom
Ġschildklier hormonen
Ġbeenmerg cellen
Ġposit iviteit
Sp ontane
Ġthi amine
Ġintensie vere
fyla xe
Ġerytropo Ã«tine
Ġgereperf undeerd
Ġplasmarenine activiteit
sorpti ometry
. '
M CP
b oek
f iciÃ«ntie
g ron
n odes
o ofde
s niveau
t yrosine
Ġ ijk
Ġv elen
ie gel
ar iÃ«le
Ġge dereg
Ġin activatie
Ġ( +)
Ġc entrifug
om imetische
sch epen
ĠA E
ho f
ĠV ar
ĠL AP
be woners
mm a
ĠR am
zen d
Ġ19 73
Ġsub aorta
Ġminder heids
Ġap prec
inter pret
Ġmon itor
Ġru b
16 2
Ġco up
Ġbyp as
03 9
Ġverst erkte
Ġverzam elden
Ġfibril leren
ĠRe den
ER G
Ġoud ste
dys ritmieÃ«n
trop ine
Ġgel dig
Ġanom ale
ĠLC X
Ġoverb lijf
atory atory
itte e
Ġvoorke uren
Ġquint ile
ĠMark ov
Ġbup ivacaine
Ger andomiseerde
Ġdiscrep antie
Ġsou ff
G W
N IDDM
g m
m ark
p unts
Ġv oegen
on atri
re polarisatie
re synchron
ot hy
Ġst oringen
ve il
ĠH om
ĠE RT
ĠS VR
Ġdia g
ĠD et
ĠL age
gende el
ĠF HR
Ġdi hydropyridine
Ġleid den
ĠCardi omegalie
man oeuv
Ġneuro lep
AV RT
yn cope
ĠCV E
Ġinduc eerbaar
ĠbeÃ«in digde
Ġgene igd
albumine mie
Ġcult uren
Ġsamengevat te
romet ry
Ġcomplement aire
Ġprogest eron
Ġcoron air
Ġrisicom odellen
Ġmerk baar
mass aspectrometrie
oxon ase
Ġcorresp onde
lever ing
cardiop legie
Ġuithoudings vermogen
kandid aten
place bo
A E
E PO
G lu
L age
N B
S m
U n
h rel
n al
Ġen de
Ġp ulmon
re duct
as oom
Ġbij lage
oc ola
ĠC CTA
ĠS Y
Ġgem onitor
ier esultaten
ĠR Ã¶ntgenfoto
Ġziekte specifieke
Ġab stract
MI C
Ġverk eer
Ġrec ord
vorm ingen
ex tract
erg ometer
Ġ18 6
Ġvet rijk
plaat je
Ġenkel voudige
vestig de
ĠgeÃ¯n dex
ha vi
MP S
Ġboven grens
ochondri a
form ule
Ġpsych ologisch
kw art
Ġvis c
ritis h
Ġblokk eert
sept ische
Ġorg aant
hom as
Ġfibro tische
Ġaug mentation
Ġverh inderen
pla y
Ġoog punt
anest hetische
Ne genen
ĠOx idatieve
Ġtertile s
wek kend
ĠImp lantatie
Ġverze ker
ĠÎ¼ mol
Ġformul eringen
Ġvoedselfrequentie vragenlijst
Ġventrikelect opie
Ġintervent ional
Ġherzienings artikel
D ie
G O
m aline
Ġ ril
or atie
is ion
Ġd ich
Ġt ib
Ġver gevorder
Ġk Pa
id az
Ġon mo
ra chte
Ġop zicht
og lykemie
ĠC ase
Ġna delige
ĠP SE
ĠB u
ĠV P
Ġpre dialyse
ien s
Ġventrikel myocytes
ĠK inderen
ĠU l
ĠgeÃ« rf
tre at
nem ing
Ġtijd sver
Ġfib raten
my ocyt
Ġverwij derde
ĠJ T
17 0
Ġindic atief
schil len
Ġscreening sprogramma
Ġth at
even wicht
Ġademhalings keten
Ġfra cties
Ġfor amen
yle ster
ĠÃ ı
Ġintrac eerbare
Ġgener ator
Ġmonotherapie Ã«n
Ġdetect eerbare
bas eline
Ġrechtvaar digt
Ġonderbre ken
eluting stent
pul sen
pul monaire
ĠComm ittee
Ġventrogra f
ĠCaliforn iÃ«
Ġproceduret ijd
Ġveelvoor komende
Ġplurip otente
Q oL
d rom
h erfusie
p ump
y ste
Ã Ĺ
Ġv es
ie ert
is bruik
Ġge synchron
ct u
Ġc op
ĠP N
ĠP otentiÃ«le
men d
od rine
ĠN ov
ost on
her n
Ġanalyse ert
Ġap pendage
ĠCI NAHL
Ġhartslag frequentie
ĠNa uw
Ġan orex
13 2
vers lapp
land se
Ġdilat ation
Ġhist orisch
olyt ica
gezet te
Pro spectieve
sequ ente
Ġzout inname
car riers
Ġslaapap neusyndroom
Ġbro er
cont in
Ġtar ief
Ġequival enten
ĠBec k
Ġsubeen heden
Ġkra chten
Ġater osclerotische
Ġterugt rekken
arre ste
Ġverwaar loos
Ġoestro ge
Ġgemonitor d
A KI
D reifuss
K ATP
Q OL
S h
T OR
c eptoren
m ar
an serine
ge activeerde
or el
Ġin tran
id atie
Ġon verm
Ġst aart
Ġf ondaparinux
ĠA ff
ĠE erste
Ġle er
Ġonderzoe ker
ĠM N
ige en
ĠT X
Ġdo fet
ĠO dds
Ġinter vention
Ġgez uiverd
Ġher inn
ator ische
Ġ20 2
ĠQ oL
ĠK illip
Ġmicro scopie
Ġmult ide
Ġradi ografisch
my oc
16 7
Ġval iderings
Ġpacem ak
Ġechocardiogram men
Met abole
hospit alisaties
ĠÂ ©
Cardi omyopathie
Ġprox imal
ĠLe ver
Ġhypere mische
ĠMit ochondriale
Ġthi op
Ġvacc in
Ġincrement ele
erdy splasie
ĠBI O
ĠÃĤÎ¼ g
Ġoverlevingskan sen
ĠBru ce
Ġafw achting
Ġdofet ilide
P N
R G
R en
V Ã³Ã³r
j maline
n ull
in spanningen
Ġt ril
Ġt ellingen
ro ei
le vatie
Ġver wijzings
Ġhart productie
ig mine
Ġg u
ee stal
ang ere
Ġ3 25
Ġ3 30
ĠM ax
ĠV rij
ĠR isico
ĠR HR
ĠR etro
van s
Ġ19 3
hal f
Ġkinder schoenen
opp l
Ġhemodynam iek
Ġstand punt
Ġpsych iat
Ġafwez ige
Ġadip okinen
PS E
Ġort hog
ĠRA GE
Ġdosering s
ĠCol labor
ĠEngel stalige
Ġinz ake
Ġverspre idings
UR L
Ġaantoon bare
ĠĠĠĠĠĠĠĠ ĠĠĠĠĠĠĠĠ
Ġpotential iteiten
Ġgetra inde
Ġonderhuid se
Ġarth ritis
Ġtemperat uren
Ġgeco Ã¶rdine
onatri Ã«mie
E H
R L
h uan
i laire
p ij
er aal
Ġv alc
Ġv irale
is eert
Ġin derdaad
ol len
as y
ra fie
ĠC r
ur on
ep h
ĠI M
Ġhe me
ff ende
aal den
Ġsy mmetrische
od ra
od ulatie
ĠD I
atri a
Ġvol doet
Ġ19 1
ĠK CCQ
elf requentie
Ġser ologie
gens iteit
arm ing
ger ine
ph en
rin one
Ġoefening sprogramma
ĠCardi over
ĠMet oprolol
Ver anderingen
ĠCA N
receptor agonist
ĠPV R
iver se
Ġrechts zijdige
stit utie
ĠSy ndrome
Ġpols golf
Ġbuik pijn
Ġanal oog
Ġbrand weer
contract iviteit
Ġcondition ing
nucle otide
Ġnabij heid
El ke
fragment atie
hep atische
Ġgeorgan iseerd
ĠgeÃ¯nhale erde
D ys
g l
t r
v elden
Ġ *
Ġ 00
Ġh anden
is h
is ovormen
on ef
Ġp ur
re ert
Ġge anesthetiseerde
ic lop
Ġhart beeldvorming
Ġonder bouw
Ġuit ger
uw d
Ġcon cord
ĠS m
ĠS SS
mie Ã«n
aren ale
ĠL o
Ġaf stoting
ell ate
ĠR et
Ġgez uiverde
ĠG C
Ġventrikel frequentie
Ġziekte activiteit
Ġher programm
ĠEr nstig
Ġmicro circulatoire
19 92
SA ECG
reg imes
sc intigrafie
Ġzuurstof opname
Ġcyt oplasmische
ĠSD F
olip ine
ain ing
Ġenzym remmers
Ġnatrium inname
PV R
Ġendocard ische
Ġden ken
ĠPer if
ĠPE P
yridam ol
Ġ((( ()
ĠAther oscleros
ilie u
Ġzoek opdra
Ġ-(((((((( ((
des artan
spar ingen
Ġrechterkam erdysplasie
din itraat
allo Ã¯de
ĠOpmer kelijk
Ġderiv aten
V B
i aten
i operatieve
t ab
de termin
Ġd ure
Ġd ysm
Ġp ig
oor deling
Ġc yl
om eer
as eremmer
Ġvoor oordelen
Ġhart vergroting
ĠC OR
Ġna geb
ĠN ationale
Ġverk laringen
Ġspec ial
Ġterug gebracht
ob esitas
fa den
Ġthe ma
spec ific
Ġstam cel
ĠDia stolische
Ġag itatie
cep ten
contra st
Ġendot racheale
Ġaanpak ken
Ġbewustzijn sverlies
Ġdesm osomale
gestuur d
Ġdrugs gebruik
ĠLe v
Ġluchtweg druk
Ġrespon se
Ġreproduc eren
Ġtranscript ase
Zo als
Ġatt itudes
Ġdef ormatie
Ġmel an
Ġolig onucle
Ġverze k
Ġincrement al
atter ij
Ġthiaz olidinedi
Ġbib li
enhan ced
akal im
Ġonaan vaard
Ġinspanningsdysp neu
Ġhandg reep
ĠIns urance
Ġhypogonad isme
Ġverwoest ende
3 50
T H
b ro
c il
c ause
e ve
w o
in ject
Ġw arme
Ġp ak
Ġc ateg
as ure
Ġaan hang
Ġl ute
Ġf lad
ĠC ons
um b
ĠA PS
ĠA CR
ĠI l
ran sslagader
Ġpro be
ĠT herapy
ĠN HS
Ġvol daan
Ġlinker ventriculaire
cardi ologie
Ġnorm aliseren
Ġher modellering
Ġrec re
Ġlip opolysacchar
uit slagen
15 1
ĠCh lor
idu ele
Ġhypot hes
Ġsla perigheid
Ġpiek stroom
Ġkarakter isering
ĠSer vices
anat omie
Ġmanagement strategieÃ«n
Ġther mo
ĠNeg entien
Per ip
Ġautosom aal
ĠStat us
implant aat
Ġmultis y
Ġbru to
Ġeut hyreoÃ¯die
Ġprecurs or
Gl n
MK II
Ġgetit reerd
Ġactu ariÃ«le
Ġvermen igvul
j unct
v oc
de gradatie
at ropine
Ġde fibrill
or de
Ġge digit
la zen
op s
op la
Ġl ym
Ġonder nomen
ĠC CT
ĠS tre
Ġpro aritmische
Ġper indopril
ĠM aar
ĠM VP
ĠT herapie
Ġcor tex
ier ing
ir al
Ġbesch ouwen
Ġgez et
CD D
ari huan
ĠU AP
yt ocine
und le
over expressie
Ġpreventie programma
Ġzorg den
Ġsin ussen
Ġterug gekeerd
Ġpatho genen
13 9
Ġimm igranten
my ocyten
04 1
Ġtemp orele
Ġmoeilijk heid
atechola mine
Ġchron otrope
ibil ity
ĠTrop onin
Ġretrotro spectieve
Ġrisicom odel
apporte erd
sonde s
imet ry
Ġprikkel baarheid
Ġontspannen de
Ġintr ath
Ġlis inopril
Ġbeweeg reden
Ġschrift elijke
ĠgeÃ¯nt ubeerd
Ġonverm ij
3 25
K ort
c ann
g g
u eerd
z amen
Ġde mping
Ġw inst
Ġin competentie
Ġs ikkel
Ġc linical
op een
Ġf l
ĠA s
ang rijke
ap paraten
ĠM ortaliteit
olog ical
Ġsp lit
Ġlinker borst
Ġher vat
Ġap paratuur
Ġziekenhuis verblijf
Ġstress cardiomyopathie
19 93
Ġcholesterol verlagende
MP A
beeld ingen
segment veranderingen
Ġfibril lation
Ġopen baar
ife dipine
Ġveilig er
sign ificante
Ġmedic ijn
Ġklass iek
Ġultra structuur
Ġvul lings
apo A
ĠHist ologisch
Ġvasosp asmen
modific erende
ĠRep erfusie
Ġverwijder ingen
Ġeierst ok
mobil isatie
Oct a
Ġvermijd bare
Ġfung eren
G G
H ist
Q ALY
R ep
S ign
S up
n ic
r ho
in ch
Ġd istentie
Ġge arreste
Ġin nemen
la f
ale mie
Ġonder gebracht
Ġf ast
ep s
ep icardium
ik e
ĠP ak
omen ten
ĠB A
Ġover matig
ĠM c
ost igmine
ell atie
pro lapse
Ġab l
Ġdis persie
Ġimp lante
Ġtra stuzumab
ure um
Ġlever falen
Ġveel heid
15 3
(((((((( ((((((
vl iezen
ĠHR V
ĠHF D
spec ificiteit
AS CVD
segment elevatie
Ġmorf ologisch
ĠSy rische
Tran sthoracale
Ġhydro lyse
valv ulair
isol dipine
Ġvervolg onderzoek
Ġniertransplantatie patiÃ«nten
register s
ket o
Ġlinkerboven hoek
Ġzoog dier
Ġgezamen lijk
Ġnavel streng
Ġquin tielen
ĠArter y
oseroser oseroser
Ġvoorkw am
Ġgestrat iseerd
polip oproteÃ¯ne
gecor rigeerde
oattract ant
Ġapprec iatie
b ib
e quival
or adi
on ly
al k
Ġp y
oor te
Ġver dikte
Ġs estamibi
la zine
ale ctine
Ġg riep
ele ment
Ġpro BNP
bb bb
ĠM orf
ĠT x
Ġmy opathische
em et
ĠO s
Ġbel icht
ĠG lu
ĠF R
Ġintra ventraire
ĠWe inig
ĠK ong
uit scheiding
Ġvorm den
Ġinflamm atoir
Ġwerk ings
ob il
30 8
ĠVoor al
Ġhulp kamer
Ġcap aciteiten
Ġvis ie
ĠIL R
Ġbete kenen
ix imab
ĠIsch a
Ġcomputer gestuurde
Ġbele digingen
dicht ing
Ġsigaretten rook
Ġsubgroep analyse
ĠAustr al
Ġdefibrillatie drempel
Ġweerspiegel ing
Ġtub ulaire
amylo Ã¯de
ĠPe arson
Ġharte valuatie
ĠExperim enteel
atier esultaten
M a
f asen
Ġt urbulentie
it in
Ġs ick
Ġl eren
Ġf yto
ang st
ĠE TT
ĠP VD
ocardi ografische
Ġper itonitis
lin ge
ĠL act
Ġ7 00
ĠG i
min ute
infarct ion
Ġaanwez ige
Ġlang zamer
Ġ20 3
Ġlip odystrofie
ph ysiologische
Ġgeval s
13 4
Ġlit h
Ġhel deren
OS C
Ġgenen codering
Ġcyt otoxische
ĠÂ± Â±
ix atie
ĠCon gestief
osit iviteit
Ġlevensbedre igend
Ġgemakkelijk er
Ġexc it
Ġexerc ise
Ġkrachtig ste
Ġcompens atie
ĠLip ide
Ġcomprom is
ĠFamil y
sensit iviteit
ĠBeeld vorming
Ġamiodar ontherapie
Ġgeman ip
' m
A tri
L ys
L GE
_ _
b all
c ase
p ogingen
t is
Ġh oor
st reven
Ġp ure
as ing
Ġbe werk
Ġop aciteiten
Ġf ull
ĠDe pressie
ĠA BS
ĠH azard
ĠE m
iddel d
ĠP VT
Ġrisico voorspelling
ov entriculair
Ġdia forese
vo ir
iden t
Ġme st
druk kende
Ġ19 7
ĠF en
Ġbeh oort
schap pelijk
Ġ20 9
ather osclerose
ph oton
Ġsamen spel
ĠCh irurgie
Ġgek ru
Ġverst orende
aritm ia
Ġtach ycardische
ĠBe heer
bere iding
Ġth io
iz ine
Ġprof il
Ġlitteken vorming
Ġsynth et
Ġglad de
Ġnaboot st
Ather osclerotische
ĠNI MM
oxif ene
ĠLaboratorium resultaten
ĠTromb olysis
Ġmonocyt chem
Ġsignal ering
'-'-'-'-'-'-'-'-'-'-'-'-'-'-'-'-'-'-'-'-'-'-'-'-'-'-'-'-'-'-'-'-'-'-'-'-'-'-'-'-'-'-'-'-'-'-'-'-'-'-'-'-'-'-'-'-'-'-'-'-'-'-'-'- '-'-'-'-'-'-'-'-'-'-'-'-'-'-'-'-'-'-'-'-'-'-'-'-'-'-'-'-'-'-'-'-
Ġgranul ocyten
Ġnal oxon
Ġtor sie
Rec ent
Ġarte facten
Ġgeconjuge erde
ĠAmp latzer
ĠArab ische
Ġslijm vliezen
% ."
3 20
C ys
L N
R o
f act
f ysiologie
is ed
Ġin herente
Ġz ure
Ġonder linge
ĠA PC
ĠH G
Ġcon ferentie
Ġpro to
bb ott
vol gd
Ġdia zepam
Ġkan sen
ist ance
ĠW all
Ġged ood
Ġsch er
eter min
Ġdi le
Ġ24 4
Ġgede prim
vent it
Ġduur t
Ġeind systolische
wak ings
Ġmoe ite
au ffe
Ġinsuline concentraties
Ġherstel t
fect eerd
enn ing
Ġballon vorming
Ġbar st
radi ografie
Ġelast iciteit
Ġmyel oom
Ġgestratific eerde
wek kende
ĠNeg atieve
Ġba kenen
Ġaccum uleren
Ġoct roo
gluc osidase
Ġaspir inetherapie
Ġoptra den
ĠVerminder de
Ġverkennen de
Ġnageb ootst
auffe urs
L eft
P i
U D
f ree
r alisklep
Ġ )
re f
oor ten
ct ale
te ct
oc omp
Ġhart bewaking
ĠE d
Ġna dir
ĠB BB
ĠM ac
gelijk se
ĠT homas
ĠL ang
ĠR AAS
Ġwe bs
Ġkransslagader interventie
Ġatrium tachy
ne ut
ĠZ ulke
Ġmed ulla
ĠJ NK
Ġ22 4
ĠAV B
Ġhersen stam
04 2
Ġmolec ule
Ġcol chicine
Ġpsych ose
Ġmis vorming
Ġlaboratorium waarden
ĠOnder tussen
Ġgroei vertraging
tak t
201 3
Ġreferentie s
Ġgunstig er
Ġlongitud inal
Ġsarc of
ĠPre valentie
Ġpass end
Ġbespre ekt
Ġecon omisch
ĠLe wis
Ġovert uigingen
Ġmyof ib
Ġprogest ine
pacem akers
bil irubine
ĠDrug s
ĠRen al
ĠbarriÃ¨ re
etra hydro
adm ium
Ġneutr alisatie
Ġinner lijke
Ġprediction ing
Ġcombine ert
Ġonmo gelijk
' )
M VO
N MR
T ype
V e
b pm
k ig
Ġ aritmica
Ġv iel
ge slagen
on as
Ġe is
Ġd b
re ffende
as er
am mon
se cut
Ġhart prestatie
ver k
ĠA PA
ĠI SR
ĠE st
ere bel
ad ine
lo sporine
ĠM agnetische
ĠL onden
em p
iÃ« teit
Ġ20 7
Ġvert alen
Ġlever ing
yt ische
Ġreperfusie periode
Ġlaag molec
etro kken
oÃ¯ d
omet risch
Ġinst ellen
Ġco herentie
lit axel
Ġimmuun cellen
Ġmal ad
ĠTwee Ã«n
Ġgezondheidszorg systeem
Ġopgele id
kl ier
wissel aar
Ġvoedsel inname
Ġverza diging
Ġkenmerk ten
Ġelectrogram s
Ġevol ution
Ġ((((((((( ((((((
IF N
Ġheterozyg oten
ĠPPAR gamma
Ġhypertrof e
Ġdimensie s
geassoc ieerd
Ġ-(((((((( )
Ġgenotyp ering
Ġmarg inaal
Ġaritm ia
sympt omen
Ġkl onen
Ġanesthes i
Ġvoorkw amen
Imp lanteerbare
Ġdeb at
ĠZwitser land
Ġaanb od
Ġnumer ieke
Ġstimul ans
Ġmonok lonale
Ġterugge draaid
D ag
M on
f ort
o ien
t olerantie
as ia
te ctor
Ġon nauw
Ġon aanget
ken nis
Ġl uminale
ver zam
ur al
ĠDe ath
ĠA Z
ĠI b
Ġle k
Ġbl oc
aan passingen
ĠM G
ĠV ieren
ĠV CAM
ĠD N
Ġeff iciÃ«n
ĠO rg
ĠR usland
Ġch olinerge
%) )
ĠG W
ive erd
Ġang in
Ġdrie hoek
Ġborst honden
VT E
Ġ22 7
ochondri al
38 9
inet isch
organ ische
Ġmass aspectrometrie
nit inet
sthorac ische
HI F
Ġisopro ter
rins iek
Ġsoort gelijk
bas ale
Ġonevenwicht igheden
Ġperox yn
prim aire
glob uline
Ġergon ovine
commun ic
Ġbewerk stell
/ (
B ijna
E erder
F HC
H ij
m apping
p a
s neden
z ichten
er voir
an aal
Ġde letie
Ġm ast
al d
al us
al bum
Ġt unnel
it air
Ġver ste
ent rante
Ġom ringende
ĠS ing
yc opeen
ĠM i
ĠT RI
vo eren
ox etine
ĠR AP
Ġcontrole periode
Ġcomp ounders
Ġher it
Ġkw adraat
Ġep ig
ub le
omyomy omy
12 7
Ġgev isu
LV M
Ġoperatie patiÃ«nten
Ġhypot onie
Ġ23 5
Ġboven op
Ġkanker sterfte
ĠVan af
[...]
