{"<s>":0,"</s>":1,"<pad>":2,"<unk>":3,"<mask>":4,"!":5,"\"":6,"#":7,"$":8,"%":9,"&":10,"'":11,"(":12,")":13,"*":14,"+":15,",":16,"-":17,".":18,"/":19,"0":20,"1":21,"2":22,"3":23,"4":24,"5":25,"6":26,"7":27,"8":28,"9":29,":":30,";":31,"<":32,"=":33,">":34,"?":35,"@":36,"A":37,"B":38,"C":39,"D":40,"E":41,"F":42,"G":43,"H":44,"I":45,"J":46,"K":47,"L":48,"M":49,"N":50,"O":51,"P":52,"Q":53,"R":54,"S":55,"T":56,"U":57,"V":58,"W":59,"X":60,"Y":61,"Z":62,"[":63,"\\":64,"]":65,"^":66,"_":67,"`":68,"a":69,"b":70,"c":71,"d":72,"e":73,"f":74,"g":75,"h":76,"i":77,"j":78,"k":79,"l":80,"m":81,"n":82,"o":83,"p":84,"q":85,"r":86,"s":87,"t":88,"u":89,"v":90,"w":91,"x":92,"y":93,"z":94,"{":95,"|":96,"}":97,"~":98,"¡":99,"¢":100,"£":101,"¤":102,"¥":103,"¦":104,"§":105,"¨":106,"©":107,"ª":108,"«":109,"¬":110,"®":111,"¯":112,"°":113,"±":114,"²":115,"³":116,"´":117,"µ":118,"¶":119,"·":120,"¸":121,"¹":122,"º":123,"»":124,"¼":125,"½":126,"¾":127,"¿":128,"À":129,"Á":130,"Â":131,"Ã":132,"Ä":133,"Å":134,"Æ":135,"Ç":136,"È":137,"É":138,"Ê":139,"Ë":140,"Ì":141,"Í":142,"Î":143,"Ï":144,"Ð":145,"Ñ":146,"Ò":147,"Ó":148,"Ô":149,"Õ":150,"Ö":151,"×":152,"Ø":153,"Ù":154,"Ú":155,"Û":156,"Ü":157,"Ý":158,"Þ":159,"ß":160,"à":161,"á":162,"â":163,"ã":164,"ä":165,"å":166,"æ":167,"ç":168,"è":169,"é":170,"ê":171,"ë":172,"ì":173,"í":174,"î":175,"ï":176,"ð":177,"ñ":178,"ò":179,"ó":180,"ô":181,"õ":182,"ö":183,"÷":184,"ø":185,"ù":186,"ú":187,"û":188,"ü":189,"ý":190,"þ":191,"ÿ":192,"Ā":193,"ā":194,"Ă":195,"ă":196,"Ą":197,"ą":198,"Ć":199,"ć":200,"Ĉ":201,"ĉ":202,"Ċ":203,"ċ":204,"Č":205,"č":206,"Ď":207,"ď":208,"Đ":209,"đ":210,"Ē":211,"ē":212,"Ĕ":213,"ĕ":214,"Ė":215,"ė":216,"Ę":217,"ę":218,"Ě":219,"ě":220,"Ĝ":221,"ĝ":222,"Ğ":223,"ğ":224,"Ġ":225,"ġ":226,"Ģ":227,"ģ":228,"Ĥ":229,"ĥ":230,"Ħ":231,"ħ":232,"Ĩ":233,"ĩ":234,"Ī":235,"ī":236,"Ĭ":237,"ĭ":238,"Į":239,"į":240,"İ":241,"ı":242,"Ĳ":243,"ĳ":244,"Ĵ":245,"ĵ":246,"Ķ":247,"ķ":248,"ĸ":249,"Ĺ":250,"ĺ":251,"Ļ":252,"ļ":253,"Ľ":254,"ľ":255,"Ŀ":256,"ŀ":257,"Ł":258,"ł":259,"Ń":260,"en":261,"er":262,"an":263,"Ġv":264,"de":265,"in":266,"ie":267,"at":268,"Ġde":269,"et":270,"ar":271,"ge":272,"Ġvan":273,"Ġm":274,"or":275,"ij":276,"ch":277,"Ġh":278,"is":279,"on":280,"st":281,"Ġb":282,"al":283,"el":284,"Ġen":285,"Ġe":286,"Ġw":287,"Ġd":288,"Ġp":289,"re":290,"Ġt":291,"Ġo":292,"ing":293,"ro":294,"Ġge":295,"ten":296,"Ġin":297,"Ġeen":298,"Ġ(":299,"den":300,"oor":301,"it":302,"Ġa":303,"der":304,"Ġmet":305,"le":306,"Ġver":307,"isch":308,"di":309,"ct":310,"Ġs":311,"Ġhet":312,"Ġc":313,"ische":314,"Ã«":315,"Ġn":316,"la":317,"om":318,"atie":319,"ati":320,"ol":321,"as":322,"te":323,"Ġz":324,"Ã«n":325,"aar":326,"ic":327,"Ġbe":328,"Ġk":329,"erd":330,"Ġvoor":331,"atiÃ«n":332,"id":333,"ijk":334,"Ġon":335,"ent":336,"oe":337,"gen":338,"ĠpatiÃ«n":339,"ra":340,"Ġop":341,"del":342,"art":343,"ĠpatiÃ«nten":344,"Ġaan":345,"Ġ1":346,"ot":347,"Ġbij":348,"og":349,"Ġst":350,"oc":351,"ken":352,"op":353,"ire":354,"De":355,"ardi":356,"ri":357,"am":358,"se":359,"ale":360,"Ġl":361,"Ġre":362,"ss":363,"Ġhart":364,"ig":365,"ul":366,"Ġg":367,"ctie":368,"un":369,"Ġte":370,"cht":371,"iek":372,"ve":373,"Ġis":374,"ru":375,"Ġonder":376,"ine":377,"Ġdie":378,"he":379,"Ġf":380,"Ġ2":381,"ver":382,"ĠC":383,"sch":384,"ijn":385,"Ġwer":386,"Ġr":387,"Ġal":388,"ee":389,"sp":390,"ur":391,"il":392,"len":393,"Ġwerd":394,"ant":395,"kel":396,"um":397,"ĠDe":398,"ĠA":399,"ep":400,"ingen":401,"Ġwerden":402,"Ġtot":403,"ik":404,"Ġof":405,"ula":406,"if":407,"ze":408,"ang":409,"val":410,"ven":411,"yp":412,"han":413,"ia":414,"die":415,"ste":416,"ulaire":417,"heid":418,"us":419,"ĠI":420,"Ġwor":421,"ĠH":422,"Ġu":423,"eer":424,"Ġdoor":425,"Ġwas":426,"Ġzijn":427,"ho":428,"es":429,"Ġom":430,"ak":431,"lijk":432,"ter":433,"Ġnie":434,"ers":435,"Ġonderz":436,"ĠE":437,"ele":438,"oed":439,"Ġwaar":440,"Ġle":441,"Ġcardi":442,"Ġuit":443,"isic":444,"Ġ3":445,"Ġdat":446,"ran":447,"Ġhe":448,"Ġj":449,"ap":450,"ut":451,"iddel":452,"uw":453,"00":454,"handel":455,"Ġer":456,"eren":457,"--":458,").":459,"Ġgeb":460,"Ġcon":461,"isico":462,"ziek":463,"im":464,"ath":465,"Ġna":466,"os":467,"and":468,"ff":469,"ĠP":470,"ft":471,"omen":472,"entr":473,"Ġbl":474,"Ġniet":475,"orm":476,"ere":477,"ĠS":478,"ĠB":479,"ass":480,"lag":481,"yc":482,"aat":483,"ific":484,"roep":485,"Ġ0":486,"tro":487,"Ġpro":488,"ad":489,"Ġrisico":490,"nen":491,"),":492,"ite":493,"aal":494,"eld":495,"aan":496,"Ġbehandel":497,"bb":498,"ijke":499,"inder":500,"ag":501,"Ã¯":502,"asc":503,"ocardi":504,"Ġgem":505,"mie":506,"ose":507,"ec":508,"Ġhyp":509,"bben":510,"Ġhebben":511,"za":512,"act":513,"Ġsy":514,"**":515,"Ġals":516,"aire":517,"lo":518,"udie":519,"Ġover":520,"vol":521,"Ġjaar":522,"ijd":523,"iteit":524,"onder":525,"bet":526,"Ġper":527,"Ġonderzoe":528,"ov":529,"Ġdeze":530,"men":531,"aren":532,"Ġ4":533,"ĠM":534,"ssen":535,"Ġworden":536,"asculaire":537,"ide":538,"ige":539,"ziekten":540,"ker":541,"ign":542,"gelijk":543,"ĠT":544,"Ġmy":545,"ander":546,"lin":547,"aties":548,"od":549,"eg":550,"Ġ5":551,"Ġdia":552,"ab":553,"ĠV":554,"eerd":555,"Ġstudie":556,"vo":557,"ussen":558,"du":559,"ĠD":560,"erf":561,"'s":562,"entie":563,"ĠL":564,"ruik":565,"Ġsign":566,"ard":567,"Ġkan":568,"ogra":569,"dt":570,"Ġische":571,"Ġeff":572,"Ġbloed":573,"Ġont":574,"ult":575,"Ġtussen":576,"Ġbehandeling":577,"omy":578,"iden":579,"oon":580,"Ġverho":581,"Ġ6":582,"Ġverm":583,"ijden":584,"sie":585,"ĠN":586,"Ġaf":587,".\"":588,"Ġwaren":589,"ion":590,"ast":591,"aten":592,"Ġsignific":593,"em":594,"ost":595,"iv":596,"oren":597,"ame":598,"erde":599,"olog":600,"be":601,"Ġhyper":602,"((":603,"Ġgebruik":604,"ress":605,"sm":606,"ole":607,"oen":608,"+/":609,"alen":610,"Ġdan":611,"ort":612,"Ġlin":613,"ovasculaire":614,"rouw":615,"ach":616,"ib":617,"Ġpre":618,"Ġzo":619,"ectie":620,"Ġwordt":621,"Ġcor":622,"Ġhad":623,"Ġ-":624,"tra":625,"Ġcardiovasculaire":626,"atri":627,"entri":628,"unctie":629,"linische":630,"ader":631,"Ġversch":632,"ac":633,"Ġgen":634,"entrikel":635,"Ġonderzoek":636,"me":637,"ĠIn":638,"ocard":639,"Ġverhoog":640,"+/-":641,"ich":642,"ok":643,"Ġbet":644,"Ġmaar":645,"Ġdo":646,"Ġho":647,"we":648,"ruk":649,"aly":650,"Ġmo":651,"ip":652,"Ġ=":653,"ier":654,"ĠO":655,"Ġsp":656,"wij":657,"her":658,"ect":659,"----":660,"opath":661,"Ġklinische":662,"Ġvol":663,"Ġverminder":664,"ell":665,"fie":666,"Ġla":667,"mp":668,"ron":669,"erk":670,"Ġtoe":671,"ieerd":672,"entric":673,"Ġac":674,"vallen":675,"Ġ9":676,"atieve":677,"af":678,"trole":679,"con":680,"Ġman":681,"ardie":682,"ist":683,"wee":684,"ijdens":685,"Ġsu":686,"Ġvaat":687,"ycardie":688,"Ġverschil":689,"Ġant":690,"eft":691,"alyse":692,"room":693,"ende":694,"Ġuitge":695,"of":696,"entriculaire":697,"Ġbel":698,"eerde":699,"Ġres":700,"Ġlinker":701,"Ġme":702,"omp":703,"groep":704,"mm":705,"ante":706,"uur":707,"ox":708,"tie":709,"Ġziek":710,"achycardie":711,"Ã¯n":712,"onaire":713,"sel":714,"opathie":715,"ĠR":716,"Ġgroep":717,"assoc":718,"zaak":719,"igheid":720,"Ġvaatziekten":721,"Ġ+/-":722,"wel":723,"ien":724,"Ġgeassoc":725,"Ġmyocard":726,"Ġ7":727,"Ġbelang":728,"eftijd":729,"ui":730,"Ġvrouw":731,"Ġgeen":732,"Ġch":733,"Ġalle":734,"Ġwe":735,"valu":736,"vens":737,"usie":738,"nd":739,"Ġro":740,"Ġgeassocieerd":741,"ĠW":742,"Ġatri":743,"lagader":744,"dig":745,"ke":746,"Ġleeftijd":747,"ering":748,"iddelde":749,"analyse":750,"inf":751,"io":752,"Ġgro":753,"herap":754,"sen":755,"Ġeer":756,"icht":757,"tensie":758,"Ġter":759,"baar":760,"Ġinf":761,"Ġbep":762,"omyopathie":763,"Ġonderzo":764,"Ġacu":765,"Ġkran":766,"druk":767,"Ġontw":768,"01":769,"gn":770,"%)":771,"ir":772,"ressie":773,"dige":774,"Ġtijdens":775,"ellen":776,"latie":777,"genomen":778,"ikkel":779,"Ġcoronaire":780,"iÃ«":781,"zen":782,"ys":783,":**":784,"mische":785,"Ġtachycardie":786,"ings":787,"Ġkun":788,"qu":789,"ce":790,"Ġverschillen":791,"ond":792,"Ġkunnen":793,"pro":794,"ase":795,"Ġhartf":796,"Ġpla":797,"Het":798,"Ġontwikkel":799,"Ġ8":800,"gest":801,"Ġdit":802,"actoren":803,"Ġsterf":804,"Ġbelangr":805,"Ġtwee":806,"Ġbesch":807,"Ġveroor":808,"arit":809,"ate":810,"Ġkranss":811,"ultaten":812,"ind":813,"Ġhadden":814,"Ġventriculaire":815,"Ġinter":816,"Ġsignificant":817,"Ġgez":818,"ĠBij":819,"centr":820,"Ġwij":821,"sy":822,"Ġcontrole":823,"lu":824,"cardi":825,"chter":826,"Ġvergelijk":827,"Ġ10":828,"ĠpatiÃ«nt":829,"ĠG":830,"Ġnaar":831,"ril":832,"voerd":833,"Ġdiabet":834,"ecten":835,"Ġverander":836,"are":837,"king":838,"Ġuitgevoerd":839,"Ġvrouwen":840,"name":841,"Ġmin":842,"Ġzonder":843,"Ġex":844,"Ġonderzocht":845,"gele":846,"Ġmeer":847,"onen":848,"ĠHet":849,"rij":850,"ept":851,"nst":852,"Ġgemiddelde":853,"arct":854,"eten":855,"gevens":856,"eeft":857,"ster":858,"slag":859,"atiÃ«nten":860,"als":861,"ologische":862,"up":863,"ive":864,"Ġventrikel":865,"gende":866,"VD":867,"ocardiocardi":868,"Ġsterfte":869,"herapie":870,"ndroom":871,"aak":872,"Ġgevol":873,"Ġverhoogde":874,"ziekte":875,"rom":876,"iÃ«le":877,"onden":878,"Ġcomp":879,"doen":880,"Ġhog":881,"ografie":882,"Ġresultaten":883,"Ġmg":884,"Ġischemie":885,"cl":886,"ieken":887,"Ġstudies":888,"Ġang":889,"Ġheeft":890,"Ġveroorzaak":891,"Ġernst":892,"Ġverbet":893,"Ġander":894,"ibril":895,"dere":896,"In":897,"Ġkransslagader":898,"ium":899,"Ġnorm":900,"waar":901,"Ġged":902,"elijk":903,"een":904,"uis":905,"ulp":906,"ation":907,"Ġreg":908,"iviteit":909,"mpt":910,"Ġact":911,"Ġeffecten":912,"gnose":913,"Ġdoel":914,"actie":915,"van":916,"iddelen":917,"Ã©":918,"Ġart":919,"Ġhypertensie":920,"stol":921,"ef":922,"itie":923,"mer":924,"lant":925,"Ġbest":926,"Ġhartfalen":927,"'-":928,"Ġtran":929,"Ġ19":930,"per":931,"Ġatrium":932,"bij":933,"Ġhoge":934,"Ġele":935,"min":936,"pen":937,"rit":938,"ogen":939,"Ġziekte":940,"Ġher":941,"ventie":942,"gaan":943,"nel":944,"Ġook":945,"ype":946,"Ġandere":947,"Ġ12":948,"Ġmannen":949,"patiÃ«nten":950,"Ġim":951,"Ġdiabetes":952,"low":953,"ane":954,"bare":955,"'-'-":956,"get":957,"Ġsch":958,"Ġsignificante":959,"Ġevalu":960,"..":961,"CM":962,"hankel":963,"ĠF":964,"ulatie":965,"functie":966,"rie":967,"ieke":968,"Ġend":969,"oper":970,"aritmie":971,"lic":972,"Ġbeh":973,"infarct":974,"eter":975,"eu":976,"age":977,"Ġrisicof":978,"--------":979,"Ġab":980,"Ġeerste":981,"Ġeffect":982,"aanden":983,"Ġgegevens":984,"MI":985,"amen":986,"Ġmee":987,"Ġaandoen":988,"urende":989,"atten":990,"ren":991,"ieden":992,"Ġmaanden":993,"ong":994,"gra":995,"ud":996,"elatie":997,"rop":998,"Ġpost":999,"Ġvoorsp":1000,"Ġwaarbij":1001,"chocardi":1002,"wez":1003,"hal":1004,"nam":1005,"ollow":1006,"Ġoor":1007,"Ġaanget":1008,"aam":1009,"fibril":1010,"komen":1011,"((((":1012,"Ġno":1013,"geb":1014,"Ġresp":1015,"Ġve":1016,"Ġischemische":1017,"Bij":1018,"iekenh":1019,"Ġbas":1020,"Ġgevallen":1021,"oonde":1022,"Ġanti":1023,"Ġvast":1024,"kt":1025,"Ġverb":1026,"Ġsympt":1027,"ĠEr":1028,"Ġcardiomyopathie":1029,"Ġacute":1030,"uden":1031,"Ġgebruikt":1032,"centraties":1033,"Ġintra":1034,"org":1035,"Ġverschillende":1036,"Ġ[":1037,"chan":1038,"Ġonderzoeken":1039,"Ġaant":1040,"kend":1041,"Ġmogelijk":1042,"ÃĤ":1043,"Ġbloeddruk":1044,"Ġmm":1045,"Ġgevolg":1046,"cent":1047,"geleken":1048,"ronische":1049,"mo":1050,"fische":1051,"Ġveranderingen":1052,"dat":1053,"DL":1054,"Ġmiddel":1055,"Ġvs":1056,"gesteld":1057,"oci":1058,"ĠLV":1059,"olester":1060,"oh":1061,"delijk":1062,"Ġbeoor":1063,"Ġda":1064,"schap":1065,"opro":1066,"kers":1067,"ventrikel":1068,"loed":1069,"ks":1070,"afhankel":1071,"AD":1072,"alis":1073,"ment":1074,"Ġziekenh":1075,"ologie":1076,"Ġkw":1077,"Ġtoen":1078,"Ġverk":1079,"ivea":1080,"Ġsc":1081,"Ġdeel":1082,"hy":1083,"Ġbehulp":1084,"Ġvar":1085,"ionele":1086,"Ġfollow":1087,"stolische":1088,"CS":1089,"regen":1090,"Ġ<":1091,"ĠEen":1092,"tific":1093,"Ġzoals":1094,"Ġnieuw":1095,"heids":1096,"Ġpers":1097,"Ġwaargenomen":1098,"Ġwat":1099,"ĠgeÃ¯":1100,"Ġaritmie":1101,"Ġlich":1102,"Ġra":1103,"Ġbev":1104,"ann":1105,"Ġger":1106,"Ġdiagnose":1107,"Ġep":1108,"oond":1109,"Ġvergeleken":1110,"end":1111,"zien":1112,"ator":1113,"Ġrol":1114,"iode":1115,"Ġmyocardische":1116,"requ":1117,"Ġken":1118,"Ġchronische":1119,"Ġaangetoond":1120,"gel":1121,"Ġanalyse":1122,"dic":1123,"ĠWe":1124,"ĠCVD":1125,"ging":1126,"Ġhartziekten":1127,"Ġsub":1128,"Ġbasis":1129,"Ġminder":1130,"Ġap":1131,"ocy":1132,"pressie":1133,"Ġ30":1134,"Ġbelangrijk":1135,"ĠCI":1136,"isten":1137,"ijf":1138,"CG":1139,"Ġverhoogd":1140,"Ġaanwez":1141,"kom":1142,"Ġernstige":1143,"deeld":1144,"Ġechocardi":1145,"Ġmechan":1146,"Ġaantal":1147,"Ġmen":1148,"Ġpar":1149,"ente":1150,"actor":1151,"Ġdis":1152,"Ġvoorkomen":1153,"Ġ95":1154,"Ġou":1155,"Ġma":1156,"inter":1157,"res":1158,"Ġgenee":1159,"Ġnormale":1160,"ne":1161,"stru":1162,"Ġfunctie":1163,"Ġlang":1164,"icro":1165,"Ġziekenhuis":1166,"Ġges":1167,"Ġgedurende":1168,"ĠAF":1169,"ub":1170,"Ġ15":1171,"Ġdrie":1172,"ciden":1173,"oten":1174,"gesch":1175,"Ġsymptomen":1176,"rig":1177,"olesterol":1178,"fra":1179,"Ġ200":1180,"Ġrisicofactoren":1181,"Ġ20":1182,"met":1183,"oven":1184,"elijke":1185,"smiddelen":1186,"perf":1187,"Ġel":1188,"Ġveroorzaakt":1189,"Ã¯ne":1190,"atische":1191,"Ġwaaronder":1192,"ather":1193,"duc":1194,"Ġzowel":1195,"ocardiale":1196,"Ġgep":1197,"Â±":1198,"nt":1199,"Ġdi":1200,"iedenis":1201,"dex":1202,"lantatie":1203,"omb":1204,"ctieve":1205,"etische":1206,"elling":1207,"zoe":1208,"Ġbere":1209,"zaken":1210,"05":1211,"Ġgroepen":1212,"cler":1213,"ectiev":1214,"jectie":1215,"Ġbeg":1216,"est":1217,"Ġalge":1218,"ĠZ":1219,"Ġmon":1220,"Ġoper":1221,"Ġgemeten":1222,"ĠII":1223,"stand":1224,"oprote":1225,"eem":1226,"ectievelijk":1227,"ĠQ":1228,"Ġrelatie":1229,"Een":1230,"aard":1231,"Ġgezond":1232,"erende":1233,"Ġbelangrijke":1234,"ssoci":1235,"ositie":1236,"Ġten":1237,"Ġverminderde":1238,"Ġacuut":1239,"ym":1240,"delijke":1241,"perfusie":1242,"Ġhypertro":1243,"lok":1244,"%,":1245,"Ġmetab":1246,"Ġhem":1247,"Ġ11":1248,"tran":1249,"oscler":1250,"Ġhun":1251,"Ġlinkerventrikel":1252,"wijl":1253,"rek":1254,"laat":1255,"vang":1256,"Ġrespectievelijk":1257,"lamm":1258,"romb":1259,"Ġgele":1260,"Ġather":1261,"Ġhoger":1262,"Ġlag":1263,"assen":1264,"Ġdagen":1265,"Ġpl":1266,"ĠK":1267,"delen":1268,"Ġpol":1269,"Ġtype":1270,"Ġondergaan":1271,"ies":1272,"Ġverband":1273,"requentie":1274,"Ġvert":1275,"Ġuur":1276,"elf":1277,"Ġontwikkeling":1278,"ute":1279,"Ġinciden":1280,"ysi":1281,"Ġble":1282,"ting":1283,"Ġlage":1284,"Ġvers":1285,"jes":1286,"ed":1287,"Ġnieuwe":1288,"wicht":1289,"Ġbehandeld":1290,"Ġarter":1291,"Ġmicro":1292,"Ġevaluatie":1293,"Ġstat":1294,"rim":1295,"Ġrec":1296,"Ġsyndroom":1297,"isme":1298,"Ġsle":1299,"Ġmeest":1300,"Ġ>":1301,"CD":1302,"Ġvergelijking":1303,"kende":1304,"Ġ24":1305,"voel":1306,"95":1307,"ero":1308,"ug":1309,"Ġze":1310,"Ġwee":1311,"Ġser":1312,"wijk":1313,"Ġverw":1314,"Ġtrans":1315,"Ġlong":1316,"Ġei":1317,"do":1318,"ody":1319,"ĠDeze":1320,"001":1321,"fin":1322,"ille":1323,"Ġterwijl":1324,"Ġimp":1325,"ater":1326,"Ġpersonen":1327,"omyc":1328,"oewel":1329,"Ġzich":1330,"vorm":1331,"Ġgede":1332,"komst":1333,"acht":1334,"Ġlip":1335,"omyomy":1336,"Ġgeneesmiddelen":1337,"ade":1338,"wit":1339,"Ġkenmer":1340,"Ġziekten":1341,"10":1342,"gens":1343,"agn":1344,"ening":1345,"Ġaandoeningen":1346,"Ġkinder":1347,"ari":1348,"Ġ14":1349,"Ġpat":1350,"Ġhoog":1351,"ĠU":1352,"ces":1353,"arm":1354,"lex":1355,"ocardiocardiocardiocardi":1356,"lij":1357,"fibrillatie":1358,"opulatie":1359,"isatie":1360,"uit":1361,"sten":1362,");":1363,"tig":1364,"Ġdood":1365,"Ġprim":1366,"rige":1367,"oth":1368,"erkt":1369,"oire":1370,"iding":1371,"Ġ13":1372,"elen":1373,"opp":1374,"licaties":1375,"houden":1376,"Ã³":1377,"wassen":1378,"gem":1379,"osis":1380,"Ġmult":1381,"model":1382,"Ġtoege":1383,"operatieve":1384,"ger":1385,"concentraties":1386,"Ġonafhankel":1387,"Ġoverle":1388,"lyc":1389,"kelijk":1390,"Ġtegen":1391,"Ġtotaal":1392,"centage":1393,"vat":1394,"ĠECG":1395,"dra":1396,"Ġvastgesteld":1397,"Ġsnel":1398,"Ġvolwassen":1399,"aakt":1400,"ĠgeÃ«":1401,"Ġspec":1402,"Ã©n":1403,"chts":1404,"Ġassoci":1405,"Ġincidentie":1406,"Ġne":1407,"elat":1408,"Ġpoten":1409,"ving":1410,"keu":1411,"ĠST":1412,"vloed":1413,"lip":1414,"Ġhogere":1415,"stelling":1416,"Ġatheroscler":1417,"Ġactiviteit":1418,"Ġminu":1419,"CA":1420,"Ġprimaire":1421,"12":1422,"Ġmed":1423,"Ġbi":1424,"nis":1425,"Ġvro":1426,"Ġvaak":1427,"innen":1428,"indingen":1429,"iale":1430,"Ã©Ã©n":1431,"behandel":1432,"Ġnivea":1433,"tre":1434,"Ġtoename":1435,"atio":1436,"Ġtoonde":1437,"))":1438,"Ġopgenomen":1439,"ex":1440,"dien":1441,"erg":1442,"amine":1443,"NA":1444,"Ġtra":1445,"Ġvoorvallen":1446,"luc":1447,"Ġonge":1448,"Ġ18":1449,"sul":1450,"ĠÃ©Ã©n":1451,"ure":1452,"ph":1453,"Ġaanwezigheid":1454,"CI":1455,"ductie":1456,"Ġob":1457,"Ġalleen":1458,"cardiomyopathie":1459,"ĠgeÃ«valu":1460,"Ġhartslag":1461,"Ġdaar":1462,"Ġtotale":1463,"Ġbepalen":1464,"orst":1465,"rel":1466,"Ġtromb":1467,"Ġvorm":1468,"'-'-'-'-":1469,"fractie":1470,"Ġbepaal":1471,"....":1472,"onde":1473,"ds":1474,"Ġechter":1475,"yl":1476,"Ġnier":1477,"imale":1478,"Ġstress":1479,"HD":1480,"ica":1481,"kken":1482,"wijkingen":1483,"Ġbelangrijkste":1484,"unct":1485,"chten":1486,"ĠaritmieÃ«n":1487,"nem":1488,"fsel":1489,"atheter":1490,"Ġinflamm":1491,"Ġgevoel":1492,"Ġzw":1493,"cedu":1494,"Ġsamen":1495,"deling":1496,"Ġgesch":1497,"ina":1498,"Ġplaat":1499,"Ġpositie":1500,"steem":1501,"ode":1502,"heden":1503,"Ġlever":1504,"controle":1505,"orb":1506,"chn":1507,"Ġischem":1508,"Ġhartziekte":1509,"Ġvet":1510,"11":1511,"ogram":1512,"Ġperiode":1513,"ĠgeÃ«valueerd":1514,"Ġmit":1515,"kg":1516,"Ġ16":1517,"Ġ25":1518,"othel":1519,"Ġrechter":1520,"Ġgeval":1521,"ek":1522,"racht":1523,"Ġgev":1524,"ore":1525,"ert":1526,"Ġleid":1527,"ismen":1528,"ogene":1529,"Ġdosis":1530,"yt":1531,"Ġaort":1532,"tij":1533,"Ġkle":1534,"geschiedenis":1535,"ĠNa":1536,"und":1537,"Ġgere":1538,"Ġtijd":1539,"Ġweken":1540,"----------------":1541,"uizen":1542,"lijke":1543,"We":1544,"arten":1545,"pass":1546,"Ġelect":1547,"amil":1548,"uidige":1549,"Ġkinderen":1550,"stig":1551,"Ġoef":1552,"Ġwerk":1553,"ografische":1554,"Ġborst":1555,"ombin":1556,"ateg":1557,"Ġminuten":1558,"Ġaut":1559,"over":1560,"iÃ«n":1561,"otische":1562,"Ġactiv":1563,"atoire":1564,"reven":1565,"Ġtherapie":1566,"Ġablatie":1567,"pp":1568,"plaat":1569,"Ġveel":1570,"mb":1571,"Ġangi":1572,"omycomyc":1573,"euze":1574,"Ġiden":1575,"Ġkenmerken":1576,"Ġvoed":1577,"Ġfactoren":1578,"aling":1579,"Ġgevolgd":1580,"Ġcomplicaties":1581,"Ġbeide":1582,"Ġlichaam":1583,"ular":1584,"wijz":1585,"ifieke":1586,"stroom":1587,"Ġreperfusie":1588,"ĠarteriÃ«le":1589,"Ġinterventie":1590,"Ġhartinfarct":1591,"vent":1592,"Ġan":1593,"Ġ50":1594,"Ġreactie":1595,"ĠAl":1596,"abie":1597,"zoek":1598,"erte":1599,"atige":1600,"Ġlan":1601,"ohort":1602,"Ġhuidige":1603,"otsel":1604,"ied":1605,"CT":1606,"rische":1607,"Ġ\"":1608,"Ġendothel":1609,"Ġpreventie":1610,"kan":1611,"ffen":1612,"interval":1613,"Ġmyocardiale":1614,"Ġvasculaire":1615,"iab":1616,"Ġmodel":1617,"cop":1618,"och":1619,"inge":1620,"nemers":1621,"atief":1622,"ont":1623,"Ġ40":1624,"spro":1625,"antie":1626,"bre":1627,"Ġratten":1628,"Ġpac":1629,"Ġdag":1630,"ĠACS":1631,"stel":1632,"splantatie":1633,"Ġveroorzaakte":1634,"Ġcombin":1635,"Ġneg":1636,"Ġgroter":1637,"RP":1638,"Ġbero":1639,"gressie":1640,"itis":1641,"Ġberoerte":1642,"stof":1643,"Ġserum":1644,"deel":1645,"Ġmedische":1646,"ĠĠ":1647,"Ġverminderen":1648,"ĠVT":1649,"Ġechocardiografie":1650,"odynam":1651,"Ġidentific":1652,"Ġgezonde":1653,"Ġpopulatie":1654,"Ġleiden":1655,"zet":1656,"Ġvroeg":1657,"Ġsystolische":1658,"mene":1659,"par":1660,"Ġgesla":1661,"voor":1662,"halte":1663,"Ġaange":1664,"gene":1665,"alc":1666,"Ġversus":1667,"Ġ17":1668,"Ġstee":1669,"eel":1670,"test":1671,"Ġvrij":1672,"Ġzorg":1673,"Ġgrote":1674,"dia":1675,"wege":1676,"Ġalgemene":1677,"Ġopname":1678,"ts":1679,"19":1680,"Ġplotsel":1681,"Ġatriumfibrillatie":1682,"AC":1683,"atuur":1684,"mijn":1685,"LV":1686,"Ġbevindingen":1687,"centratie":1688,"Ġsec":1689,"tens":1690,"eut":1691,"Ġlevens":1692,"Ġplasm":1693,"all":1694,"Ġbetro":1695,"Ġzwaar":1696,"fer":1697,"Ġtest":1698,"clusie":1699,"Ġpijn":1700,"Ġkregen":1701,"comp":1702,"lijv":1703,"Ġgemaakt":1704,"ĠOn":1705,"Ġsuc":1706,"Ġfunct":1707,"Ġweefsel":1708,"arkers":1709,"VT":1710,"jar":1711,"Ġbetrouw":1712,"Ġnog":1713,"Ġwijzen":1714,"Ġcombinatie":1715,"Ġdruk":1716,"Ġblij":1717,"Ġdui":1718,"volgende":1719,"lucose":1720,"Ġgoed":1721,"15":1722,"ĠVer":1723,"lig":1724,"emb":1725,"HR":1726,"Ġmyocardinfarct":1727,"groepen":1728,"Ġben":1729,"AF":1730,"behandeling":1731,"Ġbinnen":1732,"vorming":1733,"Er":1734,"NP":1735,"ieve":1736,"ling":1737,"valentie":1738,"eptor":1739,"str":1740,"Ġoperatie":1741,"Om":1742,"02":1743,"Ġsin":1744,"Ġzwaarlijv":1745,"Ġterug":1746,"Ġmetabole":1747,"cellen":1748,"gnost":1749,"Ġnon":1750,"Ġmetho":1751,"na":1752,"ST":1753,"jarige":1754,"Ġaandoening":1755,"omm":1756,"Ġsyste":1757,"Ġdisfunctie":1758,"oot":1759,"waarden":1760,"dentific":1761,"rip":1762,"eters":1763,"Ġangina":1764,"jectiefractie":1765,"Ġenkel":1766,"ude":1767,"amer":1768,"Ġcontra":1769,"Ġoorzaken":1770,"Ġ201":1771,"ĠSt":1772,"ule":1773,"ei":1774,"elde":1775,"ble":1776,"stoor":1777,"reactie":1778,"ormatie":1779,"iciÃ«n":1780,"%),":1781,"VA":1782,"Ġ60":1783,"Deze":1784,"Ġinsul":1785,"Ġbetrokken":1786,"ionale":1787,"Ġgroot":1788,"Ġelectro":1789,"arc":1790,"Ġpercentage":1791,"cholesterol":1792,"ikel":1793,"Ġru":1794,"ntslag":1795,"tijdige":1796,"Ġvoorspellen":1797,"Ġbeoordeeld":1798,"RS":1799,"II":1800,"Ġvier":1801,"Ġafwijkingen":1802,"Ġkla":1803,"ĠgeÃ¯dentific":1804,"zaam":1805,"fusie":1806,"passing":1807,"anks":1808,"Ġ199":1809,"unt":1810,"Ġpatho":1811,"Ġsterk":1812,"AP":1813,"Ġet":1814,"herapeut":1815,"rose":1816,"oeden":1817,"Ġduur":1818,"iru":1819,"Ġnu":1820,"studie":1821,"Ġgra":1822,"Ġverminderd":1823,"Ġinvloed":1824,"Ġvermindering":1825,"14":1826,"activiteit":1827,"abiele":1828,"Ġbepaald":1829,"Ġhemodynam":1830,"Ġdeelnemers":1831,"Ġad":1832,"Ġverkregen":1833,"yper":1834,"Ġsucces":1835,"Ġbekend":1836,"Ġonderste":1837,"Ġevalueren":1838,"Ġverz":1839,"mon":1840,"ysiologische":1841,"vul":1842,"Ġassociatie":1843,"gemiddelde":1844,"Ġvia":1845,"Ġcellen":1846,"blok":1847,"Ġhypertrofische":1848,"Ġnodig":1849,"oede":1850,"OR":1851,"Ġvoorgeschiedenis":1852,"Ġmechanismen":1853,"Ġstim":1854,"inale":1855,"ĠHe":1856,"Ġbetrouwbaar":1857,"mi":1858,"Ġi":1859,"Ġcohort":1860,"risico":1861,"deren":1862,"sse":1863,"ob":1864,"Ġhand":1865,"Ġ100":1866,"wijs":1867,"Ġveil":1868,"fibrill":1869,"Ġvanwege":1870,"Ġprevalentie":1871,"houdende":1872,"Ġplaats":1873,"ax":1874,"Ġgevoeligheid":1875,"Ġtherapeut":1876,"13":1877,"elden":1878,"Ġverbetering":1879,"Ġlaag":1880,"vestig":1881,"werk":1882,"Ġor":1883,"orbid":1884,"Ġeind":1885,"Ġeffectie":1886,"ovendien":1887,"irc":1888,"Ġonze":1889,"ĠCh":1890,"Ġri":1891,"aliteit":1892,"iliteit":1893,"ijnen":1894,"ĠgeÃ¯n":1895,"veer":1896,"Ġhoe":1897,"mat":1898,"idu":1899,"open":1900,"lep":1901,"nissen":1902,"Ġwerking":1903,"osf":1904,"Ġbleek":1905,"Ġratio":1906,"ritme":1907,"ategie":1908,"gramm":1909,"diagn":1910,"fa":1911,"Ġgedefin":1912,"Ġzeer":1913,"Ġgeanalyse":1914,"remm":1915,"kse":1916,"ome":1917,"dil":1918,"rekking":1919,"Ġvertoonde":1920,"Ġfib":1921,"20":1922,"RT":1923,"kte":1924,"ser":1925,"Ġvariab":1926,"keurig":1927,"Ġbeschik":1928,"middel":1929,"Ġprote":1930,"ameters":1931,"iaal":1932,"Ġvoorspell":1933,"Ġnood":1934,"bo":1935,"Ġgelijk":1936,"SA":1937,"Ġimm":1938,"hog":1939,"ĠgeÃ¯dentificeerd":1940,"Ġlo":1941,"Ġcholesterol":1942,"CVD":1943,"ity":1944,"%).":1945,"Ġlagere":1946,"Ġzelf":1947,"Ġvergelijkbaar":1948,"Ġindex":1949,"Ontslag":1950,"Ġcontroles":1951,"geen":1952,"Ġbeta":1953,"Ġgerelat":1954,"reg":1955,"uding":1956,"Ġgezondheids":1957,"ktro":1958,"Ġerop":1959,"Ġoudere":1960,"Ġprogressie":1961,"Ġplotselinge":1962,"gol":1963,"Ġbloot":1964,"orte":1965,"rec":1966,"yndroom":1967,"EF":1968,"iten":1969,"isode":1970,"fisch":1971,"one":1972,"sc":1973,"Ġgeanalyseerd":1974,"25":1975,"aker":1976,"datum":1977,"vas":1978,"norm":1979,"Ġgec":1980,"Ġnut":1981,"ichte":1982,"Ġvolle":1983,"Ġpotent":1984,"vou":1985,"ha":1986,"Ġindi":1987,"sole":1988,"ysm":1989,"Ġactivatie":1990,"rin":1991,"Ġrapp":1992,"orph":1993,"Ġscore":1994,"cedure":1995,"gang":1996,"ĠbeÃ¯n":1997,"dem":1998,"lycer":1999,"Ġvoorkomende":2000,"atine":2001,"Ġbevol":2002,"Ġniveaus":2003,"schijn":2004,"0001":2005,"ellulaire":2006,"ola":2007,"Ġgebas":2008,"omatische":2009,"Ġzwaarlijvigheid":2010,"zuur":2011,"spre":2012,"schappen":2013,"Ġradi":2014,"erden":2015,"Ġmeeste":2016,"ume":2017,"my":2018,"Ġwaarde":2019,"Ġlaat":2020,"Ġvolwassenen":2021,"BP":2022,"icardi":2023,"lagen":2024,"lante":2025,"riter":2026,"Ġgezondheid":2027,"Ġeven":2028,"iteiten":2029,"Ġmogelijke":2030,"Ġharten":2031,"Ġaanhoudende":2032,"ĠDit":2033,"Ġwille":2034,"vidu":2035,"Ġbescher":2036,"etro":2037,"Ġregressie":2038,"door":2039,"stoornissen":2040,"Ġoorzaak":2041,"Ġsinus":2042,"Ġverwij":2043,"Ġbegin":2044,"dip":2045,"dit":2046,"Ġbestaan":2047,"Ġeerder":2048,"dro":2049,"Ġelk":2050,"plaatjes":2051,"lob":2052,"AT":2053,"hese":2054,"Ġeiwit":2055,"Ġgebied":2056,"Ġbijdra":2057,"%.":2058,"Ġfamil":2059,"16":2060,"Ġfunctionele":2061,"Ġgek":2062,"GF":2063,"Ġlager":2064,"Ġsecund":2065,"Ġbetrouwbaarheids":2066,"Ġoefening":2067,"emische":2068,"Ġcalc":2069,"Ġatherosclerose":2070,"gnostische":2071,"Ġmil":2072,"Ġtechn":2073,"wezen":2074,"ografisch":2075,"olec":2076,"Ġbereik":2077,"irect":2078,"Ġnauw":2079,"Ġstand":2080,"ĠCardi":2081,"ĠJ":2082,"Ġstr":2083,"Ġlijk":2084,"On":2085,"vers":2086,"Ġhypot":2087,"Ġvit":2088,"Ġzou":2089,"th":2090,"Ġat":2091,"ĠWij":2092,"Ġaanzien":2093,"ĠgeÃ¯sole":2094,"Ġperfusie":2095,"Ġdiastolische":2096,"to":2097,"Ġglucose":2098,"menten":2099,"Ġnegatieve":2100,"Ġextra":2101,"Ġslechts":2102,"((((((((":2103,"aalde":2104,"baarheid":2105,"Ġmoet":2106,"Ġmax":2107,"iet":2108,"itus":2109,"woor":2110,"loop":2111,"Ġlit":2112,"Ġtherapeutische":2113,"Ġdy":2114,"spann":2115,"Ġopeen":2116,"Ġbetrekking":2117,"Ġvooraf":2118,"ersen":2119,"Ġepisode":2120,"Ġdirect":2121,"Ġoverl":2122,"Ġgedefinieerd":2123,"Ġleidt":2124,"ĠBovendien":2125,"stan":2126,"Ġvijf":2127,"wak":2128,"Ġelke":2129,"Ġwaardoor":2130,"dag":2131,"Ġ**":2132,"Ġidentificeren":2133,"idemie":2134,"Ġbeoordelen":2135,"orbiditeit":2136,"Ġopeenvolgende":2137,"riteria":2138,"Ġand":2139,"MP":2140,"oÃ¯":2141,"ief":2142,"Ġmoe":2143,"Ġzuur":2144,"onderzoek":2145,"30":2146,"ventriculaire":2147,"Ġgewicht":2148,"last":2149,"Ġoptre":2150,"Ġinge":2151,"pra":2152,"zonder":2153,"Ã¯nen":2154,"Ġparameters":2155,"ellitus":2156,"Ġ22":2157,"50":2158,"18":2159,"Ġplace":2160,"hyper":2161,"index":2162,"Ġbeeld":2163,"dering":2164,"Ġpositieve":2165,"uren":2166,"Ġofwel":2167,"Ġaanvang":2168,"Ġdepressie":2169,"Ġlinkse":2170,"Ġgemeld":2171,"anten":2172,"Ġox":2173,"Ġasp":2174,"Ġroken":2175,"Ġmellitus":2176,"ohol":2177,"Ã³Ã³":2178,"Ã³Ã³r":2179,"mende":2180,"Ġonafhankelijke":2181,"Ġendotheliale":2182,"Ġgeslacht":2183,"iciÃ«ntie":2184,"Ġrisicofactor":2185,"Ġname":2186,"40":2187,"aste":2188,"Ġwand":2189,"therapie":2190,"armac":2191,"Ġverbeteren":2192,"Ġgerelateerd":2193,"Ġwerkzaam":2194,"17":2195,"ycl":2196,"Ġomge":2197,"ĠOm":2198,"Ġfactor":2199,"schijnlijk":2200,"Ġbetrouwbaarheidsinterval":2201,"cut":2202,"Ġneu":2203,"ĠAV":2204,"weg":2205,"Ġmensen":2206,"gehalte":2207,"Ġcomplex":2208,"perim":2209,"past":2210,"onine":2211,"eiden":2212,"Ġonafhankelijk":2213,"Ġcons":2214,"ĠLDL":2215,"assa":2216,"ruct":2217,"Ġeigen":2218,"Ġgest":2219,"Ġenkele":2220,"Ġindividu":2221,"Ġdu":2222,"omyomyomyomy":2223,"sl":2224,"Ġpath":2225,"ocardiocardiocardiocardiocardiocardiocardiocardi":2226,"Ġoverlijden":2227,"Ġbevestig":2228,"Ġischemia":2229,"Ġbeschrij":2230,"ĠvÃ³Ã³r":2231,"Ġzwang":2232,"syndroom":2233,"osten":2234,"Ġun":2235,"Ġ23":2236,"Ġmitr":2237,"kin":2238,"sent":2239,"inu":2240,"vasieve":2241,"Ġcalcium":2242,"gevallen":2243,"ml":2244,"Ġlange":2245,"Ġsteeds":2246,"Ġ'":2247,"idelijk":2248,"transplantatie":2249,"Ġcont":2250,"Ġleven":2251,"adi":2252,"relatie":2253,"oom":2254,"Ġpresent":2255,"ming":2256,"Ġar":2257,"ool":2258,"ocyten":2259,"Hg":2260,"\".":2261,"Ġpra":2262,"opt":2263,"Ġint":2264,"agon":2265,"Ġelekt":2266,"Ġdys":2267,"afhankelijke":2268,"HF":2269,"vl":2270,"nelijke":2271,"Ġ35":2272,"aanse":2273,"Ġsept":2274,"vasc":2275,"Ġgepro":2276,"ĠDaar":2277,"istentie":2278,"Ġonderzochten":2279,"000":2280,"Ġkon":2281,"verd":2282,"gewicht":2283,"Ġspecifieke":2284,"omet":2285,"Ġtoekomst":2286,"Van":2287,"aa":2288,"zelf":2289,"diagnost":2290,"RI":2291,"Ġricht":2292,"reerd":2293,"eratuur":2294,"fic":2295,"spie":2296,"Ġtoegedi":2297,"HA":2298,"Ġoverleving":2299,"ĠÃĤ":2300,"Ġaorta":2301,"lop":2302,"elect":2303,"Ġwaarvan":2304,"ĠVoor":2305,"Ġse":2306,"ĠICD":2307,"ĠMet":2308,"oxide":2309,"lende":2310,"ĠAT":2311,"eert":2312,"opname":2313,"ierf":2314,"tijd":2315,"merkt":2316,"dis":2317,"Ġbehe":2318,"operatie":2319,"ng":2320,"Ġomdat":2321,"Ġcirc":2322,"Ġmoeten":2323,"Ġgereg":2324,"Ġ28":2325,"Ġhypertrofie":2326,"Ġblijft":2327,"ACS":2328,"ulair":2329,"Ġveroorzaken":2330,"oproteÃ¯ne":2331,"cohol":2332,"Ġouder":2333,"Ġgenetische":2334,"splant":2335,"Ġfrequentie":2336,"oses":2337,"Ġinst":2338,"Ġlaatste":2339,"Ġgevonden":2340,"au":2341,"ĠOp":2342,"Ġlangdu":2343,"Ġhonden":2344,"iseerde":2345,"diagnostic":2346,"Ġkatheter":2347,"Ġejectiefractie":2348,"Ãİ":2349,"hoging":2350,"Ġzuurstof":2351,"Ġinflammatoire":2352,"Ġrel":2353,"osine":2354,"Ġoc":2355,"........":2356,"veneuze":2357,"ouw":2358,"ĠHDL":2359,"ocum":2360,"ĠpotentiÃ«le":2361,"Ġpolym":2362,"Ġalcohol":2363,"ĠQT":2364,"su":2365,"Ġmorbiditeit":2366,"ly":2367,"Ġervan":2368,"Ġmethode":2369,"Ġgecontrole":2370,"Ġmate":2371,"Ġstruct":2372,"IV":2373,"Ġplacebo":2374,"Ġcongest":2375,"tensieve":2376,"ĠAlle":2377,"arine":2378,"Ġ26":2379,"'-'-'-'-'-'-'-'-":2380,"Ġgeken":2381,"PA":2382,"Ġstandaard":2383,"Ġmiddelen":2384,"Ġgeh":2385,"golf":2386,"ock":2387,"Ġpacing":2388,"ivari":2389,"Ġabnorm":2390,"Ġgekenmerkt":2391,"Ġtweede":2392,"Ġvroegtijdige":2393,"24":2394,"geÃ¯n":2395,"Ġstellen":2396,"olie":2397,"var":2398,"meen":2399,"Ġdaling":2400,"Ġ21":2401,"Ġwaarden":2402,"periode":2403,"ommige":2404,"ĠmmHg":2405,"cutane":2406,"Ġkranssyndroom":2407,"Ġhemodynamische":2408,"Ġco":2409,"Ġbloedplaatjes":2410,"hor":2411,"vel":2412,"Ġasy":2413,"ons":2414,"Ġfen":2415,"Ġvooral":2416,"Ġgun":2417,"Ġconcentratie":2418,"Ġvolgens":2419,"Ġzien":2420,"Ġmaken":2421,"ated":2422,"rine":2423,"Ġbyp":2424,"urale":2425,"Ġmyocardi":2426,"Ġzwanger":2427,"soor":2428,"volgens":2429,"Ġonderging":2430,"Ġgew":2431,"Ġmannelijke":2432,"Ġboven":2433,"ry":2434,"ĠHCM":2435,"gment":2436,"factoren":2437,"teerd":2438,"Ġvas":2439,"Ġtermijn":2440,"riglycer":2441,"Ġzij":2442,"Ġhartk":2443,"Ġvari":2444,"Ġcontrolegroep":2445,"duceerde":2446,"Ġmuizen":2447,"Ġobstru":2448,"Ġgepaard":2449,"03":2450,"ta":2451,"matige":2452,"geven":2453,"Ġongeveer":2454,"Ġbestude":2455,"Ġthe":2456,"ĠCVA":2457,"Ġhersen":2458,"Ġinsuline":2459,"nivea":2460,"Ġgediagnostic":2461,"Ġjon":2462,"Ġinflammatie":2463,"Ġaanbe":2464,"kenen":2465,"Ġinformatie":2466,"diabet":2467,"gram":2468,"Ġherstel":2469,"Ġexperim":2470,"verander":2471,"Ġhartfunctie":2472,"zame":2473,"Ġsupra":2474,"vascular":2475,"Ġconcentraties":2476,"Ġmeerdere":2477,"elev":2478,"Ġduidelijk":2479,"omische":2480,"Ġfarmac":2481,"Ġbewijs":2482,"systeem":2483,"offen":2484,"Ġaanwezig":2485,"orator":2486,"Ġ45":2487,"sych":2488,"gro":2489,"zelfde":2490,"Ġms":2491,"Ġ27":2492,"inig":2493,"Ġnormaal":2494,"icardiale":2495,"gaande":2496,"Ġjong":2497,"Ġbre":2498,"Ġwaarschijnlijk":2499,"Ġkanker":2500,"Op":2501,"Ġgeleid":2502,"isering":2503,"wer":2504,"Ġ+":2505,"oring":2506,"Ġverst":2507,"Ġgericht":2508,"Ġtoegediend":2509,"Ġto":2510,"Ġons":2511,"liggende":2512,"Ġvertra":2513,"lies":2514,"otype":2515,"Ġatriale":2516,"Ġbeschreven":2517,"aritm":2518,"Ġherzien":2519,"AA":2520,"atiÃ«nt":2521,"Ġzes":2522,"Ġperif":2523,"lang":2524,"tern":2525,"vatten":2526,"ivariate":2527,"Ġindic":2528,"Ġondersteun":2529,"Ġverbeterde":2530,"Ġfase":2531,"kelijke":2532,"Ġweer":2533,"az":2534,"Ġpostoperatieve":2535,"Ġalgemeen":2536,"23":2537,"Ġven":2538,"Ġkransslagaderziekte":2539,"spiegel":2540,"Ġelektro":2541,"Ġfo":2542,"%;":2543,"Ġsele":2544,"Ġsnelle":2545,"ĠCAD":2546,"Ġbypass":2547,"04":2548,"genese":2549,"ĠIII":2550,"anneer":2551,"Ġklasse":2552,"andom":2553,"ragen":2554,"Ġvolume":2555,"Ġantist":2556,"Ġangio":2557,"iner":2558,"Ġmechanisme":2559,"Ġseg":2560,"ndanks":2561,"lan":2562,"zym":2563,"Ġcorrelatie":2564,"ratie":2565,"zoeken":2566,"Ġml":2567,"waarde":2568,"expressie":2569,"Ġopge":2570,"dilat":2571,"80":2572,"bel":2573,"ablatie":2574,"pt":2575,"Ġoptreden":2576,"Ġtonen":2577,"ĠBMI":2578,"Ġdieet":2579,"Ġpolymorph":2580,"teerde":2581,"ĠHR":2582,"Ġwerkzaamheid":2583,"--------------------------------":2584,"cle":2585,"wijzingen":2586,"lijnen":2587,"Ġrecht":2588,"Ġlipide":2589,"lipidemie":2590,"Ġhel":2591,"PC":2592,"gd":2593,"Ġbenader":2594,"Ġepisodes":2595,"Ġtoon":2596,"ĠHoewel":2597,"gramma":2598,"Ġregionale":2599,"Ġsh":2600,"Wij":2601,"ĠHF":2602,"Ġprognose":2603,"Ġsug":2604,"OS":2605,"Ġkosten":2606,"Ġvolgende":2607,"Ġsuccesvol":2608,"ĠQRS":2609,"Ġslagader":2610,"Ġblijk":2611,"ines":2612,"oef":2613,"Ġgenen":2614,"Ġgebru":2615,"omycomycomycomyc":2616,"Ġbra":2617,"gebruik":2618,"Ġverandering":2619,"ouwd":2620,"Ġfys":2621,"spec":2622,"60":2623,"ĠVan":2624,"olisme":2625,"Ġgeregist":2626,"Ġeerdere":2627,"Ġproble":2628,"air":2629,"vasculaire":2630,"aand":2631,"ieerde":2632,"Ġstabiele":2633,"Ġaanpassing":2634,"Ġinfectie":2635,"Ġomvatten":2636,"ĠAmer":2637,"ES":2638,"Ġlater":2639,"ĠgeÃ¯soleerde":2640,"chte":2641,"orter":2642,"22":2643,"order":2644,"Ġget":2645,"Ġinfarct":2646,"urele":2647,"atig":2648,"Ġhoewel":2649,"Ġcyt":2650,"Ġlangdurige":2651,"Ġverd":2652,"ĠDCM":2653,"Ġprakt":2654,"gif":2655,"Ġatriov":2656,"raag":2657,"beeld":2658,"adren":2659,"ust":2660,"Ġverwijd":2661,"dood":2662,"ologisch":2663,"Dit":2664,"Ġstatist":2665,"Ġhulp":2666,"vi":2667,"olol":2668,"digheden":2669,"Ġzwangerschap":2670,"ulmon":2671,"Ġniveau":2672,"Ġlijkt":2673,"Ġbevolking":2674,"ĠCK":2675,"Ġtij":2676,"anen":2677,"stat":2678,"Ġdec":2679,").\"":2680,"AS":2681,"sproken":2682,"Ġopt":2683,"Ġeigenschappen":2684,"oratorium":2685,"Ġonbe":2686,"Ġaanwijzingen":2687,"Ġsystemische":2688,"CE":2689,"ĠGe":2690,"Ġspier":2691,"ofd":2692,"Ġmedi":2693,"Ġkleine":2694,"Ġvoeding":2695,"Ġadem":2696,"omt":2697,"duur":2698,"Ġkort":2699,"kanaal":2700,"ondri":2701,"elt":2702,"opsie":2703,"Na":2704,"BG":2705,"remmers":2706,"ĠHeart":2707,"ĠMI":2708,"Ġterugk":2709,"Ġrevascular":2710,"ochondri":2711,"Ġblok":2712,"Ġhom":2713,"RNA":2714,"arker":2715,"Ġgeregistreerd":2716,"Ġocclusie":2717,"Ġsecundaire":2718,"fect":2719,"Ġdefin":2720,"form":2721,"Ġdif":2722,"Ġovereen":2723,"ĠHg":2724,"Ġplaqu":2725,"duidelijk":2726,"Ġgemeen":2727,"Ġdubb":2728,"Ġblijkt":2729,"segment":2730,"Ġsommige":2731,"Ġcontinu":2732,"Ġfysieke":2733,"man":2734,"DM":2735,"Ġvoort":2736,"tensine":2737,"Ver":2738,"cor":2739,"ma":2740,"Ġingedeeld":2741,"21":2742,"chtere":2743,"Ġweinig":2744,"Ġ29":2745,"ombine":2746,"Ġ31":2747,"ieren":2748,"atale":2749,"Ġkans":2750,"irine":2751,"Ġnatri":2752,"gelen":2753,"Ġ65":2754,"orf":2755,"Ġontwikkelde":2756,"Ġpotentie":2757,"Ġmitralis":2758,"Ġverzam":2759,"zy":2760,"Ġprocedure":2761,"Ġontwikkelen":2762,"gegevens":2763,"urs":2764,"asting":2765,"ergie":2766,"ulering":2767,"Ġveiligheid":2768,"staan":2769,"fficiÃ«ntie":2770,"zakelijk":2771,"Ġkransslagaders":2772,"Ġstrategie":2773,"ĠCa":2774,"Ġcent":2775,"voudige":2776,"roon":2777,"Ġherh":2778,"ler":2779,"keurige":2780,"Ġ70":2781,"iciteit":2782,"Ġnam":2783,"Ġartikel":2784,"Ġlicham":2785,"Ġdoodsoor":2786,"istent":2787,"inine":2788,"Ġmensel":2789,"Ġmaat":2790,"Ġ36":2791,"opathische":2792,"Ġfibril":2793,"Ġhypertensieve":2794,"langs":2795,"cre":2796,"Ġtach":2797,"Ġ48":2798,"ieten":2799,"Ġsyn":2800,"Ġbeschouwd":2801,"Ġomvat":2802,"intig":2803,"Ġsla":2804,"ret":2805,"Ġcardiover":2806,"Ġimmun":2807,"75":2808,"Ġrecente":2809,"inen":2810,"stige":2811,"Ġder":2812,"erbare":2813,"ores":2814,"Ġangiografie":2815,"Ġontwikkeld":2816,"standigheden":2817,"Ġperi":2818,"omie":2819,"kening":2820,"Ġ90":2821,"zicht":2822,"ulmonale":2823,"Ġonderliggende":2824,"35":2825,"Ġwanneer":2826,"pol":2827,"Ġvolledig":2828,"Ġpercutane":2829,"Ġperifere":2830,"Ġaanzienlijk":2831,"Ġverhogen":2832,"-,":2833,"Ġdicht":2834,"Ġvaker":2835,"Ġmolec":2836,"ventionele":2837,"tachycardie":2838,"Ġneuro":2839,"maal":2840,"+)":2841,"Ġkomen":2842,"Ġprognostische":2843,"itieve":2844,"Ġoxid":2845,"zorg":2846,"Ġuitgebre":2847,"Ġcorrel":2848,"Ġademhal":2849,"Ġberekend":2850,"gelijke":2851,"Ġrust":2852,"Ġopsp":2853,"Ġmaximale":2854,"loten":2855,"uiten":2856,"no":2857,"Ġgecombine":2858,"spreiding":2859,"mpath":2860,"ĠÂ±":2861,"mature":2862,"ĠCA":2863,"paste":2864,"Ġstij":2865,"olische":2866,"fysiologische":2867,"vla":2868,"schil":2869,"Ġvitamine":2870,"Ġane":2871,"Ġcardiale":2872,"MT":2873,"rag":2874,"mut":2875,"Ġbeperk":2876,"Ġhypothese":2877,"Ġsugger":2878,"ĠTijdens":2879,"Ġverlen":2880,"PE":2881,"serv":2882,"Ġmatige":2883,"xt":2884,"Ġcar":2885,"ocyt":2886,"bum":2887,"28":2888,"26":2889,"Ġafhankel":2890,"MR":2891,"Ġ198":2892,"cijf":2893,"aban":2894,"Ġeindp":2895,"Ġidi":2896,"Ġvere":2897,"ocardocard":2898,"verw":2899,"Ġcongestief":2900,"Ġleeftijds":2901,"Ġkwaliteit":2902,"geÃ¯nduceerde":2903,"names":2904,"Ġbijwerk":2905,"but":2906,"Ġevenals":2907,"iseerd":2908,"Ġinspann":2909,"SD":2910,"Ġkg":2911,"Ġgediagnosticeerd":2912,"Ġjonge":2913,"Ġ80":2914,"ĠIV":2915,"Ġelektrische":2916,"ĠBP":2917,"urine":2918,"ction":2919,"Ġpiek":2920,"Ġabnormale":2921,"Ġtekenen":2922,"Ġtriglycer":2923,"Ġcol":2924,"Ġkracht":2925,"Ġprop":2926,"Ġpremature":2927,"Ġbeschrijven":2928,"genen":2929,"ĠĠĊ":2930,"99":2931,"ĠAr":2932,"land":2933,"Ġdil":2934,"ptie":2935,"mming":2936,"uk":2937,"Ġjaren":2938,"itu":2939,"rum":2940,"ameter":2941,"Ġpraktijk":2942,"Ġhartdood":2943,"klep":2944,"27":2945,"36":2946,"resultaten":2947,"receptor":2948,"Ġlaes":2949,"Ġmarkers":2950,"Ġkorte":2951,"Ġfamilie":2952,"ieuw":2953,"Ġstam":2954,"Ġverhouding":2955,"rug":2956,"Ġleidde":2957,"Ġpsych":2958,"Ġconventionele":2959,"Ġsupraventriculaire":2960,"Ġlieten":2961,"trans":2962,"cedures":2963,"MD":2964,"cellulaire":2965,"Ġachter":2966,"Ġblootstelling":2967,"Ġopz":2968,"arcten":2969,"sters":2970,"ĠCT":2971,"Ġmagn":2972,"ultaat":2973,"Ġeffectieve":2974,"(-":2975,"Ġspelen":2976,"Ġlate":2977,"eratie":2978,"ĠBe":2979,"unten":2980,"Ġdezelfde":2981,"Ġdieren":2982,"Ġvormen":2983,"ider":2984,"Ġlet":2985,"raat":2986,"adium":2987,"co":2988,"Ġintraveneuze":2989,"kamer":2990,"geschreven":2991,"Ġhartst":2992,"Ġwijst":2993,"Ġgebaseerd":2994,"Ġvoedings":2995,"70":2996,"Ġfibrillatie":2997,"38":2998,"oproteÃ¯nen":2999,"ĠCO":3000,"ĠAan":3001,"Ġmitochondri":3002,"ens":3003,"cy":3004,"aart":3005,"Ġliteratuur":3006,"Ġcel":3007,"Ġdoses":3008,"dition":3009,"ister":3010,"ĠproteÃ¯ne":3011,"Ġernstig":3012,"lut":3013,"Ġwillekeurig":3014,"Ġ75":3015,"Ġrelatieve":3016,"Ġmut":3017,"Ġnierf":3018,"Ġvariabelen":3019,"Ġplasma":3020,"Ġaspirine":3021,"neu":3022,"Ġverhoging":3023,"Ġsysteem":3024,"Ġasympt":3025,"Ġspont":3026,"29":3027,"itatie":3028,"Ġzelfs":3029,"Ġwil":3030,"Ġrespons":3031,"Ġassociaties":3032,"kun":3033,"Ġrichtlijnen":3034,"Ġbeeldvorming":3035,"enose":3036,"Ġkransslagaderziekten":3037,"Ġvergelijkbare":3038,"Ġstroom":3039,"trol":3040,"Ġhypo":3041,"entele":3042,"Ġbeperkt":3043,"45":3044,"Ġopzichte":3045,"Ġgrotere":3046,"lasm":3047,"stolisch":3048,"ĠIHD":3049,"voe":3050,"sloten":3051,"vloeden":3052,"Ġpept":3053,"Ġgemeenschap":3054,"Ġafwez":3055,"ational":3056,"Ġaanvul":3057,"pervla":3058,"Ġomvang":3059,"iken":3060,"entrale":3061,"Ġgevolge":3062,"Ġbijwerkingen":3063,"eng":3064,"cess":3065,"rijgen":3066,"Ġlab":3067,"Tn":3068,"Ġbeter":3069,"oxysm":3070,"ĠHIV":3071,"Ġ33":3072,"idemi":3073,"ĠDaarom":3074,"cardiogram":3075,"ifest":3076,"Ġx":3077,"Ġcre":3078,"Ġantistol":3079,"Ġzeld":3080,"sub":3081,"Ġsterfgevallen":3082,"inding":3083,"Ġzal":3084,"Ġbeschikbaar":3085,"bloed":3086,"uid":3087,"Ġ34":3088,"Ġcap":3089,"Ġwaarin":3090,"luit":3091,"linisch":3092,"regelen":3093,"Ġadip":3094,"Ġgaan":3095,"Ġvervolgens":3096,"Ġatherosclerotische":3097,"ras":3098,"gez":3099,"MA":3100,"iel":3101,"Ġrem":3102,"Ġvoordelen":3103,"Ġkwant":3104,"PatiÃ«nt":3105,"tes":3106,"Ġfosf":3107,"oplast":3108,"Ġkre":3109,"Ġdagelijk":3110,"VC":3111,"Ġafhankelijk":3112,"raan":3113,"pre":3114,"Ġbijdragen":3115,"Ġtrop":3116,"fibrillator":3117,"inet":3118,"aritmieÃ«n":3119,"Ġdoodsoorzaak":3120,"Ġ55":3121,"Ġkreeg":3122,"kla":3123,"Ġgeble":3124,"Ġbleef":3125,"eur":3126,"Ġtoene":3127,"Ġgeschiedenis":3128,"Ġ32":3129,"kw":3130,"spron":3131,"geboren":3132,"Ġbeheer":3133,"ior":3134,"urg":3135,"zel":3136,"Ġidiopathische":3137,"dl":3138,"ulerende":3139,"ysiologie":3140,"igde":3141,"Ġletsel":3142,"90":3143,"uun":3144,"Ġ37":3145,"Ġscre":3146,"Ġ38":3147,"Ġaden":3148,"ple":3149,"34":3150,"ric":3151,"Ġrelev":3152,"Ġvrouwelijke":3153,"Ġcentrale":3154,"Ġnuttig":3155,"Ġbestond":3156,"ocol":3157,"invasieve":3158,"Ġontstaan":3159,"Ġpotentieel":3160,"Ġstimulatie":3161,"Ġharttransplantatie":3162,"sufficiÃ«ntie":3163,"oppler":3164,"Ġinjectie":3165,"Ġbekende":3166,"Ġbeoordeling":3167,"Ġstop":3168,"Ġinb":3169,"tests":3170,"eerbare":3171,"Ġvis":3172,"active":3173,"eptoren":3174,"PS":3175,"ĠbeÃ¯nvloed":3176,"idine":3177,"vast":3178,"Ġval":3179,"Ġhep":3180,"cardiale":3181,"Ġafgif":3182,"Ġgeselect":3183,"Ġsinusritme":3184,"Ġcriteria":3185,"Ġfoet":3186,"erfte":3187,"vatting":3188,"Ġimplantatie":3189,"Ġonmiddel":3190,"Ġoefen":3191,"Ġomgek":3192,"Ġdiabetische":3193,"lering":3194,"urve":3195,"ĠCD":3196,"Ġdichtheid":3197,"slagader":3198,"Ġlig":3199,"udy":3200,"middelen":3201,"Ġanalyses":3202,"Ġoorspron":3203,"Hoewel":3204,"Ġlog":3205,"Ġafgifte":3206,"Ġhum":3207,"Ġvoorste":3208,"Ġhy":3209,"Ġgevolgen":3210,"oler":3211,"orten":3212,"Ġvergelijken":3213,"fiel":3214,"Ġbiom":3215,"Ġmis":3216,"Ġherziening":3217,"Ġpacem":3218,"Ġvermindert":3219,"alisatie":3220,"entiÃ«le":3221,"Ġechocardiografische":3222,"kemie":3223,"veel":3224,"Ġinname":3225,"uleren":3226,"type":3227,"Ġresultaat":3228,"eemt":3229,"Ġvoorspellers":3230,"ECG":3231,"cope":3232,"etermijn":3233,"Ġzen":3234,"uele":3235,"Ġvoorspeller":3236,"frequentie":3237,"Ġnierziekte":3238,"modellen":3239,"Ġglyc":3240,"PD":3241,"Ġweek":3242,"Ġspra":3243,"Ġhal":3244,"Ġgeleiding":3245,"Ġdirecte":3246,"ronen":3247,"33":3248,"tocol":3249,"Ġtoestand":3250,"reperfusie":3251,"Ġopen":3252,"digen":3253,"Ġlichamelijke":3254,"Ġonduidelijk":3255,"MS":3256,"aritmische":3257,"imaal":3258,"specifieke":3259,"Al":3260,"Ġfe":3261,"Ġtri":3262,"Ġcontinue":3263,"Ġpositief":3264,"CRP":3265,"Ġslaap":3266,"Ġwel":3267,"Ġhouden":3268,"atum":3269,"Ġbloedstroom":3270,"igen":3271,"Ġzenuw":3272,"Ġparoxysm":3273,"ĠbeÃ¯nvloeden":3274,"lanteerbare":3275,"bere":3276,"ĠAmerik":3277,"ublic":3278,"horac":3279,"ary":3280,"FA":3281,"ID":3282,"namedatum":3283,"Ġnoodzakelijk":3284,"Ġsprake":3285,"oglob":3286,"ector":3287,"Ġoperatieve":3288,"ĠUit":3289,"Ġeffectiviteit":3290,"Ġdaarvan":3291,"dre":3292,"iologie":3293,"tri":3294,"Ġvo":3295,"ĠIL":3296,"spit":3297,"65":3298,"AR":3299,"Ġbio":3300,"rg":3301,"Ġverzameld":3302,"otherapie":3303,"rope":3304,"stenose":3305,"Ġoxidatieve":3306,"ĠÃİ":3307,"Ġwijten":3308,"oment":3309,"Ġstatus":3310,"Ġnauwkeurig":3311,"BNP":3312,"Ġaltern":3313,"ĠPCI":3314,"73":3315,"Ġgebleken":3316,"antwoor":3317,"44":3318,"Ġlu":3319,"Ġ%":3320,"aterale":3321,"Ġgraad":3322,"termin":3323,"Ġmmol":3324,"Ġderde":3325,"oxiciteit":3326,"lit":3327,"ineres":3328,"Ġantistolling":3329,"Ġverdeeld":3330,"Ġrisic":3331,"Ġbehandelingen":3332,"NF":3333,"Ġverwijding":3334,"ĠPro":3335,"Ġmoment":3336,"Ġziekenhuisopname":3337,"Ġtijdelijke":3338,"Ġtachy":3339,"metho":3340,"Voor":3341,"agde":3342,"itro":3343,"Ġpathogenese":3344,"Ġbereikt":3345,"undel":3346,"onderzoeken":3347,"merk":3348,"orie":3349,"ndro":3350,"umptie":3351,"Ġlichte":3352,"vastatine":3353,"ED":3354,"Ġmetingen":3355,"Ġlopen":3356,"uus":3357,"doende":3358,"organ":3359,"Ġobstructieve":3360,"ats":3361,"dimen":3362,"Ġstijging":3363,"ilt":3364,"Ġlok":3365,"Ġartsen":3366,"Ġverdere":3367,"STE":3368,"Ġbevestigd":3369,"tenis":3370,"Ġtransplantatie":3371,"kanker":3372,"omat":3373,"gaand":3374,"concentratie":3375,"Ġmultivariate":3376,"Ġlaboratorium":3377,"itatieve":3378,"Ġbestaande":3379,"Ġinteractie":3380,"Ġsnelheid":3381,"teel":3382,"Ġretro":3383,"Ġontde":3384,"waking":3385,"opau":3386,"ichaam":3387,"Ġaute":3388,"Ġrest":3389,"43":3390,"Ġgeven":3391,"ineresistentie":3392,"ĠOnder":3393,"LA":3394,"Ġtests":3395,"eff":3396,"Ġhoeveel":3397,"LDL":3398,"Ġangiotensine":3399,"itme":3400,"ilstand":3401,"da":3402,"irus":3403,"alth":3404,"ĠNe":3405,"Ġtroponine":3406,"zetting":3407,"Ġbenadering":3408,"Ġpulmonale":3409,"Ġregio":3410,"sterfte":3411,"Ġond":3412,"ĠVeren":3413,"enten":3414,"':":3415,"66":3416,"77":3417,"ans":3418,"Ġgegeven":3419,"Ġafwezigheid":3420,"pac":3421,"Ġcru":3422,"Ġondersch":3423,"yclus":3424,"Ġstructurele":3425,"anu":3426,"Ġsignaal":3427,"inde":3428,"ellingen":3429,"\"\"":3430,"Ġ39":3431,"Ġinbeg":3432,"Ġwereld":3433,"ogrel":3434,"Ġomstandigheden":3435,"yst":3436,"atoren":3437,"ocyste":3438,"aort":3439,"aritmica":3440,"Ġgecontroleerde":3441,"Ġgehele":3442,"Ġondanks":3443,"Ġherhaalde":3444,"olter":3445,"Ġschade":3446,"48":3447,"iss":3448,"Ġimplanteerbare":3449,"Ġgunstige":3450,"instru":3451,"eiwit":3452,"nelheid":3453,"ĠCKD":3454,"Ġbrad":3455,"idogrel":3456,"BB":3457,"Ġdergelijke":3458,"volen":3459,"Ġblijven":3460,"imp":3461,"Ġvi":3462,"ĠRe":3463,"kort":3464,"Ġspontane":3465,"odar":3466,"Ġstatistisch":3467,"cties":3468,"Ġsympath":3469,"anuari":3470,"digd":3471,"Ġgehalte":3472,"modi":3473,"ĠHart":3474,"acro":3475,"Ġenergie":3476,"Ġroute":3477,"ilijk":3478,"polar":3479,"Ġregel":3480,"ĠSD":3481,"Ġrelatief":3482,"ou":3483,"ĠRV":3484,"Ġaangeboren":3485,"Ġgebaseerde":3486,"Ġlucht":3487,"modellering":3488,"Ġmid":3489,"Ġtoepassing":3490,"Ġste":3491,"sver":3492,"AV":3493,"],":3494,"olip":3495,"Ġzouden":3496,"Ġaanbevolen":3497,"Ġdyslipidemie":3498,"ĠPC":3499,"Ġbew":3500,"uret":3501,"37":3502,"houd":3503,"55":3504,"ders":3505,"ime":3506,"Ġslechte":3507,"disfunctie":3508,"Ġinbegrip":3509,"rijk":3510,"lopidogrel":3511,"Ġduidelijke":3512,"dicatie":3513,"ACE":3514,"ege":3515,"urie":3516,"Ġvertonen":3517,"ĠCRP":3518,"urysm":3519,"uli":3520,"ereb":3521,"Ġsyndro":3522,"Ġexperimentele":3523,"Ġzeldzame":3524,"metab":3525,"Tijdens":3526,"Ġmass":3527,"arf":3528,"insufficiÃ«ntie":3529,"Ġgezien":3530,"ikelijke":3531,"ĠZo":3532,"Ġgebeur":3533,"olerantie":3534,"miodar":3535,"Ġjanuari":3536,"tjes":3537,"hesie":3538,"Ġonbekend":3539,"Ġscreening":3540,"BI":3541,"Ġvoorafgaand":3542,"app":3543,"Ġexpressie":3544,"Ġth":3545,"Ġepidemi":3546,"Ġmoleculaire":3547,"Ġshock":3548,"Ġselectieve":3549,"64":3550,"hoog":3551,"lar":3552,"Ġbehandelings":3553,"Ġresul":3554,"Ġradiof":3555,"ay":3556,"loss":3557,"eling":3558,"weging":3559,"Ġrevascularisatie":3560,"Ġvoorspellende":3561,"ical":3562,"ĠY":3563,"Ġverspreiding":3564,"gestelde":3565,"Ġmeestal":3566,"Ġdete":3567,"lass":3568,"31":3569,"Ġmechanische":3570,"alfa":3571,"gebonden":3572,"beerd":3573,"rofie":3574,"Ġhartstilstand":3575,"Ġmyocarditis":3576,"Ġauteurs":3577,"Ġwillekeurige":3578,"Ġult":3579,"paraat":3580,"Ġlangetermijn":3581,"()":3582,"Ġepicardiale":3583,"dimens":3584,"Ġinstabiele":3585,"Ġverder":3586,"spectie":3587,"Ġstoffen":3588,"Ġtoegepast":3589,"Ġpresentatie":3590,"niveau":3591,"Ġdaarop":3592,"otyp":3593,"stij":3594,"Ġess":3595,"let":3596,"Ġgeschik":3597,"diast":3598,"Ġbloeden":3599,"Ġscores":3600,"Ġhypotensie":3601,"pat":3602,"Ġvermogen":3603,"Ġsyncope":3604,"Ġkwam":3605,"Ġgeprobeerd":3606,"rale":3607,"Ġconsistent":3608,"Ġmarker":3609,"Ġacht":3610,"Ġ42":3611,"Ġsterftecijf":3612,"Ġcomplexe":3613,"Ġclopidogrel":3614,"39":3615,"CP":3616,"Ġapopt":3617,"Ġtren":3618,"fibrilleren":3619,"Ġloop":3620,"Ġprogressieve":3621,"Ġmeten":3622,"Ġsoor":3623,"ferentie":3624,"ĠHealth":3625,"afwijkingen":3626,"Ġdilat":3627,"RR":3628,"av":3629,"MB":3630,"Ġspeel":3631,"antagon":3632,"Ġveneuze":3633,"Ġafgele":3634,"fen":3635,"ĠATP":3636,"ĠX":3637,"veranderingen":3638,"Ġdien":3639,"Ġgenomen":3640,"Ġverwijde":3641,"Ġverbeterd":3642,"Ġschat":3643,"CAD":3644,"spect":3645,"Ġreceptor":3646,"ĠCox":3647,"mine":3648,"74":3649,"Ġbundel":3650,"utine":3651,"Ġischemic":3652,"Ġobserv":3653,"strategie":3654,"diabetes":3655,"Ġeffectief":3656,"emie":3657,"Ġmorf":3658,"Ġhartritme":3659,"Ġgebracht":3660,"hydro":3661,"Ġgepublic":3662,"orale":3663,"Ġstier":3664,"chocardiografie":3665,"even":3666,"laire":3667,"32":3668,"ĠAf":3669,"status":3670,"Ġcellulaire":3671,"Ġkomt":3672,"Ġlanden":3673,"orpen":3674,"Ġgaat":3675,"Ġvaso":3676,"Ġstierven":3677,"ĠLVEF":3678,"Ġinsulineresistentie":3679,"Ġsterke":3680,"Ġhoogste":3681,"Ġbepaalde":3682,"klinisch":3683,"Ġindividuele":3684,"Ġhypox":3685,"Ġtoekomstige":3686,"Ġzeven":3687,"allon":3688,"kens":3689,"Ġreacties":3690,"Ġcardioverter":3691,"Ġgebeurtenis":3692,"Ġonderdruk":3693,"Ġgeschat":3694,"Ġactieve":3695,"Ġfarmacologische":3696,"houding":3697,"ĠEu":3698,"Ġhoofd":3699,"Ġdem":3700,"Ġaanvullende":3701,"matig":3702,"Ġoptimale":3703,"oÃ¯de":3704,"Ġgebruikten":3705,"ablok":3706,"Ġasymptomatische":3707,"Ġidentificatie":3708,"populatie":3709,"79":3710,"wintig":3711,"irurg":3712,"esit":3713,"eks":3714,"Ġreson":3715,"Ġspeelt":3716,"100":3717,"Ġstaat":3718,"68":3719,"omenteel":3720,"ociale":3721,"ject":3722,"inflamm":3723,"namelijk":3724,"Ġkin":3725,"techn":3726,"Ġauton":3727,"78":3728,"miodaron":3729,"Ġvoornamelijk":3730,"Ġgecombineerde":3731,"Datum":3732,"Ġvragen":3733,"Ġbesproken":3734,"Ġfibrose":3735,"Ġetiologie":3736,"HDL":3737,"massa":3738,"opul":3739,"Ġtoont":3740,"transplant":3741,"Ġmenselijke":3742,"infarcten":3743,"Ġdialyse":3744,"Ġbron":3745,"Ġkennis":3746,"erie":3747,"matische":3748,"iaire":3749,"Ġ64":3750,"usp":3751,"uter":3752,"zij":3753,"YHA":3754,"pelijke":3755,"Ġhorm":3756,"Ġdier":3757,"roph":3758,"md":3759,"atific":3760,"Ġprest":3761,"grade":3762,"nieuw":3763,"chron":3764,"ĠMe":3765,"Ġbete":3766,"Ġ44":3767,"Ġpoly":3768,"ditionele":3769,"ratio":3770,"Ġverantwoor":3771,"Ġkaart":3772,"Ġ46":3773,"Ġterugkerende":3774,"onale":3775,"Ġdysp":3776,"inden":3777,"Ġhij":3778,"ĠAMI":3779,"positie":3780,"oglobine":3781,"Ġlipiden":3782,"zi":3783,"iging":3784,"gebied":3785,"Ġdurende":3786,"omyomyomyomyomyomyomyomy":3787,"Ġaangepaste":3788,"esitas":3789,"Ġovergewicht":3790,"smiddel":3791,"fosf":3792,"Ġbehandelde":3793,"Ġmediane":3794,"velingen":3795,"olesterole":3796,"oster":3797,"Opnamedatum":3798,"Ġta":3799,"ullen":3800,"ationale":3801,"ism":3802,"ĠPV":3803,"log":3804,"Ġmogelijkheid":3805,"dimensionale":3806,"bi":3807,"lecht":3808,"rik":3809,"57":3810,"Ġbepaling":3811,"mol":3812,"ocardiocardiocardiocardiocardiocardiocardiocardiocardiocardiocardiocardiocardiocardiocardiocardi":3813,"Ġurine":3814,"Ġbedo":3815,"ocumente":3816,"ejectiefractie":3817,"Ġimmuun":3818,"88":3819,"Ġbil":3820,"press":3821,"Ġtemp":3822,"Ġtyp":3823,"ĠED":3824,"Ġtraditionele":3825,"Ġinterventies":3826,"resen":3827,"Ġproce":3828,"Ġatriumfibrilleren":3829,"fract":3830,"Ġeindpunt":3831,"achtige":3832,"ain":3833,"Ġmaand":3834,"................":3835,"ĠDia":3836,"Ġbeats":3837,"Ġroutine":3838,"stellen":3839,"Be":3840,"41":3841,"Ġlinks":3842,"Ġtechniek":3843,"arfarine":3844,"Ġret":3845,"Ġprofiel":3846,"Ondanks":3847,"aliseerde":3848,"Ġvrije":3849,"Ġaangepast":3850,"69":3851,"Ġmodellen":3852,"Ġvolledige":3853,"Ġpg":3854,"Ġgeme":3855,"Ġstatines":3856,"Ġblootgesteld":3857,"Ġbijzonder":3858,"atinine":3859,"icale":3860,"urysma":3861,"Ġafge":3862,"Ġautonome":3863,"Ġblan":3864,"Ġverantwoordelijk":3865,"RA":3866,"Ġtoenemende":3867,"slagen":3868,"dens":3869,"Ġline":3870,"Ġgepresen":3871,"ĠAssoci":3872,"ĠNaam":3873,"amenvatting":3874,"Ġsegment":3875,"teg":3876,"ecrose":3877,"eden":3878,"wand":3879,"je":3880,"pervlakte":3881,"Ġng":3882,"Ġ41":3883,"Ġherhal":3884,"licatie":3885,"Ġmitralisklep":3886,"Ġuitgebreide":3887,"72":3888,"ICD":3889,"Uit":3890,"Ġpathologische":3891,"Ġcm":3892,"erend":3893,"econ":3894,"ĠCor":3895,"Ġpector":3896,"ĠHolter":3897,"rond":3898,"Ġoverleven":3899,"Ġseptale":3900,"iver":3901,"stre":3902,"Ġkrijgen":3903,"Ġmitochondriale":3904,"Ġtriglyceriden":3905,"int":3906,"Ġaanvan":3907,"ĠJap":3908,"ĠAR":3909,"Ġcontract":3910,"Ġmaakt":3911,"ificiteit":3912,"Ġverhoogt":3913,"ĠAssociation":3914,"dieerde":3915,"lykemie":3916,"sluit":3917,"Ġgedrag":3918,"omografie":3919,"Ġmicrogram":3920,"Ġamiodaron":3921,"85":3922,"mit":3923,"Ġvertoon":3924,"Ġnegatief":3925,"Ġ49":3926,"kings":3927,"Ġgroei":3928,"ĠCar":3929,"Ġpectoris":3930,"risicofactoren":3931,"criteria":3932,"Ġalfa":3933,"ĠMy":3934,"Ġgekopp":3935,"Ġmaatregelen":3936,"operatief":3937,"orteren":3938,"Ġdiffer":3939,"Ġgecon":3940,"Ġdocum":3941,"line":3942,"Ġenzym":3943,"Ġgroe":3944,"PO":3945,"Ġvererg":3946,"Ġbestaat":3947,"Ġpeptide":3948,"Ġ43":3949,"Ġhaar":3950,"Ġgewijz":3951,"kenis":3952,"komt":3953,"Ġbetekenis":3954,"DCM":3955,"Ġsubst":3956,"Ġgelijktijdige":3957,"Ġlaesies":3958,"Ġwie":3959,"ĠAD":3960,"Ġkwamen":3961,"eringen":3962,"Ġademhalings":3963,"67":3964,"alys":3965,"igh":3966,"rect":3967,"Ġrechts":3968,"lossing":3969,"som":3970,"Ġmacro":3971,"'-'-'-'-'-'-'-'-'-'-'-'-'-'-'-'-":3972,"SE":3973,"Ġbiologische":3974,"Ġkrit":3975,"Ġscha":3976,"Ġrandom":3977,"oxid":3978,"Ġgedocumente":3979,"bumine":3980,"PI":3981,"VF":3982,"Ġoest":3983,"Ġsuccesvolle":3984,"aline":3985,"Ġvoorgesteld":3986,"Ġ-)":3987,"inflammatoire":3988,"Ġvoordeel":3989,"Ġverschillend":3990,"Ġkrans":3991,"engte":3992,"ross":3993,"Ġcereb":3994,"ĠgeÃ¯mp":3995,"Ġfra":3996,"42":3997,"yn":3998,"entrant":3999,"hypertro":4000,"omycine":4001,"Ġfor":4002,"osom":4003,"dacht":4004,"49":4005,"Ġcum":4006,"istente":4007,"''":4008,"igd":4009,"dragen":4010,"ile":4011,"erior":4012,"200":4013,"Ġeinde":4014,"Ġtransplant":4015,"ĠDoppler":4016,"cho":4017,"rogeen":4018,"oca":4019,"Ġrapporteren":4020,"ĠHier":4021,"zuren":4022,"ĠEchter":4023,"Ġnatrium":4024,"Ġemb":4025,"mpel":4026,"flex":4027,"wonden":4028,"laging":4029,"duct":4030,"spatiÃ«nten":4031,"umor":4032,"voudig":4033,"atech":4034,"yle":4035,"aaaa":4036,"Ġ59":4037,"oscop":4038,"agd":4039,"Ġsyndromen":4040,"Ġ58":4041,"beta":4042,"Ġorale":4043,"Ġdagelijkse":4044,"defibrillator":4045,"cholesterole":4046,"Ġsymptomatische":4047,"Ġreductie":4048,"Ġverslecht":4049,"Ġbedoeld":4050,"Ġort":4051,"Ġgoede":4052,"TS":4053,"ificatie":4054,"Ġglob":4055,"off":4056,"ecente":4057,"Ġberoertes":4058,"Ġcardioprote":4059,"Ġgepresenteerd":4060,"Ġomvatte":4061,"aciteit":4062,"arak":4063,"stim":4064,"ĠMR":4065,"Ġverla":4066,"Ġwit":4067,"Ġopnieuw":4068,"ĠSp":4069,"yr":4070,"Ġaandacht":4071,"Ġelectrofysiologische":4072,"Ġfibrin":4073,"Ġhist":4074,"arakter":4075,"blemen":4076,"76":4077,"SR":4078,"Ġervar":4079,"Ġdocument":4080,"pm":4081,"Ġfalen":4082,"Ġgekoppeld":4083,"abil":4084,"nth":4085,"kelet":4086,"Ġverzwak":4087,"Ġ56":4088,"Ġplaatsen":4089,"ĠArts":4090,"gt":4091,"Ġbehandelen":4092,"stit":4093,"CC":4094,"Ġbieden":4095,"III":4096,"butamine":4097,"gelopen":4098,"Ġspecificiteit":4099,"Ġziekenhuizen":4100,"olyt":4101,"sslagader":4102,"Ġmal":4103,"Ġgeboor":4104,"Ġdiabete":4105,"acon":4106,"Ġ52":4107,"Ġgestart":4108,"akkelijk":4109,"tegen":4110,"Ġflu":4111,"Ġaccess":4112,"dom":4113,"Ġmemb":4114,"Onder":4115,"Ġuitkomst":4116,"Ġuitgesloten":4117,"rengen":4118,"Ġhoeveelheid":4119,"medi":4120,"Ġnierfunctie":4121,"Ġpresenteren":4122,"lipoproteÃ¯ne":4123,"HCM":4124,"inds":4125,"harten":4126,"Ġdaalde":4127,"agas":4128,"Ġtesten":4129,"Ġdisc":4130,"tak":4131,"erkamer":4132,"abiliteit":4133,"gor":4134,"Ġtransc":4135,"ĠStudy":4136,"Ã¢":4137,"Ġmanifest":4138,"otte":4139,"gelaten":4140,"ĠCP":4141,"Ġpathof":4142,"Ġproductie":4143,"ationele":4144,"Ġlengte":4145,"ĠVerenigde":4146,"ĠNO":4147,"raal":4148,"Ġvroege":4149,"Ġgemiddel":4150,"Ġverl":4151,"Ġbescherming":4152,"sper":4153,"Ġmoeilijk":4154,"Ġwarfarine":4155,"59":4156,"enn":4157,"def":4158,"Ġhumane":4159,"Ġbestudeerd":4160,"ĠgeÃ¯mplante":4161,"Ġonvol":4162,"Ġpatroon":4163,"metabolisme":4164,"hypertrofie":4165,"max":4166,"tijdig":4167,"ĠNational":4168,"Ġoverd":4169,"ĠStaten":4170,"Ġprocent":4171,"anim":4172,"Ġlinkerkamer":4173,"Ġneer":4174,"Ġgecontroleerd":4175,"Ġmod":4176,"anse":4177,"ĠCV":4178,"ife":4179,"ĠOndanks":4180,"nit":4181,"Ġcom":4182,"Ġ54":4183,"Ġbiomarkers":4184,"ember":4185,"Ġresonantie":4186,"Dia":4187,"uiste":4188,"text":4189,"Ġcontrol":4190,"Ġtrombo":4191,"Ġafkomst":4192,"Ġontwikkelden":4193,"hyl":4194,"derd":4195,"Ġgraden":4196,"bra":4197,"Ġtrombose":4198,"Ġmelden":4199,"aald":4200,"Ġ72":4201,"Ġpacemaker":4202,"Ġplaque":4203,"iderende":4204,"lijn":4205,"ĠPA":4206,"lijst":4207,"vrij":4208,"Ã¯de":4209,"Ġbu":4210,"bewaking":4211,"Ġdubbel":4212,"Ġenige":4213,"Ġ53":4214,"CO":4215,"Ġafgelopen":4216,"Ġ47":4217,"struct":4218,"phy":4219,"Ġveilig":4220,"Ġhartritmestoornissen":4221,"Ġanat":4222,"Ġverlies":4223,"ikstof":4224,"09":4225,"opnames":4226,"maat":4227,"gew":4228,"Ġondersteuning":4229,"ĠSy":4230,"uleerd":4231,"Ġactie":4232,"Ġsegmenten":4233,"smet":4234,"leg":4235,"Ġconc":4236,"Ġprocedures":4237,"63":4238,"interventie":4239,"alie":4240,"201":4241,"Ġlicht":4242,"ropath":4243,"otis":4244,"utie":4245,"ET":4246,"89":4247,"iatie":4248,"issel":4249,"Ġhypercholesterole":4250,"Ġsuper":4251,"Ġtegenstelling":4252,"niveaus":4253,"ĠACE":4254,"ĠAn":4255,"stest":4256,"gezond":4257,"Ġechocardiogram":4258,"ood":4259,"Ġontslag":4260,"itud":4261,"opische":4262,"Ġdecember":4263,"Ġhomocyste":4264,"scop":4265,"Ġdig":4266,"Ġkonijn":4267,"Ġkwantitatieve":4268,"tegenwoor":4269,"Ġopsporing":4270,"Ġinterval":4271,"ĠcontrolepatiÃ«nten":4272,"ĠstrategieÃ«n":4273,"Ġadenosine":4274,"osteron":4275,"Ġjuiste":4276,"Onze":4277,"Ġproblemen":4278,"62":4279,"reft":4280,"schillende":4281,"PECT":4282,"Ġmeld":4283,"Ġtric":4284,"ucle":4285,"inese":4286,"Ġbijna":4287,"Ġproces":4288,"Ġgedeelt":4289,"omycomycomycomycomycomycomycomyc":4290,"vings":4291,"aliseerd":4292,"ometrische":4293,"metingen":4294,"Ġnucle":4295,"Ġoefeningen":4296,"kpro":4297,"iz":4298,"methode":4299,"Ġtoegelaten":4300,"ĠRA":4301,"ĠdiabetespatiÃ«nten":4302,"Ġgebrek":4303,"uitgang":4304,"mbul":4305,"NT":4306,"pers":4307,"Ġstikstof":4308,"mot":4309,"complex":4310,"47":4311,"Ġmens":4312,"tische":4313,"sol":4314,"graad":4315,"aorta":4316,"heel":4317,"58":4318,"Ġinduc":4319,"Ġnuchtere":4320,"Ġsuggereert":4321,"Ġparoxysmale":4322,"Ġprobleem":4323,"Ġonmiddellijk":4324,"stadium":4325,"Ġnet":4326,"Ġbeschermende":4327,"Ġverbetert":4328,"Ġbeschikbare":4329,"Ġ57":4330,"wegen":4331,"Ġklein":4332,"ix":4333,"etten":4334,"RF":4335,"Ġoraal":4336,"ablokkers":4337,"anden":4338,"ĠMS":4339,"atechola":4340,"Ġafname":4341,"Ġvanaf":4342,"igende":4343,"iva":4344,"08":4345,"Ġbeperkte":4346,"%-":4347,"Ġtaille":4348,"Ġregister":4349,"Ġapoptose":4350,"ial":4351,"Ġdubbele":4352,"Ġdus":4353,"Ġpreoperatieve":4354,"pacing":4355,"Ġgeboorte":4356,"Ġ62":4357,"Ġangioplast":4358,"chemische":4359,"Ġsoc":4360,"bereik":4361,"Ġkonden":4362,"Ġgebruikelijke":4363,"gezet":4364,"Ġbuiten":4365,"Ġbiopsie":4366,"Ġbreed":4367,"Ġbradycardie":4368,"Ġprestaties":4369,"Ġgeeft":4370,"Ġaanzienlijke":4371,"Ġrat":4372,"aging":4373,"Ġ63":4374,"muizen":4375,"Ġpersoon":4376,"Ġbetrokkenheid":4377,"Ġtrend":4378,"Ġgemiddeld":4379,"ĠtachyaritmieÃ«n":4380,"Ġdobutamine":4381,"dds":4382,"Ġverlagen":4383,"urgitatie":4384,"analyses":4385,"weefsel":4386,"ivers":4387,"angi":4388,"Ġreferentie":4389,"upperiode":4390,"imm":4391,"informatie":4392,"Ġglobale":4393,"Ġmethoden":4394,"Pro":4395,"Ġhelpen":4396,"Ġkal":4397,"verhouding":4398,"oxine":4399,"ropathie":4400,"56":4401,"stri":4402,"ocaÃ¯ne":4403,"sequ":4404,"Ġmaal":4405,"Ġdilatatie":4406,"ĠTwee":4407,"LD":4408,"71":4409,"sec":4410,"percentage":4411,"hyre":4412,"verm":4413,"Ġgezondheidszorg":4414,"Ġdist":4415,"Ġvereist":4416,"Ġbetere":4417,"irurgische":4418,"Ġverdeling":4419,"ĠCon":4420,"ĠEx":4421,"prote":4422,"kru":4423,"Ġrefract":4424,"Ġall":4425,"Ġ51":4426,"Ġaccessoire":4427,"Ġdiameter":4428,"wen":4429,"yla":4430,"lif":4431,"ymf":4432,"Ġpresen":4433,"Ġplus":4434,"cel":4435,"Ġantihyper":4436,"46":4437,"po":4438,"keur":4439,"neum":4440,"Ġhalsslagader":4441,"nische":4442,"ork":4443,"Ġfysiologische":4444,"myc":4445,"ĠGeen":4446,"onie":4447,"Ġstenose":4448,"Ġmic":4449,"zyg":4450,"Ġlogist":4451,"98":4452,"Ge":4453,"spra":4454,"belasting":4455,"Tran":4456,"Met":4457,"Ġheter":4458,"Ġhartfrequentie":4459,"Ġsecundair":4460,"kproef":4461,"ĠMRI":4462,"Ġoorsprong":4463,"NO":4464,"Ġonlangs":4465,"Ġantib":4466,"ĠCABG":4467,"Ġzullen":4468,"Ġtoegewezen":4469,"Ġinvasieve":4470,"Ġoverw":4471,"06":4472,"Ġverdov":4473,"53":4474,"usc":4475,"Ġpostmen":4476,"cer":4477,"Ġintens":4478,"Ġradiofrequentie":4479,"Ġlitte":4480,"Ġauto":4481,"cons":4482,"Ġbevor":4483,"Ġondersteunen":4484,"----------------------------------------------------------------":4485,"Ġhemodi":4486,"Ġrelevante":4487,"CV":4488,"Ġvervan":4489,"HO":4490,"Ontslags":4491,"Ġminste":4492,"Ġbevolkings":4493,"Ġindividuen":4494,"Ġsitu":4495,"Ġ61":4496,"uze":4497,"ĠDNA":4498,"Ġlokale":4499,"oog":4500,"Ġzout":4501,"gerelat":4502,"ĠVF":4503,"Ġdetectie":4504,"Ġindien":4505,"Ġgluc":4506,"NE":4507,"ĠAmerikaanse":4508,"lis":4509,"Ġhypert":4510,"Ġspect":4511,"Ġlichaams":4512,"):":4513,"Ġgast":4514,"TT":4515,"Ġvezel":4516,"ise":4517,"Ġverlaging":4518,"Ġclass":4519,"iedt":4520,"Ġventrikels":4521,"Ġslecht":4522,"ham":4523,"PV":4524,"uss":4525,"gezien":4526,"Ġfunction":4527,"ATP":4528,"Ġtechnieken":4529,"Ġster":4530,"Ġnoodzaak":4531,"Ġervaring":4532,"Ġhypercholesterolemie":4533,"tromb":4534,"Ġvorming":4535,"Ġverscheiden":4536,"uc":4537,"Ġdaarom":4538,"Ġcruc":4539,"Ġresulteerde":4540,"+-":4541,"bep":4542,"produc":4543,"Ġbiedt":4544,"Ġjongeren":4545,"Ġhaal":4546,"Ġcomplicatie":4547,"ategorie":4548,"Ã«in":4549,"oly":4550,"ĠAng":4551,"ors":4552,"valuatie":4553,"illaire":4554,"Ġbasale":4555,"Ġ120":4556,"blin":4557,"ĠCHD":4558,"Ġcontrast":4559,"Ġcytok":4560,"Ġverlenging":4561,"84":4562,"Ġann":4563,"54":4564,"Ġambul":4565,"gerichte":4566,"oÃ¯die":4567,"Ġomk":4568,"Ġpathofysiologie":4569,"lijf":4570,"Ġmetabolisme":4571,"Ġgeactive":4572,"apamil":4573,"Ġonderw":4574,"sens":4575,"gerelateerde":4576,"ĠBNP":4577,"Naam":4578,"snelheid":4579,"lutter":4580,"osit":4581,"Ġkenmerkende":4582,"Ġschatting":4583,"iseren":4584,"Ġdra":4585,"Ġnauwkeurigheid":4586,"Ġvoorgeschreven":4587,"ĠbeÃ«in":4588,"Ġgunstig":4589,"son":4590,"Ġbijdrage":4591,"stress":4592,"remmer":4593,"Ġfrom":4594,"zer":4595,"proBNP":4596,"frine":4597,"Ġtoelat":4598,"asis":4599,"Ġreeks":4600,"Ġstatine":4601,"Ġsep":4602,"Ġgebieden":4603,"Ġbereiken":4604,"polarisatie":4605,"Ġvoordat":4606,"roffen":4607,"Ġrekening":4608,"werkende":4609,"digde":4610,"96":4611,"vie":4612,"Ġkarakter":4613,"Ġveranderen":4614,"Ġsympathische":4615,"betes":4616,"Ġbestand":4617,"hospit":4618,"cardiografisch":4619,"blokkers":4620,"Ġhydro":4621,"ifactor":4622,"Ġgeneesmiddel":4623,"voorbeeld":4624,"atrium":4625,"Ġonderworpen":4626,"ysteem":4627,"Ġinspanning":4628,"Ġwijz":4629,"durende":4630,"ritis":4631,"Ġpolymorphism":4632,"Ġaneurysma":4633,"Ġsoorten":4634,"omer":4635,"ĠHij":4636,"Ġdiep":4637,"arte":4638,"ocardocardocardocard":4639,"Ġafzonder":4640,"Ġtransvers":4641,"Ġbestudeerden":4642,"ĠNT":4643,"Ġaangetroffen":4644,"Ġcirculerende":4645,"Ġrep":4646,"Ġischemisch":4647,")).":4648,"FR":4649,"61":4650,"rijke":4651,"ĠMetS":4652,"Ġepidemiologische":4653,"82":4654,"ogeen":4655,"Ġmeta":4656,"Ġnaast":4657,"ichten":4658,"Ġbpm":4659,"Ġnor":4660,"Ġbloedsom":4661,"HT":4662,"wil":4663,"erc":4664,"repen":4665,"Ġzelden":4666,"Ġbiochemische":4667,"Ġuitvo":4668,"Ġoestrogeen":4669,"gevoel":4670,"Ġhs":4671,"Ġcorre":4672,"Ġbloedsomloop":4673,"aconcentraties":4674,"Ġsociaal":4675,"Ġhemodialyse":4676,"Ġ(-":4677,"ĠRF":4678,"raten":4679,"ofage":4680,"ijfheid":4681,"ER":4682,"81":4683,"paratie":4684,"Ġtricusp":4685,"mogene":4686,"Ġvariatie":4687,"Ġvertegenwoor":4688,"Ġlongitud":4689,"ĠSc":4690,"ĠTT":4691,"aliseren":4692,"Ġvarkens":4693,"Ġstikstofoxide":4694,"',":4695,"Ġnef":4696,"ĠSA":4697,"ĠDM":4698,"Ġvertraagde":4699,".)":4700,"Ġweerstand":4701,"atheterisatie":4702,"Ġqu":4703,"94":4704,"bedre":4705,"Ġatrioventriculaire":4706,"Ġmomenteel":4707,"Ġ67":4708,"ance":4709,"enzym":4710,"Ġontbre":4711,"Ġmagnetische":4712,"onect":4713,"ography":4714,"Ġdynam":4715,"Ġneon":4716,"artiel":4717,"Ġlineaire":4718,"Ġ85":4719,"Ġdefinitie":4720,"oord":4721,"Ġnoch":4722,"Ġwelke":4723,"Ġvasodilat":4724,"PP":4725,"mide":4726,"Ġdiagnostische":4727,"Ġverdo":4728,"Ġobstructie":4729,"olytische":4730,"Ġlijken":4731,"ditionering":4732,"duceerd":4733,"stemming":4734,"merking":4735,"aby":4736,"Ġventrikelfibrillatie":4737,"kking":4738,"oline":4739,"ĠZe":4740,"Ġfrequ":4741,"Ġneemt":4742,"Ġeiwitten":4743,"vaar":4744,"Ġtoegenomen":4745,"standaard":4746,"ede":4747,"Ġmembraan":4748,"Ġritme":4749,"vindingen":4750,"Ġmi":4751,"cap":4752,"schade":4753,"Ġren":4754,"procedure":4755,"Ġdoen":4756,"Ġodds":4757,"ĠgeÃ¯mplanteerd":4758,"implantatie":4759,"diging":4760,"Ġnemen":4761,"Ġvariabiliteit":4762,"amp":4763,"Ġintracellulaire":4764,"âģ":4765,"ĠÂ":4766,"Ġkeer":4767,"ijdende":4768,"ĠNew":4769,"Ġdaaropvolgende":4770,"stratific":4771,"91":4772,"volume":4773,"dipine":4774,"Ġgewee":4775,"Ġstent":4776,"Ġcerebro":4777,"etisch":4778,"51":4779,"Ġprotocol":4780,"Ġgeweest":4781,"laren":4782,"HS":4783,"band":4784,"onderd":4785,"Ġ66":4786,"ditie":4787,"Ġgevoelig":4788,"Ġgetest":4789,"Ġomgekeerd":4790,"Ġopsporen":4791,"lopp":4792,"ĠHo":4793,"Ġapo":4794,"Ġcatechola":4795,"Ġfuncties":4796,"itoring":4797,"ogn":4798,"Ġherhaling":4799,"Ġbaby":4800,"Ġdon":4801,"Ġoud":4802,"83":4803,"aklep":4804,"mutatie":4805,"Ġverdoving":4806,"verse":4807,"allel":4808,"ĠPT":4809,"Ġaanmerking":4810,"Ġlevensbedre":4811,"HC":4812,"Ġnod":4813,"Ġneut":4814,"ben":4815,"lor":4816,"Ġgeselecteerd":4817,"ĠAb":4818,"Ġhartinfarcten":4819,"adem":4820,"Ġanalys":4821,"PT":4822,"Ġplotseling":4823,"vet":4824,"Ġect":4825,"ĠcTn":4826,"ulus":4827,"97":4828,"Ġremming":4829,"Ġprof":4830,"Ġperman":4831,"edt":4832,"Ġhuid":4833,"Ġvrijwil":4834,"Ġhuis":4835,"insul":4836,"ĠEurope":4837,"kering":4838,"Ġzwak":4839,"Ġstap":4840,"dikte":4841,"Ġmicrog":4842,"Ġspi":4843,"52":4844,"Ġople":4845,"falen":4846,"Ġrokers":4847,"Ġhartcardiomyopathie":4848,"002":4849,"Ġ68":4850,"skun":4851,"sthorac":4852,"Ġlevensvat":4853,"Ġhypertrofischecardiomyopathie":4854,"dys":4855,"Ġsarc":4856,"reactieve":4857,"aut":4858,"vrije":4859,"Ġtranscrip":4860,"Ġvoorafgaande":4861,"Ġgeleidings":4862,"xy":4863,"oto":4864,"itale":4865,"âģĦ":4866,"ning":4867,"use":4868,"pha":4869,"Ġing":4870,"Ġko":4871,"ima":4872,"ĠAls":4873,"amin":4874,"ĠSer":4875,"Ġtransm":4876,"jaren":4877,"drukking":4878,"Ġade":4879,"Ġreentrant":4880,"Ġ74":4881,"treff":4882,"Ġdefect":4883,"Ġvoorspelde":4884,"oefte":4885,"spective":4886,"liniek":4887,"herstel":4888,"controleerde":4889,"Ġverklaren":4890,"Ġinductie":4891,"oorts":4892,"Ġnatuur":4893,"Ġbegon":4894,"hart":4895,"Ġremodellering":4896,"Ġperioperatieve":4897,"Ġmonsters":4898,"inname":4899,"mber":4900,"Ġneergaande":4901,"ĠRecente":4902,"87":4903,"ĠgeÃ¯soleerd":4904,"Ġtransversale":4905,"Twee":4906,"olaire":4907,"Ġskelet":4908,"ĠMan":4909,"Ġimaging":4910,"laatst":4911,"Ġweten":4912,"ets":4913,"aardige":4914,"irale":4915,"Ġgrootste":4916,"Ġsequ":4917,"odel":4918,"mee":4919,"Ġantit":4920,"Ġweefsels":4921,"Ġballon":4922,"Ġvoorkomt":4923,"lol":4924,"ovasc":4925,"Aan":4926,"Ġag":4927,"Ġhartoperatie":4928,"Ġ69":4929,"Ġdetermin":4930,"ĠlipoproteÃ¯nen":4931,"eeftijd":4932,"Ġbetablokkers":4933,"Ġgeplaatst":4934,"Ġlinkerventrikelfunctie":4935,"Ġtoelating":4936,"okken":4937,"ein":4938,"Ġcross":4939,"Ġvoldoende":4940,"Ġinfuus":4941,"Ġpan":4942,"Ġgl":4943,"rijpen":4944,"ofageale":4945,"Ġgemeenschappelijke":4946,"Ġprocessen":4947,"PCI":4948,"Ġlact":4949,"stijl":4950,"Ġvraag":4951,"treffend":4952,"glucose":4953,"Ġbelasting":4954,"ĠVerschillende":4955,"omatisch":4956,"ĠAfrik":4957,"animatie":4958,"86":4959,"cep":4960,"erieure":4961,"Ġgenoe":4962,"Ġzod":4963,"Ġdecenn":4964,"out":4965,"Ġhelft":4966,"dy":4967,"Ġbem":4968,"OT":4969,"oestand":4970,"ĠOR":4971,"ranolol":4972,"ĠSamenvatting":4973,"onectine":4974,"lacht":4975,"ĠNYHA":4976,"Ġantic":4977,"07":4978,"Ġelectroph":4979,"SVT":4980,"Ġ99":4981,"eus":4982,"Ġij":4983,"Ġorgan":4984,"richt":4985,"ysiologisch":4986,"Ġtrain":4987,"fib":4988,"leeftijd":4989,"ĠUn":4990,"Ġangioplastiek":4991,"erve":4992,"Follow":4993,"dilateerde":4994,"flu":4995,"PW":4996,"spier":4997,"rouwen":4998,"Ġcase":4999,"ifiek":5000,"issie":5001,"Ġ2000":5002,"Ġbilaterale":5003,"CHD":5004,"Ġsociale":5005,"Ġrechtse":5006,"Ġprogramma":5007,"gend":5008,"coronaire":5009,"ĠEng":5010,"programma":5011,"adruk":5012,"Ġroutinematige":5013,"abiel":5014,"Ġslagaders":5015,"Ã¨":5016,"selen":5017,"Ġchron":5018,"Ġafkomstig":5019,"olisch":5020,"spieren":5021,"productie":5022,"fase":5023,"trop":5024,"Ġspecifiek":5025,"Ġvrijwillig":5026,"Ġmanier":5027,"Ġoverwogen":5028,"Ġdubbelblin":5029,"Ġbevolkingsgroepen":5030,"92":5031,"zing":5032,"hyreoÃ¯die":5033,"nthese":5034,"CR":5035,"Ġwijze":5036,"Ġaortaklep":5037,"Ġpolik":5038,"Ġhartklopp":5039,"matisch":5040,"Ġheparine":5041,"solute":5042,"insuline":5043,"stherapie":5044,"oset":5045,"DA":5046,"sign":5047,"uderen":5048,"Ġkind":5049,"stam":5050,"Ġlevensbedreigende":5051,"naast":5052,"factor":5053,"sor":5054,"Ġreceptoren":5055,"aliÃ«":5056,"Ġoppervlakte":5057,"Ġuitein":5058,"ĠChagas":5059,"Ġapparaat":5060,"Ġsystematische":5061,"greg":5062,"Ġarts":5063,"Ġsystolisch":5064,"Ġpols":5065,"complic":5066,"vivo":5067,"verschil":5068,"Ġontslagen":5069,"ild":5070,"Ġapicale":5071,"Ġhandha":5072,"Ġtien":5073,"Ġfoetus":5074,"Ġvivo":5075,"ĠCRT":5076,"Ġverwijdende":5077,"Ġdemografische":5078,"oxiderende":5079,"orische":5080,"Ġconst":5081,"005":5082,"ĠPre":5083,"Ġvetzuren":5084,"iot":5085,"GFR":5086,"Ġafzonderlijke":5087,"Ġincident":5088,"lim":5089,"unde":5090,"Ġ2010":5091,"spanning":5092,"raire":5093,"Ġgeselecteerde":5094,"Ġgedaan":5095,"STEMI":5096,"transform":5097,"antagonisten":5098,"Ġtumor":5099,"Ġmilde":5100,"(+)":5101,"Ġmeervoudige":5102,"Ġbevorderen":5103,"view":5104,"Ġmultic":5105,"Alle":5106,"Ġonderv":5107,"pret":5108,"ĠYork":5109,"car":5110,"uste":5111,"Ġcerebrovasculaire":5112,"Ġ=.":5113,"sterse":5114,"passingen":5115,"Ġaanbevelingen":5116,"003":5117,"Ġversterkt":5118,"elektro":5119,"Ġkinase":5120,"Ġrefractaire":5121,"Ġselectie":5122,"wijking":5123,"Ġvereis":5124,"gere":5125,"horm":5126,"oprolol":5127,"molec":5128,"Ġmoeder":5129,"poten":5130,"Ġlon":5131,"Ġschadelijke":5132,"Ġomgekeerde":5133,"oep":5134,"diale":5135,"tingen":5136,"veneus":5137,"Ġregressieanalyse":5138,"Ġbewij":5139,"Ġeerst":5140,"Ġstof":5141,"Ġverkla":5142,"Ġfenotype":5143,"noopp":5144,"odi":5145,"ĠFra":5146,"Ġpass":5147,"leden":5148,"plaats":5149,"Ġseks":5150,"Ġvat":5151,"ataal":5152,"Ġhartkloppingen":5153,"Ġbetreft":5154,"Ġbestuderen":5155,"93":5156,"entieel":5157,"zymen":5158,"oorb":5159,"isk":5160,"Ġmetabool":5161,"Ġinot":5162,"Ġstadium":5163,"ote":5164,"Ġonderwijs":5165,"LVEF":5166,"omeost":5167,"omtrek":5168,"Ġmutaties":5169,"Ġlongitudinale":5170,"Ġbegrip":5171,"DD":5172,"Ġverapamil":5173,"Ġinzicht":5174,"Ġgevorder":5175,"Ġoste":5176,"Ġhemat":5177,"contra":5178,"litude":5179,"ĠBody":5180,"geme":5181,"Ġtoonden":5182,"asp":5183,"Ġpneum":5184,"iekenhuis":5185,"ateriaal":5186,"IC":5187,"Ġuitdag":5188,"Ġdoeltreffend":5189,"ME":5190,"Ġseptum":5191,"occlusie":5192,"Ġambulante":5193,"Ġvooruitgang":5194,"cyclus":5195,"Ġintensieve":5196,"Ġlood":5197,"Ontslagdatum":5198,"iltratie":5199,"Ġbinding":5200,"Ġgerandom":5201,"sverlies":5202,"ognitieve":5203,"idering":5204,"Ġkader":5205,"agement":5206,"Ġconsumptie":5207,"Ġmenselijk":5208,"Ġbar":5209,"epine":5210,"oma":5211,"vanging":5212,"Ġalbumine":5213,"ient":5214,"Ġbewezen":5215,"Ġopgele":5216,"CL":5217,"haz":5218,"Ġtext":5219,"ratten":5220,"ene":5221,"Ġsteekproef":5222,"kinase":5223,"Ġ71":5224,"ĠĠĠĠ":5225,"Ġlogistieke":5226,"Ġrapport":5227,"Ġaanvankelijk":5228,"Ġendothelium":5229,"GE":5230,"ĠAd":5231,"BMI":5232,"Ġnamen":5233,"leten":5234,"nea":5235,"Ġneurolog":5236,"uretica":5237,"strategieÃ«n":5238,"Ġvrijwilligers":5239,"SP":5240,"omin":5241,"Ġexp":5242,"ĠIC":5243,"vitro":5244,"ense":5245,"utch":5246,"entriculair":5247,"Ġjaarlijk":5248,"beeldvorming":5249,"ases":5250,"diabetische":5251,"Ġfoc":5252,"Ġform":5253,"Ġmulti":5254,"Ġremmen":5255,"Ġvermoe":5256,"opauze":5257,"Ġkoorts":5258,"zo":5259,"activ":5260,"wijzing":5261,"Ġverloop":5262,"hazard":5263,"achting":5264,"Ġgeprogramm":5265,"Ġgebruiken":5266,"Ġfamiliegeschiedenis":5267,"Ġverslechtering":5268,"ĠhomocysteÃ¯ne":5269,"adrenoc":5270,"Ġmeting":5271,"rac":5272,"Ġcoorb":5273,"Ġgemelde":5274,"edeem":5275,"mal":5276,"consumptie":5277,"Ġklep":5278,"Amer":5279,"Ġantihypertensieve":5280,"Ġple":5281,"verb":5282,"ĠAP":5283,"ommun":5284,"Ġperiod":5285,"Ġsta":5286,"Ġkalium":5287,"lish":5288,"kl":5289,"vige":5290,"beoor":5291,"Ġgetro":5292,"volg":5293,"ĠSTE":5294,"ĠEnglish":5295,"SH":5296,"Ġindicatie":5297,"Ġvergro":5298,"ĠDutch":5299,"Ġmonster":5300,"Ġeindstadium":5301,"ĠIsch":5302,"Ġoverlevings":5303,"Ġtrombus":5304,"Ġgebruikte":5305,"Ġvariabele":5306,"Ġgeschikt":5307,"dL":5308,"did":5309,"oplossing":5310,"verhoging":5311,"Ġgeassocieerde":5312,"ĠChinese":5313,"bA":5314,"Ġstijfheid":5315,"Ġgrond":5316,"emy":5317,"ĠTNF":5318,"Ġreanimatie":5319,"Ġdegenen":5320,"Ġstamcellen":5321,"Ġmicrom":5322,"LE":5323,"Ġantiaritmica":5324,"Ġmilj":5325,"jaar":5326,"Ġmedisch":5327,"Ġcontractiliteit":5328,"oek":5329,"igar":5330,"Ġgewoon":5331,"Transl":5332,"ral":5333,"Ġonderwer":5334,"opauz":5335,"ĠOSA":5336,"Ġchem":5337,"Ġsubklinisch":5338,"PatiÃ«ntinformatie":5339,"IL":5340,"{'":5341,"diÃ«n":5342,"hyd":5343,"Ġ'**":5344,"instruction":5345,"Translate":5346,"Ġgehad":5347,"Ġmidden":5348,"'}":5349,"Ġfeit":5350,"ĠMedic":5351,"inurie":5352,"Ġmassa":5353,"Ġamp":5354,"Ġrook":5355,"Ġonderscheiden":5356,"Ġopgewe":5357,"NOS":5358,"Ġbot":5359,"hogingen":5360,"Ġanatomische":5361,"Ġerf":5362,"Ġonth":5363,"intigra":5364,"Ġadequ":5365,"Ġbleven":5366,"Ġcontractie":5367,"OD":5368,"Ġtoevoe":5369,"Ġbundeltak":5370,"Ġlactaat":5371,"Ġlanger":5372,"Ġpathofysiologische":5373,"Ġgelijktijdig":5374,"Ġjongere":5375,"eerden":5376,"terende":5377,"ology":5378,"stellingen":5379,"Ġsteeg":5380,"urige":5381,"IHD":5382,"Ġvele":5383,"Ġgedilateerde":5384,"Med":5385,"ctomie":5386,"icine":5387,"Ġext":5388,"Ġbuik":5389,"mL":5390,"Ġlymf":5391,"economische":5392,"ĠTran":5393,"Ġouderen":5394,"tekening":5395,"Ġbehouden":5396,"structie":5397,"Ġbeval":5398,"Ġventrikeltachycardie":5399,"Ġcomputer":5400,"mingham":5401,"agt":5402,"Ġruim":5403,"Ca":5404,"Ġvarianten":5405,"Cardi":5406,"Ġfatale":5407,"centie":5408,"Ġslagen":5409,"arg":5410,"Ġblokk":5411,"ikelijk":5412,"ican":5413,"oedeem":5414,"Ġdataban":5415,"Ġgel":5416,"Ġplaques":5417,"MC":5418,"tige":5419,"Ġuitgang":5420,"Ġmulticentr":5421,"ĠmRNA":5422,"ĠOnze":5423,"Ġcolla":5424,"ĠDrie":5425,"ĠCan":5426,"Ġbloedingen":5427,"Ġangst":5428,"Ġaard":5429,"Ġuitgebreid":5430,"hel":5431,"Ġbeen":5432,"Ġoude":5433,"Ġbegrijpen":5434,"Ġmatig":5435,"Ġprec":5436,"Ġintraveneus":5437,"Ġplasmaconcentraties":5438,"Ġcohortstudie":5439,"Ġafgeleid":5440,"Ġsterftecijfers":5441,"nale":5442,"Ġbespre":5443,"Ġonderha":5444,"Ġ<.":5445,"intervallen":5446,"Ġonderhavige":5447,"Ġprox":5448,"Ġveranderde":5449,"otal":5450,"sept":5451,"ĠDaarnaast":5452,"diagnose":5453,"NRT":5454,"Ġacet":5455,"emyemy":5456,"]'}":5457,"Ġcardiomy":5458,"Ġcardiop":5459,"Ġinspannings":5460,"\"\"\"\"":5461,"aven":5462,"Ġproduc":5463,"Ġoverige":5464,"adrenerg":5465,"Ġverlaagd":5466,"Ġverscheidenheid":5467,"monaire":5468,"Ġhemodynamica":5469,"Ġpathologie":5470,"Ġultras":5471,"dominale":5472,"Ġadhesie":5473,"Ġoedeem":5474,"DS":5475,"Ġarterie":5476,"pak":5477,"Ġstabiel":5478,"Ġsuggereren":5479,"Ġdubbelblinde":5480,"CK":5481,"glykemie":5482,"Ġanest":5483,"Ġgepubliceerd":5484,"flutter":5485,"Ġ73":5486,"kam":5487,"%);":5488,"ocytes":5489,"Ġhulpmiddel":5490,"IR":5491,"ĠEn":5492,"Hand":5493,"Ġhormoon":5494,"zijn":5495,"Ġelkaar":5496,"Ġessentieel":5497,"Ġpropranolol":5498,"achte":5499,"wijze":5500,"Ġbeste":5501,"Ġzicht":5502,"angio":5503,"dieerd":5504,"rand":5505,"ubatie":5506,"reacties":5507,"Ġregurgitatie":5508,"Ġdiff":5509,"opauzale":5510,"lead":5511,"Ġminuut":5512,"Ġreum":5513,"IA":5514,"Ġgeste":5515,"Ġextracellulaire":5516,"mechan":5517,"ĠÃ":5518,"Ġloc":5519,"Ġendocardiale":5520,"wissel":5521,"Ġbrengen":5522,"Ġgehouden":5523,"Ġaanvallen":5524,"Ġ2005":5525,"Handtekening":5526,"Ġinstelling":5527,"fecteerde":5528,"Ġminimale":5529,"inetherapie":5530,"Ġhypoxie":5531,"Ġontbreken":5532,"ovasculair":5533,"Ġnecrose":5534,"ulator":5535,"drukt":5536,"gebracht":5537,"hulp":5538,"Ġrechterventrikel":5539,"Ġbenadruk":5540,"Ġdelen":5541,"Ġdos":5542,"ĠEF":5543,"Ġtoegeschreven":5544,"ĠOnlangs":5545,"Ġfamiliaire":5546,"lasma":5547,"ĠET":5548,"ada":5549,"Ġrapporten":5550,"Ġinstru":5551,"Ġcan":5552,"Ġrecent":5553,"Ġ78":5554,"Ġendogene":5555,"Ġhemoglobine":5556,"gde":5557,"Ġgemedieerd":5558,"Ġmiddelbare":5559,"gener":5560,"SS":5561,"ogeniteit":5562,"Ġ2009":5563,"syn":5564,"Ġregulering":5565,"Ġgastro":5566,"ryp":5567,"omeg":5568,"Ġstille":5569,"Ġlaagste":5570,"Ġverwijderd":5571,"Ġbewust":5572,"Ġkool":5573,"Ġcognitieve":5574,"Ġverkal":5575,"circ":5576,"Ġprost":5577,"Ġdoelwit":5578,"gemedieerde":5579,"lasie":5580,"Ġcontroleren":5581,"eslacht":5582,"Ġendot":5583,"Ġeindpunten":5584,"Ġlitteken":5585,"Ġsom":5586,"artan":5587,"ĠAc":5588,"Ġmedic":5589,"elingen":5590,"Ġfol":5591,"ĠLp":5592,"mutaties":5593,"angiografie":5594,"Ġbegrepen":5595,"ins":5596,"hoogde":5597,"Ġdienen":5598,"spercentage":5599,"erp":5600,"rane":5601,"glycer":5602,"Ġ(<":5603,"Ġmodi":5604,"deels":5605,"Ch":5606,"Ġtekort":5607,"Ġdiagnost":5608,"procedures":5609,"Ġverkort":5610,"Ġcorrectie":5611,"Ġ76":5612,"Ġatleten":5613,"Ġfrequente":5614,"Ġterugwerkende":5615,"Ġging":5616,"Ġ79":5617,"ased":5618,"Ġschatten":5619,"lings":5620,"Ġgecombineerd":5621,"Tussen":5622,"Ġlaesie":5623,"Ġpresenteerde":5624,"Ġschijn":5625,"entiatie":5626,"onische":5627,"ulatieve":5628,"istische":5629,"Ġwesterse":5630,"Ġsubstraat":5631,"Ġvag":5632,"Ġnierfalen":5633,"tendeels":5634,"Ġimplicaties":5635,"Ġong":5636,"Ġgrotendeels":5637,"Ġvarieerde":5638,"uleerde":5639,"Ġgebeurtenissen":5640,"olen":5641,"ĠIndex":5642,"Ġ150":5643,"ĠFramingham":5644,"kle":5645,"ĠCoronaire":5646,"Ġinterne":5647,"Ġadren":5648,"Ġcreatine":5649,"Ġtert":5650,"Ġobesitas":5651,"olutie":5652,"Ġantagon":5653,"diastolische":5654,"klasse":5655,"uretische":5656,"nemen":5657,"Ġtypische":5658,"ther":5659,"ĠSVT":5660,"het":5661,"yrid":5662,"Ġgestegen":5663,"Ġimpact":5664,"Ġrapporte":5665,"olyse":5666,"ĠSPECT":5667,"cla":5668,"azard":5669,"ocon":5670,"amide":5671,"Ġuitzonder":5672,"Ġerkend":5673,"systolische":5674,"buminurie":5675,"Ġmelding":5676,"Ġabsolute":5677,"Ġblanke":5678,"Ġkopp":5679,"onenten":5680,"Ġretrograde":5681,"Ġbevestigde":5682,"Ġnatuurlijke":5683,"golven":5684,"((((((((((((((((":5685,"Ġhersenen":5686,"Ġobservationele":5687,"Ġbevalling":5688,"ificeerd":5689,"Ġreparatie":5690,"Ġangiografisch":5691,"uni":5692,"rijven":5693,"etrische":5694,"volle":5695,"Ġhyperlipidemie":5696,"Ġintrac":5697,"Ġoverlevenden":5698,"cohort":5699,"resstest":5700,"grootte":5701,"Ġhier":5702,"ced":5703,"Ġpermanente":5704,"Ġopnames":5705,"Ġonthul":5706,"Me":5707,"].":5708,"ĠtachycardieÃ«n":5709,"((((((":5710,"Ġatherogene":5711,"Ġroutes":5712,"infusie":5713,"Ġ2007":5714,"stroomkanaal":5715,"stemen":5716,"eerbaar":5717,"Ġademhaling":5718,"Ġ2011":5719,"ĠInter":5720,"ofde":5721,"Ġrevascularisering":5722,"Ġpo":5723,"Ġbevat":5724,"Ġerfelijke":5725,"Ġtrad":5726,"wijd":5727,"Ġsl":5728,"Ġhypok":5729,"Ġkatheterablatie":5730,"Ġongeb":5731,"Ġbeginnen":5732,"Ġleuk":5733,"Ġ2006":5734,"LR":5735,"Ġstre":5736,"ycard":5737,"iÃ«ren":5738,"spectief":5739,"Ġbody":5740,"ĠVol":5741,"Ġhyperglykemie":5742,"Ġinterle":5743,"Ġsamenge":5744,"Ġ2012":5745,"Ġtoegang":5746,"anning":5747,"NS":5748,"Ġlangere":5749,"AMI":5750,"Ġcyclus":5751,"istratie":5752,"Ġcut":5753,"Ġdient":5754,"Ġlinkerventrikeldisfunctie":5755,"artum":5756,"Ġgeslachts":5757,"los":5758,"Ġovereenstemming":5759,"reactief":5760,"ĠLVAD":5761,"onent":5762,"ĠRR":5763,"gezondheid":5764,"naam":5765,"Ġtriglyceride":5766,"Ġdre":5767,"Ġijzer":5768,"regel":5769,"veren":5770,"Hart":5771,"Ġrepolarisatie":5772,"Ġsigar":5773,"beweging":5774,"erkte":5775,"Ġimplant":5776,"Ġklass":5777,"Ġstructuur":5778,"Ġoptreedt":5779,"otypes":5780,"Ġpreventieve":5781,"Ġanalyseren":5782,"Ġhen":5783,"anti":5784,"Ġdefinitieve":5785,"Ġbestanddelen":5786,"spectieve":5787,"Ġph":5788,"oprotein":5789,"Ġgewoonlijk":5790,"ilichaam":5791,"Ġhulpmiddelen":5792,"Ġdomin":5793,"Ġ((":5794,"ray":5795,"indt":5796,"Ġvarie":5797,"Ġextre":5798,"ĠZuid":5799,"Ġzwaarlijvige":5800,"ĠCMR":5801,"Ġnegen":5802,"Ġvertraging":5803,"Ġsterftecijfer":5804,"ca":5805,"Ġtak":5806,"Ġstierf":5807,"Ġverou":5808,"iker":5809,"Ġapolip":5810,"Ġmaximaal":5811,"Ġbenaderingen":5812,"pijn":5813,"Ġbesmet":5814,"ĠTri":5815,"density":5816,"sh":5817,"Ġorg":5818,"ĠHT":5819,"punt":5820,"Ġ+/":5821,"Ġber":5822,"Ġmiljoen":5823,"ĠNiet":5824,"Ġuitgesproken":5825,"Ġradic":5826,"way":5827,"Ġ77":5828,"Ġvoedsel":5829,"Ġdyspneu":5830,"gecontroleerde":5831,"mylo":5832,"ĠessentiÃ«le":5833,"Ġafdeling":5834,"Ġcentrum":5835,"Ġlead":5836,"volum":5837,"Ġker":5838,"ĠHO":5839,"Ġjuni":5840,"Ġ2008":5841,"Ġuitgedrukt":5842,"Ġ84":5843,"horax":5844,"stole":5845,"Ġpericardiale":5846,"Ġneurologische":5847,"ess":5848,"route":5849,"Ġverbonden":5850,"Ġmenopauze":5851,"Ġgewichtsverlies":5852,"oefen":5853,"Ġconditionering":5854,"Ġverwezen":5855,"ischa":5856,"fosfaat":5857,"Ġglucoset":5858,"Ġgrootte":5859,"tel":5860,"Ġsn":5861,"Ġcry":5862,"hyro":5863,"ĠSTEMI":5864,"erking":5865,"Ġalcoholgebruik":5866,"ĠIMT":5867,"Ġadiponectine":5868,"IT":5869,"ĠSCD":5870,"actieve":5871,"Ġgeprogrammeerde":5872,"Ġhan":5873,"Ġhele":5874,"ids":5875,"Ġdodelijke":5876,"Ġatrial":5877,"Ġverblijf":5878,"laring":5879,"geveer":5880,"uls":5881,"Ġcreatinine":5882,"Ġonmiddellijke":5883,"Ġam":5884,"spat":5885,"verschillen":5886,"ĠTe":5887,"geleiding":5888,"Ġmicrovasculaire":5889,"erdere":5890,"Ġelev":5891,"voegd":5892,"Ġgrondslag":5893,"onucle":5894,"osclerose":5895,"rombotische":5896,"Ġintima":5897,"Ġcontrolegroepen":5898,"ĠPR":5899,"patroon":5900,"ĠLAD":5901,"Ġgepubliceerde":5902,"ijft":5903,"entwintig":5904,"opy":5905,"atrix":5906,"oxische":5907,"Ġgewijzigd":5908,"Ġgestandaard":5909,"Ġdiastolisch":5910,"ack":5911,"iets":5912,"ĠnierinsufficiÃ«ntie":5913,"Ġactiviteiten":5914,"Ġbespreken":5915,"want":5916,"otoxiciteit":5917,"NC":5918,"uiv":5919,"Ġintern":5920,"Ġzodat":5921,"Ġgevestig":5922,"vermogen":5923,"entherapie":5924,"Ġglomer":5925,"Ġgevorderde":5926,"eid":5927,"Ġtoekomstgerichte":5928,"Ġgeschikte":5929,"Ġonvoldoende":5930,"Ġvirus":5931,"ringen":5932,"orige":5933,"Ġbehoefte":5934,"Ġcardioversie":5935,"Amerik":5936,"Ġkru":5937,"Ġgedocumenteerd":5938,"isc":5939,"Ġset":5940,"problemen":5941,"Ġachteraf":5942,"Ġinferieure":5943,"Ġalternatieve":5944,"orden":5945,"ĠVS":5946,"Ġ2004":5947,"Ġgeleidelijk":5948,"hom":5949,"otsub":5950,"esium":5951,"gressieve":5952,"Ġindicaties":5953,"Ġverhogingen":5954,"raz":5955,"Ġnit":5956,"Ġlevensstijl":5957,"beoordeling":5958,"Ġtomografie":5959,"lipoproteÃ¯nen":5960,"Ġgerekru":5961,"AL":5962,"vangers":5963,"beloven":5964,"Ġveelbeloven":5965,"Ġetnische":5966,"Onderzoek":5967,"Ġsinds":5968,"Ġarteri":5969,"Ġuiteindelijk":5970,"vest":5971,"pleeg":5972,"put":5973,"Ġautopsie":5974,"Ġongebru":5975,"inatie":5976,"Ġdiuretica":5977,"Ġmsec":5978,"Ġcardiovasculair":5979,"ĠMMP":5980,"Ġmedicatie":5981,"dysfunctie":5982,"IS":5983,"Ġcategorie":5984,"Ġzeg":5985,"Ġreden":5986,"sprogramma":5987,"Ġbeperkingen":5988,"Ġvervangende":5989,"Ġdip":5990,"Ġcort":5991,"Ġnationale":5992,"media":5993,"udt":5994,"erv":5995,"))))":5996,"EC":5997,"derheid":5998,"EE":5999,"Ġbiv":6000,"Ġvervanging":6001,"Ġcav":6002,"olus":6003,"Ġbesl":6004,"Ġscintigra":6005,"Ġperic":6006,"Ġ2003":6007,"path":6008,"Ġnucleaire":6009,"Ġkant":6010,"Ġclassificatie":6011,"Ġvertoont":6012,"transplantaten":6013,"ĠAS":6014,"Ġterugkeer":6015,"Ġectopische":6016,"stalen":6017,"Ġoperaties":6018,"uig":6019,"Ġecho":6020,"ĠGen":6021,"merg":6022,"Ġzeggen":6023,"Ġsymptoom":6024,"ĠDiabetes":6025,"LC":6026,"albuminurie":6027,"stelsel":6028,"Ġcumulatieve":6029,"otide":6030,"Ġschaal":6031,"Ġrechterkamer":6032,"Ġletsels":6033,"Ġtailleomtrek":6034,"ĠLeeftijd":6035,"Ġbevatten":6036,"oit":6037,"Ġoverzicht":6038,"embolie":6039,"Ġortho":6040,"Ġdigoxine":6041,"Ġgerekruteerd":6042,"004":6043,"Ġy":6044,"standen":6045,"daag":6046,"Ġnuttige":6047,"ĠIg":6048,"ceerde":6049,"Ġ88":6050,"Ġbele":6051,"ivar":6052,"Ġgetroffen":6053,"hyp":6054,"Ġischa":6055,"Ġlijden":6056,"ĠOok":6057,"Ġvragenlijst":6058,"Ġtemperatuur":6059,"Ġmaak":6060,"gemakkelijk":6061,"Ġkeuze":6062,"molecule":6063,"St":6064,"Ġhartslagader":6065,"eed":6066,"ĠID":6067,"Ġcytokinen":6068,"fataal":6069,"ologen":6070,"acte":6071,"Ġmonom":6072,"oge":6073,"Ġvergemakkelijk":6074,"Ġverwijdering":6075,"keten":6076,"Ġpap":6077,"Ġreal":6078,"ĠSR":6079,"rekken":6080,"cardiocardi":6081,"ĠJapanse":6082,"Ġongeacht":6083,"Ġbeschermen":6084,"dicht":6085,"ĠPD":6086,"Ġsigaretten":6087,"synth":6088,"ĠAangezien":6089,"Ġtraining":6090,"Ġkorter":6091,"hand":6092,"Ġatriumtachycardie":6093,"Ġdistale":6094,"Ġinteg":6095,"Ġsim":6096,"Ġgeneratie":6097,"Ġ81":6098,"Ġhepat":6099,"Ġmalign":6100,"arch":6101,"olf":6102,"ĠME":6103,"Ġultra":6104,"Ġamylo":6105,"Ġnadruk":6106,"Ġpostmenopauzale":6107,"ĠÂ¥":6108,"ustr":6109,"Ġmeerderheid":6110,"Ġcardiologie":6111,"CAM":6112,"Ġvertoonden":6113,"Ġtre":6114,"Ġkandid":6115,"beelden":6116,"ĠOnderzoek":6117,"Ġdynamische":6118,"sis":6119,"Ġthorac":6120,"omi":6121,"teren":6122,"werking":6123,"DNA":6124,"lement":6125,"sluiten":6126,"LP":6127,"ars":6128,"Ġcardioprotectieve":6129,"diÃ«nt":6130,"Ġthal":6131,"Ġgaf":6132,"ional":6133,"Ġ82":6134,"embolische":6135,"sluiting":6136,"Ġbovenste":6137,"ifestyle":6138,"Ġdagelijks":6139,"Ġvanuit":6140,"Ġamin":6141,"delinge":6142,"ĠHbA":6143,"Ġjonger":6144,"gregatie":6145,"atran":6146,"Ġras":6147,"Ġ1999":6148,"Ġongun":6149,"zem":6150,"ecardi":6151,"opulmonaire":6152,"ĠtherapieÃ«n":6153,"Ġfibro":6154,"Ġhartkatheterisatie":6155,"Ġ83":6156,"amma":6157,"astenose":6158,"Ġgedeeltelijk":6159,"HE":6160,"Ġlid":6161,"Ġprolif":6162,"atriale":6163,"PG":6164,"ctor":6165,"asen":6166,"voer":6167,"Ġsamenhan":6168,"ĠAmerican":6169,"BBB":6170,"acter":6171,"Ġnormo":6172,"aritmisch":6173,"Ġklassieke":6174,"omeen":6175,"Ġziekenhuisopnames":6176,")-":6177,"markers":6178,"Ġhazard":6179,"sectie":6180,"Ġunieke":6181,"LI":6182,"Ġchirurgische":6183,"Ġpolymorphismen":6184,"Ġcycl":6185,"Ġpostp":6186,"Ġnauwkeurige":6187,"ĠBeide":6188,"Ġ96":6189,"Ġreactieve":6190,"Ġrs":6191,"nstige":6192,"ischemische":6193,"ĠReg":6194,"Ġkonijntjes":6195,"ue":6196,"orgen":6197,"lad":6198,"verza":6199,"Ġatriumflutter":6200,"Ġelektrocardiogram":6201,"Ġbehoud":6202,"Ġtermin":6203,"Ġmorfologische":6204,"steld":6205,"Ġverstoor":6206,"Ġaltijd":6207,"Ġintram":6208,"Ġglucosetolerantie":6209,"Ġ001":6210,"Ġ300":6211,"Ġposterior":6212,"Ġmondelinge":6213,"Ġ86":6214,"taille":6215,"Ġafwijking":6216,"Ġendocard":6217,"Ġverdoofde":6218,"ĠMeer":6219,"minste":6220,"reerde":6221,"Ġseconden":6222,"ober":6223,"Ġstoppen":6224,"Ġopgeleverd":6225,"foto":6226,"hang":6227,"reep":6228,"Ġslechtere":6229,"Ġhigh":6230,"Ġsubgroep":6231,"versie":6232,"Ġintermit":6233,"aad":6234,"Ġgroeifactor":6235,"Ġtransgene":6236,"generatie":6237,"Ġfem":6238,"techniek":6239,"Ġuitzondering":6240,"Ġtoxiciteit":6241,"ĠCHF":6242,"Ġlinkerkam":6243,"Ġmanifestaties":6244,"................................":6245,"Ġgeworden":6246,"Ġmyocardisch":6247,"ademigheid":6248,"ukine":6249,"Ġantistollingsmiddelen":6250,")),":6251,"ink":6252,"els":6253,"olys":6254,"Ġdifferentiatie":6255,"stratificatie":6256,"Ġast":6257,"Ġwater":6258,"atorvastatine":6259,"Ġden":6260,"apparaat":6261,"Ġwith":6262,"Ġveroudering":6263,"wn":6264,"Ġdrug":6265,"Ġabdominale":6266,"Ġgevaar":6267,"spraken":6268,"triale":6269,"lab":6270,"ĠEuropese":6271,"Ġverkrijgen":6272,"Ġtoevoeging":6273,"Ġtransp":6274,"CHF":6275,"Ġeenvoudige":6276,"idose":6277,"proteÃ¯nen":6278,"Ob":6279,"dent":6280,"mode":6281,"Ġcorrelaties":6282,"funct":6283,"cTn":6284,"ocht":6285,"chiale":6286,"ĠBloed":6287,"Ġnorepine":6288,"CABG":6289,"PAR":6290,"apping":6291,"verla":6292,"Ġparas":6293,"aaaaaaaa":6294,"terisico":6295,"Ġgewijzigde":6296,"capaciteit":6297,"skunde":6298,"ĠPer":6299,"Ġdrempel":6300,"Ġbeschikbaarheid":6301,"lichaam":6302,"Ġvent":6303,"pl":6304,"erwijl":6305,"Ġresolutie":6306,"ĠQTc":6307,"Ġvalv":6308,"aus":6309,"Ġecardiogram":6310,"ogroep":6311,"Ġchrom":6312,"Ġgedetaille":6313,"VR":6314,"Ġisof":6315,"abig":6316,"Ġbesliss":6317,"Ġbevest":6318,"Ġverbeteringen":6319,"Ġ2002":6320,"ĠmicroM":6321,"Ã¯den":6322,"ĠTot":6323,"eds":6324,"Ġalternatief":6325,"Ġintracardiale":6326,"regul":6327,"droeg":6328,"ave":6329,"Ġpercentages":6330,"Ġgedocumenteerde":6331,"ring":6332,"gedragen":6333,"handeling":6334,"Ġmaart":6335,"hol":6336,"Ġdel":6337,"emic":6338,"resent":6339,"Ġonzeker":6340,"rat":6341,"Ġisol":6342,"Ġorgaan":6343,"Ġaspecten":6344,"Ġmutatie":6345,"Post":6346,"testinale":6347,"Ġfosfor":6348,"LT":6349,"yro":6350,"Ġvasc":6351,"orub":6352,"Ġintro":6353,"Ġinclusie":6354,"zine":6355,"inciden":6356,"radi":6357,"Ġmyocardiaire":6358,"Ġstatistische":6359,"Ġmulticentrische":6360,"Ġech":6361,"Ġwereldwijd":6362,"hib":6363,"abigatran":6364,"stijd":6365,"rokers":6366,"Ġ92":6367,"''''":6368,"myocard":6369,"ynchron":6370,"ĠVA":6371,"Ġlat":6372,"Ġconditie":6373,"troponine":6374,"Ġvetzuur":6375,"Ġtoeneemt":6376,"stens":6377,"Ġwetenschap":6378,"kal":6379,"Ġdragen":6380,"Ġpog":6381,"Ġknoopp":6382,"gebieden":6383,"Ġuitdrukking":6384,"Ġpart":6385,"Ġverslag":6386,"ĠTG":6387,"steun":6388,"oxaban":6389,"Ġallemaal":6390,"ildkl":6391,"Ġtele":6392,"Ġjaarlijkse":6393,"pan":6394,"Ġtweemaal":6395,"Ġleveren":6396,"lopende":6397,"Ġoorspronkelijke":6398,"defecten":6399,"Ġverklaard":6400,"Ġcommun":6401,"abole":6402,"Ġmilie":6403,"Ġpeptiden":6404,"Ġbeper":6405,"Ġgener":6406,"goritme":6407,"Ġstadia":6408,"BC":6409,"reden":6410,"Ġonverander":6411,"Ġhoogte":6412,"Ġbed":6413,"Ġgang":6414,"vloe":6415,"spital":6416,"Ġgevestigde":6417,"bijvoorbeeld":6418,"Ġatorvastatine":6419,"ijst":6420,"rest":6421,"Ġgren":6422,"Ġsuiker":6423,"behandelde":6424,"cum":6425,"alve":6426,"Ġverwacht":6427,"GT":6428,"Ġomzetting":6429,"voorsp":6430,"US":6431,"Ġvoornaam":6432,"Ġomkeerbare":6433,"Ġvoornaamste":6434,"micro":6435,"upple":6436,"Ġechocardiografisch":6437,"])":6438,"Ġdim":6439,"ĠCAC":6440,"Ġbevorder":6441,"Ġdosering":6442,"pjes":6443,"waal":6444,"antagonist":6445,"Ġtransthorac":6446,"nauw":6447,"Ġantibloed":6448,"ĠPost":6449,"ĠMyocardiale":6450,"Ġdeterminanten":6451,"terne":6452,"ĠEp":6453,"oconstri":6454,"Ġbeelden":6455,"Ġinfarcten":6456,"MRI":6457,"ificeren":6458,"Ġ2001":6459,"Ġrenine":6460,"Ġadequate":6461,"sofageale":6462,"Ġcyc":6463,"Ġdise":6464,"osomale":6465,"Ġhetero":6466,"ĠAfrikaanse":6467,"Ġbevestigen":6468,"Ġ-((":6469,"erge":6470,"Ã¶":6471,"Ġvermoede":6472,"entry":6473,"Ġgeslachten":6474,"ĠCardiomyopathie":6475,"Ġvaste":6476,"Ġtal":6477,"Ġcoorbid":6478,"dosteron":6479,"Ġhetzij":6480,"hem":6481,"ibil":6482,"ĠCOPD":6483,"Ġenig":6484,"ics":6485,"artsen":6486,"omeostase":6487,"Ġartikelen":6488,"iteits":6489,"/-":6490,"ding":6491,"ritmie":6492,"rimin":6493,"ĠEl":6494,"Ġtab":6495,"kenning":6496,"Ġcontro":6497,"ĠMult":6498,"hermie":6499,"Ġgevoelige":6500,"Ġkrachtige":6501,"ĠHem":6502,"Ġ87":6503,"Ġur":6504,"akers":6505,"waalf":6506,"katheter":6507,"telijke":6508,"Ġverdragen":6509,"Con":6510,"jectief":6511,"armoede":6512,"Ġwilden":6513,"beh":6514,"ipolaire":6515,"rigeerd":6516,"kinson":6517,"ĠCR":6518,"Ġkarakteriseren":6519,"verlies":6520,"ĠPE":6521,"Ġverza":6522,"Ġimmunos":6523,"Ġtransl":6524,"Ġborstkanker":6525,"Ġkortademigheid":6526,"Ġtherapeutisch":6527,"Ġchronisch":6528,"Ġmicromol":6529,"indic":6530,"Ġmig":6531,"Ġkatten":6532,"Ġnadat":6533,"zakelijke":6534,"Ġantioxiderende":6535,"heer":6536,"Ġvl":6537,"Ġcardiogene":6538,"Ġtenminste":6539,"Ġstresstest":6540,"verdeling":6541,"ĠCol":6542,"imaliseren":6543,"studies":6544,"fagen":6545,"orubicine":6546,"IMT":6547,"ksgezondheid":6548,"Ġbasislijn":6549,"\"-":6550,"Ġuitsluiten":6551,"Ġgesteld":6552,"Ġmagnesium":6553,"ĠdifferentiÃ«le":6554,"aarten":6555,"Ġonderdeel":6556,"ill":6557,"Ġnacht":6558,"ĠMB":6559,"Ġlongader":6560,"Ġmater":6561,"Ġelectrof":6562,"Ġcapaciteit":6563,"Ġafgeleide":6564,"Ġuitdaging":6565,"HI":6566,"Ġmot":6567,"ĠOb":6568,"Ġonthulde":6569,"won":6570,"Ġinterpret":6571,"Ġongunstige":6572,"Ġcurve":6573,"Ġaanpak":6574,"Ġgemakkelijk":6575,"verlagende":6576,"inn":6577,"Ġgeacht":6578,"Ġkritische":6579,"ĠAnt":6580,"dieet":6581,"ĠCarotis":6582,"Ġrisicostratificatie":6583,"Ġpericard":6584,"mediaan":6585,"dertig":6586,"uratie":6587,"Ġtricuspid":6588,"ĠVE":6589,"Co":6590,"Ġbedroeg":6591,"OH":6592,"Ġgene":6593,"Ġgediagnosticeerde":6594,"Ġbundeltakblok":6595,"Ġantrop":6596,"Ġ89":6597,"bese":6598,"Ġverschilden":6599,"Ġtweedimensionale":6600,"Ġoptie":6601,"uline":6602,"Ġelevation":6603,"genotype":6604,"Ġinterleukine":6605,"stip":6606,"Ġsupp":6607,"Ġvaststellen":6608,"based":6609,"receptoren":6610,"Ġdonor":6611,"Ġongewen":6612,"omyomyomyomyomyomyomyomyomyomyomyomyomyomyomyomy":6613,"ĠARVC":6614,"ĠAustr":6615,"Ġeffusie":6616,"tiging":6617,"Ġcentra":6618,"Ġcapillaire":6619,"Ġreeds":6620,"toe":6621,"Ġvoorval":6622,"Ġcollageen":6623,"Ġheden":6624,"ocardiomyopathie":6625,"Ġtransplantaat":6626,"neg":6627,"Ġzieke":6628,"gewoon":6629,"Ġcruciaal":6630,"ozyg":6631,"producten":6632,"Ġvolde":6633,"ĠVergeleken":6634,"erfusie":6635,"Ġslaapap":6636,"ĠCo":6637,"ĠTI":6638,"achten":6639,"Ġexc":6640,"Ġvariant":6641,"ĠEchocardiografie":6642,"pomp":6643,"Ġbolus":6644,"Ġmyocardium":6645,"select":6646,"schiedenis":6647,"ransp":6648,"Ġlongslagader":6649,"nitine":6650,"potent":6651,"yridam":6652,"Ġjuli":6653,"omegalie":6654,"Ġgerelateerde":6655,"eline":6656,"Ġdik":6657,"Ġaug":6658,"Ġclu":6659,"vallend":6660,"ĠNaast":6661,"Ġmyocardiaal":6662,"verwante":6663,"Ġdisease":6664,"Ġmeis":6665,"Ġabnormaal":6666,"TI":6667,"Ġgestandaardiseerde":6668,"LAD":6669,"Ġcardiopulmonaire":6670,"Ġrond":6671,"Ġ93":6672,"gemb":6673,"Ġgecomplic":6674,"antilichaam":6675,"ĠPP":6676,"Ġspectrum":6677,"laes":6678,"Ġgecor":6679,"opulaties":6680,"pleegkun":6681,"Ġdefibrillatie":6682,"chlor":6683,"Ġpsychologische":6684,"QT":6685,"Ġantioxid":6686,"ĠVier":6687,"percentages":6688,"Ġmatrix":6689,"Ġintraoperatieve":6690,"eptorb":6691,"Ġvezels":6692,"ĠcocaÃ¯ne":6693,"Ġ94":6694,"too":6695,"Ġ97":6696,"Ġtermen":6697,"Ġacetyl":6698,"Ġverduidelijk":6699,"ĠCS":6700,"itone":6701,"Ġexterne":6702,"Ġzorgvul":6703,"Ġgemedieerde":6704,"Ġongewenste":6705,"Ġemot":6706,"Ġgenexpressie":6707,"Ġserumconcentraties":6708,"Ġvitro":6709,"honden":6710,"Ġdefibrillator":6711,"Ġdraag":6712,"action":6713,"avan":6714,"iat":6715,"arb":6716,"protocol":6717,"Ġkenmerk":6718,"Ġverkorting":6719,"opril":6720,"methyl":6721,"orbiditeiten":6722,"Ġgeactiveerde":6723,"Par":6724,"resp":6725,"vanger":6726,"overy":6727,"Ġtoenemen":6728,"Ġschildkl":6729,"Ġelectrogram":6730,"Ġomgeving":6731,"Ġcruzi":6732,"'-'-'-'-'-'-'-'-'-'-'-'-'-'-'-'-'-'-'-'-'-'-'-'-'-'-'-'-'-'-'-'-":6733,"PR":6734,"Ġtijdstip":6735,"ometry":6736,"diameter":6737,"Ġledem":6738,"Ġgeproduceerd":6739,"ĠESR":6740,"Ġamplitude":6741,"wikkel":6742,"linical":6743,"ĠLin":6744,"Ġonderzoeks":6745,"Ġ91":6746,"sproblemen":6747,"Ġdrin":6748,"mycine":6749,"Ġide":6750,"icul":6751,"ino":6752,"Ġapril":6753,"ize":6754,"Ġtrage":6755,"elevatie":6756,"Ġkruis":6757,"Ġaangezien":6758,"Ġgekregen":6759,"pervlak":6760,"omstandigheden":6761,"Ġaritmische":6762,"Ġanal":6763,"Ġheterogeniteit":6764,"Ġchemische":6765,"Ġlevensvatbaarheid":6766,"ĠpH":6767,"Ġflow":6768,"Ġbeneden":6769,"Ġregelmatige":6770,"Ġstudy":6771,"Ġdox":6772,"Ġatrioventriculair":6773,"ala":6774,"ropische":6775,"Ġsamenstelling":6776,"Ġzichtbaar":6777,"Ġvoordoen":6778,"ĠEnd":6779,"ĠdefiniÃ«ren":6780,"Ġas":6781,"ĠPM":6782,"Ġcomponenten":6783,"itor":6784,"aboratorium":6785,"ĠLan":6786,"Ġ98":6787,"ĠLVH":6788,"Ġhaalbaarheid":6789,"dine":6790,"Ġevent":6791,"gehaltes":6792,"ĠNF":6793,"Ġinfusie":6794,"Ġliggen":6795,"choline":6796,"Ġbloeding":6797,"oxy":6798,"Ġokt":6799,"opor":6800,"Ġverlengd":6801,"drag":6802,"Ġleef":6803,"Ġveranderd":6804,"Ġdiermodellen":6805,"stimulatie":6806,"Ġperiodont":6807,"RD":6808,"ĠZij":6809,"ioneel":6810,"bevindingen":6811,"Ġcardioprotectie":6812,"Ġcare":6813,"Ġvoltoo":6814,"Ġminstens":6815,"Ġvul":6816,"Ġintermitterende":6817,"GA":6818,"Wh":6819,"onary":6820,"hanol":6821,"ĠSurve":6822,"Diagnose":6823,"Ġrit":6824,"ĠHyper":6825,"Ġgeneeskunde":6826,"ĠlipoproteÃ¯ne":6827,"Ġatyp":6828,"Ġlongemb":6829,"Ġoktober":6830,"Ġorganen":6831,"Ġent":6832,"Ġmetoprolol":6833,"reng":6834,"Ġgebruikelijk":6835,"ocardiocardiocardiocardiocardiocardiocardiocardiocardiocardiocardiocardiocardiocardiocardiocardiocardiocardiocardiocardiocardiocardiocardiocardiocardiocardiocardiocardiocardiocardiocardiocardi":6836,"ĠAndere":6837,"Ġneutrofie":6838,"daagse":6839,"Ġperiodes":6840,"Ġecon":6841,"Ġafgenomen":6842,"Ġlast":6843,"Ġverkalking":6844,"Ġrapporteerden":6845,"VO":6846,"Ġconf":6847,"kwaliteit":6848,"ceptie":6849,"tomografie":6850,"omende":6851,"Ġgenotype":6852,"streden":6853,"Ontslagsdatum":6854,"WA":6855,"Ġverwond":6856,"Ġvascul":6857,"necrose":6858,"vari":6859,"Ġrode":6860,"Ġfenomeen":6861,"eptorblok":6862,"clu":6863,"valv":6864,"kanalen":6865,"Ġaanverwante":6866,"Ġlangzame":6867,"Ãª":6868,"Ġlaten":6869,"ĠJapan":6870,"Ġbijk":6871,"oloog":6872,"Ġvermoed":6873,"structieve":6874,"upplementen":6875,"ĠSBP":6876,"ĠGro":6877,"ĠUnivers":6878,"oesofageale":6879,"structuur":6880,"itamine":6881,"Ġlevensverw":6882,"Ġgedefinieerde":6883,"odds":6884,"creatinine":6885,"for":6886,"ged":6887,"Ġwaaruit":6888,"control":6889,"ationaal":6890,"Ġanom":6891,"Ġvrijwel":6892,"Ġasymptomatisch":6893,"Ġnitro":6894,"Ġtoegevoegd":6895,"Ġkleiner":6896,"ĠZowel":6897,"Ġintensiteit":6898,"NR":6899,"Ġvermoeden":6900,"lipiden":6901,"Ġactivator":6902,"Ġomstreden":6903,"Ġoefenings":6904,"Ġbewuste":6905,"Ġplacebogecontroleerde":6906,"Ġmacrofagen":6907,"Ġgecorrigeerd":6908,"Î¼":6909,"Ġhiel":6910,"ĠGeslacht":6911,"terend":6912,"Ġnatriuretische":6913,"ĠHospital":6914,"Ġintramurale":6915,"opaus":6916,"Ġuitste":6917,"Ġmonotherapie":6918,"Ġwijziging":6919,"Ġingreep":6920,".,":6921,"Ġverh":6922,"oft":6923,"sect":6924,"Ġwaarnem":6925,"Ġgesug":6926,"schat":6927,"Ġsynth":6928,"infectie":6929,"Ġonveranderd":6930,"Ġbloedarmoede":6931,"olin":6932,"ffer":6933,"Ġgenoemd":6934,"Ġendoc":6935,"Ġreflex":6936,"uminale":6937,"Ġhoudt":6938,"Ġagressieve":6939,"Ġdecennia":6940,"lap":6941,"Ġindexen":6942,"vaard":6943,"komende":6944,"OX":6945,"Ġanterior":6946,"avanceerde":6947,"Ġass":6948,"Ġontvan":6949,"Ġartritis":6950,"Ġfibrinogeen":6951,"gereerd":6952,"Ġlevensverwachting":6953,"Ġgesuggereerd":6954,"Ġmultip":6955,"Ġbeschrijft":6956,"idde":6957,"patronen":6958,"Ġhetzelfde":6959,"tember":6960,"ĠNieuw":6961,"ropine":6962,"Ġsubgroepen":6963,"Ġatheroscleros":6964,"Ã«ro":6965,"sme":6966,"Ġlaterale":6967,"immun":6968,"kingen":6969,"enter":6970,"Ġorth":6971,"Ġactief":6972,"Sc":6973,"Ġstart":6974,"Ġconcentr":6975,"Ġintroductie":6976,"mde":6977,"Ġbehalve":6978,"Ġpneumonie":6979,"gek":6980,"Ġachtere":6981,"ĠMAP":6982,"been":6983,"Ġachtereen":6984,"aden":6985,"Ġlifestyle":6986,"Ġisopro":6987,"ecla":6988,"oxidering":6989,"stitiÃ«le":6990,"ĠPW":6991,"Ġ1000":6992,"ĠSerum":6993,"varen":6994,"Ġeenmaal":6995,"ĠInf":6996,")))":6997,"Ġnefropathie":6998,"eiding":6999,"alle":7000,"Ġgenetisch":7001,"entale":7002,"Ġverschijn":7003,"adrenoceptor":7004,"ohorten":7005,"Ġlongoedeem":7006,"Ġnierziekten":7007,"Ġmag":7008,"ssysteem":7009,"cardio":7010,"Ġexperimenten":7011,"isol":7012,"Ġischemischecardiomyopathie":7013,"niet":7014,"Ġstimuleren":7015,"ĠproteÃ¯nen":7016,"Ġsoms":7017,"pressiva":7018,"stoestand":7019,"ites":7020,"infuus":7021,"ĠMass":7022,"Ġvolksgezondheid":7023,"Ġmonitoring":7024,"orven":7025,"Ġnmol":7026,"Ġsynthese":7027,"ĠZes":7028,"Ġweerspiegel":7029,"ative":7030,"Ġreguleren":7031,"transplantaat":7032,"chem":7033,"Klinische":7034,"inaire":7035,"Ġinit":7036,"Ġstrom":7037,"mmetrische":7038,"alisering":7039,"Ġembolie":7040,"isende":7041,"entan":7042,"esultaten":7043,"ĠOntslag":7044,"Ġresistent":7045,"ĠVanwege":7046,"Ġbegonnen":7047,"iaanse":7048,"IIIa":7049,"conver":7050,"Ġneonatale":7051,"Ġgedetailleerde":7052,"BS":7053,"hele":7054,"NYHA":7055,"VI":7056,"dieren":7057,"eremm":7058,"scopie":7059,"Ġgedeeltelijke":7060,"Ġelim":7061,"Ġindirect":7062,"jectieve":7063,"kno":7064,"Ġpas":7065,"vormige":7066,"Ġbetrouwbare":7067,"Ġcholesterolgehalte":7068,"Ġlongembolie":7069,"Ġpts":7070,"ĠSC":7071,"ziatische":7072,"];":7073,"Ġtolerantie":7074,"Ġventrikelfunctie":7075,"Ġneiging":7076,"braak":7077,"Ġmaag":7078,"Ġgeleverd":7079,"Ġpostoperatief":7080,"dicap":7081,"Ġcircum":7082,"gewoonten":7083,"time":7084,"ĠComp":7085,"Ġbloedglucose":7086,"Ġdeels":7087,"Ġsamengestelde":7088,"ĠAVNRT":7089,"Ġmilieu":7090,"potentiaal":7091,"eroÃ¯den":7092,"Ġblanken":7093,"Ġsluit":7094,"lete":7095,"Ġup":7096,"honderd":7097,"ingle":7098,"exc":7099,"Ġgevalide":7100,"Ġonderscheid":7101,"ĠRNA":7102,"Ġbrede":7103,"adv":7104,"Ġcal":7105,"Ġwitte":7106,"inc":7107,"isie":7108,"ertijd":7109,"Ġbypassoperatie":7110,"remodellering":7111,"Ġbeheers":7112,"Ġlichamelijk":7113,"Ġvoeren":7114,"DE":7115,"stap":7116,"mpathische":7117,"Ġbijkomende":7118,"ai":7119,"Ġverzwakt":7120,"Ġverpleegkun":7121,"Ġveronder":7122,"Ġkamer":7123,"bevelingen":7124,"ĠAmerikanen":7125,"olff":7126,"Ġkn":7127,"Ġvoorspelling":7128,"Ġuitvoeren":7129,"Cor":7130,"Ġham":7131,"Ġdiagnoses":7132,"smateriaal":7133,"Ġ1990":7134,"Ġproximale":7135,"Ġion":7136,"DI":7137,"virus":7138,"eerbaarheid":7139,"betering":7140,"ectomie":7141,"lijsten":7142,"handha":7143,"itel":7144,"Ġnale":7145,"compense":7146,"ĠCardiovasculaire":7147,"opausale":7148,"zetten":7149,"Ġvasoconstri":7150,"Ġ1998":7151,"effect":7152,"Ġurinezuur":7153,"omycomycomycomycomycomycomycomycomycomycomycomycomycomycomycomyc":7154,"otalol":7155,"nese":7156,"Ġcarotis":7157,"Ġkern":7158,"Ġvoorbehandeling":7159,"Ġkindertijd":7160,"Ġveilige":7161,"bloedingen":7162,"Ġnormotensieve":7163,"uan":7164,"ĠPK":7165,"ĠSNP":7166,"enteel":7167,"rins":7168,"Ġstopgezet":7169,"Ġleukocyten":7170,"afd":7171,"Ġproport":7172,"Ġfoetale":7173,"Ġsuperoxide":7174,"ĠcTnI":7175,"Ġsetting":7176,"Ġisolatie":7177,"bla":7178,"Ġmes":7179,"stro":7180,"Ġonbehandelde":7181,"ohist":7182,"Ġdabigatran":7183,"Ġsek":7184,"ice":7185,"geÃ¯nfecteerde":7186,"ystrofie":7187,"hydroxy":7188,"iazem":7189,"Ġoverleef":7190,"inogen":7191,"Ġpomp":7192,"arts":7193,"ĠDise":7194,"ĠLAA":7195,"Ġrecovery":7196,"Ġseptember":7197,"yridamole":7198,"cept":7199,"weer":7200,"dilatatie":7201,"Ġbenadrukt":7202,"Ġbovendien":7203,"ĠIGF":7204,"ĠDoor":7205,"Ġrichting":7206,"Ġregelmatig":7207,"Ġverzwakte":7208,"RV":7209,"stent":7210,"aggregatie":7211,"ega":7212,"Ġsporen":7213,"ĠMACE":7214,"Ġbescheiden":7215,"Ġbijdraagt":7216,"Ġfluor":7217,"pla":7218,"oxic":7219,"Ġgepland":7220,"Ġpatronen":7221,"Ġmuis":7222,"ilatie":7223,"ĠSoc":7224,"ĠNorm":7225,"ivariab":7226,"Ġbeweging":7227,"heem":7228,"Ġgeactiveerd":7229,"Ġmei":7230,"Ġvoorspeld":7231,"Ġparallel":7232,"PCR":7233,"gebruikers":7234,"Ġaanvankelijke":7235,"oden":7236,"Ġprot":7237,"Ġneur":7238,"Ġendotheline":7239,"Ġantitrombotische":7240,"ĠIR":7241,"Ġplat":7242,"ytro":7243,"lav":7244,"ĠCC":7245,"Ġconclusie":7246,"digheid":7247,"Ġverwijdde":7248,"Ġcruciale":7249,"datie":7250,"ĠNS":7251,"oedeisende":7252,"omein":7253,"dose":7254,"Ġerkenning":7255,"ĠLA":7256,"Ġopgewekt":7257,"Up":7258,"gelu":7259,"Ġglut":7260,"aamde":7261,"Ġmogelijkheden":7262,"Ġzwarte":7263,"EM":7264,"Ġontdek":7265,"verlen":7266,"rans":7267,"immuun":7268,"ĠmiR":7269,"Ġtalrijke":7270,"-(":7271,"Ġnic":7272,"ollar":7273,"Ġunivers":7274,"Ġafgesloten":7275,"Ġbewijsmateriaal":7276,"Hcy":7277,"lester":7278,"Ġleden":7279,"orbide":7280,"Ġgolf":7281,"gelijkertijd":7282,"vert":7283,"Ġsystematisch":7284,"Ġcanine":7285,"bu":7286,"annen":7287,"Ġvorige":7288,"Ġcir":7289,"Ġwezen":7290,"Ġgehandha":7291,"Ġzoe":7292,"ypes":7293,"systemen":7294,"Ġgedaald":7295,"variab":7296,"ggen":7297,"Ġapex":7298,"Ġtransplantaten":7299,"Ġanticon":7300,"rank":7301,"ageren":7302,"ĠNoord":7303,"Ġgenorm":7304,"ĠIIb":7305,"Ġosteopor":7306,"dilol":7307,"Ġverschilde":7308,"Ġkwets":7309,"oÃ¯den":7310,")/":7311,"Ġprob":7312,"Ġperip":7313,"ĠRT":7314,"Ġ1997":7315,"drempel":7316,"Ġmorfologie":7317,"Ġgerandomiseerd":7318,"Ġbewustzijn":7319,"PH":7320,"gekeur":7321,"tail":7322,"intestinale":7323,"technieken":7324,"Ġtom":7325,"Ġsoort":7326,"Ġautomatische":7327,"Ġfocale":7328,"Ġdatabank":7329,"Ġdiffuse":7330,"Ġlos":7331,"Ġextras":7332,"Ġatypische":7333,"ĠinterstitiÃ«le":7334,"Ġ2013":7335,"ission":7336,"Ġem":7337,"ĠER":7338,"Ġbewaking":7339,"Ġervaren":7340,"mpsie":7341,"orsade":7342,"Ġvle":7343,"Ġoog":7344,"ademing":7345,"Ġrattenharten":7346,"Ġtransmurale":7347,"Ġleads":7348,"Ġlatere":7349,"bru":7350,"Ġvoorkeur":7351,"opie":7352,"Ġonderzoekers":7353,"Ġsubstant":7354,"Ġvloe":7355,"sil":7356,"ĠmV":7357,"ycine":7358,"Ġgoedgekeur":7359,"Ġerytro":7360,"CMR":7361,"Ġimmunosup":7362,"aag":7363,"orme":7364,"acet":7365,"ĠZeven":7366,"ycline":7367,"wisseling":7368,"INE":7369,"urose":7370,"che":7371,"requent":7372,"Ġspierd":7373,"Ġevol":7374,"cardiomycine":7375,"Ġ140":7376,"Ġkomende":7377,"Ġgevaren":7378,"kwartiel":7379,"Ġgehandhaafd":7380,"Reden":7381,"SC":7382,"Ġhartproblemen":7383,"Ġfund":7384,"Ġhypog":7385,"ĠGP":7386,"Ġangiogenese":7387,"Ġgedrags":7388,"Ġelectrophysiologische":7389,"urosemide":7390,"Ġdes":7391,"vezel":7392,"ĠIntern":7393,"oeding":7394,"Ġgeavanceerde":7395,"Ġvoorspellend":7396,"Ġdiscrimin":7397,"dichtheid":7398,"Ġalpha":7399,"Ġbelangstelling":7400,"Ġrestri":7401,"echocardiografie":7402,"Ġkwartiel":7403,"ĠESRD":7404,"aw":7405,"idi":7406,"sterkte":7407,"ĠPAD":7408,"Ġfalende":7409,"Ġfemorale":7410,"Drie":7411,"gren":7412,"Ġnooit":7413,"Ġ180":7414,"ficatie":7415,"gingen":7416,"Ġsur":7417,"behandelingen":7418,"Ġonbekende":7419,"Ġstopzetting":7420,"Ġverergering":7421,"Ġtabak":7422,"curve":7423,"Ġventrikeluit":7424,"Ġsepsis":7425,"angiotensine":7426,"Ġthyro":7427,"igingen":7428,"Ġgeleden":7429,"Ġcatecholamine":7430,"knoop":7431,"Ġoplossing":7432,"iter":7433,"ustachycardie":7434,"NI":7435,"grond":7436,"Ġsal":7437,"ocardocardocardocardocardocardocardocard":7438,"ĠamyloÃ¯de":7439,"risch":7440,"Ġdeeltjes":7441,"fil":7442,"Ġversnel":7443,"iciÃ«nt":7444,"Ġhartspier":7445,"gradiÃ«nt":7446,"vaardigd":7447,"Ġantropometrische":7448,"ous":7449,"Ġethanol":7450,"ĠGegevens":7451,"Ġontdekking":7452,"Ġradiofrequentieablatie":7453,"Ġtranscriptie":7454,"Ġveelbelovende":7455,"ĠsubstantiÃ«le":7456,"Ġdarm":7457,"Ġarbe":7458,"Ġhomozyg":7459,"Ġcatecholamin":7460,"Ġvernauw":7461,"DLINE":7462,"ĠVervolgens":7463,"Ġgekwant":7464,"Ġvitale":7465,"Ġhandhaven":7466,"Ġmaternale":7467,"rem":7468,"Ġkwaad":7469,"Ġrelevant":7470,"Ġscintigrafie":7471,"Ġevaluaties":7472,"Ġtestosteron":7473,"Ġstabil":7474,"Ġzone":7475,"ament":7476,"vedilol":7477,"stem":7478,"apt":7479,"istr":7480,"ĠWolff":7481,"Ġbestudeerde":7482,"gaat":7483,"Ġdollar":7484,"Ġcy":7485,"ierd":7486,"Ġoorzakelijke":7487,"ĠgeÃ¯nject":7488,"Ġcalciumkanaal":7489,"Ġloopband":7490,"UFA":7491,"iers":7492,"ijken":7493,"Ġ1995":7494,"Ġendomi":7495,"Ġspeciale":7496,"Ġprecie":7497,"Ġcardiopleg":7498,"sectionele":7499,"evaluatie":7500,"Ġvetweefsel":7501,"Ġdringen":7502,"Ġ(((":7503,"delingen":7504,"Ġ110":7505,"ized":7506,"scha":7507,"Ġtraum":7508,"scan":7509,"Ġinternationale":7510,"cain":7511,"Ġanesthesie":7512,"SV":7513,"omic":7514,"ĠTen":7515,"ibele":7516,"Ġnodal":7517,"rol":7518,"Ġverdi":7519,"Ġprov":7520,"Medische":7521,"lucht":7522,"gevoeligheid":7523,"Ġzwangerschaps":7524,"Ġconcept":7525,"roken":7526,"ocyte":7527,"cijfers":7528,"Ġcumulering":7529,"hydraten":7530,"Parkinson":7531,"iddela":7532,"ĠSociet":7533,"MAP":7534,"Ġcell":7535,"Ġwaarvoor":7536,"Ġhersteld":7537,"Ġantistoffen":7538,"Ġoplos":7539,"Ġiso":7540,"stechn":7541,"osociale":7542,"wenen":7543,"positieve":7544,"arter":7545,"Ġcontact":7546,"Ġverduidelijken":7547,"Ġpaar":7548,"ĠGeschiedenis":7549,"Ġbiomarker":7550,"rs":7551,"Ġsem":7552,"ssp":7553,"ometrie":7554,"Ġrelaties":7555,"sequentie":7556,"Ġschildklier":7557,"ila":7558,"ĠeGFR":7559,"asmen":7560,"mede":7561,"Ġschokken":7562,"Ġsubend":7563,"uleert":7564,"oton":7565,"Ġ500":7566,"keken":7567,"odes":7568,"Ġelectrocardi":7569,"Ġverdwenen":7570,"Ġslaapapneu":7571,"iveren":7572,"glycerine":7573,"Ġcircumflex":7574,"Ġovergang":7575,"Ġbaror":7576,"PatiÃ«nten":7577,"aliteiten":7578,"Ġ(((((((((":7579,"Ġkenmerkend":7580,"ĠOmdat":7581,"Ġverwondingen":7582,"ici":7583,"Ġsinustachycardie":7584,"erol":7585,"Ġader":7586,"icham":7587,"Ġbleken":7588,"Ġvervolg":7589,"Ġontwerp":7590,"doel":7591,"Ġprofyla":7592,"isfunctie":7593,"ĠApo":7594,"giftiging":7595,"Ġmitochondria":7596,"Ġonvolle":7597,"Ġoverdracht":7598,"AH":7599,"anat":7600,"ĠHD":7601,"Ġdoorgaan":7602,"ĠVijf":7603,"Ġspoedeisende":7604,"Ġbeenmerg":7605,"Ġberoep":7606,"Ġneutrofielen":7607,"ohistoch":7608,"Ġproced":7609,"Ġastma":7610,"\"-\"-":7611,"otisch":7612,"appa":7613,"Ġnaleving":7614,"Ġout":7615,"ĠPO":7616,"Ġbemiddela":7617,"Ġcyclo":7618,"UC":7619,"Ġpunten":7620,"merase":7621,"Ġhemodynamisch":7622,"Ġinstabiliteit":7623,"Ġkoolhydraten":7624,"omarkers":7625,"ositeit":7626,"veertig":7627,"adrenergische":7628,"eclampsie":7629,"meer":7630,"oph":7631,"Ġsnelheids":7632,"Ġwandbeweging":7633,"Ġemotionele":7634,"tot":7635,"Ġreactiviteit":7636,"Ġgemeng":7637,"Ġgemengde":7638,"depressie":7639,"Ġaanvaard":7640,"ruit":7641,"randiale":7642,"Ġmicroalbuminurie":7643,"Ġvereisen":7644,"ĠapolipoproteÃ¯ne":7645,"Ġgespec":7646,"okin":7647,"plaatj":7648,"vuld":7649,"icardium":7650,"bruari":7651,"Ġaortastenose":7652,"Ġdesm":7653,"imum":7654,"ijding":7655,"Ġkwantificeren":7656,"ĠMedical":7657,"ĠSociety":7658,"orff":7659,"oppervlakte":7660,"Ġontdekt":7661,"Ġdiepe":7662,"Ġovereenkomst":7663,"myocardinfarct":7664,"arcin":7665,"Ġgekwantificeerd":7666,"Ġdriedimensionale":7667,"ĠTerwijl":7668,"Ġdosisafhankelijke":7669,"biopsie":7670,"woners":7671,"enc":7672,"ĠCM":7673,"Ġbemoe":7674,"ozen":7675,"Ã«ff":7676,"Ġmob":7677,"Ġanders":7678,"ĠPCOS":7679,"Ġinn":7680,"atient":7681,"olon":7682,"sori":7683,"Ġpoin":7684,"va":7685,"Ġmentale":7686,"Ġ400":7687,"blokker":7688,"Ġchemotherapie":7689,"YP":7690,"Ġeenheid":7691,"Ġ-((((":7692,"tet":7693,"Ġdaarmee":7694,"ĠgeÃ¯dentificeerde":7695,"Ġpacemakers":7696,"Ġtypisch":7697,"Ġrepresent":7698,"Ġecardiocardi":7699,"Ġantip":7700,"ptine":7701,"Ġadhesiemolecule":7702,"Ġbeperken":7703,"Ġosteoporose":7704,"QR":7705,"populaties":7706,"sge":7707,"Ġvoorspelt":7708,"Ġwerknemers":7709,"Ġverscha":7710,"Ġunivariate":7711,"mus":7712,"Ġfle":7713,"CMO":7714,"Ġmislu":7715,"Ġzenuwstelsel":7716,"reserve":7717,"Ġretin":7718,"frag":7719,"trial":7720,"gevoelige":7721,"gendorff":7722,"Ġgecompliceerd":7723,"LS":7724,"Ġlum":7725,"ĠHST":7726,"ĠSLE":7727,"Ġsedent":7728,"Ġcongestieve":7729,"ĠbÃ¨":7730,"dividu":7731,"Ġgescre":7732,"Ġvoortgezet":7733,"Ġblokkade":7734,"alpha":7735,"Ġalgehele":7736,"oscopische":7737,"effecten":7738,"\",":7739,"TG":7740,"rot":7741,"Ġhartherstel":7742,"ĠMD":7743,"Ġstatinetherapie":7744,"Ġmitrale":7745,"centrum":7746,"Ġarhy":7747,"White":7748,"ischemie":7749,"Ġfamilies":7750,"Ġvierde":7751,"flow":7752,"plasm":7753,"Ġcat":7754,"selijke":7755,"Ġ130":7756,"Ġthuis":7757,"Ġledematen":7758,"ĠOver":7759,"Ġvolum":7760,"oun":7761,"Ġintubatie":7762,"Ġlangdurig":7763,"gezondheids":7764,"Ġdoorgaans":7765,"punten":7766,"oordelen":7767,"Ġketen":7768,"Ġtrac":7769,"Ġmedicijnen":7770,"ow":7771,"Ġendotheel":7772,"ĠTC":7773,"ĠproteÃ¯n":7774,"wegings":7775,"ifeste":7776,"Ġtek":7777,"ĠAA":7778,"iculum":7779,"ĠSurvey":7780,"ality":7781,"Ġeenvoudig":7782,"vormende":7783,"gestuur":7784,"Ġligt":7785,"hydrogen":7786,"Ġdraagt":7787,"fal":7788,"atoÃ¯de":7789,"Ġsingle":7790,"ropa":7791,"Ġinduceerbare":7792,"TNF":7793,"hs":7794,"Ġpil":7795,"Ġhoogst":7796,"Ġvertegenwoordig":7797,"Ġagon":7798,"Ġterminale":7799,"Ġ1994":7800,"ĠDisease":7801,"binding":7802,"loc":7803,"Ġtet":7804,"istar":7805,"Ġvasodilatatie":7806,"Ġdominante":7807,"Ġspierdystrofie":7808,"Ġvla":7809,"Ġinkomen":7810,"Ġonop":7811,"vertra":7812,"Ġafstand":7813,"Ġuitbre":7814,"Ġradio":7815,"Ġmanifestatie":7816,"otsubocardiomyopathie":7817,"Ġdrugs":7818,"Ġvalvulaire":7819,"ventraire":7820,"Ġkwaadaardige":7821,"hetische":7822,"iekatheter":7823,"atheters":7824,"ectieve":7825,"Ġcomplete":7826,"Ġprecieze":7827,"ichamelijk":7828,"Atriale":7829,"ĠChina":7830,"Ġopgelo":7831,"terenol":7832,"mes":7833,"energie":7834,"Ġoverwegen":7835,"remming":7836,"Ġvocht":7837,"Ġdro":7838,"Ġvergez":7839,"ĠPCR":7840,"undeerd":7841,"ivariable":7842,"KA":7843,"Ġminimaal":7844,"Ġlangetermijnresultaten":7845,"Ġdipyridamole":7846,"Ġlinkerkamerkamer":7847,"negatieve":7848,"Ġontvangen":7849,"tekort":7850,"007":7851,"Ġmyopathie":7852,"fielen":7853,"eptide":7854,"Ġwaarschijnlijkheid":7855,"Ġtijdelijk":7856,"Ġverstoorde":7857,"IF":7858,"ĠLe":7859,"ritmogene":7860,"Ġdaarna":7861,"Ġongebruikelijke":7862,"Ġheterozyg":7863,"monsters":7864,"Ġluchtweg":7865,"interventies":7866,"Ġomgezet":7867,"aandoen":7868,"Ġsuikerziekte":7869,"uwen":7870,"006":7871,"ichting":7872,"Ġkwal":7873,"Ġtrombotische":7874,"Ġgerecht":7875,"Ġcytos":7876,"Ġtricuspide":7877,"oefeningen":7878,"Ġversnelde":7879,"Ġvergezeld":7880,"Ġamino":7881,"chloride":7882,"Ġvoorzien":7883,"otine":7884,"Ġstabiliteit":7885,"alende":7886,"Ġscala":7887,"Ġregressiemodellen":7888,"Ġantibiot":7889,"Ġvereiste":7890,"Ġvoldeden":7891,"Ġeconomische":7892,"ĠPVC":7893,"paraten":7894,"mg":7895,"ound":7896,"Ġbro":7897,"Ġstudiepopulatie":7898,"ĠLat":7899,"cont":7900,"Ġzware":7901,"iciÃ«nte":7902,"Ġkat":7903,"Ġhartmy":7904,"orescentie":7905,"mod":7906,"vragen":7907,"Ġintacte":7908,"Ġgeboortegewicht":7909,"doses":7910,"Ġpub":7911,"ĠNSTE":7912,"Ġprecor":7913,"Ġplaceb":7914,"Ġkortdurende":7915,"Ġnamelijk":7916,"cardiomy":7917,"Ġversn":7918,"tiazem":7919,"Ġposit":7920,"Ġonver":7921,"epen":7922,"medicatie":7923,"eiz":7924,"spatronen":7925,"Ġdoxorubicine":7926,"entraire":7927,"lood":7928,"Ġovert":7929,"ĠHRM":7930,"Ġfebruari":7931,"dnis":7932,"ĠMed":7933,"Ġziekterisico":7934,"Ġrespon":7935,"Ġsystemen":7936,"Ġlozing":7937,"Ġuitgangs":7938,"rist":7939,"ĠASA":7940,"apo":7941,"ĠgeÃ¯nteg":7942,"Ġannulus":7943,"albumine":7944,"Ġanalyseerden":7945,"ituatie":7946,"Ġimplantaten":7947,"li":7948,"linieken":7949,"Ġtoepassingen":7950,"ustus":7951,"smechan":7952,"WT":7953,"ĠCent":7954,"Ġstudiegroep":7955,"resistentie":7956,"Ġsituatie":7957,"Ġbiventriculaire":7958,"Ġvergemakkelijken":7959,"uv":7960,"atment":7961,"tering":7962,"volging":7963,"Ġpassende":7964,"Ġonderwerp":7965,"Ġvagale":7966,"Ġmanifeste":7967,"Ġaantonen":7968,"ĠOpname":7969,"Ġviscer":7970,"Ġnec":7971,"Ġopvallend":7972,"imeter":7973,"ĠWistar":7974,"Ġ1992":7975,"Ġplaatsv":7976,"rid":7977,"Ġland":7978,"ĠEchocardi":7979,"Ġ1996":7980,"Ġbloedplaatjesaggregatie":7981,"radiol":7982,"dur":7983,"agnetische":7984,"soorten":7985,"Ġinhib":7986,"Ġeens":7987,"Ġgerechtvaardigd":7988,"ĠQu":7989,"Ġpsychosociale":7990,"Ġwild":7991,"olysis":7992,"ocine":7993,"Ã«robe":7994,"Ġsluiting":7995,"anest":7996,"Ġondersteund":7997,"mt":7998,"ĠCardiology":7999,"heemse":8000,"boven":8001,"Ġsignalen":8002,"Ġangiogram":8003,"ĠOns":8004,"Ġenzymen":8005,"ulf":8006,"vember":8007,"Ġmyosine":8008,"Ġextrem":8009,"tal":8010,"lect":8011,"ĠInstit":8012,"olieten":8013,"Ġresterende":8014,"Ġinstrument":8015,"ziekenhuis":8016,"ark":8017,"inefrine":8018,"ĠNAF":8019,"Ġafbraak":8020,"Ġpersoons":8021,"benader":8022,"âĢ":8023,"teerden":8024,"Ġred":8025,"Ġfoetussen":8026,"Ġuitsluitend":8027,"dysp":8028,"Ontslagsamenvatting":8029,"dial":8030,"ĠTak":8031,"Ġwanddikte":8032,"ĠVEGF":8033,"gepaste":8034,"idt":8035,"Ġreage":8036,"Ġvolgt":8037,"Ġdetect":8038,"EG":8039,"uri":8040,"ĠHis":8041,"ĠBrug":8042,"Ġfamilieleden":8043,"methoden":8044,"Ġconstante":8045,"ycardycard":8046,"converterend":8047,"Onlangs":8048,"Ġbeheersing":8049,"orfe":8050,"ijftig":8051,"Ġglad":8052,"osoom":8053,"acties":8054,"Ġantiaritmische":8055,"Ġangiografische":8056,"Ġbeschrijving":8057,"Ġpoliklinische":8058,"malige":8059,"Ãł":8060,"Ġcult":8061,"aars":8062,"ĠMon":8063,"ussie":8064,"Ġnitroglycerine":8065,"ris":8066,"aturatie":8067,"itoren":8068,"ĠIA":8069,"ochrane":8070,"dheid":8071,"oag":8072,"Ġbaat":8073,"Ġreproduc":8074,"Ġfruit":8075,"ferase":8076,"Ġbrady":8077,"ĠmiRNA":8078,"ĠLangendorff":8079,"Veel":8080,"bruik":8081,"Ġbif":8082,"Ġbuur":8083,"Ġbesluit":8084,"ution":8085,"Ġvena":8086,"iltr":8087,"Ne":8088,"Ġverg":8089,"Ġleptine":8090,"ĠNCT":8091,"Ġmanagement":8092,"Ġdementie":8093,"arginine":8094,"Ġnationaal":8095,"klaar":8096,"eth":8097,"bron":8098,"etine":8099,"ĠAp":8100,"uurs":8101,"requentiekatheter":8102,"CH":8103,"anc":8104,"ĠErnstige":8105,"ĠEngel":8106,"orac":8107,"Ġpara":8108,"Behandeling":8109,"Ġskeletspieren":8110,"Ġontdekten":8111,"Ġ(>":8112,"schrijven":8113,"chrom":8114,"Ġatria":8115,"ĠseriÃ«le":8116,"hypertensie":8117,"Ġinfecties":8118,"ĠdialysepatiÃ«nten":8119,"plaatsing":8120,"Ġcontractiele":8121,"FT":8122,"SPECT":8123,"hes":8124,"ĠAther":8125,"uiver":8126,"proces":8127,"Ġatropine":8128,"Ġneuropathie":8129,"stijging":8130,"ĠcategorieÃ«n":8131,"ĠmM":8132,"seud":8133,"Ġonderwerpen":8134,"vaat":8135,"ribut":8136,"ĠICM":8137,"Ġtransient":8138,"soriasis":8139,"Ġil":8140,"Ġmapping":8141,"ript":8142,"Ġdiltiazem":8143,"ĠgeÃ¯njecteerd":8144,"Ġinz":8145,"Ġvastgestelde":8146,"Ġvervangen":8147,"preventie":8148,"caÃ¯n":8149,"ĠMA":8150,"vention":8151,"Ġtranscript":8152,"IP":8153,"Ġcov":8154,"Ġontwikkelings":8155,"schijnselen":8156,"Ġknooppunt":8157,"male":8158,"ĠMT":8159,"Ġgenoom":8160,"etitieve":8161,"Ġpunt":8162,"Ġgelok":8163,"amenstelling":8164,"Ġelast":8165,"oproteÃ¯n":8166,"Ġsituaties":8167,"Ġgescreend":8168,"Ġanth":8169,"ĠBevindingen":8170,"inus":8171,"Ġpromin":8172,"olinium":8173,"Ġgeheel":8174,"idase":8175,"Ġovermaat":8176,"achtig":8177,"ĠAcute":8178,"opyopy":8179,"Ġkandidaat":8180,"Ġpericarditis":8181,"iwit":8182,"ĠIS":8183,"ovirus":8184,"cedurale":8185,"Ġhandicap":8186,"otone":8187,"Ġkleur":8188,"Ġmethodes":8189,"oscopie":8190,"kere":8191,"ĠKon":8192,"Ġhandhaving":8193,"card":8194,"Ġcohorten":8195,"athion":8196,"Ġontworpen":8197,"Ġpostprandiale":8198,"Ġiets":8199,"Ġthorax":8200,"ecifieke":8201,"west":8202,"iserende":8203,"Ġinterview":8204,"Ġmicroscop":8205,"Ġverworven":8206,"Ġstimuli":8207,"Ġpolymerase":8208,"ĠNAFLD":8209,"Ġuiting":8210,"ness":8211,"varoxaban":8212,"Ġspontaan":8213,"instructies":8214,"Ġinterpretatie":8215,"Ġpointes":8216,"ĠCochrane":8217,"Ġident":8218,"Tc":8219,"iratoire":8220,"Ġniertransplantatie":8221,"Ġ1991":8222,"Ġverzorg":8223,"ynchronie":8224,"itoneale":8225,"ĠCB":8226,"Ġaugustus":8227,"Ġtim":8228,"Als":8229,"electieve":8230,"Ġgroenten":8231,"Ġontwikkelt":8232,"Ġ160":8233,"Ġdyst":8234,"ley":8235,"ĠInstitute":8236,"lon":8237,"icag":8238,"odynamische":8239,"gorit":8240,"synthase":8241,"Ġkortere":8242,"DG":8243,"EA":8244,"Lijst":8245,"TC":8246,"Ġmetabolisch":8247,"Ġpersoonsjaren":8248,"acc":8249,"ook":8250,"namnese":8251,"Ġlongziekte":8252,"PWV":8253,"homocyste":8254,"Ġverschaffen":8255,"UA":8256,"Ġsens":8257,"Ġgad":8258,"Ġprospectief":8259,"Ġsamengevat":8260,"Amerikaanse":8261,"itatief":8262,"asische":8263,"eflex":8264,"Ġdecennium":8265,"ĠlidocaÃ¯ne":8266,"Ġdex":8267,"Ġrestenose":8268,"ĠCF":8269,"Ġverminderden":8270,"Ġondersteunt":8271,"Ġherhaald":8272,"Ġopleveren":8273,"PM":8274,"ĠVrouw":8275,"ĠOx":8276,"Ġcorreleren":8277,"Ġreticulum":8278,"ĠMEDLINE":8279,"bec":8280,"Ġwarm":8281,"Ġtwaalf":8282,"heers":8283,"Ġalgoritme":8284,"ĠPar":8285,"abase":8286,"ĠDuit":8287,"ĠFollow":8288,"assay":8289,"Ġgoedgekeurd":8290,"scheiding":8291,"Ġontspanning":8292,"Ġ1993":8293,"Ġeffectiever":8294,"generatieve":8295,"Ġisoproterenol":8296,"kennen":8297,"opamine":8298,"Ġtrends":8299,"\"\"\"\"\"\"\"\"":8300,"gev":8301,"Ġbegele":8302,"Ġmeet":8303,"Ġembry":8304,"emyemyemyemy":8305,"Ġoplosbaar":8306,"atch":8307,"verwij":8308,"Ġhemost":8309,"Ġoxidatie":8310,"Ġonderdrukking":8311,"incidenten":8312,"atisch":8313,"Ġrivaroxaban":8314,"sequent":8315,"Ġsequentie":8316,"OC":8317,"derne":8318,"cessieve":8319,"Ġvertegenwoordigen":8320,"Ġantioxidanten":8321,"Ġverschijnselen":8322,"Ġoneven":8323,"ĠPAF":8324,"ĠSch":8325,"Ġbesteed":8326,"Ġepinefrine":8327,"Ġvoortdurende":8328,"mis":8329,"ĠLM":8330,"Ġkanalen":8331,"Ġmononucle":8332,"lange":8333,"Ġimmunohistoch":8334,"complexen":8335,"bes":8336,"port":8337,"akken":8338,"Ġpersistente":8339,"wegingen":8340,"ĠhyperthyreoÃ¯die":8341,"seff":8342,"Ġsamenvatting":8343,"Ġstedelijke":8344,"ĠScale":8345,"synchron":8346,"sgewijze":8347,"vrouwen":8348,"Ġpal":8349,"steking":8350,"Ġstimulering":8351,"persie":8352,"Ġproduceren":8353,"CRT":8354,"Ġest":8355,"receptorblok":8356,"verandering":8357,"ĠbeÃ«indigd":8358,"inal":8359,"ieel":8360,"Ġinclusief":8361,"ario":8362,"Ġkliniek":8363,"iveaus":8364,"ochrom":8365,"Ġvroegtijdig":8366,"Ġindicatoren":8367,"Ġcentimeter":8368,"Ġvermijden":8369,"helderd":8370,"LISA":8371,"Â²":8372,"oratio":8373,"Ġfit":8374,"Ġhypere":8375,"Ġzoutoplossing":8376,"Ġonverklaar":8377,"smassa":8378,"ĠPWV":8379,"calc":8380,"minder":8381,"Ġproduct":8382,"Ġtrig":8383,"Ġwerkelijke":8384,"activer":8385,"ĠVO":8386,"Ġpancre":8387,"idelijke":8388,"Ġopkomende":8389,"Ġstudieperiode":8390,"Ġapical":8391,"personen":8392,"SBP":8393,"arme":8394,"Ġ(\"":8395,"ĠAcht":8396,"Ġopgehelderd":8397,"organisatie":8398,"Ġcomponent":8399,"Ġgevalideerd":8400,"induc":8401,"overd":8402,"Ġnovember":8403,"Ġnab":8404,"Ġintensive":8405,"Ġuitstekende":8406,"rinsieke":8407,"ura":8408,"dehydrogen":8409,"septale":8410,"Ġgran":8411,"inderen":8412,"Ġontwikkelingen":8413,"relor":8414,"Ġharthypertrofie":8415,"onders":8416,"Ġdiverse":8417,"ĠPTCA":8418,"Ġdoelwitten":8419,"virale":8420,"Ġeenheden":8421,"Ġreageren":8422,"gelegd":8423,"123":8424,"Ġinotropische":8425,"gov":8426,"Ġindicator":8427,"Ġparoxysmal":8428,"oop":8429,"ĠĊ":8430,"Ġexperimenteel":8431,"Ġhoeveelheden":8432,"breng":8433,"ondersteun":8434,"Ġleeftijdsgroepen":8435,"etic":8436,"Ġwissel":8437,"lementen":8438,"ĠEMB":8439,"Ġmyocyt":8440,"trac":8441,"Zes":8442,"noe":8443,"ating":8444,"Ġstratific":8445,"Ġrestrictieve":8446,"efficiÃ«ntie":8447,"Ġvinden":8448,"ĠCho":8449,"Ġrisk":8450,"gelijkheden":8451,"Ġkleinere":8452,"entrar":8453,"alisklep":8454,"myocardiale":8455,"maatregelen":8456,"ixaban":8457,"Ġhaalbaar":8458,"Ġruimtelijke":8459,"iro":8460,"Ġactiveren":8461,"Ġgezondheidstoestand":8462,"ĠAngi":8463,"Ġverpleegkundigen":8464,"ĠBrugada":8465,"ijns":8466,"ĠHz":8467,"diensten":8468,"deficiÃ«ntie":8469,"mate":8470,"uken":8471,"wa":8472,"smodel":8473,"ĠProgram":8474,"inkrijk":8475,"ree":8476,"Ġwaarmee":8477,"ĠKoninkrijk":8478,"verschijnselen":8479,"Ġcentraal":8480,"Ġfractie":8481,"ĠIU":8482,"ĠSle":8483,"Ġfenotypes":8484,"Ġdun":8485,"Ġstaan":8486,"imer":8487,"Ġnader":8488,"Ġroutinematig":8489,"Eerdere":8490,"ded":8491,"Ġbacter":8492,"Ġtorsade":8493,"ormen":8494,"Ġproliferatie":8495,"Ġvond":8496,"Ġmild":8497,"coÃ«ff":8498,"ones":8499,"las":8500,"scher":8501,"ilie":8502,"orende":8503,"ĠreumatoÃ¯de":8504,"DR":8505,"enen":8506,"Ġ123":8507,"ĠKore":8508,"durend":8509,"ympathische":8510,"dehy":8511,"ĠVoort":8512,"Ġschattingen":8513,"Ġvarieerden":8514,"yR":8515,"ensie":8516,"Ġgesp":8517,"ssynchronie":8518,"iveau":8519,"ugrel":8520,"Ġ250":8521,"Gegevens":8522,"sine":8523,"deriv":8524,"verbetering":8525,"valid":8526,"Ġmyel":8527,"osclerotische":8528,"ĠVerenigd":8529,"ĠADP":8530,"Ġseksuele":8531,"Ġredenen":8532,"april":8533,"008":8534,"Ġperifeer":8535,"vival":8536,"Ġdoodsoorzaken":8537,"QRS":8538,"Ġharttroponine":8539,"Ġ2014":8540,"lipoproteÃ¯necholesterol":8541,"ĠVolgens":8542,"Coronaire":8543,"Ġcovari":8544,"tings":8545,"Ġtime":8546,"Ġhartdisfunctie":8547,"aans":8548,"acute":8549,"ĠZijn":8550,"120":8551,"phrine":8552,"Ġmaakte":8553,"bine":8554,"Ġverster":8555,"Ġklassen":8556,"Ġsnell":8557,"Ġwaarneming":8558,"Zo":8559,"vis":8560,"Ġeenmalige":8561,"Ġfist":8562,"ĠCare":8563,"romet":8564,"Ġtransfusie":8565,"Ġachtergrond":8566,"Ġrisicop":8567,"oort":8568,"Ġbereikten":8569,"Ġbeademing":8570,"ĠpatiÃ«nte":8571,"Ġlevert":8572,"Ġhamsters":8573,"Ġverspre":8574,"Ġoverleden":8575,"Ġmethod":8576,"ĠPVI":8577,"contractie":8578,"cell":8579,"ĠOS":8580,"tieve":8581,"Ġkwart":8582,"ĠOpnamedatum":8583,"Ġdiscussie":8584,"Ġallel":8585,"Ġrecombin":8586,"openie":8587,"Ġtrial":8588,"Ġsedentaire":8589,"brengst":8590,"dehyde":8591,"Ġventie":8592,"Ġnife":8593,"Ġontst":8594,"gescha":8595,"Ġwees":8596,"Ġzorgt":8597,"glyc":8598,"hoek":8599,"Ġ101":8600,"riet":8601,"Ġpatch":8602,"Ġzenuwsysteem":8603,"Ġvoert":8604,"spraak":8605,"Ġbevordert":8606,"ĠHC":8607,"afen":8608,"Ġvergelijkingen":8609,"agonist":8610,"Ġmutant":8611,"Ġnodale":8612,"ervatie":8613,"Ġwonden":8614,"Ġlys":8615,"Ġcardiotoxiciteit":8616,"Ġgekozen":8617,"stoffen":8618,"Ġbrug":8619,"Ġasymmetrische":8620,"mycard":8621,"hormonen":8622,"geval":8623,"Ġgal":8624,"Diabetes":8625,"ĠToen":8626,"MG":8627,"sz":8628,"Ġsotalol":8629,"Ġgerep":8630,"Ġlandelijke":8631,"indexen":8632,"Ġonderdrukt":8633,"Ġlichaamsgewicht":8634,"Ġvermoedelijke":8635,"Ġpoging":8636,"VP":8637,"adox":8638,"ofol":8639,"ĠGH":8640,"isodes":8641,"Ġpolymorphische":8642,"Ġbrachiale":8643,"Ġdiagnostic":8644,"gestuurde":8645,"fac":8646,"defect":8647,"OL":8648,"eind":8649,"Ġerg":8650,"ofren":8651,"Ġhartklep":8652,"Ġradicalen":8653,"Ġbuurt":8654,"Ġgadolinium":8655,"leren":8656,"Ġremodel":8657,"Ġrate":8658,"imuleerde":8659,"koming":8660,"ms":8661,"Ġafspraken":8662,"Ġverwar":8663,"variabelen":8664,"pelijk":8665,"Ġovar":8666,"Ġgeboren":8667,"Ġfunctioneel":8668,"activatie":8669,"Ġpri":8670,"ĠCHA":8671,"Ġcontext":8672,"Ġgescheiden":8673,"register":8674,"Ġalcoholische":8675,"Ġvragenlijsten":8676,"ulen":8677,"med":8678,"smetho":8679,"Ġglomerular":8680,"Ġtransluminale":8681,"nier":8682,"supplementen":8683,"Ġsament":8684,"amers":8685,"cefal":8686,"ologieÃ«n":8687,"ĠIgG":8688,"My":8689,"cip":8690,"xe":8691,"idingen":8692,"oeg":8693,"Ġmening":8694,"gericht":8695,"sensus":8696,"AMP":8697,"ail":8698,"Ġwerken":8699,"related":8700,"Ġleverziekte":8701,"cyt":8702,"wan":8703,"Ġinwoners":8704,"Ġgereguleerd":8705,"Ġfosfolip":8706,"lesterol":8707,"arcinoom":8708,"onu":8709,"schien":8710,"Ġantibloedplaatjes":8711,"qui":8712,"Ġomega":8713,"haling":8714,"edurende":8715,"Ġatt":8716,"Ġleeftijdsgebonden":8717,"Ġretinopathie":8718,"ato":8719,"ĠPPAR":8720,"sulf":8721,"Ġseptal":8722,"--------------------------------------------------------------------------------------------------------------------------------":8723,"hen":8724,"opress":8725,"Ġfurosemide":8726,"umoren":8727,"Ġdeelname":8728,"Ġdal":8729,"ĠSur":8730,"darm":8731,"Ġhartt":8732,"fracties":8733,"Ġgewichts":8734,"Ġtumornecrose":8735,"Ġprostaat":8736,"volumes":8737,"Ġstresstests":8738,"Ġstoor":8739,"ĠUA":8740,"letie":8741,"Ġheterogene":8742,"kaarten":8743,"ĠIntra":8744,"Ġhypothermie":8745,"Ġzeldzaam":8746,"Ġkritisch":8747,"holte":8748,"dehydrogenase":8749,"vigheid":8750,"Ġbloedlichaam":8751,"VASc":8752,"izofren":8753,"Ġbemoeilijk":8754,"entig":8755,"Ġoppervlak":8756,"Ġrisicobeoordeling":8757,"ĠMit":8758,"tine":8759,"ielen":8760,"Ġbijgedragen":8761,"Ġgeneesmiddelentherapie":8762,"Ġvarieert":8763,"ĠHypertensie":8764,"Ġenter":8765,"Ġmyoc":8766,"selijk":8767,"Ġovereenkomen":8768,"ransplante":8769,"idon":8770,"Ġgingen":8771,"vergelijk":8772,"Ġherstellen":8773,"Ġintracoronaire":8774,"Ġkoude":8775,"ballon":8776,"risic":8777,"rotische":8778,"Ġmeth":8779,"ĠOnt":8780,"functies":8781,"Ġlij":8782,"Ġremmende":8783,"Ġsupplementen":8784,"ĠPatiÃ«nt":8785,"Ġexerc":8786,"ĠKap":8787,"fibrillatoren":8788,"Ġelektronische":8789,"BL":8790,"Ġdef":8791,"Ġselect":8792,"Ġaldosteron":8793,"Ġbloedstol":8794,"clide":8795,"vormen":8796,"Ġspiercellen":8797,"rasugrel":8798,"dosis":8799,"orine":8800,"ometer":8801,"search":8802,"Ġtegenst":8803,"Ġrelevantie":8804,"Ġbewijzen":8805,"Ġplacebogroep":8806,"gaven":8807,"xpressie":8808,"Ġdoppler":8809,"Ġvolgen":8810,"Ġsubs":8811,"verzadigde":8812,"Ġparen":8813,"Ġwaarop":8814,"Ġvaakst":8815,"Ġplaatselijke":8816,"Ġultrason":8817,"Ġprocedurele":8818,"PLA":8819,"Ġtertile":8820,"gedrag":8821,"smo":8822,"%]":8823,"Re":8824,"ĠLD":8825,"beheer":8826,"ĠcardiomyopathieÃ«n":8827,"Ġmetabol":8828,"omere":8829,"Ġverstre":8830,"lande":8831,"prevalentie":8832,"Ġanomalie":8833,"ontre":8834,"Ġinten":8835,"Ġreserve":8836,"oefening":8837,"Ġverdw":8838,"Ġneonaten":8839,"Ġgroeiende":8840,"vragenlijst":8841,"Sp":8842,"Ġglutathion":8843,"ylo":8844,"Ġbrand":8845,"istisch":8846,"Ġcontractieve":8847,"etrovirale":8848,"Ġhumaan":8849,"ystole":8850,"Ġelectrofysiologisch":8851,"Ġtegenstrij":8852,"Anamnese":8853,"gue":8854,"itaties":8855,"Ġwerkt":8856,"Ġregistratie":8857,"Ġmyocardischemie":8858,"Ġmonocyten":8859,"Ġevenwicht":8860,"Ġinspanningscapaciteit":8861,"obstructie":8862,"serum":8863,"olact":8864,"Ġbereikte":8865,"ĠGezien":8866,"Ġbronnen":8867,"Ġbloedstalen":8868,"wijde":8869,"Ġzeker":8870,"kosten":8871,"ori":8872,"otomy":8873,"prague":8874,"Ġvoortdurend":8875,"Ġcomorbiditeiten":8876,"inesie":8877,"lopige":8878,"Ġvertragen":8879,"dP":8880,"Ġkwest":8881,"ĠLC":8882,"overbelasting":8883,"landen":8884,"Ġbeperking":8885,"Ġverdoofd":8886,"uigen":8887,"ĠgeÃ¯ntro":8888,"UR":8889,"Ġplant":8890,"Ġprasugrel":8891,"ask":8892,"asme":8893,"Ġleeft":8894,"Ġalsmede":8895,"Ġendocarditis":8896,"iatrische":8897,"Recente":8898,"Ġvoorkoming":8899,"Ġtegelijkertijd":8900,"spiegelen":8901,"Ġverstoring":8902,"Ġremm":8903,"ema":8904,"Ġserumcholesterol":8905,"Ġweerspiegelen":8906,"onuclide":8907,"IQR":8908,"geving":8909,"isaties":8910,"Ġpsoriasis":8911,"apen":8912,"ĠSommige":8913,"Ġbehandelt":8914,"Ġbetrof":8915,"vertraging":8916,"Ġaff":8917,"ĠCH":8918,"axatie":8919,"Ġintrinsieke":8920,"Ġcryo":8921,"Ġbekeken":8922,"Ġran":8923,"Ġkrachtig":8924,"Ġlocatie":8925,"selectine":8926,"icagrelor":8927,"ondersteuning":8928,"ventig":8929,"Ġmaligne":8930,"Ġventrikeluitstroomkanaal":8931,"PL":8932,"Ġmond":8933,"Ġmultivariable":8934,"pport":8935,"therapieÃ«n":8936,"riglyceridemie":8937,"cal":8938,"Ġmyof":8939,"Ġoperatief":8940,"statisch":8941,"aliÃ«mie":8942,"ĠPub":8943,"Ġverkeerde":8944,"eutische":8945,"Ġpathway":8946,"Vergeleken":8947,"rypan":8948,"Ġcoorbiditeiten":8949,"defin":8950,"ĠpatiÃ«ntenpopulatie":8951,"Ġintravasculaire":8952,"Ġcircuit":8953,"iders":8954,"Ġsegmentale":8955,"Ġcardio":8956,"Ġoverheers":8957,"ĠglycoproteÃ¯ne":8958,"ory":8959,"Ġvasten":8960,"Ġhuisartsen":8961,"ĠICU":8962,"Ġthalium":8963,"Ġonderzochte":8964,"adrenaline":8965,"ĠPAI":8966,"leven":8967,"Ġspanning":8968,"Ġacidose":8969,"Ġ125":8970,"Ġberekening":8971,"Ġverwachte":8972,"PET":8973,"Ġradiofrequentiekatheter":8974,"ĠhsCRP":8975,"Ġnaboot":8976,"Ġaanval":8977,"ogenese":8978,"ĠgeÃ¯nf":8979,"Ġreumatische":8980,"ĠOntslagdatum":8981,"TR":8982,"Ġkoppeling":8983,"Ġversterken":8984,"jecten":8985,"Ġdep":8986,"ĠCYP":8987,"otselinge":8988,"Ġserumcreatinine":8989,"Ġzorgverlen":8990,"Ġactiepotentiaal":8991,"uiving":8992,"Ġmel":8993,"Ġcardiogram":8994,"Ġhypop":8995,"speriode":8996,"automat":8997,"Ġwetenschappelijke":8998,"Ġsekse":8999,"Ab":9000,"Sinds":9001,"Ġgeest":9002,"ĠAMP":9003,"Ġenzymatische":9004,"Ġweg":9005,"raniÃ«le":9006,"inetiek":9007,"Ġcytokine":9008,"Ġentiteit":9009,"ĠKaplan":9010,"Ġbevelen":9011,"goritmen":9012,"Ġbezoeken":9013,"ung":9014,"compaction":9015,"Ġopgewekte":9016,"niciteit":9017,"mechanismen":9018,"Ġinc":9019,"Ġschepen":9020,"basis":9021,"Ġgeadv":9022,"lage":9023,"olesc":9024,"Ġcompens":9025,"Ġdisfunct":9026,"Ġmultif":9027,"125":9028,"ĠARVD":9029,"Ġomkeerbaar":9030,"odific":9031,"iele":9032,"ologe":9033,"Ġvoorgestelde":9034,"Ġadv":9035,"Ġmisschien":9036,"Laboratorium":9037,"eens":9038,"ĠFA":9039,"ĠgeÃ¯nter":9040,"Ġcorreleert":9041,"ĠIDC":9042,"Ġanter":9043,"duurzame":9044,"Ġstapsgewijze":9045,"Ġvlak":9046,"Ġasc":9047,"Ġbezorg":9048,"ĠMomenteel":9049,"Ġgetransplante":9050,"Ġsuperior":9051,"geschaft":9052,"Ġgeadviseerd":9053,"cult":9054,"dialyse":9055,"idheid":9056,"Ġopvolging":9057,"ĠSub":9058,"ĠDDD":9059,"Ġoorzakelijk":9060,"Ġzwangere":9061,"Ġacetylcholine":9062,"stechnieken":9063,"aandoening":9064,"benadering":9065,"ributie":9066,"alip":9067,"Ġverwijzing":9068,"Ġnatriuret":9069,"Ġcapt":9070,"Meier":9071,"Ġvernauwing":9072,"raine":9073,"ĠAziatische":9074,"Ġactiviteits":9075,"ĠhypothyreoÃ¯die":9076,"Ġadipose":9077,"HP":9078,"Ġpseud":9079,"led":9080,"ĠSprague":9081,"Ġrechterk":9082,"Ġdelta":9083,"enting":9084,"Ġperitoneale":9085,"Ġextrastim":9086,"Ġinfectieuze":9087,"Ġsterker":9088,"richtlijnen":9089,"ĠUniversity":9090,"GP":9091,"mia":9092,"idings":9093,"riene":9094,"ĠVas":9095,"Ġafgeschaft":9096,"Obesitas":9097,"Ġsamentrekking":9098,"ereld":9099,"ĠSE":9100,"Ġoverexpressie":9101,"ASE":9102,"motor":9103,"Ġdatabanken":9104,"Ġsluiten":9105,"iende":9106,"saturatie":9107,"inaal":9108,"otopische":9109,"urr":9110,"ĠEerdere":9111,"Ġcomplexen":9112,"Ġmeisjes":9113,"silon":9114,"Door":9115,"omk":9116,"stemische":9117,"ĠDat":9118,"iumzuur":9119,"entegen":9120,"obstructieve":9121,"Ġket":9122,"plaatjest":9123,"ĠSe":9124,"Ġcatecholaminen":9125,"maten":9126,"ures":9127,"Ġhomeostase":9128,"Ġpredis":9129,"ronolact":9130,"Ġradiale":9131,"Ġechografie":9132,"ĠEPC":9133,"subst":9134,"eremmers":9135,"patiÃ«nt":9136,"Ġarm":9137,"iair":9138,"ministr":9139,"sland":9140,"Ġcarvedilol":9141,"stee":9142,"ministratie":9143,"Ġnauwe":9144,"ĠcTnT":9145,"Ġintegr":9146,"leiding":9147,"istoffen":9148,"ĠRo":9149,"Ġschizofren":9150,"behandeld":9151,"ĠproteÃ¯nekinase":9152,"ĠCholesterol":9153,"wort":9154,"Ġante":9155,"Ġventric":9156,"Ġuiteen":9157,"ADS":9158,"Ġzuurstofsoorten":9159,"Ġmediaan":9160,"Af":9161,"Ġconsensus":9162,"loze":9163,"ules":9164,"ragers":9165,"Ġendomiocardiale":9166,"Titel":9167,"Ġvaten":9168,"interkwartiel":9169,"ĠhemodialysepatiÃ«nten":9170,"Ġatherogenese":9171,"Ġindirecte":9172,"Ġbaroreflex":9173,"vingen":9174,"atose":9175,"alische":9176,"Ġgestratific":9177,"ota":9178,"ocatie":9179,"ĠDES":9180,"Ġmultifactor":9181,"Ġcava":9182,"Ġinheemse":9183,"derde":9184,"ĠABI":9185,"corp":9186,"ĠEuropa":9187,"Ġrandomiseerde":9188,"Ġthoracale":9189,"regulation":9190,"Over":9191,"stering":9192,"Ġreentry":9193,"ĠVerhoogde":9194,"code":9195,"gegeven":9196,"alige":9197,"Ġbek":9198,"ĠHyp":9199,"ĠHist":9200,"Ġintervallen":9201,"Ġaantoon":9202,"Ġeveneens":9203,"Ġzoek":9204,"amycine":9205,"ĠWat":9206,"Ġ1988":9207,"part":9208,"itaire":9209,"ked":9210,"Ġongepaste":9211,"Ġfolaat":9212,"ĠbeÃ«indiging":9213,"Ġbesluitvorming":9214,"derland":9215,"Ġure":9216,"ycardi":9217,"constructie":9218,"cessen":9219,"edantie":9220,"scre":9221,"Ġbronch":9222,"Ġgerandomiseerde":9223,"Ġvrijk":9224,"ĠFH":9225,"Ġlinkerventrikelhypertrofie":9226,"deeltjes":9227,"oxidase":9228,"fluraan":9229,"product":9230,"gemerkt":9231,"Verhoogde":9232,"Ġsympathieke":9233,"Ġhormonen":9234,"heen":9235,"Ġervoer":9236,"Ġhypertrof":9237,"Ġconclu":9238,"Ġischaemic":9239,"Ġtekst":9240,"Ġplasminogen":9241,"Ġonderdrukken":9242,"differ":9243,"ulatoire":9244,"wek":9245,"Ġdeelnemen":9246,"Ġinspanningen":9247,"Ġbloedende":9248,"Ġfract":9249,"Ġsamenhangen":9250,"ritmieÃ«n":9251,"rium":9252,"ĠCL":9253,"ĠHer":9254,"Ġconserv":9255,"able":9256,"monitoring":9257,"Ġorganische":9258,"excitatie":9259,"Ġbipolaire":9260,"Ġconsequent":9261,"Verloop":9262,"Ġhartre":9263,"Ġgamma":9264,"ĠAC":9265,"ereg":9266,"ĠTre":9267,"ĠVals":9268,"ĠRadi":9269,"Ġelektrode":9270,"moe":9271,"itraat":9272,"ssituatie":9273,"Ġaflopende":9274,"regurgitatie":9275,"Ġtoegediende":9276,"ĠCanade":9277,"Ġgevarenratio":9278,"Ġuitbreiding":9279,"Ġprominente":9280,"EV":9281,"orgaan":9282,"ocale":9283,"heimer":9284,"Ġcardiologen":9285,"Ġcardioloog":9286,"Ġheart":9287,"aneurysma":9288,"Ġmitral":9289,"Ġleeftijdsgroep":9290,"sorptie":9291,"Ġmodifie":9292,"glut":9293,"Ġstol":9294,"ull":9295,"Ġ600":9296,"LVH":9297,"Ġtechnische":9298,"Ġdepressieve":9299,"Ġbijzondere":9300,"hormoon":9301,"Ġdimensie":9302,"blasten":9303,"Ġgeestelijke":9304,"ctische":9305,"omzetting":9306,"Ġdoelstellingen":9307,"Ġouders":9308,"Ġanticoag":9309,"Ġsamenhangende":9310,"Ġonverklaarbare":9311,"MM":9312,"gegaan":9313,"Ġhartindex":9314,"Ġuter":9315,"hou":9316,"ĠEG":9317,"Ġcardiomet":9318,"tieel":9319,"Ġatriumpacing":9320,"Ġmono":9321,"(-/-":9322,"Ġradicale":9323,"laag":9324,"Ġondervraag":9325,"Ġstoornissen":9326,"Ġemp":9327,"stolic":9328,"exic":9329,"Ġpropofol":9330,"aant":9331,"kopp":9332,"lijkheid":9333,"Ġantir":9334,"Ġregurg":9335,"Ġgaande":9336,"ĠTrial":9337,"Ġnorepinephrine":9338,"Ġvasoconstrictie":9339,"zheimer":9340,"Ġziektes":9341,"ĠgeÃ¯ntroduceerd":9342,"uut":9343,"Ġhartafwijkingen":9344,"angina":9345,"imuleerd":9346,"ĠVrouwen":9347,"Ġvormt":9348,"Ġelectrocardiografisch":9349,"Ġbetrouwbaarheid":9350,"Ġatrioventraire":9351,"Ġtransport":9352,"Ho":9353,"Ser":9354,"SCD":9355,"ware":9356,"Ġpakken":9357,"formine":9358,"roege":9359,"Ġonverw":9360,"Ġonregel":9361,"quÃª":9362,"Ġsamenhang":9363,"ligatie":9364,"Ġglycemische":9365,"Ġpapillaire":9366,"Ġoutput":9367,"Lichamelijk":9368,"Zeven":9369,"lege":9370,"009":9371,"loz":9372,"istof":9373,"Ġverschilt":9374,"Ġsuggest":9375,"Beoordelen":9376,"Ġruimte":9377,"Ġtel":9378,"ĠinsufficiÃ«ntie":9379,"Ġzu":9380,"ĠGFR":9381,"Ġgeremd":9382,"agasische":9383,"hospitalisatie":9384,"TA":9385,"gamma":9386,"kappa":9387,"inductie":9388,"geassoc":9389,"Ġdown":9390,"indings":9391,"amilie":9392,"ĠResearch":9393,"Ġcortic":9394,"Ġassay":9395,"Ġvals":9396,"teert":9397,"Ġzetten":9398,"Ġerkende":9399,"Ġontvangers":9400,"dienst":9401,"Ġtrombine":9402,"Ġvisuele":9403,"signaal":9404,"Ġene":9405,"Ġpatient":9406,"ĠDu":9407,"eenheid":9408,"Ġcorreleerden":9409,"Ġlittekens":9410,"Ġtiming":9411,"arcop":9412,"ĠLichaam":9413,"Ġ105":9414,"Ġhypertriglyceridemie":9415,"ĠElke":9416,"sspecifieke":9417,"Ġsubendocardiale":9418,"Vol":9419,"lotselinge":9420,"ital":9421,"itation":9422,"iac":9423,"ĠBi":9424,"ests":9425,"ĠNederland":9426,"Ġnorepinefrine":9427,"++":9428,"Â°":9429,"ency":9430,"erale":9431,"ĠTc":9432,"Ġmonof":9433,"Ġradionuclide":9434,"dispersie":9435,"Vier":9436,"endertig":9437,"ethy":9438,"schaal":9439,"ificante":9440,"ĠMY":9441,"Ġ-((((((((":9442,"Ġvatbaar":9443,"artumcardiomyopathie":9444,"pathway":9445,"tails":9446,"Ġleeftijden":9447,"domein":9448,"lase":9449,"Ġbijvoorbeeld":9450,"akom":9451,"centra":9452,"Ġcardiomyocyten":9453,"\\'":9454,"kracht":9455,"label":9456,"Ġsurro":9457,"akomelingen":9458,"bas":9459,"oneel":9460,"Ġonderstre":9461,"ĠTR":9462,"Ġ1980":9463,"Ġmaakten":9464,"YY":9465,"ĠWereld":9466,"management":9467,"retie":9468,"Ġtransthoracale":9469,"ĠAustraliÃ«":9470,"Ġhypoglykemie":9471,"Ġventiel":9472,"don":9473,"Ġcardiomegalie":9474,"aaaaaaaaaaaaaaaa":9475,"Ġpolymeraseketen":9476,"Ġlijvigheid":9477,"Ġconcluderen":9478,"Ġ(()":9479,"omisch":9480,"Ġuitsluiting":9481,"hoogd":9482,"beperking":9483,"-/":9484,"]:":9485,"tage":9486,"rolog":9487,"Ġcomplement":9488,"databan":9489,"Ġrecid":9490,"Ġjongen":9491,"Ġvoedingsmiddelen":9492,"mannen":9493,"Ġepidemiologie":9494,"Ġgenoeg":9495,"Ġzorgvuldige":9496,"erolaterale":9497,"medic":9498,"upus":9499,"ĠAlzheimer":9500,"ĠTn":9501,"iplin":9502,"ĠOf":9503,"bless":9504,"Ġsham":9505,"Ġ-(()":9506,"ĠTIMI":9507,"Ġtreft":9508,"Ġonomk":9509,"ride":9510,"Ġgezicht":9511,"Ġschool":9512,"Ġelectrocardiogram":9513,"cainide":9514,"Ġinzichten":9515,"oel":9516,"Ġsoep":9517,"Ġeryt":9518,"waarschijnlijk":9519,"Ġgerichte":9520,"Ġorthostatisch":9521,"Ġovermatige":9522,"Ġzogen":9523,"diastolisch":9524,"maximale":9525,"atiesnelheid":9526,"Ġmoest":9527,"Ġ1989":9528,"Ġherhalingen":9529,"sgewicht":9530,"cyten":9531,"Ġbestanddeel":9532,"Voeg":9533,"alva":9534,"Ġnakomelingen":9535,"ĠSten":9536,"lipide":9537,"Ġadj":9538,"Ġuitgangssituatie":9539,"bar":9540,"borst":9541,"Ġ(+":9542,"artering":9543,"epten":9544,"troke":9545,"ĠNAD":9546,"Ġantide":9547,"Ġpleurale":9548,"):**":9549,"Ġmethyl":9550,"urt":9551,"rengt":9552,"isciplin":9553,"''''''''":9554,"Ġrepresentatieve":9555,"opatische":9556,"Ġaangetast":9557,"Ġintraventriculaire":9558,"Ġdiagnosticeren":9559,"Ġverstrekt":9560,"Ġantiretrovirale":9561,"Ġrekru":9562,"ergische":9563,"ĠHartslag":9564,"sla":9565,"Ġmirale":9566,"Ġopw":9567,"ĠImp":9568,"ĠES":9569,"zaamheid":9570,"Ġarrest":9571,"Ġpostmenopausale":9572,"Ġantagonist":9573,"Ġbeginnende":9574,"Ġcyclusduur":9575,"teland":9576,"FP":9577,"orig":9578,"Ġwacht":9579,"ĠClinical":9580,"Ġprogest":9581,"Ġevenre":9582,"Ġalternans":9583,"circuit":9584,"Ġsynthetische":9585,"Ġveren":9586,"Ġcur":9587,"Ġkanaal":9588,"Ġthi":9589,"trombose":9590,"verbruik":9591,"stapeling":9592,"AI":9593,"Ac":9594,"ĠGI":9595,"Ġtrombolytische":9596,"alcohol":9597,"bouw":9598,"terminal":9599,"ĠCoronary":9600,"amplitude":9601,"Ġtelef":9602,"ochromocyt":9603,"300":9604,"pto":9605,"Ġdachten":9606,"Ġtop":9607,"Ġgehe":9608,"Ġfet":9609,"ĠPI":9610,"ĠGR":9611,"Ġgedecompense":9612,"Ġaanvulling":9613,"ĠTrials":9614,"Ad":9615,"rap":9616,"ommelingen":9617,"Ġdringende":9618,"fet":9619,"lation":9620,"vijftig":9621,"omot":9622,"Ġzorgen":9623,"ĠMen":9624,"Ġveroorzaakten":9625,"Ġverbinding":9626,"nede":9627,"oeften":9628,"Ġcorreleerde":9629,"Ġsterven":9630,"hulpmiddel":9631,"ĠMeerdere":9632,"CoA":9633,"Ġmerende":9634,"Ġpmol":9635,"Ġ(+/-":9636,"Ġvoldoen":9637,"Ġrechtvaar":9638,"Ġremt":9639,"Ġmerendeel":9640,"brand":9641,"oplasm":9642,"iaz":9643,"ĠPh":9644,"vocht":9645,"ĠRes":9646,"irubine":9647,"Ġverlengde":9648,"pression":9649,"ĠPKC":9650,"CCD":9651,"chym":9652,"Ġdopamine":9653,"Ġvoorschrijven":9654,"Ġlevende":9655,"Ġoptimaliseren":9656,"VE":9657,"Ġproef":9658,"ĠLBBB":9659,"creening":9660,"Ġurinaire":9661,"Ġbloedlichaampjes":9662,"ĠAden":9663,"Ġlangs":9664,"Aangezien":9665,"ĠCollege":9666,"Ġoverleefden":9667,"automatiseerde":9668,"-.":9669,"ket":9670,"Ġpent":9671,"Ġcla":9672,"ĠTh":9673,"Ġmoderne":9674,"Ġinterventrikel":9675,"Ġvariantie":9676,"Ġhersenbloedingen":9677,"Ġovereenkomt":9678,"Ġvisu":9679,"Ġhalsslagaders":9680,"rypt":9681,"circulatie":9682,"Ġsimvastatine":9683,"ilep":9684,"allen":9685,"Ġprom":9686,"afdeling":9687,"Ġlipoprotein":9688,"wikkeling":9689,"section":9690,"ĠCE":9691,"schokken":9692,"ĠELISA":9693,"ortic":9694,"diceerd":9695,"Ġoxiderende":9696,"Ġhield":9697,"ii":9698,"Ġhartblok":9699,"Ġzoeken":9700,"ĠANP":9701,"Ġafgeb":9702,"litaz":9703,"Ġvoertuig":9704,"Vijf":9705,"Ġhond":9706,"Ġcoron":9707,"Ġkunst":9708,"150":9709,"ĠVerder":9710,"ORE":9711,"Ġsarcomere":9712,"Ġantibiotica":9713,"urn":9714,"acyl":9715,"Ġfunctioneren":9716,"Ġfocus":9717,"mechanisme":9718,"laesies":9719,"laties":9720,"sense":9721,"Ġkosteneff":9722,"âĢĵ":9723,"quival":9724,"Ġnieren":9725,"eertig":9726,"Ġblot":9727,"Ġvoortvloe":9728,"types":9729,"Ġaten":9730,"Ġscler":9731,"osity":9732,"Ġlinkeratrium":9733,"Ġschadelijk":9734,"Ġvertegenwoordigt":9735,"intens":9736,"hoofd":9737,"Ġexogene":9738,"Ġongecomplic":9739,"Ġgekwee":9740,"zyme":9741,"Ġhormonale":9742,"ĠproteÃ¯nurie":9743,"Ġbezorgdheid":9744,"long":9745,"etnische":9746,"conditionering":9747,"ylering":9748,"Ġlichaamsmassa":9749,"Ġcontracties":9750,"ĠBloeddruk":9751,"bs":9752,"onium":9753,"Ġtwe":9754,"otonine":9755,"otomie":9756,"ĠAI":9757,"Ġobjectieve":9758,"Ġkatheterisatie":9759,"Ġhartkamer":9760,"iezen":9761,"Ġtub":9762,"Ġproband":9763,"condition":9764,"Meer":9765,"aas":9766,"zw":9767,"Ġenox":9768,"Ġticagrelor":9769,"Ġogen":9770,"ulaties":9771,"Ġapixaban":9772,"Ġsterkste":9773,"Ġwerkingsmechan":9774,"afenon":9775,"Ġrecidief":9776,"VID":9777,"vitamine":9778,"Ġverborgen":9779,"IDDM":9780,"razol":9781,"Ġmonomorfe":9782,"obese":9783,"Ġmac":9784,"smaat":9785,"Opname":9786,"Ġannul":9787,"sthoracale":9788,"lot":9789,"oos":9790,"Ġopget":9791,"verontre":9792,"aparine":9793,"ĠNut":9794,"Ġgewone":9795,"Ġkinidine":9796,"Ġisop":9797,"ocardiogram":9798,"lokk":9799,"Ġpotentiaal":9800,"Ġfibrinogen":9801,"Ġbesmetting":9802,"Ġagonist":9803,"ptoz":9804,"ĠRec":9805,"systolisch":9806,"Ġsyndrome":9807,"Ġlichaamsvet":9808,"ĠCanada":9809,"leving":9810,"otica":9811,"amylo":9812,"Ġfiets":9813,"ĠIs":9814,"Ġhyperinsuline":9815,"Ġgebruikers":9816,"Ġmetabolieten":9817,"Ġcombinatietherapie":9818,"straten":9819,"reperfusiewonden":9820,"Ġcerebrale":9821,"Ġpersoonlijke":9822,"Ġhol":9823,"ascade":9824,"Ġchagasische":9825,"ĠIschemische":9826,"ĠEpidemi":9827,"derivaten":9828,"Ġcaptopril":9829,"plaatjestherapie":9830,"episodes":9831,"osy":9832,"gelijkheid":9833,"afname":9834,"vasie":9835,"Ġweerspiegelt":9836,"Ġschizofrenie":9837,"Tl":9838,"tijden":9839,"Ġmum":9840,"ĠTrop":9841,"Ġ-((((((":9842,"Ġsubcutane":9843,"ureel":9844,"Ġplatteland":9845,"TP":9846,"Ġvorder":9847,"lapp":9848,"Ġpercentie":9849,"merc":9850,"Ġlongkanker":9851,"Ġhoofdpijn":9852,"activiteiten":9853,"Ġprolifer":9854,"Ġejectief":9855,"Ġverricht":9856,"Ġcyst":9857,"Ġgron":9858,"ofilie":9859,"cespercentage":9860,"ĠCIMT":9861,"Ġdigitale":9862,"ĠValsalva":9863,"ctine":9864,"ĠPUFA":9865,"Ġdoden":9866,"Ġluchtwegen":9867,"Ġkritieke":9868,"Ġfoliumzuur":9869,"toestand":9870,"ww":9871,"Ġwanden":9872,"Ġtand":9873,"Ġuitstroom":9874,"ĠLong":9875,"ortaliteit":9876,"Ġhoest":9877,"Ġlymfocyten":9878,"ĠHOCM":9879,"ounders":9880,"KI":9881,"lat":9882,"ord":9883,"roscopie":9884,"ĠNC":9885,"Ġhoek":9886,"Ġdienst":9887,"natale":9888,"Ġwig":9889,"Ġpassen":9890,"ĠBel":9891,"Ġexon":9892,"vormd":9893,"tensiva":9894,"Ġgemeenschappen":9895,"Ġ1985":9896,"klaring":9897,"Ġverleden":9898,"Ġsed":9899,"Ġbewaarde":9900,"Ġtijds":9901,"Ġ1987":9902,"Ġcommunic":9903,"caÃ¯nide":9904,"ĠTreatment":9905,"Ġmodifieerbare":9906,"gers":9907,"Ġlev":9908,"apopt":9909,"ĠLip":9910,"Ġcomplexiteit":9911,"Ġvertraagd":9912,"Ġtransthoracische":9913,"Ġnifedipine":9914,"Ġopgetreden":9915,"Ġwijd":9916,"oest":9917,"ĠSHR":9918,"weden":9919,"andomiseerde":9920,"ijftien":9921,"ĠTA":9922,"ement":9923,"Ġ102":9924,"Ġ104":9925,"Ġcarb":9926,"voegde":9927,"ĠĠĠĠĠĠĠĠ":9928,"Pre":9929,"Ġdragers":9930,"Ġtoxische":9931,"Ġgekomen":9932,"Ġtotdat":9933,"Ġgezin":9934,"Ġparadox":9935,"klassen":9936,"Ġcardioverterdefibrillator":9937,"Ġverergeren":9938,"ĠgeÃ¯ntegreerde":9939,"Men":9940,"mRNA":9941,"verloop":9942,"Ġleggen":9943,"Ġafmetingen":9944,"ibi":9945,"iene":9946,"ssess":9947,"rincip":9948,"bloedplaatjes":9949,"spatroon":9950,"Ġverzorging":9951,"Ġbemoeilijkt":9952,"Retro":9953,"Ġbla":9954,"ĠsteroÃ¯den":9955,"aangepaste":9956,"wijf":9957,"prop":9958,"Ġnode":9959,"Ġverklaring":9960,"Ġbraken":9961,"laesie":9962,"Ġantidepressiva":9963,"match":9964,"mutase":9965,"Ġmodaliteiten":9966,"razil":9967,"antilichaampjes":9968,"QTS":9969,"blast":9970,"Ġeos":9971,"ĠSign":9972,"menteerde":9973,"afil":9974,"ations":9975,"Ġbevre":9976,"Ġbeheersen":9977,"Cardiovasculaire":9978,"ĠInternational":9979,"ierdisfunctie":9980,"mTc":9981,"alapril":9982,"Ġvoorlopige":9983,"seg":9984,"bewegings":9985,"Ġvroegste":9986,"inue":9987,"Ġretrotro":9988,"Ġtrauma":9989,"iologische":9990,"Ġbeat":9991,"oename":9992,"pacem":9993,"Onderzoeken":9994,"ĠCPB":9995,"Ġincre":9996,"Ġhartcellen":9997,"veroor":9998,"sporine":9999,"Ġverlichten":10000,"Ġlevensvatbaar":10001,"Aanbevelingen":10002,"Ġdeterminant":10003,"Ġvacc":10004,"atografie":10005,"dimeer":10006,"Ġterm":10007,"ducation":10008,"Ġerectie":10009,"transp":10010,"ekent":10011,"Ġnachtelijke":10012,"Ġonevenwicht":10013,"habil":10014,"Ġbez":10015,"Ġvoorbere":10016,"Ġprotromb":10017,"lokdarm":10018,"ĠOngeveer":10019,"Ġsoepele":10020,"+]":10021,"AB":10022,"Lp":10023,"memb":10024,"ĠeNOS":10025,"oeuv":10026,"Ġlupus":10027,"Ġhartweefsel":10028,"ranken":10029,"ĠWPW":10030,"Ġnoradrenaline":10031,"Ġprotocollen":10032,"Ġbemiddelaars":10033,"Ġsurrogaat":10034,"Ġhyperhomocyste":10035,"iratie":10036,"140":10037,"Ġprotein":10038,"normale":10039,"Ġgrenzen":10040,"Ġextremiteiten":10041,"NH":10042,"VS":10043,"Ġtussenliggende":10044,"ationeel":10045,"endan":10046,"riterium":10047,"Ġregressiemodel":10048,"Ġmoleculen":10049,"Ġuitdagingen":10050,"Ġschijnbaar":10051,"................................................................":10052,"Ġextrasystole":10053,"Ġstratificatie":10054,"post":10055,"oringen":10056,"Ġanderen":10057,"ĠLVOT":10058,"Ġadolesc":10059,"Ġafgeste":10060,"ĠSystem":10061,"ways":10062,"Ġoverheersende":10063,"Ġmar":10064,"Ġwoon":10065,"Ġther":10066,"Ġvasosp":10067,"Ġstreef":10068,"Ġevolutie":10069,"Ġviscerale":10070,"DF":10071,"lingen":10072,"ĠaÃ«robe":10073,"Ġaccel":10074,"Ġvasopress":10075,"ĠbiopsieÃ«n":10076,"Prospective":10077,"Ġproducten":10078,"Ġremmer":10079,"Ġzogenaamde":10080,"elte":10081,"ĠAtrial":10082,"ĠPo":10083,"ĠMultivariate":10084,"ick":10085,"ĠRisk":10086,"Ġgezocht":10087,"Ġarg":10088,"ĠNOAC":10089,"verminder":10090,"passen":10091,"Ġaangenomen":10092,"iekte":10093,"Ġ-()":10094,"Ġbetekent":10095,"luraan":10096,"Ġaantast":10097,"hospital":10098,"Ġmonomorph":10099,"Ġchromosoom":10100,"Ġingesteld":10101,"Ġlijn":10102,"ĠRyR":10103,"Ġparameter":10104,"hoogte":10105,"cTnT":10106,"Ġmislukte":10107,"litazon":10108,"ilde":10109,"ĠSES":10110,"ibiliteit":10111,"Ġelektroden":10112,"ductase":10113,"Ġarbeid":10114,"sk":10115,"amentele":10116,"Ġrij":10117,"aptieve":10118,"Ġvetten":10119,"Ġnonische":10120,"encing":10121,"Ġlumen":10122,"Ġvector":10123,"Ġinfiltratie":10124,"ĠGem":10125,"Ġarterio":10126,"Ġjongens":10127,"Ġrisicom":10128,"OP":10129,"selectieve":10130,"urkin":10131,"Ġgemodific":10132,"ĠTien":10133,"ĠNeg":10134,"rition":10135,"Ġklachten":10136,"Ġstraling":10137,"ĠTrans":10138,"Ġcortisol":10139,"Ġopties":10140,"varianten":10141,"Ġgelokaliseerd":10142,"Ġperf":10143,"Ġonderdrukte":10144,"septum":10145,"Ġcyclische":10146,"homeostase":10147,"zende":10148,"ĠDC":10149,"ĠDBP":10150,"Ġunif":10151,"transferase":10152,"Ġverhinder":10153,"oftware":10154,"ĠbÃ¨t":10155,"oj":10156,"otrope":10157,"Ġ2015":10158,"ĠgeÃ¯ndiceerd":10159,"Ġzwakte":10160,"Ġendocriene":10161,"arde":10162,"Ġopgemerkt":10163,"train":10164,"orphologie":10165,"Ġpolymorphisme":10166,"Vergelijk":10167,"ditioneel":10168,"ĠCanadese":10169,"magnetische":10170,"Ġdeskun":10171,"Ġdiastole":10172,"ograph":10173,"ubeerd":10174,"fenotype":10175,"Ġverscheidene":10176,"Per":10177,"Ġolig":10178,"Ġcorrect":10179,"Ġverandert":10180,"Ġoperationele":10181,"Ġautosomale":10182,"Ġdyssynchronie":10183,"Ġzwangerschappen":10184,"ĠcreÃ«":10185,"anatomische":10186,"Ġgevormd":10187,"Ġsulf":10188,"Ġcorp":10189,"Ġbeschermt":10190,"kundige":10191,"Ġwereldwijde":10192,"Ġluchtverontre":10193,"fibrose":10194,"Ġpolsdruk":10195,"WF":10196,"Ġaanpassingen":10197,"ocardium":10198,"Ġinform":10199,"Ġschapen":10200,"lice":10201,"Ġnetto":10202,"Ġvulling":10203,"Ãĥ":10204,"alt":10205,"Ġstri":10206,"Ġteken":10207,"hemat":10208,"ĠSMI":10209,"smolol":10210,"Ġspasmen":10211,"ĠWC":10212,"Ġtempo":10213,"Ġvergroten":10214,"rypanosom":10215,"Ġcode":10216,"ĠAct":10217,"Ġresistentie":10218,"ĠGra":10219,"orese":10220,"Ġstreptoz":10221,"lavon":10222,"screening":10223,"ĠLichaamsgewicht":10224,"Ġsedatie":10225,"Ġdegeneratie":10226,"Ġhartspieren":10227,"urb":10228,"Ġontvanger":10229,"ĠWanneer":10230,"Ġcircadi":10231,"Ġbreuk":10232,"Ġsteun":10233,"Ġberoeps":10234,"Ġmumol":10235,"Ar":10236,"kn":10237,"enze":10238,"initeit":10239,"Ġopmer":10240,"Ġprogramm":10241,"Ġdeelgenomen":10242,"Ġhemor":10243,"adrenerge":10244,"Ġhyb":10245,"ĠDiagnose":10246,"Ġcommunaut":10247,"vale":10248,"Ġgeblokk":10249,"Ġprospectieve":10250,"Ġdissectie":10251,"Ġpraktijken":10252,"ĠDie":10253,"Ġverbeterden":10254,"renaline":10255,"Ġpostnatale":10256,"Ġintraper":10257,"methy":10258,"Ġ115":10259,"irussen":10260,"Ġkandidaten":10261,"ĠObesitas":10262,"Ġprecordiale":10263,"Ġbal":10264,"Ġenorme":10265,"Ġonderhoud":10266,"anderingen":10267,"ĠZiekte":10268,"ĠEuropean":10269,"dysplasie":10270,"ĠSlechts":10271,"zu":10272,"Ġtumoren":10273,"Ġhartschade":10274,"Ġcardiomycine":10275,"ĠDD":10276,"ionaal":10277,"ĠFGF":10278,"Ġgevoeligheids":10279,"Ġhyd":10280,"Ġanthrac":10281,"Zowel":10282,"Hoofd":10283,"Ġpostische":10284,"alloproteÃ¯n":10285,"Ġvijfde":10286,"Ġalcoholconsumptie":10287,"Ġelektrocardi":10288,"modific":10289,"oscopy":10290,"mediane":10291,"Ġoplevert":10292,"gezondheidsorganisatie":10293,"ĠEMBASE":10294,"Ġultrasonografie":10295,"500":10296,"net":10297,"ĠPlasma":10298,"Ġongebruikelijk":10299,"Tot":10300,"bele":10301,"echo":10302,"Ġvoorzicht":10303,"Ġfil":10304,"gelmatige":10305,"Ġafwezig":10306,"zeligheid":10307,"Ġnetwerk":10308,"natri":10309,"rende":10310,"uten":10311,"ĠWest":10312,"Ġshunt":10313,"Ġverloren":10314,"fluor":10315,"vermindering":10316,"Ang":10317,"plant":10318,"iste":10319,"Ġwan":10320,"ope":10321,"ĠHun":10322,"ĠECMO":10323,"mmun":10324,"Ġkransslagadersyndroom":10325,"Ġ1986":10326,"Ġantihypertensiva":10327,"Ġzorgvuldig":10328,"]).":10329,"digende":10330,"Ġoverweging":10331,"ĠMV":10332,"bloeding":10333,"cTnI":10334,"Ġ-((()":10335,"urkinje":10336,"ian":10337,"kant":10338,"twee":10339,"Ġflutter":10340,"Ġvoorspel":10341,"Ġsuccespercentage":10342,"Ġmoeheid":10343,"Ġpsychische":10344,"Ġgespeci":10345,"bil":10346,"Ġslokdarm":10347,"ĠInit":10348,"Ġmyocardinfarcten":10349,"Ġlinkerventrikelejectiefractie":10350,"Ġplasmalip":10351,"Ġconcentreren":10352,"//":10353,"ber":10354,"ĠMin":10355,"Ġgezinnen":10356,"Ġduurde":10357,"Ġfrequenties":10358,"ĠMSC":10359,"ĠbeÃ«indigen":10360,"valvular":10361,"Ġanticoncept":10362,"Ġwijdver":10363,"Leeftijd":10364,"trek":10365,"ulant":10366,"ĠHuidige":10367,"deelnemers":10368,"Ġverwijderen":10369,"Ġconstant":10370,"Ġpogingen":10371,"Ġfundamentele":10372,"Ġdystroph":10373,"SOD":10374,"zijdige":10375,"signalen":10376,"Ġgangl":10377,"behoefte":10378,"Ġeventuele":10379,"Ġsemi":10380,"Ġare":10381,"Ġafwijzing":10382,"Ġuitgewezen":10383,"ĠgeÃ«valueerde":10384,"Ġperiodontale":10385,"Ġachtereenvolgens":10386,"Ġdunne":10387,"Ġgekweekte":10388,"stra":10389,"itten":10390,"ters":10391,"ĠPe":10392,"lodipine":10393,"Ġmediter":10394,"Ġsupraventraire":10395,"Ġprestatie":10396,"elektrode":10397,"Chirurgische":10398,"Ġerytrocyten":10399,"arteriÃ«le":10400,"Ġadvies":10401,"aff":10402,"Ġinactiviteit":10403,"Ġverf":10404,"othe":10405,"Ġfiltratie":10406,"ĠAm":10407,"iÃ«mie":10408,"Ġimpuls":10409,"ergy":10410,"iseringstherapie":10411,"vergiftiging":10412,"ĠEC":10413,"ontan":10414,"Ġlevensduur":10415,"ĠCardiomy":10416,"Ġconsistente":10417,"Ġcongestie":10418,"Ġcoag":10419,"Ġcommerc":10420,"limus":10421,"Ġdiagnostiek":10422,"quÃªte":10423,"pe":10424,"Ġbis":10425,"Ġpren":10426,"Ġsarcop":10427,"idurale":10428,"Ġbijnier":10429,"Ġlinkerboven":10430,"HRM":10431,"Ġfenotyp":10432,"ĠZoals":10433,"Ġpasgeboren":10434,"Sy":10435,"snel":10436,"ilide":10437,"Ġzoog":10438,"afe":10439,"Ġgedeelte":10440,"Ex":10441,"knoopp":10442,"lektro":10443,"Ġkatheters":10444,"idisciplin":10445,"ĠefficiÃ«ntie":10446,"centreerd":10447,"Ġmonotone":10448,"Ġlichaamss":10449,"Ġlongen":10450,"Ġmetaboolsyndroom":10451,"Ġschijnbare":10452,"Ġkwetsbare":10453,"olaat":10454,"Ġgevoeliger":10455,"lapse":10456,"ĠNieuwe":10457,"categorie":10458,"ssies":10459,"apine":10460,"Ġbehandelingsmo":10461,"beat":10462,"Ġdyspnoe":10463,"intolerantie":10464,"Ġreducties":10465,"Ġgenormaliseerde":10466,"Ġopgelost":10467,"AM":10468,"stoename":10469,"Ġbijbeh":10470,"riÃ¨":10471,"ĠHel":10472,"Ġspann":10473,"Ġmoeders":10474,"klacht":10475,"Ġtricuspidalisklep":10476,"Ġcalciumkanaalblokkers":10477,"gan":10478,"onafhankelijke":10479,"Ġol":10480,"Ġ(((((":10481,"Ġsm":10482,"ĠAM":10483,"ereactie":10484,"bescher":10485,"ortale":10486,"Ġautologe":10487,"ĠgeÃ¯nfecteerde":10488,"Ġgestimuleerd":10489,"azine":10490,"Ġparasympathische":10491,"Ġbeslissing":10492,"Ġbijbehorende":10493,"Ġceld":10494,"Ġgo":10495,"schik":10496,"ĠMg":10497,"uidig":10498,"Ġ240":10499,"Ġserotonine":10500,"Ġleeftijdsafhankelijke":10501,"Ġcomorbiditeit":10502,"Ġpolikliniek":10503,"Ġorthop":10504,"Ġrecombinant":10505,"Ġplantaardige":10506,"wite":10507,"enza":10508,"Ġmusc":10509,"Ġhelling":10510,"Ġleu":10511,"ĠSS":10512,"ĠTF":10513,"ĠTai":10514,"Ġbloedcellen":10515,"iben":10516,"Ġverzamelen":10517,"ĠATPase":10518,"ecardiogram":10519,"Ġisofluraan":10520,"Ġachtereenvolgende":10521,"Ġstabilisatie":10522,"ĠWereldgezondheidsorganisatie":10523,"Ġinterfer":10524,"Ġ106":10525,"Ġintramyocardiale":10526,"ategor":10527,"Ġgewichtstoename":10528,"transfusie":10529,"ĠMedi":10530,"ĠLinkse":10531,"Ġcardioplegie":10532,"Ġkwalitatieve":10533,"Ġonomkeerbare":10534,"Ather":10535,"Ġharte":10536,"zes":10537,"Ġuitstroomkanaal":10538,"osa":10539,"ĠNSTEMI":10540,"ĠFMD":10541,"halam":10542,"Ġligatie":10543,"Ġhypoxemie":10544,"Ġfolder":10545,"angiotensinesysteem":10546,"Hyper":10547,"Ġtar":10548,"Ã¯sole":10549,"Ġpolyp":10550,"ureerde":10551,"Ġperfusiedefecten":10552,"ĠetiologieÃ«n":10553,"Ġfluorescentie":10554,"ĠTTC":10555,"Ġcardiopulmonale":10556,"ĠHOMA":10557,"Ġzorgverleners":10558,"An":10559,"ANP":10560,"xine":10561,"Ġgeoxide":10562,"ĠIMA":10563,"ĠMexic":10564,"ĠNI":10565,"Ġvoltage":10566,"Ġdyspnea":10567,"Ġverzadigde":10568,"ochromocytoma":10569,"Ġput":10570,"rof":10571,"Ġoverb":10572,"Ġperox":10573,"omeinen":10574,"Ġsyncop":10575,"Ġbeslissingen":10576,"Ġmeisje":10577,"uting":10578,"agland":10579,"strueerd":10580,"eigen":10581,"Ġvene":10582,"Ġzwakke":10583,"Ġanticonceptiva":10584,"sarc":10585,"uro":10586,"vergro":10587,"Ġwervel":10588,"ĠBrazil":10589,"Ġ103":10590,"LVAD":10591,"Ġduizeligheid":10592,"Ontslagg":10593,"Ġherhaal":10594,"Ġmissense":10595,"Ġidee":10596,"Ġprovinc":10597,"Ġonvolledige":10598,"ĠCentre":10599,"wortel":10600,"Ġgestratificeerd":10601,"piek":10602,"ton":10603,"Ġmetformine":10604,"hex":10605,"ĠTGF":10606,"Ġimpedantie":10607,"compens":10608,"Ġdual":10609,"Ġbevestigden":10610,"Ġischaemische":10611,"Ġovereenkomstige":10612,"CB":10613,"oad":10614,"Ġgeac":10615,"omst":10616,"ontwikkeling":10617,"Ġextracorp":10618,"Ġstandaardbehandeling":10619,"Ġcytoch":10620,"ecardiomyopathie":10621,"ĠgeÃ¯nfundeerd":10622,"SI":10623,"cur":10624,"Ġ()":10625,"ĠpatiÃ«ntengroep":10626,"udies":10627,"Ġseptische":10628,"actived":10629,"zijde":10630,"vezels":10631,"its":10632,"Ġuiter":10633,"dubb":10634,"vulling":10635,"Ġglucosemetabolisme":10636,"ablokker":10637,"(-/-)":10638,"tussen":10639,"ĠStroke":10640,"ortality":10641,"Ġgeleidelijke":10642,"Ġtransoesofageale":10643,"Ġcirculatie":10644,"dynam":10645,"enario":10646,"atho":10647,"ĠmL":10648,"rogene":10649,"Ġgelu":10650,"Ġbeurt":10651,"ĠMa":10652,"Ġrac":10653,"Ġvette":10654,"Ġaangeeft":10655,"Ġgezondheidsresultaten":10656,"Ġsinusknoop":10657,"Ġatenolol":10658,"Gedurende":10659,"NN":10660,"Twintig":10661,"kartering":10662,"enveertig":10663,"Ġhuidig":10664,"Ġwijn":10665,"Ġlamin":10666,"weed":10667,"Ġvergelijkende":10668,"Ġsubopt":10669,"Ġlangzaam":10670,"ĠZiekenhuis":10671,"instrument":10672,"ampon":10673,"essant":10674,"Ġfitness":10675,"ĠNutrition":10676,"schrij":10677,"Ġuitdruk":10678,"ible":10679,"tract":10680,"ĠWT":10681,"atory":10682,"Ġaangegeven":10683,"kinine":10684,"Ġernstiger":10685,"gekeerd":10686,"ĠHispan":10687,"110":10688,"knea":10689,"Ġgeautomatiseerde":10690,"riÃ«n":10691,"ĠAPD":10692,"Ġperspectief":10693,"ĠMPI":10694,"Ġpredi":10695,"Ġgender":10696,"Ġatherot":10697,"CTA":10698,"sprofiel":10699,"voorval":10700,"Ġorde":10701,"Ġarritmogene":10702,"stests":10703,"gedaan":10704,"Ġpositron":10705,"Honderd":10706,"russ":10707,"Ġfiltr":10708,"umatische":10709,"Ġventrikelhypertrofie":10710,"Ġgelegd":10711,"ally":10712,"Ġrichten":10713,"Ġstructuren":10714,"Ġpraktische":10715,"erieur":10716,"Ġontwikkelingslanden":10717,"ĠINR":10718,"Ġvermeden":10719,"procedurale":10720,"amination":10721,"ĠLatijns":10722,"Ġtegenstrijdige":10723,"interkwartielbereik":10724,"meter":10725,"pitaties":10726,"ystemen":10727,"ineren":10728,"Ġwk":10729,"Ġgesproken":10730,"Ġvoorgedaan":10731,"oegen":10732,"ĠVerdere":10733,"Ġmodific":10734,"Ġantagonisten":10735,"Ġmigraine":10736,"Ġinhibitor":10737,"otocine":10738,"Ġstuden":10739,"ĠPan":10740,"ĠSI":10741,"osept":10742,"synthese":10743,"Ġminimaliseren":10744,"controles":10745,"slotte":10746,"ylefrine":10747,"Ġpresenteerden":10748,"Ġbenadrukken":10749,"lium":10750,"yna":10751,"Ġgenotyp":10752,"Ġcalciumantagonisten":10753,"Ġmagnetic":10754,"Ġveronderstellen":10755,"OSA":10756,"katheterisatie":10757,"icos":10758,"ĠIndi":10759,"Ġteru":10760,"ĠLVED":10761,"Ġsignaalgemiddelde":10762,"undeerde":10763,"Ġtertiair":10764,"Ġknock":10765,"Ġvrijkomen":10766,"otoxische":10767,"ĠDSE":10768,"ĠLGE":10769,"afhankelijk":10770,"Ġneurale":10771,"ĠgeÃ¯mplanteerde":10772,"Ġvergroting":10773,"Ġantipsych":10774,"ranen":10775,"ĠRCT":10776,"Ontslaginstructies":10777,"ĠHartfalen":10778,"entanyl":10779,"ĠNormale":10780,"Ġbegeleiden":10781,"Ġuiteenlopende":10782,"Ġwave":10783,"ĠdP":10784,"Ġgeografische":10785,"Ġreview":10786,"betische":10787,"Ġgezamen":10788,"Ġblokkering":10789,"Zeel":10790,"anal":10791,"ersnede":10792,"oser":10793,"ĠTWA":10794,"ĠExperim":10795,"Ġelectrophysiologie":10796,"elektrogram":10797,"CKD":10798,"ronolacton":10799,"rypanosoma":10800,"Ġmerk":10801,"Ġpropafenon":10802,"carnitine":10803,"receptorblokkers":10804,"weedse":10805,"Ġsol":10806,"Ġstad":10807,"orens":10808,"Ġspieren":10809,"Ġschaars":10810,"ropruss":10811,"Ġsterkere":10812,"ĠArg":10813,"ĠCOVID":10814,"Ã¶r":10815,"ĠbacteriÃ«le":10816,"oassay":10817,"ĠAPO":10818,"ĠFin":10819,"parameters":10820,"Ġhielden":10821,"Ġafgestemd":10822,"Ġonderbre":10823,"ĠAt":10824,"eers":10825,"emission":10826,"Ġprednis":10827,"Ġbestr":10828,"ocytose":10829,"Ġrisicogroep":10830,"Ġcluster":10831,"cheale":10832,"ĠcreÃ«ren":10833,"ICAM":10834,"hip":10835,"Ġinstroom":10836,"Ġcine":10837,"Ġliet":10838,"ibare":10839,"Ġoverlevingspercentage":10840,"Ġhypotensieve":10841,"ĠRegelmatige":10842,"vergroting":10843,"Ġiv":10844,"Ġfasc":10845,"spopulatie":10846,"Ġwaarom":10847,"ĠTM":10848,"Ġnaarmate":10849,"ities":10850,"MIBG":10851,"iÃ«nt":10852,"Ġinfarctgrootte":10853,"ĠapoB":10854,"Ġstappen":10855,"ĠAnti":10856,"roprusside":10857,"naar":10858,"zwak":10859,"Ġec":10860,"vere":10861,"osteroÃ¯den":10862,"Ġregulerende":10863,"Ġautof":10864,"oolde":10865,"Ġatrioventrikel":10866,"rete":10867,"Ġvalidering":10868,"MSC":10869,"Ġonderschat":10870,"Ġdiermodel":10871,"Ġnicotine":10872,"Ġaminozuur":10873,"Hoofdklacht":10874,"riamycine":10875,"ĠAort":10876,"ingenomen":10877,"hosp":10878,"ĠSP":10879,"fiele":10880,"Ġlapar":10881,"afspraken":10882,"Ġlipo":10883,"SAID":10884,"fenyl":10885,"structurele":10886,"graads":10887,"ĠPPCM":10888,"remissie":10889,"geassocieerde":10890,"Ġvorderingen":10891,"ssessment":10892,"eigenschappen":10893,"Geslacht":10894,"rive":10895,"Ġdatum":10896,"Ġcompute":10897,"ĠZweedse":10898,"Ġoverleed":10899,"Ġzwart":10900,"Ġaangevuld":10901,"Ġgrootsch":10902,"Ġstimulerende":10903,"regulering":10904,"Ġuniek":10905,"Ġherstelde":10906,"Ġantistollingstherapie":10907,"Ġondervonden":10908,"Ġcavia":10909,"Ġbelemm":10910,"segmenten":10911,"ND":10912,"NG":10913,"Ġzones":10914,"Ġmyectomie":10915,"meting":10916,"Ġmultidisciplin":10917,"undaire":10918,"Ġmigratie":10919,"Ã¯soleerde":10920,"Tak":10921,"Ġverpl":10922,"sproces":10923,"obut":10924,"ĠbeÃ¯nvloedt":10925,"Ġgeconcentreerd":10926,"Ġcoorbide":10927,"SNP":10928,"Ġtit":10929,"ĠDi":10930,"Ġcrossover":10931,"Ġgrens":10932,"Ġgenezen":10933,"ekt":10934,"hing":10935,"digend":10936,"ĠInfarct":10937,"Ġgenormaliseerd":10938,"Ġtabaks":10939,"class":10940,"Ġmarg":10941,"Ġby":10942,"ĠAsp":10943,"Ġpremen":10944,"Ġhypothalam":10945,"Ġapoptotische":10946,"dist":10947,"sal":10948,"Ġ%,":10949,"Ġ112":10950,"Ġvermoeidheid":10951,"broken":10952,"zone":10953,"Ġuren":10954,"roop":10955,"astom":10956,"ibr":10957,"ronic":10958,"afwijking":10959,"lust":10960,"Ġpostm":10961,"hypertensieve":10962,"Ġindividueel":10963,"Ġindices":10964,"Ġangiogene":10965,"staande":10966,"ĠNegen":10967,"aspect":10968,"Ġperiodontitis":10969,"Ġenoxaparine":10970,"lymf":10971,"mass":10972,"Ġveter":10973,"111":10974,"Ġautosom":10975,"apporte":10976,"FH":10977,"ĠPL":10978,"eget":10979,"ugulaire":10980,"Ġplaatsing":10981,"Ġgroeien":10982,"ĠLinker":10983,"ilament":10984,"Ġcryoablatie":10985,"pine":10986,"Ġba":10987,"Ġpen":10988,"Ġteam":10989,"ĠIP":10990,"ĠDatum":10991,"Ġgradatie":10992,"ĠkostenefficiÃ«ntie":10993,"uliere":10994,"witexpressie":10995,"Zeeland":10996,"ials":10997,"nie":10998,"plan":10999,"Ġul":11000,"Ġalsook":11001,"Ġacid":11002,"Ġcarnitine":11003,"Ġliteratuuronderzoek":11004,"kalium":11005,"uiverde":11006,"Ġventricular":11007,"End":11008,"HH":11009,"hist":11010,"ueel":11011,"ĠpÃĤ":11012,"Ġnarc":11013,"Ġlop":11014,"uring":11015,"oside":11016,"Ġactive":11017,"Ġserumlipiden":11018,"Omdat":11019,"Ġregressieanalyses":11020,"Verschillende":11021,"Ġslaapstoornissen":11022,"Ġhuisarts":11023,"Ġdiffuus":11024,"ĠPubMed":11025,"ongeveer":11026,"Ġzin":11027,"ĠToe":11028,"ĠDE":11029,"Ġlaser":11030,"Ġtranss":11031,"interacties":11032,"Ġongecontroleerde":11033,"Ġdaaruit":11034,"agonisten":11035,"Ġachteruitgang":11036,"Ġpermanent":11037,"Ġselectief":11038,"seffecten":11039,"Ġgeaccep":11040,"Hz":11041,"nÃĤ":11042,"ramide":11043,"ĠEducation":11044,"Ġafwijk":11045,"Ġaccum":11046,"Ġregulator":11047,"ĠStat":11048,"implant":11049,"ĠapoE":11050,"Ġjaarlijks":11051,"oemde":11052,"Ã¯dose":11053,"Ġ108":11054,"Ġbeeldvormende":11055,"Ġantistollings":11056,"terminale":11057,"enzymremmers":11058,"Ġgeldigheid":11059,"ĠGenetische":11060,"voorspellingen":11061,"Ġlichaamssamenstelling":11062,"amponade":11063,"ĠHcy":11064,"ĠDrug":11065,"codering":11066,"Ġrookstatus":11067,"ĠAngiografie":11068,"Ġprior":11069,"Ġonregelmatige":11070,"daan":11071,"atic":11072,"Ġleek":11073,"Ġovergebracht":11074,"Ġdaarentegen":11075,"ĠExamination":11076,"Ġrepetitieve":11077,"shock":11078,"Isch":11079,"eGFR":11080,"kk":11081,"oL":11082,"arium":11083,"array":11084,"Ġkri":11085,"vervanger":11086,"adat":11087,"oxif":11088,"Ġbescha":11089,"025":11090,"HFR":11091,"Ġafhankelijke":11092,"Ġreageerde":11093,"())":11094,"voeding":11095,"Ġopening":11096,"Ġvaatziekte":11097,"osfaat":11098,"Ġglucosespiegel":11099,"Ġgeschatte":11100,"yridine":11101,"elta":11102,"ovormen":11103,"ĠTLR":11104,"Ġepidurale":11105,"Ġvolwassenheid":11106,"Ġtrombox":11107,"demografische":11108,"ĠCardial":11109,"ĠCardiale":11110,"contract":11111,"ĠSurvival":11112,"Ġbalans":11113,"erbaar":11114,"ifactoren":11115,"Ġpercentiel":11116,"AG":11117,"Ġrig":11118,"Ġproject":11119,"Ġepilep":11120,"Ġserie":11121,"olamine":11122,"ocytopenie":11123,"Niet":11124,"cyc":11125,"onnen":11126,"elings":11127,"Ġzover":11128,"ĠFe":11129,"Ġexperiment":11130,"CEP":11131,"Ġfosfaat":11132,"Ġobservaties":11133,"Ġfragment":11134,"sensibil":11135,"Ġorthotopische":11136,"smaatregelen":11137,"stisch":11138,"ĠNSVT":11139,"Ġdoss":11140,"Ġmedia":11141,"sterase":11142,"eenzuur":11143,"Ġvoorafgegaan":11144,"Ġtachyp":11145,"ĠTTE":11146,"Ġrenale":11147,"Ġperiodieke":11148,"Ġpilot":11149,"NK":11150,"Ġtwijf":11151,"Ġost":11152,"Ġkeiz":11153,"opbrengst":11154,"Ġnavel":11155,"Ġverschuiving":11156,"ingsgraad":11157,"ventilatie":11158,"AVNRT":11159,"Ġverdikking":11160,"partment":11161,"Cross":11162,"xx":11163,"Ġverrijk":11164,"ĠPa":11165,"ĠLog":11166,"ĠCOX":11167,"Ġliggende":11168,"Ġelectrogrammen":11169,"Ġprofylaxe":11170,"steekproef":11171,"ynaec":11172,"Eu":11173,"orn":11174,"eluting":11175,"ĠVentriculaire":11176,"aca":11177,"Ġschrijven":11178,"Ġverwachting":11179,"ĠMetabole":11180,"perk":11181,"Ġdepositie":11182,"onverzadigde":11183,"ameth":11184,"Ġresectie":11185,"Ġgebonden":11186,"ĠGlob":11187,"requency":11188,"Ġsubstraten":11189,"neden":11190,"vullende":11191,"AAAA":11192,"Ġleukemie":11193,"FS":11194,"vatie":11195,"Ġvonden":11196,"Ġomtrek":11197,"Ġvrouwelijk":11198,"Ġbehoeften":11199,"Ġmiddelste":11200,"irudine":11201,"vlies":11202,"azol":11203,"ARVC":11204,"Ġskeletspier":11205,"jaars":11206,"pon":11207,"entien":11208,"opathieÃ«n":11209,"rometrie":11210,"loor":11211,"sorb":11212,"Ġvullen":11213,"Ġmaten":11214,"Ġdranken":11215,"ĠHLA":11216,"loos":11217,"ĠLaboratorium":11218,"ĠGep":11219,"Ġscan":11220,"golfsnelheid":11221,"polarisering":11222,"Ġrandomized":11223,"Ġverdwijnen":11224,"MACE":11225,"iing":11226,"Ġvaart":11227,"herentie":11228,"herhaling":11229,"ĠRep":11230,"luenza":11231,"Inter":11232,"Ġabru":11233,"Ġepidemie":11234,"pul":11235,"Â©":11236,"Ġingebracht":11237,"ram":11238,"Ġoff":11239,"hout":11240,"ĠEvalu":11241,"erei":11242,"ĠRM":11243,"estion":11244,"Ġasyn":11245,"Ġfarmaceutische":11246,"Ġlokaal":11247,"ĠHoge":11248,"Ġnitraten":11249,"Ep":11250,"PB":11251,"win":11252,"Ġhecht":11253,"Ġoverlijdens":11254,"Ġresonance":11255,"biomarkers":11256,"ĠControle":11257,"Ġdefinities":11258,"Ġadrenaline":11259,"ĠintracraniÃ«le":11260,"Ġdikte":11261,"\"-\"-\"-\"-":11262,"Ġsubset":11263,"NSTE":11264,"telling":11265,"Ġpe":11266,"ĠtHcy":11267,"Ġaankomst":11268,"ĠTEE":11269,"Ġlagen":11270,"ingsgroep":11271,"efening":11272,"APD":11273,"Ġverlaagde":11274,"Ġverlichting":11275,"omotorische":11276,"Ġdele":11277,"ocriet":11278,"Ġgaven":11279,"ĠTromb":11280,"ĠFontan":11281,"Ġtransfer":11282,"Ġlineair":11283,"TTE":11284,"Ġoverwegend":11285,"Ġceldood":11286,"les":11287,"ĠPac":11288,"Ġcoronary":11289,"Ġaangetoonde":11290,"ontvangers":11291,"ĠCOF":11292,"potentieel":11293,"Ġprostaatkanker":11294,"alcoholische":11295,"kade":11296,"naire":11297,"Ġbezoek":11298,"osim":11299,"Ġafloop":11300,"ĠFran":11301,"Ġwandbewegings":11302,"Ġantistollingsmiddel":11303,"Ġmeldde":11304,"Ġvasodilatator":11305,"Ġdonoren":11306,"tale":11307,"tren":11308,"erder":11309,"Ġdw":11310,"ulation":11311,"Ġrijk":11312,"Ġgeboe":11313,"ĠPH":11314,"ĠProp":11315,"Ġvastgelegd":11316,"controlegroep":11317,"Ġpresentaties":11318,"ESRD":11319,"Ġgroeifactoren":11320,"Ġvoortvloeiende":11321,"Ġsoj":11322,"Ġnov":11323,"Ġfin":11324,"bev":11325,"pend":11326,"Ġgeraamde":11327,"resistente":11328,"Ġexercitie":11329,"())))":11330,"WH":11331,"erget":11332,"aldosteron":11333,"idden":11334,"Ġfentanyl":11335,"ĠSV":11336,"ĠefficiÃ«nte":11337,"Ġafger":11338,"cardicardi":11339,"vormings":11340,"ĠControl":11341,"ucces":11342,"dep":11343,"Ġhetgeen":11344,"antistoffen":11345,"ĠEP":11346,"ĠTrypanosoma":11347,"odine":11348,"duction":11349,"bed":11350,"ĠRD":11351,"Ġsubaort":11352,"Ġlinkerventrikeldruk":11353,"Ġwaardevol":11354,"Ġkortetermijn":11355,"Ġaanvullen":11356,"Ġinotrope":11357,"Ġtomography":11358,"Ġcommunautaire":11359,"Echocardiografie":11360,"orp":11361,"refract":11362,"Ġverze":11363,"Ġcatheter":11364,"Ġstem":11365,"ĠSec":11366,"ĠWille":11367,"rigeerde":11368,"Ġglycogeen":11369,"Ġeliminatie":11370,"Ġstreptozotocine":11371,"hum":11372,"lus":11373,"Ġvon":11374,"Ġreverse":11375,"Ġgas":11376,"Ġtoezicht":11377,"romeg":11378,"Ġactuele":11379,"Ġ126":11380,"ĠChronische":11381,"Ġcolon":11382,"Ġvoet":11383,"Ġvloeibare":11384,"Ġovarium":11385,"Ġprenatale":11386,"Ox":11387,"tach":11388,"Ġnierdisfunctie":11389,"Ġjeu":11390,"bestand":11391,"Ġpostpartum":11392,"ĠDuitsland":11393,"Ġdalingen":11394,"LM":11395,"ank":11396,"Ġecardiografisch":11397,"delings":11398,"Ġ107":11399,"Ġzwarten":11400,"Ġtechnologie":11401,"Ġcommunicatie":11402,"Ġspannings":11403,"COS":11404,"PVC":11405,"klinische":11406,"armen":11407,"Ġprincip":11408,"estenose":11409,"Ġkeizersnede":11410,"Ġgeboekt":11411,"nitro":11412,"Ġveget":11413,"des":11414,"Ġcelt":11415,"Ġoversch":11416,"ductieve":11417,"Ġelement":11418,"Ġstructureel":11419,"PVI":11420,"Ġpseudo":11421,"400":11422,"gas":11423,"iep":11424,"ges":11425,"ĠPS":11426,"ycyst":11427,"ĠDS":11428,"Ġeerstehulp":11429,"tensive":11430,"Ġwaardevolle":11431,"Ġbevestiging":11432,"Ġlaboratoriumtests":11433,"Ġdramatische":11434,"Ġuitvoering":11435,"aspase":11436,"Ġextrastimuli":11437,"kappaB":11438,"Ġmethy":11439,"adraat":11440,"Ġapart":11441,"igenschappen":11442,"Ġdramatisch":11443,"ĠsequentiÃ«le":11444,"Ġconcentrische":11445,"Ġgespecialiseerde":11446,"ICM":11447,"Ġwonen":11448,"reparatie":11449,"Ġversie":11450,"ĠnM":11451,"ĠMicro":11452,"ionine":11453,"Ġstimuleert":11454,"Ġinstellingen":11455,"Ġfarmacok":11456,"Ġparoxysmaal":11457,"Ġontdekte":11458,"ight":11459,"ĠSympt":11460,"synthet":11461,"Ġgemodificeerde":11462,"GI":11463,"Ġhang":11464,"algoritme":11465,"Ġenalapril":11466,"Ġsil":11467,"ake":11468,"ĠVII":11469,"ĠOAC":11470,"yrosine":11471,"Ġvasculatuur":11472,"Ġstroming":11473,"Ġneuronen":11474,"Ġpaarden":11475,"ailure":11476,"sup":11477,"ĠÎ¼":11478,"ĠEt":11479,"ĠInc":11480,"Ġelementen":11481,"ĠZweden":11482,"Ġleidende":11483,"Ġzuurstofverbruik":11484,"Ġfenylefrine":11485,"Ġscreen":11486,"Ġhypoxische":11487,"Ġblokkeren":11488,"Ġveelbelovend":11489,"Ġheterozygote":11490,"water":11491,"Ġvoorheen":11492,"genitale":11493,"ĠCx":11494,"umin":11495,"Ġoverbelasting":11496,"ĠDer":11497,"atrial":11498,"que":11499,"slagslag":11500,"ymorph":11501,"Ġ118":11502,"Ġobser":11503,"diponectine":11504,"Ġelektrisch":11505,"Ġverergerd":11506,"grens":11507,"okinase":11508,"bronnen":11509,"ĠCHADS":11510,"denafil":11511,"Ġbemiddelen":11512,"genetische":11513,"rapport":11514,"romusc":11515,"Ġhomeost":11516,"Ġoes":11517,"atier":11518,"ĠTSH":11519,"mping":11520,"eroute":11521,"Ġconsum":11522,"Ġhartfrequenties":11523,"Ġhypokinesie":11524,"Ġlongaders":11525,"Ġimmunosuppressie":11526,"Ġaffiniteit":11527,"ĠcorticosteroÃ¯den":11528,"PK":11529,"fatale":11530,"iop":11531,"Ġnum":11532,"Ġafd":11533,"istry":11534,"Ġaantasting":11535,"Ġuiteindelijke":11536,"Ġthallium":11537,"Ġperipartumcardiomyopathie":11538,"Ġbroers":11539,"Retrospective":11540,"Ġochten":11541,"Ġbegeleiding":11542,"umab":11543,"Ġleuc":11544,"apl":11545,"Ġkransslag":11546,"Ġinbrengen":11547,"ziaten":11548,"ĠSpaanse":11549,"Ġadequaat":11550,"ĠÃł":11551,"Ġfiltratiesnelheid":11552,"cm":11553,"com":11554,"gr":11555,"Ġhals":11556,"onaat":11557,"olic":11558,"ssch":11559,"isicofactoren":11560,"Ġovergedragen":11561,"ties":11562,"Ġrobu":11563,"Ġgroup":11564,"geleide":11565,"ĠventrikelaritmieÃ«n":11566,"Ġlinkerventrikele":11567,"Ġanemie":11568,"Ġhangt":11569,"Ġbood":11570,"Ġequival":11571,"ĠIF":11572,"ĠItal":11573,"ĠBinnen":11574,"Ġdivers":11575,"Ġcarotische":11576,"Ġ1984":11577,"prest":11578,"Ġspectrale":11579,"Ġpanel":11580,"ĠAdult":11581,"Ġvermoedelijk":11582,"Ġademhalingsproblemen":11583,"chymale":11584,"Ġnarcose":11585,"BD":11586,"Vrouwen":11587,"ÃŃ":11588,"Ġgefrag":11589,"iculaire":11590,"Ġcondition":11591,"iber":11592,"Ġbetrouwbaarheidsintervallen":11593,"Ġligand":11594,"Ġcondities":11595,"Ġisovolum":11596,"Ġimmunohistochemie":11597,"atoir":11598,"Ġpatients":11599,"osimendan":11600,"AUC":11601,"yre":11602,"ocortic":11603,"Ġdata":11604,"ady":11605,"ĠNOS":11606,"Ġposturale":11607,"Ġregelt":11608,"Ġmacrovasculaire":11609,"Ġpassieve":11610,"Ġcalorie":11611,"MMP":11612,"defibrillatoren":11613,"Ġmateriaal":11614,"Ġdens":11615,"ocalc":11616,"verlaging":11617,"spar":11618,"ĠAkt":11619,"Â±-":11620,"Ġ111":11621,"voorzien":11622,"Ġmedium":11623,"ĠSpan":11624,"Ġbreedte":11625,"ĠTTR":11626,"Postoperatieve":11627,"etica":11628,"arbe":11629,"leet":11630,"direct":11631,"atide":11632,"verdi":11633,"Ġwaarna":11634,"imes":11635,"Ġniertransplantaten":11636,"Ġinterventiegroep":11637,"prakt":11638,"gorde":11639,"Ġtranscatheter":11640,"respectievelijk":11641,"Ġvlekken":11642,"Ġimmunosuppressiva":11643,"Ġdiscriminatie":11644,"overdracht":11645,"Ġattack":11646,"Ġpolymeraseketenreactie":11647,"His":11648,"aeenzuur":11649,"Ġveld":11650,"induceerde":11651,"geselect":11652,"Ġpublic":11653,"ason":11654,"ĠAne":11655,"Ġbaseline":11656,"frequenties":11657,"transplantaties":11658,"Ġconcurr":11659,"ĠRFCA":11660,"ackie":11661,"Ġtijdstippen":11662,"Ġantegrade":11663,"Ġbekijken":11664,"databank":11665,"ĠStents":11666,"EP":11667,"diening":11668,"Ġgif":11669,"Ġperin":11670,"oxon":11671,"eenheden":11672,"ĠbehandelingsstrategieÃ«n":11673,"Ġischemiccardiomyopathie":11674,"Ġhepatitis":11675,"Ġillu":11676,"ĠgeÃ¯nterpret":11677,"Ġrechterkam":11678,"brengen":11679,"egen":11680,"namen":11681,"vle":11682,"char":11683,"icum":11684,"splaat":11685,"Ġsystole":11686,"prolif":11687,"pens":11688,"Ġmonocyt":11689,"Ġgeslaagde":11690,"Ġepidemiologisch":11691,"Ġanalysis":11692,"Ġcomputertomografie":11693,"Ġcyan":11694,"Ġonvolledig":11695,"Ġhyperemie":11696,"oosheid":11697,"arly":11698,"Ġencefal":11699,"Ġoct":11700,"icyl":11701,"ĠAAA":11702,"Ġpersistentie":11703,"Ġondersteunende":11704,"Ġrisicoratio":11705,"Ġrefractair":11706,"ĠpathologieÃ«n":11707,"Ġslot":11708,"Ġsarcoplasm":11709,"DC":11710,"kliniek":11711,"Ġaritm":11712,"Ġheers":11713,"Ġsen":11714,"genoemde":11715,"Ġplacent":11716,"lyten":11717,"econcentraties":11718,"Ġcontractiel":11719,"Ġpartic":11720,"Ġisoprenaline":11721,"Ġheersende":11722,"feren":11723,"formatie":11724,"Ġ%)":11725,"Ġgeop":11726,"ĠNadat":11727,"lux":11728,"yline":11729,"Ġlozen":11730,"AVR":11731,"Ġphysiologie":11732,"Ġbeleid":11733,"ĠEndothel":11734,"Ġbloedstolling":11735,"He":11736,"fron":11737,"tom":11738,"anine":11739,"ĠTachycardie":11740,"ĠVLDL":11741,"beur":11742,"ĠOC":11743,"Ġgepul":11744,"Ġberekenen":11745,"Ġtrombolysis":11746,"iniging":11747,"lank":11748,"Ġstijgen":11749,"Ġadiposity":11750,"Ġproximaal":11751,"Ġmotorische":11752,"dialdehyde":11753,"ĠgeÃ¯nterpreteerd":11754,"ah":11755,"gluc":11756,"isen":11757,"Ġloci":11758,"ĠSH":11759,"Ġherkennen":11760,"resultaat":11761,"133":11762,"Ġtheor":11763,"Ġnucleotide":11764,"glycerol":11765,"regulated":11766,"Ġleefstijl":11767,"Ġcirrose":11768,"ĠMediane":11769,"ART":11770,"forese":11771,"etherapie":11772,"oran":11773,"reactiviteit":11774,"ĠHaar":11775,"ĠSh":11776,"Ġadaptieve":11777,"NSTEMI":11778,"ugen":11779,"Ġee":11780,"ĠDepartment":11781,"Ġheup":11782,"ĠMPO":11783,"ograde":11784,"Ġpersister":11785,"Ġruggen":11786,"Ġgete":11787,"Ġoptimaal":11788,"Ġkunstmatige":11789,"AHA":11790,"bundel":11791,"dustri":11792,"Ġruwe":11793,"Ġeth":11794,"Ongeveer":11795,"Ġvoortplant":11796,"Ġverergerende":11797,"carb":11798,"zoals":11799,"ĠAustralische":11800,"Ġ-(((()":11801,"Ġintegriteit":11802,"Ġverfijn":11803,"Ġfinanc":11804,"Ap":11805,"cement":11806,"iod":11807,"ĠSinds":11808,"onderwijs":11809,"abra":11810,"vofluraan":11811,"ĠLT":11812,"ĠOH":11813,"olazine":11814,"Ġregisters":11815,"ĠTransthoracale":11816,"Ġhomozygote":11817,"Sub":11818,"Ziekenhuis":11819,"kon":11820,"triglycer":11821,"Ġcann":11822,"ramine":11823,"otid":11824,"Ġscenario":11825,"Ġtransveneuze":11826,"Ġlongfunctie":11827,"yclische":11828,"Ġunipolaire":11829,"Ġstikstofoxidesynthase":11830,"ĠIschemie":11831,"Ġfistel":11832,"Ġhemorrag":11833,"TEE":11834,"fs":11835,"Ġwinter":11836,"ĠCre":11837,"Ġlevenskwaliteit":11838,"groei":11839,"Ġelimineren":11840,"Ġterugn":11841,"vice":11842,"injectie":11843,"atrol":11844,"stell":11845,"beide":11846,"profielen":11847,"ĠKC":11848,"Ġpravastatine":11849,"Ġbeheerd":11850,"Ġverklaart":11851,"Ġkoppelings":11852,"Ġvergemakkelijkt":11853,"vaatjes":11854,"Ġinterviews":11855,"Ġsneller":11856,"sim":11857,"Ġvide":11858,"statische":11859,"Ġax":11860,"Ġcafe":11861,"ijna":11862,"iling":11863,"stein":11864,"Ġsignal":11865,"Ġepicardium":11866,"Ġbegint":11867,"ĠdyslipidemieÃ«n":11868,"Ġamlodipine":11869,"ĠAtherosclerose":11870,"smethoden":11871,"pte":11872,"ros":11873,"oppervlak":11874,"amm":11875,"rucht":11876,"voerde":11877,"130":11878,"ĠChirurgische":11879,"Ġlokalisatie":11880,"horaxfoto":11881,"TIMI":11882,"entanil":11883,"UT":11884,"vig":11885,"Ġdegeneratieve":11886,"Ġesmolol":11887,"Ġbeantwoor":11888,"ogie":11889,"ĠElect":11890,"ĠVKA":11891,"Ġmiddellange":11892,"ĠKla":11893,"regio":11894,"Ġbovengenoemde":11895,"Ġoptim":11896,"Ġafhankelijkheid":11897,"positief":11898,"zocht":11899,"adrenoceptoren":11900,"cardiomyocyten":11901,"nucle":11902,"Ġvoorwaarde":11903,"ĠSinus":11904,"acycline":11905,"Ġspinale":11906,"Ġsnelheden":11907,"LVED":11908,"oracale":11909,"Volgens":11910,"matched":11911,"Ġcircadiaanse":11912,"Ġfarmacokinetiek":11913,"\")":11914,"bic":11915,"Ġobese":11916,"Ġgestruct":11917,"Ġ(((((((((((((((((":11918,"derende":11919,"Ġkoff":11920,"Ġpreoperatief":11921,"waardige":11922,"vankelijk":11923,"Ġbelangrijker":11924,"Ġlongziekten":11925,"odynamica":11926,"Ġ170":11927,"Ġpathogene":11928,"Ġeigenschap":11929,"Ġvoedingsgewoonten":11930,"COPD":11931,"Ġkwartielen":11932,"Ġvoren":11933,"Ġaanhouden":11934,"veratrol":11935,"linkse":11936,"Ġparox":11937,"Ġplan":11938,"brede":11939,"HOCM":11940,"Ġconfounders":11941,"ĠWillebrand":11942,"ĠAH":11943,"ĠAut":11944,"Ġpromotor":11945,"Ġsport":11946,"CMP":11947,"Ġbreuken":11948,"Ġvisolie":11949,"Ġbevordering":11950,"Ġkoppelen":11951,"Ġbradykinine":11952,"Ġsclerose":11953,"Ġopmerkelijke":11954,"acchar":11955,"okine":11956,"ĠRFA":11957,"irt":11958,"ĠFall":11959,"Ġabsorptie":11960,"optim":11961,"lyk":11962,"Ġhepatische":11963,"Ġmalon":11964,"ĠflecaÃ¯nide":11965,"Ġonverwachte":11966,"pacemaker":11967,"marker":11968,"aria":11969,"Ġav":11970,"Ġhyperk":11971,"Ġdysfunctie":11972,"auk":11973,"Ġvallen":11974,"ĠmitralisklepinsufficiÃ«ntie":11975,"bestanddelen":11976,"Bep":11977,"Ġaz":11978,"Ġwerkende":11979,"ĠPÃĤ":11980,"ĠPSVT":11981,"Ġmyocytes":11982,"abel":11983,"Ġafweer":11984,"011":11985,"Ġgeleide":11986,"ĠUnit":11987,"Ġmultis":11988,"Ġmilt":11989,"Ġopgeslagen":11990,"irurgie":11991,"ĠKoreaanse":11992,"Ġmetaboliet":11993,"Ġgroeiend":11994,"Plotselinge":11995,"baten":11996,"prec":11997,"twintig":11998,"ukin":11999,"Ġborder":12000,"aminen":12001,"Ġrecessieve":12002,"Ġgesloten":12003,"Ġsleut":12004,"Ġtachycardi":12005,"Ġcorresp":12006,"Ġcyclosporine":12007,"Ġincrement":12008,"Ġluchtverontreiniging":12009,"xin":12010,"erkende":12011,"oenen":12012,"Ġlossen":12013,"Ġprofylactische":12014,"ĠTaiwan":12015,"ĠSpanje":12016,"geselecteerde":12017,"ERP":12018,"sackie":12019,"inst":12020,"instellingen":12021,"dier":12022,"ĠPF":12023,"Ġminimum":12024,"bleem":12025,"cholesterolconcentraties":12026,"Ġextreme":12027,"Ġcontroverse":12028,"Ġgeblokkeerd":12029,"Ġstudenten":12030,"OAC":12031,"nelijk":12032,"ps":12033,"ping":12034,"ata":12035,"Ġpall":12036,"oorden":12037,"ĠHarten":12038,"osomen":12039,"mperatuur":12040,"Ġtoestanden":12041,"ĠRCA":12042,"halings":12043,"Ġverbanden":12044,"Ġdrievoudige":12045,"Ġbiologie":12046,"Ġbevestigt":12047,"Ġtheorie":12048,"Ġkleppen":12049,"Ġfosforylering":12050,"Ġemissie":12051,"ocardocardocardocardocardocardocardocardocardocardocardocardocardocardocardocard":12052,"GS":12053,"sum":12054,"etium":12055,"asse":12056,"versterkte":12057,"Ġperceptie":12058,"ĠLPS":12059,"deelden":12060,"Ġhartsterfte":12061,"Ġtachyaritmie":12062,"Ġcyclussen":12063,"ycardycardycardycard":12064,"sulfaat":12065,"Ġwigdruk":12066,"NV":12067,"neemt":12068,"Ġgegaan":12069,"artikel":12070,"oglyc":12071,"ĠCal":12072,"ĠEPS":12073,"idende":12074,"ĠRAS":12075,"Ġwekelijk":12076,"Ġbereken":12077,"ylcholine":12078,"axie":12079,"Ġretrospectieve":12080,"PTCA":12081,"Ġsarcole":12082,"ĠQuestion":12083,"Ġpromille":12084,"Ġerectiestoornissen":12085,"habilitatie":12086,"osus":12087,"administratie":12088,"zenuw":12089,"viatie":12090,"Naast":12091,"oteen":12092,"Ġknooppunten":12093,"'-'-'-'-'-'-'-'-'-'-'-'-'-'-'-'-'-'-'-'-'-'-'-'-'-'-'-'-'-'-'-'-'-'-'-'-'-'-'-'-'-'-'-'-'-'-'-'-'-'-'-'-'-'-'-'-'-'-'-'-'-'-'-'-":12094,"lonidine":12095,"Ġconservatieve":12096,"beurtenis":12097,"Ant":12098,"taliÃ«":12099,"iger":12100,"anth":12101,"0005":12102,"Ġkankers":12103,"Ġhartfib":12104,"axis":12105,"ĠgeÃ¯nform":12106,"normal":12107,"Ġversterking":12108,"Ġstammen":12109,"Ġextrasy":12110,"blessures":12111,"2000":12112,"Car":12113,"ĠpatiÃ«ntengroepen":12114,"ĠClin":12115,"ility":12116,"ĠEPO":12117,"ateraal":12118,"ĠCardiologie":12119,"Ġventilatie":12120,"Ġreproduceerbaarheid":12121,"ĠVoortzetten":12122,"Ġnabootsen":12123,"Ġhypertrofecardiomyopathie":12124,"ĠDieet":12125,"Ġantipsychotica":12126,"dische":12127,"haalde":12128,"ner":12129,"prim":12130,"strom":12131,"old":12132,"Ġfac":12133,"Ġomkering":12134,"Ġnabij":12135,"ĠOP":12136,"Ġbiop":12137,"plaatst":12138,"Ġquin":12139,"Ġbeschermend":12140,"verzadiging":12141,"bescherming":12142,"Hier":12143,"arach":12144,"Ġvergiftiging":12145,"agale":12146,"herme":12147,"Ġeerstel":12148,"Ġcontrolepersonen":12149,"Ġmonitoren":12150,"Ġ114":12151,"Ġlinkerventrikelmassa":12152,"Ġtrombocytopenie":12153,"ĠMannen":12154,"geluid":12155,"urikemie":12156,"Ġarrestatie":12157,"ĠFallot":12158,"Evaluatie":12159,"morf":12160,"udering":12161,"delta":12162,"0002":12163,"Ġinstantie":12164,"Ġelektrocardiografisch":12165,"Ġmoleculair":12166,"Ġcolor":12167,"ĠHolterbewaking":12168,"Ġzoekt":12169,"Ġarhyth":12170,"Ġaanvullend":12171,"Ġgepulste":12172,"HL":12173,"Ġleft":12174,"aanval":12175,"Ġaantrek":12176,"Ġervaringen":12177,"ĠScien":12178,"syncope":12179,"incidentie":12180,"eremmer":12181,"ĠdeficiÃ«ntie":12182,"Ġjeugd":12183,"lyt":12184,"Ġmurine":12185,"chen":12186,"Ġeet":12187,"Ġprik":12188,"reductie":12189,"lever":12190,"ulose":12191,"ijdt":12192,"ĠMinn":12193,"ĠLP":12194,"ofrequentie":12195,"Ġnormalisatie":12196,"compressie":12197,"Ġpotentials":12198,"Ġdepressies":12199,"Ġcoderen":12200,"prepre":12201,"Ġrandomisering":12202,"Ġhematologische":12203,"ICU":12204,"]),":12205,"idil":12206,"Ġed":12207,"lact":12208,"Ġsten":12209,"linked":12210,"mentatie":12211,"Ġbevindt":12212,"relatieve":12213,"Ġanastom":12214,"sprotocol":12215,"Ġremissie":12216,"technologie":12217,"animeerd":12218,"beperk":12219,"indicatoren":12220,"responders":12221,"okinetische":12222,"Ġcardiometabole":12223,"beurtenissen":12224,"Arg":12225,"DP":12226,"KG":12227,"ette":12228,"suvastatine":12229,"Ġelektromagnetische":12230,"(-)":12231,"oglobuline":12232,"Ġtemporale":12233,"Ġnitraat":12234,"Ġtreedt":12235,"Daar":12236,"Mult":12237,"SF":12238,"fe":12239,"vier":12240,"Â¥":12241,"Ġentrain":12242,"ĠHSP":12243,"ĠSOD":12244,"Ġ109":12245,"Ġepsilon":12246,"Ġmaatst":12247,"Ġretrospective":12248,"Ġkransziekte":12249,"Ġmodaliteit":12250,"Ġbuffer":12251,"Gen":12252,"gedefin":12253,"Ġongevoel":12254,"Ġingevuld":12255,"werken":12256,"raagd":12257,"ulerend":12258,"Ġinducibele":12259,"Ġcoorbiditeit":12260,"vit":12261,"ted":12262,"genotyp":12263,"Ġisth":12264,"Ġwaarsch":12265,"Ġacyl":12266,"Ġtrabec":12267,"APT":12268,"werkers":12269,"Ġomgevings":12270,"Ġdominant":12271,"Ġpancreas":12272,"szins":12273,"refractaire":12274,"drug":12275,"gesie":12276,"Ġpi":12277,"atid":12278,"Ġpropranololol":12279,"omycomycomycomycomycomycomycomycomycomycomycomycomycomycomycomycomycomycomycomycomycomycomycomycomycomycomycomycomycomycomycomyc":12280,"El":12281,"morphologie":12282,"orele":12283,"oestanden":12284,"Ġbijge":12285,"ssyndroom":12286,"ĠAde":12287,"Ġsubcla":12288,"Ġneop":12289,"Ġendothelische":12290,"Ġgoedaardige":12291,"eertien":12292,"Ġveiligheids":12293,"ĠHierin":12294,"neumonie":12295,"hospitale":12296,"Ġelectrocardiografische":12297,"Ġdetecteren":12298,"ĠDatabase":12299,"Ġongecompliceerde":12300,"Apo":12301,"plasma":12302,"Ġdoorver":12303,"aders":12304,"acks":12305,"Ġposter":12306,"Ġneo":12307,"ĠStudies":12308,"BPC":12309,"ĠTenslotte":12310,"ĠtracÃ©":12311,"Ġondervraagden":12312,"Ġgeheugen":12313,"Ġgrootschalige":12314,"ĠEvaluation":12315,"hi":12316,"seiwit":12317,"Ġertoe":12318,"Ġleverden":12319,"blokkering":12320,"periodes":12321,"Ġmisselijk":12322,"ĠPostoperatieve":12323,"Ġvoltooid":12324,"anesthet":12325,"Ġanterograde":12326,"aantal":12327,"Ġsleutel":12328,"MHC":12329,"kol":12330,"Ġ--":12331,"Ġbloedmonsters":12332,"bezoeken":12333,"Ġspoed":12334,"Ġ113":12335,"exp":12336,"Ġgebleven":12337,"ĠAblatie":12338,"Ġdrinken":12339,"Ġkruising":12340,"Ġuitgangswaarde":12341,"Aziatische":12342,"sing":12343,"Ġflavon":12344,"Ġontving":12345,"voordelen":12346,"script":12347,"receptorantagonist":12348,"Ġritmestoornissen":12349,"Ġovertui":12350,"ĠTroponine":12351,"Ġnovo":12352,"Ġkoffie":12353,"Ġpet":12354,"ocardische":12355,"ieniveaus":12356,"Ġsubjectieve":12357,"transm":12358,"Ġkransziekten":12359,"Ġhistamine":12360,"Ġanticonceptie":12361,"schakel":12362,"Ġvergrij":12363,"Ġveteranen":12364,"ae":12365,"binden":12366,"Ġopslag":12367,"ssie":12368,"iletine":12369,"valirudine":12370,"Ġhouding":12371,"regime":12372,"myocytes":12373,"Ġhartkamers":12374,"Ġsuggereerde":12375,"Ġzenuwen":12376,"Ġdigit":12377,"fibro":12378,"Ġenigszins":12379,"node":12380,"reÃ«":12381,"Ġinvloeden":12382,"Ġoverlapp":12383,"ĠFP":12384,"Ġetniciteit":12385,"Ġbeschermd":12386,"Ġesthetische":12387,"Inst":12388,"gie":12389,"Ġstorm":12390,"Ġgentherapie":12391,"ĠOPG":12392,"ronisch":12393,"senzym":12394,"015":12395,"ĠdrukgradiÃ«nt":12396,"Ġelectroanatomische":12397,"Ġrug":12398,"woorden":12399,"spannings":12400,"FMD":12401,"Ġingenomen":12402,"Ġkaarten":12403,"Ġongem":12404,"ĠhartpatiÃ«nten":12405,"Ġhemo":12406,"ĠSup":12407,"ĠSCI":12408,"ited":12409,"loof":12410,"ĠTussen":12411,"Ġmanip":12412,"ĠFab":12413,"Ġpersoneel":12414,"ĠmicroRNA":12415,"oplastie":12416,"Ġprostagland":12417,"ĠTekenen":12418,"Ġintegratie":12419,"dragers":12420,"opyopyopyopy":12421,"Ġeeuw":12422,"Best":12423,"sn":12424,"Ġventrikelwand":12425,"Ã¯nezuur":12426,"Ġpotente":12427,"CAT":12428,"ĠgecreÃ«":12429,"armacologische":12430,"Ġocclusieve":12431,"verbindingen":12432,"Ġrapporteerde":12433,"\"\"\"\"\"\"\"\"\"\"\"\"\"\"\"\"":12434,"ĠmultifactoriÃ«le":12435,"din":12436,"pas":12437,"geperf":12438,"ilaterale":12439,"alytische":12440,"Ġacromeg":12441,"Ġdriemaal":12442,"Ġkwantitatief":12443,"Ġondervoeding":12444,"ĠRegistry":12445,"Ġevenredige":12446,"ĠSignificante":12447,"Ġpr":12448,"Ġonc":12449,"iotensine":12450,"CAB":12451,"regulerende":12452,"Ġgezondheidsproblemen":12453,"DMD":12454,"ursus":12455,"bloedstroom":12456,"MetS":12457,"Ġwijzigingen":12458,"sequenties":12459,"ĠItaliaanse":12460,"]-":12461,"Ġopgaande":12462,"Ġwortel":12463,"ĠTwintig":12464,"linker":12465,"ĠOost":12466,"opathologische":12467,"Ġactin":12468,"Ġgeplande":12469,"othaan":12470,"Ġhomocy":12471,"houdingen":12472,"Ġmesenter":12473,"ĠNormaal":12474,"Ġerythemat":12475,"Ġhyperinsulinemie":12476,"orandil":12477,"enzymen":12478,"Ġhartcardiomycine":12479,"Ġrosuvastatine":12480,"Ġreperfusiewonden":12481,"iduen":12482,"Ġmaximum":12483,"Ġfeochromocytoma":12484,"liter":12485,"dagen":12486,"Ġprofess":12487,"idiver":12488,"Ġverwarrende":12489,"Ġzoektocht":12490,"ĠgecreÃ«erd":12491,"SHR":12492,"nelle":12493,"Ġ122":12494,"Ġ135":12495,"ĠVeranderingen":12496,"Ġdiscrete":12497,"Ġziekterisicofactoren":12498,"Ġkrimp":12499,"Ġochtend":12500,"abradine":12501,"avi":12502,"Ġverdubb":12503,"Ġreconstructie":12504,"Ġgynaec":12505,"Ġmanoeuv":12506,"Ġ117":12507,"ĠKauk":12508,"doet":12509,"uitdrukking":12510,"Ġneurop":12511,"Ġbilirubine":12512,"Ġhyperthermie":12513,"Ġphysiologische":12514,"ALY":12515,"moeder":12516,"Ġvaartuigen":12517,"deerd":12518,"orad":12519,"Ġhartopbrengst":12520,"Ġ128":12521,"ĠFrank":12522,"Ġbehoren":12523,"Ġbiologisch":12524,"zettings":12525,"Ġtrials":12526,"Ġmicron":12527,"Ġstenttrombose":12528,"Ġverstoord":12529,"functionele":12530,"omyomyomyomyomyomyomyomyomyomyomyomyomyomyomyomyomyomyomyomyomyomyomyomyomyomyomyomyomyomyomyomy":12531,"schattingen":12532,"BA":12533,"TW":12534,"col":12535,"integ":12536,"reken":12537,"Ġrepar":12538,"ĠEmer":12539,"ĠSeg":12540,"Ġsymp":12541,"ĠNIDDM":12542,"ipril":12543,"Ġaangetaste":12544,"Ġpathog":12545,"Ġsteady":12546,"ĠScore":12547,"ĠPON":12548,"ĠSecundaire":12549,"Man":12550,"VAD":12551,"elast":12552,"gency":12553,"scheiden":12554,"esota":12555,"eleinden":12556,"Ġleken":12557,"Ġchlor":12558,"Ġkransslagaderocclusie":12559,"Ġscherp":12560,"Ġvarken":12561,"Ġobservatie":12562,"Ġsequencing":12563,"Ġhematocriet":12564,"Ġwarmte":12565,"amethason":12566,"cix":12567,"riek":12568,"tt":12569,"Ġinte":12570,"itude":12571,"Ġfoci":12572,"ĠCX":12573,"ĠAg":12574,"meabiliteit":12575,"Ġ116":12576,"Ġtraditioneel":12577,"unctionele":12578,"Ġgecondition":12579,"ĠHemodynamische":12580,"indicaties":12581,"besmet":12582,"Ġascites":12583,"Ġverenig":12584,"cus":12585,"mografische":12586,"anodine":12587,"Ġvertro":12588,"ĠPET":12589,"afyla":12590,"arigen":12591,"Ġejectiefractiefractie":12592,"Ġverlengen":12593,"ĠArter":12594,"ylase":12595,"lisec":12596,"Ġdynamiek":12597,"Ġbemiddelaar":12598,"activerende":12599,"Ġuremische":12600,"koppeling":12601,"Ġisthmus":12602,"erantie":12603,"Ġwak":12604,"ices":12605,"aglucose":12606,"week":12607,"Ġnieuwere":12608,"dodelijke":12609,"yth":12610,"Ġnoodgevallen":12611,"MDA":12612,"ĠProte":12613,"Ġultrastructurele":12614,"ĠinitiÃ«le":12615,"Ġmuismodel":12616,"Ġparallelle":12617,"Ġgranul":12618,"Ġmelk":12619,"differentie":12620,"Ġlopende":12621,"KY":12622,"Terwijl":12623,"high":12624,"ju":12625,"sA":12626,"chi":12627,"Ġecardi":12628,"reflex":12629,"Ġ(((((((":12630,"ott":12631,"otrans":12632,"ococ":12633,"epicardiale":12634,"ĠIPC":12635,"tere":12636,"odon":12637,"ĠWHO":12638,"ysische":12639,"TnT":12640,"diastole":12641,"risis":12642,"emyemyemyemyemyemyemyemy":12643,"Ġcompenserende":12644,"Ġgeoxideerde":12645,"mic":12646,"eron":12647,"osidase":12648,"andaard":12649,"Ġmanieren":12650,"ĠResultaten":12651,"Ġ121":12652,"CAC":12653,"atines":12654,"Ġmassale":12655,"Ġventil":12656,"Ġvlees":12657,"Ġuitgangswaarden":12658,"Ġherhaaldelijk":12659,"ĠPanel":12660,"Ġafdalende":12661,"Clinical":12662,"MO":12663,"jarigen":12664,"schri":12665,"ofib":12666,"stolerantie":12667,"ĠbeÃ¯nvloedde":12668,"Ġinclusiecriteria":12669,"immunoassay":12670,"conditioning":12671,"zep":12672,"gebeurtenissen":12673,"Ġgecompense":12674,"omeren":12675,"urc":12676,"ĠBra":12677,"Ġontsteking":12678,"ĠRI":12679,"Ġbepalende":12680,"Ġetc":12681,"Ġclassific":12682,"adrenergy":12683,"Ġneuronale":12684,"Ġkwesties":12685,"houdelijke":12686,"LF":12687,"Micro":12688,"OM":12689,"aken":12690,"Ġcerv":12691,"ĠThe":12692,"Ġresponders":12693,"Ġaangewezen":12694,"Ġfrequent":12695,"ĠhypokaliÃ«mie":12696,"Ġgenereren":12697,"Ġdossiers":12698,"ECMO":12699,"iteren":12700,"Ġverdra":12701,"oxia":12702,"voordeel":12703,"022":12704,"Ontslagtoestand":12705,"myosine":12706,"Ġmillisec":12707,"atedcardiomyopathie":12708,"grote":12709,"Ġgeleidingsstoornissen":12710,"Ġembryonale":12711,"LVD":12712,"sonde":12713,"ĠAtriale":12714,"ween":12715,"ĠVTE":12716,"lossingen":12717,"domin":12718,"Ġdiepgaande":12719,"Ġkoers":12720,"Ġclustering":12721,"variant":12722,"Ġmethodologische":12723,"Ġtwijfel":12724,"ĠcafeÃ¯ne":12725,"lykemische":12726,"Radi":12727,"Ġmetast":12728,"leidingen":12729,"omgeving":12730,"Ġbemiddel":12731,"antigen":12732,"Ġuitgaven":12733,"erectomie":12734,"Ġchi":12735,"Ġmindere":12736,"ylori":12737,"ĠAanvullende":12738,"Ġprostacycline":12739,"Ġempir":12740,"Vergelijken":12741,"Ġcytochroom":12742,"WP":12743,"atter":12744,"Ġseiz":12745,"Ġring":12746,"Ġdoord":12747,"ĠSAP":12748,"upt":12749,"gradatie":12750,"Ġrespiratoire":12751,"Ġapothe":12752,"Ġcorrelated":12753,"aryn":12754,"Ġvergrote":12755,"Ġzichtbare":12756,"Ġinstructies":12757,"Ġopgeloste":12758,"Ġpublicaties":12759,"Serum":12760,".-":12761,"Veertig":12762,"fos":12763,"oerei":12764,"stot":12765,"alings":12766,"idatieve":12767,"Ġrassen":12768,"ĠHP":12769,"Ġconstat":12770,"ĠDOX":12771,"exerc":12772,"Ġvetmassa":12773,"Ġgereanimeerd":12774,"Ġhalf":12775,"densine":12776,"ralogie":12777,"ĠInterventie":12778,"Ġtakotsubocardiomyopathie":12779,"ĠEchocardiogram":12780,"iÃ«ntatie":12781,"ĠKlasse":12782,"rant":12783,"init":12784,"omine":12785,"imet":12786,"ĠRen":12787,"Ġbereid":12788,"Ġzichzelf":12789,"suc":12790,"valvulaire":12791,"ĠUniversiteit":12792,"Ġlosartan":12793,"ĠBelang":12794,"icylzuur":12795,"Ġdoorverwezen":12796,"\\\"":12797,"halen":12798,"atrische":12799,"Ġechte":12800,"Ġklinieken":12801,"Ġstarten":12802,"ales":12803,"ĠMilde":12804,"ĠLVD":12805,"bevol":12806,"acu":12807,"Ġplanten":12808,"Ġdenkt":12809,"Ġsoortgelijke":12810,"Ġtorsades":12811,"Ġpublicatie":12812,"Eq":12813,"TM":12814,"peptide":12815,"stal":12816,"Ġingeschreven":12817,"team":12818,"opo":12819,"irst":12820,"Ġsche":12821,"Ġmicros":12822,"Ġpatent":12823,"Ġneuromusc":12824,"Ġmoduleren":12825,"vetzuren":12826,"Ġidentiek":12827,"Ġtelefoon":12828,"ĠGRACE":12829,"bal":12830,"vreden":12831,"Ġineff":12832,"Ġzussen":12833,"Ġvermeld":12834,"opathologie":12835,"Ġcomprom":12836,"Ġpopulatiestudie":12837,"component":12838,"eiten":12839,"verwijding":12840,"benz":12841,"Ġorganisatie":12842,"ĠbarriÃ¨":12843,"Ġgedecompenseerde":12844,"Ġrechtvaardigen":12845,"Ġverhinderde":12846,"aspectrometrie":12847,"Bestudering":12848,"huis":12849,"maak":12850,"Ġholter":12851,"Ġinvalid":12852,"ĠBlood":12853,"beats":12854,"prognose":12855,"160":12856,"Ġoxy":12857,"Ġaspir":12858,"Ġelektronen":12859,"Ġwelzijn":12860,"Ġwijzigen":12861,"Ġideale":12862,"ĠbÃ¨ta":12863,"Ġhypoperfusie":12864,"Ġverplicht":12865,"aid":12866,"udere":12867,"Ġslag":12868,"ĠcAMP":12869,"anties":12870,"ĠWBC":12871,"Ġsignificantie":12872,"Ġsevofluraan":12873,"Ġhersenbloeding":12874,"Ġlipideper":12875,"Ġoverlevende":12876,"Ġaanvaardbaar":12877,"locaties":12878,"Afrik":12879,"Ġafgerond":12880,"gal":12881,"wanden":12882,"orax":12883,"Ġcaspase":12884,"ental":12885,"ĠCity":12886,"ĠPurkinje":12887,"ĠMDA":12888,"ĠDR":12889,"Ġpreparaten":12890,"Ġonderzoekspopulatie":12891,"Ġuitgevoerde":12892,"operaties":12893,"Ġgelegen":12894,"Ġrecept":12895,"Ġruste":12896,"Ġelektrolyten":12897,"ochondriale":12898,"Ġslacht":12899,"Ġmilliseconden":12900,"BM":12901,"atase":12902,"elet":12903,"Ġdomein":12904,"Ġverden":12905,"igne":12906,"ĠTIA":12907,"Ġhyperurikemie":12908,"schappelijke":12909,"Ġgeruis":12910,"Ġaantallen":12911,"tsub":12912,"ĠgradiÃ«nt":12913,"Ons":12914,"Ġataxie":12915,"Ġaspect":12916,"Ġvitamines":12917,"ATPase":12918,"ĠAfrikaans":12919,"Ġtomografische":12920,"Ġcytoskelet":12921,"Ġnatriuretic":12922,"ĠMinnesota":12923,"->":12924,"Ġverlu":12925,"elekt":12926,"ĠMAC":12927,"ĠMCP":12928,"Ġmyoglobine":12929,"ĠDMD":12930,"aciteiten":12931,"Ġchan":12932,"Ġapparaten":12933,"doden":12934,"woordig":12935,"Ġobservationeel":12936,"Ġuniversiteits":12937,"Ġdroge":12938,"Ġeosino":12939,"ategoriseerd":12940,"obutamine":12941,"Ġverluidt":12942,"PAF":12943,"Uw":12944,"Ġdalende":12945,"Ġfeiten":12946,"leng":12947,"steen":12948,"Ġprolapse":12949,"Ġmex":12950,"Ġrespectiev":12951,"ertien":12952,"inerge":12953,"ituut":12954,"Ġmaligniteit":12955,"awley":12956,"curves":12957,"Ġarhymogene":12958,"activering":12959,"Ġsamenhangt":12960,"Ġactiveert":12961,"prestatie":12962,"Ġgefragmenteerde":12963,"chenne":12964,"Ġrespectievelijke":12965,"toxiciteit":12966,"Ġwen":12967,"Ġvereen":12968,"Ġcard":12969,"Ġcriterium":12970,"Ġaangren":12971,"igt":12972,"ionering":12973,"Ġschu":12974,"Ġana":12975,"Ġsteden":12976,"Ġstenting":12977,"ĠIschemic":12978,"Controle":12979,"Ġarhythmogene":12980,"beperkingen":12981,"orisch":12982,"Ġbinden":12983,"rook":12984,"itril":12985,"ĠCohort":12986,"ides":12987,"ipatie":12988,"Ġbeoordeelden":12989,"CSK":12990,"Ġdiar":12991,"Ġsamengesteld":12992,"embrane":12993,"Ġresulteert":12994,"Ġverslechterde":12995,"Ġmulticentrisch":12996,"laboratorium":12997,"vergelijking":12998,"Ġextrasystoles":12999,"ĠQuestionnaire":13000,"lichting":13001,"Ġsomatische":13002,"olar":13003,"ags":13004,"Ġperfor":13005,"voering":13006,"Ġ124":13007,"scans":13008,"Ġarach":13009,"veling":13010,"Ġfarmacokinetische":13011,"otsubo":13012,"Ġselecteren":13013,"ĠLDH":13014,"Ġaangrenzende":13015,"lige":13016,"deerde":13017,"Ġtent":13018,"rogra":13019,"ogere":13020,"Ġfoton":13021,"Ġrun":13022,"ĠEA":13023,"imal":13024,"ĠPPI":13025,"Ġtoeval":13026,"Ġsamenwerking":13027,"Ġademhalingsfrequentie":13028,"Ġinducible":13029,"Ġangioplastie":13030,"caroteen":13031,"opyramide":13032,"RCA":13033,"heren":13034,"ld":13035,"reeks":13036,"Ġnaam":13037,"Ġbloedlipiden":13038,"acidose":13039,"Ġ136":13040,"Ġactivity":13041,"Ġsino":13042,"Ġarr":13043,"Ġvertragingen":13044,"letten":13045,"Ġdiensten":13046,"Ġantitromb":13047,"ĠlipoproteÃ¯necholesterol":13048,"Ġoesofageale":13049,"Ġentrainment":13050,"CF":13051,"korten":13052,"oB":13053,"wley":13054,"Â®":13055,"deviatie":13056,"Ġpop":13057,"sslag":13058,"unts":13059,"ĠAdem":13060,"ĠALT":13061,"ĠBec":13062,"ĠVroege":13063,"ĠLQTS":13064,"ĠIntensive":13065,"amenteel":13066,"vascularisatie":13067,"Ġatrioventrar":13068,"ĠdichtheidlipoproteÃ¯nen":13069,"Ġorthostatische":13070,"hemoglobine":13071,"Ġstollings":13072,"Ġprikkel":13073,"BF":13074,"DBP":13075,"ideren":13076,"oreg":13077,"ĠdiÃ«":13078,"rep":13079,"Ġinhoud":13080,"Ġonderver":13081,"elfs":13082,"Ġadministr":13083,"250":13084,"oÃ¯dose":13085,"Ġcoll":13086,"dawley":13087,"Ġannular":13088,"Ġoverlevingsgraad":13089,"Ġidentieke":13090,"gevonden":13091,"Ġaantoonbaar":13092,"omzettingsenzym":13093,"XR":13094,"onad":13095,"Ġgelang":13096,"erdy":13097,"Ġrisicogebied":13098,"Ġtoestemming":13099,"Ġextract":13100,"verdraag":13101,"Ġgewonnen":13102,"Ġstern":13103,"clamide":13104,"Ġfosfolipiden":13105,"Ġabrupte":13106,"issu":13107,"aki":13108,"ĠBas":13109,"load":13110,"ĠNSAID":13111,"Ġbestonden":13112,"ASH":13113,"Ġinjecties":13114,"IDC":13115,"korting":13116,"Ġcohortstudies":13117,"ĠÃģ":13118,"Ġproportionele":13119,"Ġcovarianten":13120,"Ġanthracycline":13121,"Ġverenigbaar":13122,"red":13123,"ĠCFR":13124,"ĠDeense":13125,"ĠOefening":13126,"Ġventrikelhulpmiddel":13127,"CSF":13128,"otent":13129,"Ġpolys":13130,"Ġfibrine":13131,"Ġliter":13132,"olipiden":13133,"Ġcultuur":13134,"validatie":13135,"Ġwerkingsmechanisme":13136,"Ġillustr":13137,"Instru":13138,"inere":13139,"Ġgeoptim":13140,"Ġrepro":13141,"ĠEmb":13142,"Ġventrikelmycine":13143,"Ġ145":13144,"180":13145,"beperkende":13146,"liance":13147,"Ġongevoelig":13148,"Instructies":13149,"visc":13150,"ĠImmun":13151,"Ġontoerei":13152,"Ġbeginstadium":13153,"Ġdistributie":13154,"Ġbevorderd":13155,"Ġogenschijnlijk":13156,"Ġsoja":13157,"HbA":13158,"IM":13159,"IGF":13160,"hersen":13161,"ksel":13162,"isome":13163,"state":13164,"aardig":13165,"angschik":13166,"kern":13167,"ĠFFR":13168,"Ġgeringe":13169,"tension":13170,"Ġetiologische":13171,"Ġoxide":13172,"Ġbijwerking":13173,"Ġoverdosis":13174,"Ġfundamenteel":13175,"Ġgetransplanteerd":13176,"Ġperfus":13177,"Ġgezamenlijke":13178,"Ġverdenking":13179,"1000":13180,"EN":13181,"FDG":13182,"ĠmEq":13183,"Ġsoftware":13184,"Ġhartcyclus":13185,"bestr":13186,"Ġmannelijk":13187,"digma":13188,"Ġminerale":13189,"Ġ133":13190,"Ġrechteratrium":13191,"Ġgecategoriseerd":13192,"cijfer":13193,"ivering":13194,"Ġonzekerheid":13195,"Ġwekelijkse":13196,"temin":13197,"vervan":13198,"ĠAB":13199,"Ġlevel":13200,"imab":13201,"Ġantich":13202,"ĠGer":13203,"ritine":13204,"Ġrollen":13205,"ijfers":13206,"offers":13207,"Ġgevorderd":13208,"Ġstaken":13209,"ĠASCVD":13210,"Ġarbeids":13211,"oseptale":13212,"vorens":13213,"Ġaritmisch":13214,"stabil":13215,"ĠNeu":13216,"ĠIndia":13217,"okinen":13218,"Ġaber":13219,"hyth":13220,"atherogene":13221,"ontale":13222,"Ġingewikkel":13223,"Ġzuurstofsaturatie":13224,"Ġmaatregel":13225,"Ġbeperkende":13226,"Ġontstaat":13227,"Ġgewe":13228,"Ġnal":13229,"Ġvoorconditionering":13230,"Ġfusie":13231,"Ġrand":13232,"Ġsterfterisico":13233,"bijgaande":13234,"NAME":13235,"voorste":13236,"componenten":13237,"Ġpsychiatrische":13238,"Ġadipocyten":13239,"Ġbilateraal":13240,"Ġfibrinolytische":13241,"Ġnatuurlijk":13242,"ibenclamide":13243,"Ġperinatale":13244,"Bloed":13245,"Cl":13246,
[...]
