{"version":"1.0","truncation":null,"padding":null,"added_tokens":[{"id":0,"special":true,"content":"<s>","single_word":false,"lstrip":false,"rstrip":false,"normalized":true},{"id":1,"special":true,"content":"<pad>","single_word":false,"lstrip":false,"rstrip":false,"normalized":true},{"id":2,"special":true,"content":"</s>","single_word":false,"lstrip":false,"rstrip":false,"normalized":true},{"id":3,"special":true,"content":"<unk>","single_word":false,"lstrip":false,"rstrip":false,"normalized":true},{"id":4,"special":true,"content":"<mask>","single_word":false,"lstrip":true,"rstrip":false,"normalized":true}],"normalizer":null,"pre_tokenizer":{"type":"ByteLevel","add_prefix_space":false,"trim_offsets":true},"post_processor":{"type":"RobertaProcessing","sep":["</s>",2],"cls":["<s>",0],"trim_offsets":true,"add_prefix_space":false},"decoder":{"type":"ByteLevel","add_prefix_space":true,"trim_offsets":true},"model":{"type":"BPE","dropout":null,"unk_token":null,"continuing_subword_prefix":"","end_of_word_suffix":"","fuse_unk":false,"vocab":{"<s>":0,"<pad>":1,"</s>":2,"<unk>":3,"<mask>":4,"!":5,"\"":6,"#":7,"$":8,"%":9,"&":10,"'":11,"(":12,")":13,"*":14,"+":15,",":16,"-":17,".":18,"/":19,"0":20,"1":21,"2":22,"3":23,"4":24,"5":25,"6":26,"7":27,"8":28,"9":29,":":30,";":31,"<":32,"=":33,">":34,"?":35,"@":36,"A":37,"B":38,"C":39,"D":40,"E":41,"F":42,"G":43,"H":44,"I":45,"J":46,"K":47,"L":48,"M":49,"N":50,"O":51,"P":52,"Q":53,"R":54,"S":55,"T":56,"U":57,"V":58,"W":59,"X":60,"Y":61,"Z":62,"[":63,"\\":64,"]":65,"^":66,"_":67,"`":68,"a":69,"b":70,"c":71,"d":72,"e":73,"f":74,"g":75,"h":76,"i":77,"j":78,"k":79,"l":80,"m":81,"n":82,"o":83,"p":84,"q":85,"r":86,"s":87,"t":88,"u":89,"v":90,"w":91,"x":92,"y":93,"z":94,"{":95,"|":96,"}":97,"~":98,"¡":99,"¢":100,"£":101,"¤":102,"¥":103,"¦":104,"§":105,"¨":106,"©":107,"ª":108,"«":109,"¬":110,"®":111,"¯":112,"°":113,"±":114,"²":115,"³":116,"´":117,"µ":118,"¶":119,"·":120,"¸":121,"¹":122,"º":123,"»":124,"¼":125,"½":126,"¾":127,"¿":128,"À":129,"Á":130,"Â":131,"Ã":132,"Ä":133,"Å":134,"Æ":135,"Ç":136,"È":137,"É":138,"Ê":139,"Ë":140,"Ì":141,"Í":142,"Î":143,"Ï":144,"Ð":145,"Ñ":146,"Ò":147,"Ó":148,"Ô":149,"Õ":150,"Ö":151,"×":152,"Ø":153,"Ù":154,"Ú":155,"Û":156,"Ü":157,"Ý":158,"Þ":159,"ß":160,"à":161,"á":162,"â":163,"ã":164,"ä":165,"å":166,"æ":167,"ç":168,"è":169,"é":170,"ê":171,"ë":172,"ì":173,"í":174,"î":175,"ï":176,"ð":177,"ñ":178,"ò":179,"ó":180,"ô":181,"õ":182,"ö":183,"÷":184,"ø":185,"ù":186,"ú":187,"û":188,"ü":189,"ý":190,"þ":191,"ÿ":192,"Ā":193,"ā":194,"Ă":195,"ă":196,"Ą":197,"ą":198,"Ć":199,"ć":200,"Ĉ":201,"ĉ":202,"Ċ":203,"ċ":204,"Č":205,"č":206,"Ď":207,"ď":208,"Đ":209,"đ":210,"Ē":211,"ē":212,"Ĕ":213,"ĕ":214,"Ė":215,"ė":216,"Ę":217,"ę":218,"Ě":219,"ě":220,"Ĝ":221,"ĝ":222,"Ğ":223,"ğ":224,"Ġ":225,"ġ":226,"Ģ":227,"ģ":228,"Ĥ":229,"ĥ":230,"Ħ":231,"ħ":232,"Ĩ":233,"ĩ":234,"Ī":235,"ī":236,"Ĭ":237,"ĭ":238,"Į":239,"į":240,"İ":241,"ı":242,"Ĳ":243,"ĳ":244,"Ĵ":245,"ĵ":246,"Ķ":247,"ķ":248,"ĸ":249,"Ĺ":250,"ĺ":251,"Ļ":252,"ļ":253,"Ľ":254,"ľ":255,"Ŀ":256,"ŀ":257,"Ł":258,"ł":259,"Ń":260,"ĠĠ":261,"en":262,"er":263,"in":264,"ie":265,"an":266,"ĠĠĠĠ":267,"ge":268,"Ġv":269,"Ġd":270,"at":271,"ij":272,"Ġm":273,"or":274,"el":275,"Ġo":276,"st":277,"ch":278,"et":279,"al":280,"Ġb":281,"ar":282,"is":283,"Ġh":284,"Ġn":285,"Ġge":286,"on":287,"Ġp":288,"Ġt":289,"re":290,"ol":291,"ing":292,"Ġw":293,"Ġa":294,"ĠP":295,"it":296,"ed":297,"Ġde":298,"oor":299,"Ġ1":300,"Ġen":301,"Ġin":302,"cht":303,"ĠĠĠ":304,"der":305,"ro":306,"20":307,"Ġl":308,"Ġk":309,"Ġz":310,"Ġs":311,"de":312,"ra":313,"Ġe":314,"Ġvan":315,"ĠA":316,"ĠG":317,"Ġc":318,"ER":319,"Ġop":320,"aar":321,"ĠĠĠĠĠĠĠĠ":322,"atie":323,"ON":324,"le":325,"ct":326,"la":327,"Ġ(":328,"om":329,"gen":330,"ERS":331,"ERSON":332,"am":333,"Ġmet":334,"ee":335,"id":336,"ĠPERSON":337,"Âł":338,"Ġg":339,"Ġ-":340,"ur":341,"og":342,"Ġver":343,"ken":344,"us":345,"ĠB":346,"ĠD":347,"ĠC":348,"oe":349,"ic":350,"ent":351,"Ġu":352,"ijk":353,"Ġbe":354,"Ġ2":355,"ag":356,"Ġon":357,"den":358,"op":359,"ijn":360,"ig":361,"ĠM":362,"ver":363,"ĠV":364,"um":365,"ĠS":366,"iet":367,"se":368,"201":369,"oed":370,"eer":371,"aal":372,"ĠH":373,"il":374,"Ġeen":375,"Ġvoor":376,"Ġbij":377,"ot":378,"ĠO":379,"Ġgeen":380,"Ġre":381,"Ġaan":382,"Ġst":383,"as":384,"em":385,"sp":386,"isch":387,"ft":388,"Ġhet":389,"ĠI":390,"Ġis":391,"and":392,"ul":393,"ik":394,"ĠT":395,"PE":396,"ĠL":397,"ĠGe":398,"ru":399,"nt":400,"Ġniet":401,"Ġ3":402,"ale":403,"art":404,"ĠN":405,"Ġf":406,"Ġte":407,"ab":408,"Ġaf":409,"ĠR":410,"ele":411,"ctie":412,"ĠE":413,"ak":414,"ven":415,"te":416,"ier":417,"ĠGPE":418,"__":419,"ont":420,"es":421,"aat":422,"ati":423,"ine":424,"ÂłÂł":425,"os":426,"Ã«":427,"Ġonder":428,"Ġna":429,"Ġ0":430,"orm":431,"di":432,"un":433,"Ġal":434,"eeft":435,"ne":436,"ap":437,"00":438,"elijk":439,"Ġmg":440,"oek":441,"Ġ4":442,"we":443,"sch":444,"oc":445,"ĠGeen":446,"ingen":447,"end":448,"ist":449,"zoek":450,"icht":451,"Ġover":452,"ir":453,"Ġ5":454,"Ġan":455,"ische":456,"2017":457,"ou":458,"ink":459,"ten":460,"Ġuit":461,"eel":462,"Ã«nt":463,"aan":464,"ok":465,"nam":466,"icatie":467,"gel":468,"ĠĠĠĠĠĠĠĠĠĠĠĠĠĠĠĠ":469,"ĠK":470,"ast":471,"ĠĠĠĠĠ":472,"per":473,"ond":474,"Ġgoed":475,"ad":476,"im":477,"âĢ":478,"Ġnaar":479,"Ġdoor":480,"--":481,"atiÃ«nt":482,"Ġer":483,"ve":484,"eg":485,"uur":486,"iek":487,"Ġpro":488,"ÂłĠ":489,"ang":490,"ĠW":491,"oog":492,"Ġom":493,"Ġwaar":494,"Ġof":495,"Ġheeft":496,"Ġr":497,"he":498,"ige":499,"chten":500,"Ġcont":501,"uis":502,"cl":503,"of":504,"erd":505,"ste":506,"sla":507,"eren":508,"Ġnog":509,"ĠâĢ":510,"wij":511,"ien":512,"ĠF":513,"chter":514,"Ġ6":515,"ĠĠĊ":516,"ind":517,"len":518,"Ġdat":519,"dd":520,"Ġper":521,"Ġj":522,"Ġi":523,"eden":524,"Ġsp":525,"omen":526,"ĠU":527,"uw":528,"Ġonderzoek":529,"rol":530,"ies":531,"Ġgeb":532,"ijd":533,"sen":534,"Ġwor":535,"ac":536,"eling":537,"eld":538,"lachten":539,"ep":540,"Ġlink":541,"act":542,"ĠâĢ¢":543,"Ġ10":544,"Ġpijn":545,"____":546,"usie":547,"olog":548,"ose":549,"Ġ201":550,"Ġzijn":551,"Ġmo":552,"onder":553,"leg":554,"be":555,"acht":556,"Ġont":557,"MC":558,"pl":559,"ut":560,"Ġ20":561,"oel":562,"ĠAl":563,"hand":564,"ĠIn":565,"Ġvol":566,"ze":567,"loed":568,"ich":569,"ĠDe":570,"10":571,"ĠZ":572,"Ġwe":573,"ort":574,"od":575,"chts":576,"name":577,"clusie":578,"sie":579,"Ġmed":580,"ma":581,"eleid":582,"raag":583,"ia":584,"Ġwel":585,"erk":586,"ant":587,").":588,"eerd":589,"ĠCon":590,"ec":591,"je":592,"ÂłÂłÂłÂł":593,"ĠSt":594,"Ġ7":595,"ost":596,"Ġ8":597,"uid":598,"Ġook":599,"ite":600,"Ġnu":601,"oen":602,"11":603,"Ġdi":604,"ium":605,"Ġinf":606,"ĠpatiÃ«nt":607,"res":608,"slag":609,"ĠĠĠĠĠĠĠ":610,"ax":611,"heid":612,"Ġint":613,"ĠĠĠĠĠĠ":614,"ĠVer":615,"nese":616,"ĠConclusie":617,"Ġdan":618,"Ġtot":619,"ff":620,"voor":621,"eek":622,"gelijk":623,"Ġ9":624,"lin":625,"lu":626,"val":627,"rij":628,"Ġpol":629,"af":630,"ip":631,"inder":632,"eu":633,"pen":634,"Ġcol":635,"arts":636,"let":637,"laat":638,"EN":639,"Ġth":640,"eb":641,"geven":642,"atum":643,"ide":644,"ect":645,"entie":646,"Ġmeer":647,"ult":648,"Ġgeh":649,"men":650,"nen":651,"Ġmaar":652,"lo":653,"Ġor":654,"ib":655,"een":656,"na":657,"44":658,"Ġmm":659,"ĠBeleid":660,"Ġdit":661,"ablet":662,"Ġnorm":663,"dt":664,"ologie":665,"aag":666,"Ġgew":667,"Ġklachten":668,"Ġhy":669,"ym":670,"co":671,"Ġrechts":672,"ruik":673,"----":674,"kend":675,"ling":676,"elf":677,"Ġwat":678,"gesch":679,"oord":680,"wijz":681,"12":682,"Ġlinks":683,"ef":684,"erg":685,"ts":686,"ran":687,"Ġher":688,"lijk":689,"role":690,"ieden":691,"ass":692,"):":693,"zien":694,"ĠBe":695,"vul":696,"ub":697,"dere":698,"iteit":699,"qu":700,"eratie":701,"lij":702,"itis":703,"Ġcon":704,"ruk":705,"Ġuur":706,"ath":707,"mg":708,"Ġ+":709,"ĠĊ":710,"Ġter":711,"Ġbehand":712,"vol":713,"roken":714,"bij":715,"Ġiv":716,"oom":717,"Ġuw":718,"Ġdag":719,"PERSON":720,"open":721,"),":722,"iedenis":723,"Ġle":724,"ire":725,"2020":726,"Ġch":727,"geschiedenis":728,"Ġsch":729,"Ġals":730,"Ġhier":731,"Ġkan":732,"eter":733,"Ġtablet":734,"hal":735,"ĠOp":736,"Ġbloed":737,"itie":738,"Ġwerd":739,"ble":740,"ĠVoor":741,"2018":742,"Ġwas":743,"sel":744,"wijk":745,"akt":746,"Ġopname":747,"Ġwordt":748,"Ġeer":749,"eem":750,"rek":751,"Ġ12":752,"spra":753,"atient":754,"arm":755,"iv":756,"ĠOn":757,"ke":758,"ker":759,"Ġworden":760,"if":761,"ocht":762,"IN":763,"ĠAan":764,"sl":765,"oven":766,"geb":767,"oon":768,"Ġgest":769,"sproken":770,"ardi":771,"rom":772,"ĠMed":773,"Ġivm":774,"RA":775,"Ġdie":776,"genomen":777,"oth":778,"Ġ13":779,"Ġged":780,"Ġru":781,"ater":782,"eten":783,"pijn":784,"Ġ15":785,"uit":786,"rouw":787,"ron":788,"ere":789,"zen":790,"inds":791,"19":792,"org":793,"IE":794,"Ġ020":795,"oof":796,"ys":797,"agn":798,"dien":799,"urg":800,"Ġ14":801,"Ġne":802,"ug":803,"ĠBij":804,"opt":805,"Ġhij":806,"OL":807,"kt":808,"AT":809,"________":810,"ders":811,"Ġcolleg":812,"Ġad":813,"Ġze":814,"ĠÂ":815,"erv":816,"uik":817,"Ġcontact":818,"ers":819,"aten":820,"Ġhaar":821,"Ġwaarvoor":822,"min":823,"ĠDatum":824,"erap":825,"Ġdd":826,"Ġzich":827,"iel":828,"ĠMet":829,"idd":830,"alis":831,"Ġgehad":832,"ragen":833,"ens":834,"Ġzo":835,"kun":836,"Ġmogelijk":837,"oofd":838,"sc":839,"Ġda":840,"ĠSp":841,"Ġdr":842,"wijkingen":843,"Ġhuis":844,"ST":845,"Ġex":846,"Ġgaat":847,"Ġgro":848,"Ġant":849,"ula":850,"ĠAMC":851,"gens":852,"ĠHeeft":853,"ox":854,"Ġzonder":855,"stel":856,"Ġtoe":857,"Ġma":858,"GPE":859,"Ġhoog":860,"dem":861,"eest":862,"Ġdeze":863,"up":864,"namnese":865,"Ġzelf":866,"ĠÂłĠ":867,"atus":868,"Ġgegeven":869,"king":870,"ĠĠÂłĠ":871,"Ġweer":872,"gt":873,"17":874,"irurg":875,"oeding":876,"els":877,"Ġmedicatie":878,"Ġdaar":879,"unctie":880,"amelijk":881,"Ġveel":882,"lan":883,"ĠCT":884,"Ġheb":885,"nis":886,"ĠĠĠĊ":887,"66":888,"ectie":889,"Ġweken":890,"yp":891,"Ġhem":892,"van":893,"entr":894,"me":895,"Ġoraal":896,"ende":897,"Ġgev":898,"pro":899,"Ġ19":900,"Ġ/":901,"cin":902,"orgen":903,"hou":904,"30":905,"AL":906,"unt":907,"ichamelijk":908,"Ġlinker":909,"atief":910,"ong":911,"Ġcontrole":912,"ijden":913,"Ġrechter":914,"oloog":915,"iale":916,"Ġgezien":917,"Ġ11":918,"ĠInt":919,"elen":920,"ben":921,"oss":922,"ĠPatiÃ«nt":923,"last":924,"ĠAnamnese":925,"su":926,"hes":927,"sult":928,"Ġverb":929,"Ġafwijkingen":930,"ri":931,"baar":932,"th":933,"lerg":934,"Ġrec":935,"Ġvia":936,"zig":937,"AR":938,"Ġ16":939,"ple":940,"klachten":941,"stand":942,"com":943,"Ġ:":944,"Ġ200":945,"Ġkom":946,"weg":947,"omie":948,"gev":949,"ĠOver":950,"Ġpar":951,"rie":952,"ob":953,"ter":954,"Ġweek":955,"Ġcom":956,"Ġ30":957,"Ġpatient":958,"Ġdagen":959,"Ġjaar":960,"Ġzij":961,"ĠEr":962,"oeder":963,"Ġplaat":964,"met":965,"ure":966,"Ġgebruik":967,"amnese":968,"Ġnod":969,"Ġmmol":970,"ĠAr":971,"erapie":972,"Ġwil":973,"emen":974,"gende":975,"Ġalle":976,"iaal":977,"richt":978,"Ġnormaal":979,"Ġbel":980,"lies":981,"cho":982,"ĠĠĠĠĊ":983,"est":984,"AN":985,"ossier":986,"age":987,"ings":988,"deling":989,"18":990,"orax":991,"ram":992,"RI":993,"Ġcm":994,"oet":995,"spraak":996,"yn":997,"rain":998,"Ġzw":999,"Ġur":1000,"'s":1001,"nie":1002,"aatste":1003,"etre":1004,"kl":1005,"Ġmin":1006,"Ġlang":1007,"ĠLichamelijk":1008,"merk":1009,"ĠHet":1010,"Ġbehandeling":1011,"01":1012,"Ġkle":1013,"Ġ18":1014,"Ġpre":1015,"ard":1016,"lend":1017,"Ġstart":1018,"Ġac":1019,"Ġproble":1020,"ormatie":1021,"Ġaanwijz":1022,"lergie":1023,"Ġto":1024,"RO":1025,"Ġhyper":1026,"vis":1027,"Ġbekend":1028,"iklin":1029,"ept":1030,"Ġ25":1031,"ocy":1032,"elijke":1033,"ĠReden":1034,"achte":1035,"istent":1036,"cop":1037,"Ġkg":1038,"Ġben":1039,"ame":1040,"ÂłÂłÂłÂłÂłÂłÂłÂł":1041,"05":1042,"etreft":1043,"mat":1044,"du":1045,"huis":1046,"08":1047,"uwe":1048,"wezig":1049,"ion":1050,"ymf":1051,"ĠNa":1052,"AM":1053,"yst":1054,"ase":1055,"Ġbuik":1056,"Ġverwij":1057,"Ġcor":1058,"Ġ17":1059,"ann":1060,"amil":1061,"Ġziek":1062,"ĠĠĠĠĠĠĠĠĠĠĠĠĠĠĠĠĠĠĠĠĠĠĠĠĠĠĠĠĠĠĠĠ":1063,"--------":1064,"CH":1065,"Ġhebben":1066,"ract":1067,"romb":1068,"ĠRe":1069,"pt":1070,"Ġsinds":1071,"inf":1072,"Ġaange":1073,"Ġ100":1074,"heden":1075,"06":1076,"02":1077,"druk":1078,"07":1079,"Ġnier":1080,"Ġboven":1081,"Ã«n":1082,"ĠVU":1083,"stig":1084,"03":1085,"Ġverm":1086,"elef":1087,"oorts":1088,"15":1089,"vullend":1090,"jes":1091,"Ġkeer":1092,"Ġmee":1093,"Ġab":1094,"Ġnodig":1095,"Geen":1096,"igen":1097,"Ġgen":1098,"Ġap":1099,"Ġ24":1100,"ES":1101,"566":1102,"abiel":1103,"Ġx":1104,"zol":1105,"atr":1106,"ĠVoorgeschiedenis":1107,"sprek":1108,"Ġhoe":1109,"Ġenk":1110,"eur":1111,"Ġ2017":1112,"Ġob":1113,"ĠArts":1114,"ĠAf":1115,"arcin":1116,"ijdens":1117,"Ġ*":1118,"Ġgel":1119,"iets":1120,"Ġbed":1121,"ĠCont":1122,"Ġ40":1123,"eft":1124,"ĠJ":1125,"mm":1126,"Ã¯":1127,"gest":1128,"vies":1129,"Ġkunt":1130,"Ġcardi":1131,"Ġtoen":1132,"Ġwv":1133,"dag":1134,"ĠMedicatie":1135,"ieuwe":1136,"are":1137,"Ġou":1138,"Ġpr":1139,"iding":1140,"Ġhart":1141,"dro":1142,"eds":1143,"ill":1144,"hoog":1145,"ĠIs":1146,"hr":1147,"Ġlu":1148,"agnose":1149,"Ġoperatie":1150,"Ġtijd":1151,"arcinoom":1152,"emie":1153,"AD":1154,"Ġpost":1155,"Ġpoliklin":1156,"derd":1157,"Ġcollega":1158,"iss":1159,"Ġaanwijzingen":1160,"ĠStap":1161,"09":1162,"sy":1163,"Ġple":1164,"innen":1165,"Ġhuid":1166,"Ġra":1167,"cont":1168,"ĠÂ·":1169,"Ġev":1170,"Ġsc":1171,"tra":1172,"ressie":1173,"Ġhoofd":1174,"oren":1175,"Ġmoe":1176,"nr":1177,"oten":1178,"04":1179,"Ġtra":1180,"ĠDi":1181,"kken":1182,"tensie":1183,"25":1184,"ode":1185,"aanden":1186,"operatie":1187,"ĠNorm":1188,"Ġhel":1189,"Ġger":1190,"Ġinformatie":1191,"ml":1192,"slagen":1193,"Ġ'":1194,"Ġman":1195,"Ġik":1196,"Ġgeweest":1197,"Ġnormale":1198,"ctief":1199,"Ġml":1200,"Ġvoorgeschiedenis":1201,"eerde":1202,"geen":1203,"ĠNiet":1204,"Ġlever":1205,"Ġopge":1206,"IC":1207,"racht":1208,"Ġlast":1209,"Ġgesl":1210,"av":1211,"uatie":1212,"ocyten":1213,"amilie":1214,"sten":1215,"Ġdruk":1216,"Ġkun":1217,"Ġerg":1218,"ov":1219,"ĠPol":1220,"Ġpat":1221,"IR":1222,"CT":1223,"Ġmoeder":1224,"ĠAd":1225,"wee":1226,"ET":1227,"ĠAanvullend":1228,"doen":1229,"ĠGeachte":1230,"med":1231,"oop":1232,"Ġro":1233,"Ġlymf":1234,"isic":1235,"EL":1236,"hol":1237,"sych":1238,"ĠĠĠĠĠĠĠĠĠĠĠĠĠĠĠ":1239,"Ġontslag":1240,"ust":1241,"ader":1242,"za":1243,"verlies":1244,"gem":1245,"Ġiets":1246,"Ġwij":1247,"Ġgegevens":1248,"Ġbeg":1249,"Ġkoorts":1250,"Ġvragen":1251,"schijn":1252,"requ":1253,"houden":1254,"Ġmaanden":1255,"Ġthuis":1256,"EH":1257,"oscop":1258,"OR":1259,"ica":1260,"athie":1261,"ĠDD":1262,"icaties":1263,"aties":1264,"ment":1265,"vens":1266,"yse":1267,"als":1268,"ider":1269,"Ġgoede":1270,"staan":1271,"Ġ|":1272,"ositie":1273,"Ġme":1274,"Ġkl":1275,"iele":1276,"Ġken":1277,"Ġeerder":1278,"Ġaanwezig":1279,"ici":1280,"rof":1281,"nest":1282,"Ġ21":1283,"ĠX":1284,"Ġlong":1285,"onde":1286,"Ġ2016":1287,"sf":1288,"Ġ50":1289,"uus":1290,"plaat":1291,"raal":1292,"ysp":1293,"Ġste":1294,"zicht":1295,"issel":1296,"Ġterug":1297,"Ġ22":1298,"Ġafdeling":1299,"atuur":1300,"Ġneg":1301,"ake":1302,"dicatie":1303,"Ġbesproken":1304,"Ġkinder":1305,"ert":1306,"IG":1307,"stru":1308,"Ġsla":1309,"vang":1310,"dige":1311,"oornis":1312,"Ġrond":1313,"yl":1314,"OP":1315,"Ġsub":1316,"ren":1317,"ĠUit":1318,"assistent":1319,"Ġinter":1320,"Ġkunnen":1321,"Ġoog":1322,"Ġverd":1323,"ulp":1324,"maakt":1325,"yc":1326,"kende":1327,"ĠIC":1328,"nee":1329,"pleeg":1330,"Ġverder":1331,"ĠBetreft":1332,"Ġzal":1333,"ĠĠĠĠĠĠĠĠĠ":1334,"ĠOnder":1335,"ype":1336,"Ġhuisarts":1337,"ctiv":1338,"ate":1339,"ank":1340,"Ġafspraak":1341,"las":1342,"waar":1343,"kunde":1344,"Ġgek":1345,"ator":1346,"achting":1347,"arige":1348,"alc":1349,"Ġ,":1350,"ijds":1351,"IS":1352,"otherapie":1353,"atrium":1354,"ouw":1355,"ijkt":1356,"zorg":1357,"denking":1358,"zonder":1359,"ente":1360,"Ġzie":1361,"aren":1362,"Ġminder":1363,"ree":1364,"Ġ?":1365,"Ġtelef":1366,"ĠĠĠĠĠĊ":1367,"anc":1368,"Ġlab":1369,"Ġvrouw":1370,"Ġtem":1371,"ĠRR":1372,"ĠLab":1373,"ogen":1374,"Ġ37":1375,"Ġzit":1376,"oment":1377,"Ġkomt":1378,"Ġanamnese":1379,"oem":1380,"Ġspra":1381,"Ġmidd":1382,"Ġnieuwe":1383,"Ġmw":1384,"ell":1385,"Ġarts":1386,"Ġnacht":1387,"cose":1388,"Ġvolgens":1389,"OS":1390,"form":1391,"ĠSoc":1392,"ĠMRI":1393,"Ġel":1394,"irurgie":1395,"ĠTel":1396,"Ġ23":1397,"13":1398,"Ġsn":1399,"Ġproblemen":1400,"ulm":1401,"Ġmoet":1402,"Ġstabiel":1403,"Ġvolgt":1404,"ĠOK":1405,"ees":1406,"Ġverl":1407,"14":1408,"CA":1409,"Ġgraag":1410,"Ġtijdens":1411,"rose":1412,"Ġpatnr":1413,"Ġhyp":1414,"ĠPijn":1415,"lergieÃ«n":1416,"isselijk":1417,"*,":1418,"schijnlijk":1419,"ĠAm":1420,"Ġgaan":1421,"kk":1422,"Ġechter":1423,"Ġ>":1424,"Ġhad":1425,"AMC":1426,"midd":1427,"air":1428,"Ġadres":1429,"ering":1430,"Ġ28":1431,"reat":1432,"rop":1433,"ud":1434,"ĠpatiÃ«nte":1435,"assen":1436,"oep":1437,"aire":1438,"Ġzou":1439,"wege":1440,"werk":1441,"ĠGeb":1442,"CG":1443,"Ġbinnen":1444,"isico":1445,"Ġgewicht":1446,"klier":1447,"ologisch":1448,"onden":1449,"Ġwaarbij":1450,"luit":1451,"Ġcollegiale":1452,"50":1453,"compl":1454,"zet":1455,"24":1456,"tijd":1457,"ĠNu":1458,"zijds":1459,"gele":1460,"Ġhoogachting":1461,"demhal":1462,"Ġklin":1463,"Ġlaten":1464,"Ġart":1465,"oelt":1466,"hesie":1467,"sing":1468,"EP":1469,"oort":1470,"mer":1471,"Ġopgenomen":1472,"peratuur":1473,"onderzoek":1474,"Ġgevoel":1475,"suff":1476,"Ġblij":1477,"Ġep":1478,"vallen":1479,"ief":1480,"Ġenkele":1481,"alen":1482,"Ġandere":1483,"Ġtran":1484,"mc":1485,"ractuur":1486,"dat":1487,"iderzijds":1488,"16":1489,"Ġade":1490,"Ġasp":1491,"rag":1492,"requentie":1493,"nl":1494,"week":1495,"ĠMD":1496,"inu":1497,"io":1498,"Ġvoeding":1499,"doende":1500,"asc":1501,"zonderheden":1502,"nieuw":1503,"wel":1504,"Ġgra":1505,"2016":1506,"Ġbas":1507,"volg":1508,"cc":1509,"wicht":1510,"AG":1511,"Ġdhr":1512,"Ġverricht":1513,"osis":1514,"Ġbeeld":1515,"AP":1516,"iceerd":1517,"lep":1518,"Ġdef":1519,"vrouw":1520,"euk":1521,"alig":1522,"neum":1523,"Ġoverleg":1524,"amen":1525,"pleegkun":1526,"Ġconsult":1527,"int":1528,"ID":1529,"uren":1530,"Ġdu":1531,"Ġten":1532,"orst":1533,"Ġ27":1534,"Ġinfectie":1535,"oscopie":1536,"ss":1537,"Ġ26":1538,"Ġstatus":1539,"Ġkenmerk":1540,"ĠBloed":1541,"alyse":1542,"cohol":1543,"Ġmorgen":1544,"gang":1545,"ore":1546,"Ġsom":1547,"eeld":1548,"gte":1549,"Ġbeter":1550,"domen":1551,"ĠVUMC":1552,"iep":1553,"suffici":1554,"kenhuis":1555,"functie":1556,"Ġwond":1557,"Ġverhoog":1558,"ril":1559,"Ġam":1560,"Ġlater":1561,"ĠDr":1562,"ach":1563,"nemen":1564,"reeg":1565,"________________":1566,"uele":1567,"oo":1568,"schap":1569,"Ġafge":1570,"Ġdysp":1571,"Ġbeleid":1572,"uper":1573,"ĠCh":1574,"sectie":1575,"St":1576,"dig":1577,"ĠGaat":1578,"bere":1579,"Ġret":1580,"low":1581,"Ġvocht":1582,"ĠĠĠĠĠĠĠĠĠĠ":1583,"ĠPC":1584,"stoornis":1585,"Ġachter":1586,"Ġpal":1587,"FR":1588,"ĠHier":1589,"Ġmob":1590,"over":1591,"reken":1592,"EM":1593,"Ġneur":1594,"Ġmoment":1595,"ulaire":1596,"iz":1597,"inks":1598,"ilis":1599,"Ġpoli":1600,"lucose":1601,"Ġverband":1602,"Ġmisselijk":1603,"Ġradi":1604,"Ġzien":1605,"ĠPro":1606,"gaan":1607,"Ġurine":1608,"con":1609,"ans":1610,"Ġalleen":1611,"ix":1612,"kg":1613,"stige":1614,"Ġ%":1615,"==":1616,"Ġpart":1617,"oemde":1618,"In":1619,"ĠTe":1620,"ziek":1621,"standig":1622,"Ġval":1623,"ced":1624,"AS":1625,"behand":1626,"Ġgeeft":1627,"ĠAM":1628,"ologische":1629,"Ġlig":1630,"ussen":1631,"Ġvand":1632,"ikk":1633,"444":1634,"lex":1635,"ĠEn":1636,"yper":1637,"umc":1638,"ED":1639,"eert":1640,"ĠMijn":1641,"inaal":1642,"engte":1643,"Ġpass":1644,"Ġstop":1645,"ĠCR":1646,"irc":1647,"ĠDossier":1648,"mol":1649,"Ġim":1650,"Ġsle":1651,"Ġwaarschijnlijk":1652,"Ġgestart":1653,"deren":1654,"ĠDit":1655,"genoemde":1656,"gegeven":1657,"etam":1658,"Ġpositie":1659,"woord":1660,"isteren":1661,"ulair":1662,"Ġlicht":1663,"Ġvandaag":1664,"ĠBS":1665,"ĠAnest":1666,"Ġmaag":1667,"opathie":1668,"Ġhand":1669,"ĠAL":1670,"AC":1671,"gro":1672,"ĠHuid":1673,"noe":1674,"riend":1675,"inig":1676,"imaal":1677,"Ġ36":1678,"Ġmaken":1679,"Ġmag":1680,"Ġlijkt":1681,"Ġ500":1682,"Ġzorg":1683,"Ġgez":1684,"dz":1685,"Ġsteeds":1686,"22":1687,"Ġpolikliniek":1688,"Ġgebruikt":1689,"Ġopnieuw":1690,"ari":1691,"Hg":1692,"Ġlucht":1693,"Ġref":1694,"ijken":1695,"ĠVan":1696,"eri":1697,"Ġ29":1698,"Ġecho":1699,"hoe":1700,"Ġeigen":1701,"led":1702,"door":1703,"ĠAls":1704,"regen":1705,"Ġnegatief":1706,"ber":1707,"ueel":1708,"ilt":1709,"Ġduid":1710,"Ġlaatste":1711,"ĠIndien":1712,"Reden":1713,"ato":1714,"maal":1715,"lasting":1716,"Ġdrain":1717,"Ġing":1718,"ĠHij":1719,"Ġstaat":1720,"Ġend":1721,"structie":1722,"Ġkrij":1723,"ĠAD":1724,"Ġgemaakt":1725,"aak":1726,"ane":1727,"RAAL":1728,"Ġeff":1729,"ĠECG":1730,"Ġlo":1731,"Ġindien":1732,"ratie":1733,"IRC":1734,"iliteit":1735,"stelling":1736,"yt":1737,"ister":1738,"ive":1739,"kom":1740,"spraken":1741,"eeskunde":1742,"Ġvanwege":1743,"Ġactiv":1744,"plant":1745,"Ġeten":1746,"Ġverdenking":1747,"ĠDaar":1748,"ĠOns":1749,"cedure":1750,"actie":1751,"orta":1752,"Ġvolgende":1753,"Ġontvang":1754,"Ġsit":1755,"Ġbehandel":1756,"Ġcap":1757,"voeding":1758,"wegen":1759,"ĠTem":1760,"ĠURO":1761,"ĠNormale":1762,"ĠORAAL":1763,"rief":1764,"ex":1765,"les":1766,"ĠDIG":1767,"Ġmax":1768,"anden":1769,"INE":1770,"agnost":1771,"elt":1772,"Ġsl":1773,"Ġdaarna":1774,"reef":1775,"dnis":1776,"erdam":1777,"Ġbra":1778,"Ġwerk":1779,"gemeen":1780,"Ġ2015":1781,"alium":1782,"gebre":1783,"..":1784,"Ġhou":1785,"ĠAS":1786,"ĠĠĠĠĠĠĠĊ":1787,"ĠĠĠĠĠĠĠĠĠĠĠĠĠ":1788,"ging":1789,"Ġbdz":1790,"GFR":1791,"Ġbla":1792,"aald":1793,"ĠHem":1794,"Ġmen":1795,"sterdam":1796,"indt":1797,"iezen":1798,"ductie":1799,"ĠInf":1800,"Ġfamilie":1801,"iden":1802,"iot":1803,"ina":1804,"Ġsup":1805,"Ġbeen":1806,"Ġfor":1807,"raagd":1808,"Ġons":1809,"par":1810,"cept":1811,"carcinoom":1812,"Ġrecid":1813,"ĠTh":1814,"ĠÂ°":1815,"Ġpneum":1816,"Ġrustig":1817,"MA":1818,"ĠBoven":1819,"ave":1820,"urende":1821,"imale":1822,"NO":1823,"Ġbeiderzijds":1824,"amer":1825,"Ġintra":1826,"gelopen":1827,"vel":1828,"vond":1829,"100":1830,"Ġborst":1831,"ĠCc":1832,"cm":1833,"au":1834,"upervis":1835,"Ġat":1836,"Ġpijnlijk":1837,"wit":1838,"euro":1839,"medicatie":1840,"Ġbijzonderheden":1841,"ERD":1842,"Ġvriend":1843,"anamnese":1844,"rug":1845,"oede":1846,"Ġvrij":1847,"itme":1848,"ctomie":1849,"ĠPost":1850,"auw":1851,"IJ":1852,"anger":1853,"ĠĠĠÂłĠ":1854,"ĠCIRC":1855,"Ġwissel":1856,"code":1857,"sul":1858,"eemt":1859,"uk":1860,"OG":1861,"Ġgele":1862,"sloten":1863,"Ġindicatie":1864,"Ġonge":1865,"ĠSinds":1866,"ili":1867,"Ġouders":1868,"ĠAdvies":1869,"Ġmy":1870,"ei":1871,"Ġkomst":1872,"RE":1873,"astro":1874,"thorax":1875,"ĠBSN":1876,"ĠĠĠĠĠĠĊ":1877,"----------------":1878,"itus":1879,"ĠVraag":1880,"Ġla":1881,"Op":1882,"ĠAB":1883,"Ġkomen":1884,"Ġeffect":1885,"wijzing":1886,"entrik":1887,"umor":1888,"Ġprog":1889,"oma":1890,"ĠFax":1891,"igheid":1892,"23":1893,"aand":1894,"ĠStatus":1895,"Ġred":1896,"ute":1897,"ĠEen":1898,"Ġdoen":1899,"ĠII":1900,"esult":1901,"Ġverwijderd":1902,"Ġmaand":1903,"Ġhemat":1904,"lijm":1905,"Ġkw":1906,"amc":1907,"Ġintact":1908,"lig":1909,"jarige":1910,"Ġeerste":1911,"28":1912,"Ġsnel":1913,"Ġhypertensie":1914,"onie":1915,"Ġtromb":1916,"Ġtelefoon":1917,"plan":1918,"spir":1919,"Ġsprake":1920,"ĠOnt":1921,"Ġsoms":1922,"houd":1923,"vorm":1924,"Ġder":1925,"ek":1926,"illen":1927,"valuatie":1928,"etamol":1929,"acetamol":1930,"73":1931,"Ġgekregen":1932,"yndro":1933,"abet":1934,"Ġvert":1935,"ner":1936,"ilat":1937,"reep":1938,"Ġeven":1939,"linische":1940,"ĠÂł":1941,"vocht":1942,"Ġ80":1943,"omp":1944,"Ġang":1945,"29":1946,"Ġ2018":1947,"ocol":1948,"staande":1949,"ĠPA":1950,"erie":1951,"ĠVol":1952,"Ġvraag":1953,"adi":1954,"Ġzeer":1955,"pp":1956,"serv":1957,"ĠOok":1958,"Ġverminder":1959,"emm":1960,"ZS":1961,"PR":1962,"lob":1963,"ĠHb":1964,"Ġgem":1965,"erp":1966,"Ġhoogte":1967,"ĠAllergieÃ«n":1968,"Ġuitge":1969,"Ġdarm":1970,"yndroom":1971,"neu":1972,"Ġgesprek":1973,"uiten":1974,"start":1975,"ĠPatient":1976,"Ġprot":1977,"ulmon":1978,"Ġtoename":1979,"otor":1980,"ura":1981,"oden":1982,"Ġhal":1983,"ĠAmsterdam":1984,"Ġpsych":1985,"compliceerd":1986,"Ġlopen":1987,"VU":1988,"Ġcode":1989,"entrum":1990,"ART":1991,"eeftijd":1992,"Ġ08":1993,"pleegkundige":1994,"ĠEx":1995,"Ġheel":1996,"Ġpatiente":1997,"az":1998,"eci":1999,"itale":2000,"Ġtwee":2001,"Ġsoep":2002,"esie":2003,"Ġpalp":2004,"Ġkleine":2005,"inge":2006,"eut":2007,"Ġoed":2008,"ĠSociaal":2009,"Ġafgenomen":2010,"Ġsig":2011,"ĠGebruik":2012,"ool":2013,"lop":2014,"Ġ60":2015,"ESP":2016,"unct":2017,"Ġbeoord":2018,"Â°":2019,"onen":2020,"Ġbenen":2021,"ulatie":2022,"chtend":2023,"Ġtoch":2024,"norm":2025,"ĠMe":2026,"oelen":2027,"Ġiom":2028,"ĠControle":2029,"IA":2030,"Ġziekte":2031,"Ġminu":2032,"rem":2033,"ade":2034,"Ġziekenhuis":2035,"45":2036,"icro":2037,"azol":2038,"Ġcontinu":2039,"Ġ#":2040,"Ġontlasting":2041,"Ġademhal":2042,"Ġmid":2043,"Ġaspect":2044,"osf":2045,"lijst":2046,"uc":2047,"Ġoor":2048,"Ġsyst":2049,"Ġ06":2050,"33":2051,"been":2052,"Ġgeleden":2053,"AB":2054,"Ġpassend":2055,"Ġzicht":2056,"mie":2057,"ĠLV":2058,"Ġavond":2059,"Ġbet":2060,"Ġbest":2061,"Ġox":2062,"ĠSEH":2063,"roles":2064,"Ġpas":2065,"vumc":2066,"zelf":2067,"Ġintake":2068,"ema":2069,"aring":2070,"Ġdiagnose":2071,"Ġopt":2072,"Ġmeest":2073,"ĠEcho":2074,"matig":2075,"spreken":2076,"Ġven":2077,"anning":2078,"CK":2079,"Ġomdat":2080,"Ã©":2081,"atige":2082,"Ġadequ":2083,"Ġdo":2084,"ĠBehand":2085,"Ġsonde":2086,"Ġpers":2087,"Ġdus":2088,"Ġhulp":2089,"Ġsec":2090,"Ġ=":2091,"Ġfunctie":2092,"90":2093,"Ġlijn":2094,"aakt":2095,"Ġinge":2096,"Ġinfuus":2097,"ces":2098,"Ġtype":2099,"UR":2100,"Ġweinig":2101,"Ġbeper":2102,"Ġar":2103,"bleem":2104,"Ġsym":2105,"raat":2106,"ja":2107,"Ġ.":2108,"vragen":2109,"Ġbezoek":2110,"heel":2111,"Ġrisico":2112,"erentie":2113,"Ġnemen":2114,"Ġ110":2115,"gemen":2116,"ictie":2117,"bloed":2118,"mail":2119,"Ġweg":2120,"Ġneus":2121,"Ġpanc":2122,"Ġanest":2123,"Ġverk":2124,"bouw":2125,"35":2126,"ysi":2127,"60":2128,"Ġopen":2129,"gemene":2130,"Ġmedic":2131,"ĠRESP":2132,"oid":2133,"atheter":2134,"Ġvast":2135,"EG":2136,"esultaat":2137,"euze":2138,"zuur":2139,"razol":2140,"ziekten":2141,"Ġhelder":2142,"inale":2143,"Ġmat":2144,"ĠZij":2145,"ĠGewicht":2146,"Ġleeftijd":2147,"27":2148,"ĠHoofd":2149,"vraag":2150,"ERDAM":2151,"idatie":2152,"abel":2153,"Ġ2014":2154,"ummer":2155,"gebruik":2156,"bereik":2157,"orac":2158,"pr":2159,"ĠWel":2160,"STERDAM":2161,"Ġgestopt":2162,"oerd":2163,"NA":2164,"Ġextra":2165,"Ġ31":2166,"OK":2167,"ĠTevens":2168,"tal":2169,"aden":2170,"ieren":2171,"Ġgedaan":2172,"Ġplaats":2173,"40":2174,"2019":2175,"Ġ--":2176,"arct":2177,"Ġrug":2178,"Ġthorax":2179,"operatief":2180,"Ġtemperatuur":2181,"akker":2182,"ww":2183,"Ġlaag":2184,"ĠDiagnose":2185,"inus":2186,"gr":2187,"Ġopgeslagen":2188,"Ġco":2189,"ĠAct":2190,"ied":2191,"Ġprednis":2192,"Ġverw":2193,"Ġname":2194,"Ġnee":2195,"Ġminuten":2196,"Ġtussen":2197,"vind":2198,"ĠAn":2199,"one":2200,"Ġdist":2201,"Ġbi":2202,"pressie":2203,"Ġ09":2204,"ĠPatiÃ«nte":2205,"Ġvindt":2206,"Ġprocedure":2207,"oge":2208,"ctieve":2209,"Ġloopt":2210,"Ver":2211,"ĠVraagstelling":2212,"Ġbasis":2213,"otheek":2214,"ĠVerder":2215,"ĠCardi":2216,"vangen":2217,"Ġuitgebre":2218,"Ġinsp":2219,"ĠTot":2220,"Ġaut":2221,"Ġkreeg":2222,"orf":2223,"Ġgb":2224,"abetes":2225,"RS":2226,"Ġern":2227,"ikken":2228,"Ġvanaf":2229,"Ġonze":2230,"Ġregel":2231,"Ġbeide":2232,"ĠIntox":2233,"Ġwee":2234,"ĠPOL":2235,"Ġmond":2236,"Ġkn":2237,"ĠIN":2238,"und":2239,"ĠNeur":2240,"onisch":2241,"unction":2242,"reen":2243,"meld":2244,"ĠCRP":2245,"ENT":2246,"ins":2247,"zie":2248,"Ġcy":2249,"21":2250,"Ġveran":2251,"Ġobv":2252,"bel":2253,"Ġpijnklachten":2254,"Ġvoelt":2255,"angerschap":2256,"Ġhoofdpijn":2257,"ĠStart":2258,"ĠAb":2259,"Ġafspraken":2260,"LO":2261,"ĠBovengenoemde":2262,"Ġslijm":2263,"IP":2264,"Ġfol":2265,"Ġplan":2266,"ember":2267,"patiÃ«nt":2268,"lant":2269,"atorium":2270,"emming":2271,"Ġzelfstandig":2272,"ronische":2273,"ĠKalium":2274,"Ġreg":2275,"Ġcontra":2276,"ĠZe":2277,"Ġhe":2278,"Ġuitslag":2279,"Ġmiddels":2280,"ongen":2281,"wezen":2282,"ĠĠĠĠĠĠĠĠĠĠĠĠ":2283,"ject":2284,"elden":2285,"Ġprim":2286,"ijnen":2287,"ĠBel":2288,"insuffici":2289,"atische":2290,"Ġcompl":2291,"kw":2292,"Ġ2020":2293,"âĢĻ":2294,"Ġvader":2295,"ĠSupervis":2296,"Ġvoet":2297,"our":2298,"Ġslecht":2299,"oratorium":2300,"Ġredelijk":2301,"sluit":2302,"MI":2303,"reven":2304,"ouff":2305,"ĠAlgemeen":2306,"vo":2307,"ocatie":2308,"Ġhersen":2309,"Ġdyspnoe":2310,"Klinische":2311,"test":2312,"Ġecht":2313,"atieve":2314,"komen":2315,"EV":2316,"ĠEer":2317,"Ġingreep":2318,"osering":2319,"amine":2320,"inken":2321,"26":2322,"ibiot":2323,"Ġstand":2324,"zaam":2325,"ĠAP":2326,"operatieve":2327,"Ġrol":2328,"Ġgeven":2329,"alcium":2330,"Ġpols":2331,"plaatst":2332,"5669":2333,"pect":2334,"ooit":2335,"Ġventrik":2336,"Ġochtend":2337,"Ġchol":2338,"Ġli":2339,"ĠVerslag":2340,"Ġond":2341,"MS":2342,"lok":2343,"Ġbloeding":2344,"vat":2345,"Ġ75":2346,"Ġvolled":2347,"Ġkort":2348,"ĠPols":2349,"Ġlangs":2350,"astase":2351,"ĠAF":2352,"oorde":2353,"sule":2354,"kkoord":2355,"Al":2356,"elk":2357,"Ġsat":2358,"Ġrest":2359,"Ġsouff":2360,"Ġ<":2361,"UM":2362,"erol":2363,"infectie":2364,"ps":2365,"alie":2366,"elling":2367,"ĠST":2368,"rect":2369,"antie":2370,"reg":2371,"oeid":2372,"Ġ38":2373,"Ġevent":2374,"Ġrecidief":2375,"Ġverhoogd":2376,"-,":2377,"frequentie":2378,"ĠĠĠĠĠĠĠĠĠĠĠ":2379,"Ġsten":2380,"ĠmmHg":2381,"ild":2382,"iÃ«":2383,"Ġantwoord":2384,"fte":2385,"cg":2386,"GA":2387,"ankelijk":2388,"iteiten":2389,"ting":2390,"Ġchem":2391,"inden":2392,"Ġbro":2393,"Ġparacetamol":2394,"Ġadvies":2395,"jectie":2396,"Ġdiagnost":2397,"EK":2398,"erentiebereik":2399,"ilde":2400,"ĠNog":2401,"ons":2402,"ĠHuidige":2403,"Ġverwijderen":2404,"ĠOm":2405,"Ġwer":2406,"Ġpath":2407,"ĠPM":2408,"ĠWe":2409,"Ġprob":2410,"EPI":2411,"Ġpleura":2412,"urie":2413,"Ġ07":2414,"Ġnot":2415,"Ġdys":2416,"lad":2417,"CKD":2418,"asen":2419,"cis":2420,"inine":2421,"zijn":2422,"Ġarm":2423,"beeld":2424,"Ġresult":2425,"omet":2426,"Ġ2019":2427,"ĠIE":2428,"halen":2429,"Ġging":2430,"anneer":2431,"malig":2432,"olling":2433,"Ġwakker":2434,"Ġtumor":2435,"ellen":2436,"Resultaat":2437,"Ġkinderen":2438,"Ġfractuur":2439,"pland":2440,"ĠAnesthesie":2441,"cus":2442,"kle":2443,"Ġontvangers":2444,"ĠIntoxicaties":2445,"Ġgebeld":2446,"Ġlit":2447,"Ġafgelopen":2448,"spreking":2449,"ilet":2450,"ĠWij":2451,"avond":2452,"Ġzwelling":2453,"Ġmult":2454,"Ġtegen":2455,"ĠPer":2456,"komst":2457,"Ġadequaat":2458,"Ġdis":2459,"Ġalcohol":2460,"VT":2461,"metr":2462,"ĠHyper":2463,"Ġgal":2464,"ĠNormaal":2465,"wijzig":2466,"reatinine":2467,"Ġprotocol":2468,"teken":2469,"onit":2470,"Ġduidelijk":2471,"Ġgroot":2472,"Ġapotheek":2473,"erende":2474,"Ġja":2475,"Ġdec":2476,"Ġknie":2477,"Ġzitten":2478,"ĠFamilie":2479,"pol":2480,"000":2481,"vullen":2482,"Ġleven":2483,"On":2484,"Ã«ntie":2485,"Ġsinus":2486,"Ġvis":2487,"75":2488,"raa":2489,"geveer":2490,"wust":2491,"Ġvl":2492,"Ġbrief":2493,"Ġbesch":2494,"aken":2495,"Ġchirurg":2496,"str":2497,"rechts":2498,"uratie":2499,"vante":2500,"MD":2501,"TH":2502,"ĠKan":2503,"ilijk":2504,"OB":2505,"Ġmcg":2506,"Ġeet":2507,"Ġspont":2508,"ereb":2509,"ĠSch":2510,"ors":2511,"Ġmeerdere":2512,"aris":2513,"wikk":2514,"resent":2515,"ikt":2516,"Ġgedurende":2517,"olon":2518,"veel":2519,"Ġreeds":2520,"Ge":2521,"Ġblijft":2522,"rokken":2523,"Ġ2013":2524,"US":2525,"Ġoedeem":2526,"Ġasc":2527,"Ġtevens":2528,"andaag":2529,"Ġprogressie":2530,"ĠDaarna":2531,"raf":2532,"ule":2533,"iken":2534,"ogelijk":2535,"aart":2536,"Ġherstel":2537,"ĠLaatste":2538,"Ġvor":2539,"Ġzichtbaar":2540,"aling":2541,"Ġbuikpijn":2542,"Over":2543,"ĠIk":2544,"Ġsitu":2545,"arb":2546,"ĠHer":2547,"ĠAnt":2548,"hese":2549,"Ġakkoord":2550,"Ġber":2551,"020":2552,"ĠGlucose":2553,"CL":2554,"ĠOper":2555,"man":2556,"Ġdrukpijn":2557,"ĠAMSTERDAM":2558,"bi":2559,"Ġmaal":2560,"wijking":2561,"Ġfoc":2562,"Ġevt":2563,"houdend":2564,"Ġkind":2565,"Ġblaas":2566,"ĠRo":2567,"nd":2568,"achten":2569,"weging":2570,"dr":2571,"vorming":2572,"Ġbloedverlies":2573,"Ġcapsule":2574,"Ġmatig":2575,"weken":2576,"oedien":2577,"Ġrood":2578,"Ġile":2579,"OD":2580,"rupp":2581,"bre":2582,"ĠSpO":2583,"Int":2584,"80":2585,"adem":2586,"team":2587,"Ġ199":2588,"Ġslaap":2589,"mijn":2590,"ĠDeze":2591,"ger":2592,"bol":2593,"arree":2594,"Ġbraken":2595,"bare":2596,"uut":2597,"cisie":2598,"ĠOpname":2599,"Ġzwangerschap":2600,"ĠDef":2601,"ĠIV":2602,"ĠBloeddruk":2603,"gevoerd":2604,"Ġstarten":2605,"opie":2606,"vast":2607,"Ġteken":2608,"ident":2609,"chn":2610,"off":2611,"elaan":2612,"Ġsyndroom":2613,"Ġ35":2614,"Ġneemt":2615,"spirato":2616,"Ġble":2617,"Ġ03":2618,"astasen":2619,"hy":2620,"Ġ\"":2621,"Ġvriendelijke":2622,"ĠLeuk":2623,"stoornissen":2624,"Ġ01":2625,"Ġhep":2626,"eklier":2627,"ĠHuis":2628,"iwit":2629,"roon":2630,"erapeut":2631,"Ġpt":2632,"Ġcoron":2633,"ienst":2634,"hoefte":2635,"rim":2636,"Ġvo":2637,"wand":2638,"ĠKNO":2639,"elde":2640,"Ġbegele":2641,"Ġmicro":2642,"Ġaantal":2643,"Ġheer":2644,"Ġruim":2645,"li":2646,"uli":2647,"orte":2648,"Ġogen":2649,"ĠCom":2650,"Ġjr":2651,"Ġreferentiebereik":2652,"Ġvoldoende":2653,"69":2654,"Ġpla":2655,"Ġvit":2656,"Ġvul":2657,"rill":2658,"iliseren":2659,"plaatsing":2660,"ibiotica":2661,"ĠDrs":2662,"Ġgroet":2663,"vindingen":2664,"ĠLaboratorium":2665,"uurd":2666,"oot":2667,"Ġsamen":2668,"ori":2669,"gestoord":2670,"sol":2671,"edatum":2672,"inatie":2673,"ritis":2674,"akk":2675,"uma":2676,"Ġwillen":2677,"Ġongeveer":2678,"ĠCAD":2679,"Ġjarige":2680,"Ġmedi":2681,"oeken":2682,"Ġklein":2683,"Ġverzoek":2684,"Ġem":2685,"Ġdochter":2686,"rugs":2687,"Ġsoepel":2688,"Ġsh":2689,"laag":2690,"Ġhoge":2691,"ĠVUmc":2692,"Ġgram":2693,"uiden":2694,"Ġdrinken":2695,"eth":2696,"Ġwarm":2697,"dom":2698,"TE":2699,"mee":2700,"LE":2701,"agina":2702,"validatie":2703,"zaak":2704,"kel":2705,"Ġbespreken":2706,"55":2707,"Laatste":2708,"Ġwater":2709,"ĠNatrium":2710,"ĠMw":2711,"atine":2712,"ĠPre":2713,"ĠĠĠĠĠĠĠĠĠĠĠĠĠĠ":2714,"Ġnet":2715,"Ġbetreft":2716,"illing":2717,"Ġkuur":2718,"utatie":2719,"Ġvermoeid":2720,"ĠMDO":2721,"ĠĠĠĠĠĠĠĠĠĠĠĠĠĠĠĠĠ":2722,"izel":2723,"oÃ¯":2724,"ĠOverige":2725,"Ġtoilet":2726,"Ġkrijgt":2727,"ĠOD":2728,"ĠQ":2729,"Hb":2730,"Ġafwij":2731,"Ġ-->":2732,"inkt":2733,"ede":2734,"reening":2735,"Ġ90":2736,"port":2737,"Ġul":2738,"Ġnef":2739,"Ġrect":2740,"ern":2741,"splant":2742,"kn":2743,"Ġsept":2744,"IV":2745,"Ġtemp":2746,"servatie":2747,"Ġmalig":2748,"Ġtherapie":2749,"Ġverdere":2750,"Ġstaan":2751,"wustzijn":2752,"ĠALAT":2753,"ĠHoe":2754,"Ġ2012":2755,"Ġresectie":2756,"Ġden":2757,"ÂłÂłÂłÂłÂłÂłÂłÂłÂłÂłÂłÂłÂłÂłÂłÂł":2758,"Ġca":2759,"Ġstoel":2760,"ĠCirc":2761,"LA":2762,"rel":2763,"CZS":2764,"Ġsm":2765,"Ġbehandeld":2766,"iver":2767,"lank":2768,"cut":2769,"Ġ02":2770,"pk":2771,"Ġgr":2772,"DER":2773,"ochtend":2774,"ĠPsych":2775,"rit":2776,"istratie":2777,"otoriek":2778,"Ġverbeter":2779,"kwab":2780,"ĠIndicatie":2781,"Ġdiff":2782,"Ġ05":2783,"Ġgesproken":2784,"ĠOperatie":2785,"alt":2786,"ĠRec":2787,"normaal":2788,"Ġkwam":2789,"Ġcc":2790,"Ġtotaal":2791,"Ġverst":2792,"Ġeerdere":2793,"Ġrust":2794,"stip":2795,"oglob":2796,"Ġpartner":2797,"ĠOu":2798,"atisch":2799,"Ġbent":2800,"ift":2801,"udie":2802,"merking":2803,"loop":2804,"ĠĠĠĠĠĠĠĠĠĠĠĠĠĠĠĠĠĠ":2805,"====":2806,"ress":2807,"zij":2808,"edatie":2809,"Ġcond":2810,"Ġgevonden":2811,"Ġlok":2812,"Ġslapen":2813,"ouder":2814,"ĠCV":2815,"icus":2816,"CV":2817,"Ġlaat":2818,"itr":2819,"gelijks":2820,"Ġprox":2821,"Ġhoesten":2822,"Ġneuro":2823,"Ġvaat":2824,"Ġziet":2825,"Ġaort":2826,"Ġeerst":2827,"ĠGezien":2828,"Ġprobleem":2829,"ÂłĠĠ":2830,"kweek":2831,"erde":2832,"ronch":2833,"Ġga":2834,"Ġverhoogde":2835,"leiding":2836,"Ġwegens":2837,"Ġperi":2838,"HO":2839,"hesi":2840,"Ġdatum":2841,"links":2842,"fib":2843,"dreef":2844,"Ġhouden":2845,"gra":2846,"Ġproberen":2847,"MV":2848,"aard":2849,"che":2850,"rengen":2851,"rax":2852,"regel":2853,"Ġbot":2854,"aker":2855,"ĠVG":2856,"behandel":2857,"Ġdro":2858,"VG":2859,"ĠAlcohol":2860,"ĠZo":2861,"Ġmoeilijk":2862,"ĠLO":2863,"amma":2864,"atologie":2865,"Ġpositief":2866,"Ġdirect":2867,"rofie":2868,"Ġaltijd":2869,"iberg":2870,"70":2871,"wassen":2872,"ĠOS":2873,"ibergdreef":2874,"Ġgisteren":2875,"Ġfl":2876,"Ġwaarna":2877,"Ġhydro":2878,"Ġwelke":2879,"Ġas":2880,"%.":2881,"Ġrel":2882,"ĠSupervisor":2883,"akte":2884,"Ġmictie":2885,"chirurgie":2886,"vullende":2887,"Ġplaatsing":2888,"nog":2889,"fsel":2890,"oracale":2891,"ĠGro":2892,"Ġsu":2893,"Ġperif":2894,"Ġmac":2895,"ysma":2896,"ĠMeibergdreef":2897,"onitor":2898,"col":2899,"ĠHart":2900,"Ġlymfeklier":2901,"ING":2902,"Ġ04":2903,"stilling":2904,"Ġpleuravocht":2905,"tablet":2906,"Ġdosering":2907,"Ġabdomen":2908,"ĠPar":2909,"Ġopnemen":2910,"OM":2911,"blemen":2912,"ĠeGFR":2913,"ĠLD":2914,"yla":2915,"behandeling":2916,"Ġgestaakt":2917,"halve":2918,"Ġbeoordelen":2919,"Ġonderste":2920,"schrij":2921,"Ġbep":2922,"cel":2923,"lak":2924,"Ġoes":2925,"jectief":2926,"Ġ70":2927,"Ġklinisch":2928,"rin":2929,"ameter":2930,"dur":2931,"ret":2932,"kingen":2933,"ood":2934,"ĠPlan":2935,"Ġvergelijk":2936,"ĠDoor":2937,"epam":2938,"Ġaanvragen":2939,"vid":2940,"Ġafbouw":2941,"Ġie":2942,"GT":2943,"ĠâĢĺ":2944,"PV":2945,"kijken":2946,"Ġpneumonie":2947,"Ġinsul":2948,"aryn":2949,"34":2950,"Ġgesp":2951,"ĠgeÃ¯":2952,"cor":2953,"Nee":2954,"Ġisch":2955,"Ġdiarree":2956,"Ġsign":2957,"pon":2958,"Ġinsuffici":2959,"Ġlengte":2960,"Ġgraad":2961,"ateriaal":2962,"Ġinst":2963,"Ġstenose":2964,"Ja":2965,"geluiden":2966,"her":2967,"ĠTemperatuur":2968,"ĠZie":2969,"rine":2970,"Ġontvangen":2971,"Ġcolon":2972,"okt":2973,"ĠRV":2974,"ograf":2975,"Ġchronische":2976,"oped":2977,"auwd":2978,"erend":2979,"Ġvolledig":2980,"hankelijk":2981,"Ġversch":2982,"Ġpulmon":2983,"all":2984,"DD":2985,"Ġvervolg":2986,"IT":2987,"mun":2988,"vic":2989,"Ġhuidige":2990,"volgen":2991,"alcif":2992,"Ġvr":2993,"rot":2994,"Ġkon":2995,"Ġanders":2996,"yna":2997,"Ġmisselijkheid":2998,"Ġkracht":2999,"Ġvanuit":3000,"Ġernstige":3001,"ĠMDL":3002,"Ġaorta":3003,"oglobine":3004,"Vol":3005,"euco":3006,"ĠTC":3007,"urine":3008,"Ġaug":3009,"ĠOverig":3010,"ĠVrij":3011,"Ġreactie":3012,"ĠTer":3013,"Ġgeneeskunde":3014,"Ġprednison":3015,"opp":3016,"Ġplaatse":3017,"lijden":3018,"Ġele":3019,"ĠOntslag":3020,"Ġgrote":3021,"Ġgep":3022,"Ġmatige":3023,"ĠTemp":3024,"Ġmedische":3025,"ĠMorgen":3026,"agen":3027,"ichting":3028,"ĠWil":3029,"mide":3030,"entraal":3031,"Ġconform":3032,"erior":3033,"atio":3034,"ving":3035,"elevante":3036,"rilleren":3037,"AV":3038,"ĠallergieÃ«n":3039,"Ġlage":3040,"Ġinspanning":3041,"Ġenige":3042,"tr":3043,"Ġnotitie":3044,"atiecode":3045,"land":3046,"Ġinjectie":3047,"Ġhiervoor":3048,"Ġonru":3049,"Ġrondom":3050,"ĠAlgemene":3051,"ĠVoelt":3052,"Ġspier":3053,"Ġpl":3054,"ycard":3055,"OV":3056,"95":3057,"eus":3058,"aam":3059,"Ġcontrast":3060,"agus":3061,"adenopathie":3062,"Ġtekenen":3063,"pv":3064,"ĠmL":3065,"ropathie":3066,"ĠActuele":3067,"ĠAllergie":3068,"score":3069,"ĠĠĠĠĠĠĠĠĠĠĠĠĠĠĠĠĠĠĠĠ":3070,"Ġstuk":3071,"Ġchirurgie":3072,"ecialis":3073,"38":3074,"OOR":3075,"legd":3076,"idu":3077,"CR":3078,"wijzigd":3079,"Ġmass":3080,"asis":3081,"ĠAV":3082,"ĠPulm":3083,"Ġzoals":3084,"mger":3085,"ips":3086,"esies":3087,"ĠWond":3088,"ensib":3089,"metrisch":3090,"Â²":3091,"ectomie":3092,"Ġblijven":3093,"Ġenkel":3094,"Ġfunction":3095,"Ġje":3096,"Ġkrijgen":3097,"Ġkra":3098,"Ġoste":3099,"orfine":3100,"Ġic":3101,"Ġarmen":3102,"Ġwand":3103,"etje":3104,"Ġtransf":3105,"Ġnov":3106,"sver":3107,"ĠMS":3108,"mgeruis":3109,"Ġdun":3110,"niet":3111,"egt":3112,"tran":3113,"ĠLeukocyten":3114,"Ġdiagnostiek":3115,"65":3116,"Ġgepland":3117,"Ġpancre":3118,"Ġverwijzing":3119,"IJK":3120,"kan":3121,"Ġbericht":3122,"ason":3123,"ĠOnderzoek":3124,"ATIE":3125,"Ġbuiten":3126,"Ġbekijken":3127,"ĠGoede":3128,"ĠNeurologisch":3129,"Ġverander":3130,"gesteld":3131,"morgen":3132,"behandelaar":3133,"OLOG":3134,"gend":3135,"Ġbenauwd":3136,"ĠKreatinine":3137,"Datum":3138,"Ġprof":3139,"buik":3140,"Ġstent":3141,"UIS":3142,"Ġbeperkt":3143,"reek":3144,"Ġcereb":3145,"uni":3146,"ĠTromb":3147,"waarden":3148,"roeg":3149,"ĠBeloop":3150,"iveau":3151,"utum":3152,"stof":3153,"Ġpap":3154,"Ġlaesie":3155,"Ġpoliklinische":3156,"ĠHypertensie":3157,"Ġaanp":3158,"PK":3159,"Ġwanneer":3160,"Ġgevraagd":3161,"ĠOb":3162,"staat":3163,"ZN":3164,"ĠCo":3165,"ĠBMI":3166,"2015":3167,"Ġgeplaatst":3168,"ynaec":3169,"Ġnam":3170,"Ġmis":3171,"Ġontwikk":3172,"contin":3173,"Ġplas":3174,"lux":3175,"wassenen":3176,"itaal":3177,"aliteit":3178,"aklep":3179,"ĠNP":3180,"Ġbere":3181,"Ġ2011":3182,"Ġluchtweg":3183,"Ġzag":3184,"Ġverzorg":3185,"pre":3186,"Ġtelefonisch":3187,"Ġbellen":3188,"fibrilleren":3189,"Ġmal":3190,"vastatine":3191,"OLOGIE":3192,"artsen":3193,"Ġanalyse":3194,"Ġaden":3195,"Ġhals":3196,"alans":3197,"Ġbijgeluiden":3198,"to":3199,"zoeken":3200,"infarct":3201,"Ġdig":3202,"oph":3203,"atroon":3204,"Mijn":3205,"otomie":3206,"Ġelk":3207,"Ġdienst":3208,"Ġduizel":3209,"ocard":3210,"81":3211,"datum":3212,"wissel":3213,"Ġbegin":3214,"werkingen":3215,"Ġacute":3216,"Ġlos":3217,"Ġafwijking":3218,"Ġass":3219,"ĠSociale":3220,"85":3221,"Ġzover":3222,"Ġbekende":3223,"asie":3224,"chniek":3225,"87":3226,"rijk":3227,"Ġfem":3228,"Ġzijde":3229,"Ġwerv":3230,"Ġbijn":3231,"Ġantist":3232,"dracht":3233,"icale":3234,"Ġanemie":3235,"Ġligt":3236,"ĠHulp":3237,"Ġ150":3238,"trem":3239,"Ġtach":3240,"ĠOuders":3241,"ijdag":3242,"Ġtr":3243,"geneeskunde":3244,"werp":3245,"ĠMob":3246,"Ġgesch":3247,"ĠLeuco":3248,"Ġheu":3249,"cler":3250,"AND":3251,"lair":3252,"vl":3253,"omt":3254,"Ġpog":3255,"Ġglucose":3256,"Ġgehoor":3257,"ĠLet":3258,"atiek":3259,"37":3260,"Ġmaandag":3261,"reden":3262,"Ġlymfadenopathie":3263,"orth":3264,"Ġdiep":3265,"istalt":3266,"Ġnooit":3267,"Ġscore":3268,"ĠPOLI":3269,"Ġpresent":3270,"Ġmede":3271,"Ġdistale":3272,"ĠLengte":3273,"ieke":3274,"ĠContact":3275,"pers":3276,"Ġcardioloog":3277,"Ġcontinueren":3278,"vlies":3279,"haal":3280,"Ġloop":3281,"Ġbegeleiding":3282,"gevraagd":3283,"Ġconditie":3284,"II":3285,"Ġantibiotica":3286,"Ġforse":3287,"31":3288,"CP":3289,"ĠVIA":3290,"azepam":3291,"Ġvaak":3292,"Sp":3293,"+,":3294,"istaltiek":3295,"pectatief":3296,"Ġrecente":3297,"ieuw":3298,"illine":3299,"ĠĠĠĠĠĠĠĠĊ":3300,"drain":3301,"Ġoorzaak":3302,"Ġgroei":3303,"ĠAbdomen":3304,"ĠInter":3305,"ria":3306,"De":3307,"geh":3308,"gave":3309,"Ġzuur":3310,"NP":3311,"Ġhierbij":3312,"stemming":3313,"Ġtoedien":3314,"Ġatrium":3315,"verlen":3316,"VUmc":3317,"ĠLAD":3318,"CI":3319,"middag":3320,"Ġnierfunctie":3321,"Ġwerden":3322,"bekend":3323,"ysiotherapie":3324,"Ġanti":3325,"cent":3326,"cep":3327,"Ġlichamelijk":3328,"rog":3329,"voldoende":3330,"Ġplaatsen":3331,"Ġongestoord":3332,"Ġonver":3333,"dend":3334,"ock":3335,"Ġfib":3336,"afwijkingen":3337,"ific":3338,"Ġcr":3339,"ilig":3340,"36":3341,"kker":3342,"%,":3343,"ycine":3344,"ĠAlk":3345,"ilatatie":3346,"Re":3347,"Ġregelmatig":3348,"ullen":3349,"Ġpaar":3350,"BS":3351,"Ġet":3352,"afspraak":3353,"Ġpte":3354,"Ġtest":3355,"ellitus":3356,"Ġ%.":3357,"ged":3358,"pens":3359,"Ġmaakt":3360,"SH":3361,"ĠAN":3362,"ĠLe":3363,"Ġverminderde":3364,"ĠAp":3365,"Ġsupport":3366,"Ġepi":3367,"Ġgesla":3368,"accin":3369,"Ġmedicijnen":3370,"splantatie":3371,"Ġkans":3372,"Ġmobiliseren":3373,"zocht":3374,"Ġwaren":3375,"Ġresp":3376,"Ġgewricht":3377,"tens":3378,"nacht":3379,"gegevens":3380,"ddZN":3381,"SEH":3382,"rub":3383,"Ġademgeruis":3384,"Ġgaf":3385,"99":3386,"Ġkamer":3387,"umar":3388,"sm":3389,"apar":3390,"ensibiliteit":3391,"Ġmedisch":3392,"ĠCare":3393,"ofen":3394,"oto":3395,"Ġademhalings":3396,"ĠHel":3397,"Ġherhalen":3398,"Ġdiabetes":3399,"ote":3400,"Ġklik":3401,"Ġscan":3402,"deel":3403,"Ġstudie":3404,"Geb":3405,"Ġhanden":3406,"Voor":3407,"ĠEGFR":3408,"Ġcontroles":3409,"Be":3410,"isatie":3411,"maals":3412,"ĠAc":3413,"klep":3414,"Ġevaluatie":3415,"Ġve":3416,"Ġuitslagen":3417,"gaand":3418,"ci":3419,"controle":3420,"mevrouw":3421,"Ġanesthesie":3422,"Ġzn":3423,"Ġuitgebreide":3424,"SA":3425,"Ġvorige":3426,"oont":3427,"bul":3428,"Ġdagelijks":3429,"Ġ2010":3430,"straat":3431,"rekken":3432,"och":3433,"ĠWat":3434,"Ġaccept":3435,"anks":3436,"Ġdub":3437,"END":3438,"ith":3439,"ĠPCI":3440,"111":3441,"Ġgastro":3442,"ĠNB":3443,"ĠIntake":3444,"Ġkorte":3445,"Ġklinische":3446,"ycardie":3447,"ĠTijd":3448,"Ġdeel":3449,"ocyt":3450,"Ġverlopen":3451,"Ġdoorge":3452,"âĢ¦":3453,"Ġknop":3454,"zak":3455,"Ġeind":3456,"Ġwacht":3457,"iste":3458,"Ġzoon":3459,"Ġjan":3460,"dens":3461,"ĠPET":3462,"ruiken":3463,"ĠChirurg":3464,"omy":3465,"ĠBoel":3466,"niteit":3467,"Ġbeoorde":3468,"fractuur":3469,"ĠGraag":3470,"stoel":3471,"Ġaanmeld":3472,"geten":3473,"ante":3474,"urose":3475,"Ġbeloop":3476,"ĠBoelelaan":3477,"Ġresultaat":3478,"ĠGastro":3479,"ilirub":3480,"Ġdran":3481,"bolie":3482,"ĠTijdens":3483,"ĠOV":3484,"etie":3485,"98":3486,"aarde":3487,"mplant":3488,"Ġinsuline":3489,"abiele":3490,"asculaire":3491,"Ġdoet":3492,"Ġvinden":3493,"Ġventrikel":3494,"ĠVandaag":3495,"Ġalles":3496,"500":3497,"Ġorth":3498,"ĠAC":3499,"apt":3500,"ubatie":3501,"ensive":3502,"vt":3503,"Ġqu":3504,"rum":3505,"Ġbelang":3506,"opten":3507,"ĠBesproken":3508,"egment":3509,"Ġademhaling":3510,"vulling":3511,"Ġsituatie":3512,"Ġverpleegkundige":3513,"Ġrecent":3514,"Ġ45":3515,"Ġperistaltiek":3516,"Ġbeve":3517,"var":3518,"band":3519,"urosemide":3520,"uning":3521,"lust":3522,"Ġacuut":3523,"ĠProbleem":3524,"Ġafwijkend":3525,"Ġcomplicaties":3526,"ĠAdemhal":3527,"ecif":3528,"Ġgeboren":3529,"uring":3530,"Ch":3531,"oper":3532,"orb":3533,"ĠMede":3534,"Ġeiwit":3535,"ĠĠĠĠĠĠĠĠĠĊ":3536,"Ġbelast":3537,"Ġretour":3538,"Ġvooraf":3539,"Ġuitleg":3540,"dis":3541,"ront":3542,"inde":3543,"rolog":3544,"bla":3545,"ongem":3546,"hier":3547,"SEN":3548,"olische":3549,"bs":3550,"Ġgegaan":3551,"urese":3552,"Bij":3553,"oÃ¯d":3554,"Ġactivatiecode":3555,"ĠVoeding":3556,"67":3557,"Ġ->":3558,"Ġneurologie":3559,"Ġhalf":3560,"Ġprodu":3561,".:":3562,"oortedatum":3563,"Ġmevrouw":3564,"Ġnaast":3565,"ĠOnge":3566,"kkage":3567,"ĠMM":3568,"antop":3569,"Ġbeetje":3570,"Ġsputum":3571,"mmHg":3572,"Ġsluit":3573,"xe":3574,"Ġzus":3575,"hogen":3576,"Ġverdacht":3577,"88":3578,"iging":3579,"PA":3580,"ube":3581,"ĠMedische":3582,"ĠInfuus":3583,"ĠBeeld":3584,"ĠMogelijk":3585,"Ġzod":3586,"Ġcardiale":3587,"µmol":3588,"Ġvergro":3589,"Ġverbetering":3590,"ĠTr":3591,"ument":3592,"ĠMGA":3593,"arine":3594,"Ġgeringe":3595,"odenum":3596,"Ġgecompliceerd":3597,"Ġherstart":3598,"Ġvergelijking":3599,"Ġ1000":3600,"iegel":3601,"Ġschouder":3602,"Ġcl":3603,"sus":3604,"Ġpijnstilling":3605,"dendum":3606,"roc":3607,"raad":3608,"oprol":3609,"Ġdieet":3610,"volgens":3611,"Ġcyste":3612,"erkt":3613,"**":3614,"nummer":3615,"DE":3616,"Ġhele":3617,"leb":3618,"antoprazol":3619,"Ġwisselend":3620,"lanco":3621,"ÂłÂłÂł":3622,"Ġinterv":3623,"ĠEnd":3624,"ĠTrombocyten":3625,"Ġmeegegeven":3626,"Ġademhalingsfrequentie":3627,"ympt":3628,"umab":3629,"bum":3630,"Ġintern":3631,"wegingen":3632,"control":3633,"ĠVitale":3634,"Ġafgeb":3635,"Ġafname":3636,"ise":3637,"tremiteiten":3638,"Ġmilde":3639,"Ġweekend":3640,"scopie":3641,"KT":3642,"actief":3643,"Ġmoeten":3644,"Ġweet":3645,"Ġdel":3646,"iÃ«le":3647,"structies":3648,"Ġplek":3649,"Ġverkl":3650,"eprazol":3651,"Ġfollow":3652,"visie":3653,"Ġpalpabel":3654,"sonde":3655,"Ġnierinsuffici":3656,"--------------------------------":3657,"Ġechtgen":3658,"1117":3659,"ance":3660,"opname":3661,"enen":3662,"Ġuitgevoerd":3663,"Ġgang":3664,"Ġhematoom":3665,"ĠKreeg":3666,"aas":3667,"oeg":3668,"Ġkijken":3669,"Ġ-,":3670,"94":3671,"Ġtwe":3672,"ĠBovengenoemdepatiÃ«nt":3673,"Ġtoegenomen":3674,"ĠBespreking":3675,"oorte":3676,"ĠUro":3677,"Ġleuk":3678,"PH":3679,"Ġmiddag":3680,"etten":3681,"77":3682,"TT":3683,"Ġafw":3684,"ichaam":3685,"ĠThuis":3686,"ouch":3687,"Ġpassen":3688,"Ġcerv":3689,"lexie":3690,"volgende":3691,"Anamnese":3692,"amm":3693,"ildklier":3694,"Ġsegment":3695,"Ġmaligniteit":3696,"ociaal":3697,"alisatie":3698,"Ġbronch":3699,"leden":3700,"Ġsymmetrisch":3701,"ĠHuisartsen":3702,"Ġthoracale":3703,"Ġpancreas":3704,"eder":3705,"Ġ48":3706,"get":3707,"ISCH":3708,"ĠPagina":3709,"ritme":3710,"eps":3711,"Ġnamens":3712,"Ġ120":3713,"WK":3714,"ificatie":3715,"ĠMedisch":3716,"vent":3717,"Ġdex":3718,"DG":3719,"sec":3720,"oud":3721,"ÂłĠÂłĠ":3722,"Ġoud":3723,"ĠDM":3724,"annen":3725,"steking":3726,"64":3727,"ĠCompl":3728,"PRA":3729,"entrale":3730,"pel":3731,"Ġaanwijzing":3732,"Ġconc":3733,"ĠSom":3734,"iaf":3735,"zw":3736,"Af":3737,"terus":3738,"Ġkauw":3739,"etica":3740,"oprolol":3741,"Ġspontaan":3742,"Ġsysteem":3743,"iceerde":3744,"enties":3745,"inker":3746,"Ġafbouwen":3747,"Ġvrijdag":3748,"CC":3749,"Ġsondevoeding":3750,"ĠWas":3751,"ĠSV":3752,"dossier":3753,"Ġbleek":3754,"Ġkeel":3755,"Ġafgesproken":3756,"Ġduidelijke":3757,"Ġcort":3758,"lijn":3759,"yre":3760,"ĠPoli":3761,"Ġnuchter":3762,"Ġmei":3763,"ĠRechts":3764,"Ġmassa":3765,"Ġumol":3766,"ĠOog":3767,"req":3768,"metastase":3769,"Ġcirc":3770,"Ġmobiele":3771,"elijks":3772,"Ġtermijn":3773,"indelijk":3774,"UN":3775,"dosis":3776,"ĠPT":3777,"prot":3778,"Ġabces":3779,"Ġdaarbij":3780,"UISART":3781,"part":3782,"wijs":3783,"tot":3784,"ĠKinder":3785,"Ġrevalidatie":3786,"matiek":3787,"Ġbewegen":3788,"Ġinnemen":3789,"Ġstaken":3790,"Ġsaturatie":3791,"ĠIg":3792,"ĠType":3793,"Ġstoppen":3794,"ĠGen":3795,"ouwd":3796,"middels":3797,"Ġalert":3798,"Ġgebruiken":3799,"Ġgemeten":3800,"Ġlaesies":3801,"ĠASAT":3802,"Ġmnd":3803,"Ġmij":3804,"aags":3805,"rid":3806,"openie":3807,"Ġniets":3808,"Ġverwezen":3809,"Ġperic":3810,"97":3811,"keur":3812,"Ġweten":3813,"32":3814,"Ġbekken":3815,"Ġradiotherapie":3816,"uari":3817,"Ġheup":3818,"oordeling":3819,"reum":3820,"Ġbevindingen":3821,"Ġeventueel":3822,"Ġmoeite":3823,"Ġlum":3824,"ĠGE":3825,"Ġsouffles":3826,"ĠUitleg":3827,"Ã©n":3828,"Ġdossier":3829,"ĠMT":3830,"Ġongecompliceerd":3831,"endens":3832,"erent":3833,"brengen":3834,"ĠOr":3835,"Ġindruk":3836,"Ġflu":3837,"ecialisme":3838,"Ġjuni":3839,"Ġbijwerkingen":3840,"ĠCD":3841,"Ġstoornis":3842,"Ġgebied":3843,"ĠDrugs":3844,"Ġverslag":3845,"ĠHierbij":3846,"othorax":3847,"68":3848,"kelet":3849,"eria":3850,"Ġaortaklep":3851,"Ġmultip":3852,"ĠRCA":3853,"ca":3854,"Ġdik":3855,"Ġverbet":3856,"ĠHad":3857,"status":3858,"stipatie":3859,"ĠCP":3860,"UL":3861,"ĠDoel":3862,"spiratoire":3863,"ĠToe":3864,"emaal":3865,"Ġontvangt":3866,"Ġschool":3867,"WI":3868,"Ġvoeten":3869,"lasie":3870,"actoren":3871,"ange":3872,"ĠRoken":3873,"kamer":3874,"ivm":3875,"Ġactieve":3876,"UMC":3877,"ce":3878,"gehele":3879,"ogn":3880,"ĠOnderwerp":3881,"Ġcar":3882,"eciele":3883,"48":3884,"Ġbetrokken":3885,"Ġischemie":3886,"ongembolie":3887,"OPD":3888,"arynx":3889,"Ġdrank":3890,"Ġonvoldoende":3891,"CO":3892,"Ġlanger":3893,"Ġdrie":3894,"Ġexpectatief":3895,"tic":3896,"Ġpomp":3897,"ubitus":3898,"Ġstap":3899,"verd":3900,"Ġ2009":3901,"duur":3902,"ĠVerricht":3903,"sit":3904,"IB":3905,"pletie":3906,"Ġmaart":3907,"oxic":3908,"EF":3909,"ĠTran":3910,"ĠRef":3911,"STR":3912,"Ġtav":3913,"4444":3914,"Ġzorgen":3915,"Ġflow":3916,"Ġ)":3917,"Ġscreening":3918,"Ġving":3919,"chirurg":3920,"Ġhebt":3921,"ugen":3922,"scan":3923,"uss":3924,"Ġauto":3925,"ail":3926,"Ġuitbre":3927,"stma":3928,"Ġverleden":3929,"Ġorale":3930,"Ġnek":3931,"Ġfeb":3932,"Ġstij":3933,"ĠGoed":3934,"Ġkader":3935,"rologie":3936,"cties":3937,"ĠY":3938,"icaal":3939,"Ġvpk":3940,"HE":3941,"Ġgift":3942,"Ġmorfine":3943,"Ġsouffle":3944,"sverlies":3945,"ĠLinks":3946,"osa":3947,"ĠNE":3948,"for":3949,"Ġliggen":3950,"Ġondersteuning":3951,"ĠDaarnaast":3952,"iculair":3953,"Ġwaardoor":3954,"Ġdrupp":3955,"viezen":3956,"Ã¶":3957,"Ġverwijz":3958,"kanker":3959,"Ġoef":3960,"ĠOpmerking":3961,"otherapeut":3962,"ĠSR":3963,"Con":3964,"Ġeenmalig":3965,"ENS":3966,"Ġpac":3967,"hesiet":3968,"ster":3969,"Ġminimaal":3970,"39":3971,"egatief":3972,"elingen":3973,"ody":3974,"Ġlies":3975,"ĠMaag":3976,"lab":3977,"anderd":3978,"wond":3979,"Ġbre":3980,"ĠCentrum":3981,"oraal":3982,"Ġsterk":3983,"Ġactief":3984,"Ġwebs":3985,"Ġbeoordeling":3986,"REAT":3987,"IOS":3988,"Ġhelemaal":3989,"!)":3990,"itieve":3991,"yste":3992,"Ġgeldig":3993,"Ġmogelijke":3994,"Ġbloeddruk":3995,"ĠOL":3996,"Ġ95":3997,"ĠCZS":3998,"Ġerv":3999,"alk":4000,"Ġconsol":4001,"Ġgedilat":4002,"Ġgevolg":4003,"lam":4004,"Ġbol":4005,"odi":4006,"Ġvanavond":4007,"Ġ39":4008,"Ġdaarom":4009,"ĠHP":4010,"yth":4011,"quor":4012,"Ġchemotherapie":4013,"laagd":4014,"iaire":4015,"Ġmutatie":4016,"Ġzeker":4017,"Ġfurosemide":4018,"AZ":4019,"Ġfax":4020,"ĠVader":4021,"atrie":4022,"ĠĠĠĠĠĠĠĠĠĠĠĠĠĠĠĠĠĠĠĠĠĠĠĠĠĠĠĠĠĠĠĠĠ":4023,"rectie":4024,"chol":4025,"ĠHUISART":4026,"Cl":4027,"58":4028,"adium":4029,"rand":4030,"ININE":4031,"Ġdeels":4032,"MG":4033,"Ġbeh":4034,"Ġdrinkt":4035,"ius":4036,"Ġmaat":4037,"REATININE":4038,"ĠVeel":4039,"Ġgehele":4040,"74":4041,"tt":4042,"VUMC":4043,"Ġaandoen":4044,"Ġspraak":4045,"Ġcre":4046,"pass":4047,"oca":4048,"offen":4049,"Ġgeslapen":4050,"stenose":4051,"Ġuitgebreid":4052,"PL":4053,"Ġgegeten":4054,"Ġmetastasen":4055,"Ġfist":4056,"Ġzuurstof":4057,"ĠEvaluatie":4058,"orden":4059,"Ġvroeg":4060,"uidelijk":4061,"Ġbewustzijn":4062,"rager":4063,"Ġ&":4064,"Ġaneur":4065,"Ġzullen":4066,"Ġhepat":4067,"Ġneu":4068,"ĠUw":4069,"ylaxe":4070,"valling":4071,"SC":4072,"ĠTelef":4073,"Ġwebsite":4074,"BV":4075,"Ġlitteken":4076,"ĠToen":4077,"ĠKomt":4078,"ielen":4079,"Ġvooral":4080,"Ġ65":4081,"uls":4082,"Ġbesloten":4083,"Ġdors":4084,"balans":4085,"ĠZorg":4086,"itralis":4087,"Ġdosis":4088,"hoogd":4089,"senen":4090,"Ġwilde":4091,"ICC":4092,"entan":4093,"ĠICC":4094,"Ġhersenen":4095,"zer":4096,"ĠLocatie":4097,"Ġ34":4098,"Ġhoest":4099,"Ġaanpassen":4100,".,":4101,"Ġapotheekhoudend":4102,"Ġbehoefte":4103,"activ":4104,"ĠGew":4105,"ordt":4106,"Ġmyel":4107,"ortadem":4108,"centrum":4109,"OX":4110,"Ġpogingen":4111,"Ġsubcut":4112,"Ġwaarop":4113,"ĠAddendum":4114,"Ġdaags":4115,"resectie":4116,"Ġlet":4117,"ĠBilirub":4118,"Ġmediast":4119,"dacht":4120,"Ġlichte":4121,"cer":4122,"ysteem":4123,"sfrequentie":4124,"Ġvallen":4125,"ĠOLVG":4126,"ĠAlg":4127,"Ġmellitus":4128,"iepen":4129,"kort":4130,"Ġniveau":4131,"Ġvermoeidheid":4132,"Ġbl":4133,"registratie":4134,"Ġfles":4135,"ĠMOB":4136,"Ġkweek":4137,"Ġlichaam":4138,"ĠIII":4139,"78":4140,"ynorm":4141,"opril":4142,"ĠICD":4143,"Ġport":4144,"Ġjuli":4145,"jun":4146,"amp":4147,"anim":4148,"ĠHF":4149,"heelkunde":4150,"Ġroken":4151,"lepsie":4152,"Ġ98":4153,"rombo":4154,"Ġritme":4155,"Ġinterne":4156,"ĠLopen":4157,"past":4158,"ĠStaat":4159,"BC":4160,"fect":4161,"âĢ¦âĢ¦":4162,"problemen":4163,"Ġaanmeldcode":4164,"geheel":4165,"Ġgere":4166,"sn":4167,"upillen":4168,"Ġslechte":4169,"Ġproximale":4170,"laire":4171,"Ġoverge":4172,"Ġcoronair":4173,"Ġ69":4174,"Ġpunctie":4175,"Ã«t":4176,"positie":4177,"ateraal":4178,"Ġtraum":4179,"Ġtel":4180,"IM":4181,"ĠTPV":4182,"hals":4183,"Ġpantoprazol":4184,"ĠVrijgave":4185,"ĠHemoglobine":4186,"Ġ2008":4187,"Ġprimaire":4188,"Er":4189,"ĠSpeciele":4190,"Ġgelaat":4191,"Ġjaren":4192,"ĠGebruikt":4193,"ĠLaboratoriumonderzoek":4194,"OC":4195,"oging":4196,"repen":4197,"Ġvag":4198,"Ġfors":4199,"dit":4200,"ostoma":4201,"inc":4202,":/":4203,"Ġser":4204,"Ġnieuw":4205,"Ġapril":4206,"iculaire":4207,"Ġheden":4208,"ĠSub":4209,"icl":4210,"Ġaankle":4211,"Ġdon":4212,"Ġoverige":4213,"Ġjanuari":4214,"ĠEchter":4215,"Ġvet":4216,"Ġlaterale":4217,"ografie":4218,"cla":4219,"Ġvanmorgen":4220,"zelfde":4221,"ĠMotoriek":4222,"iment":4223,"enter":4224,"PatiÃ«nt":4225,"sle":4226,"ĠUP":4227,"ractus":4228,"aarne":4229,"blaas":4230,"Aan":4231,"dering":4232,"Ġlukt":4233,"gestuurd":4234,"ĠĠĠĠĠĠĠĠĠĠĠĠĠĠĠĠĠĠĠĠĠĠĠĠĠĠĠĠĠĠĠĠĠĠ":4235,"www":4236,"Ġprostaat":4237,"Ġnab":4238,"Ġact":4239,"Ġmilt":4240,"Ġplast":4241,"Ġcontrol":4242,"Ġbil":4243,"iverende":4244,"vatting":4245,"ĠgeÃ¯n":4246,"Ġicc":4247,"Ġcycl":4248,"roe":4249,"enuw":4250,"Ġduodenum":4251,"56":4252,"Ġzegt":4253,"Ġnogmaals":4254,"ĠEN":4255,"cur":4256,"ĠFosf":4257,"akken":4258,"Ã©Ã©n":4259,"Ġstoma":4260,"Ġgevallen":4261,"5669111":4262,"itone":4263,"Ġgeduid":4264,"viseerd":4265,"aline":4266,"onaat":4267,"uitgang":4268,"Ġmaximaal":4269,"schema":4270,"uun":4271,"Ġ54":4272,"ĠSpo":4273,"OT":4274,"KTIJK":4275,"ulitis":4276,"REATININEAMC":4277,"Ġkant":4278,"emat":4279,"ĠAO":4280,"Na":4281,"Ġimplant":4282,"Ġelke":4283,"Ġtov":4284,"ĠGeeft":4285,"ĠRelevante":4286,"ogram":4287,"Ġfront":4288,"Ġup":4289,"Ġvannacht":4290,"Ġkleur":4291,"lijke":4292,"alciferol":4293,"elat":4294,"Ġos":4295,"DS":4296,"Ġondanks":4297,"compliceerde":4298,"usc":4299,"itaties":4300,"ĠBekende":4301,"merg":4302,"Ġvervolgen":4303,"ecalciferol":4304,"hoofd":4305,"Ġ96":4306,"ijst":4307,"uze":4308,"76":4309,"Ġbroer":4310,"opedie":4311,"mand":4312,"oco":4313,"Ġtong":4314,"Ġres":4315,"Ġbasaal":4316,"ĠFDG":4317,"Ġdelen":4318,"Ġangst":4319,"Ġperiode":4320,"Ġgeval":4321,"emaker":4322,"darm":4323,"Ġech":4324,"ligging":4325,"xon":4326,"heen":4327,"Ġvena":4328,"Ġ300":4329,"ime":4330,"ĠUrine":4331,"Ġrem":4332,"Ġaandacht":4333,"ĠKle":4334,"49":4335,"Ġzagen":4336,"gb":4337,"Ġ@":4338,"Ġsms":4339,"Ġvermoed":4340,"ĠMeer":4341,"ĠActie":4342,"fl":4343,"ĠNeuro":4344,"out":4345,"Ġrecept":4346,"idine":4347,"ademing":4348,"ĠCOPD":4349,"afdeling":4350,"Ġatriumfibrilleren":4351,"Ġ97":4352,"ĠVerrichting":4353,"ui":4354,"Ġorder":4355,"compens":4356,"mentin":4357,"hyper":4358,"Ġchirurgische":4359,"Ġinsufficientie":4360,"Ġmijn":4361,"Ġpositieve":4362,"82":4363,"yel":4364,"71":4365,"ĠÂµmol":4366,"Ġerf":4367,"Ġevid":4368,"Ġdepressie":4369,"Ġreden":4370,"59":4371,"Ġceft":4372,"halatie":4373,"ĠKlin":4374,"79":4375,"PRAKTIJK":4376,"vrij":4377,"Ġevidente":4378,"persoon":4379,"Ġlev":4380,"ĠRv":4381,"Ġcomb":4382,"Ġgynaec":4383,"Ġpsychi":4384,"Ġabdom":4385,"Ġlymfeklieren":4386,"Ġoesof":4387,"86":4388,"Ġherhaal":4389,"imm":4390,"kte":4391,"Ġhoeveel":4392,"ziekte":4393,"Ġbovengenoemde":4394,"Ġinternist":4395,"Ġcyst":4396,"copie":4397,"Ġkortadem":4398,"Ġgeworden":4399,"ĠTotaal":4400,"heids":4401,"Ġlapar":4402,"Ġuitgesloten":4403,"Ġoverleden":4404,"entanyl":4405,"ABL":4406,"unten":4407,"divid":4408,"alf":4409,"loopt":4410,"ĠCAG":4411,"Ġzowel":4412,"Ġlangzaam":4413,"ĠPart":4414,"ARD":4415,"Ġ+/":4416,"ĠKlachten":4417,"fosf":4418,"coop":4419,"Ġband":4420,"naam":4421,"ofielen":4422,"ergie":4423,"mai":4424,"onderdag":4425,"Ġliter":4426,"Ġsignific":4427,"LIN":4428,"rogol":4429,"Ġtev":4430,"lator":4431,"Ġassistent":4432,"Ġdermat":4433,"Ġ[":4434,"UT":4435,"adres":4436,"gv":4437,"Ġactiviteit":4438,"arco":4439,"Ġir":4440,"agnes":4441,"Ġafhankelijk":4442,"89":4443,"ikkel":4444,"brief":4445,"ĠMSR":4446,"ĠpatiÃ«nten":4447,"ramma":4448,"Ġsecund":4449,"Ġpoeder":4450,"Ġdroog":4451,"cz":4452,"Ġbiopt":4453,"Ġsus":4454,"wv":4455,"Ġsedatie":4456,"Ġlongembolie":4457,"Ġnieren":4458,"Ġinfarct":4459,"otte":4460,"Ġmeth":4461,"pm":4462,"Ġrustige":4463,"ocarcinoom":4464,"Ġwit":4465,"Ġtab":4466,"Ġpericard":4467,"Ã«le":4468,"BO":4469,"Ġbeoordeeld":4470,"ectio":4471,"ĠThrombo":4472,"Ġaangemeld":4473,"ow":4474,"Ġander":4475,"gew":4476,"ding":4477,"41":4478,"gesproken":4479,"Ġsympt":4480,"Ġhiervan":4481,"Ġpneumothorax":4482,"IL":4483,"ĠControles":4484,"Ġhecht":4485,"werking":4486,"Ġvd":4487,"://":4488,"gesprek":4489,"stellen":4490,"Ġantistolling":4491,"IMA":4492,"Ġfrax":4493,"Ġnood":4494,"Ġgeboorte":4495,"Ġpancreat":4496,"Ġalhier":4497,"Ġoude":4498,"Ġokt":4499,"uwen":4500,"Ġfys":4501,"itief":4502,"Ġzat":4503,"Waarde":4504,"cal":4505,"los":4506,"Ġstress":4507,"edel":4508,"Ġpara":4509,"ĠADL":4510,"pan":4511,"ilisatie":4512,"Ġmetoprolol":4513,"ĠExtremiteiten":4514,"54":4515,"Ġadem":4516,"83":4517,"olom":4518,"Ġ444":4519,"Ġnar":4520,"zetten":4521,"Ġ32":4522,"Ġcalcium":4523,"iafrag":4524,"houdende":4525,"Ġschildklier":4526,"antal":4527,"Ġdunne":4528,"agnesium":4529,"iduraal":4530,"Ġ1105":4531,"ĠDrain":4532,"Ġpulmonale":4533,"verlener":4534,"ĠĠĠĠĠĠĠĠĠĠĊ":4535,"iatie":4536,"PS":4537,"Ġok":4538,"ation":4539,"Ġepis":4540,"geleken":4541,"63":4542,"Ġaangevraagd":4543,"Ġsluiten":4544,"Ġveranderingen":4545,"ĠGed":4546,"ĠÂłĠĠĠ":4547,"Ġlongen":4548,"ĠHoofdbehandelaar":4549,"akket":4550,"ĠVerdenking":4551,"Ġroodheid":4552,"Ġthe":4553,"Ġontstaan":4554,"Ġschema":4555,"toond":4556,"Ġaanleg":4557,"Med":4558,"ĠVAN":4559,"va":4560,"Ġvanmiddag":4561,"ĠNaam":4562,"Ġuterus":4563,"ofenac":4564,"ju":4565,"Ġzodat":4566,"boven":4567,"Ġverminderd":4568,"IO":4569,"roductie":4570,"raagt":4571,"isje":4572,"Ġgereg":4573,"iclofenac":4574,"Ġspoelen":4575,"Ġmetastase":4576,"ĠDE":4577,"84":4578,"Ġbehouden":4579,"ĠOverleg":4580,"rale":4581,"ese":4582,"ĠBuik":4583,"Ġhierna":4584,"ffen":4585,"Ġtraject":4586,"Ġspontane":4587,"Ġnas":4588,"Ġmidden":4589,"51":4590,"moid":4591,"racturen":4592,"isme":4593,"Ac":4594,"eggen":4595,"Ġ81":4596,"Ġbegon":4597,"oler":4598,"veld":4599,"fort":4600,"zijde":4601,"ĠDNA":4602,"Ġtoont":4603,"inn":4604,"Ġfer":4605,"Ġontwikkeling":4606,"lopen":4607,"Ġmon":4608,"metastasen":4609,"Ġelders":4610,"Ġoc":4611,"ines":4612,"monitor":4613,"uigen":4614,"ruct":4615,"ventie":4616,"Ġeventuele":4617,"riaxon":4618,"Ġpoly":4619,"isterende":4620,"rip":4621,"adviseerd":4622,"Ġgehe":4623,"Ġrollator":4624,"probleem":4625,"ĠCalcium":4626,"vloed":4627,"Ġadvis":4628,"ĠHUISARTSEN":4629,"Ġonc":4630,"62":4631,"oster":4632,"zeker":4633,"ĠPCM":4634,"42":4635,"Ġmamm":4636,"lexen":4637,"Ġaandoening":4638,"ĠHD":4639,"Ġneem":4640,"normale":4641,"________________________":4642,"Ġfrequ":4643,"beleid":4644,"ecatie":4645,"aban":4646,"ĠActiv":4647,"Ġoxy":4648,"YL":4649,"57":4650,"Ġvlak":4651,"Ġmuc":4652,"2014":4653,"ĠSamen":4654,"Ġdanwel":4655,"Ġobservatie":4656,"poli":4657,"leen":4658,"Ġ2007":4659,"pus":4660,"Ġpersoon":4661,"elect":4662,"VC":4663,"Ġlis":4664,"Ġcave":4665,"Ġdilatatie":4666,"Ġneuroloog":4667,"Di":4668,"Ġgister":4669,"Ġoverwegen":4670,"ĠNT":4671,"elkolom":4672,"?)":4673,"oekom":4674,"ustus":4675,"Ġgelu":4676,"max":4677,"plande":4678,"Ġberichten":4679,"Ġaneurysma":4680,"200":4681,"emische":4682,"bumine":4683,"cces":4684,"gene":4685,"Ġtweede":4686,"Ġlekker":4687,"Ġspoed":4688,"ISCHE":4689,"czeem":4690,"raakt":4691,"Dossier":4692,"Ġstadium":4693,"Ġinhalatie":4694,"ĠINR":4695,"Ġgebeur":4696,"Ġtrauma":4697,"Ġvorm":4698,"wez":4699,"oopt":4700,"Ġlag":4701,"Ġcordis":4702,"Ġgesloten":4703,"Ġbact":4704,"ĠVerpleegkundige":4705,"Ġdiameter":4706,"ets":4707,"Ġpathologie":4708,"Ġalgemene":4709,"Ġ400":4710,"Ġtrek":4711,"72":4712,"OSC":4713,".-":4714,"ĠAantal":4715,"Ġingel":4716,"ĠMI":4717,"TC":4718,"cardi":4719,"ĠSl":4720,"Ġdiver":4721,"ABLET":4722,"haald":4723,"ĠComplicaties":4724,"ruari":4725,"ronken":4726,"gewicht":4727,"Ġstem":4728,"weeg":4729,"abdomen":4730,"beper":4731,"lyc":4732,"Ġtoenem":4733,"Ġoverdag":4734,"ĠAanvullende":4735,"oestand":4736,"uleerd":4737,"ONDER":4738,"ĠVit":4739,"Ġ33":4740,"ober":4741,"Ġfamil":4742,"Ġwilt":4743,"ĠTotale":4744,"Ġbelt":4745,"ĠInfectie":4746,"Ġreum":4747,"ENTR":4748,"ĠRechter":4749,"ouden":4750,"oli":4751,"Ġster":4752,"Ġpos":4753,"nestisch":4754,"Ġastma":4755,"Ġvir":4756,"mede":4757,"tern":4758,"Ġax":4759,"ĠDan":4760,"iclo":4761,"yten":4762,"Ġnarcose":4763,"Ġaccepteren":4764,"rust":4765,"Ġij":4766,"ethason":4767,"iaz":4768,"dienst":4769,"Ġpolsfrequentie":4770,"Ġwerkt":4771,"lox":4772,"Ġletsel":4773,"Ġartritis":4774,"Ġfocus":4775,"nier":4776,"alist":4777,"Ġaanvullend":4778,"raining":4779,"Ġophogen":4780,"Ġhtt":4781,"ĠNaCl":4782,"Ġdialyse":4783,"ĠActueel":4784,"Ġperifeer":4785,"ĠPolsslag":4786,"Ġbelangrijk":4787,"daar":4788,"ĠFT":4789,"Ġmateriaal":4790,"ocument":4791,"Ġgekomen":4792,"actor":4793,"53":4794,"ĠAH":4795,"ĠEet":4796,"Ġweke":4797,"ites":4798,"wer":4799,"ĠIntensive":4800,"emd":4801,"spiratoir":4802,"Ġonderstaande":4803,"Ġricht":4804,"Ġpathologische":4805,"Ġsystolische":4806,"Ġsoepele":4807,"hesiologie":4808,"sduur":4809,"Ġobstipatie":4810,"stik":4811,"urale":4812,"Ġbiopten":4813,"Ġtoegang":4814,"ĠRet":4815,"Ġrespiratoire":4816,"ison":4817,"ENTRUM":4818,"ĠUreum":4819,"Ġepilepsie":4820,"reerd":4821,"52":4822,"ieel":4823,"spro":4824,"behoefte":4825,"werker":4826,"geschreven":4827,"Ġtoediening":4828,"eef":4829,"Ġscler":4830,"umarol":4831,"RD":4832,"ning":4833,"ĠCH":4834,"Ġplassen":4835,"Ġincisie":4836,"stoestand":4837,"ĠBas":4838,"ronisch":4839,"Ġpoliklinisch":4840,"ĠHematologie":4841,"ĠDag":4842,"Ġide":4843,"lacht":4844,"Ġkiezen":4845,"========":4846,"Ġhist":4847,"falen":4848,"hersenen":4849,"enoco":4850,"Ġonveranderd":4851,"sh":4852,"Ġuite":4853,"insdag":4854,"ĠDer":4855,"ĠVT":4856,"Ġeetlust":4857,"46":4858,"ĠTractus":4859,"Rv":4860,"Ġ140":4861,"cran":4862,".)":4863,"Ġ***":4864,"ZO":4865,"verm":4866,"Ġparese":4867,"ĠHelder":4868,"43":4869,"pleegkundig":4870,"esch":4871,"ularis":4872,"ĠÃ©Ã©n":4873,"Ġdistaal":4874,"Ġgraden":4875,"Ġduur":4876,"ocarditis":4877,"wisselen":4878,"Ġoverplaatsing":4879,"Ġaanvullende":4880,"bra":4881,"',":4882,"oude":4883,"voet":4884,"sluiting":4885,"96":4886,"Ġnummer":4887,"Niet":4888,"licht":4889,"reekt":4890,"situatie":4891,"aterale":4892,"hyd":4893,"Ġvoel":4894,"Ġverlaagd":4895,"Ġduizeligheid":4896,"reekuur":4897,"Mw":4898,"Ġslechts":4899,"ĠEp":4900,"ĠMictie":4901,"CHT":4902,"Ġkweken":4903,"ALG":4904,"ontrole":4905,"Ġvoorkomen":4906,"RAAT":4907,"Ġlastig":4908,"Ġju":4909,"ĠIom":4910,"Ġoss":4911,"ĠPO":4912,"Risico":4913,"ponent":4914,"bv":4915,"Ġges":4916,"ĠNRS":4917,"ometrie":4918,"Ġmes":4919,"Opname":4920,"aking":4921,"ĠWilt":4922,"middelen":4923,"Ġkliniek":4924,"93":4925,"amide":4926,"Ġinc":4927,"Ġpresentatie":4928,"gaande":4929,"Ġ55":4930,"Ġstruct":4931,"enocoumarol":4932,"VD":4933,"Ġinmiddels":4934,"ulier":4935,"Ġpen":4936,"Ġmultipele":4937,"ĠOnderdeel":4938,"ĠGer":4939,"Ġrib":4940,"des":4941,"isende":4942,"ĠLicht":4943,"OPIE":4944,"issie":4945,"enst":4946,"raai":4947,"pos":4948,"Ġeryth":4949,"generatie":4950,"Norm":4951,"seg":4952,"Ġdrainage":4953,"ĠPoliklin":4954,"Ġpartus":4955,"Inter":4956,"Ġfoto":4957,"Ġslok":4958,"EC":4959,"Ġhiermee":4960,"blad":4961,"Ġproef":4962,"gebied":4963,"Ġ250":4964,"Ġverklaring":4965,"Ġvoed":4966,"ĠDie":4967,"Ġbeeldvorming":4968,"Ġopzicht":4969,"Ġzichzelf":4970,"ĠVolgens":4971,"kelijk":4972,"Ġrolstoel":4973,"inet":4974,"ack":4975,"oscopische":4976,"Ġmelden":4977,"leboog":4978,"Ġambul":4979,"ĠCTG":4980,"Ġmicrogr":4981,"ateur":4982,"Ġbehandelteam":4983,"odig":4984,"ĠHierna":4985,"Ġresultaten":4986,"LOED":4987,"top":4988,"angi":4989,"esterol":4990,"hin":4991,"Ġlangdur":4992,"Ġcardiologie":4993,"VE":4994,"Ġvanochtend":4995,"Ġrelatie":4996,"Ġuitval":4997,"LD":4998,"Ġmaaltijd":4999,"endossier":5000,"Ġsinusritme":5001,"Ġjeuk":5002,"ĠZijn":5003,"ĠSensibiliteit":5004,"Ġcons":5005,"ĠpatiÃ«ntendossier":5006,"Pijn":5007,"Ġrand":5008,"omatisch":5009,"Ġtoege":5010,"Ġvitale":5011,"Gebruik":5012,"Ġgedronken":5013,"Ġpostoperatief":5014,"Ġeens":5015,"vuld":5016,"astom":5017,"Ġvisus":5018,"Ġlymfoom":5019,"Ġpleister":5020,"igt":5021,"ĠĠÂł":5022,"osin":5023,"ĠLong":5024,"Ġfistel":5025,"ue":5026,"Ġdiafrag":5027,"rijgt":5028,"Ġhypert":5029,"Ġgenet":5030,"Ġuro":5031,"oeld":5032,"Ġmeto":5033,"Ġvalt":5034,"oedeisende":5035,"Ġopzichte":5036,"ORM":5037,"ĠVal":5038,"selen":5039,"Ġhttps":5040,"Ġuitwisselen":5041,"Ġmitralis":5042,"merkt":5043,"segment":5044,"prob":5045,"Ġwisselende":5046,"GIE":5047,"ĠDiabetes":5048,"ĠSla":5049,"ĠAT":5050,"ĠEerder":5051,"ĠPEG":5052,"Ġgedrag":5053,"ĠHUISARTSENPRAKTIJK":5054,"Ġnauw":5055,"Ġhartas":5056,"Ġongewijzigd":5057,"Ġontsteking":5058,"Ġeigenlijk":5059,"ĠMED":5060,"ladres":5061,"cepten":5062,"otrim":5063,"ĠPt":5064,"ĠRadi":5065,"ole":5066,"ĠTSH":5067,"via":5068,"recepten":5069,"ĠTra":5070,"Ġgl":5071,"Ġgenomen":5072,"Ġtpv":5073,"Ġcomple":5074,"merken":5075,"oonde":5076,"ĠDiagnoseDatum":5077,"Ġvitamine":5078,"Ġsuper":5079,"Ġtrap":5080,"echniek":5081,"Ġhierover":5082,"Ġ64":5083,"Ġfocale":5084,"celcarcinoom":5085,"ĠOVER":5086,"Ġopnam":5087,"ĠDosis":5088,"lastiek":5089,"paraat":5090,"hesioloog":5091,"Ġverne":5092,"ĠCor":5093,"Ġdicht":5094,"Ġslank":5095,"biopt":5096,"Ġ2006":5097,"ocardi":5098,"Ġbijna":5099,"Ġweefsel":5100,"Ġ42":5101,"iliac":5102,"Ġvoorbere":5103,"ikbaar":5104,"Ġonrust":5105,"ecialist":5106,"liggende":5107,"dex":5108,"ĠLog":5109,"oens":5110,"ĠDatumWaarde":5111,"61":5112,"Ġlog":5113,"Ġvoorkeur":5114,"Ġmomenteel":5115,"Ġovar":5116,"ymptomen":5117,"OND":5118,"Ġzieke":5119,"Ġlateraal":5120,"Ġprikken":5121,"ĠVOOR":5122,"mailadres":5123,"angen":5124,"Naar":5125,"ophagus":5126,"Ġinschrij":5127,"sche":5128,"Ġ85":5129,"Ġwk":5130,"ĠImplant":5131,"ĠTTE":5132,"47":5133,"ĠWaar":5134,"Ġneurologisch":5135,"kers":5136,"Ġpo":5137,"ĠEH":5138,"Ġonrustig":5139,"Ġdelier":5140,"Ġgeheel":5141,"ĠĠĠĠĠĠĠĠĠĠĠĠĠĠĠĠĠĠĠ":5142,"Ġperifere":5143,"KA":5144,"ĠAfgesproken":5145,"Ġopgehoogd":5146,"Ġscopie":5147,"izaam":5148,"ollen":5149,"ĠTABLET":5150,"tig":5151,"Ġdoel":5152,"Ġtrache":5153,"Ġoverzicht":5154,"latie":5155,"Ġlange":5156,"groep":5157,"Ġgelegen":5158,"gs":5159,"Ġdet":5160,"kies":5161,"Ġtrombose":5162,"Ġsteun":5163,"91":5164,"Ġlip":5165,"Ġgebraakt":5166,"MO":5167,"Ġlas":5168,"Ġkreat":5169,"Nieuwe":5170,"Ġseptember":5171,"Interne":5172,"Ġskelet":5173,"ĠKREATININEAMC":5174,"Ġgrootte":5175,"Ġaugustus":5176,"ĠPlaat":5177,"amethason":5178,"pende":5179,"Ġvermoedelijk":5180,"AF":5181,"Ġderhalve":5182,"chl":5183,"Ġ72":5184,"Ġelekt":5185,"Ġwkn":5186,"Ġveneuze":5187,"Ġversle":5188,"ĠQRS":5189,"intest":5190,"br":5191,"Ġafgevallen":5192,"Ġkuren":5193,"Ġaangepast":5194,"Ġgelopen":5195,"ĠSMS":5196,"SV":5197,"rox":5198,"Ġaangetoond":5199,"Ġcombinatie":5200,"gezien":5201,"ZOEK":5202,"zit":5203,"Ġinterventie":5204,"Ġlijst":5205,"drupp":5206,"arese":5207,"stij":5208,"Ġgepr":5209,"Ġgezet":5210,"Ġdonderdag":5211,"Ġproblematiek":5212,"oensdag":5213,"lept":5214,"Ġproductie":5215,"Ġsyn":5216,"Ġcarb":5217,"Ġnegatieve":5218,"ĠTR":5219,"hesietechniek":5220,"Hem":5221,"etrie":5222,"Ġinname":5223,"Ġidee":5224,"PD":5225,"Individ":5226,"Ġcran":5227,"Ġstabiele":5228,"but":5229,"Ġverdw":5230,"Ġverz":5231,"akantie":5232,"Ġgezond":5233,"Ġcogn":5234,"ĠZw":5235,"Ġflink":5236,"animatie":5237,"Ġdecompens":5238,"rd":5239,"transplantatie":5240,"Ġminimale":5241,"Ġ99":5242,"Ġkap":5243,"Ġhern":5244,"inopril":5245,"Ġeczeem":5246,"Ġthuiszorg":5247,"maakte":5248,"ĠLinker":5249,"ities":5250,"inter":5251,"ziekenhuis":5252,"nu":5253,"Ġproces":5254,"Ġfysiotherapie":5255,"Ġhoudt":5256,"BE":5257,"Ġdyspneu":5258,"otensie":5259,"Ġuiteindelijk":5260,"OSCOPIE":5261,"Ġverlen":5262,"idief":5263,"Ġdiurese":5264,"Ġfebruari":5265,"Ġmacrogol":5266,"Ġvoorwaarden":5267,"ĠBehandeling":5268,"ĠZelf":5269,"vr":5270,"vla":5271,"SS":5272,"Ġcentrale":5273,"Ġetc":5274,"ĠBewustzijn":5275,"ONDERZOEK":5276,"Ġblok":5277,"patroon":5278,"Ġiedere":5279,"omat":5280,"erieur":5281,"lopend":5282,"versie":5283,"Ġ68":5284,"beoordeling":5285,"Ġrespons":5286,"Ġtrans":5287,"Ġcip":5288,"4444444":5289,"schijnselen":5290,"ediment":5291,"ĠSc":5292,"Ġdrukpijnlijk":5293,"line":5294,"yspnoe":5295,"ĠPE":5296,"ikte":5297,"ĠRC":5298,"emp":5299,"Ġvolgen":5300,"bus":5301,"lijkt":5302,"otion":5303,"Ġsectio":5304,"Ġgips":5305,"benen":5306,"olatie":5307,"Ġ84":5308,"carb":5309,"Ġprima":5310,"keken":5311,"Ġpcm":5312,"ochter":5313,"Ġspiegel":5314,"Ġintermed":5315,"rakt":5316,"Ġvloe":5317,"Volwassenen":5318,"Ġoxynorm":5319,"erb":5320,"chi":5321,"ĠBM":5322,"Ġverbeterd":5323,"imab":5324,"Ons":5325,"Ġgecon":5326,"Ġveranderd":5327,"ĠActieve":5328,"Ġherhaalrecepten":5329,"ĠZit":5330,"ddAN":5331,"Ġzalf":5332,"echt":5333,"Ġwon":5334,"lasse":5335,"Ġschoon":5336,"waarvoor":5337,"gd":5338,"Ã¨":5339,"ĠJa":5340,"Ġrecidiverende":5341,"bloeding":5342,"mmol":5343,"Ġoogt":5344,"Ġcomponent":5345,"Ġdubbel":5346,"Ġgeori":5347,"ĠToestemming":5348,"Ġmeten":5349,"iop":5350,"Ġgemetastase":5351,"ĠDatumOns":5352,"Ġenergie":5353,"Ġwervelkolom":5354,"Pro":5355,"Ġnut":5356,"odynam":5357,"vir":5358,"Ġalgehele":5359,"ĠVervolg":5360,"diff":5361,"osp":5362,"Ġslijmvlies":5363,"Ġisoc":5364,"Ġbev":5365,"Ġse":5366,"Ġepisode":5367,"idazol":5368,"centa":5369,"ogd":5370,"wegings":5371,"Ġdingen":5372,"BR":5373,"heeft":5374,"An":5375,"MSR":5376,"iparine":5377,"accept":5378,"Ġprop":5379,"Ġbo":5380,"water":5381,"alg":5382,"Ġverh":5383,"Ġafgebouwd":5384,"chym":5385,"Ġplannen":5386,"ĠHersen":5387,"erus":5388,"som":5389,"Ġwoont":5390,"%)":5391,"Negatief":5392,"Ġverward":5393,"Ġrad":5394,"44411":5395,"kweken":5396,"Ġoper":5397,"witch":5398,"ĠDhr":5399,"Ġdw":5400,"HD":5401,"oorden":5402,"electase":5403,"Ġallerg":5404,"ha":5405,"Ġpuls":5406,"Ġmeisje":5407,"Ġanesthesietechniek":5408,"Ġverwacht":5409,"Onder":5410,"ecifieke":5411,"ÂłÂłĠ":5412,"Ġceftriaxon":5413,"Ġklaar":5414,"Ġbeveilig":5415,"Ġdraa":5416,"Ġvasc":5417,"Ġsuppletie":5418,"Ġmoeizaam":5419,"ĠOverweging":5420,"bron":5421,"isite":5422,"....":5423,"Ġvulling":5424,"Acute":5425,"LINISCHE":5426,"ĠHyp":5427,"Ġgelukt":5428,"Ġmening":5429,"ĠCareVolwassenen":5430,"Ġgeboortedatum":5431,"ĠPte":5432,"ĠEerste":5433,"lap":5434,"ĠSoms":5435,"gressie":5436,"outen":5437,"EE":5438,"Ġ+,":5439,"OLOL":5440,"ume":5441,"Ġarteria":5442,"Ġafwezig":5443,"ĠBer":5444,"ĠBijzonderheden":5445,"Ġwarme":5446,"ĠER":5447,"ĠBehandel":5448,"ĠMCV":5449,"Ġ63":5450,"Ġvoorgeschreven":5451,"Ġoesofagus":5452,"Ġwant":5453,"ogeen":5454,"Ġingezet":5455,"ĠWordt":5456,"Ġremissie":5457,"idog":5458,"Ġpoliep":5459,"ameters":5460,"Ġincontin":5461,"MijnDossier":5462,"ĠSat":5463,"Ġget":5464,"lanke":5465,"oris":5466,"bo":5467,"Ġechtgenote":5468,"slikken":5469,"Ġgeadviseerd":5470,"arde":5471,"Ġvoort":5472,"Ġjongen":5473,"Ġtub":5474,"zing":5475,"ĠRT":5476,"Ã¶rd":5477,"idogrel":5478,"ĠVanaf":5479,"FT":5480,"ĠEl":5481,"Ġprofylaxe":5482,"Ġdenkt":5483,"Ġand":5484,"Ġconclusie":5485,"ORT":5486,"Status":5487,"SD":5488,"uff":5489,"ucht":5490,"pomp":5491,"Ġout":5492,"Ġvisite":5493,"Ġdecember":5494,"Overzicht":5495,"icine":5496,"Ġmedicam":5497,"zenden":5498,"kent":5499,"ĠTransf":5500,"Ġtransfer":5501,"ĠCol":5502,"ĠALG":5503,"ĠAt":5504,"ieve":5505,"atte":5506,"ocrin":5507,"Ġcatheter":5508,"ĠSedatie":5509,"Ġ130":5510,"isicof":5511,"Ġschedel":5512,"Ġgewichtsverlies":5513,"aise":5514,"Ġonthoud":5515,"ĠAfdeling":5516,"gn":5517,"Ġneurologische":5518,"Ġmeneer":5519,"otische":5520,"ĠAlcoholgebruik":5521,"Ġbovenstaande":5522,"zy":5523,"orie":5524,"Ġstro":5525,"Ġonduidelijk":5526,"MR":5527,"Ġtube":5528,"ĠVerm":5529,"ĠÂłĠĠ":5530,"ookt":5531,"Ġkalium":5532,"acarcinoom":5533,"Te":5534,"ĠNe":5535,"ĠCON":5536,"Ġ94":5537,"ĠConsult":5538,"ynt":5539,"Ġverzenden":5540,"waking":5541,"Ġbeelden":5542,"OVID":5543,"ĠGamma":5544,"ilie":5545,"Ġslik":5546,"1000":5547,"Ġcholec":5548,"ĠWD":5549,"Ġnon":5550,"astomose":5551,"hep":5552,"schapp":5553,"diagnose":5554,"grens":5555,"Ġgevolgd":5556,"ofol":5557,"ĠWHO":5558,"Ġascites":5559,"Ġfijn":5560,"ĠPS":5561,"eding":5562,"Ġileum":5563,"resp":5564,"gan":5565,"zenuwen":5566,"Ġlymfklier":5567,"Ġliquor":5568,"sluiten":5569,"its":5570,"ĠVAG":5571,"Ġ88":5572,"atoir":5573,"ĠMET":5574,"ĠEle":5575,"AK":5576,"iva":5577,"illende":5578,"ĠLVF":5579,"controleer":5580,"egalie":5581,"ĠPAC":5582,"Ġbepalen":5583,"Ġleverziekten":5584,"ogene":5585,"volgt":5586,"oralis":5587,"ĠLijkt":5588,"stabiel":5589,"Ġvertelt":5590,"Ġfentanyl":5591,"Ġwachtwoord":5592,"Ġaankleuring":5593,"Ġdinsdag":5594,"GEN":5595,"Ġ58":5596,"Ġhyd":5597,"ĠOP":5598,"ess":5599,"rijf":5600,"accinatie":5601,"Ã¯ne":5602,"92":5603,"ZU":5604,"ĠAanwezig":5605,"Ġgebruikers":5606,"Ġpersisterende":5607,"neus":5608,"kin":5609,"Ġ46":5610,"alsnog":5611,"steld":5612,"itas":5613,"enteus":5614,"ĠZeer":5615,"akkelijk":5616,"Ã«tist":5617,"sklachten":5618,"voorbeeld":5619,"Ġblanco":5620,"Ġadviezen":5621,"Ġy":5622,"probeerd":5623,"ĠBehandeld":5624,"Ġdrugs":5625,"Ġpostoperatieve":5626,"ĠEMV":5627,"Ġintubatie":5628,"Ġ56":5629,":-":5630,"ABG":5631,"lopidogrel":5632,"ympan":5633,"Ġgebruikersnaam":5634,"tend":5635,"ĠKrijgt":5636,"Ġmsec":5637,"âĢĻ)":5638,"bed":5639,"VO":5640,"Ġgef":5641,"Ġpijnlijke":5642,"Ġ2005":5643,"lass":5644,"uil":5645,"Ġbeveiligings":5646,"Met":5647,"Ġwens":5648,"ĠActivatie":5649,"Stuur":5650,"Ġprogressieve":5651,"Ġactiveert":5652,"geld":5653,"cort":5654,"ĠFamilieanamnese":5655,"Ġingelogd":5656,"Ġgene":5657,"digen":5658,"passing":5659,"eff":5660,"Ġvoelen":5661,"Ġlekkage":5662,"Ġstreef":5663,"Ġbeveiligingsvraag":5664,"Ġip":5665,"wen":5666,"Ġureter":5667,"ĠActivatieMijnDossier":5668,"atale":5669,"ook":5670,"kopp":5671,"ROM":5672,"ĠUitgebre":5673,"Ġmamma":5674,"?:":5675,"Ġsach":5676,"Ġ41":5677,"Ġnachts":5678,"Ġrecht":5679,"Ġwaargenomen":5680,"genitaal":5681,"Ġgebruiker":5682,"Ġobstructie":5683,"ĠVZ":5684,"Ġsucces":5685,"Ġintraven":5686,"Or":5687,"Ġendomet":5688,"Ġgemetastaseerd":5689,"Ġwerken":5690,"pleg":5691,"incip":5692,"ĠNS":5693,"kundige":5694,"advies":5695,"Ġdiepe":5696,"Ġontslagen":5697,"no":5698,"oxicilline":5699,"Ġprobleemlijst":5700,"Ġzak":5701,"Ġgezicht":5702,"BD":5703,"?âĢĻ)":5704,"Ġoktober":5705,"idose":5706,"Ġpacemaker":5707,"Ġproductief":5708,"Ġcorrectie":5709,"ĠCABG":5710,"Ġfunctioneren":5711,"Ġpancreatitis":5712,"Ġmonitor":5713,"Ġ62":5714,"MRI":5715,"Ġrectum":5716,"Ġtensie":5717,"Ġmetab":5718,"ket":5719,"ĠContinu":5720,"druppels":5721,"Ġmelk":5722,"Ġcur":5723,"ĠAIOS":5724,"POL":5725,"amcvumc":5726,"amcvumcdossier":5727,"ĠWee":5728,"Ġfemur":5729,"mijnamcvumcdossier":5730,"ĠPICC":5731,"Ġtro":5732,"agnostiek":5733,"atin":5734,"Ġoogarts":5735,"acine":5736,"rik":5737,"ĠBeg":5738,"Ġsubcutaan":5739,"Ġkinderarts":5740,"Ġdoorg":5741,"tel":5742,"Ġkcal":5743,"Ġverpleeg":5744,"INT":5745,"Ġaanval":5746,"ĠFol":5747,"Ġmail":5748,"ĠNieuwe":5749,"Ġhoeveelheid":5750,"Ġprincip":5751,"bezoek":5752,"Ġvakantie":5753,"Ġretro":5754,"ĠBilirubine":5755,"Ġ67":5756,"Ġscherp":5757,"Ġhalen":5758,"STRAAT":5759,"Ġplekken":5760,"Ġreflux":5761,"Ġtherapeut":5762,"Ġnec":5763,"Ġmalaise":5764,"Ġpremat":5765,"Ġ92":5766,"ĠCentraal":5767,"Ġ74":5768,"ĠNEU":5769,"Ġonderbeen":5770,"Ġklep":5771,"foratie":5772,"Ġ76":5773,"ete":5774,"Ġgeleid":5775,"Ġkatheter":5776,"ĠBekend":5777,"omegalie":5778,"Ġvond":5779,"Ġaanvallen":5780,"Ġfrontaal":5781,"Ġgesteld":5782,"neg":5783,"Ġlumb":5784,"stat":5785,"PI":5786,"Ġneut":5787,"ition":5788,"2013":5789,"Ġtint":5790,"ĠSpecialisme":5791,"Ġ66":5792,"NS":5793,"Ġcommun":5794,"Ġcav":5795,"ĠHV":5796,"Het":5797,"Ġbeenmerg":5798,"Ġgeoper":5799,"Ġnauwelijks":5800,"bewegingen":5801,"Ġduct":5802,"Ġ59":5803,"Ġalgemeen":5804,"Ġvoedings":5805,"Ġimplantatie":5806,"Ġtonen":5807,"Ġelkaar":5808,"Ġonbekend":5809,"seud":5810,"Ġvergrote":5811,"bro":5812,"sup":5813,"lever":5814,"Ġonderzoeken":5815,"Ġ44":5816,"Ġ78":5817,"oxazol":5818,"PO":5819,"spatroon":5820,"ĠOx":5821,"velden":5822,"Ġslaapt":5823,"verband":5824,"Ġstellen":5825,"Zorg":5826,"prothese":5827,"Anest":5828,"Ġascal":5829,"Ġvas":5830,"Ġduizelig":5831,"ĠVert":5832,"ĠUMC":5833,"Ġhev":5834,"RT":5835,"Ġprincipe":5836,"iasis":5837,"ĠVocht":5838,"Ġsupra":5839,"Ġvle":5840,"Ġmate":5841,"ĠAlgeheel":5842,"CRP":5843,"Ġgevoelig":5844,"balie":5845,"zalf":5846,"igh":5847,"Ġmn":5848,"Ġvolledige":5849,"gevoel":5850,"esthesie":5851,"mob":5852,"Ġverliep":5853,"Ġlact":5854,"verslag":5855,"middel":5856,"Ġgalwegen":5857,"gas":5858,"ĠÃ":5859,"ĠSpoedeisende":5860,"Ġgezw":5861,"ĠPlast":5862,"cap":5863,"mogelijk":5864,"ysiotherapeut":5865,"Ġtop":5866,"ĠHr":5867,"Ġbpm":5868,"ĠRA":5869,"ille":5870,"goed":5871,"ypische":5872,"Ġcomplicatie":5873,"ĠOntlasting":5874,"ement":5875,"isterend":5876,"ĠLoc":5877,"Ã«nteerd":5878,"Ġachteruitgang":5879,"pleging":5880,"istentie":5881,"zo":5882,"edi":5883,"Ġbegrij":5884,"ĠGeringe":5885,"elfunctie":5886,"Ġambulance":5887,"Ġhog":5888,"observatie":5889,"ay":5890,"Ġspreken":5891,"Ġ2000":5892,"Ġdiet":5893,"ĠSupervisie":5894,"Ġgrond":5895,"Ġ73":5896,"Ġzwaar":5897,"Ġmaximale":5898,"ipine":5899,"ĠParacetamol":5900,"Ġascendens":5901,"Chirurgie":5902,"ĠCMV":5903,"nomen":5904,"Ġtijdelijk":5905,"vaat":5906,"ĠGeld":5907,"Ġallergie":5908,"schien":5909,"Ġtabblad":5910,"ĠBK":5911,"cten":5912,"NE":5913,"informatie":5914,"Ġverwijzen":5915,"Ġnierinsufficientie":5916,"tje":5917,"Ġdiclofenac":5918,"Tijd":5919,"Ġpus":5920,"Ġpolsslag":5921,"MACH":5922,"ĠVolgende":5923,"welling":5924,"maak":5925,"Ġinschrijf":5926,"ĠReflexen":5927,"ĠCOVID":5928,"post":5929,"ĠVanwege":5930,"Ġkoude":5931,"ymfocyten":5932,"Ġvari":5933,"Ġincident":5934,"ĠĠĠĠĠĠĠĠĠĠĠĠĠĠĠĠĠĠĠĠĠ":5935,"Ġhoor":5936,"Ġverdragen":5937,"abele":5938,"Ġingen":5939,"onocyten":5940,"gebracht":5941,"wk":5942,"fen":5943,"ĠAfspraak":5944,"tekend":5945,"oever":5946,"Ġmiddel":5947,"ĠImm":5948,"Ġsal":5949,"Ġ(!)":5950,"spanning":5951,"melden":5952,"ustige":5953,"insufficiÃ«ntie":5954,"Ġovervulling":5955,"Ġ57":5956,"oxaban":5957,"use":5958,"isicofactoren":5959,"Ġcarcinoom":5960,"huid":5961,"Ġwaarden":5962,"gezet":5963,"Ġelleboog":5964,"geving":5965,"othyre":5966,"Ġanastomose":5967,"Ġlocatie":5968,"MM":5969,"ICATIE":5970,"Ġmar":5971,"ĠPR":5972,"waarschijnlijk":5973,"ĠMoe":5974,"Ġdal":5975,"Ġhelpt":5976,"olyse":5977,"Ġbang":5978,"ĠnierinsufficiÃ«ntie":5979,"Ġdoorgemaakt":5980,"Ġbezig":5981,"ĠPolsf":5982,"Ġkortademig":5983,"ilatie":5984,"Ġhematurie":5985,"maag":5986,"Ġvaten":5987,"Lengte":5988,"Ġprednisolon":5989,"Ġingenomen":5990,"Ġfrequentie":5991,"Ġipv":5992,"Ġtoonde":5993,"amnestisch":5994,"ĠNeurologie":5995,"Ġpan":5996,"Ġdiffuus":5997,"Ġnatrium":5998,"Ġnabloed":5999,"ĠLever":6000,"Ġernstig":6001,"Ġzetten":6002,"ANT":6003,"KUN":6004,"durend":6005,"Ġmeen":6006,"Ġdes":6007,"dip":6008,"Ġthans":6009,"Ġverzorging":6010,"bewijs":6011,"ĠExtra":6012,"ME":6013,"opor":6014,"Ġdra":6015,"Ġbehandelend":6016,"ococ":6017,"Ġstern":6018,"indicatie":6019,"ĠThorax":6020,"IF":6021,"Ġpijnmedicatie":6022,"ĠMC":6023,"OLON":6024,"mel":6025,"iltratie":6026,"gevens":6027,"OF":6028,"lijft":6029,"Ġtaal":6030,"Ġsachet":6031,"Ġ566":6032,"Ġocclusie":6033,"groei":6034,"ociale":6035,"Ġpalli":6036,"baarheid":6037,"Medicatie":6038,"lik":6039,"omyopathie":6040,"ĠAdres":6041,"pid":6042,"Ġtachycardie":6043,"ĠPOB":6044,"rijving":6045,"leeft":6046,"Ġmitralisklep":6047,"Ġdexamethason":6048,"Ġbijge":6049,"ĠĠĠĠĠĠĠĠĠĠĠĊ":6050,"ĠCC":6051,"etyl":6052,"ulmonaal":6053,"Ġsuspect":6054,"oidie":6055,"ikking":6056,"ĠUWI":6057,"ĠPolsfreq":6058,"Ġvoorafgaand":6059,"Ġmotor":6060,"acerb":6061,"Ġwoensdag":6062,"leven":6063,"wat":6064,"ĠFor":6065,"ĠUitslag":6066,"Ġulcer":6067,"EMI":6068,"ĠProf":6069,"Ġgroep":6070,"ĠAo":6071,"Ġ125":6072,"ĠinsufficiÃ«ntie":6073,"rink":6074,"Ġmediale":6075,"Ġdrager":6076,"Ġcoloscopie":6077,"800":6078,"Ġbeschreven":6079,"ref":6080,"Ġtanden":6081,"Ġcorpus":6082,"jaar":6083,"Ġuitgelegd":6084,"Ġwaarvan":6085,"initief":6086,"ruis":6087,"formine":6088,"Heeft":6089,"Ġ47":6090,"Ġgeprobeerd":6091,"orad":6092,"Ġmoest":6093,"Ġgezeten":6094,"Ġanterior":6095,"Ġcervix":6096,"Ġoverdracht":6097,"Ġ93":6098,"ots":6099,"tein":6100,"Ġtoekom":6101,"ĠZou":6102,"Ġacenocoumarol":6103,"ĠNIB":6104,"beiderzijds":6105,"Ġdrink":6106,"valu":6107,"TB":6108,"Ġuitstr":6109,"ull":6110,"Ġincl":6111,"Ġgestelde":6112,"Ġcotrim":6113,"Ġvent":6114,"Ġklier":6115,"Ġpast":6116,"Ã¶rdinatie":6117,"ageert":6118,"neur":6119,"ĠPeri":6120,"ĠMevrouw":6121,"DEN":6122,"Ġtib":6123,"ycl":6124,"Ġonderhoud":6125,"Ġnavel":6126,"wijf":6127,"oedeem":6128,"vankelijk":6129,"ÂłĠĠĠ":6130,"leeftijd":6131,"125":6132,"Ġprogramma":6133,"ĠHersenzenuwen":6134,"Ġdecubitus":6135,"Ġverpleegkundig":6136,"Ġglob":6137,"otis":6138,"Ġlate":6139,"Ġadviseren":6140,"Ġtrombocyten":6141,"Ġzenuw":6142,"Ġruimte":6143,"epsis":6144,"Ġgec":6145,"Ġhoort":6146,"hesist":6147,"Afdeling":6148,"ĠMate":6149,"iom":6150,"Ġexcisie":6151,"Ġrode":6152,"put":6153,"ĠGeplande":6154,"ĠNaar":6155,"Ġhersteld":6156,"Ġgeheugen":6157,"Ġcontroleren":6158,"Ġbrengen":6159,"Ġafnemen":6160,"neuropathie":6161,"Ġtoepassing":6162,"EMIE":6163,"amol":6164,"ital":6165,"ederom":6166,"Ġclopidogrel":6167,"Ġgalblaas":6168,"CD":6169,"ira":6170,"neumonie":6171,"Ġ71":6172,"ARMACH":6173,"Ġloc":6174,"Ġrevisie":6175,"lectie":6176,"Ġproximaal":6177,"Ġvingers":6178,"was":6179,"ARMACHEMIE":6180,"ĠKoorts":6181,"ĠTelefoon":6182,"Ġtemperatuurbron":6183,"atar":6184,"ĠPartner":6185,"wens":6186,"ractie":6187,"Ġ43":6188,"Ġbevalling":6189,"iotomie":6190,"Ġverschillende":6191,"artan":6192,"Ġbestr":6193,"weefsel":6194,"ĠBeroep":6195,"ECG":6196,"Ġbehoudens":6197,"spannen":6198,"pend":6199,"Ġ82":6200,"Ġtotale":6201,"Ġnadien":6202,"ĠDieet":6203,"Ġnovember":6204,"Ġdim":6205,"Ġorgan":6206,"Ġteam":6207,"Ġlokale":6208,"Ġ52":6209,"egd":6210,"partum":6211,"ĠPerif":6212,"Ġtuss":6213,"Een":6214,"Ġ2004":6215,"ĠPsychi":6216,"fortabel":6217,"Ġgerelat":6218,"Ġconcentr":6219,"Ġbegonnen":6220,"ĠVZR":6221,"Ġenter":6222,"Ġepiduraal":6223,"ĠLA":6224,"minale":6225,"armen":6226,"Ġopleiding":6227,"Ġ77":6228,"Ġgedilateerd":6229,"Ġaanzien":6230,"abine":6231,"ĠAfd":6232,"Ġrichting":6233,"Ad":6234,"eros":6235,"Ġkauwen":6236,"##":6237,"Ġrelevante":6238,"Ġtri":6239,"Ġhiel":6240,"Ġbovenbuik":6241,"loos":6242,"Ġregistratie":6243,"Ġcell":6244,"het":6245,"Ġori":6246,"2012":6247,"Ġisocoor":6248,"ĠSD":6249,"ledig":6250,"tekening":6251,"illair":6252,"Ġvaker":6253,"Ġgast":6254,"Ġsol":6255,"Ġulcus":6256,"ĠMR":6257,"ux":6258,"Ġadenocarcinoom":6259,"Ġossale":6260,"kele":6261,"Conclusie":6262,"elaanwijzing":6263,"Ġdient":6264,"contact":6265,"ouders":6266,"Ġbehandelen":6267,"Ġhoren":6268,"HA":6269,"ĠAng":6270,"Ġafwachten":6271,"Ġovarium":6272,"Ġvue":6273,"Ig":6274,"MDO":6275,"Ġoptie":6276,"Ġaugmentin":6277,"erieure":6278,"Ġliet":6279,"Ġgerookt":6280,"Links":6281,"ĠHeel":6282,"Ġendocarditis":6283,"lagen":6284,"KUNDE":6285,"Ġzon":6286,"aliseerd":6287,"Ġhernia":6288,"Ġbrad":6289,"Ġvervangen":6290,"Ġsensibiliteit":6291,"oetale":6292,"Ġ1081":6293,"olerantie":6294,"ĠInterne":6295,"onine":6296,"Ġaldaar":6297,"Ġlead":6298,"Ġoesophagus":6299,"ĠCardiologie":6300,"Ġcentrum":6301,"opl":6302,"instructies":6303,"Ġpect":6304,"ĠVPK":6305,"ĠRitme":6306,"cephal":6307,"Ġafstand":6308,"standen":6309,"Ġonderbuik":6310,"hydratie":6311,"BK":6312,"Ġ83":6313,"EEK":6314,"Ġfix":6315,"ĠAlbumine":6316,"apine":6317,"Ġenig":6318,"Ġbespreking":6319,"Alg":6320,"Ġconsolidatie":6321,"Ġklieren":6322,"ĠKlinisch":6323,"ĠNIBP":6324,"Ġnaam":6325,"Ġerfelijke":6326,"Ġsignificante":6327,"Ġkauwtablet":6328,"ĠCK":6329,"Ġpalpitaties":6330,"efrose":6331,"erig":6332,"ĠCPAP":6333,"besch":6334,"Ġbegrepen":6335,"renaline":6336,"radi":6337,"Ġdruppel":6338,"Ġcyt":6339,"rampen":6340,"gewricht":6341,"________________________________________":6342,"ouchen":6343,"Ġgebracht":6344,"corr":6345,"gener":6346,"ĠStreef":6347,"Ġintermediaire":6348,"ONT":6349,"ĠGisteren":6350,"Ġaant":6351,"entriculaire":6352,"ÂłÂłÂłÂłÂłÂłÂłÂłÂłÂł":6353,"arr":6354,"maar":6355,"Ġhoeft":6356,"onge":6357,"Ġvervolgens":6358,"Ġdroge":6359,"intestinaal":6360,"iratie":6361,"chtgen":6362,"rofielen":6363,"Ġmast":6364,"Ġcentraal":6365,"150":6366,"erien":6367,"ĠNooit":6368,"Ġverrichten":6369,"reng":6370,"Ġext":6371,"imus":6372,"Ġverslechter":6373,"ronefrose":6374,"Ġgezwollen":6375,"eldt":6376,"ĠPsychos":6377,"Ġgeopereerd":6378,"ĠContactpersoon":6379,"ros":6380,"ĠBevindingen":6381,"Ġverlos":6382,"ĠNVT":6383,"okken":6384,"Ġlie":6385,"Ġovername":6386,"ĠDig":6387,"Ġcrep":6388,"ler":6389,"mit":6390,"Ġsigmoid":6391,"ĠGG":6392,"ervic":6393,"lip":6394,"Ġbestaande":6395,"lazen":6396,"ĠDuur":6397,"Uit":6398,"ensies":6399,"formeerd":6400,"spiratie":6401,"Ġgeregeld":6402,"regelmatig":6403,"Ġeenmaal":6404,"infect":6405,"Ġzin":6406,"opa":6407,"Ġdecompensatio":6408,"PROLOL":6409,"Ġlisinopril":6410,"cipl":6411,"Ġtintelingen":6412,"Ġvoedingstoestand":6413,"ĠMult":6414,"eens":6415,"oporose":6416,"isselijkheid":6417,"Ġsliep":6418,"Ġhard":6419,"dec":6420,"plannen":6421,"nem":6422,"Ġ86":6423,"eces":6424,"Ġ00":6425,"schappelijk":6426,"OTH":6427,"unn":6428,"CM":6429,"ĠBR":6430,"Th":6431,"ĠNier":6432,"aardig":6433,"ĠSamenvatting":6434,"elev":6435,"ric":6436,"lekkage":6437,"Ġechtgenoot":6438,"vinden":6439,"ĠMaakt":6440,"stelde":6441,"orten":6442,"OST":6443,"Ġvolwassenen":6444,"Ġhechtingen":6445,"Ġgericht":6446,"Ġacra":6447,"aalde":6448,"Ġbijvoorbeeld":6449,"Nu":6450,"Ġfolder":6451,"Ġsecundaire":6452,"Ġgemidd":6453,"weginfectie":6454,"Ġbeginnen":6455,"Ġliep":6456,"ĠPers":6457,"ĠVB":6458,"ude":6459,"Ġatelectase":6460,"Ġgeleide":6461,"400":6462,"rat":6463,"YN":6464,"ĠMTX":6465,"otaal":6466,"Ġvoelde":6467,"ijf":6468,"Ġmalen":6469,"ranul":6470,"Ġaard":6471,"Ġimmun":6472,"Ġkeren":6473,"ĠMoeder":6474,"Ġinferior":6475,"Ġhypotensie":6476,"Ġopper":6477,"icon":6478,"RAF":6479,"uiker":6480,"Ġmer":6481,"uin":6482,"ĠMoet":6483,"Ġijzer":6484,"Ġwww":6485,"rekking":6486,"ĠErn":6487,"oppingen":6488,"Ġschaal":6489,"Ġverlies":6490,"oken":6491,"wezigen":6492,"ÂłÂłÂłÂłÂłÂłÂłÂłÂłÂłÂłÂł":6493,"olsel":6494,"ocr":6495,"Ġshock":6496,"ĠPD":6497,"Ġrectaal":6498,"Ġ61":6499,"Ġblijkt":6500,"Ġfac":6501,"kracht":6502,"ella":6503,"ĠEind":6504,"Ġcla":6505,"ĠTV":6506,"ĠIgG":6507,"ĠFunction":6508,"oide":6509,"ph":6510,"Ġ49":6511,"ĠAnalyse":6512,"Natrium":6513,"idaties":6514,"atern":6515,"Ġradiologie":6516,"ĠMaar":6517,"luc":6518,"weegt":6519,"Ġren":6520,"wendige":6521,"zin":6522,"ĠChirurgie":6523,"Ġeinde":6524,"metrische":6525,"ĠOpnam":6526,"ĠgeoriÃ«nteerd":6527,"Ġvraagt":6528,"Ġbuis":6529,"Ġkop":6530,"erm":6531,"GES":6532,"eeg":6533,"dan":6534,"ubeerd":6535,"Ġadequate":6536,"ĠINT":6537,"Ġtevreden":6538,"iazide":6539,"Ġfysio":6540,"ĠgeÃ¯nformeerd":6541,"Ġklysma":6542,"Ġps":6543,"Ġlongarts":6544,"acerbatie":6545,"oes":6546,"patie":6547,"ĠHIV":6548,"ĠVia":6549,"moeder":6550,"ĠStop":6551,"ails":6552,"ĠLater":6553,"Ġdoorslikken":6554,"kloppingen":6555,"achter":6556,"ĠAsc":6557,"Ġpupillen":6558,"Ġinsteek":6559,"mus":6560,"dnison":6561,"ĠGing":6562,"ves":6563,"Hoofd":6564,"mw":6565,"ĠDiff":6566,"Ġverwijs":6567,"PM":6568,"Ġ53":6569,"Ġ89":6570,"ESE":6571,"raktijk":6572,"Ġhr":6573,"Ġgroe":6574,"+/":6575,"Ġgravid":6576,"ĠPCA":6577,"ĠBovengenoemdepatiÃ«nte":6578,"Ġcardiomyopathie":6579,"Ġaangegeven":6580,"Ġreactief":6581,"AAT":6582,"anule":6583,"ĠME":6584,"afhankelijk":6585,"Ġgestuurd":6586,"mevrouwPERSON":6587,"Ġwachten":6588,"ostase":6589,"Ġbru":6590,"dra":6591,"upervisor":6592,"Ġhol":6593,"Telef":6594,"Ġangi":6595,"lijf":6596,"Ġuitbreiding":6597,"oi":6598,"Ar":6599,"Ġactuele":6600,"Ġfen":6601,"kop":6602,"ĠGeÃ¯":6603,"Ġ800":6604,"asal":6605,"Ġstof":6606,"ary":6607,"eksu":6608,"Ġdesc":6609,"ĠOor":6610,"del":6611,"Ġtympan":6612,"Ġlor":6613,"allon":6614,"Ġrom":6615,"ida":6616,"cef":6617,"ĠDen":6618,"ĠRu":6619,"MER":6620,"ĠLongen":6621,"oradi":6622,"Ġspreekuur":6623,"plantair":6624,"butamol":6625,"Ġnvt":6626,"ĠNA":6627,"spray":6628,"ĠIU":6629,"clox":6630,"Ġomeprazol":6631,"traat":6632,"ĠInterval":6633,"ithiasis":6634,"conclusie":6635,"ĠODS":6636,"LINISCHEOK":6637,"Ġontst":6638,"Ġfiet":6639,"Ġgeplast":6640,"belast":6641,"ĠĠĠĠĠĠĠĠĠĠĠĠĠĠĠĠĠĠĠĠĠĠĠĠĠĠĠĠĠĠĠĠĠĠĠĠ":6642,"Ã«ntatie":6643,"Ġbeneden":6644,"Ġbemerkt":6645,"Ġpropofol":6646,"ografisch":6647,"existent":6648,"ĠVerk":6649,"hel":6650,"AST":6651,"icul":6652,"ĠHemat":6653,"rische":6654,"Ġouder":6655,"vandaag":6656,"Ġorig":6657,"Ġoperateur":6658,"Ġzeggen":6659,"ÂłÂłÂłÂłÂłÂłÂłÂłÂłÂłÂł":6660,"Ġinschrijfbalie":6661,"ĠMijndossier":6662,"ae":6663,"Ġtand":6664,"ĠEch":6665,"antwoord":6666,"Ġeci":6667,"Ġhi":6668,"Ġcompressie":6669,"ĠCirculatie":6670,"iltraat":6671,"iliteits":6672,"Ġtgv":6673,"ureus":6674,"Ġmensen":6675,"katheter":6676,"uitslag":6677,"Ġintraveneus":6678,"Ġflex":6679,"ĠTen":6680,"Ġinsult":6681,"Ġafwijkende":6682,"Ġiliac":6683,"Ġtesten":6684,"ATI":6685,"zouten":6686,"'*":6687,"Ġgewrichten":6688,"ĠtabbladMijn":6689,"ĠHaar":6690,"SI":6691,"BL":6692,"Ġverzeker":6693,"Ġgering":6694,"ĠEndoscopie":6695,"Ġprothese":6696,"Ġswitch":6697,"Ġstolling":6698,"Ġdysplasie":6699,"hem":6700,"Ġgedilateerde":6701,"Ġantistoffen":6702,"paren":6703,"mcg":6704,"iere":6705,"ĠPle":6706,"ly":6707,"Ġvergroot":6708,"Ġerger":6709,"iks":6710,"icum":6711,"long":6712,"volle":6713,"Ġdorsaal":6714,"indien":6715,"immuun":6716,"ĠOrth":6717,"ĠPH":6718,"Ġkaak":6719,"ĠHA":6720,"verzorg":6721,"Ġker":6722,"Ġvar":6723,"Ġbalie":6724,"rijven":6725,"Ġlokaal":6726,"Ġthorac":6727,"iO":6728,"otiv":6729,"ĠThuismedicatie":6730,"ibaar":6731,"matige":6732,"gels":6733,"ĠâĢĵ":6734,"Ġ%,":6735,"Ġwitte":6736,"Ġaanvraag":6737,"rolijk":6738,"Ġbijnier":6739,"Ġslokdarm":6740,"Ġverv":6741,"ĠSymptomen":6742,"GESCH":6743,"Ġmaligne":6744,"ĠBE":6745,"gelegd":6746,"ical":6747,"Ġpyel":6748,"ĠMocht":6749,"inum":6750,"Ġ79":6751,"ĠSOC":6752,"lichting":6753,"eutrofielen":6754,"ĠEenmalig":6755,"NVT":6756,"Ġductus":6757,"Ġnodus":6758,"Ġqua":6759,"Ġmotoriek":6760,"Ġtenen":6761,"Ġvier":6762,"ĠVergeleken":6763,"rucht":6764,"letsel":6765,"ĠEiwit":6766,"sequ":6767,"Ġess":6768,"ĠPCR":6769,"accinaties":6770,"Ġmovic":6771,"Ġgewoon":6772,"Ġsim":6773,"Ġinv":6774,"Ġileostoma":6775,"Ġepilept":6776,"Ġhorm":6777,"ĠIMA":6778,"namelijk":6779,"Ġwonende":6780,"Ġbovenbeen":6781,"orr":6782,"Ġuitvo":6783,"produ":6784,"Ġhum":6785,"Ġerbij":6786,"Ġform":6787,"ms":6788,"Hemoglobine":6789,"AMSTERDAM":6790,"rempel":6791,"Ġperitone":6792,"meer":6793,"ARM":6794,"Ġchronisch":6795,"RR":6796,"log":6797,"Ġvasculaire":6798,"Ġmovicolon":6799,"Ġverzorgd":6800,"Ġmenstru":6801,"Ġaanmelden":6802,"Ġcontinue":6803,"insufficientie":6804,"calcium":6805,"Ġinform":6806,"110":6807,"oste":6808,"Ġconsolidaties":6809,"Ġgeleiding":6810,"elsysteem":6811,"beperking":6812,"Ġbeweging":6813,"laps":6814,"Ġsepsis":6815,"Ġoa":6816,"comycine":6817,"ĠZN":6818,"ĠRecent":6819,"omenteel":6820,"Ġveilig":6821,"Ġshunt":6822,"ĠAfgelopen":6823,"press":6824,"ĠLG":6825,"Pol":6826,"Gy":6827,"otitie":6828,"Ġstim":6829,"Ġintracran":6830,"Ġ2003":6831,"ĠAMCPOL":6832,"Ġpseud":6833,"bt":6834,"Ġconf":6835,"ĠWanneer":6836,"Ġheen":6837,"VEN":6838,"mplanteerd":6839,"Ġmammacarcinoom":6840,"LL":6841,"ĠOngewijzigd":6842,"Ġbevestig":6843,"Ġieder":6844,"Ġbaring":6845,"GAS":6846,"Ġnabloeding":6847,"ĠMaand":6848,"Ġdoorgankelijk":6849,"Ġpraten":6850,"Ġ87":6851,"Ġdezelfde":6852,"Ġkortdurend":6853,"asculair":6854,"uwd":6855,"Boven":6856,"Ġvernomen":6857,"spectie":6858,"someprazol":6859,"carbonaat":6860,"istiek":6861,"ĠAnesthesioloog":6862,"vliezen":6863,"rement":6864,"ĠKw":6865,"HP":6866,"ĠDaarbij":6867,"atorius":6868,"ĠPOLIK":6869,"Ġvastgesteld":6870,"liggend":6871,"Ġhydronefrose":6872,"ridrink":6873,"ĠIntroductie":6874,"Ġbul":6875,"Rec":6876,"da":6877,"ĠND":6878,"rouwen":6879,"ous":6880,"sverslag":6881,"patient":6882,"ĠBro":6883,"merkingen":6884,"Start":6885,"dominaal":6886,"meting":6887,"dus":6888,"weem":6889,"info":6890,"Ġcognitieve":6891,"Ġinstructies":6892,"Ġoefen":6893,"Ġervaart":6894,"Ġ160":6895,"ĠChronische":6896,"ĠFysiotherapie":6897,"NF":6898,"bu":6899,"Ġbinnenkomst":6900,"Intensive":6901,"Ġpm":6902,"isel":6903,"istreerd":6904,"Cardi":6905,"ĠRetour":6906,"Ġbewegings":6907,"procedure":6908,"vlakk":6909,"rak":6910,"pleegkundigen":6911,"Ġconserv":6912,"onc":6913,"ruim":6914,"omatische":6915,"Ġplaqu":6916,"Ġpassage":6917,"anen":6918,"Ġzorgverlener":6919,"controleerd":6920,"+.":6921,"Ġinstantie":6922,"stop":6923,"Ġvoorheen":6924,"udi":6925,"onstructie":6926,"Ġzet":6927,"Ġfamiliel":6928,"parenchym":6929,"flexie":6930,"Ġopbouw":6931,"ivus":6932,"productie":6933,"ataract":6934,"ystectomie":6935,"Ġdrinkvoeding":6936,"Ġstoornissen":6937,"effort":6938,"ĠRisico":6939,"ulose":6940,"Ġovergeplaatst":6941,"Ġherken":6942,"ick":6943,"ovasculaire":6944,"Ġsens":6945,"Ġdent":6946,"Ġun":6947,"weemaal":6948,"ds":6949,"Ġoverleggen":6950,"idoca":6951,"Ġdem":6952,"ederland":6953,"Ġdefect":6954,"ĠMag":6955,"loxacine":6956,"ĠHeden":6957,"ĠVitamine":6958,"LAG":6959,"ĠmetoPROLOL":6960,"Ġhartkloppingen":6961,"kuur":6962,"bele":6963,"Ġ(+":6964,"Ġverandering":6965,"Ġdaling":6966,"Ġkenmerken":6967,"mL":6968,"osinofielen":6969,"Ġsnelle":6970,"ior":6971,"2011":6972,"generatieve":6973,"Team":6974,"Ġzaal":6975,"-->":6976,"Ġbrood":6977,"Ġmel":6978,"ondag":6979,"oenen":6980,"Ġlongvaat":6981,"oec":6982,"IRUR":6983,"Ġoncologie":6984,"Ġ600":6985,"Ġ(=":6986,"AVI":6987,"respond":6988,"ĠSP":6989,"Ġvooralsnog":6990,"onische":6991,"ĠWerk":6992,"punctie":6993,"ouwen":6994,"Ġredelijke":6995,"ĠObjectief":6996,"HEID":6997,"kant":6998,"STEL":6999,"Ġtwijf":7000,"Ġwederom":7001,"ĠStabiel":7002,"ĠTM":7003,"Ġcyclus":7004,"ĠCAP":7005,"pas":7006,"Ġgynaecoloog":7007,"handeling":7008,"ipt":7009,"clusief":7010,"lamm":7011,"ĠMatige":7012,"entrikel":7013,"Ġlaatst":7014,"blok":7015,"ĠDu":7016,"herapie":7017,"Ġhartfalen":7018,"order":7019,"ostomie":7020,"ĠFAC":7021,"Ġmeet":7022,"alol":7023,"ott":7024,"ĠVOORGESCH":7025,"GE":7026,"Ġverwijdering":7027,"thiazide":7028,"Ġschade":7029,"Voeding":7030,"respondentie":7031,"Ġtransver":7032,"MW":7033,"juvante":7034,"Ġamoxicilline":7035,"issen":7036,"ĠBLOED":7037,"ĠChem":7038,"adol":7039,"Ġabdominale":7040,"ĠCVA":7041,"Ġgetest":7042,"aalt":7043,"ooi":7044,"tonen":7045,"IRURGIE":7046,"Ġniertransplantatie":7047,"izumab":7048,"Ġregio":7049,"Ġuitbreiden":7050,"spuit":7051,"Ġcut":7052,"Ġspecialist":7053,"ateus":7054,"Ġtip":7055,"Ġmogelijkheid":7056,"Ġph":7057,"2010":7058,"hoek":7059,"ĠZiet":7060,"Ġfraai":7061,"drang":7062,"Ġinfo":7063,"ĠRCX":7064,"ĠBehandelaanwijzing":7065,"ĠBeen":7066,"oplas":7067,"ĠRespiratoir":7068,"aby":7069,"Ġevident":7070,"Ġpulsaties":7071,"wikkeling":7072,"Ġlangdurig":7073,"Ġslikken":7074,"omer":7075,"ĠĠĠĠĠĠĠĠĠĠĠĠĠĠĠĠĠĠĠĠĠĠĠĠĠĠĠĠĠĠĠĠĠĠĠĠĠĠĠĠĠĠĠĠĠĠĠĠ":7076,"Ġlongvelden":7077,"ĠAanwezigen":7078,"raagde":7079,"Ġdom":7080,"uwing":7081,"ĠHeb":7082,"ĠFosfaat":7083,"idis":7084,"Ġplacenta":7085,"Ġhuidafwijkingen":7086,"Ġverslechtering":7087,"lasten":7088,"Ġplant":7089,"Ġator":7090,"WS":7091,"ypass":7092,"Ġliever":7093,"cell":7094,"Ġtam":7095,"istolling":7096,"Ġdenken":7097,"fol":7098,"Ġsarco":7099,"Ġfrequent":7100,"Ġmyocard":7101,"Ġflexie":7102,"Rechts":7103,"Ġovergang":7104,"ĠMedicatieTeam":7105,"oving":7106,"Ġsnij":7107,"ĠBen":7108,"ivar":7109,"Ġactiviteiten":7110,"kins":7111,"athologie":7112,"pool":7113,"sproblemen":7114,"ĠMen":7115,"Ġmogen":7116,"levo":7117,"rift":7118,"ĠVervolgens":7119,"activiteit":7120,"Ġangstig":7121,"Ġaangezien":7122,"ĠFEV":7123,"Ġbete":7124,"ĠAlleen":7125,"ulus":7126,"300":7127,"verpleegkundige":7128,"ledige":7129,"achtig":7130,"Ġtrom":7131,"Kinder":7132,"ĠCoÃ¶rdinatie":7133,"Ġfase":7134,"steen":7135,"Ġdifferent":7136,"Ġsv":7137,"irpatie":7138,"Ġendoscopie":7139,"ĠNut":7140,"Ġactie":7141,"Ġhierdoor":7142,"Ġgeprikt":7143,"vlak":7144,"istof":7145,"Ġ135":7146,"Ġaanhoudende":7147,"ĠcT":7148,"osine":7149,"ZOND":7150,"ĠAand":7151,"Ġmiddelen":7152,"Ġspreekt":7153,"spiegel":7154,"clerose":7155,"sal":7156,"Ġves":7157,"zt":7158,"Ġwek":7159,"ĠAPR":7160,"Ġbasale":7161,"Ġfasc":7162,"Ġbeademing":7163,"Ġdescendens":7164,"cutane":7165,"ĠPatiente":7166,"inking":7167,"ositis":7168,"ĠImplantaat":7169,"ulmonale":7170,"Ġed":7171,"ĠAfspraken":7172,"poging":7173,"riage":7174,"ongestoord":7175,"corrige":7176,"Ġgecontroleerd":7177,"aliseren":7178,"iligheid":7179,"vanging":7180,"Ġtons":7181,"esen":7182,"Ġmobiel":7183,"Ġafgesloten":7184,"Ġafgrens":7185,"Ġhelpen":7186,"Ġchemo":7187,"Ġgehol":7188,"Ġcaud":7189,"ĠMidd":7190,"Ġherhaald":7191,"ĠBI":7192,"Ġverminderen":7193,"Ġoogdruppels":7194,"Ġgedacht":7195,"ĠAllergieen":7196,"lit":7197,"Ġinspectie":7198,"Ġgeholpen":7199,"ĠProbleemlijst":7200,"PHARMACHEMIE":7201,"zakelijk":7202,"ZONDHEID":7203,"STEMI":7204,"esitas":7205,"Ġdaarvoor":7206,"Ġstamc":7207,"acties":7208,"sieve":7209,"ritine":7210,"INDER":7211,"ĠGeÃ¯mplanteerd":7212,"Ġpreventie":7213,"spre":7214,"Ġfemoralis":7215,"Ġmeter":7216,"Ġbereiken":7217,"VL":7218,"Ġimm":7219,"Ġfe":7220,"Ġdrains":7221,"ĠNeemt":7222,"Ġsoort":7223,"ĠErg":7224,"Ġhypo":7225,"acl":7226,"afwijking":7227,"gde":7228,"Ġbu":7229,"otioneel":7230,"opening":7231,"Ġplaatsvinden":7232,"ĠDyspnoe":7233,"ZONDHEIDSC":7234,"Ġ91":7235,"Ġvoedsel":7236,"Ġmisschien":7237,"Triage":7238,"iumzuur":7239,"iraal":7240,"Ġvirale":7241,"AAL":7242,"Ġsuc":7243,"kinson":7244,"vloe":7245,"Ġtrekken":7246,"risico":7247,"Ġoedemen":7248,"ĠNee":7249,"hil":7250,"ĠMaandag":7251,"Ġdissectie":7252,"Ġhypof":7253,"materiaal":7254,"ĠMKA":7255,"fheid":7256,"hydro":7257,"Ġvaginaal":7258,"ices":7259,"Ã³":7260,"ureau":7261,"erdag":7262,"sinds":7263,"Ġatorvastatine":7264,"lucin":7265,"Ġkunst":7266,"ĠZiekenhuis":7267,"eciÃ«le":7268,"irrose":7269,"Ġcolecalciferol":7270,"ivaroxaban":7271,"igne":7272,"wijzigde":7273,"Ġhypothyre":7274,"Ġniks":7275,"ĠForse":7276,"AZGPE":7277,"chan":7278,"Ġgelijk":7279,"Indien":7280,"Ġpapil":7281,"Ġpersisterend":7282,"Ġondergaan":7283,"Ġ+/-":7284,"Ġexter":7285,"wacht":7286,"Ġgede":7287,"Ġmakkelijk":7288,"rekt":7289,"ĠBLOEDGAS":7290,"rium":7291,"oriasis":7292,"aks":7293,"Ġ111":7294,"ĠHuisarts":7295,"Ġ144":7296,"Ġbestraling":7297,"Ġlorazepam":7298,"-/":7299,"ĠLigt":7300,"cholesterol":7301,"nex":7302,"zins":7303,"ĠPatiÃ«nten":7304,"USIE":7305,"lingen":7306,"ĠBaring":7307,"Onderzoek":7308,"Ġallemaal":7309,"Ġhouding":7310,"inezuur":7311,"odon":7312,"Ġbad":7313,"endoor":7314,"Ġaangeb":7315,"ZONDHEIDSCENTRUM":7316,"psych":7317,"Ġrichtingen":7318,"kra":7319,"Ġdaarnaast":7320,"ĠTechniek":7321,"algie":7322,"III":7323,"Ġonderliggende":7324,"overzicht":7325,"ĠBurg":7326,"Ġ51":7327,"Ġvererg":7328,"ĠAlb":7329,"Bas":7330,"250":7331,"Ġmild":7332,"Ġblad":7333,"Ġ2002":7334,"OPRA":7335,"Ġdienstdoende":7336,"beh":7337,"Ġsymptomen":7338,"ĠBevalling":7339,"rens":7340,"Ġbleef":7341,"ami":7342,"uleren":7343,"ĠHulpvraag":7344,"cortison":7345,"!!":7346,"Ġhepatitis":7347,"igheidsduur":7348,"ĠToename":7349,"Geachte":7350,"Ġwr":7351,"Ġbran":7352,"ĠMeest":7353,"Ġsomber":7354,"Ġvernev":7355,"Ġlinkerv":7356,"aad":7357,"Ġsport":7358,"SpO":7359,"ĠMin":7360,"echter":7361,"Ġmagnesium":7362,"ĠPla":7363,"%),":7364,"iliseert":7365,"Ġstolsel":7366,"Ġmedicamenteus":7367,"zinking":7368,"psis":7369,"Neutrofielen":7370,"ĠHand":7371,"ĠDiÃ«tist":7372,"ĠChirurgische":7373,"rectomie":7374,"ĠPostoperatieve":7375,"Ġtabletten":7376,"ialis":7377,"Ġtympanie":7378,"IET":7379,"Ġspeel":7380,"fusie":7381,"ĠResultaat":7382,"pla":7383,"ĠEnkele":7384,"ĠMilde":7385,"ĠKeel":7386,"ĠAMO":7387,"iditeit":7388,"vermogen":7389,"Ġwaarde":7390,"igest":7391,"Ġbezocht":7392,"beg":7393,"appen":7394,"Ġrhin":7395,"Ġug":7396,"ĠMod":7397,"ĠTIA":7398,"komend":7399,"ĠGeboortedatum":7400,"Ġcolitis":7401,"ademisch":7402,"ĠSpeciÃ«le":7403,"ĠSC":7404,"Ġkrachts":7405,"Ġsturen":7406,"ĠDrinkt":7407,"diend":7408,"Ġkennis":7409,"isc":7410,"ign":7411,"wogen":7412,"ext":7413,"Ġharde":7414,"Ġkol":7415,"colecalciferol":7416,"grond":7417,"ars":7418,"Ġpret":7419,"onus":7420,"Ġventrikelfunctie":7421,"ĠOperatieverslag":7422,"ĠPakket":7423,"ineum":7424,"vinding":7425,"ĠMP":7426,"Ġgerelateerd":7427,"Ġbestaat":7428,"aa":7429,"ATIENT":7430,"lycer":7431,")>":7432,"ĠAAN":7433,"Ġvaste":7434,"ĠTab":7435,"olact":7436,"Ġnoodzakelijk":7437,"oename":7438,"Ġfamilieleden":7439,"scheiding":7440,"rex":7441,"Ġpericardvocht":7442,"Ġverdwenen":7443,"ĠAdem":7444,"isis":7445,"Ġbetrokkenheid":7446,"ĠKPR":7447,"Ġgeind":7448,"atrische":7449,"ĠAntistolling":7450,"medewerker":7451,"hoor":7452,"ĠBloedverlies":7453,"breuk":7454,"Ġchemoradi":7455,"cr":7456,"ĠFiO":7457,"Ġplots":7458,"therapie":7459,"graad":7460,"Ġdocument":7461,"Ġaspiratie":7462,"hyp":7463,"biologie":7464,"urin":7465,"hulp":7466,"CLUSIE":7467,"itieel":7468,"urt":7469,"ĠTime":7470,"loss":7471,"Ġseksu":7472,"Ġfraxiparine":7473,"blematiek":7474,"Ġ(-":7475,"ĠpT":7476,"dequ":7477,"Ob":7478,"conform":7479,"vallend":7480,"Ġconcrement":7481,"Ġurineweginfectie":7482,"Ġpsycholoog":7483,"rofen":7484,"Ġretin":7485,"scop":7486,"Ġmacula":7487,"roponine":7488,"ĠoriÃ«ntatie":7489,"Ġnit":7490,"Ġpalpabele":7491,"Ġdouchen":7492,"EA":7493,"ĠVerwijzing":7494,"starten":7495,"ĠLogistiek":7496,"Van":7497,"vers":7498,"ĠGra":7499,"isf":7500,"ĠNAG":7501,"ĠCTA":7502,"DR":7503,"asalaat":7504,"Ġoperaties":7505,"Ġlichtre":7506,"Ġleg":7507,"Ġ112":7508,"Ġreanimatie":7509,"ĠRustige":7510,"Ġtoenemende":7511,"burg":7512,":(":7513,"ĠDat":7514,"Ġcortonen":7515,"ransplantatie":7516,"olacton":7517,"Visite":7518,"AAN":7519,"sief":7520,"ĠWissel":7521,"ĠGem":7522,"Ġverschijnselen":7523,"ĠUitkomst":7524,"ĠBeiderzijds":7525,"Ġ138":7526,"ĠMB":7527,"Ġdonker":7528,"ytroc":7529,"ĠHoog":7530,"defect":7531,"Ġleveren":7532,"Ġfibrose":7533,"Ġgemiddeld":7534,"Ġmic":7535,"Ġstr":7536,"ĠSubjectief":7537,"Ġanamnestisch":7538,"cursus":7539,"ĠEerst":7540,"Ġnader":7541,"etan":7542,"ĠĠĠĠĠĠĠĠĠĠĠĠĠĊ":7543,"Ġinfiltraat":7544,"Ã¨me":7545,"Ġzouden":7546,"Beleid":7547,"Ġurologie":7548,"Ġconsul":7549,"Ġpectoris":7550,"aort":7551,"Ġingebracht":7552,"++":7553,"maken":7554,"ĠAnti":7555,"ĠALL":7556,"continu":7557,"stijden":7558,"Ġmodu":7559,"ĠDerhalve":7560,"ĠGeldigheidsduur":7561,"ĠSoep":7562,"Ġgastroscopie":7563,"ĠKracht":7564,"bup":7565,"bijt":7566,"urve":7567,"Ġno":7568,"Ġpolyneuropathie":7569,"ĠPSA":7570,"Ġgeregistreerd":7571,"iron":7572,"Ġcellen":7573,"ĠĠĠĠĠĠĠĠĠĠĠĠĠĠĠĠĠĠĠĠĠĠ":7574,"idemie":7575,"Ġplat":7576,"Ġallo":7577,"leaire":7578,"Ġmetformine":7579,"Ġhemodynam":7580,"Ġoppervlakk":7581,"Ġmediastinum":7582,"ile":7583,"ĠNuchter":7584,"Ġslijmvliezen":7585,"ĠAscal":7586,"ĠLoopt":7587,"verb":7588,"ĠHt":7589,"Ġzu":7590,"Ġleek":7591,"ĠKlinische":7592,"Bloed":7593,"utter":7594,"ĠPsychosociaal":7595,"ĠOnd":7596,"ycodon":7597,"Ġmogelijkheden":7598,"gevoeg":7599,"Ġvolume":7600,"lopig":7601,"ĠIntra":7602,"ĠEvent":7603,"ĠEF":7604,"ĠBes":7605,"Ġpoging":7606,"Ġdruppels":7607,"Ġhom":7608,"ĠLaat":7609,"UP":7610,"ĠPQ":7611,"Ġcholecystectomie":7612,"gemaakt":7613,"Ġvoornamelijk":7614,"Ġweerstanden":7615,"asalaatcalcium":7616,"Anesthesiologie":7617,"kening":7618,"Ġzwanger":7619,"uilen":7620,"rest":7621,"Ġgespannen":7622,"Ġparesen":7623,"ĠPostoperatief":7624,"valueren":7625,"Ġdiafragma":7626,"ulatoir":7627,"ĠGeaccept":7628,"Ġvlot":7629,"ĠRond":7630,"roloog":7631,"thuis":7632,"Ġacetyl":7633,"ĠDochter":7634,"naar":7635,"ĠHy":7636,"ĠEVD":7637,"Ġverloop":7638,"Ġfraxi":7639,"ectaal":7640,"eline":7641,"bal":7642,"Ġuroloog":7643,"ĠAntibiotica":7644,"Ġcardio":7645,"ĠHiervoor":7646,"Ġtachyp":7647,"ĠSlaapt":7648,"Ġlief":7649,"ocrinologie":7650,"uug":7651,"prote":7652,"Normaal":7653,"Ġreageert":7654,"Ġtoenemend":7655,"iti":7656,"ĠAandacht":7657,"Ġverpleging":7658,"geleid":7659,"Ġsuspecte":7660,"ocytose":7661,"ĠDec":7662,"Ġaz":7663,"ander":7664,"atoloog":7665,"uriteit":7666,"igestivus":7667,"Ġopties":7668,"Ġsuperior":7669,"ĠBasket":7670,"Pa":7671,"laan":7672,"Ġopin":7673,"stam":7674,"Ãĭ":7675,"ĠVIAIn":7676,"ĠĠĠĠĠĠĠĠĠĠĠĠĊ":7677,"OPT":7678,"Ġstandaard":7679,"def":7680,"ĠInformatie":7681,"ĠDecursus":7682,"bril":7683,"56633":7684,"Ġgezin":7685,"___":7686,":<":7687,"gestelde":7688,"vit":7689,"Ġoefenen":7690,"ĠTI":7691,"erkte":7692,"Ġnefro":7693,"cinaat":7694,"ĠERCP":7695,"Ġvancomycine":7696,"Ġimp":7697,"Ġinsch":7698,"ĠtabletMSR":7699,"IRR":7700,"Ġbypass":7701,"Ġesomeprazol":7702,"igra":7703,"bereiding":7704,"Ġmeting":7705,"Ġdefici":7706,"Ġdou":7707,"ĠCO":7708,"remm":7709,"negatief":7710,"Sub":7711,"MGA":7712,"ĠBMIRR":7713,"Ġregelen":7714,"ĠPas":7715,"oppen":7716,"ĠVor":7717,"ĠRvO":7718,"lastische":7719,"emisch":7720,"elbaar":7721,"Ġnaad":7722,"usies":7723,"Ġballon":7724,"ĠPolsSpO":7725,"Ġdoorgemaakte":7726,"Ġthv":7727,"stateerd":7728,"IDE":7729,"ĠVis":7730,"Ġresidu":7731,"ylo":7732,"UD":7733,"ikkelcel":7734,"Ġalsnog":7735,"Ġcotrimoxazol":7736,"Ġbeschikbaar":7737,"ĠDiagnoseDatumregistratie":7738,"holte":7739,"Ġtemporaal":7740,"ptuur":7741,"Ġnamelijk":7742,"ĠKon":7743,"HB":7744,"waarde":7745,"ĠEerdere":7746,"Ġprol":7747,"Ġfluclox":7748,"Eer":7749,"Her":7750,"Ġherseninfarct":7751,"zweten":7752,"echo":7753,"spunten":7754,"aretten":7755,"Ġaanleiding":7756,"ironolacton":7757,"ĠEten":7758,"Ġvloeibaar":7759,"Ġgent":7760,"Cont":7761,"Ġautomatisch":7762,"Ġkomende":7763,"Ġarteri":7764,"Ġrit":7765,"Ġ180":7766,"ĠAmstel":7767,"44435":7768,"OTHEEK":7769,"Ġwervel":7770,"systeem":7771,"Ġgespoeld":7772,"cter":7773,"Ġvriendelijk":7774,"Ġlangere":7775,"atig":7776,"syndroom":7777,"vm":7778,"Ġintens":7779,"DM":7780,"Ġstemming":7781,"Ġglobaal":7782,"PTT":7783,"ĠDiurese":7784,"Ġaanleggen":7785,"iclovir":7786,"Ġroze":7787,"Ġtelefoonnummer":7788,"ĠAug":7789,"EGEV":7790,"ĠMMB":7791,"UW":7792,"umm":7793,"Ġha":7794,"Ġdoorgevoerd":7795,"inetotaal":7796,"ĠRel":7797,"Ġpit":7798,"LN":7799,"cefal":7800,"Ġontsluiting":7801,"ĠMomenteel":7802,"ORI":7803,"ĠBi":7804,"kap":7805,"ELE":7806,"ruchtwater":7807,"oeli":7808,"staand":7809,"Ġpunten":7810,"Ġprogressief":7811,"iod":7812,"Ġmomenten":7813,"stim":7814,"Ġtransfusie":7815,"annings":7816,"Ġincontinentie":7817,"mp":7818,"ĠIets":7819,"ero":7820,"Ġretentie":7821,"Ġtox":7822,"yline":7823,"riose":7824,"RAX":7825,"Ġms":7826,"oez":7827,"iene":7828,"Ġbehoe":7829,"ĠElectief":7830,"ĠDruk":7831,"Ġmbt":7832,"consult":7833,"AA":7834,"Ġopgel":7835,"lammatie":7836,"ĠRed":7837,"ĠDrugsgebruik":7838,"Ġingepland":7839,"ĠZegt":7840,"cereb":7841,"Ġcalcif":7842,"ĠPostbus":7843,"Ġnat":7844,"Ġatrofie":7845,"Ġkrachtsverlies":7846,"kade":7847,"Ġbepaald":7848,"sfusie":7849,"Ġlasix":7850,"uraties":7851,"dol":7852,"ĠSec":7853,"ĠEchtgen":7854,"ruit":7855,"Ġgerust":7856,"ontslag":7857,"ĠSoort":7858,"amin":7859,"Ġspanning":7860,"olol":7861,"Ġneuropathie":7862,"KEN":7863,"Ġflank":7864,"FORM":7865,"ijding":7866,"atier":7867,"MDRD":7868,"Ġtre":7869,"ĠCONCLUSIE":7870,"ĠKind":7871,"âĢĿ":7872,"ramadol":7873,"ush":7874,"Ġgebit":7875,"Ġopstaan":7876,"volge":7877,"Ġacc":7878,"itabine":7879,"Ġaanpass":7880,"Ġcoll":7881,"Ġhallucin":7882,"pendectomie":7883,"Ġcervicale":7884,"UROLOGIE":7885,"ĠResult":7886,"ĠKleine":7887,"Ġmodules":7888,"ĠBlanco":7889,"Ġtoekomst":7890,"ĠJJ":7891,"Ġcirca":7892,"Ġ-.":7893,"SAID":7894,"Ġiemand":7895,"ĠAcademisch":7896,"ĠVragen":7897,"Ġopinion":7898,"Ġanus":7899,"veisel":7900,"Ġenkels":7901,"fys":7902,"Ġsin":7903,"ĠNederland":7904,"ĠBilirubinetotaal":7905,"ĠHB":7906,"Ġfunctionele":7907,"tende":7908,"Ġsac":7909,"ynthese":7910,"Orders":7911,"Ġorde":7912,"ĠEEG":7913,"Ġdoorgaan":7914,"BNP":7915,"oond":7916,"ĠCVL":7917,"ĠConform":7918,"MP":7919,"oemd":7920,"LON":7921,"Ġmeestal":7922,"uretica":7923,"120":7924,"Ġervaren":7925,"ora":7926,"Ġpalpatie":7927,"Lymfocyten":7928,"onidine":7929,"Ġexp":7930,"Ġamp":7931,"Ġsuccinaat":7932,"artrose":7933,"spreek":7934,"ĠNEURO":7935,"ĠWeet":7936,"uximab":7937,"ĠDoet":7938,"Ġbenauwdheid":7939,"...":7940,"Ġdermatoloog":7941,"bureau":7942,"NAQ":7943,"Ġeenheden":7944,"epten":7945,"orderd":7946,"enk":7947,"Ġzaken":7948,"ĠMedicatieOverzicht":7949,"NB":7950,"gaat":7951,"Ġaanmerking":7952,"patiÃ«nten":7953,"mato":7954,"ĠTwee":7955,"ĠRE":7956,"Ġcerebrum":7957,"Ġomhoog":7958,"Ġgegener":7959,"Ġtevoren":7960,"Ġbeperkte":7961,"Ġdop":7962,"run":7963,"Ġinlog":7964,"ovir":7965,"regels":7966,"hecht":7967,"Ġgecom":7968,"ĠLDH":7969,"MDL":7970,"Ġhoger":7971,"oride":7972,"assa":7973,"aksgebruik":7974,"Stabiel":7975,"riteria":7976,"Ġartrose":7977,"Ġwoon":7978,"Ġartsen":7979,"iform":7980,"veren":7981,"Ġdur":7982,"Ġheparine":7983,"SAL":7984,"abiliteit":7985,"Ġtraumatische":7986,"Ġradius":7987,"LV":7988,"Goede":7989,"Ġhervat":7990,"ronk":7991,"ĠBeoordeling":7992,"ĠBed":7993,"Ġangina":7994,"duraal":7995,"Ġvrijwel":7996,"Ġicm":7997,"Ġfietsen":7998,"Ġtransvers":7999,"Ġtoegediend":8000,"buprofen":8001,"rolyten":8002,"igraine":8003,"ULE":8004,"icuspid":8005,"Ġslechter":8006,"Ġonderarm":8007,"ÂłÂłÂłÂłÂłÂłÂłÂłÂłÂłÂłÂłÂłÂłÂłÂłÂłÂłÂłÂłÂłÂłÂłÂłÂłÂłÂłÂłÂłÂłÂłÂł":8008,"Ġonzeker":8009,"etron":8010,"ĠNeus":8011,"Ġmgtablet":8012,"actieve":8013,"oudt":8014,"Ġsignaal":8015,"ĠTabaksgebruik":8016,"sept":8017,"sequenties":8018,"OZ":8019,"Ġpunt":8020,"NAM":8021,"ĠGastroscopie":8022,"bin":8023,"hof":8024,"lucht":8025,"Ġlongfunctie":8026,"Ġisolatie":8027,"opro":8028,"wek":8029,"ĠET":8030,"Ġhun":8031,"Ġhierop":8032,"ropen":8033,"Ġneusspray":8034,"ĠGEZONDHEIDSCENTRUM":8035,"Vrij":8036,"ĠDVT":8037,"Ġfactor":8038,"Ġlaboratorium":8039,"Ġorthop":8040,"Probleem":8041,"ĠGedurende":8042,"ĠMagnesium":8043,"COD":8044,"Ġaureus":8045,"Ġslag":8046,"Ġ2001":8047,"Ġfamilieanamnese":8048,"Ġerfelijk":8049,"ĠResp":8050,"Ġmerkt":8051,"uchtweg":8052,"IUM":8053,"afname":8054,"vrager":8055,"ofilie":8056,"Ġherhal":8057,"Ġcorrespondentie":8058,"Inf":8059,"Ġmeningitis":8060,"lossing":8061,"ectief":8062,"Telefonisch":8063,"sect":8064,"ĠPlaats":8065,"ĠVr":8066,"Ġvoorgaande":8067,"Ġreconstructie":8068,"Ġverkle":8069,"Ġverwachten":8070,"umaraat":8071,"ĠVER":8072,"ĠWeinig":8073,"Ġvoorgaand":8074,"anoom":8075,"Gro":8076,"Ġileus":8077,"191":8078,"Ġhematologie":8079,"Ġuiter":8080,"oÃ¯die":8081,"Ġspuit":8082,"Ġhypoden":8083,"afel":8084,"drachten":8085,"osynthese":8086,"ĠPupillen":8087,"ĠBeide":8088,"ĠAfname":8089,"athiop":8090,"IK":8091,"ĠFab":8092,"oxys":8093,"rouwd":8094,"Ġverdachte":8095,"Ġimmuun":8096,"different":8097,"ĠpijnResultaat":8098,"Ġfiets":8099,"Ġpoliepen":8100,"Ġwaarom":8101,"Neuro":8102,"ĠLymf":8103,"Ġthromb":8104,"5664":8105,"Act":8106,"Eosinofielen":8107,"ges":8108,"Ġinbrengen":8109,"Ġdimensies":8110,"Ġaanvankelijk":8111,"omyel":8112,"avir":8113,"Monocyten":8114,"rec":8115,"Ġlijken":8116,"IEDEN":8117,"Ġonwaarschijnlijk":8118,"gangsverslag":8119,"Ġinplannen":8120,"Ġjuist":8121,"ĠCa":8122,"pi":8123,"EES":8124,"-.":8125,"ĠPh":8126,"Ġconservatief":8127,"ĠGeaccepteerde":8128,"ĠMMW":8129,"TSH":8130,"ĠUitgebreide":8131,"oezem":8132,"ĠErnstige":8133,"Ġnovo":8134,"CS":8135,"MB":8136,"Ġcollaps":8137,"ĠACT":8138,"feb":8139,"ĠEP":8140,"Ġvrolijk":8141,"ĠAnesthesist":8142,"Ġpulmonaal":8143,"Ġontspannen":8144,"Ġkraam":8145,"Ġspray":8146,"Individuele":8147,"acilline":8148,"Ġvoorbereid":8149,"ity":8150,"othe":8151,"ĠSNAQ":8152,"Ġdiast":8153,"tie":8154,"ĠMond":8155,"EMV":8156,"Ġgedaald":8157,"Ġleeg":8158,"Ġluchtweginfectie":8159,"Ġvergeleken":8160,"Ġaangemaakt":8161,"ikel":8162,"Ġwoorden":8163,"Ġinlogpoging":8164,"nef":8165,"Ġbloedingen":8166,"maanden":8167,"Ġjejun":8168,"ĠSym":8169,"junctiv":8170,"Ġbolus":8171,"igd":8172,"Ġablatie":8173,"Ġwijz":8174,"ĠNef":8175,"intake":8176,"%).":8177,"Ġrugpijn":8178,"ico":8179,"Ġlokalisatie":8180,"ĠAnesthesiemedewerker":8181,"rikant":8182,"IOLOGIE":8183,"gedrag":8184,"Ġmetabole":8185,"tro":8186,"visite":8187,"ĠĠĠĠĠĠĠĠĠĠĠĠĠĠĠĠĠĠĠĠĠĠĠĠĠĠĠĠĠĠĠĠĠĠĠĠĠĠĠĠĠĠĠĠĠĠĠĠĠĠ":8188,"lid":8189,"bewaking":8190,"Ġvriendin":8191,"Ġthee":8192,"achn":8193,"Ġspond":8194,"ĠMeerdere":8195,"ĠPijnstilling":8196,"Ġneo":8197,"foto":8198,"iodar":8199,"Ġcarotis":8200,"Ġcysten":8201,"Ġgevolge":8202,"Ġris":8203,"jr":8204,"Patient":8205,"ĠdB":8206,"aecatie":8207,"Ġkuiten":8208,"athioprine":8209,"Ġperforatie":8210,"protocol":8211,"rood":8212,"Ġfactoren":8213,"Ġincidenten":8214,"pil":8215,"Ġverkouden":8216,"Ġprotein":8217,"Ġcomfortabel":8218,"Zie":8219,"geet":8220,"adon":8221,"Ġvorig":8222,"Ġluier":8223,"Ġaanged":8224,"ĠWG":8225,"SM":8226,"rad":8227,"raking":8228,"ĠAchter":8229,"Ġluchthoudend":8230,"rei":8231,"IEDENIS":8232,"ronidazol":8233,"ĠHe":8234,"hemat":8235,"Ġlumen":8236,"ĠSn":8237,"maat":8238,"ĠNO":8239,"Ġstuit":8240,"ĠBest":8241,"PCI":8242,"Ġsecundair":8243,"ĠResultaten":8244,"Ġgroen":8245,"Ġinflammatie":8246,"lenomegalie":8247,"BTB":8248,"hevel":8249,"abetische":8250,"Ġgeleidingstijden":8251,"uggest":8252,"Ã¯n":8253,"ĠPATIENT":8254,"gram":8255,"Ġinfiltratie":8256,"NAME":8257,"Ġexacerbatie":8258,"ĠOpge":8259,"ĠLok":8260,"Ġterminale":8261,"Ġ{":8262,"Ġcapitis":8263,"Ġtrommel":8264,"ĠArtic":8265,"sk":8266,"Ġot":8267,"bran":8268,"enummer":8269,"ain":8270,"ĠTube":8271,"Ġarterie":8272,"----------------------------------------------------------------":8273,"Ġmeldt":8274,"prof":8275,"sub":8276,"Ġglas":8277,"bestr":8278,"Ġvochtcol":8279,"Ġmocht":8280,"osten":8281,"ĠHoudt":8282,"ĠHoest":8283,"GEGEV":8284,"Ġposterior":8285,"openem":8286,"Ġbalans":8287,"Ġav":8288,"Ġorb":8289,"Ġjeu":8290,"daling":8291,"Ġfracturen":8292,"ĠHC":8293,"Ġverschil":8294,"ĠArticulatie":8295,"ĠNegatief":8296,"ĠModel":8297,"Ġpostpartum":8298,"Ġfysiotherapeut":8299,"Ġtoestemming":8300,"ĠBeeldvorming":8301,"eefregels":8302,"igment":8303,"Ġbedrijf":8304,"icilline":8305,"plex":8306,"ĠMobiliseren":8307,"assistentInterne":8308,"ĠMax":8309,"Ġmediaan":8310,"Ġgehoord":8311,"Ġadenoom":8312,"Ġdikke":8313,"vle":8314,"Ġneurochirurgie":8315,"ĠGrootte":8316,"Ġ139":8317,"ozen":8318,"gebrek":8319,"Ġbelde":8320,"ĠMO":8321,"oorza":8322,"ĠNSAID":8323,"kinder":8324,"Basofielen":8325,"ansetron":8326,"ĠGegevens":8327,"emetrie":8328,"catheter":8329,"Ġ115":8330,"lassificatie":8331,"Ġelect":8332,"Ġsalbutamol":8333,"schade":8334,"ĠAPOTHEEK":8335,"Ġsporten":8336,"slip":8337,"Individueel":8338,"rofische":8339,"plastiek":8340,"Ġzondag":8341,"isfeer":8342,"Ġinfecties":8343,"ĠÃł":8344,"ervicenummer":8345,"Ġchemoradiatie":8346,"ĠVag":8347,"CHIRURGIE":8348,"Ġgewenst":8349,"Ġverhogen":8350,"Ġoxazepam":8351,"Ġdysart":8352,"osus":8353,"Ġbegrens":8354,"ĠGroot":8355,"Ġheft":8356,"Ġverdoving":8357,"lax":8358,"Ġemotioneel":8359,"onderkwab":8360,"plopen":8361,"Ġwith":8362,"bezocht":8363,"Ġ136":8364,"laten":8365,"Ġherinn":8366,"ĠVAS":8367,"Ġspoor":8368,"20170":8369,"Ġomgeving":8370,"ĠVochtbalans":8371,"itatie":8372,"delen":8373,"hart":8374,"ademen":8375,"stenen":8376,"beademing":8377,"ĠMac":8378,"Ġpalliatieve":8379,"icyl":8380,"ĠZwangerschap":8381,"ĠTPR":8382,"Ġprimair":8383,"Ġjug":8384,"Ġdonor":8385,"ĠWeefsel":8386,"orale":8387,"ACT":8388,"ĠPATIENTGEGEV":8389,"Ġprettig":8390,"Ġbovenste":8391,"regelmatigheden":8392,"otiveerd":8393,"genitale":8394,"Ġverwardheid":8395,"ser":8396,"ĠĠĠĠĠĠĠĠĠĠĠĠĠĠĠĠĠĠĠĠĠĠĠĠĠĠĠĠĠĠĠ":8397,"verleners":8398,"aria":8399,"ramide":8400,"Ġvaatziekten":8401,"offie":8402,"ieken":8403,"Ġhumerus":8404,"orbide":8405,"ĠBlijft":8406,"ĠPatiÃ«ntnr":8407,"Ġtoedienings":8408,"ĠEnige":8409,"stellingen":8410,"klin":8411,"levoziekenhuis":8412,"Ġaankomst":8413,"SP":8414,"ĠEBV":8415,"Ġtweemaal":8416,"ETS":8417,"Ġlinkerarm":8418,"Ġ105":8419,"rofumaraat":8420,"Ġvaatlijden":8421,"ĠCF":8422,"Ġsindsdien":8423,"naald":8424,"klacht":8425,"Ġbeoordeelbaar":8426,"Ġopdrachten":8427,"Ġmidazol":8428,"Ġhetzelfde":8429,"Ġaangekomen":8430,"Ġsignificant":8431,"rache":8432,"ĠcrÃ¨me":8433,"lammato":8434,"Ġgelaten":8435,"VA":8436,"Ġinzicht":8437,"ytische":8438,"Ġgenoeg":8439,"cellen":8440,"??":8441,"Ġverpleegafdeling":8442,"Ġspecialisme":8443,"Ġkal":8444,"ĠRevisie":8445,"Ġprec":8446,"ĠOSAS":8447,"ICYL":8448,"komt":8449,"ĠSI":8450,"Ġocc":8451,"ĠDes":8452,"ĠAdequ":8453,"Ġdox":8454,"Ġuitd":8455,"cholesterolemie":8456,"anaal":8457,"Ġstil":8458,"Ġ104":8459,"slijm":8460,"Ġmenstruatie":8461,"ecifiek":8462,"ĠFabrikant":8463,"can":8464,"riet":8465,"Ġfund":8466,"Ġsmaak":8467,"ĠAdemhaling":8468,"Ġvinger":8469,"iseerd":8470,"isol":8471,"icuspidalis":8472,"voer":8473,"Ġstrak":8474,"rexaat":8475,"ring":8476,"Ġbewezen":8477,"ĠÂłĠĠÂłĠ":8478,"oplasma":8479,"Ġpub":8480,"Ġvind":8481,"ĠLP":8482,"hn":8483,"Ġtandenrij":8484,"hesietype":8485,"Ġdysurie":8486,"Hyper":8487,"boek":8488,"acter":8489,"ĠDBS":8490,"ankelijke":8491,"Ġbeste":8492,"Normale":8493,"rekkingen":8494,"assistentAnesthesiologie":8495,"iceps":8496,"SALICYL":8497,"schrijven":8498,"ĠPerifeer":8499,"retentie":8500,"usus":8501,"ragment":8502,"atrisch":8503,"Ġatr":8504,"remor":8505,"RSA":8506,"rofloxacine":8507,"Ġverloopt":8508,"identificatie":8509,"icrobiologie":8510,"Ġmevr":8511,"Ġhoortoe":8512,"ĠHep":8513,"othy":8514,"Ġscoop":8515,"Ġpiepen":8516,"Ġrh":8517,"icol":8518,"Ġmyelum":8519,"Ġzakt":8520,"voe":8521,"ĠĠĠĠĠĠĠĠĠĠĠĠĠĠĊ":8522,"ML":8523,"ZUID":8524,"ĠSLE":8525,"Ġverbeteren":8526,"Ġontslagbrief":8527,"Is":8528,"Ġbeperking":8529,"otrexaat":8530,"Ġmedicatieoverzicht":8531,"Ġost":8532,"ĠASA":8533,"tjes":8534,"incl":8535,"angitis":8536,"oer":8537,"Ġ137":8538,"Ġmidazolam":8539,"ĠCardiaal":8540,"Ġmotorische":8541,"ĠDa":8542,"Ġbenigne":8543,"Ġbuikwand":8544,"asaal":8545,"onef":8546,"Ġmeenemen":8547,"Ġinclusief":8548,"ĠEHH":8549,"ĠâĢľ":8550,"chloor":8551,"initieve":8552,"gelijkse":8553,"Ġmedia":8554,"Ġaangezicht":8555,"Ġdivertic":8556,"Hr":8557,"Ġdaardoor":8558,"ĠAs":8559,"ĠAnesthesietype":8560,"ifed":8561,"ĠWerd":8562,"ĠECV":8563,"Ġvasculitis":8564,"cyste":8565,"Ġgranul":8566,"bl":8567,"Ġbepaalde":8568,"Ġhoofdbehandelaar":8569,"Ġlap":8570,"Ġcef":8571,"resentatie":8572,"Ġafasie":8573,"ytrocyten":8574,"stekort":8575,"Ġaortaklepstenose":8576,"geschat":8577,"Ġparameters":8578,"Ġronde":8579,"Ġoxycontin":8580,"Ġpak":8581,"Ġstijging":8582,"ĠaPTT":8583,"inderd":8584,"ĠKort":8585,"Ġbril":8586,"Ġverzoeken":8587,"drukken":8588,"parine":8589,"Ġlevens":8590,"Ġafger":8591,"Ġpsychiater":8592,"âĢ¦âĢ¦âĢ¦âĢ¦":8593,":+":8594,"mon":8595,"ĠGeneeskunde":8596,"ĠHierop":8597,"vormend":8598,"ĠAort":8599,"ciplin":8600,"Consult":8601,"Ġvoorbereiding":8602,"ĠHH":8603,"Ġspec":8604,"Sociaal":8605,"preventie":8606,"Ġvertelde":8607,"EHAND":8608,"ĠPrim":8609,"reigende":8610,"Ġrill":8611,"plaats":8612,"LAD":8613,"Ġlongvaattekening":8614,"tijden":8615,"Ġvitaal":8616,"Ġkijkt":8617,"wijzer":8618,"Ġbloedkweken":8619,"ĠNeu":8620,"implant":8621,"opend":8622,"eerbaar":8623,"ĠStoma":8624,"Ġsociaal":8625,"uplex":8626,"han":8627,"Ġveroorza":8628,"vice":8629,"Ġfa":8630,"ĠCardio":8631,"eltransplantatie":8632,"ĠIgM":8633,"Ġ(>":8634,"Ġdwang":8635,"Ġnachtzweten":8636,"Ġatypische":8637,"================":8638,"oliose":8639,"onale":8640,"MT":8641,"arisatie":8642,"raject":8643,"ice":8644,"ĠDet":8645,"Ġsnijtijd":8646,"Ġmeninge":8647,"Ġseptum":8648,"Ġatm":8649,"Ġjong":8650,"rechter":8651,"okter":8652,"Ġbloedkweek":8653,"Ġvagina":8654,"ping":8655,"Ġroker":8656,"Ġpatroon":8657,"Ġachteruit":8658,"Ġschrijven":8659,"Ġtrombo":8660,"Ġconcentratie":8661,"RADS":8662,"zijd":8663,"analyse":8664,"Ġslanke":8665,"mac":8666,"Ġzussen":8667,"Ġtij":8668,"Overweging":8669,"emateus":8670,"evaluatie":8671,"ĠAlle":8672,"iglycer":8673,"Ġinfectieus":8674,"Ġavonds":8675,"Ġarter":8676,"ĠEinde":8677,"neemt":8678,"ĠPrednison":8679,"Ġromp":8680,"onregelmatigheden":8681,"fac":8682,"TRA":8683,"201708":8684,"olisch":8685,"ICD":8686,"ĠSpaarne":8687,"Ġmorgenochtend":8688,"omyelitis":8689,"VI":8690,"ĠOpmerkingen":8691,"'.":8692,"vicula":8693,"Ġeros":8694,"ĠPoliklinische":8695,"ĠNF":8696,"Ġdy":8697,"ĠRecidief":8698,"allergie":8699,"ifedipine":8700,"YC":8701,"ĠSluit":8702,"Ġbegint":8703,"ĠCirculatoir":8704,"Ġontbijt":8705,"uro":8706,"56625":8707,"Ġspelen":8708,"kv":8709,"EDEN":8710,"Ġintermit":8711,"Ġreag":8712,"etero":8713,"platin":8714,"ĠChemie":8715,"Ġindex":8716,"Ġnadat":8717,"Ġlun":8718,"nea":8719,"ĠPVC":8720,"ĠPositie":8721,"glas":8722,")+":8723,"ĠGynaec":8724,"Ġgedachten":8725,"Ġcalciumcarbonaat":8726,"Ġligging":8727,"ĠOngecompliceerde":8728,"lijven":8729,"hen":8730,"ELF":8731,"ĠKl":8732,"Ġmbv":8733,"anale":8734,"Ġverblijf":8735,"ĠUrologie":8736,"mal":8737,"ĠLOG":8738,"Ġmedicijn":8739,"Ġstraal":8740,"Ġmediaal":8741,"Ġdysfunctie":8742,"Ġbaby":8743,"Ġlaparoscopische":8744,"ĠWerkt":8745,"ĠROM":8746,"ĠRevalidatie":8747,"etal":8748,"ODS":8749,"Ġnoduli":8750,"lengte":8751,"ĠĠĠÂł":8752,"MOV":8753,"Ġfil":8754,"Ġtraag":8755,"Ġbelasten":8756,"Ġcare":8757,"plaatsen":8758,"ĠVerloopt":8759,"idazolam":8760,"otalol":8761,"omide":8762,"samen":8763,"Ġverwijzer":8764,"Ġdentitie":8765,"Ġbevindt":8766,"ĠTelefonisch":8767,"upil":8768,"Ġkanker":8769,"Ġstroom":8770,"EESKUNDE":8771,"ĠGev":8772,"rothese":8773,"oepen":8774,"pneumonie":8775,"ĠLM":8776,"ĠVOORGESCHIEDENIS":8777,"Ġgebieden":8778,"Ġoksel":8779,"bet":8780,"ĠPI":8781,"Ġoxycodon":8782,"peritone":8783,"BG":8784,"Ġtherapeutische":8785,"ĠMultip":8786,"Ġwoord":8787,"Ġborstvoeding":8788,"revalidatie":8789,"Ġsem":8790,"Ġverteld":8791,"alp":8792,"Ġessentie":8793,"ĠSlanke":8794,"oxiciteit":8795,"Kw":8796,"ALCI":8797,"Ġchl":8798,"dient":8799,"orp":8800,"Ġhypok":8801,"rist":8802,"Ġexc":8803,"etjes":8804,"Ġevalueren":8805,"Ġplanning":8806,"Ġgenezen":8807,"rolimus":8808,"drempel":8809,"ĠRIP":8810,"ĠAanbrengen":8811,"Ġlarynx":8812,"ĠLang":8813,"Ġgekeken":8814,"bodem":8815,"Ġnyst":8816,"LS":8817,"Ġhevige":8818,"Ġdomin":8819,"Ġtac":8820,"iliseerd":8821,"Ġaandrang":8822,"Ġdraaien":8823,"Ġgehoorverlies":8824,"ienden":8825,"moment":8826,"Voort":8827,"duc":8828,"Dit":8829,"Ġwondjes":8830,"bovenkwab":8831,"idisciplin":8832,"veen":8833,"Ġanat":8834,"Ġantibiot":8835,"Ġhypog":8836,"5663333":8837,"850":8838,"ĠTEE":8839,"Ġlymfklieren":8840,"Ġstamceltransplantatie":8841,"ĠAML":8842,"agitis":8843,"Ġcomplex":8844,"Ġdoof":8845,"ĠBent":8846,"Ġcataract":8847,"Volgende":8848,"ĠCWK":8849,"CODON":8850,"ĠMateriaal":8851,"atose":8852,"EHANDEL":8853,"Ġosteoporose":8854,"ĠVAC":8855,"Ġsteen":8856,"otisch":8857,"irect":8858,"Ġlux":8859,"ĠKliniek":8860,"Ġadnex":8861,"basis":8862,"Ġcoeli":8863,"Ġind":8864,"Ġcoil":8865,"Ġdiuretica":8866,"gevonden":8867,"Ġcal":8868,"specialis":8869,"amycine":8870,"Ġdiagnostische":8871,"arachn":8872,"extirpatie":8873,"tumor":8874,"dese":8875,"Ġvochtbalans":8876,"inib":8877,"ĠVen":8878,"freq":8879,"Ġ+.":8880,"handig":8881,"Ġherbeoordeling":8882,"ĠVerd":8883,"april":8884,"Âµmol":8885,"ĠDus":8886,"sluitend":8887,"2008":8888,"Ġspironolacton":8889,"Ġverkregen":8890,"Ġbloeds":8891,"Ġopnames":8892,"onefritis":8893,"Nog":8894,"Sinds":8895,"aryng":8896,"SE":8897,"Ġmelanoom":8898,"intens":8899,"Ġdgn":8900,"dose":8901,"Ġorbit":8902,"ĠMisselijkheid":8903,"Ġnerv":8904,"luen":8905,"ĠVerkoever":8906,"ĠCave":8907,"type":8908,"ck":8909,"Ġsternum":8910,"Ġni":8911,"ÂłĠÂłĠÂłĠÂłĠ":8912,"aliemie":8913,"idol":8914,"Ġuitgesproken":8915,"ĠMEDICATIE":8916,"Plan":8917,"Ġbesteld":8918,"Ritme":8919,"Klik":8920,"dipine":8921,"Ġmechan":8922,"iteindelijk":8923,"itt":8924,"uitslagen":8925,"Ġscoliose":8926,"Ġpaniek":8927,"ĠUrogenitaal":8928,"Ġwonden":8929,"ĠEetlust":8930,"totale":8931,"Ġtzt":8932,"goede":8933,"MRN":8934,"Ġinterna":8935,"Ou":8936,"ĠAankomst":8937,"koppeld":8938,"Ġbelasting":8939,"Ġgedocument":8940,"RvK":8941,"chloorthiazide":8942,"Ġvervel":8943,"ĠNieuw":8944,"140":8945,"ĠDR":8946,"Ġimpon":8947,"Ġhen":8948,"ĠPATIENTGEGEVENS":8949,"ococcus":8950,"Ġgebroken":8951,"AMN":8952,"fyseem":8953,"UG":8954,"ĠHT":8955,"ortel":8956,"ĠUp":8957,"Ġheldere":8958,"Voorgeschiedenis":8959,"SG":8960,"Ġoefeningen":8961,"armac":8962,"Ġrekening":8963,"slacht":8964,"ĠOchtend":8965,"ĠProcedure":8966,"Ġtraumatisch":8967,"Ġzaalarts":8968,"ĠGy":8969,"Ġkoffie":8970,"trent":8971,"bespreking":8972,"Ġmeege":8973,"ĠĠĠĠĠĠĠĠĠĠĠĠĠĠĠĠĠĠĠĠĠĠĠĠĠĠĠĠĠĠ":8974,"ĠVolledig":8975,"Kindergeneeskunde":8976,"Ġondansetron":8977,"Ġbesluit":8978,"zyg":8979,"Gewicht":8980,"berg":8981,"Ġdiagnostisch":8982,"FG":8983,"ĠAndere":8984,"wijderen":8985,"Ġamiodar":8986,"LC":8987,"ĠPERSONbezocht":8988,"ĠOorheelkunde":8989,"anties":8990,"Ġconsistentie":8991,"Ġinhoud":8992,"Later":8993,"Ġneon":8994,"locatie":8995,"asieve":8996,"ontsteking":8997,"Ġaangesloten":8998,"activatiecode":8999,"ĠMatig":9000,"oeling":9001,"diagnost":9002,"ores":9003,"ĠAvond":9004,"ctuur":9005,"iter":9006,"Ġzout":9007,"Ġextensie":9008,"Ġzaterdag":9009,"Ġconsent":9010,"Actueel":9011,"ĠDaarom":9012,"wordt":9013,"ĠPeroperatieve":9014,"ĠgeÃ¯nd":9015,"Ġcoronairlijden":9016,"dragen":9017,"Ġdragelijk":9018,"Ġonderzocht":9019,"ĠHoud":9020,"Ġkortademigheid":9021,"Ġvolg":9022,"Ġwandonregelmatigheden":9023,"ogh":9024,"VEEN":9025,"ĠOpgeslagen":9026,"ĠSU":9027,"Ġ(<":9028,"Ġblauwe":9029,"complicaties":9030,"Ġmacro":9031,"eersing":9032,"traject":9033,"bekende":9034,"lamp":9035,"ham":9036,"Ġbereikbaar":9037,"anto":9038,"introm":9039,"Ġoptreden":9040,"Ġlichtreactief":9041,"ĠBovenstaande":9042,"ĠFer":9043,"uctie":9044,"ĠUitgelegd":9045,"Ġbis":9046,"acu":9047,"achtiging":9048,"umb":9049,"schrift":9050,"PT":9051,"Ġtijde":9052,"ĠSO":9053,"oordelen":9054,"Ġdood":9055,"WG":9056,"Ġlam":9057,"ĠWGBO":9058,"haven":9059,"lang":9060,"Ġkram":9061,"Ġobesitas":9062,"Ġlangdurige":9063,"ĠMRSA":9064,"Ġaltern":9065,"Ġgeob":9066,"GD":9067,"gramma":9068,"Ġneutropen":9069,"ĠAPTT":9070,"AMNESE":9071,"oxine":9072,"Ġjicht":9073,"vloeistof":9074,"Ġbroers":9075,"Ġgebeurd":9076,"ĠGestart":9077,"Ġplaveisel":9078,"Ġurin":9079,"Ġhistorie":9080,"CIRC":9081,"pes":9082,"orbiditeit":9083,"Ġwortel":9084,"Ġboezem":9085,"eller":9086,"Ġoverlegd":9087,"matologie":9088,"BER":9089,"Ġgrij":9090,"ĠPAP":9091,"Ġplantair":9092,"Ġbron":9093,"Ġverlagen":9094,"laatste":9095,"amizol":9096,"Ġpsychiatrie":9097,"ĠFunctionele":9098,"ĠVaccinaties":9099,"Ġbacterie":9100,"Ġradialis":9101,"En":9102,"ellingen":9103,"knie":9104,"oemen":9105,"ĠBurger":9106,"suline":9107,"uto":9108,"ĠSlank":9109,"ĠVindt":9110,"Ġ142":9111,"ĠKindergeneeskunde":9112,"BLOED":9113,"ĠChol":9114,"Ġbegrijpt":9115,"anel":9116,"Neur":9117,"Ġnutridrink":9118,"Ġborstkanker":9119,"600":9120,"Ġinterventies":9121,"Ġgeindiceerd":9122,"akter":9123,"bep":9124,"Ġgedocumenteerd":9125,"oxysmaal":9126,"Ġkreatinine":9127,"ARB":9128,"Ġfosf":9129,"olin":9130,"cre":9131,"zijdig":9132,"Ġgeorderd":9133,"Ġextremiteiten":9134,"onitis":9135,"Ġspierpijn":9136,"CENTRUM":9137,"ĠLI":9138,"oradrenaline":9139,"Ġgemotiveerd":9140,"Ġhelaas":9141,"linker":9142,"ĠFollow":9143,"Ġuitvoeren":9144,"Ġbuur":9145,"Ġstructuren":9146,"uikers":9147,"ulum":9148,"Ġbeadem":9149,"iber":9150,"wezige":9151,"ĠOverdracht":9152,"HOF":9153,"iseren":9154,"Ġpijnst":9155,"nvt":9156,"BB":9157,"ĠInterv":9158,"Ġtijden":9159,"Ġrivaroxaban":9160,"olie":9161,"Ġbehulp":9162,"Ġaangeboden":9163,"perig":9164,"iÃ«t":9165,"Ġzwak":9166,"vormige":9167,"onchi":9168,"lijnen":9169,"studie":9170,"Ġherhaling":9171,"Ġveiligheid":9172,"Ġmeteen":9173,"Fax":9174,"ĠStabiele":9175,"Ġpulmonalis":9176,"toe":9177,"OLVG":9178,"inalis":9179,"Ġnr":9180,"chte":9181,"cirrose":9182,"geboren":9183,"ICOLON":9184,"Ġpil":9185,"Ġhydrocortison":9186,"160":9187,"Ġharttonen":9188,"Ġmyocardinfarct":9189,"ĠSAB":9190,"ĠRF":9191,"circ":9192,"kenen":9193,"ĠLDL":9194,"Ġback":9195,"ĠGez":9196,"Ġbewegingen":9197,"Ġoperatieve":9198,"CTIE":9199,"ooik":9200,"ofosf":9201,"Ġderde":9202,"aternale":9203,"Ġgeel":9204,"roep":9205,"Ġhoud":9206,"EMEN":9207,"Ġonderkwab":9208,"KP":9209,"Ġendometriose":9210,"ĠWilde":9211,"Ġgluc":9212,"CLOPRA":9213,"andida":9214,"ĠBuikpijn":9215,"bectomie":9216,"asker":9217,"Ġvoordat":9218,"dagen":9219,"ament":9220,"Ġmesenter":9221,":>":9222,"Ġkoud":9223,"Ġnefropathie":9224,"ĠCardioloog":9225,"Ġboos":9226,"Ġsep":9227,"compressie":9228,"atriemie":9229,"ĠHeu":9230,"aps":9231,"otje":9232,"KZ":9233,"alender":9234,"CLC":9235,"Ġurinaal":9236,"ediast":9237,"Ġvruchtwater":9238,"Ġaantoon":9239,"cyt":9240,"iekte":9241,"unen":9242,"roxine":9243,"oos":9244,"ĠVerw":9245,"Ġingestuurd":9246,"Ġkopje":9247,"Ġstond":9248,"Ġaanspreek":9249,"Ġfixatie":9250,"ĠZelfstandig":9251,"ĠIvm":9252,"emmer":9253,"Ġwijzigen":9254,"ome":9255,"ĠCRT":9256,"ĠPatiÃ«ntenregistratie":9257,"ĠgeÃ¯ndiceerd":9258,"hepatische":9259,"Ġasym":9260,"ocardiogram":9261,"verdikking":9262,"Ġeruit":9263,"Ġverzekerings":9264,"ĠoxyCODON":9265,"Ġingevuld":9266,"Ġoverig":9267,"Ġulcera":9268,"Ġongecompliceerde":9269,"Lateraliteit":9270,"Ġhypertensieve":9271,"Ġnav":9272,"orroe":9273,"CU":9274,"ĠFl":9275,"IJD":9276,"Ġporta":9277,"Ġsystemische":9278,"Algemeen":9279,"ĠVerloop":9280,"Ġaft":9281,"Ġgraft":9282,"ELD":9283,"ĠSE":9284,"beloop":9285,"ĠParkinson":9286,"verzorging":9287,"Ġgeste":9288,"Ġdeed":9289,"efinitief":9290,"icontrole":9291,"ĠWoont":9292,"ĠĠĠĠĠĠĠĠĠĠĠĠĠĠĠĠĠĠĠĠĠĠĠĠĠĠĠĠĠĠĠĠĠĠĠ":9293,"Ġrechterbeen":9294,"lie":9295,"Ġsil":9296,"lodipine":9297,"icylzuur":9298,"Ã¯c":9299,"Verdenking":9300,"eck":9301,"Ġbilaterale":9302,"Ġthuismedicatie":9303,"isters":9304,"ĠMEWS":9305,"RAN":9306,"Bijzonderheden":9307,"Ġoverwogen":9308,"Ġprogn":9309,"ĠBeeldvormend":9310,"Ġpyl":9311,"Ġnaald":9312,"ĠANS":9313,"rohn":9314,"Ġtrommelvlies":9315,"Ġfoetale":9316,"stelsel":9317,"producten":9318,"opsie":9319,"cephalus":9320,"Ġmidline":9321,"ĠPolikliniek":9322,"ipitaal":9323,"dicht":9324,"ĠFunctie":9325,"Ġverstuurd":9326,"ĠRug":9327,"ooikoorts":9328,"Ġbehalve":9329,"IOCA":9330,"groe":9331,"wijl":9332,"Ġ1999":9333,"edeerd":9334,"ylact":9335,"Ġrecepten":9336,"oghurt":9337,"nod":9338,"Ġkinderwens":9339,"gradig":9340,"slipidemie":9341,"Ġmaagsonde":9342,"Ġprostaatcarcinoom":9343,"ĠSpecieleanamnese":9344,"Ġsuggest":9345,"Ġdepressieve":9346,"Ġwa":9347,"Ġwaarin":9348,"Ġepig":9349,"Ġruime":9350,"Ġpresenteerde":9351,"Controle":9352,"kal":9353,"Ġpra":9354,"ĠKweken":9355,"latio":9356,"oecum":9357,"Ġ1998":9358,"Ġdysf":9359,"Ġnodulaire":9360,"ĠUiteindelijk":9361,"odialyse":9362,"sies":9363,"ĠAlert":9364,"ascarcinoom":9365,"agmus":9366,"alan":9367,"agrel":9368,"scap":9369,"Ġquo":9370,"Ġsclerose":9371,"VH":9372,"Ġmigraine":9373,"CLOPRAmide":9374,"ĠVP":9375,"spar":9376,"Ġsubduraal":9377,"yo":9378,"Ġneoplasma":9379,"stap":9380,"ĠOpnieuw":9381,"Ġtoeval":9382,"Ġaortab":9383,"romycine":9384,"iciteit":9385,"Ġsikkelcel":9386,"roninezuur":9387,"ĠMan":9388,"Ġbetere":9389,"Ġtm":9390,"Ġdank":9391,"ĠLichte":9392,"ĠLijn":9393,"sbe":9394,"oscopisch":9395,"Ġ117":9396,"Ġlichamelijke":9397,"Ġhallucinaties":9398,"ĠOnc":9399,"____________________":9400,"Ġbelafspraak":9401,"Ġbup":9402,"Ġserie":9403,"oseerd":9404,"ĠWater":9405,"schrijving":9406,"Ġbif":9407,"Ġopenen":9408,"uf":9409,"prim":9410,"drom":9411,"Ġherstarten":9412,"rictie":9413,"ĠTwe":9414,"ĠAcute":9415,"Ġelev":9416,"ceratie":9417,"Ġradioloog":9418,"Ġdoorgegeven":9419,"isseld":9420,"PRO":9421,"azine":9422,"asse":9423,"pport":9424,"Ġcerebel":9425,"ĠpH":9426,"217":9427,"Ġmit":9428,"ĠEPIC":9429,"Ġfit":9430,"ARDIOLOGIE":9431,"ĠMobiliteit":9432,"pa":9433,"\".":9434,"HL":9435,"Ġduim":9436,"566918":9437,"Zorgmail":9438,"ness":9439,"FORMINE":9440,"Ġviel":9441,"Ġbuismaag":9442,"atten":9443,"SCH":9444,"spect":9445,"ĠGaf":9446,"strument":9447,"Ġbor":9448,"regelen":9449,"rong":9450,"Ġprobeert":9451,"Gaat":9452,"hoogde":9453,"runcus":9454,"Ġspeelt":9455,"Ġacceptabel":9456,"ĠPathologie":9457,"agrelor":9458,"uizen":9459,"Ġva":9460,"conazol":9461,"adenoom":9462,"Ġaanwezigheid":9463,"Ġzoveel":9464,"Ġwie":9465,"lingu":9466,"ĠSle":9467,"oediening":9468,"krampen":9469,"Ġmediastinale":9470,"ucleaire":9471,"zymen":9472,"werkers":9473,"ĠWest":9474,"ĠBestemd":9475,"acemaker":9476,"RM":9477,"We":9478,"Ġbacteri":9479,"verwezen":9480,"Ġgrie":9481,"Ġonderbenen":9482,"punt":9483,"Ġhepato":9484,"Ġomtrent":9485,"Ġ141":9486,"ĠCBD":9487,"ĠGister":9488,"Ġlinkerbeen":9489,"houding":9490,"Ġdisper":9491,"dhr":9492,"Ġcel":9493,"Ġgeconstateerd":9494,"ĠCOL":9495,"Dhr":9496,"gestart":9497,"gi":9498,"Ġherbe":9499,"Ġterecht":9500,"Ġgezegd":9501,"LU":9502,"Ġkalender":9503,"ĠVanmiddag":9504,"Ġanderen":9505,"Ġpsoriasis":9506,"spor":9507,"Ġkoel":9508,"ĠNTG":9509,"Ġtemazepam":9510,"zame":9511,"pensie":9512,"ĠHbA":9513,"ĠColoscopie":9514,"Ġgereguleerd":9515,"Ġkar":9516,"ELIJK":9517,"Voortgangsverslag":9518,"Ġcomp":9519,"Ġzetpil":9520,"Ġconsequenties":9521,"Ġopgeb":9522,"lijkheid":9523,"ĠCardiovasculaire":9524,"oclop":9525,"Ġdragen":9526,"schappen":9527,"Ġherinneren":9528,"Ġvergeet":9529,"ĠCVD":9530,"Ġacht":9531,"rig":9532,"pels":9533,"Ġgraviditeit":9534,"AMETS":9535,"Ġwegen":9536,"180":9537,"ĠVertrek":9538,"Ġklasse":9539,"Ġvoorwand":9540,"Ġtrekkingen":9541,"ĠmetoCLOPRAmide":9542,"oiden":9543,"ERGIE":9544,"ĠCL":9545,"PET":9546,"Ġhierin":9547,"osen":9548,"Ġtwijfel":9549,"Ġlaser":9550,"Ġiliaca":9551,"ĠFOL":9552,"Ġmethotrexaat":9553,"Ġbestemming":9554,"Bovengenoemde":9555,"Ġretinopathie":9556,"ĠBSE":9557,"ĠGPEUMC":9558,"genoeg":9559,"Ġprecies":9560,"Minu":9561,"ĠVumc":9562,"zogen":9563,"illaire":9564,"ZOL":9565,"ypisch":9566,"Ġamputatie":9567,"ĠVoort":9568,"ĠNov":9569,"geleide":9570,"ĠBehandeldoelen":9571,"Ġcarbasalaatcalcium":9572,"Ġthoraxdrain":9573,"Subjectief":9574,"pakket":9575,"obb":9576,"Ġverzam":9577,"ĠTaal":9578,"2009":9579,"ĠASAMETS":9580,"stoma":9581,"decubitus":9582,"othyroxine":9583,"ĠMy":9584,"ĠOF":9585,"item":9586,"enteerd":9587,"ĠDetails":9588,"spoten":9589,"ocus":9590,"Ġbelangrijke":9591,"abces":9592,"Ġvlgs":9593,"Ġrelatief":9594,"Ġ1500":9595,"ĠDOS":9596,"edag":9597,"ĠAugmentin":9598,"luenza":9599,"ÂłÂłÂłÂłÂłÂł":9600,"Ġtussendoor":9601,"Ġlumbale":9602,"Ġbouwen":9603,"ANDOZ":9604,"Ġoverlijden":9605,"Ġdeelname":9606,"sycho":9607,"scand":9608,"Ġdubbele":9609,"Ġ170":9610,"klasse":9611,"breken":9612,"zwelling":9613,"Ġzol":9614,"elsel":9615,"ĠTransfers":9616,"Ġnecrose":9617,"arme":9618,"atting":9619,"Ġibuprofen":9620,"Ġhypofyse":9621,"Ġapicaal":9622,"Ġsterke":9623,"ĠTAVI":9624,"drempelig":9625,"omediast":9626,"ĠAortaklep":9627,"Ġbeginnende":9628,"ĠVorige":9629,"OMIE":9630,"DU":9631,"Ġmiddenoor":9632,"Ġvliezen":9633,"ĠALLERGIE":9634,"Ġgisteravond":9635,"Ġgroter":9636,"zuigen":9637,"Ġservicenummer":9638,"hypert":9639,"Ġlesie":9640,"itair":9641,"lijks":9642,"zend":9643,"ĠProgressie":9644,"Ġleu":9645,"ĠPulmonaal":9646,"Ġdaarvan":9647,"Ġcava":9648,"Ġdiabetische":9649,"ĠMRC":9650,"wekbaar":9651,"Ġfascie":9652,"mov":9653,"clavic":9654,"Ġgebleven":9655,"Ġcontactpersoon":9656,"salicylzuur":9657,"ĠSport":9658,"Ġinductie":9659,"rijke":9660,"ĠSkelet":9661,"Ġnadro":9662,"Ġpersen":9663,"ethra":9664,"Ġbloedings":9665,"Ġmil":9666,"Ġ134":9667,"oint":9668,"stoffen":9669,"bestrijding":9670,"ERST":9671,"spuiten":9672,"Ġdokter":9673,"Ġinjecties":9674,"Ġgenetisch":9675,"aaf":9676,"Ġincontinent":9677,"Ġtibia":9678,"Ġhemisfeer":9679,"icagrelor":9680,"ĠOmdat":9681,"Ġnadroparine":9682,"Ġfrequente":9683,"dnisolon":9684,"ĠSerien":9685,"irom":9686,"cost":9687,"Ġsotalol":9688,"ĠVIAZorgmail":9689,"dilatatie":9690,"ĠBrief":9691,"ĠVo":9692,"Ġchrom":9693,"Ġoverweeg":9694,"->":9695,"ieerd":9696,"Ġplaatsgevonden":9697,"ULM":9698,"ĠZoon":9699,"umcarcinoom":9700,"STELVEEN":9701,"Ġcalc":9702,"Ġbijhouden":9703,"ĠAMCSEH":9704,"ĠThuissituatie":9705,"Ġsublingu":9706,"izeligheid":9707,"vas":9708,"achycardie":9709,"kast":9710,"ĠUrin":9711,"Ġana":9712,"proef":9713,"Ġdysartrie":9714,"entriculair":9715,"Ġrillingen":9716,"Ġdegeneratieve":9717,"prox":9718,"ĠANAMNESE":9719,"ager":9720,"Ġ102":9721,"Ġmut":9722,"ĠBijwerkingen":9723,"ĠSindsdien":9724,"Ġcalcificaties":9725,"gevoegd":9726,"dekken":9727,"WEG":9728,"hkv":9729,"Ġalsof":9730,"Ġ145":9731,"Ġverkal":9732,"specialiseerd":9733,"ĠPremedicatie":9734,"Ġvaccinatie":9735,"Ġingesteld":9736,"Ġcost":9737,"ariaat":9738,"Ġbur":9739,"Ġ132":9740,"KLINISCHEOK":9741,"Ġgestoord":9742,"MOVICOLON":9743,"icc":9744,"apid":9745,"oortje":9746,"ĠHART":9747,"Ġblasten":9748,"ĠPTA":9749,"retariaat":9750,"voorgeschiedenis":9751,"Ġnmol":9752,"aaknaald":9753,"ĠRest":9754,"Ġgehaald":9755,"otrop":9756,"Ġfunctioneel":9757,"spiratorius":9758,"Ġliezen":9759,"Ġbradycardie":9760,"Ġdispertablet":9761,"Ġneurochirurg":9762,"Ġbehandelingen":9763,"Ġosteomyelitis":9764,"Ġaangeven":9765,"ĠMDN":9766,"5669191":9767,"Ġspieren":9768,"IgG":9769,"Ġ1106":9770,"Ġrustiger":9771,"ĠBezinking":9772,"Ġventrikelsysteem":9773,"Ġgenetica":9774,"ofosfamide":9775,"Ġzelfde":9776,"Ġmedewerker":9777,"Ġgaas":9778,"ĠMA":9779,"Ġmusc":9780,"Ġthuissituatie":9781,"Per":9782,"stit":9783,"Ġhypercholesterolemie":9784,"ĠVl":9785,"Ġvroeger":9786,"Ġferrofumaraat":9787,"screening":9788,"Ġboter":9789,"itiatief":9790,"wortel":9791,"Ġnetjes":9792,"spier":9793,"Le":9794,"Ġcreme":9795,"olf":9796,"Ġmiskra":9797,"erolateraal":9798,"Ġmooi":9799,"ĠUitvo":9800,"OOST":9801,"Ġrisk":9802,"Ġerythemat":9803,"cope":9804,"agg":9805,"ĠĠĠĠĠĠĠĠĠĠĠĠĠĠĠĠĠĠĠĠĠĠĠ":9806,"Goed":9807,"ated":9808,"ĠkPa":9809,"Ġproduc":9810,"bestemming":9811,"ieus":9812,"ĠImmob":9813,"uco":9814,"iconazol":9815,"Ġverdriet":9816,"ĠSonde":9817,"deze":9818,"zakking":9819,"ĠMedic":9820,"Ġschoenen":9821,"Ġlongziekten":9822,"Stap":9823,"Ges":9824,"woorden":9825,"ĠInspectie":9826,"plein":9827,"oter":9828,"ĠART":9829,"eep":9830,"SEHTriage":9831,"ray":9832,"Ġconcrementen":9833,"Ġrij":9834,"Ġmucosa":9835,"mere":9836,"ĠVerpleegkundigen":9837,"UID":9838,"Ġdoorgenomen":9839,"obstructie":9840,"Ġuitstraling":9841,"ĠDagelijks":9842,"ĠWaarschijnlijk":9843,"ĠNederlands":9844,"Ġkeelpijn":9845,"ARL":9846,"olithiasis":9847,"ĠSpont":9848,"atter":9849,"Ġlidoca":9850,"upervisie":9851,"Ġmeropenem":9852,"essie":9853,"haar":9854,"Gezien":9855,"Ġ**":9856,"asthuis":9857,"hoesten":9858,"ĠIG":9859,"emmen":9860,"Ġlezen":9861,"ĠAmc":9862,"Ġduoden":9863,"onium":9864,"Ġtenzij":9865,"dosering":9866,"ĠAnemie":9867,"VAS":9868,"spreid":9869,"Ġsneller":9870,"YCH":9871,"splantaat":9872,"urele":9873,"ĠGebruikte":9874,"ĠPerioperatieve":9875,"ZELF":9876,"istente":9877,"room":9878,"ĠOntslagmedicatie":9879,"Ġ++":9880,"utic":9881,"own":9882,"ĠGespecialiseerd":9883,"130":9884,"Ġlager":9885,"Ġzoeken":9886,"municatie":9887,"Ġdragerschap":9888,"Ġvariant":9889,"Bron":9890,"Ġvolt":9891,"Ġoptim":9892,"BPR":9893,"ĠCCU":9894,"fracturen":9895,"ĠElders":9896,"NEMEN":9897,"Ġapex":9898,"ĠEMG":9899,"Supervisor":9900,"ĠUitgebreid":9901,"apen":9902,"Ġcerebrale":9903,"ĠRisicofactoren":9904,"Ġvoeren":9905,"gebeld":9906,"olus":9907,"ris":9908,"Ġlen":9909,"Ġirreg":9910,"steek":9911,"eerder":9912,"Ġoperatief":9913,"Ġhuilen":9914,"Ġsuspensie":9915,"orrh":9916,"ĠMar":9917,"Ġopgehaald":9918,"Ġporties":9919,"Ġpolibezoek":9920,"ĠLast":9921,"CAG":9922,"Ġherstellen":9923,"vert":9924,"raxiparine":9925,"Ġverna":9926,"Ġtestis":9927,"ĠDy":9928,"Ġlow":9929,"ĠEUS":9930,"2000":9931,"uidelijke":9932,"Ġcou":9933,"PKRE":9934,"vor":9935,"Eerste":9936,"Ġovergenomen":9937,"Ġkanaal":9938,"Ġtramadol":9939,"raak":9940,"ĠVEN":9941,"ĠREDEN":9942,"ĠPIP":9943,"ĠOVERNEMEN":9944,"Door":9945,"ĠSerienr":9946,"ating":9947,"Ġcortic":9948,"recon":9949,"Ġminuut":9950,"Ġazathioprine":9951,"Ġprikk":9952,"ĠFractuur":9953,"ĠGeslacht":9954,"Ġlactaat":9955,"Ġprognose":9956,"Ġdoorlopend":9957,"ĠAZ":9958,"oeidheid":9959,"Ġscrot":9960,"hangen":9961,"ĠAlgehele":9962,"ĠOste":9963,"ĠDES":9964,"gevolgen":9965,"cy":9966,"ĠVriend":9967,"ĠOed":9968,"ĠTransfer":9969,"301":9970,"akie":9971,"Ġfot":9972,"ĠRespiratie":9973,"Ġstab":9974,"Ġvertellen":9975,"Ġrechterhand":9976,"uticason":9977,"sport":9978,"lem":9979,"geleiding":9980,"LOD":9981,"Ġplus":9982,"Ġcompleet":9983,"ĠLVEF":9984,"Ġbevat":9985,"Ġhalve":9986,"ionale":9987,"eelde":9988,"udic":9989,"ĠMedi":9990,"ĠZwelling":9991,"Ġbijwerking":9992,"aseerd":9993,"Ġcriteria":9994,"Ġverlengd":9995,"rombose":9996,"Ġtrekt":9997,"controles":9998,"Ġath":9999,"Ġkalenderleeftijd":10000,"vi":10001,"OOG":10002,"metrie":10003,"ĠWelke":10004,"moÃ¯d":10005,"Ġpijnteam":10006,"Ġstappen":10007,"erte":10008,"Ġgehouden":10009,"ĠLongfunctie":10010,"pleister":10011,"ĠBelast":10012,"Ġtandarts":10013,"uscult":10014,"Ġbreed":10015,"Ġseksuele":10016,"ĠAPS":10017,"VR":10018,"Ġemail":10019,"Ġbinnenkort":10020,"ATOLOGIE":10021,"dl":10022,"uim":10023,"IJN":10024,"irometrie":10025,"Ġnor":10026,"Ġcardiaal":10027,"ĠComplicatie":10028,"xdd":10029,"Ġcrepitaties":10030,"Ġdefinitieve":10031,"ĠSaturatie":10032,"Ġbewaking":10033,"ĠHetero":10034,"Ġbereikt":10035,"iliteitsgevolgen":10036,"gar":10037,"heidsonderzoek":10038,"Ġstreven":10039,"Ġschouders":10040,"Ġpartu":10041,"orders":10042,"Ġvoren":10043,"Ġtruncus":10044,"vallende":10045,"Ġnystagmus":10046,"ĠNotitie":10047,"Ġliefst":10048,"Ġbesl":10049,"totaal":10050,"Ġendometrium":10051,"LI":10052,"reflex":10053,"ĠImmobiliteitsgevolgen":10054,"Ġbenader":10055,"iteren":10056,"Ġpercutane":10057,"Ġfruit":10058,"Ġallergische":10059,"Ġjuiste":10060,"LAAN":10061,"iveren":10062,"ĠReanimatie":10063,"gl":10064,"Ġgeschatte":10065,"Ġbloedgas":10066,"ĠMoeilijk":10067,"Ġintrekkingen":10068,"Ġintr":10069,"imer":10070,"Ġrisicofactoren":10071,"Ġbovenkwab":10072,"ĠJu":10073,"ĠRook":10074,"biopten":10075,"ĠLeuko":10076,"Ġdefecatie":10077,"Ġbedrust":10078,"Ġneurop":10079,"Ġdigestivus":10080,"ANN":10081,"Ġteveel":10082,"morf":10083,"kens":10084,"school":10085,"Ġvolle":10086,"nucleaire":10087,"ĠRvK":10088,"DNA":10089,"Ġlim":10090,"EST":10091,"Ġgeleidelijk":10092,"Ġkruis":10093,"Ġvervolgd":10094,"oncoloog":10095,"Ġregulair":10096,"Ġdexa":10097,"won":10098,"Ġvaginale":10099,"pide":10100,"etamine":10101,"####":10102,"vaten":10103,"Ġsociale":10104,"Ġaanspreken":10105,"eferentiebereik":10106,"andib":10107,"ĠHydro":10108,"ĠVisite":10109,"laatpijn":10110,"schouder":10111,"Ġdementie":10112,"praktijk":10113,"Ġrepol":10114,"ĠAG":10115,"rept":10116,"ppe":10117,"Ġgas":10118,"Ġlumbaal":10119,"ĠTH":10120,"Ġbeiden":10121,"Ġafgerond":10122,"traum":10123,"Ġdronk":10124,"ĠDirect":10125,"Ġmethyl":10126,"oclopramide":10127,"?(":10128,"ĠLVH":10129,"renzen":10130,"Ġalarm":10131,"ijt":10132,"beheersing":10133,"andering":10134,"Ġvanco":10135,"stest":10136,"Ġstrid":10137,"yf":10138,"Ġopgevraagd":10139,"Ġlevothyroxine":10140,"Ġcer":10141,"Ġcanule":10142,"ĠRecente":10143,"Ġzwellingen":10144,"Ġmobilisatie":10145,"aclofen":10146,"Ġcomplete":10147,"Ġbestaan":10148,"Ġhaldol":10149,"Ġvrienden":10150,"Ġment":10151,"Ġhydrocephalus":10152,"EX":10153,"Ġbeweegt":10154,"ĠZiekte":10155,"Ġbeperkingen":10156,"Ġribben":10157,"Ġzware":10158,"Ġkleding":10159,"Ġmethadon":10160,"pressiva":10161,"utie":10162,"ĠPOS":10163,"car":10164,"Ġ1997":10165,"IOTH":10166,"Ġkwaliteit":10167,"Ġsecond":10168,"ÂłĠĠÂłĠ":10169,"ĠSu":10170,"lecties":10171,"inemie":10172,"ANS":10173,"ĠNV":10174,"ĠPTC":10175,"inform":10176,"Ġcoecum":10177,"clavia":10178,"Ġov":10179,"Ġsuf":10180,"Ġadd":10181,"wijzingen":10182,"aug":10183,"Ġhechting":10184,"Ġtransversum":10185,"Ġaantoonbaar":10186,"idiverende":10187,"Ġepic":10188,"ease":10189,"Ġseconden":10190,"Ġjonge":10191,"istel":10192,"ORIA":10193,"Ġtijdstip":10194,"Ġenorm":10195,"chnisch":10196,"ĠAnesthesieMW":10197,"Ġemfyseem":10198,"MEN":10199,"alid":10200,"ĠAv":10201,"Lab":10202,"geluk":10203,"Ġdietiste":10204,"ĠVF":10205,"Als":10206,"ĠScho":10207,"Ġventraal":10208,"werken":10209,"ĠArt":10210,"etreff":10211,"oLON":10212,"Ġgevaar":10213,"Ġcoiling":10214,"Ġhemodialyse":10215,"Ġbehoeve":10216,"Ġhematomen":10217,"ĠPersoon":10218,"aca":10219,"Ġanal":10220,"Ġkaliber":10221,"Ġwh":10222,"IND":10223,"Ġinfect":10224,"ĠHL":10225,"brug":10226,"obiliseerd":10227,"py":10228,"ZUUR":10229,"Ġophalen":10230,"ĠSedatiedoor":10231,"Ġvrije":10232,"Ġcommunicatie":10233,"Ġwekelijks":10234,"italis":10235,"Ġtremor":10236,"Ġbood":10237,"zichtig":10238,"ĠOntslagbestemming":10239,"uitval":10240,"Ġaanmelding":10241,"Ġbevallen":10242,"ses":10243,"beid":10244,"zym":10245,"Ġhulpmiddelen":10246,"ummers":10247,"ĠHoofdpijn":10248,"Ġciprofloxacine":10249,"ĠHecht":10250,"etrische":10251,"Ġomgezet":10252,"diagnostiek":10253,"Ġspecifieke":10254,"Ġondertekend":10255,"Ġfuncties":10256,"ĠThans":10257,"Ġrechterarm":10258,"stijds":10259,"Ġobstru":10260,"trium":10261,"Rond":10262,"Ġoncoloog":10263,"Ġcorona":10264,"spieren":10265,"epi":10266,"ĠFlevoziekenhuis":10267,"Ġgynaecologie":10268,"ark":10269,"iximab":10270,"Ġvervelend":10271,"Ġspalk":10272,"orapid":10273,"ĠNadien":10274,"Ġprik":10275,"Ġdraag":10276,"Ġinformeren":10277,"ĠHals":10278,"Ġgeinfect":10279,"Ġgewerkt":10280,"Ġong":10281,"ĠPap":10282,"ĠOnbekend":10283,"Ġdaarmee":10284,"Arts":10285,"EDI":10286,"Ġduodenumsonde":10287,"kinesie":10288,"Ġhemopt":10289,"Ġaanspreekbaar":10290,"suppletie":10291,"yle":10292,"ĠKen":10293,"Ġscreen":10294,"ĠVerdere":10295,"ĠBegin":10296,"Ġlac":10297,"Huid":10298,"Ġliggend":10299,"ERAP":10300,"gat":10301,"Ġvernevelen":10302,"Ġflucloxacilline":10303,"Ġdagelijkse":10304,"Ġinleiding":10305,"oneel":10306,"ĠVC":10307,"Ġdrs":10308,"Ġhemi":10309,"afspraken":10310,"Ġrepolarisatie":10311,"Ġreactievermogen":10312,"uravocht":10313,"ĠCl":10314,"Ġoplos":10315,"leggen":10316,"Ġopwekbaar":10317,"Ġcaudaal":10318,"ĠOnver":10319,"cetam":10320,"vag":10321,"Ġtafel":10322,"ERV":10323,"ĠDrinken":10324,"ĠAdemfreq":10325,"edoch":10326,"ĠIF":10327,"ĠCogn":10328,"Ġaanvang":10329,"Ġmann":10330,"ropometrie":10331,"ung":10332,"Ġdose":10333,"orus":10334,"Ġpartiele":10335,"ĠKra":10336,"Ġrot":10337,"demhaling":10338,"ĠGI":10339,"XA":10340,"Ġopvallend":10341,"ĠMinder":10342,"ĠToekom":10343,"oscoop":10344,"Ġopvragen":10345,"zijdige":10346,"Ġfla":10347,"Overdracht":10348,"Ġbevestigd":10349,"Ġnefrologie":10350,"ĠNIET":10351,"ORD":10352,"ceptie":10353,"Ġcholangitis":10354,"kaak":10355,"ĠprednisoLON":10356,"ĠIS":10357,"Ġgeplande":10358,"Ġopnamen":10359,"oesof":10360,"pap":10361,"Ġhor":10362,"Ġbetrouw":10363,"osteron":10364,"paraten":10365,"Ġ________":10366,"ikkeld":10367,"vasculair":10368,"alleen":10369,"Ġsimvastatine":10370,"ĠNefrologie":10371,"Ġcontacten":10372,"uscultatie":10373,"VF":10374,"iche":10375,"ĠKnie":10376,"verdenking":10377,"opedisch":10378,"Ġlogopedie":10379,"transfusie":10380,"Ex":10381,"Ġterwijl":10382,"Ġeveneens":10383,"ĠUn":10384,"Ġinflammato":10385,"Ġkruk":10386,"Ġablatio":10387,"Sch":10388,"ĠlongembolieÃ«n":10389,"Ġmoeilijke":10390,"Ġveroorzaakt":10391,"Ġafd":10392,"gradige":10393,"Ġrisic":10394,"Ġtum":10395,"Ġstridor":10396,"Ġtrombus":10397,"Ġverkoever":10398,"Ġdipl":10399,"Ġformulier":10400,"Ġhypon":10401,"Ġpres":10402,"Gebeld":10403,"mnd":10404,"Ġteen":10405,"ĠLijnen":10406,"ĠAbd":10407,"oefen":10408,"ĠGel":10409,"ĠZenuw":10410,"Ġzwart":10411,"oping":10412,"ieten":10413,"Ġcardiomediast":10414,"Ġvlees":10415,"lage":10416,"Ġclind":10417,"HEM":10418,"Ġorganisatie":10419,"Ġkalk":10420,"ĠBEHANDEL":10421,"Ġwen":10422,"ĠBl":10423,"aturatie":10424,"ikliniek":10425,"mata":10426,"ysiologische":10427,"Ġthoracaal":10428,"rant":10429,"Ġclonidine":10430,"heffen":10431,"Ġmot":10432,"Ġinzetten":10433,"Ġweig":10434,"5663":10435,"odium":10436,"ĠBIOPT":10437,"itript":10438,"ĠObservatie":10439,"reconstructie":10440,"Ġtelefonische":10441,"eeksel":10442,"Ġschil":10443,"Ġprematuriteit":10444,"INK":10445,"Ġoptimaal":10446,"ĠtabletMGA":10447,"continueerd":10448,"ĠNR":10449,"Ġbehandelaar":10450,"Ġgezichts":10451,"result":10452,"ĠAntropometrie":10453,"ĠDep":10454,"agie":10455,"Ġdiverse":10456,"ĠSCH":10457,"ĠĠĠĠĠĠĠĠĠĠĠĠĠĠĠĠĠĠĠĊ":10458,"Ġdorsale":10459,"ĠMH":10460,"ĠHR":10461,"Echo":10462,"Ġcipro":10463,"aandoen":10464,"Ġpancreaskop":10465,"oversie":10466,"Ġhypothyreoidie":10467,"rond":10468,"omotor":10469,"ĠJA":10470,"Ġhadden":10471,"Ġnecrot":10472,"Ġcongenitale":10473,"ĠVanavond":10474,"parameters":10475,"Ġdietist":10476,"Ġsupervisie":10477,"diende":10478,"ĠImmun":10479,"Ġgebaseerd":10480,"lycemie":10481,"uz":10482,"allen":10483,"Ġaankleurende":10484,"Ġeth":10485,"ĠLE":10486,"ĠAlmere":10487,"best":10488,"imatie":10489,"Ġbez":10490,"Ġ108":10491,"raken":10492,"ĠRVF":10493,"ĠUterus":10494,"Ġhoop":10495,"Vrijgave":10496,"ĠPULM":10497,"Ġsepar":10498,"meten":10499,"Ġmetronidazol":10500,"ixaban":10501,"chloride":10502,"Ġmaagklachten":10503,"ergill":10504,"Ġgesprekken":10505,"SLAG":10506,"binnen":10507,"Ġsymmetrische":10508,"Ouders":10509,"weer":10510,"ĠBloedgroep":10511,"Ġhuidig":10512,"Ġstukje":10513,"YST":10514,"ĠVanochtend":10515,"ologe":10516,"ERAPIE":10517,"onse":10518,"Ġkaart":10519,"zelfstandig":10520,"Ġgrootste":10521,"Ġventilatie":10522,"Ġanterieure":10523,"Ġzittend":10524,"arget":10525,"paraatidentificatie":10526,"rt":10527,"Ġpy":10528,"inderde":10529,"Ġuitscheiding":10530,"Ġtele":10531,"Ġademfrequentie":10532,"Ġbv":10533,"Ġvoorbij":10534,"Ġzwakte":10535,"Ġjejunum":10536,"endroninezuur":10537,"ĠHLA":10538,"Ġamlodipine":10539,"implantatie":10540,"Ġlunch":10541,"ĠScreening":10542,"viatie":10543,"-)":10544,"ĠLi":10545,"gangs":10546,"lauco":10547,"ĠToekomstige":10548,"Ġplaveiselcelcarcinoom":10549,"Post":10550,"entiÃ«le":10551,"Ġaspecifieke":10552,"laesies":10553,"kenmerken":10554,"Ġgeneticus":10555,"ormicum":10556,"Ġnervus":10557,"ĠRookstatus":10558,"Ġihkv":10559,"ELEID":10560,"Ġdehydratie":10561,"Ġleggen":10562,"laucoom":10563,"ĠAbdominaal":10564,"ĠProb":10565,"itaire":10566,"Ġpijnstill":10567,"Ġbovenarm":10568,"abe":10569,"Ġspuiten":10570,"Ġgeint":10571,"stra":10572,"ĠCOG":10573,"aliseerde":10574,"Ġmultidisciplin":10575,"pe":10576,"Ġsubarachn":10577,"Ġpagina":10578,"Ġ\"\"":10579,"ĠVertrekOK":10580,"Ġtrombopenie":10581,"stereferentiebereik":10582,"ĠRustig":10583,"Ġgestegen":10584,"clude":10585,"Ġgecontinueerd":10586,"iger":10587,"ĠDienst":10588,"UO":10589,"Ġnoradrenaline":10590,"Ġoma":10591,"pal":10592,"ÂłÂłÂłÂłÂł":10593,"recept":10594,"Ġhoorbaar":10595,"Ġery":10596,"CHAM":10597,"Ġcholecyst":10598,"ĠBet":10599,"Ġaudi":10600,"Ġcf":10601,"Ġdacht":10602,"Ġferritine":10603,"accepteerd":10604,"Ġwerkdiagnose":10605,"neiging":10606,"Ġroute":10607,"arcoom":10608,"Ġlevercirrose":10609,"aggreg":10610,"Ġintroductie":10611,"Ġspugen":10612,"zapine":10613,"etreffende":10614,"Ġantrum":10615,"Ġonderhouds":10616,"Ġverte":10617,"Ġtol":10618,"Ġvla":10619,"ĠKwam":10620,"Ġverschoond":10621,"namedatum":10622,"volgbewegingen":10623,"poort":10624,"auze":10625,"Ġ106":10626,"greep":10627,"Ġorthopedie":10628,"correctie":10629,"ĠBloedgas":10630,"complex":10631,"Ġ1102":10632,"Ġdigoxine":10633,"ĠRD":10634,"symptomen":10635,"Ġtacrolimus":10636,"aN":10637,"oprost":10638,"ĠMee":10639,"NH":10640,"auz":10641,"standigheden":10642,"ĠMorfine":10643,"mv":10644,"Ġoppervlakkige":10645,"ĠSter":10646,"wekker":10647,"Ġuren":10648,"Ġlegit":10649,"56644":10650,"Ġcysteuze":10651,"Ġante":10652,"Ġ103":10653,"ĠMultipele":10654,"otrache":10655,"ĠDenkt":10656,"ĠVolledige":10657,"ĠPPI":10658,"ĠDarm":10659,"Ġnadere":10660,"Ġnifedipine":10661,"Ġduurt":10662,"Ġserologie":10663,"Ġgaten":10664,"Ġwachtlijst":10665,"Ġcan":10666,"ICU":10667,"Ġclavicula":10668,"ĠAR":10669,"ĠSDD":10670,"flow":10671,"Ġ107":10672,"bekken":10673,"HF":10674,"MERE":10675,"ĠIVF":10676,"Ġdetubatie":10677,"atterij":10678,"Hoofdbehandelaar":10679,"ĠEigen":10680,"Ġzekerheid":10681,"Ġspullen":10682,"Gew":10683,"Ġbuikklachten":10684,"Kwal":10685,"denken":10686,"Ġdisease":10687,"ĠBehandelplan":10688,"Ġafgrensbare":10689,"Ġverstandig":10690,"Ġhyperp":10691,"ĠHiermee":10692,"ĠArm":10693,"ĠSoepele":10694,"illan":10695,"Ġdirecte":10696,"dissectie":10697,"eti":10698,"pine":10699,"abaline":10700,"ĠStemming":10701,"minste":10702,"Ġwazig":10703,"roef":10704,"ĠDist":10705,"Ġbili":10706,":(!)":10707,"red":10708,"Ġpraat":10709,"urinol":10710,"Ġlaparotomie":10711,"erc":10712,"Ġmedicament":10713,"estinaal":10714,"Ġperfusie":10715,"Ġschimm":10716,"Ġdoelen":10717,"Ġcoronaire":10718,"UI":10719,"Ġuitlok":10720,"ĠApotheek":10721,"odopa":10722,"Ġcerebri":10723,"ĠBeper":10724,"ata":10725,"ocon":10726,"ĠANA":10727,"Ġmechanische":10728,"Ġhaal":10729,"Ġmorf":10730,"ĠEventueel":10731,"ĠSpier":10732,"ĠVpk":10733,"Ġventriculaire":10734,"hypertrofie":10735,"omon":10736,"oder":10737,"recht":10738,"ĠpCO":10739,"Ġklacht":10740,"Ġkaas":10741,"ĠOverplaatsing":10742,"MedicatieOverzicht":10743,"ĠÂłÂł":10744,"Ġcholangi":10745,"deeld":10746,"Ġbegrensde":10747,"stijd":10748,"Ġdoppl":10749,"ĠJong":10750,"Ġactueel":10751,"Ġulcerosa":10752,"Ġstructuur":10753,"Ġaanb":10754,"ĠOpt":10755,"LDefinitief":10756,"Ġfoliumzuur":10757,"Ġanterieur":10758,"occ":10759,"Ġvoedingsstoffen":10760,"Ġsupervisor":10761,"Ġsigaretten":10762,"urveillan":10763,"ĠIntact":10764,"ĠReum":10765,"flutter":10766,"Ġovert":10767,"Dag":10768,"Ġpromin":10769,"nov":10770,"CHAMELIJK":10771,"Ġnoodzaak":10772,"angt":10773,"Ġlegitimatie":10774,"ĠDAG":10775,"die":10776,"ĠExpectatief":10777,"ĠEchtgenote":10778,"PKAL":10779,"Ġtrachea":10780,"Ġmeeneemt":10781,"CENT":10782,"Ġconsulent":10783,"recidief":10784,"oleranties":10785,"Ġportie":10786,"Ġyoghurt":10787,"URO":10788,"Ġvoorlopig":10789,".(":10790,"ĠĠĠĠĠĠĠĠĠĠĠĠĠĠĠĠĠĠĠĠĠĠĠĠĠĠĠĠĠĠĠĠĠĠĠĠĠĠĠĠĠĠĠĠĠĠĠĠĠĠĠĠĠĠĠĠĠĠĠĠĠĠĠĠ":10791,"hydrox":10792,"Ġ987":10793,"ĠTroponine":10794,"ĠQu":10795,"105":10796,"ĠBV":10797,"Ġverbonden":10798,"ĠAnam":10799,"ĠNeven":10800,"Ġdagbehandeling":10801,"Ġbegrijpen":10802,"Ġbruin":10803,"ĠLICHAMELIJK":10804,"jan":10805,"Ġpupil":10806,"ĠGebied":10807,"ĠSte":10808,"HAL":10809,"lopurinol":10810,"Ġconversie":10811,"Ġzelfs":10812,"Ġorigine":10813,"ĠLip":10814,"osyn":10815,"Ġpresenteert":10816,"Ġham":10817,"Ġdouche":10818,"Ġreumatoloog":10819,"duoden":10820,"bil":10821,"Ġ133":10822,"Ġvochtcollectie":10823,"Ġonbekende":10824,"6914":10825,"iest":10826,"ĠNPO":10827,"Ġopgestuurd":10828,"vervanging":10829,"Ġafvallen":10830,"ypering":10831,"ĠsuÃ¯c":10832,"Ġcarcin":10833,"Ġalbumine":10834,"Ġsuccesvol":10835,"Ġvanzelf":10836,"ĠES":10837,"Ġgeaccepteerd":10838,"ooid":10839,"ĠVerz":10840,"ĠON":10841,"Ġvs":10842,"MF":10843,"Ã«mie":10844,"ett":10845,"ĠInform":10846,"Ġmec":10847,"Ġexterne":10848,"Ġstuur":10849,"omtrek":10850,"Ġversus":10851,"ĠHoofdprobleem":10852,"rac":10853,"Ġsubclavia":10854,"YNORM":10855,"loot":10856,"aemie":10857,"ĠTriglycer":10858,"ĠAmstelveen":10859,"iclospor":10860,"ĠKuur":10861,"Ġorders":10862,"Ġmoeiz":10863,"Ġvoorschrijven":10864,"emb":10865,"Beeld":10866,"ĠPACU":10867,"ĠOpnamedatum":10868,"Ġvw":10869,"Ġhypertrofie":10870,"ĠVCI":10871,"old":10872,"Ġgelegd":10873,"Ġkantoor":10874,"Ġgediagnost":10875,"wijkend":10876,"Ġpitting":10877,"Ġgeluid":10878,"ĠĠĠĠĠĠĠĠĠĠĠĠĠĠĠĠĊ":10879,"Ġochtends":10880,"Ġaanbrengen":10881,"Ġafvloed":10882,"itriet":10883,"positief":10884,"Ġzodra":10885,")|":10886,"ĠOpen":10887,"poeder":10888,"mond":10889,"hist":10890,"ĠAK":10891,"Ġembol":10892,"Ġpsychotische":10893,"vader":10894,"Ġtraining":10895,"gevallen":10896,"Ġbeslag":10897,"oxicatie":10898,"Ġtraplopen":10899,"mming":10900,"hoging":10901,"verte":10902,"Ġbilateraal":10903,"Ġendocrinologie":10904,"artritis":10905,"asp":10906,"derdaad":10907,"urveillance":10908,"Ġviraal":10909,"GR":10910,"ĠKlein":10911,"ullie":10912,"Ġfeit":10913,"ags":10914,"Ġbedrand":10915,"spijn":10916,"prik":10917,"fig":10918,"Ġallergisch":10919,"sstoornissen":10920,"ituatie":10921,"Oog":10922,"Ġirrit":10923,"bas":10924,"ĠSliep":10925,"formulier":10926,"fus":10927,"orro":10928,"Ġulna":10929,"gelaten":10930,"ieradi":10931,"GZ":10932,"erdun":10933,"ONTSLAG":10934,"problematiek":10935,"ĠInmiddels":10936,"corrigeerd":10937,"ĠNeurochirurgie":10938,"Ġwang":10939,"ĠAorta":10940,"Ġdep":10941,"ĠMitralis":10942,"annacht":10943,"Ġhili":10944,"Ġanesthesioloog":10945,"ĠintracraniÃ«le":10946,"ĠVoedingstoestand":10947,"Ġmyeloom":10948,"iclosporine":10949,"Ġdiastolische":10950,"Ġveget":10951,"Ġaxillair":10952,"Ġgecombin":10953,"Ġmanier":10954,"werkt":10955,"Ġtouch":10956,"oemt":10957,"ionele":10958,"ermie":10959,"ĠCommunicatie":10960,"SCT":10961,"ĠMa":10962,"Ġnagenoeg":10963,"oplite":10964,"Ġverloren":10965,"Ġerytheem":10966,"Ġ114":10967,"Ġcraniaal":10968,"ĠPOLINE":10969,"ĠĠĠĠÂłĠ":10970,"Ġonderrug":10971,"ĠImplantaten":10972,"Ġdifferentiatie":10973,"Ġkool":10974,"Ġoverweging":10975,"Ġepigast":10976,"pakt":10977,"Ġtoedieningsinstructies":10978,"Ġloslaatpijn":10979,"igens":10980,"YS":10981,"Ġlaagdrempelig":10982,"Verpleegkundige":10983,"erese":10984,"LAIR":10985,"Ġrespiratoir":10986,"ĠPOINT":10987,"Ġspondyl":10988,"zel":10989,"ĠSchool":10990,"ĠCardiale":10991,"Ġwijn":10992,"Ġtbv":10993,"oradisch":10994,"Ġfosfaat":10995,"aans":10996,"ĠTest":10997,"Ġoedemateus":10998,"direct":10999,"otax":11000,"plek":11001,"Ġkrap":11002,"Ġmaatschappelijk":11003,"EVA":11004,"oelichting":11005,"aggregatier":11006,"ĠArter":11007,"ama":11008,"ontwikkeling":11009,"Ġcorticale":11010,"ĠGeldigheidsduurmaanden":11011,"Ġ1996":11012,"Ġtoedienen":11013,"Ġdominant":11014,"Analyse":11015,"ĠRes":11016,"ĠGesproken":11017,"oedienings":11018,"ĠGedilat":11019,"Ġinzien":11020,"OPNAME":11021,"Ġvoedingen":11022,"ĠVanmorgen":11023,"ctasie":11024,"Ġrechtop":11025,"Ġag":11026,"lymf":11027,"andaard":11028,"Ġmediastinaal":11029,"ĠIm":11030,"mutatie":11031,"ĠGEEN":11032,"Ġfamiliegesprek":11033,"RvO":11034,"ĠKLINISCHEOK":11035,"roege":11036,"KREATININEAMC":11037,"ĠFib":11038,"ĠLICHAMELIJKONDERZOEK":11039,"Mede":11040,"Ġelement":11041,"Advies":11042,"BMI":11043,"HCA":11044,"Ġdarmen":11045,"Ġwellicht":11046,"ĠKweek":11047,"elevant":11048,"ĠBAL":11049,"Ġafdekken":11050,"ĠGrote":11051,"doet":11052,"GL":11053,"Hypertensie":11054,"contra":11055,"ĠVoorstel":11056,"Ġingu":11057,"ĠSIM":11058,"ĠBELEID":11059,"Ġ128":11060,"rio":11061,"ĠRectaal":11062,"Ġverwekker":11063,"ICATIES":11064,"ĠTT":11065,"KNO":11066,"ocaal":11067,"bloedingen":11068,"esis":11069,"URG":11070,"Ġwonen":11071,"chicine":11072,"Ġhervatten":11073,"estase":11074,"Ġzonodig":11075,"Ġgraads":11076,"Ġhogere":11077,"ilieu":11078,"Ġinsulten":11079,"Ġatriale":11080,"Ġtherapeutisch":11081,"Ġpock":11082,"Ġmandib":11083,"eerbare":11084,"RAC":11085,"ĠPERSONB":11086,"Ġopvang":11087,"Ġnavraag":11088,"liximab":11089,"Ġopening":11090,"tendeels":11091,"Ġwandelen":11092,"ĠED":11093,"ĠBesluit":11094,"abdominaal":11095,"Ġtak":11096,"Vervolg":11097,"Ġneusbril":11098,"Ġmoed":11099,"ĠSluiten":11100,"Ġbijk":11101,"yrax":11102,"onitoren":11103,"Ġleukemie":11104,"Ġchromos":11105,"Ġfocaal":11106,"Ġgestoorde":11107,"dominale":11108,"ĠNSTEMI":11109,"Ġcholedoch":11110,"ĠAstma":11111,"KER":11112,"Ġervoor":11113,"nummers":11114,"oogd":11115,"ĠZat":11116,"oorn":11117,"Ġbuitenland":11118,"abusus":11119,"ĠIBD":11120,"ĠEpiduraal":11121,"Ġgefix":11122,"8000":11123,"olen":11124,"Ġbewust":11125,"ĠPsychiatrisch":11126,"ĠRitmebewaking":11127,"Ġzacht":11128,"onair":11129,"Ġrefill":11130,"athische":11131,"ĠMonocyten":11132,"ATS":11133,"ĠOnderstaande":11134,"Ġallogene":11135,"Ġ101":11136,"Ġmobiliteit":11137,"super":11138,"extensie":11139,"Ġzorgteam":11140,"Ġverhaal":11141,"blijven":11142,"Ġrapport":11143,"Ġspann":11144,"Ġuitstral":11145,"Ġadjuvante":11146,"broek":11147,"Ġsubcutane":11148,"Ġict":11149,"Ġbovenbenen":11150,"Ġerfelijkheidsonderzoek":11151,"ĠSh":11152,"ĠKleur":11153,"Ġdrukken":11154,"Ġkrampen":11155,"Ġ118":11156,"ĠABG":11157,"Ġmoeheid":11158,"ÂłÂłÂłÂłÂłÂłÂł":11159,"zette":11160,"ĠPantoprazol":11161,"Ġglad":11162,"Ġsubtotale":11163,"Ġopla":11164,"Ġhb":11165,"hex":11166,"Ġepid":11167,"iair":11168,"pense":11169,"Ġsyndrom":11170,"Ġmeegeven":11171,"preventiegedrag":11172,"ĠRecept":11173,"Ġontregel":11174,"Ġsarcoidose":11175,"Ġboezemfibrilleren":11176,"LM":11177,"Ġverstaan":11178,"Ġoren":11179,"Ġast":11180,"zaken":11181,"aai":11182,"Ġket":11183,"sslag":11184,"Ġrituximab":11185,"yr":11186,"ASS":11187,"Ġring":11188,"Ġpmol":11189,"ielijn":11190,"ĠAmsterdamUMC":11191,"Ġterugge":11192,"Wond":11193,"Ġoutput":11194,"Ġhetgeen":11195,"Ġcolostoma":11196,"gelijke":11197,"Ġtoegestuurd":11198,"4442":11199,"Ġinitieel":11200,"ĠLig":11201,"Ġnefrectomie":11202,"102":11203,"Ġatheros":11204,"Ġ________________":11205,"ras":11206,"Ġonderliggend":11207,"Ġnachtelijke":11208,"pulmonale":11209,"Ġcavum":11210,"ĠTerug":11211,"grade":11212,"Ġnotities":11213,"lopende":11214,"ĠBorst":11215,"hoest":11216,"Ġ116":11217,"assistentChirurgie":11218,"Ġhap":11219,"Ġevenwicht":11220,"START":11221,"aff":11222,"Ġperitoneale":11223,"Ġzichtbare":11224,"Ġgenorm":11225,"Ġjugularis":11226,"Tel":11227,"ĠĠĠĠĠĠĠĠĠĠĠĠĠĠĠĠĠĠĠĠĠĠĠĠĠĠĠĠĠĠĠĠĠĠĠĠĠĠ":11228,"assistentIntensive":11229,"akelen":11230,"azep":11231,"Ġbulbus":11232,"ĠVerwezen":11233,"bronch":11234,"ĠSer":11235,"ĠConcl":11236,"ĠAkkoord":11237,"adine":11238,"Ġaanhoudend":11239,"ĠCI":11240,"uleerde":11241,"Ġgezonde":11242,"iemand":11243,"stolerantie":11244,"Ġ119":11245,"antia":11246,"szins":11247,"catie":11248,"ĠCA":11249,"leid":11250,"ĠOvername":11251,"niveau":11252,"Ġmalle":11253,"infuus":11254,"Ġexpir":11255,"ĠOAC":11256,"Ġverdikte":11257,"ĠBG":11258,"organ":11259,"ycline":11260,"oef":11261,"Ġverhoging":11262,"eelden":11263,"alidomide":11264,"HR":11265,"illa":11266,"Ġtrain":11267,"isseling":11268,"ARS":11269,"ĠOes":11270,"Ġ109":11271,"........":11272,"innitus":11273,"ĠHebben":11274,"Ġoudere":11275,"Ġhypertrofische":11276,"Ġ143":11277,"Ġwenst":11278,"ev":11279,"Neurologie":11280,"Ġuitgesteld":11281,"Ġuitsluiten":11282,"Ġhyperth":11283,"ĠFys":11284,"Ġbes":11285,"ĠLWK":11286,"Am":11287,"Ġgevraagde":11288,"Ġomschrijving":11289,"PLE":11290,"stimulatie":11291,"Ġallen":11292,"Ġlevermetastasen":11293,"isolatie":11294,"wijze":11295,"calc":11296,"Ġ124":11297,"Ġmgl":11298,"ĠopnameIntensive":11299,"Ġgekozen":11300,"Ġdyst":11301,"Ġopbouwen":11302,"Intake":11303,"Geld":11304,"RAFARM":11305,"Ġtrombocytenaggregatier":11306,"Ġzomer":11307,"Ġimponeert":11308,"nter":11309,"ĠVerb":11310,"Ġingrepen":11311,"Ġhemodynamisch":11312,"Ġdiffuse":11313,"maild":11314,"iviteit":11315,"cardioloog":11316,"Ġgeschreven":11317,"Ġ750":11318,"Ġblauw":11319,"Ġjullie":11320,"Ġweerstand":11321,"Ġvoorschrift":11322,"opram":11323,"ereus":11324,"otter":11325,"?).":11326,"Ġextern":11327,"kundig":11328,"Ġwrs":11329,"comp":11330,"Ġbedraagt":11331,"formatie":11332,"ogl":11333,"omst":11334,"atica":11335,"Ġtal":11336,"Me":11337,"Ġmaaghevel":11338,"ĠLAB":11339,"Ġrespiratorius":11340,"Ġlaparoscopie":11341,"ĠGB":11342,"intuigen":11343,"Ġprikkel":11344,"ĠKorte":11345,"zwakte":11346,"lopige":11347,"5664301":11348,"tex":11349,"âĢĿ.":11350,"Ġleuko":11351,"roei":11352,"profylaxe":11353,"onditie":11354,"illaris":11355,"Ġbloedbeeld":11356,"gelekt":11357,"ensie":11358,"ĠBespreken":11359,"ODEN":11360,"CHLO":11361,"iverend":11362,"Ġmatglas":11363,"iforme":11364,"Ġgewrichtsklachten":11365,"Ġ1995":11366,"Ġpericarditis":11367,"ĠVrouw":11368,"Ġkinderneur":11369,"Ġspast":11370,"Ġbegeleid":11371,"ĠWFG":11372,"Ġureum":11373,"ĠPEEP":11374,"Tijdens":11375,"upt":11376,"Ġvoert":11377,"ral":11378,"amenteus":11379,"ht":11380,"extra":11381,"kleuring":11382,"achterstand":11383,"igmoid":11384,"Ġverlengde":11385,"itriptyline":11386,"Ġmaj":11387,"atri":11388,"ĠEnkel":11389,"Ġhoofdklacht":11390,"ERM":11391,"iol":11392,"verzeker":11393,"alle":11394,"ĠMilieu":11395,"Minuten":11396,"ĠBloedkweek":11397,"Gegevens":11398,"ÃĭN":11399,"Ġvoorzichtig":11400,"Ġescap":11401,"pols":11402,"houdt":11403,"ight":11404,"gelicht":11405,"\":":11406,"ventrikel":11407,"Ġsessie":11408,"ĠTD":11409,"ĠPOLIKINDER":11410,"proBNP":11411,"ĠValpreventiegedrag":11412,"Ġrookt":11413,"Ġcrepiteren":11414,"Ġnadenken":11415,"izen":11416,"Ġgn":11417,"Ġurethra":11418,"ĠDiep":11419,"Ġnazorg":11420,"Ġontwikkelings":11421,"Cardiologie":11422,"ĠControl":11423,"IEF":11424,"lastisch":11425,"Ġabdominaal":11426,"Ġfacialis":11427,"Ġ>>":11428,"flon":11429,"Ġ%),":11430,"Ġdrukverband":11431,"werpspuit":11432,"gerelat":11433,"uugd":11434,"Ġencefal":11435,"Ġbrein":11436,"onor":11437,"Ġgemobiliseerd":11438,"uard":11439,"oelde":11440,"Ġhieronder":11441,"idim":11442,"stent":11443,"antel":11444,"Ġneutropenie":11445,"ĠOxynorm":11446,"scopische":11447,"Ġgebruikte":11448,"Ġws":11449,"ĠSIMvastatine":11450,"Ġdiplopie":11451,"Ġdreigende":11452,"Ġcollectie":11453,"Ġterme":11454,"ION":11455,"Ġkuit":11456,"Ġinstructie":11457,"ĠAandachtspunten":11458,"CHLOOR":11459,"ĠSS":11460,"jejun":11461,"Ġtril":11462,"ancre":11463,"Ġomstandigheden":11464,"STARTEN":11465,"axel":11466,"iÃ«mie":11467,"Ġbrachi":11468,"arynge":11469,"Ġogend":11470,"ALL":11471,"Ġlaborders":11472,"Ġhetero":11473,"Ġdochters":11474,"hydroxide":11475,"etine":11476,"ĠPacemaker":11477,"WD":11478,"elft":11479,"Ġhilair":11480,"ĠAll":11481,"Ġhypot":11482,"ĠIntubatie":11483,"laagde":11484,"hor":11485,"Ġkost":11486,"sulosine":11487,"GTT":11488,"Ġinderdaad":11489,"inname":11490,"osum":11491,"Ġoment":11492,"Ġbic":11493,"gedragen":11494,"ĠBuiten":11495,"uns":11496,"Ġbrander":11497,"Ġgenetische":11498,"Ġopget":11499,"Ġdestijds":11500,"ĠAllerg":11501,"etiapine":11502,"ĠMDS":11503,"umen":11504,"Ġvertrouwen":11505,"INR":11506,"heup":11507,"Ġkarakter":11508,"Ġspeeksel":11509,"corrigeerde":11510,"ymptomatische":11511,"ĠMCH":11512,"natrium":11513,"ĠVerst":11514,"Ġdeficientie":11515,"Ġverpleeghuis":11516,"varingen":11517,"ĠĠĠĠĠĠĠĠĠĠĠĠĠĠĠĠĠĠĠĠĠĠĠĠĠĠĠĠĠĠĠĠĠĠĠĠĠĠĠ":11518,"apamil":11519,"reactie":11520,"weet":11521,"5668000":11522,"lect":11523,"Ġann":11524,"Ġmultif":11525,"assistentKindergeneeskunde":11526,"midazolam":11527,"slang":11528,"ĠReeds":11529,"Co":11530,"branden":11531,"ĠCVVH":11532,"Ġnasaal":11533,"Ġalsmede":11534,"ĠMaat":11535,"Ġgalweg":11536,"fa":11537,"ĠLocatieVUMC":11538,"Ġct":11539,"ĠPlacenta":11540,"ĠBRCA":11541,"dekt":11542,"Ġmalformatie":11543,"idaliteit":11544,"Ġchloor":11545,"vpk":11546,"ĠVoorraad":11547,"ĠHemodynam":11548,"illectomie":11549,"Ġperit":11550,"ĠmetFORMINE":11551,"Ġposterieure":11552,"mak":11553,"Ġuitgel":11554,"ĠFlu":11555,"raden":11556,"Ġamiodaron":11557,"Ġzakje":11558,"italopram":11559,"Ġdwar":11560,"Vandaag":11561,"vende":11562,"Ġhielp":11563,"Ġmaternale":11564,"rocardi":11565,"µg":11566,"moe":11567,"glucose":11568,"Ġurogenitaal":11569,"Ġstolsels":11570,"ĠBeste":11571,"Ġbio":11572,"adequ":11573,"ĠUl":11574,"Ġduplex":11575,"Ġangio":11576,"Ġdenk":11577,"ipple":11578,"coli":11579,"rins":11580,"Ġplasma":11581,"Ġpakken":11582,"mis":11583,"Voedingstekort":11584,"etijd":11585,"heven":11586,"Ġgeprikkeld":11587,"Ġreactieve":11588,"Ġbronchus":11589,"ZUIDOOST":11590,"ĠRisicobeheersing":11591,"ĠAfl":11592,"oÃ¯den":11593,"Ġach":11594,"ĠSup":11595,"valt":11596,"Poli":11597,"Ġtoevoe":11598,"Ġcoli":11599,"nlAfdeling":11600,"Ġcall":11601,"Ġrepositie":11602,"Ġlijden":11603,"Ġ-----------------------------------------------------------------":11604,"Ġbadkamer":11605,"mellitus":11606,"ĠMicro":11607,"Overige":11608,"OXYNORM":11609,"Ġid":11610,"ocrinoloog":11611,"yreoidie":11612,"omed":11613,"stetrische":11614,"Ġgecompliceerde":11615,"Ġuter":11616,"Ġvergeten":11617,"loxapen":11618,"ĠTS":11619,"operamide":11620,"Ġsintrom":11621,"ĠDiclofenac":11622,"ĠVallen":11623,"Ġnefrodrain":11624,"Ġvacu":11625,"dix":11626,"istische":11627,"oas":11628,"Ġdetails":11629,"ĠTyp":11630,"ptie":11631,"programma":11632,"ĠRadiologie":11633,"Ġtoucher":11634,"ORP":11635,"omonas":11636,"Ġtrim":11637,"Ġmu":11638,"Ġgesedeerd":11639,"Ġoproep":11640,"Ġhigh":11641,"hane":11642,"ĠOt":11643,"ĠFraxiparine":11644,"2007":11645,"ĠVraagt":11646,"Ġmaatregelen":11647,"ovag":11648,"Ġproducten":11649,"Ġgenormaliseerd":11650,"aanvallen":11651,"ĠIntern":11652,"Ġgevuld":11653,"ĠHechtingen":11654,"Ġvele":11655,"Ġmeningeoom":11656,"Ġwaterdun":11657,"Ġsuic":11658,"Ġmetamizol":11659,"Tx":11660,"uwelijk":11661,"Ġdrukkend":11662,"ĠJuiste":11663,"ologen":11664,"Bloeddruk":11665,"oprothese":11666,"Ġhandhaven":11667,"Ġstroomgebied":11668,"ĠTelemetrie":11669,"iater":11670,"ĠHal":11671,"kst":11672,"ĠGebeld":11673,"Ġgefixeerd":11674,"apparaat":11675,"peri":11676,"ĠDL":11677,"Ġtrombocytenaggregatieremmer":11678,"Ġneiging":11679,"ĠOGTT":11680,"Om":11681,"cellig":11682,"xie":11683,"Ġgrens":11684,"Ġboterham":11685,"Ġgewogen":11686,"ĠRBK":11687,"Ġpasseren":11688,"VULL":11689,"enkel":11690,"etting":11691,"ĠAnamnestisch":11692,"Ġepisodes":11693,"Ġverloskunde":11694,"Ġ126":11695,"Ġcarot":11696,"micro":11697,"Ġrhonchi":11698,"Ġsein":11699,"emmings":11700,"assoc":11701,"uchtwegregistratie":11702,"paal":11703,"ĠĠĠĠĠĠĠĠĠĠĠĠĠĠĠĠĠĠĠĠĠĠĠĠĠĠĠ":11704,"Ġuve":11705,"ĠHEM":11706,"Ġogende":11707,"ĠVaginaal":11708,"arterie":11709,"ord":11710,"Ġovereen":11711,"Ġhu":11712,"aternaal":11713,"Ġpersonen":11714,"ĠDormicum":11715,"Ġgewijzigd":11716,"Ġner":11717,"ĠLymfocyten":11718,"prikken":11719,"rofur":11720,"differentie":11721,"fer":11722,"Ġostium":11723,"ĠOrder":11724,"PC":11725,"ĠMCP":11726,"ĠAvonds":11727,"Ġvoorhoofd":11728,"Ġstimuleren":11729,"Ġmetingen":11730,"anemie":11731,"relatie":11732,"ĠFoetale":11733,"oracaal":11734,"ara":11735,"Ġverrichtten":11736,"Ġsymptomatische":11737,"stijgend":11738,"ĠTBC":11739,"ĠĠÂłĠĠÂłĠ":11740,"boog":11741,"Ġinject":11742,"Ġextre":11743,"claviculair":11744,"lega":11745,"ĠNazorg":11746,"ĠErytrocyten":11747,"Ġhemangi":11748,"Ġng":11749,"ĠAngst":11750,"Ġprofylact":11751,"Ġrugklachten":11752,"splenomegalie":11753,"TG":11754,"CVA":11755,"belasting":11756,"verricht":11757,"ĠGesprek":11758,"iserende":11759,"ĠBroer":11760,"Ġsuiker":11761,"Ġventolin":11762,"amsterdam":11763,"ĠBehandeldoel":11764,"hi":11765,"Ġaffect":11766,"Luchtwegregistratie":11767,"ĠBle":11768,"ĠSpoed":11769,"Ġmindere":11770,"Ġonderpool":11771,"ĠOri":11772,"ĠDecubitus":11773,"DO":11774,"Ġtweetal":11775,"Ġuitgezogen":11776,"matica":11777,"curve":11778,"rison":11779,"antwoordelijk":11780,"ĠMinimale":11781,"ĠWT":11782,"efact":11783,"Ġdraad":11784,"Ġped":11785,"Ġtelefoonnummers":11786,"=>":11787,"olaire":11788,"Ġpot":11789,"streng":11790,"Ġq":11791,"Ġdysmorf":11792,"vula":11793,"ĠACE":11794,"ĠOT":11795,"Ġheupen":11796,"ĠAnesthesiologie":11797,"ĠICU":11798,"Ġparen":11799,"Ġrep":11800,"afstand":11801,"EVER":11802,"Ġhaalbaar":11803,"057":11804,"Ġbijv":11805,"ĠVoet":11806,"Ġsvp":11807,"Ġpouch":11808,"Ġcis":11809,"Ġdermatologie":11810,"ocytopenie":11811,"Dr":11812,"cat":11813,"afeg":11814,"Ab":11815,"ĠdiÃ«tist":11816,"Ġdmv":11817,"omende":11818,"Ġmetabool":11819,"bes":11820,"ymptomatisch":11821,"ĠHoesten":11822,"101":11823,"Ġolig":11824,"oefeningen":11825,"idaat":11826,"ĠBil":11827,"illig":11828,"Ġprote":11829,"Ġvoorsp":11830,"intoleranties":11831,"arium":11832,"Ġwaardes":11833,"adjuvante":11834,"ĠLUMC":11835,"Ġradiatie":11836,"meter":11837,"Ġ129":11838,"Ġinversie":11839,"Ġverdikt":11840,"Ġdalende":11841,"Ġervaringen":11842,"troffen":11843,"ĠVoorraaditem":11844,"posities":11845,"otracheale":11846,"Ġabsol":11847,"parese":11848,"Ġlees":11849,"do":11850,"Ġproteinurie":11851,"ervaart":11852,"TER":11853,"ertje":11854,"SR":11855,"Ġgecirc":11856,"Ġaanpassingen":11857,"YD":11858,"Ġlijnen":11859,"Ġ127":11860,"Ġlift":11861,"Ġaangetroffen":11862,"Ġvoelbaar":11863,"ĠDefecatie":11864,"Ġknij":11865,"uurs":11866,"ESS":11867,"Ġcholesterol":11868,"ĠEvt":11869,"oxetine":11870,"ĠEpis":11871,"ĠInwendige":11872,"acus":11873,"Ġcister":11874,"ĠVolwassenen":11875,"Ã³Ã³":11876,"ĠHoge":11877,"ĠVUMCSEH":11878,"ulo":11879,"tem":11880,"afeguard":11881,"Ġinitiatief":11882,"ĠSpoor":11883,"gedaan":11884,"Ġpiek":11885,"ĠGest":11886,"Ġgedet":11887,"utieve":11888,"oblast":11889,"Ġwerkzaam":11890,"SALICYLzuur":11891,"Ġdranken":11892,"Ġverbeterde":11893,"verwijzing":11894,"azidim":11895,"Ġafgebeeld":11896,"dist":11897,"perforatie":11898,"ĠFors":11899,"Ġbolle":11900,"atitis":11901,"ĠBinnen":11902,"Ġpalliatief":11903,"ĠGEN":11904,"Ġparac":11905,"ĠGener":11906,"Ġuurvoor":11907,"Ġhydrox":11908,"Ġverdrietig":11909,"ĠReactie":11910,"ĠOngewijzigde":11911,"Ġgemaild":11912,"Ġbetrouwbaar":11913,"ĠSlot":11914,"sturen":11915,"ĠMobiliseert":11916,"pendix":11917,"Ġherpes":11918,"Ġtepel":11919,"Ġident":11920,"Ġbetekent":11921,"Ġafbouwschema":11922,"ĠHemogl":11923,"beet":11924,"ĠEven":11925,"Ġtno":11926,"othekers":11927,"Denk":11928,"astas":11929,"Ġtransplantatie":11930,"Ġ113":11931,"ĠAdequate":11932,"ataal":11933,"ĠSpraak":11934,"Pre":11935,"pert":11936,"ĠReade":11937,"ĠOmeprazol":11938,"Ġcyclofosfamide":11939,"Ġvaseline":11940,"otype":11941,"werpen":11942,"IOTHERAPIE":11943,"omotoriek":11944,"Ġslapende":11945,"Ġinvloed":11946,"Ġklachtenvrij":11947,"Ġlekt":11948,"Ã³Ã³r":11949,"Ġvirus":11950,"Ġnovorapid":11951,"iae":11952,"Ġnl":11953,"Ġmaaltijden":11954,"ĠGIOCA":11955,"Ġbekeken":11956,"Ġgesten":11957,"Ġaangedaan":11958,"Ġmalleolus":11959,"Ġhartfrequentie":11960,"Ġzweten":11961,"ĠBelang":11962,":\"":11963,"ĠFU":11964,"Ġslagen":11965,"Ġtenminste":11966,"ĠOedeem":11967,"Ġnt":11968,"IES":11969,"ĠHNP":11970,"Ġexterna":11971,"Ġechografisch":11972,"ibele":11973,"Ġverdikking":11974,"ĠAANVULL":11975,"personeel":11976,"Ġtherap":11977,"Ġdens":11978,"ĠControleafspraak":11979,"Ġkleiner":11980,"Ġrate":11981,"Ġruptuur":11982,"ĠDifferent":11983,"ocale":11984,"Ġradicaal":11985,"ĠUrines":11986,"Ġvoorstel":11987,"vlees":11988,"ĠApgar":11989,"verteb":11990,"inzicht":11991,"Recent":11992,"ĠNH":11993,"Ġafwezigheid":11994,"ĠproblemenpatiÃ«nt":11995,"ĠMAP":11996,"lassen":11997,"ĠUr":11998,"hypertens":11999,"ĠHist":12000,"ĠChl":12001,"Ġdivert":12002,"Ġbaclofen":12003,"Ont":12004,"Ġopstarten":12005,"ĠVK":12006,"matuur":12007,"Ġmiskraam":12008,"2006":12009,"arc":12010,"ĠAsp":12011,"ĠBerg":12012,"ĠOef":12013,"Ġpassag":12014,"Ġstapeling":12015,"Ġ122":12016,"trauma":12017,"Ġkernen":12018,"Ġbijnieren":12019,"Geldig":12020,"Ġpreg":12021,"Ġspoel":12022,"Ġmictieklachten":12023,"vaccinatie":12024,"itheel":12025,"Ġalcoholgebruik":12026,"Ġoccipitaal":12027,"sprak":12028,"ĠSomatisch":12029,"ĠknieÃ«n":12030,"ĠInspanning":12031,"Ġzes":12032,"Ġafgebeelde":12033,"Ġparan":12034,"Ġpsychose":12035,"ĠVerlos":12036,"Ġsmeren":12037,"Ġalendroninezuur":12038,"Ġtoegediende":12039,"okokken":12040,"ousen":12041,"Ġcontusie":12042,"Ġgebeuren":12043,"ĠOchtends":12044,"Ġholte":12045,"Ġconfig":12046,"Ġplaque":12047,"Ġtricuspidalis":12048,"RC":12049,"odont":12050,"initis":12051,"Ġfibula":12052,"Ġteach":12053,"Ġtransfers":12054,"ĠPP":12055,"ĠBL":12056,"Ġwisselen":12057,"Ġbillen":12058,"Ġondervoeding":12059,"ĠVerwijzer":12060,"igo":12061,"Ġgeschat":12062,"ĠLongziekten":12063,"Ġwarmte":12064,"Ġgewichtst":12065,"AIOS":12066,"Ġlevel":12067,"ĠFysiotherapeut":12068,"Ġnavragen":12069,"ormack":12070,"UTAAN":12071,"Ġtreft":12072,"Ġspecifiek":12073,"Ġled":12074,"Pt":12075,"Ġtoestand":12076,"ĠĠĠĠĠĠĠĠĠĠĠĠĠĠĠĠĠĠĠĠĠĠĠĠĠ":12077,"Ġpolicontrole":12078,"fase":12079,"Ġposterieur":12080,"Ġflinke":12081,"IAAL":12082,"itionering":12083,"Ġligament":12084,"Ġinkomend":12085,"Ġlongbeeld":12086,"osed":12087,"dg":12088,"ularisatie":12089,"Ġaankomen":12090,"esse":12091,"ĠVerwijderen":12092,"ĠTijdstip":12093,"ecificeerd":12094,"ropium":12095,"ĠOVERIG":12096,"Ġgecirculeerd":12097,"ĠacetylSALICYLzuur":12098,"sa":12099,"ĠÂµg":12100,"Onbekend":12101,"ankel":12102,"Ġongewijzigde":12103,"ĠQT":12104,"ycontin":12105,"oit":12106,"ĠGehoor":12107,"Ġgehoorgang":12108,"Ġverrichting":12109,"sple":12110,"ĠWeekend":12111,"aciclovir":12112,"Ġpersoonlijke":12113,"ĠAANVULLEND":12114,"Ġwc":12115,"ruptuur":12116,"oa":12117,"Diabetes":12118,"Ġ123":12119,"Ġratio":12120,"ĠHouding":12121,"Ġsco":12122,"Ġmobiliseert":12123,"Ġlinkernier":12124,"adrant":12125,"heff":12126,"Ġuitgelokt":12127,"Ġvoorlichting":12128,"Cat":12129,"Ġgespuugd":12130,"ĠDefaecatie":12131,"icitis":12132,"ĠEiwitbehoefte":12133,"Ġmiddaguur":12134,"axt":12135,"Ġeosin":12136,"ĠHUISARTS":12137,"Ġfragment":12138,"Ġshe":12139,"Ġpsychiatrische":12140,"4443535":12141,"ĠMeneer":12142,"ĠMerkt":12143,"Ġgevolgen":12144,"Ġnefroloog":12145,"oordeeld":12146,"ĠGroei":12147,"Ġlongcarcinoom":12148,"ĠCormack":12149,"iltr":12150,"Ġthal":12151,"uffed":12152,"icr":12153,"spreekuur":12154,"antus":12155,"Ġbijdragen":12156,"ocytaire":12157,"hoofdpijn":12158,"Ġgespecificeerd":12159,"existente":12160,"4443598":12161,"ZB":12162,"Ġmonitoring":12163,"Ġherbeoordelen":12164,"Ġbeademings":12165,"vulde":12166,"Ġtachypneu":12167,"Ġagv":12168,"velingen":12169,"ĠMis":12170,"Ġcorticoster":12171,"ijdt":12172,"RET":12173,"Ġleukocyten":12174,"Ġmucositis":12175,"Ġepigastrio":12176,"ĠZMC":12177,"ĠAtrium":12178,"ixatie":12179,"EB":12180,"net":12181,"2005":12182,"EPAM":12183,"ĠContinueren":12184,"Ġgestenoseerd":12185,"ĠSal":12186,"Ġdevice":12187,"iÃ«n":12188,"Ġins":12189,"Ġpregabaline":12190,"ĠJuni":12191,"/-":12192,"Ġverloskundige":12193,"sor":12194,"Ġtijdje":12195,"Ġboodschappen":12196,"ĠVannacht":12197,"Ġbloederig":12198,"rengt":12199,"rieven":12200,"Ġosteosynthese":12201,"itamine":12202,"Zorgverlener":12203,"ziening":12204,"ĠBody":12205,"Ġcommunis":12206,"Ġgesneu":12207,"HUIS":12208,"etira":12209,"ĠHa":12210,"ĠDV":12211,"Ġlinkerventrikel":12212,"itiden":12213,"Ã¶per":12214,"Ġpassageklachten":12215,"ĠPl":12216,"ĠDuodenum":12217,"Ġdarmkanker":12218,"lehane":12219,"verlossing":12220,"ĠRSI":12221,"eraties":12222,"Ġnatuur":12223,"oÃ¯de":12224,"gewrichten":12225,"yspneu":12226,"Ġurinekweek":12227,"Ġkwij":12228,"adviezen":12229,"ĠVrijdag":12230,"raaien":12231,"Ġclo":12232,"ĠIJ":12233,"ocriene":12234,"ĠTraum":12235,"ĠJuli":12236,"fr":12237,"Hz":12238,"Ġgevoerd":12239,"ĠPL":12240,"Ġverspreid":12241,"Ġaortaboog":12242,"Ġsul":12243,"Ġfaec":12244,"Ġdynam":12245,"ĠKn":12246,"Ġkeuze":12247,"wegens":12248,"beschrijving":12249,"otropie":12250,"Ġflesje":12251,"ĠScore":12252,"DBC":12253,"izont":12254,"ĠOntwikkeling":12255,"koppeling":12256,"Ġluxatie":12257,"Ġtrial":12258,"Ġvermijden":12259,"veelheid":12260,"Ġpathologisch":12261,"dikte":12262,"Ġfoet":12263,"Ġfundus":12264,"ĠfL":12265,"ĠMiddags":12266,"PP":12267,"ĠRPR":12268,"Ġkortlopend":12269,"Veel":12270,"Ġbal":12271,"Ġribfracturen":12272,"reed":12273,"ĠOperatiepersoneel":12274,"3044":12275,"Ġherkent":12276,"cardiologie":12277,"LWK":12278,"ĠVO":12279,"ARINE":12280,"Ġbank":12281,"ĠVisus":12282,"IJDENS":12283,"ĠFac":12284,"Ġlevodopa":12285,"rior":12286,"etiracetam":12287,"amed":12288,"slijmvlies":12289,"Ġlax":12290,"ĠKinderen":12291,"TS":12292,"RECHT":12293,"Ġbr":12294,"Ġpassief":12295,"ĠpartiÃ«le":12296,"ĠAlhier":12297,"Ġcircum":12298,"Ġcolchicine":12299,"entieradi":12300,"Ġbewe":12301,"Ġvervolgafspraak":12302,"Ġomvang":12303,"Ġtillen":12304,"Ġzorgverleners":12305,"YHA":12306,"zide":12307,"103":12308,"Ġclindamycine":12309,"Ġdislocatie":12310,"arig":12311,"VPK":12312,"Objectief":12313,"Ġvooruit":12314,"vats":12315,"Ġdocumenteer":12316,"my":12317,"cyst":12318,"lebitis":12319,"Ġintram":12320,"Ġcontracties":12321,"ĠRadiotherapie":12322,"Ġect":12323,"ĠĠÂłÂłÂłÂłÂłÂłÂłÂłÂłÂłÂł":12324,"Ġpoliaf":12325,"Ġopdracht":12326,"Ġretard":12327,"kliniek":12328,"Ġflesjes":12329,"ĠZus":12330,"LAND":12331,"Ġenigszins":12332,"Ġcrani":12333,"ĠUitslagen":12334,"gere":12335,"ĠDiagnostiek":12336,"rekte":12337,"Ġavondeten":12338,"Ġslot":12339,"Ġkwamen":12340,"geroepen":12341,"Ġaangelegd":12342,"houdens":12343,"ĠINTOX":12344,"Ġvervanging":12345,"Ġzwangerschapsduur":12346,"formance":12347,"ĠAangegeven":12348,"aur":12349,"ĠOogarts":12350,"Ġdiverticulitis":12351,"ĠVerzoek":12352,"geweest":12353,"Ġgewrichts":12354,"Ġaanv":12355,"ptaal":12356,"rijft":12357,"Ġautologe":12358,"Ġword":12359,"aortaal":12360,"anth":12361,"Ġabdominalis":12362,"onide":12363,"Ġhangen":12364,"email":12365,"Ġpred":12366,"duodenoscopie":12367,"SUL":12368,"ĠBB":12369,"OORN":12370,"ĠVermoeidheid":12371,"128":12372,"melk":12373,"ĠHeup":12374,"FRAX":12375,"ioneel":12376,"ĠONTSLAG":12377,"Ġsaturaties":12378,"Ġgrotendeels":12379,"ĠVoorbereiding":12380,"cave":12381,"ĠHeldere":12382,"ĠVir":12383,"plor":12384,"Ã¯dose":12385,"ĠMedewerkers":12386,"VER":12387,"vHD":12388,"aardigheden":12389,"Ġventr":12390,"ĠDifferentiaal":12391,"verlaagd":12392,"Ġingesproken":12393,"tense":12394,"ZEN":12395,"ĠComp":12396,"Ġfeces":12397,"ĠHE":12398,"Ġopgeloste":12399,"Ġgesneuveld":12400,"enteritis":12401,"amsterdamumc":12402,"ateri":12403,"Ġherkenbaar":12404,"gering":12405,"Ġ168":12406,"bru":12407,"Ġerna":12408,"ĠZon":12409,"ĠVerpleegkundig":12410,"otemp":12411,"ĠHDL":12412,"ĠVolgt":12413,"able":12414,"hexidine":12415,"ĠGal":12416,"Ġcrisis":12417,"ĠGeh":12418,"HS":12419,"luier":12420,"ĠVerhoogde":12421,"Ġzuurbranden":12422,"Ġkussen":12423,"ĠALLERGIEÃĭN":12424,"snede":12425,"Ġplaques":12426,"Ġsinust":12427,"Ġbeweeg":12428,"ĠTUR":12429,"Klin":12430,"Ġhypodens":12431,"syst":12432,"ocardiografie":12433,"Ġknieen":12434,"Ġmediane":12435,"ĠIntestinaal":12436,"mid":12437,"ĠScherp":12438,"ĠZorgverlener":12439,"56634":12440,"Ġgon":12441,"ematen":12442,"Ġerop":12443,"Ġverwijsbrief":12444,"ĠSB":12445,"3044500":12446,"plic":12447,"huisarts":12448,"ierechts":12449,"ĠNet":12450,")/":12451,"ĠStolling":12452,"kering":12453,"Ġlaryng":12454,"URINE":12455,"regio":12456,"Ġgegenereerd":12457,"Ġacidose":12458,"braak":12459,"zorgd":12460,"ofran":12461,"Ġbestraal":12462,"WA":12463,"aandoening":12464,"Ġpleisters":12465,"ĠHulpmiddelen":12466,"trekken":12467,"knapt":12468,"Ġpenicilline":12469,"Ġsereus":12470,"maand":12471,"Ġgeintubeerd":12472,"Ġalvast":12473,"Ġhevig":12474,"Ġvraagstelling":12475,"RCA":12476,"jectiv":12477,"Ġuitzuigen":12478,"Kalium":12479,"Ġwaarmee":12480,"olimus":12481,"Ġingang":12482,"romol":12483,"ĠFA":12484,"ĠBot":12485,"eiwit":12486,"Ġleren":12487,"ĠRecidiverende":12488,"overstijgend":12489,"Ġopvallende":12490,"ticaria":12491,"ijs":12492,"ĠOngecompliceerd":12493,"vd":12494,"ĠOCT":12495,"ĠZonder":12496,"ĠBru":12497,"ĠHom":12498,"ĠINTOXICATIES":12499,"Ġmedicamenteuze":12500,"ĠHartfrequentie":12501,"Ġlittekens":12502,"ĠPanel":12503,"horm":12504,"Ġpyelum":12505,"Ġhallux":12506,"Ġhypox":12507,"Ġtussent":12508,"Ġdiffusie":12509,"ASTRO":12510,"Ġpijnstillers":12511,"Ġopzet":12512,"Ġdoorverwezen":12513,"Ġlippen":12514,"ĠdiÃ«t":12515,"blanco":12516,"Ġplasmac":12517,"Ġverslecht":12518,"ĠVSD":12519,"ĠCHIR":12520,"cen":12521,"Ġtachy":12522,"Ġcervicaal":12523,"Ġoff":12524,"ĠGUO":12525,"Ġ1007":12526,"ĠGaarne":12527,"Ġfamiliaire":12528,"ĠRvC":12529,"Ġverhinderd":12530,"Ġappendectomie":12531,"ĠDys":12532,"Aanvullend":12533,"TI":12534,"Ġrectumcarcinoom":12535,"Ġbetrekking":12536,"komstig":12537,"Ġmedium":12538,"Ġpenis":12539,"Ġscap":12540,"ĠarteriÃ«le":12541,"uist":12542,"ynto":12543,"rank":12544,"opties":12545,"Ġstekende":12546,"yclus":12547,"Ġaspart":12548,"Ġintensie":12549,"ĠPORT":12550,"ĠDO":12551,"Ġneer":12552,"Ġ1104":12553,"Ġcholangiocarcinoom":12554,"Ġstentplaatsing":12555,"Ġvarices":12556,"ICA":12557,"Ġcellulitis":12558,"Ã«ro":12559,"NM":12560,"Ġverbeterend":12561,"Ademhaling":12562,"pra":12563,"ministratie":12564,"ĠKreat":12565,"ĠBili":12566,"Ġquad":12567,"ĠPen":12568,"Ġoogvolgbewegingen":12569,"Ġhangt":12570,"vant":12571,"IPARINE":12572,"Ġaanbieden":12573,"Ġbetreffende":12574,"Ġplo":12575,"koorts":12576,"ĠObstetrische":12577,"axis":12578,"astasering":12579,"Ġpassende":12580,"KD":12581,"Ġvullen":12582,"ĠGenerieke":12583,"Ġijzergebrek":12584,"kleur":12585,"Ġjaarlijks":12586,"Ġwaaronder":12587,"Ġ%)":12588,"bpm":12589,"plijden":12590,"ĠInsuline":12591,"Ġsubt":12592,"ĠFL":12593,"Zuid":12594,"Ġhosp":12595,"idale":12596,"Ġhoek":12597,"ĠTop":12598,"etanide":12599,"ĠĠĠĠĠĠĠĠĠĠĠĠĠĠĠĊ":12600,"hec":12601,"ĠIgA":12602,"Ġpapieren":12603,"Ġsemi":12604,"Ġafgekoppeld":12605,"Prog":12606,"ĠStent":12607,"Ġlukte":12608,"115":12609,"klinische":12610,"Ġwondje":12611,"Ġpe":12612,"Ġhaarden":12613,"Ġparenchym":12614,"gastro":12615,"ĠDyslipidemie":12616,"standige":12617,"Com":12618,"inv":12619,"kleden":12620,"Ġbegren":12621,"Ġafh":12622,"Ġrechternier":12623,"ynaecologie":12624,"Ġbrug":12625,"---":12626,"schil":12627,"atoom":12628,"CIS":12629,"ĠGevoel":12630,"ĠPijnklachten":12631,"cutaan":12632,"Ġcaput":12633,"verschijnselen":12634,"Ġopp":12635,"Ġossaal":12636,"Ġdalend":12637,"Ġproject":12638,"ippen":12639,"Ġblock":12640,"Deze":12641,"ĠĠÂłĠĠ":12642,"Ġjon":12643,"ĠAudi":12644,"theel":12645,"Ġdubieus":12646,"Ġmaakte":12647,"neem":12648,"CWK":12649,"Ġischemische":12650,"Ġwoning":12651,"urcatie":12652,"ÂłĠÂłĠĠ":12653,"Ġtachypnoe":12654,"Ġinspanningstolerantie":12655,"differentieerd":12656,"Neg":12657,"Ġgenezing":12658,"hyl":12659,"Ġsporadisch":12660,"170":12661,"ĠOchtendsRond":12662,"bot":12663,"ĠBijn":12664,"ĠValpreventiegedragResultaat":12665,"roxin":12666,"Ġgrap":12667,"Ġ131":12668,"ondanks":12669,"Ġvermoe":12670,"laesie":12671,"Acties":12672,"ANG":12673,"Ġseparaat":12674,"ĠMoeilijke":12675,"Ik":12676,"Ġpancreascarcinoom":12677,"oser":12678,"ĠAFS":12679,"inderen":12680,"ea":12681,"zu":12682,"ossa":12683,"banden":12684,"Ġritmestoornissen":12685,"HEEL":12686,"endig":12687,"Ġregulier":12688,"gus":12689,"Ġplex":12690,"snel":12691,"Ġaneurys":12692,"Ġversterkte":12693,"ios":12694,"Ġ1994":12695,"ĠBos":12696,"ĠMV":12697,"Ġcycli":12698,"heidsklachten":12699,"Ġmonitoren":12700,"heelkundige":12701,"Ġthrombus":12702,"articulaire":12703,"ĠTHP":12704,"Behandeling":12705,"azoline":12706,"ĠHET":12707,"Ġambu":12708,"Ġhond":12709,"ĠIBS":12710,"CON":12711,"Ġleefregels":12712,"Ter":12713,"Ġdien":12714,"ĠZowel":12715,"ULEERD":12716,"rep":12717,"Ġstomp":12718,"ANNULEERD":12719,"staart":12720,"Ġwassen":12721,"Ġdaarop":12722,"Ġfra":12723,"ĠTweede":12724,"isinopril":12725,"Ġbew":12726,"Ġslagpijn":12727,"otine":12728,"Ġmetoclopramide":12729,"Ġlinkerzijde":12730,"Ġdoorgroei":12731,"Ġschimmel":12732,"hypertensiva":12733,"ovid":12734,"Ġonderging":12735,"201710":12736,"icla":12737,"obacter":12738,"Ġsyncope":12739,"Ġsuccesvolle":12740,"Ġvoorgrond":12741,"Ġzoek":12742,"ĠRedelijke":12743,"ki":12744,"ARBON":12745,"oft":12746,"Ġbenadering":12747,"Ġcandida":12748,"Ġongeluk":12749,"JM":12750,"Ġscrotum":12751,"ICHT":12752,"Ġopheffen":12753,"aanwijzing":12754,"voeten":12755,"laas":12756,"iend":12757,"oÃ¯dale":12758,"Ġaanvrager":12759,"Ġglu":12760,"Algeheel":12761,"Ġhyster":12762,"overleg":12763,"Ġhemoptoe":12764,"ĠTRA":12765,"Ġslaperig":12766,"Ġfluconazol":12767,"Ġstollings":12768,"vasculaire":12769,"Ġlaboratoriumonderzoek":12770,"Ġnauwe":12771,"Ġallopurinol":12772,"ĠRegel":12773,"Ġzachte":12774,"FER":12775,"Ġrechterzijde":12776,"Hart":12777,"Ġabnormale":12778,"ĠVoldoende":12779,"ĠCentrale":12780,"aneus":12781,"Ġpron":12782,"exie":12783,"Ġtachycard":12784,"Ġstukjes":12785,"asale":12786,"Ġkil":12787,"intra":12788,"Ġciclosporine":12789,"ĠInterventie":12790,"erosol":12791,"ĠCrohn":12792,"Ġsediment":12793,"heugen":12794,"cludeerd":12795,"Ġwelk":12796,"Ġverstrekken":12797,"ĠAvondsIndien":12798,"mei":12799,"Ġmeeste":12800,"hesus":12801,"Ġelevatie":12802,"ĠSED":12803,"Ġhartslag":12804,"progressie":12805,"Ġpatienten":12806,"oro":12807,"Ġreumatologie":12808,"verificatie":12809,"Ġgeluiden":12810,"Ġeffectief":12811,"ĠLR":12812,"ĠVerzonden":12813,"ĠCap":12814,"Chemie":12815,"Ġinsuff":12816,"ĠMg":12817,"velijk":12818,"Ġpassieve":12819,"ĠGespecialiseerdVerpleegkundige":12820,"ĠHierdoor":12821,"Ġtempo":12822,"Ġhemolyse":12823,"kenis":12824,"dyspnoe":12825,"ĠNierfunctie":12826,"Ġonderwand":12827,"Ġmondhoek":12828,"Ġbuurt":12829,"Ġplotseling":12830,"ĠUrinesediment":12831,"juvant":12832,"Ġdegeneratie":12833,"Ġpersoonlijk":12834,"ĠALMERE":12835,"annab":12836,"ĠpatiÃ«ntenfol":12837,"oteerd":12838,"lapar":12839,"venen":12840,"injectie":12841,"ĠEV":12842,"IPT":12843,"Ġgnost":12844,"Ġcisternen":12845,"roeven":12846,"aut":12847,"Polsslag":12848,"Rustige":12849,"ĠNacht":12850,"Ġhepatosplenomegalie":12851,"entrikelfunctie":12852,"udicatio":12853,"samenvatting":12854,"ĠLoop":12855,"Ġafgrensbaar":12856,"Ġreumato":12857,"otide":12858,"Ġrechteronderkwab":12859,"iferatie":12860,"Ġbloedverd":12861,"Ġtinnitus":12862,"ĠML":12863,"Ġpocket":12864,"iflow":12865,"Ġembolisatie":12866,"malige":12867,"Ġpyelonefritis":12868,"Ġingroei":12869,"Ġontbreken":12870,"kind":12871,"Ġdunn":12872,"ycycline":12873,"ĠBiopten":12874,"ĠHieronder":12875,"Ġsta":12876,"Ġneonaat":12877,"Ġkappa":12878,"ĠGesch":12879,"Ġkrachtig":12880,"Ġhuiduitslag":12881,"ĠGeldig":12882,"ict":12883,"istaxis":12884,"aterialen":12885,"RIL":12886,"defici":12887,"AMO":12888,"orect":12889,"obra":12890,"cussie":12891,"ulatorius":12892,"Ġretina":12893,"ĠAFC":12894,"Ġzinvol":12895,"ĠĠÂłÂłĠ":12896,"Ġbeetjes":12897,"bulking":12898,"omische":12899,"inding":12900,"Ġgeleverd":12901,"omeen":12902,"metingen":12903,"ĠPsycho":12904,"Ġdraagt":12905,"Ġtoxiciteit":12906,"Ġontwikkeld":12907,"Ġprocessus":12908,"enten":12909,"ĠDex":12910,"Ġpijnscore":12911,"Ġwankel":12912,"shelft":12913,"Ġcosta":12914,"Ġhypodense":12915,"ĠLage":12916,"Ġwondinfectie":12917,"EEN":12918,"ĠMisselijk":12919,"ĠTrauma":12920,"eppra":12921,"rosepsis":12922,"Ġlat":12923,"ĠInhoud":12924,"SO":12925,"LAST":12926,"ĠAfhankelijk":12927,"ĠASD":12928,"Ġaspergill":12929,"ĠLaag":12930,"ĠMTR":12931,"ĠGASTRO":12932,"Ġcardioversie":12933,"ĠLeeftijd":12934,"undaire":12935,"forie":12936,"Ġinfusie":12937,"istoffen":12938,"neff":12939,"izine":12940,"Ġuln":12941,"icalis":12942,"Ġbovenpool":12943,"ana":12944,"Ġhoortoestellen":12945,"Ġervan":12946,"Ġprobleemloos":12947,"Ġeindstandig":12948,"ĠAcc":12949,"Ġrechterbovenkwab":12950,"anamnestisch":12951,"ĠVooraf":12952,"ĠPak":12953,"Hoe":12954,"Ġeiwitbehoefte":12955,"Ġrevalidatiearts":12956,"Ġoplopend":12957,"sge":12958,"Ġah":12959,"ĠTIJDENS":12960,"Ġpleurale":12961,"Par":12962,"210":12963,"Ġmassawerking":12964,"Ġhooikoorts":12965,"Ġmaxillaris":12966,"fistel":12967,"ĠNSK":12968,"Ġgezondheid":12969,"Ġkleplijden":12970,"Ġisos":12971,"ertiliteit":12972,"iazepam":12973,"edarm":12974,"Ġleuc":12975,"Ġlegitimatiebewijs":12976,"Ġangiografie":12977,"Ġappend":12978,"Ġevenals":12979,"DIE":12980,"ARBONAAT":12981,"ĠPOLINEUROLOGIE":12982,"Ġretroperitone":12983,"ĠGewricht":12984,"HEELKUNDE":12985,"ĠLymfeklier":12986,"Ġkin":12987,"ĠRefbereik":12988,"ĠObstipatie":12989,"fin":12990,"ĠFentanyl":12991,"ciplines":12992,"Zo":12993,"verwij":12994,"Ġdeur":12995,"Ġ175":12996,"ĠSA":12997,"Ġcystoscopie":12998,"peran":12999,"Ġdoordat":13000,"regulatie":13001,"ester":13002,"ĠDub":13003,"Ġzorgplan":13004,"Ġverklaren":13005,"Ġbesliss":13006,"Ġachterste":13007,"Ġ724":13008,"PatiÃ«nte":13009,"ĠDd":13010,"ĠVoelde":13011,"jejunostomie":13012,"Opmerking":13013,"ĠSCT":13014,"Ġfaxnr":13015,"Ġuitsluiting":13016,"ERSLAG":13017,"ADL":13018,"Ġidem":13019,"Ġoplaad":13020,"vene":13021,"uld":13022,"Ġledematen":13023,"Ġconst":13024,"Interieur":13025,"ĠEB":13026,"ĠFoliumzuur":13027,"ĠMETS":13028,"HALATIE":13029,"elena":13030,"Diagnostiek":13031,"Ġgrove":13032,"Geslacht":13033,"Ġroutebeschrijving":13034,"Ġbezwaar":13035,"Ġverwijde":13036,"ipel":13037,"5666":13038,"Ġapixaban":13039,"Ġalgeheel":13040,"evt":13041,"ĠDis":13042,"IMENT":13043,"Ġbier":13044,"ĠIM":13045,"iple":13046,"jectiefractie":13047,"ĠHO":13048,"ĠPerineum":13049,"Ġgetrouwd":13050,"Ġicterus":13051,"Ġverwachting":13052,"ĠLH":13053,"Ġkindergeneeskunde":13054,"Ġverwijd":13055,"ĠSN":13056,"verwege":13057,"Ġsolide":13058,"Ġfam":13059,"ĠMF":13060,"ĠTNP":13061,"Ġtonsillen":13062,"ĠPolsfrequentie":13063,"cterisch":13064,"ulatuur":13065,"Ġrondje":13066,"Ġsteek":13067,"epilept":13068,"ĠMilt":13069,"ĠSediment":13070,"ĠUrinekweek":13071,"inen":13072,"Ġstu":13073,"Urologie":13074,"ĠGet":13075,"Ġatherosclerose":13076,"Ġhemicol":13077,"Ġsnur":13078,"hypertensie":13079,"Ġemot":13080,"Ineff":13081,"aparoscopische":13082,"uigel":13083,"ĠgeÃ«":13084,"eduur":13085,"oudheid":13086,"ĠProblemen":13087,"Ġgeleidings":13088,"Ġgastritis":13089,"ipro":13090,"ieerde":13091,"etab":13092,"Ġbloedtransfusie":13093,"Orth":13094,"AVE":13095,"Ġontwikkelde":13096,"136":13097,"ALE":13098,"ĠUS":13099,"Ġappendix":13100,"Ġgradient":13101,"volumab":13102,"yg":13103,"ffect":13104,"ĠGeboorte":13105,"ĠPSYCH":13106,"ichte":13107,"dal":13108,"ĠEngels":13109,"ĠPal":13110,"continentie":13111,"rote":13112,"Ġgran":13113,"Ġverzorgen":13114,"Ġinzakking":13115,"Ġorbita":13116,"ĠNIF":13117,"Ġuitgaande":13118,"RF":13119,"waarts":13120,"ops":13121,"Ġontslagdatum":13122,"bic":13123,"Ġglazen":13124,"Ġademen":13125,"Ġduren":13126,"Ġ146":13127,"Ġinschakelen":13128,"ĠOnduidelijk":13129,"ĠcoÃ¶per":13130,"ĠPF":13131,"ovirus":13132,"ernia":13133,"Ġreagerend":13134,"Ġgevoeld":13135,"Ġspannend":13136,"Ġamen":13137,"Stelsel":13138,"Ġnuc":13139,"getje":13140,"Ġgli":13141,"ĠDepressie":13142,"vasc":13143,"rosis":13144,"Ġbeschouwd":13145,"eiden":13146,"iatrie":13147,"Ġcompens":13148,"voeren":13149,"Ġcath":13150,"ĠOncologie":13151,"rukt":13152,"Ġmicromol":13153,"ĠNEC":13154,"duct":13155,"intestinale":13156,"ĠNSCLC":13157,"Ġnaadlekkage":13158,"Ġwijzig":13159,"ĠApothekers":13160,"Ġdifferentiaal":13161,"Ġloperamide":13162,"555":13163,"drainage":13164,"laden":13165,"Recentste":13166,"umetanide":13167,"reductie":13168,"otatie":13169,"Ġinspannings":13170,"Ġwegwerpspuit":13171,"Ġgelux":13172,"rijs":13173,"mca":13174,"Ġgedetubeerd":13175,"ĠDro":13176,"agon":13177,"Ġzenuwstelsel":13178,"icemail":13179,"ĠHAP":13180,"lag":13181,"durende":13182,"ancreas":13183,"ĠVroeg":13184,"Ġconfiguratie":13185,"ECT":13186,"ĠSPE":13187,"Ġgeachte":13188,"ĠĠĠĠĠĠĠĠĠĠĠĠĠĠĠĠĠĠĠĠĠĠĠĠĠĠ":13189,"arum":13190,"otities":13191,"opedische":13192,"FRAXIPARINE":13193,"Ġgaaf":13194,"Ġontlast":13195,"Ġhemofilie":13196,"gebonden":13197,"ago":13198,"Ġverkrij":13199,"ĠĠĠĠĠĠĠĠĠĠĠĠĠĠĠĠĠĠĠĠĠĠĠĠ":13200,"ĠTablet":13201,"omm":13202,"Ġafwachting":13203,"Ġneven":13204,"Ġmandibula":13205,"ĠEm":13206,"ial":13207,"Ġolie":13208,"ĠPJ":13209,"Ġerythemateuze":13210,"ĠBeweegt":13211,"ephal":13212,"Ġgehecht":13213,"ĠROP":13214,"Ġtrig":13215,"ĠMilieuInterieur":13216,"Ġlooppatroon":13217,"vanwege":13218,"paratuur":13219,"ĠMJ":13220,"ĠNogmaals":13221,"ĠHol":13222,"ĠInternist":13223,"ĠRCx":13224,"Ġforlax":13225,"ĠPORTIE":13226,"zus":13227,"junctiva":13228,"Ġslokjes":13229,"Ġplekje":13230,"BURG":13231,"Ineffectief":13232,"Ġernst":13233,"rans":13234,"BU":13235,"orderline":13236,"Ġbehandelaanwijzing":13237,"Ġkrukken":13238,"erose":13239,"vulsie":13240,"Ġtabak":13241,"ostrid":13242,"ecitabine":13243,"sbevinding":13244,"oplatin":13245,"ĠmgtabletMSR":13246,"amputatie":13247,"Graad":13248,"liquor":13249,"pat":13250,"iclazide":13251,"opedist":13252,"sinus":13253,"Ġil":13254,"Ġcholestase":13255,"Ġachtergrond":13256,"Ġtroponine":13257,"Ġdecompensatie":13258,"arg":13259,"acort":13260,"ĠNW":13261,"Ġperitonitis":13262,"alapril":13263,"ĠVerhoogd":13264,"Ġgeorienteerd":13265,"minder":13266,"Ġdiepte":13267,"ilitair":13268,"slavende":13269,"Ġspel":13270,"rioriteit":13271,"ats":13272,"ĠAdemhalingspatroon":13273,"ĠPlanning":13274,"osc":13275,"Ġstatine":13276,"Ġgriep":13277,"Ġoplossen":13278,"unners":13279,"genezing":13280,"ergy":13281,"Ã¨re":13282,"ĠgeÃ¯nfect":13283,"Ġbloedonderzoek":13284,"ĠEry":13285,"derdys":13286,"Ġervaring":13287,"Ġchec":13288,"Ġwist":13289,"ĠGGZ":13290,"Ġingevoerd":13291,"ĠRookt":13292,"Ġeic":13293,"Ġheftige":13294,"ĠvoedingsstoffenResultaat":13295,"Ġopi":13296,"Ġzei":13297,"Ġhelft":13298,"ĠGebruikelijk":13299,"Ġuzelf":13300,"Ġsteriel":13301,"HI":13302,"Type":13303,"Ġingelicht":13304,"299":13305,"imumab":13306,"Ġinstelling":13307,"Ġafmeting":13308,"depressie":13309,"Ġbeschrijving":13310,"ĠSEDIMENT":13311,"klaring":13312,"Wee":13313,"Ġvene":13314,"PCR":13315,"Ġmeegenomen":13316,"arbonaat":13317,"ivel":13318,"Ġaldus":13319,"bellen":13320,"Chronische":13321,"oerdraad":13322,"Ġtaalb":13323,"uwelijkse":13324,"genitalis":13325,"ĠOndanks":13326,"Ġpijnpoli":13327,"ĠAuto":13328,"Ġsyndrome":13329,"oordinatie":13330,"Ġverergering":13331,"Ġmiddenkwab":13332,"ylase":13333,"Ġconsulten":13334,"Ġparoxysmaal":13335,"135":13336,"icuspide":13337,"Ġelektrolyten":13338,"Ġnierlo":13339,"ĠĠĠĠĠĠĠĠĠĠĠĠĠĠĠĠĠĊ":13340,"ĠGV":13341,"ostridium":13342,"Ġaerosol":13343,"ĠPunt":13344,"makoep":13345,"Ġcisplatin":13346,"Ġtoekomstige":13347,"Ġ165":13348,"Ġalwaar":13349,"spoor":13350,"Cc":13351,"ĠGecompliceerd":13352,"Onge":13353,"Ġtampon":13354,"ĠDagcentrum":13355,"ytopenie":13356,"Ġagressie":13357,"Ġ1990":13358,"rauma":13359,"Ġvoorbereidingen":13360,"Ġupt":13361,"Ġtim":13362,"Ġhandelingen":13363,"ĠPlanbureau":13364,"Ġaandoeningen":13365,"Ã¯de":13366,"ĠBorstvoeding":13367,"Ġlactulose":13368,"Ġcoeliakie":13369,"ĠCHE":13370,"ĠSept":13371,"grote":13372,"ONTIN":13373,"ĠKun":13374,"atosis":13375,"Ġzwemmen":13376,"Ġversturen":13377,"Ġkwijt":13378,"elfractuur":13379,"cmH":13380,"Ġduodeni":13381,"BEP":13382,"ĠRhin":13383,"rouwenziekten":13384,"MAN":13385,"Ġmeld":13386,"vlgs":13387,"ĠOrale":13388,"ĠBoer":13389,"Ġbestaand":13390,"ĠSK":13391,"Ġbehaald":13392,"Ġdg":13393,"Ġkrappe":13394,"ĠUIT":13395,"Ġ1200":13396,"ĠLCA":13397,"voorziening":13398,"ĠGeadviseerd":13399,"Ġgedifferentieerd":13400,"Ġ+/+,":13401,"spees":13402,"ĠSM":13403,"Ġkantooruren":13404,"ĠOnveranderd":13405,"Ġinflammatoire":13406,"wendig":13407,"hematoom":13408,"Ġaortawortel":13409,"ĠMijndossieractivatiecode":13410,"Ġinvasieve":13411,"urgen":13412,"Ġgebeurt":13413,"geleden":13414,"Ġstom":13415,"acie":13416,"terend":13417,"OSE":13418,"lichtings":13419,"Ġkat":13420,"Ġdikker":13421,"Ġaxiale":13422,"Ġachtergelaten":13423,"Ġabcessen":13424,"IEN":13425,"Ġprominente":13426,"Ġtracer":13427,"Ġtoevoegen":13428,"Ġinhalatiepoeder":13429,"Ġvernauwing":13430,"Ġminste":13431,"Fr":13432,"yct":13433,"Ġtante":13434,"ĠSoepel":13435,"ĠLipase":13436,"entor":13437,"Ret":13438,"Ġmantel":13439,"resie":13440,"ĠDrugsgebruikNee":13441,"Ġregels":13442,"Ġafged":13443,"ĠUmca":13444,"Ġverzocht":13445,"Ġveiligheids":13446,"ĠVaat":13447,"Der":13448,"ĠTijdZorgverlener":13449,"Ġurinewegen":13450,"Ġoogcontact":13451,"Ġbetekenis":13452,"ectievelijk":13453,"proteine":13454,"uraal":13455,"Ġhartritme":13456,"ĠTypes":13457,"scheid":13458,"Sl":13459,"Ġcerebellair":13460,"eed":13461,"ĠHuwelijkse":13462,"Ã«rosol":13463,"niotomie":13464,"Ġvroege":13465,"Ġintracereb":13466,"GB":13467,"ĠStaan":13468,"Ġhemostase":13469,"Ġvoltooid":13470,"streek":13471,"Ġgediagnosticeerd":13472,"Ġkleink":13473,"Ġhypop":13474,"Ġticagrelor":13475,"9500":13476,"Ġ1103":13477,"ĠKAT":13478,"BI":13479,"ocl":13480,"44407":13481,"ĠBeh":13482,"ocele":13483,"Ant":13484,"Ġuurs":13485,"ĠTNO":13486,"Ġstruma":13487,"ĠECT":13488,"uigende":13489,"ĠBar":13490,"ene":13491,"Ġinfliximab":13492,"ĠAanvankelijk":13493,"Ġhepatica":13494,"icip":13495,"scherp":13496,"ĠDiffuus":13497,"vocatie":13498,"ĠVA":13499,"Ġseptische":13500,"Ġclassificatie":13501,"ĠHuidig":13502,"ĠIVIG":13503,"Ġsequ":13504,"Ġhilaire":13505,"Ġbloedsuiker":13506,"ena":13507,"ĠAlkmaar":13508,"buis":13509,"ĠSm":13510,"Ġingescand":13511,"ĠhypothyreoÃ¯die":13512,"vix":13513,"Ġgezichtsveld":13514,"valider":13515,"Ġopgeroepen":13516,"HC":13517,"ellow":13518,"asme":13519,"Ġnacl":13520,"osedienst":13521,"Ġkru":13522,"lasp":13523,"Ġaanpassing":13524,"gevat":13525,"ĠNCH":13526,"ĠSpirometrie":13527,"190":13528,"ĠWijze":13529,"Ġradicale":13530,"Graag":13531,"zeer":13532,"Ġvermeld":13533,"Ġgeconcent":13534,"Ġtunn":13535,"helft":13536,"Ġredenen":13537,"104":13538,"Ġvlagen":13539,"ĠPleuravocht":13540,"chure":13541,"Ġtractus":13542,"azepine":13543,"Ġanaesthesie":13544,"TEN":13545,"Ġulceratie":13546,"Ġaanhouden":13547,"Ġhoopt":13548,"Ġvesiculair":13549,"Ġleverfunctie":13550,"Ġzuig":13551,"ellig":13552,"haarden":13553,"stein":13554,"Ġfysieke":13555,"Ġ480":13556,"Ġcoronairen":13557,"muc":13558,"Ġpunct":13559,"Ġoverle":13560,"Ġuveitis":13561,"kapbeademing":13562,"Ġbepaling":13563,"Ġrechtshandig":13564,"efzol":13565,"Ġsprak":13566,"ĠBT":13567,"ĠIP":13568,"ĠIngreep":13569,"gezicht":13570,"stekingen":13571,"RvC":13572,"ONV":13573,"prikkel":13574,"Ġafloop":13575,"Ġvoetbal":13576,"Ġvagin":13577,"Ġgefaxt":13578,"osale":13579,"Ġboog":13580,"Ġbijgespoten":13581,"Ġhistologie":13582,"Ġemai":13583,"rab":13584,"iconceptie":13585,"Ġtransplantaat":13586,"ĠVerminderde":13587,"ronden":13588,"Ġlagere":13589,"amicine":13590,"jectieve":13591,"Ġcytologie":13592,"antoine":13593,"ikels":13594,"Ġemailasp":13595,"ASP":13596,"Ġoorzaken":13597,"Ġtekening":13598,"Ġhematoloog":13599,"osup":13600,"____________________________":13601,"raaid":13602,"ĠMPU":13603,"stok":13604,"ĠInformed":13605,"DUODEN":13606,"Ġantwoorden":13607,"ĠMeeste":13608,"Ġquetiapine":13609,"Ġimmob":13610,"Ġkopp":13611,"Ġcorrig":13612,"Ġhoortoestel":13613,"Ġ(/":13614,"ĠSputum":13615,"Ġload":13616,"annabis":13617,"Ġonbelast":13618,"ĠAMS":13619,"atoire":13620,"Ġ=>":13621,"arabine":13622,"ĠWarme":13623,"Ġslikklachten":13624,"Ġtuberc":13625,"ĠPhys":13626,"ĠSnel":13627,"Ġeryt":13628,"Ġreis":13629,"Ġ121":13630,"ĠPRO":13631,"Ġverapamil":13632,"Ġhypesthesie":13633,"scre":13634,"Moeder":13635,"ĠCornea":13636,"ĠHemol":13637,"luxatie":13638,"levendig":13639,"osarcoom":13640,"crise":13641,"pret":13642,"beelden":13643,"Ġverzorgde":13644,"Ġoppervlakkig":13645,"IEK":13646,"ijnt":13647,"Ġinterval":13648,"ĠDBC":13649,"Ġlidocaine":13650,"Ġia":13651,"Ġwandverdikking":13652,"had":13653,"Indicatie":13654,"icotine":13655,"sein":13656,"houet":13657,"Ġkortgeleden":13658,"Ġkramp":13659,"ima":13660,"Ġveranderen":13661,"Ġdyspnoeisch":13662,"Ġglaucoom":13663,"Ġkwets":13664,"Long":13665,"Ġoogheelkunde":13666,"ĠOost":13667,"Ġendo":13668,"ĠEo":13669,"ĠBijl":13670,"ĠLuchtweg":13671,"Ġstenosen":13672,"etering":13673,"ĠVooral":13674,"ĠTijdZorgverlenerAfdeling":13675,"Ġlinkeronderkwab":13676,"Ġmyoom":13677,"Ġinvullen":13678,"ĠHemodynamiek":13679,"lissen":13680,"Ġmyomat":13681,"âĢĻ.":13682,"Ġurotheel":13683,"ypt":13684,"Rust":13685,"Ġhemip":13686,"ĠBeoordelingkapbeademing":13687,"Ġdoorsnede":13688,"ĠOf":13689,"ĠVMS":13690,"wn":13691,"gaarne":13692,"ĠZwangerschapsduur":13693,"COLON":13694,"bdz":13695,"agitt":13696,"ĠPleister":13697,"ĠAanvragen":13698,"Ġzone":13699,"Ġgecombineerd":13700,"boom":13701,"front":13702,"volume":13703,"ococcen":13704,"late":13705,"Ġcomorbiditeit":13706,"Ġgiften":13707,"Ġcarotiden":13708,"ĠessentiÃ«le":13709,"Ġblds":13710,"Ġbrengt":13711,"ĠSANDOZ":13712,"ĠSign":13713,"ĠVOD":13714,"Ġepileptische":13715,"ovasculair":13716,"oplitea":13717,"Ġintest":13718,"aanval":13719,"ĠAangezien":13720,"ĠVe":13721,"ĠVerwachte":13722,"ĠHCC":13723,"ĠLu":13724,"ĠToelichting":13725,"plicatie":13726,"ĠDaarvoor":13727,"lines":13728,"Ġspierkracht":13729,"Ġverrichtingen":13730,"Ġcholecystitis":13731,"Ġaanw":13732,"ĠAdviezen":13733,"Ġtamsulosine":13734,"Rol":13735,"TTE":13736,"Ġmutaties":13737,"ĠToch":13738,"Ġoplossing":13739,"DH":13740,"IER":13741,"Ġrichtlijn":13742,"ycturie":13743,"CALCI":13744,"ĠGenetica":13745,"Ġmelena":13746,"riele":13747,"orrag":13748,"alb":13749,"Ġtroeb":13750,"Ġrespectievelijk":13751,"Ġabductie":13752,"Ġbronchitis":13753,"ĠMei":13754,"Ġpur":13755,
[...]
