#version: 0.2
e n
e r
i n
i e
a n
Ġ v
d e
a t
o r
g e
i j
o n
c h
a r
s t
Ġ m
e t
a l
Ġ #
Ġ b
i s
e l
Ġ de
in g
o l
Ġ d
Ġ h
Ġ o
Ġ p
Ġ t
r e
Ġv an
Ġ w
Ġ ge
Ġ n
Ġ en
Ġ e
i t
o or
d i
Ġ a
Ġ in
Ġ (
r o
d en
Ġ c
Ġ s
d er
l e
Ġ C
Ġ -
ch t
o g
l a
c t
o e
at ie
r a
Ġ z
Ġv er
Ġm et
Ġe en
a ar
o m
Ġ k
en t
Ġ [
u s
Ġo p
Ġ A
v er
Ġb e
is ch
u l
a m
ij k
i c
s e
Ġ on
i d
g en
Ġv oor
e m
u m
Ġ D
Ġh et
ar di
e er
n t
u r
al e
i g
Ġ g
Ġ l
Ġb ij
k en
Ġ st
e e
at i
o t
Ġ P
a s
o p
s ch
Ġa an
Ġ re
t e
i l
ar t
Ġ T
E R
O N
Ġ H
ij n
A T
Ġ f
Ġ S
isch e
Ġ L
O ON
a al
Ġ E
Ġ M
a g
de l
P ER
PER S
PERS OON
Ã «
ol og
u n
s p
Ġ G
Ġ I
Ġ V
v en
Ġ is
Ġ R
ct ie
ie t
r i
U M
Ġt e
Ġ u
in e
Ġw er
Ġ B
olog ie
Ġge en
D AT
DAT UM
r u
o c
s ie
Ġ N
Ġon der
e g
Ġ al
Ġ an
Ġ O
ing en
Ã« nt
or m
t en
e s
i k
el e
ul t
ĠD e
ardi ologie
h e
a b
ati Ã«nt
a k
Ġ# .
Ġo f
Ġp er
Ġn iet
on s
c l
Ġ r
l en
v e
z oe
i m
er en
us ie
an d
on t
o s
C A
Ġp atiÃ«nt
Ġd at
f t
y p
e en
e p
e d
i cht
Ġn a
zoe k
an t
i r
Ġu it
Ġo ver
- #
) ,
oe d
Ġa f
ons ult
Ġp ro
Ġd i
Ġd oor
s en
z e
Ġw or
a p
t er
ij d
ie k
l ijk
o og
Ġ <
st e
o k
Ġ j
cl usie
o se
Ġ#. #
i re
Ġz ijn
u t
i f
) .
m in
Ġw aar
or t
an g
: #
r ij
Ġwer d
Ġd ie
h an
on clusie
di c
Ġ er
f f
i ge
a c
el d
Ġo m
a d
C ardiologie
u w
e c
eer d
la cht
i er
l in
Ġh art
n e
CA R
i st
a at
Ġt ot
el ijk
] :
a an
n am
a st
p l
k er
Ġonder zoek
ven s
w ij
it e
ĠC onsult
he id
e ct
b e
Ġ# /
Ġ le
r ol
ĠG een
Ġ# ,
un ctie
s la
ent ie
Ġ 1
re s
o u
Ġ la
v ing
u is
w oor
ĠI n
ĠpatiÃ«nt en
han del
m e
a ct
ite it
ĠT h
Ġs p
om en
v ol
at h
I E
Ġ( #
u ur
o f
on der
C onclusie
dic atie
Ġm m
Ġn aar
Ġw as
Ġge b
ge vens
at eg
sch rij
Ġal s
ĠL V
i v
lacht en
Ġc or
em a
o st
at um
Ġc ardi
d ie
Ġc ont
cht er
sla g
ĠA nt
woor d
ij den
Ġ K
n en
or ie
u re
on d
ge lijk
Ġb l
er d
i de
schrij ving
ateg orie
O m
Ġm e
Ġon t
Ġv ol
v al
Ġn orm
u la
Ġ F
d t
Ġ W
ĠAnt woord
Om schrijving
ĠC ategorie
ĠTh ema
i en
Ġm o
Ġl in
Ġs y
er k
Ġt o
l o
] ,
if ic
yp er
e b
A D
il l
Ġwor den
m g
) :
eer de
u c
w e
c on
i ch
a f
m m
i b
s c
der e
Ġbe handel
ee ft
Ġ 2
i a
Ġ U
Ġw e
en de
E F
ĠV er
Ġ x
ĠC ardiologie
r ie
Ġo ok
el l
Ġwer den
am en
ro ep
Ġin f
u i
ver sie
ie den
Ġ# :
ru k
a cht
m a
on a
Ġwor dt
del ijk
et er
is ic
Ġ# -#
Ġe er
di g
Ã ¯
Ġk an
Ġst u
i on
q u
ĠO ver
Ġ#, #
e el
ru ik
v at
atie s
Ġde ze
in d
Ġt h
wij z
ge sch
Ġk lachten
Ġ# %
D atum
v o
Ġm a
Ġ or
k e
k el
e u
Ġz o
ri cht
ra m
ar d
Ġd an
ge gevens
ieden is
Ġ Z
c ed
e ctie
r an
p er
Ġd ag
ig n
Ġb el
u b
ula ire
ele id
i um
v oor
er e
m en
i p
ar en
Ġt oe
Ġn u
w ee
ĠH et
Ġ#/ #
em ie
Ġ at
C G
Ġc om
o d
ag n
k t
Ġ ch
ced ure
Ġ |
con versie
nam e
conversie gegevens
Ġj aar
p t
. #
gesch iedenis
y s
Ġbl oed
N ee
E N
Ġc ol
art s
le g
ne se
s us
Ġt er
Ġe x
ing s
Ġg er
Ġstu die
le p
Ġlin ker
v ul
en d
an n
ge l
ra ag
C I
id del
Ġm g
oe de
' s
l at
I S
a se
p en
i den
Ġf unctie
Ġr isic
f ie
al s
Ġh eeft
Ġm in
w ijk
al is
Ġm eer
Ġm aar
r on
e st
z ien
Ġg oed
z icht
or en
Ġver h
rol e
y se
t ing
Ġgeb ruik
Ġvoor geschiedenis
Ġs ign
Ġin ter
ri um
at en
u it
z el
c ent
ch o
Ġ# :#
ie s
Ġp ol
ken d
] .
er ap
as s
Ġp la
Ġcor ona
er s
O C
or e
t ra
Ġ /
Ġh er
Ġh yper
k s
al en
Ġh eb
b aar
f unctie
cht s
as c
b en
m b
Ġver b
ĠE r
n is
d ruk
Ġn og
al yse
H g
Ġp ijn
ab l
gen s
Ġw el
er atie
AT IE
Ġn o
Ġg ro
0 0
ten sie
Ġan t
ĠC T
lin ische
ĠE CG
og ra
Ġ im
di en
Ġc on
T E
Ġe ff
b ij
us sen
r it
ol oog
d o
m ent
Ġ gen
res sie
U IS
or g
Ġbehandel ing
K EN
L OC
Ġsign ific
LOC ATIE
T I
k ing
Z IE
ro uw
H UIS
Ġnorm ale
KEN HUIS
p ro
ZIE KENHUIS
Ġb et
ĠA l
ge b
o x
et en
ĠS t
Ġt ijd
a ak
ur sus
Ġheb ben
Ġal le
ati ent
Ġh uis
Ġd it
Ġs c
Ġ 3
L E
ĠB ij
y oc
Ġz onder
s l
Ġge m
v ent
Ġver sch
Ġverh oog
vul len
ep t
it ie
z en
Ġh oog
c om
ĠR V
ĠC A
v an
C D
o el
Ġ isch
u g
t h
s el
Ġp re
Ġw aren
l ijn
Ġt ussen
Ġw at
gen omen
â Ģ
on g
ij st
s y
n a
o ven
amen vat
di lat
i Ã«
on den
di ge
p le
Ġ 0
ĠM et
Ġmo gelijk
ijden s
Ġsy st
Ġa c
Ġk un
amenvat ting
ab et
ib r
Ġge st
Ġge d
g roep
e f
y c
vol g
om st
I D
yp e
Ġs ch
Ġaf wijk
Ġor aal
Ġ ru
nam nese
Ġa ort
g er
e ft
en ose
Ġ J
il len
n st
el len
Ġ art
a x
Ġkun nen
Ġaan ge
lo w
al c
in f
at er
Ġeff ect
ardi ale
sp ra
Ġwaar voor
an c
ra di
ol ische
-# >
Ġg oede
i ale
t o
Ġv ent
r ic
ati on
Ġbe p
it is
I N
oor nis
n d
der en
vullen d
og en
ie uw
Ġdat um
ar e
c es
abl et
atie f
Ġh ad
ĠM e
ig ram
a ge
Ġ iv
Ġb as
Ġz iek
Ġ richt
Ġbel ang
ar ct
Ġd a
lin iek
Ġh o
b l
at e
s u
Ġuit ge
o de
sp ann
ĠG e
J D
r en
ĠOver zicht
Ġz ich
Ġn e
Ġm ill
ul m
ĠN orm
Ġd aar
i ve
TI JD
EF TIJD
LE EFTIJD
id ing
et ten
erap ie
f ibr
o v
Ġdi agn
pl ic
elijk e
Ġre s
Ġbe h
rie f
T X
Ġn ee
w aar
w el
Ġmm Hg
Ġcont role
A an
ĠO n
Ġ =
st ell
ĠE en
Ġre chts
Ġt ablet
Ġ Q
s s
ro ken
Ġnorm aal
Ġmill igram
ĠP CI
Ġaan wijz
k l
an der
in ge
Ġ et
Ġan dere
R I
m er
Ġt ijdens
ar i
Ġm an
# ,
r ijk
aan den
u p
Ġre chter
ath ie
Ġcol leg
ro cedure
Ġmm ol
x im
ar m
T ijd
abet es
Ġ +
Ġver min
Ġa p
Ġm yoc
re qu
V A
Ġge h
am e
ĠA an
ant atie
er ol
Ġj a
m at
ĠI CD
Ġrisic o
Ġb or
spra ak
B eleid
Ġge dilat
Ġan g
Ġme dicatie
ro mb
ĠB e
in t
ati ge
ig heid
sch ap
ĠR e
u te
Ġz e
ĠO p
ge st
Ġer nst
Ġ 4
Ġop name
Ġt wee
Ġisch emie
z iek
y m
ro p
Ġs ub
Ġm ee
ou den
ogra fie
er de
st oornis
Ġu ur
o cht
Ġcorona ir
Ġbe sch
k un
M I
Ġm aanden
Ġp atient
Ġ ]
del ing
Ġeer ste
Ġaanwijz ingen
Ġ 5
Ġin spann
ot h
ĠN a
delijk e
he den
fibr ill
act oren
d d
Ġwer k
Ġbor st
y ten
Ġge gevens
ri kel
Ġat rium
K eu
zel ijst
Keu zelijst
Ġh ier
Ġre g
Ġiv m
Ġricht lijn
Ġz etten
Ġo b
olog ische
gen de
am il
ĠL AD
a ch
ĠC onclusie
Ġl ong
in nen
f orm
an te
Ġ '
Ġbe oor
w eg
w icht
op en
in us
ak er
ic i
al iteit
Ġver gelijk
Ġge le
A namnese
Ġversch illen
c onsult
asc ulaire
Ġk le
op athie
u nt
Ġlin ks
Ġ# )
Ġd ui
res s
Ġbe st
Ġ i
Ġw eer
iÃ« le
ra gen
Ġre c
is atie
ich am
Ġres ult
ulm on
on de
ul p
Ġan d
ar ige
fibrill eren
Ġz ie
Ġvermin der
Ġh em
Ġhuis arts
o om
Ġpro cedure
k omst
en s
or ax
Ã ©
Ġst enose
Ġcardi ale
v el
Ġv rouw
er ing
stell ing
on en
Ġp ar
eft ijd
atie ve
ken de
Ġd o
ĠV oor
ĠA F
Ġont w
a ire
Ġv ia
l u
oc ardi
Ġge zien
n el
Ġw ee
ĠDe ze
at s
Ġwe ken
Ġhart f
at us
Ġp ost
v entie
Ġbelang rijk
ra cht
Ġhyper tensie
ive a
h uis
sp re
C T
Ġ el
ol est
Ġe chter
ro om
Ġde el
Ġh ij
# /
val len
Ġpro g
c ursus
at or
Ġsignific ant
Ġd d
p ressie
re at
k ken
ge le
olest erol
b le
requ entie
ab ie
sc ore
Ġeer der
Ġon ge
Ġafwijk ingen
Ġt ype
icham elijk
Ġto en
ĠN e
op t
Ġe cho
Ġge Ã¯
of d
Ġda gen
F R
m et
iv iteit
alc ium
y sp
ĠS p
Ġt ra
Ġinspann ing
om y
Ġle eftijd
f usie
Aan vullend
Ġa d
Ġge z
y l
ch ocardi
ĠNorm ale
it me
d at
a de
ur ende
ĠI I
S amenvatting
Ġ 6
Ġzo als
ĠM I
Ġv eel
Ġg roep
l ing
ik liniek
Ġn ier
w erk
l ijden
Ġk w
ac em
c ont
Ġstudie s
o h
Ġru st
k lachten
ĠU it
lin isch
Ġ Â
Ġsp ec
ĠM RI
y t
pl antatie
sp roken
Ġs le
cl er
Ġs ec
d atum
acem aker
ur g
Ġmyoc ard
D L
m pt
Ġh yp
Ġb innen
Ġt en
Ġbloed druk
we z
Ġl ang
Ġz org
ĠP ol
Ġ :
ot en
D e
h al
a am
Ġs l
u st
ant ie
Ġverhoog d
Ġver ander
Ġm l
rit me
Ġd is
r el
ran s
k lep
t al
b er
ul atie
su ff
a der
ak t
ee s
TE L
acht ing
Ġan alyse
# )
ik kel
om ie
ĠR R
Ġver volg
Ġcolleg iale
os itie
# .#
i o
ĠCA G
on e
ula ir
ct ion
en ing
u ut
Ġgebruik t
as sen
l oed
Ġo u
oor t
es lacht
ie erd
Ġvol gens
] )
p la
Ġ ;
Ġf or
os is
Ġ >
ro se
Ġa ct
Ġbas is
H TX
d u
em ische
Ġb en
l ine
Ġle ver
Ġb oven
e den
el f
: [
vo erd
inf arct
Ġh oe
Ġbe v
Ġn eg
oc yten
ro f
wij s
ar c
Ġsignific ante
zoe ken
Ġn ieuw
I n
Ġcorona ire
Ġk linische
v raag
Ġbe eld
j arige
a ctie
er g
Ġ( [
ie f
ic a
B G
k elijk
ĠR CA
eren de
ĠD i
) :#
b are
sch ijn
Ġbe kend
Ġver m
Ġ X
ent e
op eratie
i gen
res ent
Ġno dig
ge m
Ġd ysp
Ġ ele
Ġhoog achting
n em
Ġz w
Ġver k
e k
el en
ar die
eer t
ind s
ĠD it
Ġm oe
Ġb eleid
Ġc m
g ang
) ;
stoornis sen
Ġ .
ĠN iet
or ac
al l
of actoren
yper tensie
ken huis
yc ardie
ge ven
Ġziek te
Ġhartf alen
ĠLV EF
we ge
Ġverhoog de
am eter
Ġd ruk
icht ing
m ie
Ġuitge voerd
D ec
E S
r atie
Ġged urende
am nese
Ġwaar bij
z aak
suff ici
Ġk in
e x
Ġg aat
t re
omy opathie
uc ces
v ang
at uur
Ġvent rikel
atiÃ«nt en
A C
Dec ursus
Ġl icht
Ġverschillen de
Ġg ra
l and
de el
B rief
ĠE cho
at ine
ĠVer slag
schijn lijk
ol low
ĠC R
ro fie
Ġ ,
k omen
w er
J a
ĠMe dicatie
Ġa de
ĠA o
Ġernst ige
am er
m an
ĠC ardiale
Ġdiagn ose
er v
Ġre sp
e de
Ġen d
ĠOver ige
Ġv aat
Ġop genomen
Ġp ri
v orm
n oe
Ġt he
ĠS T
C V
p ort
ĠC or
Ġp ath
O R
Ġop eratie
Ġper s
Ġontw ikkel
aar d
ĠOn der
Ġaan tal
Ġp ulmon
Ġa b
Ġ radi
C H
j e
Ġo or
ir urg
amil ie
v is
Ġ(# .#
ric ulaire
Ġim plantatie
Ġsyst olische
Ġgedilat eerd
o b
ple eg
Ġm id
Ġw and
Ġm en
Ġatrium fibrilleren
val u
Ġz elf
Ġverb and
Ġm iddel
Ġbe g
ak lep
g ing
Ġre cent
Ġdi abetes
Ġgem iddel
Ġh aar
g t
Ġb ere
Ġ 9
0 1
ĠA V
Ġe p
j ectie
Ġgeh ad
Ġm atige
Ġr el
at ische
Ġla b
ge men
Ġmin der
Ã« n
Ġaort a
Ġla at
Ġver der
j ect
gemen e
B e
ass oc
Ġcont rol
erk t
op rol
Ġm it
ĠD aar
Ġ ro
A S
del en
c op
ĠI nt
r um
m l
Ġ 7
# -
Ġu w
ĠC ardi
g aan
u id
er i
Ġaan wez
an alyse
ĠT I
ig d
inus ritme
Ġbet re
oprol ol
Ġo ede
ati o
o op
o on
ĠC V
Ġvervolg consult
Ġst abie
Ġst art
er os
m iddel
O ver
Ġin tra
Ġ# -
Ġpla ats
it u
Ġbeh ulp
Ġw ij
lo b
om t
ĠL ab
iet s
in a
R S
P rocedure
vo el
ĠE F
l ut
Ġp l
ucces vol
an e
onder zoek
re ven
Ġwee k
Ġho ge
handel ing
Ġ "
Ġalle en
u ele
p s
Ġsy mpt
âĢ ĵ
Ġge sch
iden t
Ġt ach
Ġdi ast
plic aties
. :
f in
Ġ(# )
Ġp le
Ġger inge
it h
Ġs nel
Ġb le
st ru
ic ro
ind ingen
Ġter ug
Ġc onsult
Ġch ron
k ele
k g
Ġc ons
u ik
Ġh og
c ept
V I
og ram
om et
Ġr itme
ĠG eslacht
oc k
% )
Ġa m
Ġonder zoeken
z onder
p ijn
ĠC h
mat ig
Ġzie kenhuis
Ġz eer
l uc
iek e
Ġge assoc
r et
Ġin t
Ġl ijk
a ken
Ġb i
Ġresult aten
un ction
en g
Ġla ag
be eld
ĠL A
cler ose
ra ct
Ġh un
Ġp ositie
Ġ# ;
Ġnieuw e
c or
Ġto onde
sl oten
Ġst ent
it er
Ġcont act
la s
ov asculaire
r il
g ra
g ro
uw d
ou d
nd room
ig ing
Ġvan wege
Ġaf spraak
u eel
it y
# .
alcium score
Ġz al
st el
Ġw v
A P
ĠS R
Ġvergelijk ing
st en
oe m
Ġont slag
Ġaort aklep
m aal
p ar
orac ale
ur en
ge en
gest eld
i al
b in
Ġart er
om in
Ġsc ore
Ġz ou
Ġgeassoc ieerd
af wijk
Ġl ater
sy ch
bl atie
Ġs amen
ol ter
Ġz ij
eu ze
m ol
Ġwaar schijnlijk
der s
Ġ1 0
R eden
p el
Ġverminder de
Ġa sp
Ġho ofd
ziek te
Ġde cursus
Ġge v
ĠP rocedure
ont role
Ġs er
d a
Ġk lep
ff le
a di
d ag
> ,
Ġf ollow
Ġex tra
Ġ arts
ziek ten
der land
ra g
Ġpro ble
Ġk ort
Ġmee st
Ġr et
Ġ 8
Ġaf ge
o ver
Ġs ept
M A
Ġv en
Ġs ou
z ocht
m o
Ġverb eter
u le
S t
L IN
ivea u
z org
Ġdi ff
ie d
Ġv ast
aal d
er o
Ġp resent
Ġsp ra
Ġcol la
Ġan amnese
Ġmo et
Ġst op
Ġat ri
ĠE x
D i
ra ctie
ĠB oven
Ġinf orm
ĠV T
ch olesterol
ĠNe derland
Ġ ath
Ġ ra
id ief
Ġm ed
Ġma x
sie s
al p
Ġ#-# :
Ġsou ffle
Ġbe wijs
geb re
Ġpro xim
Ġt romb
l op
Ġbehandel d
le den
Ġme dic
Ġdiagn ost
Ġvrouw en
to ond
Ġst ress
st aan
Ġon ze
H art
w it
L ichamelijk
Ġgro ot
Ġz ien
i aal
r ische
a v
^ #/
Ġen kele
ver slag
Ġge p
uit en
c e
ro c
cht e
Ġme di
lut ter
il t
# ^#/
mm Hg
Ġge s
Ġth erapie
Ġge volg
m eld
ĠW e
ar ing
waar den
Ġ ur
Ġge w
Ġ ar
ĠM ed
l ies
u ra
ctie ve
Ġte gen
v ie
Ġm or
ee d
t ijd
:# .#
or ator
acht e
st and
Ġ \
ĠG er
O S
ona ir
om ent
d oor
Ġverander ingen
ogra f
in suffici
d is
Ġaan do
ir c
Ġper fusie
N A
Ġe v
c m
er n
r ale
ĠA n
ran sp
j es
/ -
ĠCA BG
ac e
re gen
us p
ĠA C
Ġp at
Ġang i
A l
b el
Ġdysp noe
Ġinter ventie
oc ol
ond heid
ma akt
Ġd rie
ĠH art
ic e
ĠA P
den os
Ġma xim
it us
Ġa blatie
oel ichting
in ine
c oh
Ġ ik
Ġm on
Ġv al
Ġgro te
h o
] -
Ġe vent
? :
Ġtoen ame
ath eter
ĠH ij
p ol
Ġele kt
Ġd ys
Ġs la
Ġrisic ofactoren
Ġh el
Ġhad den
Ġb eter
pl an
ver s
arc in
w and
ĠC O
Ġant i
luc ose
Ġbe d
Ġver d
Ġa s
p m
Ġs inds
Ġst atus
on gen
Ġkin deren
um ent
ĠD D
ot al
Ġ( ).
do ende
Ġwerk groep
Ġk en
Ġs om
ker s
Ġa ut
Ġge voel
ĠG oede
Ġath eros
Ġgedilat eerde
t ocol
agn ose
Ġma ken
i x
Ġla st
Ġcardi ovasculaire
te st
eg ment
ys i
ĠP ro
ym f
Ã«nt ie
eng te
Ġver w
Ġaange toond
os cop
Ġw eten
Ġac ute
Ġdi st
ch n
r alis
Ã© n
Ġpri ma
el den
z et
z ol
Ġa chter
ogen e
or is
Ġl iter
Ġe igen
Ġ#% .
sla gen
ĠP atiÃ«nt
ĠP atient
otal ol
ĠV an
( #)
R E
Ġd er
Ġzo wel
af han
lijk e
ro kken
Ġer g
re ct
ab el
Ġm icro
Ġprog ressie
at rium
Ġinf arct
Ġlijk t
el at
Ġgemiddel de
Ġre st
Ġe ven
orator ium
Ġth oracale
Ġpol ikliniek
Ġinform atie
il d
Ġm ult
Ġver richt
wijz igd
ĠS c
M ER
vorm ing
Ġa sc
ĠR A
V T
Ġv orm
C K
i der
Ġr ol
we zen
Ġcardi omyopathie
y d
Ġst and
Ġoede em
Ġgen ees
H A
ra kt
reat inine
at ig
if ieke
v ies
Ġe chocardi
er t
i z
Ġl ig
eren d
Ġ y
. |
N UM
NUM MER
Ġtach ycardie
te ken
act or
Ġvol gende
gele ken
ĠA S
E CG
th orax
ke ur
Ġr ele
Ġper c
Ġbl ij
Ġuit komst
ple x
Ġk omt
at o
Ġcardi oloog
Ġbe ide
ij f
Ġla ge
Ġinf ectie
Ġvoor sp
Ġvent riculaire
n ieuw
Ġpol i
de eld
in u
coh ol
Ġgev onden
ĠQ RS
Ġeffect en
k w
Ġw ith
im en
AD S
pleeg kun
ijd s
Ġin st
C M
Ġv rij
il at
raag stelling
an is
pen s
ell itus
Ġin c
u ten
f sel
Ġc ent
gel matig
r al
Ġe valu
Ġper ic
ĠA f
Ġs h
Ġd uur
ĠS E
vo cht
A f
c ellen
o ch
Ġm oment
ste em
. ,
Ġon s
Ġp alp
omet rie
den s
ĠH TX
k te
Ġliter atuur
ĠGer inge
Ġaan be
G FR
Ġk linisch
Ġte st
en ingen
Ġf unction
a ir
am ine
un d
ro m
Ġbelangrijk e
Ġv ragen
u de
, #
ade m
Ġspra ke
Ġo og
LIN G
Ġtoe ge
Ġv aak
Ġv ari
ĠT e
oc ument
Ġk omst
ol ie
anc e
oth erapie
Ġch irurg
ĠOnder zoek
oem de
h ouden
Ġc o
ial ist
re g
ĠIn dicatie
T oelichting
Ġb uik
Ġ %
ĠZ o
ĠA namnese
Ġrec idief
Â ł
EF OON
EFOON NUMMER
TEL EFOONNUMMER
ĠP V
ĠA t
ĠUit slag
Ġw il
Ġrecent e
Ġge wicht
Ġverm oe
Ġl ip
Ġmin uten
Ġbe kende
A G
Ġop t
v ast
re ening
wee st
Ġbev indingen
Ġa ss
Ġtot ale
M e
van te
Ġchron ische
Ġt ri
Ġver la
Ġ iets
Ġd us
l ip
i ot
Ã© Ã©n
z uur
S TEL
Ġver oor
STEL LING
Ġsy ndroom
f ect
u k
baar heid
Ġge weest
Ġver wij
p atiÃ«nten
N P
e ur
Ġto ont
me di
ele f
Ġneg atief
V er
ĠH ier
Ġstabie l
ĠT A
y st
gem een
u die
ĠPol ikliniek
Ġge de
ivea us
ann eer
he el
Ġcom plicaties
olog isch
ne um
ĠI N
Ġmyocard infarct
l os
ar isatie
schap p
Ġk omen
s ul
ĠP er
ĠA T
ui zen
eri or
Ġt rans
n ee
r in
Ġper i
Ġge k
ĠNederland se
em en
an k
zel f
Ġvol le
a il
IN STELLING
Ġv ro
m s
Ġvoor komen
o ur
di p
Ġd oel
Ġd imen
Ġd osis
Ġd ilat
arcin oom
Ġgem eten
Ġin dicatie
Ã ³
Ġkw aliteit
ig h
oc i
P D
E T
Ġge vallen
ne u
ĠO ok
ĠV eren
z ie
Ġde v
art sen
cent age
Ġ[ ].
Ġcolleg a
Ġ Ã©Ã©n
Ġonder zocht
m ijn
ui dige
ven en
d uc
R R
Ġin ge
rakt ijk
meld ing
he se
ĠCV D
Ġge val
m un
Ġbe sproken
or te
eed s
com pens
Ġbij werk
Ġmit ralis
Ġc ardiologie
ang er
sp ectie
Ġst erk
v eer
it ale
du ctie
Ġonder ste
on ge
Ġcolla ps
ra st
Ġcon form
wij l
Ġp assen
b re
z ijds
ĠAl s
k an
ĠA d
Ġp sych
ĠE CV
Ġdiast olische
G een
ĠZ e
Ġlaat ste
Ġ1 2
gel open
Ġh and
id atie
Ġk g
radi oloog
vie w
l yc
ĠLV F
al ium
rit er
Ġ ing
el de
Ġwaar genomen
k k
ransp l
Ġtot aal
i eren
ĠO m
Ġc ar
Ġdui delijk
Ġsympt omen
G e
ĠN ee
ĠSE H
Ġl ymf
Ġver wijz
vol gens
anc o
f er
O B
l ig
Ġher sen
weg ing
ĠC a
ĠP M
vast atine
P CI
eg ist
L V
ru ct
Ġk eer
Ġl an
Ġs egment
Ġact iviteit
Ã¯ n
Ġart ik
d racht
S P
Ġmeer dere
ĠDe cursus
is s
Ġc irc
oort s
me dicatie
Ġver sus
Ġkle ine
ru g
per atie
k amer
Ġcom bin
Ã¯ ne
Ġpro tocol
Ġver st
um mer
ich aam
Ġop nieuw
Ġcor dis
Ġle ad
denos ine
vent rikel
ĠH ypertensie
Ġg aan
ĠE chocardi
op ro
il iteit
Ġbet rokken
f lutter
# :
gen oemde
Ġ#% ,
ĠH eeft
ken en
Ġne ur
em at
1 0
A F
Ġl aten
Ġm s
ĠK linische
Ġvol gt
Ġover leg
Ġuit gebre
ĠVer der
oor d
om at
ĠÂ ±
o w
Ġst eeds
Ġth erap
ĠgeÃ¯ n
Ġop ge
ĠC K
at st
# -#
i wit
Ġ# ),
Ġr ond
op p
Ġp ect
Me dicatie
kun de
in ig
Ġversch il
Ġgez ondheid
Ġv o
Ġom dat
Ġ â
mer ken
Ġmed ische
Ġth uis
ass a
Ġver geleken
Ġn ame
Ġple ura
uccesvol le
Ġwe gens
Ġter wijl
S A
geb ruik
Ġh uidige
os f
Ġs ug
Ġt um
Ġsle chte
Ġin dien
ĠpatiÃ«nt e
ĠCR P
Ġf amilie
ve st
Ġprog n
ie gel
Ġan ter
âĢ ī
Af spraak
ĠS amenvatting
unt en
k king
ĠNorm aal
ac ing
ol ling
Ġbetre ft
Ġf low
Ġc a
in ter
ĠÂ µ
Ġpol ik
Â ²
Ġgele iding
a and
erk ing
TE MI
Ġmet oprolol
Ġble ek
Ġme ch
Ġf requentie
vang ing
Ġgroep en
st enose
o it
ort aliteit
ĠB eleid
D R
ĠR C
em m
be handeling
Ġmo eten
ĠH olter
#, #
Ġper if
it aties
em ber
Ġgra ad
Ġang ina
0 5
Ġhyper t
e in
Ġv is
ĠGe achte
ig uur
Ġasp ect
Ġn on
and om
ĠRe den
ent iÃ«le
de x
Ġbijwerk ingen
aak t
l y
Ġatri ale
f requentie
sl uit
T B
ist ent
Ġp acemaker
on ine
erg ie
ĠD M
k elijke
it or
Ġdo en
ijn en
Ġ _
Ġatheros clerose
riter ia
Ġy es
e ut
eeft ijd
zonder heden
anger schap
n orm
Ġs itu
ĠL e
ĠV CI
Ġ *
id iteit
re ep
Ġac uut
we gen
Ġc alciumscore
la st
com plic
Ġcom p
Ġ1 9
Ġdui zel
ĠB loed
kl aring
Ġtwee de
Ġl u
Ġbesch ik
Ġhart as
yp ische
R T
m is
i alis
Ġgeb ied
in ale
il i
ĠL DL
Ġp neum
et sel
Ġaanwez ig
ific atie
stru ctie
Ġ- >
ĠI k
agn ost
a z
ric usp
z ij
Ġaando eningen
ar y
p ass
ĠVeren iging
Ġde c
ver lies
se c
ĠC H
Ġpresent atie
ider zijds
v elijk
ĠC om
Ġe ind
ie l
ĠQ T
Ġpla qu
o ot
Ġcont inu
Ġvaat ziekten
Ġst aat
Ġver t
Ġbeoor delen
Ġs inus
st of
RE HTX
ĠH F
ĠI s
h oud
Ġ# <
Ġonge veer
ĠR ec
Ġdi rect
Ġwe inig
H et
den king
Ġge ven
os ering
I I
Ġnier functie
Ġst ruct
ĠE n
Ġkle in
Ġman nen
i od
Ġm atig
is k
ute ur
Ġm il
L AD
l oe
ra d
et ische
Ġaanbe vel
ion ele
Ġbesch reven
Ġresp ectie
Ġ âĢ
Ġhog er
Ġb re
Ġwel ke
Ġm ellitus
in den
S T
Ġs inusritme
Ġcombin atie
eer den
Ġmet h
i ken
Ġel ke
en dens
r t
be kend
Ġontwikkel ing
Ġs u
se ctie
Ġm ortaliteit
rofie l
gro ot
Ġverbeter ing
ver ander
Ġeer dere
ic al
peratie verslag
Ġel k
Ġk oorts
Ġv e
ot ische
v oe
Ġaf gelopen
Ġob v
Ġcardi o
uc c
cholesterol emie
Ġst er
oed ing
ĠAan melding
z aam
ĠI C
ranspl antatie
Ġde compens
ĠT TE
S p
Ġz icht
R A
Ġstand aard
Ġser um
Ġpulmon aal
v loed
waar de
Ġver z
iod ar
Ġpre ventie
Ġter mijn
Ġpect oris
ĠH b
cont rol
o uw
B P
im aal
entie l
Ġpla s
yoc ard
% ,
uc le
ul len
Ġoor zaak
t r
Ġbest aan
Ġgest art
ĠSt atus
ĠAl le
Ġ( <
Ġch olesterol
og lob
at ten
ag on
. "
Ġon d
le iding
l ic
Ġ#.# ,
spre king
um e
y nam
Ġge l
en en
Ġher h
afwijk ingen
B TB
Ġisch emische
aal de
Ġcom plex
em or
Ġ Î
Ġla e
Ġin di
Ġ roken
Ġen ige
o Ã¯
ĠH oe
E en
Ġto ch
Ġk n
Ġprima ire
Ġ#.# ),
Ġrespectie velijk
re um
be ur
Ġal cohol
ra al
Ġverb et
oel t
jectie f
Ġc ellen
Ġk rij
H ypertensie
Ġge maakt
ide mie
ul ier
Ġur ine
Ġt onen
ĠBoven dien
an s
Ġdeel nem
d ur
int ig
Ġafwijk ing
ĠDaar na
Ġn iveau
raag t
Ġbeoor deeld
Ġcoronair lijden
Ġn eu
oscop ie
Ġveroor zaak
Ġk amer
rop onine
ent en
gen d
A t
-# ],
m p
Ġhog ere
Ġra p
im ale
ĠO K
Ġre actie
ĠN u
C or
ĠA b
r g
ve el
es s
M G
Ġma and
Ġc ap
S E
Ġkan s
Ġwaar de
Ġrele vante
Ġk orte
Ġs e
Ġperc entiel
ele ct
ĠM V
Ġbere ik
m ide
I V
Ġbep erkt
Ġre delijke
Ġt r
Ġm al
N one
ato ire
ĠV raagstelling
richt ing
Ġdaar na
ameter s
Ġw anneer
sp ace
O n
Ġf actoren
op rofiel
Ġg r
Ġh e
C R
Ġsc reening
Ġ2 0
Ġpol s
Ġover ig
ĠII I
v id
Ġle vens
l ijst
Ġpar ox
i ze
ĠK liniek
Ġh uid
Ġont ste
op ie
a ag
Ġte kenen
Ġs otalol
ab ol
ra in
Ġaan zien
ten s
Ġj aren
Ġdaar om
m al
insuffici Ã«ntie
Ġmitralis klep
ve al
ĠA L
em t
o ut
operatie f
Ġsug ger
Ġge geven
kl ier
ĠR F
zelf de
ol ec
it as
Ġv ocht
ograf isch
ort h
ĠU n
Ġinter medi
ĠT ot
Ġe GFR
oe k
Ġperic ard
Ġin sul
Ġ âĢĵ
et re
operatie ve
Ġbel ast
h m
Ġdev ice
S c
re gelmatig
1 2
mm ol
ĠB l
Ġbe iderzijds
ol er
mb olie
ra at
Ġw eg
-#> ,
Ġp raktijk
middel en
ui den
ĠI V
C ardi
e ff
ĠA c
Ġges lacht
elef on
Ġaanwez igheid
la mm
Ġver dere
ĠT el
z aken
Ġvoor af
Ġwaar onder
ul i
Ġgest opt
ro on
k n
kl opp
Ġno od
er ie
h oog
a u
Ġpleura vocht
Ġst en
val idatie
Ġl ichaam
dien ing
u rose
Ġher stel
nt slag
iteit en
asc ul
Ġass oci
c ardi
Ġver to
lijk t
o ken
p acemaker
M P
las se
Ġperi ode
urose mide
o ol
Ġre view
Ġ2 00
f te
Ġmen sen
op ulatie
Ġpers ist
st udie
Ġle ven
ri ft
m on
Ġproble men
o um
Ġzw angerschap
is sel
klopp ingen
ĠG en
wer ken
Ġon afhan
a in
Ġbep erk
m atige
ĠVer richting
Ġbe vest
Ġkort adem
Ġdui delijke
nd uc
Ġst atine
ĠL eeftijd
ĠLV AD
ati st
ĠIN R
ang i
d z
Ġap ic
st it
Ġernst ig
Ġge eft
oc atie
c us
Ġk on
pl and
Ġdiff er
Ġ1 5
on ie
ĠH o
lip idemie
is sen
i di
Ġgest aakt
p ect
mo del
ĠR isic
T ype
I CD
Ġgro ter
Ġde pressie
Ġangi ografie
# %
w assen
em b
ed s
or b
ĠInt er
oglob ine
ist olling
ĠPV C
Ġte chn
Ġbep alen
Ġ un
et h
Ġl ok
Ġal l
E P
Ġper centage
al k
jectief ractie
Ġsle chts
Ġwaar door
Ġb er
Ġvoor al
Ġv it
Ġm ar
ĠVerslag datum
sp ec
Ġer v
O T
Ġgele den
C L
nem en
ĠV ol
ff en
le x
ib iot
inf ectie
afwijk ing
Ġpla at
ren ch
C ontrole
B S
er te
Ġ2 01
gang s
m ee
lu or
Ġde fin
Ġc y
Ġbelangrijk ste
de d
s erv
Ġle id
b i
D ocument
], [
Ġbeoor deling
Ġaf deling
Ġmo del
o uwd
an ks
k in
Ġtum or
Ġprogn ose
st er
ĠF FR
re mm
ol atie
Ġm y
ĠTe vens
ĠH R
an den
Ġken merken
D S
ct omie
Aan vraag
Ġdoor ge
pass ing
ĠMe dic
ĠP A
Ġv ier
Ġad vies
v as
Ġs amenvatting
Ġom vat
Ġinter n
ind ing
di gen
Ġev iden
gel uiden
ĠCR T
Ġ3 0
itie ve
Ġn emen
di agnose
c ip
Ġpijn klachten
Ġm ate
Ġsom s
ĠC D
Ġpassen d
ĠV S
Ġb dz
Ġge beur
Ġ(# %
z em
Ġru g
Ġzicht baar
or gen
f rench
un st
S ize
oc ard
Ġda gelijk
ĠZ ie
Ġp ot
Ġdys functie
ĠIn dien
Ġneg atieve
Ġpulmon ale
Ġrel atie
Ġre delijk
sp iegel
Ġm ag
Ã ¨
ĠP G
Ġhuis artsen
ĠL ichamelijk
Di abetes
ar ine
Ġcon cent
c el
B ij
ĠW el
Ġvan af
O L
stell ingen
Ġcardi aal
Ġade m
sc an
ĠCO PD
Ġv s
Ġmaxim aal
P A
ĠT ijdens
B I
Y HA
et s
ĠH T
g d
Ġver denking
Ġdiagnost iek
Ġe iwit
Ġing reep
Ġ ident
Ġbij geluiden
u d
Ġpro f
ub lic
I MA
Ġep is
Ġinc ident
L engte
Ġverla ag
Ġv et
t hese
Ġproxim ale
ĠL in
elefon isch
A L
Ġb ron
at ter
Ġsouffle s
op ril
Ġre eds
Ġade qu
Ġh ep
Ġspec ifieke
Ġbep aald
etre ft
bl ok
re veal
st am
em p
Ġhart kloppingen
ĠT ele
Ġver volgens
Ġth orax
pla ats
Ġartik elen
Ġb ero
er eb
Ġo c
om atische
voor beeld
dilat atie
Ġp art
Al gemene
Ġh ulp
Ġre pol
k le
Ġch em
Ġvol wassen
Ġver pleegkun
oler antie
Ġe c
h art
Ġweten schapp
weg ingen
Ġhem at
K linische
pl ijden
Ġ orth
ine sie
Ġdecompens atio
igh t
roc ardi
Ġrap port
Ġindi vid
b la
al ing
Ġim p
i or
rit is
r y
staan de
ge t
asc ulair
Ġhart slag
f ic
Ġpositie ve
Ġpositie f
ĠAT P
Ġover een
Ġsp ier
Ġg lucose
la ss
per s
Ġverwijz ing
ĠSp ec
consult atie
Ġver l
Ġvast gesteld
ĠAan vullend
emm ing
he sie
S C
vullen de
pt ies
regelmatig heden
e us
opro te
ĠLab oratorium
Ġex pressie
ĠCor onair
og rel
ant woor
Ġstabie le
ĠC ont
Ġhart ziekte
Ġf ib
ut atie
ou der
Ġwee fsel
Ġg ast
Ġ#; #
Ġdilat atie
ĠTele consultatie
Ġma ag
ee k
id ogrel
ĠAo I
Ġblij ft
00 1
ĠLV H
Ġ9 5
Ġb rief
ra zol
Ġv asculaire
ĠC AD
j a
p ast
ost en
Ġeer st
Ġs up
st ijden
Ġen kel
Ġvermoe id
Ġb pm
op name
Ġsy steem
Ġor g
ĠS inusritme
Ġ+ /-
ĠGe zien
v ragen
ge wicht
tre m
l an
Ġbero erte
Ġbas aal
on regelmatigheden
c arcinoom
Ġeff ectie
ĠP T
- ,
Ġpla c
der d
Ġrisic oprofiel
i at
mis sie
z ak
Ġge c
y la
Ġj arige
G T
all on
t ransplantatie
Ġpl ot
O p
i vers
Ġrec ept
ĠN S
S ucc
Ġsc an
ee ded
ell ing
Ġveroorzaak t
ĠAC S
Ġbet rouw
Ġc onclusie
ĠH e
Ġvolle dig
Succ eeded
Ġc ond
Ġcont rast
Ġex per
ĠH uis
an dig
Ġre den
Ġlan ge
O pties
CA BG
ĠB I
Ġsnel le
ĠN T
Ġal gemeen
Ġlinker ventrikel
Ġlu cht
ple ment
Ġpatient e
re eg
act iviteit
Ġ ).
kun dige
Ġbe Ã¯n
Ġcor rel
iodar on
an gen
os en
sy mpt
/ #.#
Ġ )
ĠP OB
el ine
Ġant ibiot
Ġverk regen
ur ie
ĠG aat
ĠP ar
da ag
Ġpro ces
ific eerd
Ġ[ ,
Ġdeelnem ers
Ġaf name
la ar
ur ing
Ġst oornis
t op
ĠC on
Ġpalp itaties
Ġpre val
At rium
ialis me
Ġpro ef
d acht
ĠBloed druk
Ġz uur
Ġinf erior
ase erd
Ġdi ent
#/ #
ĠC alciumscore
Ġf oc
Ġtoe diening
f alen
ĠM o
Ġin suffici
ĠC ontrole
Ġcontrol es
Ġcar ot
Ġv ar
Ġintermedi aire
Ġevalu atie
Ġst e
Ġsub c
Ġgeleiding stijden
Ġan eur
D P
ĠBoven genoemde
s ol
Ġop zicht
Ġo x
Ġmaxim ale
Ġsp ont
sl ijden
ĠDi abetes
lop idogrel
am ma
Ġn iveaus
Ġh ouden
Ġbij zonderheden
sy st
Ġher st
ĠBl anco
B LE
ĠP Q
/ #
Ġna uw
Ġlicht e
ĠOn ge
r isic
Ġp t
Ġasc endens
Ġop en
Ġt ij
Ġs n
Ġdimen sie
b and
Ġreg ist
Ġaneur ys
g ere
Ġproxim aal
Ġbij werken
st aat
ĠB el
van gen
Ġvoor t
c y
ĠM O
Ġpers onen
ri pt
Ġon vol
Ġm assa
Ġvari ab
ĠV AG
Ġbl ok
ie erde
ĠH yper
Ġh al
ĠH CK
Ġpath ologische
ee st
lyc er
ĠP atiÃ«nten
di agnost
u us
abl ok
Ġbel oop
Ġg raag
Ġa st
o ok
C VA
ĠA ort
Ġm i
Ġal gemene
Ġged aan
r aties
ge geven
te ct
ĠE le
Ġ qu
Ġmiddel s
complic eerd
Ġk reeg
Ġgevolg d
Ġte vens
Ġkle plijden
amen s
spre ken
la k
ĠB etreft
Ġf actor
ĠT en
Ġmyoc ardiale
A c
Ġvol doende
oe zem
ĠP ost
Ġmogelijk e
ĠP I
or f
ul s
v rouw
Ġv or
Ġno oit
Ġge Ã«
u iding
groep en
Ġstu k
Ġrepol arisatie
b ere
Ġvan uit
omat isch
Ġer van
d omen
Ġg b
dip ine
Ġ2 4
Ġmech anis
is eerde
Ġpat int
Ġover le
Ġtherap eut
Ġj an
be zoek
ĠT er
ie ve
Ġc oh
ĠW ij
e ge
Over ige
Ġdi abet
Ġuitge sloten
et ica
Ġrichtlijn en
5 0
ap port
Ġn et
Ġb la
ule erd
Ġm uizen
il ijk
Ġ(# -#
insuffici entie
ĠW at
sp ro
ater aal
Ġst atist
re m
Ġcardio versie
C C
un i
Ġdist ale
ig de
lat er
Ġl open
ĠOnderzoek datum
ut ane
Ġâ ī
Ġsu per
Cor onair
an nen
Ġger elat
Ġstop pen
= #
v loe
Ġb allon
Ġcoronair en
p h
Ġuitgebre ide
Ġmil de
i ver
Ġal tijd
Ġsept um
a den
spre k
icht lijn
o en
Ġplac eb
ograf ische
Ġgesch at
ĠHoe wel
v ant
d nis
ak te
uur d
abie le
Ġk lasse
V AD
Ġonderste un
Ġd omin
es itas
Ġm aat
Ġ Ã
Ġt ricusp
u ze
D I
Ġto onden
n ummer
ik linische
Ġb uiten
Ġopzicht e
Ġaan dacht
aar t
ie le
er m
Ġon g
ĠS P
Ġw arm
Ġpro te
og ing
Ġincident ie
Ġaanbevel ingen
L A
Ġaf han
ĠD at
z y
is me
a ste
Ġc el
Ġver s
Ġst im
ron ic
em aal
as is
ĠL aat
Ġwaar in
ĠI L
Ġna cht
ĠC VA
Ġmor gen
op er
N O
h yd
ĠV F
Ġspec ialist
2 0
Ġc yt
in dt
Ġpreval entie
Ġg radi
ĠS V
G eslacht
Ġc re
og n
1 9
sch rift
te am
trem iteiten
Ġziek ten
ĠS inds
g r
c ardiale
h ul
Ġru im
Ġop tre
mg er
R NA
re e
Ġf requ
Ġgebeur ten
Ġim mun
ĠT C
mger uis
or s
pect atief
Ġsl ank
st emming
Ġbeg in
B el
Ġwand onregelmatigheden
ox ic
ter n
Ġplaqu e
Ġepis ode
ie p
ru iken
ĠT oe
Ġintra ven
Ġritme stoornissen
Ġsh ock
y re
Ġger apport
Ġade mgeruis
Ġant istolling
Ġvro eg
arm ac
spectie f
E E
C h
Ġ &
ĠN YHA
Ġle iden
ĠP re
Ġver wezen
Ġom ge
st ers
pl et
Ġob serv
Ġ1 4
om a
den t
vul ling
Ġe ch
Ġf osf
Ġlab oratorium
Ġtoe komst
l i
Ġbloed ing
Ġbe zoek
be v
Ġmee ste
ĠK alium
ĠAl gemene
Ġver slag
ra ad
Ġs uccesvolle
ĠR ichtlijn
act er
Ġverminder d
ine s
ĠDaarna ast
romb ocyten
Ġhartf requentie
Ġbest aat
Ġgesch iedenis
ne st
Ġz it
Ġbe z
Ġresult aat
p at
h er
Ġaan vullend
nduc eerde
re sp
ĠBe handeling
Ġze ker
ab an
du ct
Ġw ond
com p
us c
Ġ1 1
ĠA p
teken ingen
ĠA m
cl ude
Ġben en
Ġs ens
Ġbij d
sch e
Ġpolik linisch
Ġl ijn
ĠQT c
Ġc alc
ron ische
wee fsel
Ġonge wijzigd
Ġgro e
oum ar
Ġde gen
ĠTA VI
ost on
Ġma akt
h r
ĠR itme
Ã ¶
ste st
b um
Ġs oe
Ġgeb ruiken
ĠB rief
af deling
M B
Ġk unt
% .
Cardi omyopathie
Ġont staan
it al
mm a
Ġ ?
Ġblij ven
Ġ#/# ,
Ġm ac
Ġvermin deren
Ġret ro
em ent
ĠV AD
ys maal
n og
Ġgede fin
Ġ arm
Ġor ale
Ġdi ameter
00 0
Ġ ie
Ġg lob
it mie
Ġ1 3
r ateg
m oe
ri ale
Ġuit gangs
Ġd en
E CT
od ynam
v rij
Ġwaar na
Ġonvol doende
ract uur
Ġbe w
ĠP ulm
ar b
Ġinsul ine
wee k
Ġmedic am
ĠMed isch
: \
Ġis olatie
cont role
ĠH g
adi um
Ġmedic ijnen
r iet
Ġan emie
Ġla ger
] ):
c ell
i ent
n iet
Ġr isk
klep afwijking
ĠC C
Ġaan tekeningen
oc yt
Ġbetre kking
C O
weg ings
Ġw illen
as en
Ġd osering
an amnese
pla atst
Ġh olter
Ġuit slag
Ġc ereb
Ġgemiddel d
ĠGe wicht
se g
Ġf iet
ĠEF O
lamm atoire
ress ure
Ġontste king
Ġh eel
Ġ( >
Ġt elefonisch
ocard itis
Ġre mm
it atie
Ġbesch ouwd
Ġt ak
agon ist
druk ken
s ing
Ġduizel igheid
Ġst aken
Ġn am
Ġf ase
ft er
dig d
Ġechocardi ogram
Ġmet abol
z o
is eerd
o den
Ġre f
alis atie
Ġ5 0
Ġd arm
ol om
Ġbeschik baar
Ġger icht
Ġk ader
Ġr ate
entie el
Ġpatient s
ro g
u un
Ġ Y
in s
v asculaire
d omin
seg ment
Ġsyst emische
Ġpar ameters
angi ografie
Be handel
t ronic
Ġassoci atie
D M
ĠÂµ mol
per v
Ġin dex
Ġver te
ĠH em
v a
Ġproble em
ĠM atige
ĠH DL
Ġ1 8
ĠZ ij
t ot
ĠDaar om
de fect
Ġvro ege
sie ke
Ã³ Ã³
Ġw acht
Ġcoh ort
vat slijden
om p
Ġme et
E D
Ġvan daag
am p
ĠN H
pt aal
M O
Ġa uteur
hal ve
ĠD oor
re erd
ĠS ch
f iguur
Ġge control
eu k
us e
i ologie
n iveau
R ADS
Ġarter iÃ«le
Ġgeb aseerd
Ġmoe ilijk
Ġover zicht
R V
om e
Ã³Ã³ r
Ġv ul
ch irurg
im e
Ġdis functie
f s
b ouw
Ġhoog te
Ġstart en
Ġhoe veel
l ang
Ġwaar van
o id
Ġbij voorbeeld
ĠSt art
is e
ater ale
Ġpneum onie
it ion
Ġsp re
re den
P acemaker
Ġa denosine
Ġu p
Ġim pl
oc iale
vraag d
Ġst ij
Ġevent ueel
met h
con cent
Hart klepafwijking
or der
9 5
er den
Ġver pleeg
ĠE vent
Ġd u
ĠV ES
ac et
Ġadem hal
fibr il
U S
ĠH A
Ġzuur stof
ĠM CH
Ġa ctie
or ten
Ġv raag
oumar ol
Ġdiagnost ische
E C
Ġdist aal
ver t
Ġv l
ĠâĢ Ķ
b ep
art an
en oc
Ġge pland
eg roep
ic us
Ī Ĵ
Ġh yd
1 3
lo op
ĠRisic ofactoren
ongen itale
idi ver
und aire
ant al
ĠA D
Ġc riteria
1 5
Ġafhan kelijk
Ġz ullen
a y
ĠM S
Ġne emt
Ġf en
Ġt roponine
H R
Ġbe en
Ġb lijkt
Ġeven als
Ġh ist
Ġoc clusie
ro t
Ġk l
Ġcons erv
ir on
er p
kan ker
ĠI m
Ġver vanging
Ġde zelfde
Ġmiddel en
Ġuit ein
Ġv aker
h yper
Behandel plan
Ġresp ons
ĠC reatinine
Ġplaceb o
ad vis
k ort
et isch
Ġaan vullende
Ġ#/# (#)
verander d
Ġaando ening
Ġou d
Ġf ysi
gesch reven
Ġonder gaan
ĠOp name
Ġw issel
er der
ent er
ild klier
Ġsla ap
Ġl etsel
d uur
B MI
Ġv oelt
G F
enoc oumarol
Ġla gere
atheter isatie
g ressie
Ġv aten
Ġa mb
Ġdimen sies
fibril eren
ĠJ a
age ment
Ġverbet eren
R CA
intig ra
ĠCardi oloog
am m
ui delijk
Ġont slagen
Ġob esitas
ĠP C
gen woor
Ġgezondheid s
Ġmeest al
Ġben a
Di ameter
m ige
per fusie
Ġf orm
Ġhyp ok
Ġbron ch
Ġver groot
ort ic
Ġan est
Ġr atio
Ġbeh ouden
Ġover leden
j aar
rateg ie
C om
ab ase
Ġsten osen
) -
plic atie
Ġaan houden
A nt
L U
ĠU reum
ind opril
1 4
rof ysi
Ġsy n
ra a
p re
Ġev t
ma x
ĠDi agnose
abl atie
Ġv inden
v ou
ĠD ES
Ġc ath
Ġbeeld vorming
cler otische
vol gen
ees kunde
Ġplaats ing
Ġa fter
Ġover ige
Ġver di
i atie
Ġoede men
e ar
ral ing
Ġv Ã³Ã³r
rem pel
a ut
onge mbolie
atter ij
Ġverz am
Ġchirurg ische
Ġp opulatie
b een
Ġk osten
st ip
re ef
le c
ri en
richt lijn
B loed
ĠUn ivers
C ongenitale
Ġan at
Ġ1 6
ĠN V
Ġarter ie
pla at
ver se
s on
Ġleid t
Ġe jectiefractie
Ġkan ker
Coronair lijden
ic o
Ġo ut
kk oord
l ings
reat ment
ion ale
nst ige
o od
Ġvol ume
Ġno v
Ġme i
Ġwaar den
P ost
Ġt el
Ġlang dur
U R
Ġvergelijk baar
m it
Ġuit st
Ġim m
ĠN I
ĠEchocardi ogram
Ġ> #
Ġ#.# );
af spraak
ier functie
E r
act iv
Ġn ef
gelijk e
Ġapic aal
P REHTX
Ġgez onde
Ġv as
Ġc alcium
Ġaneurys ma
ĠL icht
la v
Ġde s
Ġb oezem
ĠB MI
olog y
Ġd ub
Ġst aan
Ġinspann ings
Ġ ir
ig ingen
Ġin clusie
h a
Ġgerelat eerd
Ġc lin
c c
rop athie
ger elat
Ge wicht
S H
Ġc ogn
Ġvermoeid heid
Ġkin der
Ġdysp neu
Ġb ot
Ġr ight
G uiding
Â °
Ġcontrol egroep
Ġend ot
Ġgerapport eerd
ĠRC X
is ie
ĠP ulmon
Ġve il
Ġv ijf
Ġperif ere
Atrium fibrileren
p unten
Ġvol g
os s
Ġn it
Ġa ug
m erk
Ġonder lig
Ġhersen en
ĠF amilie
Ġtri al
am ol
Ġafwijk end
Ġsitu atie
P ol
ĠL BTB
ar de
ge len
Ġaf wez
st andig
Ġverander ing
geb ied
Ġmoe der
met ing
Ġna ast
Ġbe spreken
ol act
min uut
ge d
Ġ2 5
ĠR eg
ex pressie
Ġgebeurten issen
ot e
b ut
Ġm ens
Ġe cht
ĠC ol
Ġf urosemide
Ġdaar bij
Ġperif eer
gele iding
ĠN F
Ġo kt
Ġident ific
Ġmor f
Ġlok ale
ro ke
ation al
Ġan der
Ġdo od
Ġver len
Ġpath ologie
iss elijk
Ġverwij derd
al th
Ġd rug
ĠAt rium
1 1
Ġver klaring
Ġan ders
es c
Ġ#-# /
Ġf ibr
Ġkn ie
Ġoptre den
ĠRV F
olact on
sch at
ult aten
il la
Ġp acing
in de
id ings
O b
Ġtoe passing
Ġplas ma
Ġin vloed
th erapie
Ġont hul
ul eren
Ġmedi ast
Ġt ran
Ġ ri
ap s
r ine
Ġrel atief
leg d
A N
nam elijk
g aand
Ġf eb
Ġcont ractie
Ġtoe genomen
ut aan
Ġbena uwd
D omin
Ġj uni
ac c
re ctie
Ġz ouden
Ġsyst em
Ġd ik
ren gen
vis ie
Ġcent rale
Ġlang er
ĠO ntslag
ĠSpec ialist
Ġfunction ele
Ġk ind
Ġzelf s
ble men
Ġuitkomst en
Ġonder wand
ast olische
Ġge t
ken ing
Ġkrij gen
In dicatie
ie ken
dig ing
O peratieverslag
ĠVoor geschiedenis
iron olacton
Ġuitkomst m
Ġbestaan de
Ġgedefin ieerd
p unt
Ġin it
op h
ĠRV SP
g ingen
S S
Ġgenees middelen
EP I
ot omie
Ġsle cht
ĠTh orax
Ġcond itie
c ol
ge zien
ĠP REHTX
gest elde
Ġauteur s
ĠC I
Ġhem odynam
ist er
Be kend
ho den
Ġ#) ;
ĠL IMA
Ġat ypische
Ġst ellen
Ġdie et
ys lipidemie
iÃ« n
w ogen
rop e
vent riculaire
ver len
Ġa kkoord
it m
kel et
Ġex pectatief
ect omie
Ġde m
ĠO peratieverslag
ver vanging
rad ycardie
gaan de
p ositie
S oort
st ij
Ġend ocarditis
kw ab
Ġâī ¥
en st
Ġhypert rofie
h ier
ge hal
Ġger andom
Ġk racht
g s
at ed
ĠCT A
Ġop nam
Ġsegment en
Ġven euze
Ġh als
Ġverminder ing
Ġf e
P M
ient ific
b et
ri p
Ġfor se
C ont
Ġgradi ent
spiegel s
ol isch
Ġi om
Ġver zoek
Ġvoorsp ellen
Ġechocardi ografie
su le
A I
Ġachter uit
ĠG R
Ġl um
ge Ã¯
ĠRe chts
Ġvolle dige
lu x
Ġgast ro
P re
Ġasc al
de laar
z er
ver en
u e
Ġbl oot
Ġ(# ,#
Ġdiffer entiÃ«le
Ġwand be
Ġl o
M S
ren s
ĠAl l
ente us
Ġvoor schrift
Ġr atten
Ġaf genomen
ĠMe et
ass istent
Ġlae sie
an isatie
ig lycer
Ġond anks
op ath
Ġf o
Ġorth op
Ġg unst
em per
re actie
to on
Ġvolwassen en
Ġantibiot ica
Ġm aal
ri ge
Ġged rag
2 5
Ã¨ t
ct uele
Ġe ss
ik el
ar ch
ut ing
Ġhypert rof
ĠB oston
ĠM yocard
Ġlae sies
sy steem
Ġ1 00
re gel
Ġam iodaron
u ari
ĠR adi
Ġn od
Ġl ongen
Ġver leden
E x
or i
ĠC re
Ġan al
Ġsec undaire
yp ass
ĠA I
V L
ĠE S
werk ing
ir us
Ġlichaam s
Ġmg a
ĠP ijn
Ġbed raagt
ag ul
ĠK an
ĠEvent s
ul us
ĠS otalol
Ġge analyse
Ġart sen
r aten
ĠR oken
Ġster fte
Ġmin imaal
diagnost ic
Ġver e
ĠEx tr
ĠP acing
et yl
o di
im ent
egist ratie
Ġdiabet ische
ap amil
Ġoperatie verslag
vloe den
ĠE chter
Ġd ig
Ġl i
Ġmet a
v it
ist entie
Ġvoor namelijk
Ġth romb
ĠAo V
Ġv oed
Ġmaar t
ro eg
F amilie
Ġonafhan kelijk
Ġast ma
re cept
ĠCH ADS
risic o
ĠÃ Ĺ
Ġap ril
Ġmet ing
Ġm eld
ide m
anc er
Ġger ing
v aar
DR D
1 6
Ġm isselijk
Ġad vis
Ġb il
Ġou der
fer entie
ĠC P
Ġverw ijd
ĠTh uis
Ġverto onden
n o
in st
Ġw ie
wee g
we ken
ra ger
vel den
Ġg ere
Ġgroot te
in der
och ond
Ġ( %
ur ele
Ġcontinu eren
Ġerg ometrie
ĠN O
Ġc ell
Ġbehandel en
Ġs ele
Ġge cor
ar is
Ġp anc
Ġoverle ving
ĠS VT
norm ale
Ġa sympt
Ġb ra
R M
Ġt re
c o
Ġb al
los ure
Ġaan vang
at oren
Ġl ies
Ġ4 0
Ġop h
k al
f lex
Ġd icht
ĠT R
Ġwer vel
oth erap
ose ptaal
spann ing
Ġbeg on
ĠMed tronic
ĠG eb
ĠL M
Ġsp oor
N atrium
P L
Ġg a
Ġc av
m erking
lo dipine
ou dt
VA LU
Ġbij na
ze ker
ric ulair
Ġf emor
Ġg al
Ġverh ogen
Ġl ichamelijk
z ondheid
Ġverm eld
et rie
com bin
cl us
Ġp aar
Ġte v
ces s
Ġ ic
Ġgeb racht
ĠS N
M eest
ic ulair
tra at
k ings
Ġbas eline
ot o
Ġop nemen
Ġontwikkel en
roc yten
Ġverw acht
1 8
cardi oloog
VALU E
Ġbel angen
ĠC M
Ġou dere
Ġme de
Ġin jectie
ĠA denosine
s ite
d y
ĠA r
Ġge wijzigd
Ġant rum
Ġo ste
Ġvorm en
Ob ject
Ġm is
Ġgeb eld
Ġinf ilt
vol gende
Ġre gelmatig
Afspraak Object
gerelat eerde
ĠP L
Ġvariab elen
Ġhier bij
Ġdagelijk s
der ing
Ġoor zaken
ur etica
Ġst ap
Ġpulmonaal venen
Ġj uli
ĠH el
Ġle uk
Ġbet e
hoog d
pers onen
Ġverte genwoor
n er
s h
gehal te
Ġp as
S uccesvol
Ġuit vo
rg entie
emper atuur
Ġconserv atief
ĠAn g
cont act
Ġher ken
ĠEle kt
ast ing
Ġprogressie ve
ĠAC E
ri k
Ġp rol
Ġh om
M et
ist eren
Ġa ctieve
ro x
Ġge plaatst
D yslipidemie
Ġverpleeg afdeling
ĠP ET
Ġhoofd pijn
ĠH er
vers ib
Ġgeanalyse erd
ĠL D
Ġlig t
orb iditeit
S D
ĠHuis arts
Ġamb ul
z ym
Ġlip iden
ĠN og
Ġto v
oten sie
Ġvoor keur
plan de
Ġfor s
U rgentie
Ġtoege di
idiver ende
VA Sc
ĠgeÃ¯ dent
i le
Ġge diagnostic
h es
Ġstoornis sen
C X
n iveaus
Ġbelast ing
Ġang st
/ [
d L
ĠHo ofd
j u
bij v
Ġweer gegeven
E B
advis eerd
t ail
Ġh eu
um a
zak elijk
Ġl oop
ĠEr g
in en
Ġf y
Ġpersist erend
wijz ing
iets erg
Ġr andom
Ġdoorge maakt
a e
oc or
CK D
Ġwerk zaam
Ġc f
ru st
Ġg ran
ĠIn stellingen
Ġna dien
i la
Ġkortadem ig
g atst
atie k
e ase
3 0
r ijd
Ġaf w
Ġver gro
Ġtherapeut ische
egist reerd
u res
Over weging
Sp ec
Ġvoor wand
Ġpre dnis
Ġhier voor
ĠS A
Ġverbeter de
ĠTI A
cop e
Ġtromb ose
. )
ĠL ong
N a
our n
ati ve
k racht
ap t
ĠNH G
Ġbe vat
Ġv ader
op sie
Ġ ER
Ġkrij gt
geÃ¯ nduceerde
R e
Ġp ressure
ĠRC x
ĠAl gemeen
Ġk ant
= [
Ġon veranderd
M T
la ag
ĠHem oglobine
il traat
ucle air
N iet
eff ort
slag ader
Ġmet ingen
ĠS TEMI
Ġover wegen
b rief
Ġcap sule
Ġeffectie f
op razol
Ġpolik linische
ĠLaat st
Ġmeth ode
Ġonder gingen
V R
Ġuitgebre id
afhan kelijke
Ġor ig
Ġhep at
Ġdis ease
Ġ#/# :
re validatie
sc al
Ġbeperk te
ĠR CT
at m
Ġover lijden
ik t
st ellen
Ġben ader
Ġreg ressie
Ġn g
ur ale
Ġmet ast
B NP
l etsel
G E
ablok ker
ly k
ĠE D
b pm
Ġtoen em
Ġge plande
Ġme an
te ctie
ĠH emat
ĠN amens
bum ine
Ġz es
sy ndroom
em isch
Ġonder ging
Ġap ex
Ġo st
Ġeviden te
Ġw eb
Ġaange zien
Ġmid den
Ġin duc
schap pen
if iek
al ic
Ġar itmie
Ġgek regen
Ġbereik t
Ġf lutter
Ġt reatment
ari aat
Ġsl uiten
Ġevalu eren
Ġnu chter
al t
Ġge compliceerd
ĠQ u
ĠAd vies
Ġz en
ĠS oc
h erapie
Ġb ro
Ġatheros clerotische
ĠV P
ogene se
Ġp uls
el t
Ġhoe wel
ad s
ĠR es
f or
vas ieve
plement atie
Ġinterventie s
Ġm ijn
Ġl ow
di kte
s ign
Ġendot heel
ero Ã¯
ur atie
N T
Ġneu ro
deel t
ĠNS TEMI
ĠHier bij
ase d
Ġbe vol
Ġgest uwd
Ġverlaag d
] ).
Ġb ypass
ĠBe kende
Ġmo b
Ġdiff uus
Ġl ongembolie
ant oprazol
ach ycardie
Ġble ef
Ġaortaklep stenose
Ġ1 7
t ak
st olerantie
Ġelk aar
Ġtra ject
Ġn ut
um at
Ġchem otherapie
v ascul
Ġhoeveel heid
norm aal
m L
AD E
Ġs im
Ġob structie
Ġre gel
On bekend
erol ateraal
Ġmon itor
Ġ#.# .
Ġf l
o us
ĠMet oprolol
valu eerd
alis eerd
it ies
Ġstu dy
Ġhyper cholesterolemie
Ġk regen
Î ±
Ġon bekend
Ġadequ aat
Ġparox ysmaal
Ġd erde
H D
N orm
Ġkortadem igheid
ico agul
spectie ve
Ġcon f
Ġpol y
Ġgro et
st room
V ID
Î ²
g if
Ġbe zocht
ĠPol s
-# )
uw ing
Ġeen s
Ġgra ft
ie el
Ġbere kend
b ine
ĠB NP
ĠZ eer
gra de
gatst on
Ġcarot is
Ġinter ne
Ġpost operatieve
ati ons
Ġjan uari
Ġbeperk ingen
Ġ ul
Ġmal ign
ĠD et
ĠL euk
Ġd ose
W est
Ġproef personen
Ġge sproken
Ġver antwoor
Ġsom mige
schrij ven
Ġa dip
e ven
I P
af rag
p ress
1 7
iv a
Ġcon versie
oris eerd
v ar
and aard
y n
Ġlater aal
Ġsch ade
Ġ# ).
U it
Ġvor ige
n ing
Ġge adviseerd
Ġv at
L S
ac k
Ġsp oed
Ġleeftijd s
4 0
. \
ĠD atum
r isch
al ie
x t
z it
ĠS uccesvolle
Ġeffect iviteit
Ġsch ildklier
ĠE u
id is
Ġ6 0
D A
Ġtoegedi end
Ġs uccesvol
v aat
ĠCardi o
a ine
om s
t oe
vat en
Ġonthul de
ĠH V
Ġmech an
Ġwij z
Ġchirurg ie
Ġsec ret
c ur
o ffen
Ġwetenschapp elijke
Ġmediast in
BLE T
d ing
z ijn
Ġcorrel atie
Ġevent uele
Ġaan geb
Ġne us
voe gd
Ġvit amine
Ġcomp on
Ġsign aal
han delaar
Ġzen uw
Ġsp elen
ken is
ab il
o zen
Ġlong velden
ĠSP ECT
sp ect
gr ond
Ġradi ologie
ĠgeÃ¯dent ificeerd
Ġaanzien lijk
N F
ic ag
in er
Ġpers oon
m erkt
Ġanter ior
Ġgroter e
Ġmet en
Ġh ele
TI MI
a gen
? )
alis klep
H o
ĠT wee
op te
Ġm nd
f en
heid s
ĠV O
Ġd ou
ĠM B
ort el
ĠA mer
Ġges elect
gen er
ik k
ĠM on
Ġv onden
teken ing
Ġnood zakelijk
p e
ge h
ĠSt op
Ġst adium
alic yl
Ġj ong
Ġperc utane
V oor
if e
vul d
ĠT rombocyten
Ġbeh oe
ĠCoronair angiografie
inter val
spec ifieke
p ing
Ġmor b
Ġuitein delijk
Ġm utatie
el ing
ain ide
Ġhier van
b oven
Ġop er
Ġaan p
m atiek
ĠSpecialist en
Ġt op
r eren
Ġz oek
ĠP AC
er entie
Ġl ate
bev indingen
Ġbep aalde
Ġ ia
Ġsystem atische
Ġrust ig
Ġarter ia
O P
an ten
Ġartik el
Ġge heel
Ġv ag
Ġmit ochond
ĠMo gelijk
Ġafge sloten
W I
yt rocyten
ĠgeÃ« valueerd
Ġonafhan kelijke
aan se
w ortel
m ot
Ġbete kenis
ig ne
Ġherh alen
Ġval t
oem d
Ġaut o
gif te
alicyl zuur
ĠbeÃ¯n vloed
at ale
elef oon
Ġ#,# %
M RI
ĠP E
Ġgest eld
v atie
in dicatie
i atief
Ġcre p
sp ron
ĠGR ADE
ek uur
:# ,#
m id
Ġab domin
ikk eld
an im
Ġmed isch
Ġe inde
lec ainide
re q
olog en
ant agonist
ĠV G
nest isch
resp ons
Ġlong arts
h y
ĠA rt
Ġger eg
ĠSp oor
Ġ#-# %
ĠTot aal
Ġoog t
Ġg ing
iv ari
pleegkun dige
lass ificatie
er c
ot te
Ġl og
ra s
ĠMI RADS
Ġsugger eert
y ste
ĠV is
ili ru
oor te
Ġms r
ĠZ org
ge voel
an en
middel s
Ġbe sloten
St ent
Ġr en
g de
ĠG est
Ġbew ust
Ġmogelijk heid
Ġomvat ten
Ġ ip
in atie
Ġl engte
Ġonder sche
dracht en
Ġheu p
plaats ing
Ġgen omen
u ter
Ġaanhouden de
groot te
Ġs ur
Ġmechanis men
Ġt we
pat roon
ĠM ellitus
Ġverd w
e der
Ġgep ublic
ist of
ĠHyper cholesterolemie
a denos
Ġbel t
ĠN B
Ġgew richt
ĠG ro
L e
Ġret our
Ġou deren
ĠG lucose
Ġreg ulier
Â ±
R egistratie
qu entie
ĠP R
ĠTA BLET
Ġ ij
Ġinf iltraat
Ġcomplex en
a emie
be oor
re pen
s ub
Ġverantwoor delijk
Ġtromb us
Ġw o
Ġcogn itieve
ater iaal
s alicylzuur
Ġdi alyse
ĠM eer
yc ine
o ff
Ġh eden
Ġkw am
Ġcirc um
t rans
Ġglob aal
Ġwaar op
t el
Ġin stelling
P ro
gen eeskunde
Ġa v
Ġw it
eratie ve
il le
Ġin j
ĠT EE
Ġbeoor deel
ver w
Ġsoe pel
Ġverd acht
Ġtoe voe
Ġlater ale
CR P
Ġbe elden
adenos on
Ġanest hesie
Ġgen er
Ġc are
ĠAo S
Ġs ig
o geen
A R
Ġplot sel
Ġ- (
te kend
:# :#
Ġcom mun
Ġsugger eren
nel heid
ĠAL AT
ĠLin ker
Ġintern ist
ver d
sch illen
Ġgediagnostic eerd
ĠZ ijn
A antal
al ity
Ġ ist
Ġvis ueel
sp ital
Ġweb site
-# ]
Ġrele vant
ĠN ieuw
or vastatine
c riteria
cip lin
Ġpro cent
â ĪĴ
un da
Ġber oe
hm us
be handel
ĠI g
Ġgran ul
Ġzo ut
s er
stit uut
Ġlig gen
ff ect
Ġvoorkomen de
Ġafwez igheid
Ġge pro
Ġop perv
ĠB i
cht end
C ardiale
ĠLeuk ocyten
im eter
O ntslag
Ġin hal
Ġprof yla
Ġond uidelijk
ĠE er
Ġondersteun ing
Ġken nis
ĠA G
Ġp lat
in anc
ach y
Ġk atheter
ĠNT G
sel en
Ġhart team
Ġele ct
Ġinclusie f
ĠK en
Ġc lopidogrel
ent euze
Ġont de
om ar
ĠC ent
f ici
am b
N ierfunctie
A n
Ġsch ouder
etyl salicylzuur
Ġbesch erm
ell er
aut oriseerd
L D
ĠDet ail
L in
S R
w ikkel
iglycer iden
ĠS ec
Ġreg io
Ġcon cept
Ġbl anco
or den
Ġbehandel ingen
ĠT r
Ġver kl
Ġdeel s
H T
ĠM w
spra ken
oc riet
ĠMeet waarden
ĠG oed
Ġgen etische
ĠV oelt
Ġindivid uele
Ġl iet
ĠO S
ĠT abel
Ġgecontrol eerd
p ut
ep arine
ĠDD D
ĠS ub
form ine
Ġreg ionale
nt gen
Ġl os
B C
ĠÎ ¼
Ġged uid
AC E
iliru bine
ĠW aar
ĠN atrium
Ġvaat lijden
Ġstatist isch
Ġbevest igd
rij ven
Ġontw ikkeld
ic ul
Ġc losure
ĠO R
I T
o ber
Ġaange past
Ġfoc us
Ġmoment eel
Ġang io
ke ken
ox ine
Ġv indt
ab iliteit
Ġonderzoek s
Ġin druk
im plantatie
Ġa g
Ho ofd
Ġgen e
M yocard
Ġge sprek
Ġcor on
Ġm olec
um ab
ĠPatient e
luor oscopie
Ġin tens
ĠH als
Ġou ders
Ġdi uretica
vol en
ĠEchocardi ografie
unda ir
and aag
fie l
at ri
Ġact iv
Ġspont aan
Ġtricusp id
Ġvl gs
of actor
om ische
Ġgr ond
D F
ir ine
Ġm amm
Ġs kelet
ĠCO VID
it teken
ys is
Ġlymf e
Ġro ut
Ġist hmus
re gelen
rel or
Ġverwij deren
ĠT V
Ġzw elling
ific aties
M C
Ġhel der
Ġidentific eren
t ij
mal ig
Ġwetenschapp elijk
ra an
Ġt av
H DL
ĠAb domen
ge w
Ġp iek
ol on
Ġaanwijz ing
Ġinf lammatoire
2 2
Ġimm uun
Ġradi alis
Ġre ct
Ġo chtend
Ġgeb ieden
Ġou de
ietserg ometrie
ov asculair
Ġinspanning stolerantie
Ġadequ ate
Ġgeh ouden
be sch
ĠD er
OR G
Ġont bre
ĠEx tremiteiten
Ġge f
Ġdis c
gra mma
it ionele
Ġcor rectie
la at
sch ade
Ġg amma
ant woord
itu de
. ):
Ġbij zonder
Ġ ].
ĠC HA
D O
P S
Ġatrium flutter
> #
Ġj onge
Ġv es
Ġboven ste
Ġalle s
% ),
Ġinter actie
ĠM CV
oss ier
icag relor
8 0
Ġge con
Ġcol on
at int
z ame
ĠS yst
e iden
Ġre kening
ol e
ĠAll ergie
Ġinsuffici Ã«ntie
B L
l open
Ġdagelijk se
Ġsup ra
Ġge combin
LV EF
Ġpro b
Ġop los
ret ard
kle uring
Ġonderlig gende
Ġv rien
Ġg l
ĠL engte
Ġmin ste
Ġachteruit gang
ĠOnge wijzigd
TI D
id atieve
Ġpolikliniek bezoek
ĠE nd
Ġlip oprote
ĠAn alyse
Ġchron isch
or es
Ġpot entiÃ«le
Ġgep resent
als nog
wijz er
Ġdis sectie
Ġk liniek
a ve
Ġhoofd stam
ĠgeÃ¯ sol
Ġaanbe volen
ook t
Ġz eg
ep am
re st
in ing
ge vallen
la d
Ġvers le
Ġeviden ce
ĠF ollow
Ġgeh ele
bel asting
Ġst ern
ak kelijk
Ġcons ol
M ed
Ġboezem fibrilleren
Ġz in
Ġspont ane
m ine
Ġaspect en
Ġoor spron
W ire
Ġrond om
Ġverbet erd
stru ct
Ġc ode
idis ciplin
Ġsp eel
Ġ- #
V F
Ġwat er
remm ers
Ġverla gen
ĠAtrium fibrilleren
Ġhart ritme
Ġst room
ĠS ten
t ype
ĠAS AT
Ġde sc
Ġhal f
rocardi ogram
% ).
Ġk alk
be elden
ill ine
ĠInt ern
ol ol
le s
VA SC
B B
ĠO b
ff usie
s is
Ġk al
complic eerde
acet amol
Ġder gelijke
t ig
Ġhel emaal
a ad
Ġlever en
Ġb io
ĠCC U
Ġre validatie
ĠS ter
Ġre p
Ġopt imaal
geh ele
Ġ ~
k inesie
ĠC o
Ġin h
Ġgenees kunde
ĠK w
2 4
ĠUit gebre
ot ype
Ġgeschat te
ĠEr nstige
ĠSp O
Ġvo et
Ġin dic
vol ume
Ġe mbolie
Ġven a
ĠThuis medicatie
IN E
Ġaanbevel ing
l ichting
Ġover wogen
Ġsp ort
Ġover dracht
Ġbe sluit
ar ree
Ġm ass
ation ale
Ġrisic ofactor
Ġde fect
ic um
Ġm ij
Ġregist ratie
Ġintraven eus
Ġz n
Ġanalyse s
Ġc ortic
Ġveroor zaken
Ġf amil
Ġzit ten
Ġan n
ĠCre atie
Ġprog ra
Ġdat a
ĠK lachten
r id
Ġde len
Ġmin imale
z ing
n ia
ĠIn f
v ari
Ġonder tekend
] ;
ĠVer volgens
ol en
ia ire
2 3
Ġb acter
ĠCV RM
J EC
Ġ#;# (#)
ijk en
A uteur
Ġplaqu es
Ġplaat sen
OB JEC
OBJEC TID
Ġbest ude
Ġontwikkel de
Ġmo du
of ag
Pol iklinische
Ġaange t
erk te
Ġhypok inesie
Ġfosf at
Ġont vangen
Ġwerkgroep leden
Ġm ening
a diging
pro ef
pt ie
ant ia
d ose
Ġgebruik te
y na
Ġstruct urele
Ġbuik pijn
Z ORG
Ġ< #
Ġlangdur ige
oud ing
ĠW eten
ĠErg ometrie
ox ide
la b
ok t
Ġrec idiverende
se arch
Ġs cho
ĠAort a
Ġel uting
Ġverl open
Ġv ond
Nierfunctie stoornis
6 0
Ġbel len
Ġtoe stand
Ġsympt omatische
C S
Ġhyp oth
id ingen
ol f
Ġal hier
ĠAV R
Ġsterk e
ĠE l
F O
Ġant il
> -
or aal
se pt
ĠHb A
Ġg af
Ġa den
w as
Ġdec ember
ost ase
ĠH IV
Ġv lak
ĠbeÃ¯n vloeden
Ġhyp otensie
Ġfib rose
ch l
Ġger egistreerd
c ement
ich amen
Ġprednis on
ĠHe alth
Ġint act
zy men
Ġsla g
Ġlo opt
oth orax
Ġspec ialisme
Ġverk al
Ġbere iken
ĠN o
re k
Be spreking
Ġb ent
ase erde
Ġbla as
or ische
ar te
Ġbre ed
Ġte am
ĠBe eld
sluit ing
Ġsec undair
z w
Ġwandbe wegings
Ġdi afrag
Ġinsuffici entie
Ġv ullen
l icht
C x
Ġaan toon
Ġgew orden
Ġs clerose
Ġmediastin um
T c
ĠW erk
Ġuit slagen
ZORG INSTELLING
Ġst am
Ġf armac
we k
b al
t s
am in
A d
Ġvoor bere
Ġc ancer
Ġt and
Ġm ig
on ale
C OR
an delen
o ft
dic eerd
Ġbev or
Ġmalign iteit
Ġno vo
Ġs at
ĠD NA
S egment
Ġerv aren
Ġdirect e
Ġbijd ragen
Ġh igh
a zol
w or
ar ak
Ġgep aard
vie zen
ĠA ss
Ġvergelijk bare
and acht
ĠRec idief
oe der
iver ing
Ġ( )
Ġbe ste
f low
' ,
Ġrechts drukken
Ġoph ogen
s ver
Ġradi otherapie
Ġfy sieke
N S
par aat
wikkel ing
clude erd
Ġc c
sy n
r ing
CH ADS
ic s
Ġpro staat
Ġsla gen
ĠS h
Ġo gen
pl i
E L
Ġt emp
n r
ĠR BTB
Ġher zien
Z ie
Ġfe it
Ġcont ra
yna ec
Ġp op
Ġman ier
ĠH aar
ĠJ ourn
Ġv oel
ĠPatiÃ«nt e
h oe
ĠD CM
Ġover vulling
ĠVan wege
Ġtoege voegd
ĠPol iklinische
Ġs arc
ac cept
Ġm ann
ĠCom plicaties
1 00
Ġv oeding
Ġsub st
ĠM in
Ġmetabol e
G y
Ġgele idings
Ġsl uit
Ġcontinu e
Ġdem entie
Ġzo ver
Ġgen en
Ġtoe gang
Ġm agn
Ġboven genoemde
Ġ19 9
ĠA gatston
Ġvoor geschreven
Ġcom orbiditeit
Ġn s
alis eren
Ġor de
y lo
arak ter
ĠE p
meth ode
x e
Ġtach y
AP SE
Ġpar a
in dex
Ġkw ant
Ġna der
P C
Ġevent s
Ġde l
Ġge lu
gem iddel
ex t
ĠH yp
k omt
Ġbevol king
ĠR ele
ĠO rg
B D
ĠP sych
ic ine
s verlies
Ġtoege past
as on
Ġgen oemd
Ġ(# %)
Ġd rin
Ġfiet sen
ĠO hm
Ġs ite
ĠW anneer
t age
Ġv loe
oth el
Domin ance
Ġvol gen
Ġte k
p ele
Ġmo d
Ġdegen en
Ġexper iment
Ġplaats v
Ġh en
ĠM ult
arde ffusie
Hart frequentie
Ġre ferentie
Ġz eld
Ġbetrouw baarheid
ib er
ĠD oel
al ine
Ġj e
Ġt abel
S h
ĠP h
Ġactiviteit en
Ġpl annen
Ġuit leg
Ġonder wer
Ġh orm
Ġlang s
ĠT roponine
Ġademhal ing
Ġ#.# )
R oken
Ġaut or
Ġne ven
Ġver en
Ġepisode s
Ġmorf ologie
Ġvooraf gaand
eff ect
ĠH oog
Ġatri a
ak e
Ġgepresent eerd
Ġsyst emat
Ġc ur
Ġpro p
Ġre sectie
A rt
ĠV eel
uur s
oor de
pro these
gest uurd
id ine
Ġge lijk
st atus
Ġp en
ro gen
h et
ĠPer fusie
st at
Ġsele ctie
vol ge
Ġp ublic
Ġmult ip
plet ie
Ġfosfat ase
ĠC ar
w n
d osis
bl oed
ĠHV Z
Ġgez ocht
Ġm ot
weg infectie
isch emie
yre oÃ¯
ie w
ĠP ri
ĠAS D
Ġh um
ĠV VI
Ġd rain
Ġl ijden
ocht end
he u
Ġvol do
rin cip
Ġanat omie
Ġgem eld
Ġgecor rige
Ġduizel ig
Bloed druk
Ġricht ing
remm er
Ġlijk en
ix aban
Ġper ist
BS N
if est
ĠA O
han s
om ein
la p
Ġindivid u
Ġbi omar
ĠL CA
ust us
ĠM R
ic ale
plaat jes
Ġstim ulatie
Ġd r
Ġhoe sten
Ġn um
os in
ch ol
ic iteit
kw aliteit
dilat eerde
Ġprima ir
Ġc ru
ĠNa am
ific eerde
Ġafge sproken
ĠB atterij
Ġinhal atie
Ġgerandom iseerde
Ġextra syst
ĠO nt
Ġbeter e
Ġa cht
W e
Ġal tern
M D
b eleid
Ġgenees kundige
Ġsyn cope
7 0
Ġverkl aren
ĠP AF
ol yse
Ġvere ist
Ġac c
Ġst eek
ul erende
Ġspeel t
qu e
X X
Ġdi eren
ol d
Ġdeel contact
ĠÂµ g
Ġbas ale
Ġfrequ ent
Ġwit te
P atiÃ«nt
ule erde
UR L
andacht sp
ĠOn ze
ĠA ct
Ġelekt rische
k olom
zit ter
ĠDe v
Ġcol later
vascul arisatie
yp isch
Ġdi arree
Ġpersist erende
cl u
ĠReg adenoson
lu st
Ġin sp
Ġs ucces
Ġtest s
oscop ische
Ġnauw keur
Ġziek e
ĠLin ks
ĠZie kenhuis
R ef
Ġa ard
ang rijk
Ġmorb iditeit
Ġk onden
it iviteit
om yoc
raa i
I s
Ġl iep
Ġge deelt
Ġto x
dur end
eder atie
nel punten
r ont
kal ische
Ġbe spreking
Ġpot entieel
ĠA B
Ġmedicam enteus
ost er
oth eek
Ġmi R
Ġge autoriseerd
pro gressie
Ġtoenem ende
v t
ĠOm dat
Ġver lies
ir ale
ĠCardi ovasculaire
ron isch
id ie
ĠHemat ocriet
T huis
Ġ#,# )
Ġst of
werk t
ĠDi agnost
Ġimp act
de v
Ġdo et
icham elijke
im m
ij m
AC S
Ġs ociale
Ġversle chter
ĠK linisch
Ġelekt rofysi
Ġgede tect
Ġintra c
oor ten
Ġn ot
Ġplaat se
em etrie
om er
ĠC X
Ġl oc
Ġs ed
Ġep ic
Ġk rans
Ġb if
Ġox idatieve
2 1
et ting
Ġruim te
Ġneur ologische
Ġhypertrof ische
Ġtricusp ide
ĠK le
= #,
Ġwand dikte
ĠPol i
Ġfrequ ente
ge legd
op last
sluit end
Ġbe sl
S N
Ġlig gend
ĠT achy
ru ari
Ġdiffer ent
Ġl itteken
BLE D
v rager
Ġuitkomstm aten
ren g
Ġl ocatie
een s
vou dige
Ġpat roon
Ġb Ã¨t
ĠC lin
Ġd ro
heu gen
ĠEr ytrocyten
al ve
ĠâĢ ¢
ivari ate
Ġf inanc
kl ieren
Ġb radycardie
od y
-# ,
Ġh or
Ġspec ifiek
P V
ĠA ut
Ġherst art
Ġwer ken
anim atie
Ã¯ de
pol i
Ġb ur
Ġaan leiding
ic on
ic es
Ġ#% )
Ġp h
Ġg isteren
met ingen
Ġt ub
Ġcardi ovasculair
Ġbe kken
Ġbevor deren
t b
Ġconcent ratie
Ġd aling
Ġre cht
fic atie
Ġne ut
Ġniet s
ĠT emp
ann ing
Ġuitgangs vraag
A ctuele
Ġgereg uleerd
Ġgele gen
Ġvrij wel
Ġaantoon baar
y le
Thuis medicatie
Ġd on
p ende
Ġbe geleiding
Ġgebruik ten
T A
Ġl eren
Ġc r
ĠPulmon es
c isie
ru p
Ġver apamil
Ġecht gen
gra ad
Op name
ow n
ri ctie
ri a
le d
is ende
ur c
Ġal gehele
dien st
nd ro
ysp noe
re as
Ġfibr ill
Ġgele i
Ġom standig
emb raan
studie s
Ch ronische
# =#
ĠA scal
icoagul antia
ĠV R
Ġverk la
de m
ist ente
IN R
Ġokt ober
Ġperic ardeffusie
u ist
H B
Ġveil igheid
Ġs in
Ġmechanis me
Ġ @
Ġprote Ã¯ne
Ġmet hoden
Ġver spre
ge ving
ĠES V
Ġv ak
VA I
Ġverpleegkun dige
Ġk alium
Ġtij delijk
ar ge
ĠDi astolische
van kelijk
Ġart ritis
Ġder halve
wit ch
Ġontste kings
Ġ- [
Ġdo chter
ĠNe ven
ed antie
Ġper indopril
Ġ[ ]
Ġsept ember
Ġcom ment
Ġrel atieve
iz ed
is oprolol
7 5
eer bare
Ġbil aterale
ure el
Ġover wegingen
H b
Ġd un
e cho
le idingen
ĠKen nis
Ġorg anis
pro blemen
ff ende
LIN K
Ġb iv
Ġgra den
oe g
zij dige
Ġbloed verlies
Ġmyocard itis
ar itm
Ġaf komst
ag s
Ġqu a
g v
ĠW il
ĠRichtlijn en
Ġverzam eld
c ode
Ġomge ving
alt iek
Ġvul ling
or ad
Ġverlaag de
Ġomstandig heden
b uik
lyk emie
Ġgedetect eerd
Ġperfusie defect
Ġa x
W EB
ĠHT x
plan nen
per i
WEB LINK
Ġcolla b
Ġintraven euze
Ġpericard vocht
ĠV AS
ĠS l
ĠÎ ²
Ġfunction eren
ĠL ang
ran k
ran e
Ġen ergie
ĠLV OT
et je
te xt
accept eerd
at t
ra p
Ġdi agon
Ġb rengen
Ġw ilt
ĠVer pleegkundige
Ġaange geven
oede isende
Ġovereen stemming
Ġberoe ps
m aanden
Ġmens elijke
Ġat m
Ġm el
ĠS le
ĠMedic al
he en
s n
sc opie
um et
gele ide
E erder
Ġde tect
Ġ2 2
ĠD hr
b ra
f ractuur
Ġb ieden
Ġvoor lop
Ġth orac
mit t
Ġdaar op
gele id
Ġger ust
ch e
Ġhemat oom
ar ingen
Ġm ond
Ġder mat
k ingen
chirurg ie
ĠA MI
g n
Ġv ele
Ã¶ ntgen
r s
3 4
Ġp e
r and
ĠED V
Ġst reef
Ġverpleegkun digen
Ġbloed plaatjes
Ġver vangen
ir atie
el s
schapp elijke
in stituut
N og
Ġasp ec
Ġde tectie
:# :
C E
Ġ#/# .
is eren
intigra fie
Ġap opt
ĠM DRD
Ġstent s
Ġal d
D ER
ĠT oen
ona ire
di ale
Ġsh unt
ens ine
S ch
ĠH CM
Ġperist altiek
Ġe ct
ver la
concent ratie
Ġeigen lijk
Ġactie f
Ġfoc ale
ĠA M
is c
ĠR DP
Ġn ec
):# ,#
ĠBe kend
ent riculaire
Ġsub ling
Ġn ucle
] [
Ġm V
ĠÂ °
ĠMCH C
A A
ĠSt udie
Ġplas m
Ġp unten
Ġin comp
ĠB as
Ġdi verse
Ġjaar lijk
Ġbloot stelling
Ġzie ken
ĠVer geleken
k ade
C P
Ġmeth od
Ġverto onde
op pl
stij l
ĠAn dere
Ġpol ym
ĠPar ox
Ġge zicht
a as
Ġkrans slagader
Ġweg ra
h uizen
ĠLaboratorium onderzoek
d r
Ġtoe stemming
Ġzo dat
Ġns VT
rum ent
ĠgeÃ¯ nt
Ġeiwit ten
Ġtra p
ĠM atig
Spec ialisme
druk t
Ġs ep
f act
Ġec i
st iek
recept or
ĠCardi aal
Ġvermoe delijk
Ġte sten
Ac cess
c er
ĠDat a
Over ig
cell ulaire
Ġspec ific
Ġb ic
un del
Ġc as
Ġ ide
Ġstop datum
ock et
s ne
dig heid
ep razol
9 0
Ġhier mee
iv o
Ġzorg verlen
Ġav ond
alis eerde
av ond
Ġdub bel
maal s
duct en
waar schijnlijk
ad ol
3 5
f oto
vent ionele
open ie
Ġnov ember
ĠT SH
Ġz waar
ui del
ĠI sch
ĠMB q
Ġversch ijn
p opulatie
ĠU w
Ġmar kers
T R
Ġet iologie
Ġaan vallen
Ġcy cl
Ġst roke
Ġen han
form ulier
Ġp an
Ġtr end
al g
Ġvragen lijst
aand o
Ġmaat regelen
Ġgunst ige
ĠS D
Ġmicro g
Ġsch ema
Ġab normale
c g
intig r
Ġbra ken
ont wikkeling
Ġsc intigr
Ġg ang
Ġvoed ings
Ġstij ging
int igram
Ġt ransp
Ġc ase
in k
i gens
De ze
Ġre versib
do od
b ed
beoor deling
H O
Ġhoe st
Ġam lodipine
Ġda ags
ĠP ers
ox aban
Ġge vraagd
On der
Ġmisselijk heid
Ġbetrokken heid
peri ode
ĠGeb ruik
Ġl ichamelijke
Ġprogn ost
3 6
Ġen ig
Ġbenader ing
Ġrecept or
ĠC B
Ġbegon nen
ee f
Ġmin uut
ĠD R
ol lings
H eparine
in aal
Ġstruct uur
Ġvrij e
cent rum
ĠG FR
ĠEu rope
Ġop merk
ĠC ons
Ġvertegenwoor dig
p ret
p an
T h
Ġ2 8
Ġin middels
ĠP t
g rens
Ġpsych iat
Ġsnel heid
Ġrechter ventrikel
Ġinf erolateraal
t rofie
Ġve get
s klachten
N I
Ġin zicht
P I
Ġcyt ok
3 8
ĠT APSE
Ġr un
ĠM it
Ġtherap y
ĠAb d
Ġhyp o
aine d
ĠC S
ĠF or
Ġbloed ingen
sp ier
Ġv ascul
Ġim plementatie
Ġst rategie
nd anks
di l
2 6
ym pt
Ġf ractuur
Ġfemor alis
Ġgraad s
ĠOS AS
Ġtri als
Ġac cept
v l
di ast
Ġ3 5
oppl er
it one
la e
ĠAl cohol
ge zet
Ġbehandel de
ĠP FO
Ġp rincip
r atio
Ġinf er
Ġeen heden
Ġsept aal
ĠRe sp
Ġij zer
ĠT rans
yreoÃ¯ die
Ġf req
Ġne k
if orm
es ion
Ġmaand ag
ĠVol gens
Ġhart infarct
# ;
Ġp os
Ġsp iegel
Ġle ef
Ġ8 0
Ġpneum othorax
eroÃ¯ den
O K
Ġ2 1
ĠM en
i aties
ĠHe art
ĠAort aklep
se quentie
om ografie
intigra f
Â µ
Ġom vang
Ġd al
itu atie
op las
Ġboven staande
bep erking
Ġo es
wij ze
Ġend othel
2 7
Ġmyoc ardi
au z
ĠF low
Ġdruk pijn
ĠAan gezien
ST AT
Ġvrien delijke
Ġon c
ced ures
Ġlinker kamer
ĠI M
Ġwacht lijst
p ri
opro these
Ġbre ast
Ġz orgen
ĠVS D
Ġuit bre
Ġpl us
N RT
mer g
Ġn r
ul ar
b u
Ġm ut
Ġopnam en
deel s
Ġdefin itieve
ĠL ongen
pro BNP
last ing
Ġgroe i
Ġbl ock
lig ging
Ġt ypische
su p
Ġge gener
Ġalcohol gebruik
2 9
ĠSc ientific
Ġpuls aties
Ġverk rij
eng th
Ġhart ziekten
it eren
f ore
la y
Ġgeb le
an ide
Ġ- %
iÃ« ren
Ġon ver
S inusritme
i ons
ho ofd
ĠJ R
vaat tekening
Ġgranul ocyten
ĠI S
ie zen
mo gelijk
ed t
Ġge volgen
ist ische
p assen
Ġc ir
is maal
n ier
Ġverm ogen
4 5
. ;
Ġproble matiek
al le
# ]
otherap eut
Ġopperv la
ĠST T
Ġ9 0
Ġ#-# .
ĠF ederatie
lat en
Ġverricht en
Ġe et
Ġgem een
L DL
stru ctieve
Ġpulmon alis
ĠM il
Ġge lijkt
Ġann ulus
ven e
Ġmedic ijn
Ġp unctie
): [
Ġp ap
Ġbetrouw baar
im enten
el la
ma akte
Ġk nelpunten
P atint
Ġtra d
Ġnum ber
Ġgelijkt ij
Ġa dd
âĢ ¦
un g
Ġonderzoek ers
Ġab sol
Ġc erv
rijd ag
c atheterisatie
Ġge sloten
ul aties
2 8
Ġgeb rek
z a
Ġresp ir
II I
le eftijd
geb onden
k ant
Ġo ef
int rom
G A
Ġvoor deel
Ġ ON
ra ine
Ġmitochond riale
ĠCon form
inf orm
Ġse ks
Ġgek ozen
K alium
la ge
ĠN ov
Ġimpl ant
cont in
Ġsubc utaan
Ġvoor alsnog
Ġ ult
Ġop le
rup pel
Ġn ieren
y th
st ijd
ro ss
oede em
Ġge volge
R adi
Ġcons istent
vent ion
Ġc lassificatie
Ġaug ustus
Ġinfectie s
Ġtran sc
ĠRec ent
Ġdilat ation
oe ken
Ġconclusie s
Ġle s
vo er
Ġn amens
ap ril
Ġ( +
Ġterug k
Ġwer kt
Ġn l
Ġaan kleuring
th er
Ġlaat st
Ġpost erior
( #
lo od
ast om
V D
Ġlang zaam
pro cedure
ĠR el
as ie
A andachtsp
Ġcompon ent
V P
H CA
Ġtoevoe gen
Ġbal lo
d arm
Ġbe fore
o et
Ġtev oren
Ġk rit
Ġ2 3
Ġm ild
Ġp ass
el ok
Ġaorta wortel
pl ant
ĠAl kalische
am ide
Ġre visie
' -
Ġwer king
Ġlang ere
Ġverd ragen
Ġventrikel functie
illa ire
iodar one
vaar digd
Ġpanc reas
Ġac enocoumarol
ak ker
ist en
Ġn atrium
Ġpericard itis
Ġp unt
v es
Ġsecret ariaat
o i
is en
ut ie
Ġm ilt
s clerose
Ġcent imeter
v ulaire
Ġdomin ant
F A
Ġost ium
Ġh oudt
Ġwij zen
Ġbetrouwbaarheid s
Ġenhan cement
Ġmodu le
d l
usp ide
ĠKw aliteit
Ġap otheek
Ġfeb ruari
Ġopt imale
ie dt
amb ocor
Ġspre ekuur
Ġpl an
Ġs oort
Ġambul ance
ĠLe ads
r ati
Ġcarot iden
f osf
Ġlymf aden
Ġwer eld
Ġbest ond
Ġ2 6
ĠL CX
Ġzij de
Ġtra uma
Ġm n
m ed
Ġcy ste
del ingen
com plex
ĠSter k
Ġvert onen
Ġb ol
ĠB P
Ġwor tel
Ġhyp ox
em o
AI OS
Ġhemodynam ische
ĠW and
p raktijk
zij de
Ġsy ndro
pt uur
zondheid s
Ġnam elijk
O G
ĠS oms
pro ductie
ĠO r
ĠE ch
Ġber icht
Ġonder houd
ch ron
Ġbehandel ings
or ter
bl oeding
Ġf mol
in test
Ġover gewicht
Ġstatist ische
Ġbez ig
Ġm es
ĠH C
Ġch ild
Ġd ocument
Ġste un
m assa
Ġge accepteerd
Ġla par
ag ina
z etten
ary n
te chn
Ġt gv
Ġbeg innen
Ġla ct
Ġziekenhuis opname
op los
Ġw ar
Ġ7 0
Ġpost operatief
e iwit
intigraf isch
#/# (#)
concent raties
Ġtwe emaal
an al
Ġkal iber
Ġcircum flex
Ġhet zelfde
ation ele
pro gramma
Ġ4 8
iden ce
Ġmedicam enteuze
Ġf lecainide
elok een
Ġhart revalidatie
re en
ig at
och rane
Ġbro er
Ġhart transplantatie
Ġgezondheids zorg
ĠIn c
ricusp id
Ref erentie
ona de
Ġge sp
L ength
abie l
Ġp o
Ġp ept
itie f
Ġsed atie
ĠNI BP
geb racht
Ġmult idisciplin
Ġver g
Ġvergro te
R DP
Ġri b
Ġch ol
Ġplotsel inge
ĠP acemaker
model len
st im
am nestisch
ab ele
Ġdis cus
f emor
Ġalle maal
idem i
Ġsteek proef
ĠM A
Ġsch e
ĠH S
Ġ4 5
k linische
Ġover name
Ġlever functie
Ġn ab
z ide
Ġj r
l ok
ĠC ON
i us
Ġsp ironolacton
Ġgevoel igheid
Ġv raagstelling
ĠP VI
Ġhem oglobine
ĠR U
Ġact ueel
Ġnood zaak
ĠT oelichting
G eb
F ig
wijz igde
em mer
st rategie
ĠRe chter
Ġneur oloog
Ġact uele
elijk s
Ġmann elijke
Ġuitge sproken
ch en
ĠRV OT
ĠV en
en ste
ĠT M
ic an
r ant
ud y
be vel
V erap
vo erde
i ft
ken merken
Ġcon gen
Ġk euze
Ġon be
ĠAV NRT
Verap amil
Ġm elden
mm et
Ġspecific iteit
Ġcardi omyoc
Ġbeschik bare
Ġle den
Ġher nia
ĠDaar bij
Ġhet er
Ġeen maal
m eer
Ġeen malig
Ġbeh alve
ig er
ab igat
Ġin vasieve
Ġgroot ste
Ġcav a
iz ont
a ort
u ro
ĠOver ig
Ġge heugen
st art
Ġj uist
G ym
ĠG lob
in aat
Ġverkla ard
Ġp oging
sl uiten
ĠM DL
ox id
Ġtechn iek
schillen de
abigat ran
Ġd ynam
Ġonder deel
Ġherh aalde
Ġklachten vrij
ar ia
ĠNederland s
onder zoeken
ĠD if
Ġafwijk ende
Ġstatine s
k eerd
Ġde tail
ili ac
ĠM an
Ġwervel kolom
Ġsec onden
un ct
ĠCh olesterol
m od
Ġf raai
com pli
ĠOver weeg
Ġgenees middel
en sus
urc atie
E M
n eg
art rose
r at
Ġmac rof
Ġch olec
Ġman agement
v ingen
ĠHals venen
ĠGe dilateerde
Ġerv aring
rouw en
Ġlevens lang
h als
h or
yt ische
Ġinst abiele
Ġgepublic eerd
ab le
hyper trofie
Ġge gaan
l us
osin of
Ġman ifest
Ġgelei delijk
Ġpro spectieve
ĠE ffect
et rof
l ong
p ulmon
Ġs oc
os ine
Ġsoe pele
wij f
Ġsub tot
id aties
Ġg luc
Ġk lacht
C ol
analyse s
+ -
oort je
ĠBe spreking
Ġdesc endens
Ġall ergie
Ġvoor delen
Ġbewust zijn
bla as
Ġdiff use
nduc eerd
Ġf rom
Ġpro x
Ġde lay
Ġin te
ge sprek
Ġ3 7
met ast
amp onade
ĠM orgen
Ġobserv atie
er b
Ġwandbewegings stoornissen
ĠWeten schap
m ale
h ol
ĠJ ap
ĠC ochrane
ro ffen
Ġuitgangs vragen
Ġin tensie
Ġvoor dat
V raagstelling
aal t
- /
Ġhart en
Norm ale
P ar
Ġcontrol eren
Ġn atuur
Ġcru c
di at
Ġin name
ĠJ ude
l er
Ġaan val
etrof os
Ġgeh oor
ici Ã«nt
vert icul
Ġdose s
Ġbeg rij
Ġasympt omatisch
s nelheid
Ġnier transplantatie
Ġcom plicatie
Ġlum b
Ġcont ract
Ġv ivo
Ġsc ientific
Ġclin ical
Ġlymfaden opathie
g lucose
Ġspra y
vallen d
ĠP D
Ġanter oseptaal
ic atie
Ã ª
ĠCont rol
Ġklep afwijkingen
al va
0 4
ĠGen ees
Ġdaar van
geb ieden
Ġ( ,
ag ing
Ġ(> #
Ġl ine
ĠJ L
k om
or ing
ver b
F iguur
um atische
Ġvergelijk en
Ġre m
Ġge ken
ĠNe ur
Ġpalp itatie
Ġpre cor
ri f
Ġmechan ische
Ġinst antie
Bel consult
g reg
Ġbe schrijven
be st
kk age
Ġw et
ĠK opie
Ġonze ker
Ġre vascularisatie
de pressie
Ġbi ologische
Ġbeh eer
O per
bet aald
verander ingen
Ġro od
os itas
ĠDetail s
Ġop een
Ġver volgen
Ġbev inding
Ġklep vit
-# -
nt hese
Ġbet a
ĠE H
Ġec g
Ġstruct ureel
q uis
-# .#
K olom
ron en
der de
umet anide
ak ing
c a
U reum
Ġdi enen
Ġgeken merkt
Kolom nr
ĠG raag
romb ose
um p
Ġb iedt
Ġkort durend
Ġge komen
N e
Ġc an
Ġprogra mma
ĠE B
io us
Ġbewijs kracht
ĠA chter
Ġrapport eerden
ĠS I
Ġm L
Ġveren igingen
Ġdeel name
ast ro
orf e
etrofos mine
vou dig
Ġhel pen
kan aal
Ġaf zonder
v lies
Ġv acc
ren aline
Ġverander d
Ġsens itiviteit
Ġorig o
Ġre perfusie
Ġie der
Ġd rempel
Ġaan melding
ac iteit
if eer
Ġbeoordeel baar
Ġong unst
Ġaan passing
gen e
us s
Ġw ens
Ġge ob
Ġaan merking
Ġbep erking
Ġont staat
Ġdi enst
hoog de
Ġh ili
6 5
lu cht
ver wezen
Ġla s
Ġcalc ificaties
ĠV als
b ron
ĠGest opte
ĠLA VI
Ġcortic ost
ract us
Ġpro ductie
Ġhyp og
" ,
Ġsl ijm
me de
inf lammatoire
O M
Ġv asc
Ġademhal ings
Ġm ateriaal
Ġtra ge
Ġg ynaec
Ġg lyc
Ġapic ale
P er
erk ingen
Ġver loop
Ġre ductie
Ġle k
Ġs ol
ardi aal
it ting
m ar
in c
contin entie
as al
Over dracht
all i
Ġuitst raling
Ġomvat te
p art
ad ruk
ucc inaat
it atieve
A m
Ġser ie
ĠEchocardi ografisch
f ace
ber icht
Ġconcent raties
Ġhand matig
ĠO ndanks
Ġgel dt
Ġsamen ge
T rombocyten
Referentie datum
Ġh ard
Ġmet ab
w are
ĠUnivers ity
Ġe mb
Ġ(# ):
acht en
Ġontbre ken
Ġk op
Ġ7 5
ken s
Ġan astom
Ġgewicht sverlies
Ġtricuspid alisklep
A RT
Ġaan t
Ġmedi ane
3 3
Ġhoog ste
Ġf ol
at in
um or
ĠRe search
ĠT ri
pl itude
Ġp te
sie ve
Ġt ab
ĠData Lin
Ġ eten
Ġm sec
T TE
ge v
Ġess entie
zij dig
Ġconsol idaties
op nam
Ġall erg
idie ven
Ġproxim al
ĠN aar
ver band
Ġval len
ĠR PM
Ġ2 7
Ġhel ft
E V
P G
c alcium
Ġv rijdag
Ġvolg frequentie
ra ge
Ġop dat
C on
Ġhypertensie ve
antwoord ing
Ge sproken
Ġsp orten
O RI
m V
Ġtra ining
ĠJourn al
ĠTI MI
o und
le b
Ġcalc ificatie
Ġbloed stroom
H F
ĠHart frequentie
Ġaanzien lijke
in opathie
Ġdat abase
Ġont lasting
t ablet
ĠL O
C reatinine
Sh ock
ĠT DI
Ġisch emisch
f a
er icht
plet e
Ġlinkerventrikel functie
Ġpresent eerde
ĠVer wijzing
Ġd oc
CV D
A V
L R
Ġcon ventionele
Ġherken bare
fibrill atie
Ġper man
Ġonge compliceerd
D D
Ġbetre ffende
of ysi
se ss
Ġzieken huizen
Ġprof ess
it aal
ĠSt abiele
ĠA R
Ġdecompens atie
ĠF A
de s
Ġcirc a
oe s
Ġklepvit ia
Ġcollab eert
Ġradi oloog
H yper
ui ste
Ġc yst
Ġk eel
Ġt emperatuur
ĠG em
ear s
CA G
Ġresult eert
ij ft
Ġreden en
w issel
valu atie
Ġlan den
oc oc
Ġopeen volgende
Ġf L
Ġ(% ):#
Ġgeselect eerde
ĠR v
col leg
ant o
cent rische
Ġ#.# %
m aat
Ġaf gifte
Ġpijn lijk
Ġa kinesie
con structie
Ġmo di
gem erkt
Ġ q
Ġrug ligging
gew richt
Ġbehoe fte
d rempel
Ġ< #%
Ġverh oging
Ġverschijn selen
ĠE N
Ġhepat itis
Ġzeg gen
Ġon middel
ter min
nst ig
Ġex ter
ract uren
se erd
Ġter min
res ultaten
Ġ3 6
T oe
Ġv v
eren ce
ĠRU ST
Ġ[, ].
ou de
il atie
ĠG ed
Ġprognost ische
E cho
Ġvoorsp eld
p aste
Ġaan vankelijk
ĠNa dien
ust achycardie
v ia
Ġk arakter
Ġhor izont
Ġpro ject
ic lo
; #
Ġverdw enen
Ġn ummer
Ġendothel iale
Ġart rose
it es
ine uze
az epam
zo als
ul l
Ġthromb us
Ġverminder t
Ġven en
Ġeigen schappen
D G
w ater
Ġmodel len
Ġballo on
r d
Ġapopt ose
Ġbe handelaar
but amine
ik linisch
Ġaspec ifieke
T abel
st h
Ġaanp ak
Ġcomp uter
Ġuit er
v et
Ġpre st
me dic
Ġh anden
p k
Ġcon text
Ġc reatinine
Ġgecontrol eerde
alk ingen
P R
ĠAss oci
Ġeffectie ve
Ġ#,# ;
Ġneven bevindingen
ol aire
for atie
Ġten sie
Ġop ent
Ġech ografie
ĠP VAI
Ġdan wel
ĠT H
sc op
9 9
ĠT NF
Ġres on
ĠAc ute
i que
K linisch
ok ken
stip atie
ĠG ra
Ġont st
Ġw akker
ijf ers
Ġfunctie s
Ġref lux
ed ieerde
Ġvo eren
b rengen
ac ro
Ġlymfe klieren
Ġvorm ing
d heid
ĠJap an
gra ft
Ġsn r
Ġindividu en
Ver wijzer
ie len
is on
fin anc
ĠM ar
Ġasympt omatische
erie ure
ĠD O
da ad
Ġl id
Ġd raad
Ġsim vastatine
Ġ( /
oc ks
Ġcardiomyoc yten
tra ging
Ġf luor
Ġgesch ikt
ranspl ant
Ġwij ze
Ġna chts
ro e
Ġra dic
Ġvas o
Ġnauw elijks
Ġhart functie
A b
Ġ ol
Ġprincip e
Ġhart dood
mat ische
Ġmet formine
at ting
Ġle g
y ro
Ġelekt ronisch
s uccinaat
Ġgeb oorte
keur d
ten deels
l id
sp er
con f
end ing
Ġvoorspellen de
Ġ(# ),
Ġop ger
Ġgedeelt elijk
Ġtegen stelling
ĠSc intigrafisch
O pm
Ġver sie
Ġvari atie
Ġs witch
Ġsten osering
Ġen zym
Ġleid de
ĠC x
Ġop leiding
Ġp s
ĠS er
in ium
Ġdys lipidemie
al ering
Ġfo et
Ġl at
Ġdi er
L T
Ġmogelijk heden
Ġz iet
compli ant
bouw en
Ġbe weging
ĠM aar
sc and
Ġcardi ac
f ase
ĠD uit
form atie
ĠSoc iaal
3 7
C o
ĠO HCA
Ġasp irine
Ġritme stoornis
bre uk
im us
Ġd hr
se s
ĠIn it
00 01
der daad
Ġ6 5
ĠgeÃ¯ nduceerd
bal ans
ge s
Ġ#% ).
Ġ#-# ,
Ġd ors
iner es
ĠAmer ican
Ġuitkomstm aat
v oeding
ĠAlle en
ĠK ort
Ġpre mat
ul ose
gest ief
Ġnut tig
ĠD yspnoe
ep hal
N aam
Ġopge hoogd
st ent
Ġg lad
% ;
ĠBel angrijk
er ings
Ġcomplex e
ol ip
Ġex p
ct us
Ġinfilt raten
J M
Ġw ijst
ĠA VA
Ġgoed ge
Ġtev reden
Hart falen
Ġcereb rale
Ġ( ),
in n
oÃ¯ de
Ġend oc
atter y
uc ocyten
Ġresult eerde
Ġu ter
be weging
âĢ Ĭ
SA ID
Ġrout ine
at ar
ĠIC C
Ġw ell
b v
sch ema
ĠNa ast
Ġe mot
Ġaritmie Ã«n
ĠCT O
ac y
id s
Ġp ocket
Ġver deling
Ġin gesteld
Ġ(#-# )
Ġon rust
Ġonderzocht en
ste king
be elde
Ġeven eens
Ġcell ulaire
g olf
Ġmoe ite
Ġp ract
Ġben adruk
Ġcoron ari
he ath
acht ige
Ġst uwing
sc reening
op ing
Ġverhoog t
Ġt rop
Ġb y
ĠEn kele
Ġk er
yp en
ov iew
Ġinf ect
T S
Ġreg ulatie
ijn s
men s
p atiÃ«nt
Ġna dat
Ġinter pret
Ġzw ak
diagnose s
Ġlong vaattekening
âĢ Ĳ
Ġmac ro
L ab
Ġtr iglyceriden
Ġvoorsp elde
Ġlong venen
ac ed
Ġmonitor ing
Ġs oorten
L eeftijd
> )
Ġb ody
Ġrec idieven
Cont rast
Ġpre c
Ġdig oxine
ic k
Ġh eer
ĠS amen
Ġbet ablokker
Ġto elat
ra den
Ġsubc lav
Ġwerkzaam heid
w a
A p
dens ity
it air
m y
u al
Ġa VL
es ium
Met oprolol
F luoroscopie
if eratie
_ _
Ġtek st
Ġaf spraken
ori asis
Ġonderwer p
Ġop in
g an
Ġbed roeg
Ġsy mp
ĠW or
c onclusie
Ġbestude erd
Ġbe wegen
Ġvo eten
Ġge test
ĠR OS
th eros
Ġman usc
eer baar
ĠG E
li ct
kn own
Ġvrouw elijke
iet y
Ġexperiment ele
ui zel
z uren
quis itie
Ġmedi aan
Ġact ivering
Ġgecorrige erd
ĠCh ronische
Ġfysi ologische
b ased
Ġev ident
reg ulatie
b lin
Ġb and
afhan kelijk
ri st
Ġtoelat ing
Ġenkel s
Ġafge beelde
Ġp omp
Ġdie p
Ġbe etje
ĠM C
ĠZo als
Ġp ort
i ste
ĠMed ische
re chts
ĠB SE
org anis
en c
dig de
nem ers
ot rop
ĠSV ES
Ġnier insufficiÃ«ntie
Ġt elefoon
ĠA blatie
dien ings
Ġlip ide
mon sters
di astolische
Ġged ocument
Ġval iditeit
Ġst re
P T
Ġno ch
Ġm w
di abetes
Ġover matige
ger uis
Ġabdomin ale
ĠI om
Ġm RNA
Ġlas ix
colleg iaal
ĠVis ueel
Ġresp on
met abol
Ġk las
Ġreactie s
ac erb
ze em
Ġbiomar kers
N L
Ġprob eren
St andaard
Ġad viezen
Ġele ctieve
Ġver deeld
vorm ige
clus ion
Ġf ace
az ard
g reep
op perv
ĠCH D
m ogen
Ġf er
0 2
tre k
in em
J x
E G
Ġc arcin
' .
Ġs elect
Ġel ders
Ġpri m
st ress
ĠP S
c ons
k ap
ch ym
s om
Ġm amma
op or
EN S
cht en
Ġwissel ende
Ġr and
ĠgeÃ¯n form
Ġactiv atie
Ġverpleegkun dig
yste ctomie
Ġf lu
ĠA s
0 3
ĠRe delijke
Ġaf ger
pro c
Ġmicro vasculaire
Ġcom pressie
Ġverh ouding
yl ering
Ġrandom ized
sl and
Ġf ist
em d
Ġwissel end
Ġpart ner
Ġc ategorie
Ġip v
C l
N V
Ġzeld zame
L aat
Ġv le
Ġopt im
c un
Ġinter val
Ġsubst raat
Com plicatie
Ġgem akkelijk
Ġmanusc ript
Ġopt ie
Ġ2 9
ĠN ational
Ġc reat
tij dig
ĠS at
ĠSt udy
Ġbetrouwbaarheids interval
Ġ iliac
Ġassoci aties
Ġop gesteld
Ġondersche iden
2 00
ion eel
Ġele vatie
in urie
Ġt amponade
ĠVer hoogd
Ġantil ichamen
Ġarter iÃ«n
Ġat orvastatine
Ġher hal
on c
or y
ĠE jectiefractie
Ġplaatsv inden
Ġ us
ĠD rie
Ġwe et
struct uur
Ġbev order
Ġt ransplantatie
Ġmar ker
Ġv ue
b ele
m and
ĠHo spital
act e
an deren
Ġinit iÃ«le
Ġpath ofysi
Ġthuis medicatie
Ġhyp ot
Ġafkomst ig
ath ische
la sie
Ġvoldo et
Ġcon c
Ġongunst ige
pro tocol
Ġkw ets
se d
Ġs mal
or d
Ġan amnestisch
+ ,
ĠZ D
ate ur
H eeft
Ġvoed sel
m uizen
Ġd ossier
Ġkw amen
ĠAan bevel
V an
orad isch
ĠS ign
Ġsl otte
z ins
i gende
ĠR ep
B lood
Ġart eri
ul en
ĠL E
houd ing
ĠOrg anisatie
Ġ it
ĠB ep
ĠMil de
Ġsluit ing
is olatie
Ġc ross
Ġzo on
Ġvent riculair
u aal
ati ble
bl ock
Ġob structieve
Ġâ ĪĴ
Ġdiagnost isch
Ġricht ingen
ĠK l
Ġmin st
ĠUnivers iteit
zet ting
Ġs cler
rog lycer
I nt
ineres istentie
ĠD an
Ġab domen
in ol
Ġtum oren
im vastatine
Ġmedi a
oum on
Ġam iodarone
gemiddel de
ĠLicht e
er ger
de c
syn chron
ot ter
oxic aties
P lus
geb ouwd
Myocard infarct
Ġisch aemie
Ġt w
n ess
Ġneur ologie
ral ings
Al cohol
Ġaangeb oren
Ġaan vraag
k ed
in tens
Ġp itting
7 3
ĠgeÃ¯ nduceerde
h ypertensie
Ġgest uurd
Ġgunst ig
Ġlong functie
o os
alc ificeerde
Ġaf leidingen
Ġrust ige
lang s
ot isch
Ġorthop noe
ĠGe gevens
ub atie
p ost
Ġprofyla ct
Ġves iculair
il isatie
alli atieve
Ġcons ent
Ġ> #%
Com plicaties
proc oumon
ĠR et
ist offen
Ġj uiste
Ġhorizont ale
Ġr h
Ġ[ ],
chocardi ografie
:# -#
TI A
m Tc
M DRD
Ġles ion
in et
oon plaats
Ġbehouden s
sc intigrafie
ĠV andaag
Ġven e
Ġbi opsie
ĠA N
ic aal
ist ollings
ste un
P W
ĠVer denking
Ġgeb oren
Domin antie
roglycer ine
he im
bere ik
m icro
Ġge oper
ie ure
ĠR out
ra c
ĠM y
iet en
Ġhep arine
itu d
cht ing
ĠN SAID
ĠK omt
ĠUn known
ĠC MP
gan kelijk
iv al
Ġgoedge keurd
ĠLaat ste
ĠAr ter
Ġi le
Ġover t
om eg
Ġverslechter ing
Ġlangdur ig
Ġveroorzaak te
ver zeker
ĠK NO
O D
ver st
unction ele
Ġp ast
Ġuit ste
Ġbe val
Ġher vat
Ġdelay ed
Ġkle ur
ĠHuis artsen
oel de
um b
Ġt ien
Ġam ylo
Ġincomp atible
ĠBij zonderheden
Ġtechn ieken
Ġwij ten
Ġ#-# %.
ger y
- >
Oper ator
Ġop Plus
Ġint Operator
ĠN eu
b eerd
Op drachten
y ear
Ġop gemerkt
ĠF urosemide
T ext
Ġple ister
oe pen
ic ip
positie ve
activ atie
Ġ ram
ĠL o
Ġwil le
i Ã«nt
Ġbeeld kwaliteit
Ġp rakt
om vang
Ġk ru
Ġbe wezen
ĠDev ice
Ġlaboratorium onderzoek
Ġp ak
R itme
me ch
Ġechocardi ografisch
6 7
inst antie
ĠUitgebre ide
ĠRele vante
adol inium
Ġbeg rip
8 5
ĠH ulp
ĠA H
Ġcomment aar
ff er
i asis
Ġangi ot
ĠAmer ik
Ġtoekomst ige
ĠMet h
Ġdomin ance
ĠMon itor
ap ping
ĠVals alva
Ġremm ing
Ġro ok
stel sel
Ġprogressie f
Ġ( =
Ġover igens
Ġt wijf
Ġlast ig
G S
Ġpro cedures
ĠP SA
Ġglob ale
Ġvermoe den
Ġonderste und
Ġvit ro
opath ische
Ġover gang
Ġweten schap
Ġparox ismaal
per centage
Ġdetail s
Ġe m
Ġgerandom iseerd
Ġfunction eel
gro e
ĠW est
Ġbehandel end
Ġcirc ulatie
Ġplot s
ter mijn
Ġwille keur
ac arcinoom
Ġcons ensus
Ġchild ren
at abase
oe f
Ġepic ardiale
Ġdaarop volgende
sequentie s
Ġzeker heid
Ġpercentage s
Ġreg ulair
Ġgew oon
lan ke
Ġinit iatief
Ġgeselect eerd
Ġpalp abel
ĠP rof
Ġide e
sess ment
Ġr Ã¶ntgen
ou ten
Ġp ob
Ġc la
Ġwee kend
ĠLe ver
-#> )
Ġb isoprolol
oplos sing
ĠD is
ĠA theros
ĠgeÃ¯n diceerd
Ġcon st
Ġm M
Ġhe art
ĠCK D
ch emie
st adium
top pen
t on
Ġpresent eert
Ġondersche id
ĠStudie s
u ctie
Ġatri aal
Ġre animatie
Ġvor ig
X T
Ġsupra ventriculaire
zorg instantie
Ġmetast asen
Ġinspanning stest
am enteus
Ġmacrof agen
L M
ent an
Ġ(# /
ĠE v
besch adiging
Ġdie pe
kin son
cel carcinoom
Ġprol aps
U C
acht ig
Ġverb re
ĠM eest
qu Ãª
Ġcent rum
Ġbic uspide
on aat
rot ische
ĠSc ore
ver di
Ġge sla
Ã¶ rd
ĠIn stit
Ġsch erp
Ġinst rument
in te
ĠCh irurg
ĠD en
ar itmie
Ġherst eld
ĠAt ria
Ġm embraan
# =#,
or st
Ġze ven
Ġhartritme stoornissen
Ġgez ond
yre oid
Ġver na
Ġb rad
ĠLA B
N even
Â ®
Ġopin ion
Ġover weging
rel atie
Ġpro these
Ġsle chter
Ġa VF
ablok kers
Ġout com
ĠSl ank
T n
Ġj icht
Ġor der
z ine
Ġconcent rische
Ġverkrij gen
Ġtoe val
Ġsch rift
Ġfib ro
Ġpath ogenese
Ġdo wn
Ġvoorsp eller
men d
ĠB attery
a i
n ov
Ġmeet waarden
zy g
Ġslag ader
ĠAf deling
Ġin s
ĠSt ichting
Ġherh aal
di d
ro chl
og roep
I C
mat isch
Ġp ulm
ĠS y
): >#
U CH
b radycardie
Ġ# ]
pla stiek
Ġh a
Ġ3 8
Ġp m
iv eerd
Ġpalpitatie klachten
schapp elijk
Ġ#% ;
ĠP CR
j r
Ġmig raine
ĠAt ypische
ia zide
V aat
. [
art erie
Ġge cont
ĠTh oracale
Ġbi as
Ġ#.# ;
Ġmolec ulaire
L P
Ġf em
Ġpri k
l ering
Ġintrac ran
h el
Ġv ing
V S
Ġm at
pro te
Ġl ijst
ub eerd
Ġmy el
Ġver wijs
pl o
Ġmultidisciplin aire
ĠAssoci ation
Ġv irale
ĠRout ine
ĠD oppler
Ġontslag brief
Ġcrep itaties
Ġechtgen ote
f us
3 1
moe der
Ġi di
Ġ3 1
y ct
Ġgecombin eerde
ĠM E
os a
Ġ- ,
Ġnuchter e
Ġb atterij
Ġab ces
Ġzorgverlen ers
Ġer yth
ax atie
Ġmoe iz
ĠÎ ±
e GFR
rie p
ĠgeÃ¯sol eerd
Ġz achte
Ġet h
Ġsamen gesteld
ogen iteit
Ġzelf standig
um ato
Di agnose
ricuspid ale
it aire
Ġnog maals
gevoel igheid
pende ctomie
Ġdaar mee
hyper tens
Ġp mol
quÃª te
Ġb oog
ju vante
P O
im a
Ġdaar door
ure us
Ġdrug s
Ġmi RNA
h eer
Ġdoorge maakte
Ġger ookt
fici Ã«ntie
Ġg adolinium
Ġex tern
oft ware
4 4
: -
undel tak
m ate
val vulaire
ĠC an
em s
ag eren
Ġro de
ch ec
Ġet c
ou nt
in name
licht ings
ĠSten osis
ĠGlob aal
sc ap
Ġvoor ste
Ġd ragen
esc entie
aar ne
Ġant woord
Ġbevat ten
Ġnit raat
R ec
ĠS lanke
Ġk ern
AL AT
ater al
Ġmyocardi um
uit slagen
Ġo s
gem edieerde
Ġmicrog ram
an ke
Ġster f
ail ure
ĠS G
asal aat
Ġar g
Be handeling
Ġvloe istof
Ġnorm al
omet rische
spro blemen
Ġh ol
Ġdrin ken
ĠR NA
Ġin houd
Ġtel emetrie
Ġprofyla xe
uur t
Ġh an
es cent
Ġc ort
Ġver onder
] /
Onder zoek
gen en
ĠD C
3 9
Ġtransc ript
Ġy ears
ot rope
i ro
Ġvoor heen
Ġbesch ouw
aando eningen
Ġp se
Ġvoorsp ell
Ġvak antie
Ġdik ke
ĠG ec
ĠVer hoogde
Ġw ant
m Gy
Ġzw are
Ġ#;# <
Ġrecept ie
Ġof wel
Ġaf stand
Ġb act
Ġsp ect
Ġgl omer
clu der
ar ly
mat a
ente gen
: |
ĠA st
Ġbe wegings
Ġgecombin eerd
ĠCP AP
i an
Ġt hans
ĠD E
Ġor gaan
Ġcrep iteren
Ġopnam es
di abet
Ġsc ores
In dien
ĠK inder
een komst
Ġonge compliceerde
ont steking
P P
min ste
C lopidogrel
of ol
ath ologie
Ġlead s
ĠPT CA
k week
ĠIn di
Ġleeftijds groep
Ġsep sis
ĠIm pl
lu en
Ġver vaardigd
Ġc arcinoom
Ġdun ne
Ġsympt omatisch
p os
4 8
STAT E
Ġverwijz en
form ed
Ġin ductie
Ġinf usie
Ġin plannen
ĠSc reening
Ġsh ocks
Ac etylsalicylzuur
Ġbep aling
art er
Ġextrasyst olen
Ġir reg
yct urie
suff ic
ĠM icro
ĠHart falen
bla den
ĠBe ide
ĠS e
ra vastatine
Ġh inder
x tra
Ġondersteun en
sne de
Ġie dere
ele vatie
Ġcom par
ĠRes ultaten
Ġsubling uaal
p atient
er ve
ĠR W
st ap
ĠgeÃ¯sol eerde
Ġf ac
Ġcent raal
Ġsyst olisch
ĠVer schillende
Ġvoor zitter
ĠMV P
ĠCA R
Ġsch rijven
iÃ« mie
Ġherzien ing
ĠE L
Ġle kkage
ĠZo wel
c irc
Ġnier ziekte
Ġbesl iss
pro ces
Ġz elden
os c
Ġv i
Ġexper t
U N
A ir
Ġdi verticul
y es
Ġop drachten
Ġd uring
per spectief
Ġac quisitie
Ã¯ d
Ġdaar voor
ĠR IP
Ġge spec
ĠM id
ĠM RA
ĠOp merking
Ġ(> #/#
at rie
ĠElekt rofysi
CM P
Ġgegener eerd
as me
v irus
z in
ĠPol iklinisch
schat ting
Ġne on
oe pel
Ġm ent
men op
Ġger uis
ijf heid
Ġo ss
Ġstruct uren
Ġcir rose
Ã ¼
ĠIg G
wer kend
Ġdou bl
n et
Ġdys f
Hyper cholesterolemie
Ġ3 2
Ġsubclav ia
Ġmeld de
2 01
ĠE GFR
ĠN eg
Ġtrans m
Ġangiot ensine
Ġonbe kende
Ġble ven
Ġsept ale
Ġprecor diale
ra ction
Ġvoor komt
Ġn as
au ze
Ġcommun icatie
es se
Ġc l
Ġ# (#)
Ġgro tendeels
Ġuit val
ro de
ĠR T
laag de
ie pen
b eg
Ġhersen infarct
ess ant
Ġinsul ineresistentie
rofie len
ĠHier na
H oe
ist ratie
c yt
n ucleair
Ġv irus
par aten
ĠH AS
Ġ( -
duc eerd
oment eel
Ġkun st
in vasieve
st re
Ġep idemi
lo os
b p
ĠB M
Ġdik te
pers oon
ĠN on
Ġ#,# .
er ingen
geb aseerde
yreoid ie
Ġonderlig gend
Ġc atheter
Ġmil j
Laat st
s or
Ġber ust
Ġ5 5
Ġtromb o
Ġsubtot ale
Ġpro fiel
Ġdefin ities
Ġdilat erende
Ġadvis eur
Norm aal
Ġsamen werking
Ġmetab ool
as p
k op
Toe gang
reactie f
c arb
Ġter t
Ġz on
Ġt ypisch
bla d
imm uun
Ġdiagon aal
o versie
h en
Ġn amen
z i
Ġtijd stip
cl ip
Ġble ken
den d
iv ity
ax on
Ġst rain
Ġleuk ocyten
Ġre umat
vo ering
Ġgeoper eerd
Ġsl ok
Ġtij delijke
Ġlong itud
Ġaort ab
Ġz us
Ġlum en
Bij zonderheden
Ġindi rect
ĠAm iodaron
d urende
Ġt ere
Ġanastom ose
AG B
int ie
d s
Ġ#,# ,
4 3
Ġs en
ol sel
SP ECT
Ġvoor gesteld
ged rag
atar act
asalaat calcium
onder dag
Ġbed rij
Radi ation
Ġlinker hart
intest inale
ĠSoc iety
ĠE erder
se ction
vel op
Ġtach yc
oen ame
antwoor delijke
Ġrespir atoire
Ġam p
I k
j ust
ific ante
Ġint ro
ĠC lopidogrel
Ġver zeker
ĠL an
ĠH a
Ġaf grens
es l
Ġanter ol
Ġhypot hese
Ġaange meld
Ġt it
functie s
v r
Ġmal igne
Ġh aal
Ġf it
I R
NO AC
dil ol
Ġwaar mee
ĠO rale
um ptie
Ġreview s
os ociale
US IE
ne ur
m ak
M eer
indicatie s
G R
fact en
Ġreson antie
Ġlok aal
e chn
Ġonder staande
mp edantie
v eld
be se
im um
ĠAS A
Ġdepressie ve
at ing
Ġtra c
er nstige
ot ricuspidale
Ġbif urcatie
Ġlinker atrium
ĠR est
itie el
ĠM ET
Ġcontrol led
ve dilol
Ġpro duc
hyd ratie
ĠP HT
Ġer op
id ose
T C
ĠBel oop
ogra ph
ĠB ur
Ġbor der
):# .#
k ru
dev iatie
{ \
ĠD I
ĠE ven
t etrofosmine
ĠW oonplaats
cl ine
ag greg
e kt
ĠPT A
al ijden
Ġuitge drukt
orb ide
ES A
h yp
ura al
ĠP e
z out
Ġvol to
ge gaan
Ġdetect eren
ĠU I
ĠInit iatief
8 8
Ġdo i
Ġect opie
anto zol
Ġvari ant
Ġhart catheterisatie
financ ier
ar get
Ġpsych ische
Ġmel an
ĠDD DR
Ġpatient en
ĠPost operatief
Ġk aak
Ġbijd rage
Ġorg anisatie
Ġgen etisch
schat te
sie k
Ġret inopathie
it atief
Ġo var
ple et
ĠP antoprazol
vent riculair
h and
Ġh iel
Ġin stellingen
ĠM M
ir p
be w
Ġmoe heid
Ġcom missie
Ġelekt rocardi
ĠVer dere
Ġaortaklep vervanging
ĠK N
Ġr ij
Ġang ineuze
Ġsterf gevallen
Ġf ietsergometrie
sch ien
ĠFor se
um ol
ĠR isk
Ġsch atten
opor ose
Ġbesluit vorming
d an
Ġd os
Ġeet lust
Ġic c
st u
ĠA ctuele
Ġpresent eren
i ater
k atheterisatie
Ġp r
Ġverbeter t
Ġbi opt
Ġcontract iliteit
Ġuitvo eren
M L
Ġgepro beerd
mol ec
Ġ( '
Ġven eus
M H
ver z
Ġgevoel ig
Ġ3 4
Ġte kort
ĠParox ysmaal
emb olie
ĠR ust
ĠVol gende
ik stof
ĠU p
Ġgelu kt
Ġs em
it raat
Ġgecon stat
ith iasis
i alen
over zicht
ĠDiagnost iek
it ive
AS AT
K A
in al
Ġver erger
ri ct
Ġfarmac ologische
illa ir
Ġhet geen
Ġro ute
spra y
Ġath er
par ameters
Ġhuisartsen praktijk
Ġop ening
el ingen
Ġna del
Ġs etting
Ġorthop neu
end oc
Ġre missie
s ituatie
w angerschap
ge pland
ĠC are
s k
Ġge activ
ri m
ic ard
Ġf alen
Ġbe do
g aat
, :
mid dag
ren zen
Ġhemodynam isch
Ġaangeb oden
Ġadip ositas
al april
Ġcirc ulerende
Ġon waarschijnlijk
Ġmyocard ischemie
Ġen zymen
Ġcontractie patroon
Ġoorspron g
Ġbio ch
W K
ĠH D
sp unten
Ġh s
Ġdoor gaan
ymf ocyten
Ġald aar
:# .
or ale
p ak
Ġpro spectief
Ġstern otomie
Ġvascul itis
Ġop gestuurd
Ġbetrouw bare
t em
#-# :
Ġmultip ele
ĠV A
cept ie
ĠOnder staande
3 2
ĠTA BL
Ġfinanc iÃ«le
Ġf rag
Ġp g
sec ret
Ġco ok
Ġverlen gd
Ġborder line
ĠDer halve
Ġdo butamine
Ġâī ¤
Ġsamenge vat
ĠCT R
ĠV E
ox y
pass ingen
Ġsystemat isch
l it
abil ity
Ġex acerb
Ġparox ys
ĠAd res
Ġveil ig
o del
Ġst olling
len g
Ġrespon se
ĠAchter grond
Ã« le
G lucose
Ġvoor waarden
Ġga ven
ĠWaar schijnlijk
ato ir
Ġlek ker
Ġborst kanker
ogra ft
Aandachtsp unt
ek ent
Ġar men
Ġweefsel s
R es
Ġdegen eratieve
ep is
ĠF U
Ġten minste
metast asen
ĠGen eeskunde
Ġstenose s
ok ter
Ġca ve
Ġver do
Ġtherapeut isch
6 8
Ġk oude
Ġf il
ĠOver leg
Ġbevest igde
irp atie
Ġgele id
ĠDuit sland
Ġline aire
op ten
f yse
Ġ ),
age keken
alp itaties
ĠG UCH
Ġcereb ro
Ġhand ha
ĠK CL
behandel de
Ġnier insufficientie
Ġna dere
ĠSp ort
Ġmon sters
T ime
de erd
komen de
Atrium fibrilleren
Ġar be
est hesie
6 4
Ġvert raag
Ġmoe st
Ġwaar om
sept um
ĠPers ist
ĠPro xim
d ys
Ġtij de
Ġing repen
ĠNo oit
Ġal ert
Ġvul lings
Ġindic atoren
Ġlipoprote Ã¯ne
Ġherhal ing
EN OS
ĠGe zondheids
ĠMe de
Ġ[ âĢĵ
D E
Ġlichaams gewicht
Ġsuper ior
Ġendotheel cellen
Ġwe ke
# ):
v andaag
Ġf la
ĠInt ra
D C
ĠIsch emie
Ġverwacht en
ch i
ĠM MP
:# ,
Ġzorg vul
Ġver erg
Ġbet ekent
oster on
ar ri
b reng
Ġont vingen
Ġgal blaas
ks el
, [
ĠRadi ologie
g lyc
Ġult ra
ĠVer apamil
ĠE C
ĠO x
Ġ ingen
p rol
D ES
st il
dienings weg
Ġmult ivariate
ĠEle ct
ro ute
ĠCh ina
ĠDataLin Q
T P
Ġpublic atie
Ġadd itionele
Ġ uren
Col later
Ġverander de
Ġremm en
ĠV rij
Ġan deren
Ġw ire
Ġon regel
W at
Ġuitbre iding
Ġverkal kte
p es
am eth
Ġver zorg
Ġvoor uit
ĠT ijd
w ard
Ġp ub
Ġsch atting
k et
ĠInter collegiaal
ver e
aren chym
Ġexter ne
N YHA
aar den
inter ventie
Ġrepolarisatie stoornissen
Ġont vang
st eld
wek baar
A ber
Ġpijn lijke
omeg alie
Ġpept ide
ĠJ A
" .
Ġre d
Ġa min
a ise
spect ive
gen eratie
Ġt icagrelor
ul f
ĠNe w
ĠF orm
blok kers
Ġhem or
ant il
Ġfibrill eren
Ġverst re
Ġv itale
ion al
lop end
ot t
r atieve
Ġd aalde
ĠI r
Ġg uidel
Ġgen oemde
a Ã¯ne
Ġk reatinine
oxic iteit
Ġp alliatieve
kl ist
Ġk ijken
ĠAnt istolling
re p
CA D
Ġ3 3
ĠC alcium
ĠAG B
Ġver anderen
Ġz oeken
Ġontde kt
rol yten
actie ve
Ġsig ar
Ġpersoon lijke
m cg
Ġontw at
pro fiel
k ten
Ġdood s
Ġge toond
Ġple k
ro mat
vrij e
Ġopt ies
Ġverwij dering
ĠS om
st uk
v asculair
pro ble
per vis
ĠU rine
cor onair
ut um
' )
Ġoes ofag
F urosemide
Ġexper imenten
Ġsub groep
rol oog
5 7
Ġpro v
Sc ore
model lering
Ġpar acetamol
ust ained
Ġrel aties
Ġm een
Ġzw ang
are se
w ill
Ġal bumine
Ġsystemat ic
ĠS ympt
Ġanti hypertens
ĠF ietsergometrie
Ġf ront
ĠI mm
Ġopmerk elijk
Ġcav otricuspidale
ĠV it
ig t
Ġdrain age
t ingen
kn oop
bev inding
Ġonmiddel lijk
ĠDe fin
Ġp il
Ġsin ustachycardie
y me
Ġex tre
Ġmar g
ĠAanbevel ing
u im
Ġgecor rel
Ġdiscus sie
Ġsn eller
m us
Ġechocardi ografische
ĠgeÃ¯ m
ĠE G
eft ri
Ġb lijk
fect eerde
Ġbenauwd heid
Ġcook ies
Ã¯ nen
odi alyse
bel oop
Ġaf bouwen
verla gende
t omografie
all y
Ġcompon enten
um ulatie
af d
ĠDif f
ra x
Ġpro min
ĠNieuw s
ocyt ose
inform atie
iver en
c ap
yp es
Ex tremiteiten
Ġrest rictie
ĠGebruik t
sper centage
is in
Ġontwikkel ingen
Ġt aal
N OS
ig uratie
I L
re igende
Ġcar b
Ġhe v
antwoor den
ot he
Ġb uis
6 9
a uw
r ent
Ġle dem
pro f
Ġgradi Ã«nt
Ġomge zet
TE XT
at riale
OR AT
Ġperfusiedefect en
as aal
Ġsla pen
ĠH eden
Ġverdi kt
Ġ are
Ġsch aal
ĠClin ical
it ivity
gest ie
ins dag
ĠPer ifeer
ĠK reatinine
v le
ys ma
Ġzin vol
Ġmi ctie
Ġb ased
Ġinduc eren
Ġbloed cellen
Ġneu ropathie
Ġlever ziekte
t g
Ġv als
ĠVer volg
Ġgene zen
ĠTe chn
antagonist en
Ġover slagen
Ġcom plete
at a
Ġcas us
B R
v ious
P atient
D oor
iet rouw
Ġgepublic eerde
Ġmon om
ĠIn jectie
Ġneu rop
re versib
Ġbevest igen
Ġn vt
F N
Ġz aken
cluder end
ĠEer ste
just ed
Ġintensie ve
ĠIn spanning
verd un
Ġz u
tail le
Ġvoorspell ers
Ġconcept richtlijn
Ġant icoagulantia
Ġbijwerk ing
L IMA
ic ulaire
bouw ing
C a
Ġeind punt
In gepland
sc ores
it s
isch emische
Ġvoor zicht
Ġuter us
Ġonderwand infarct
Ġin derdaad
ad a
ĠR ef
ĠDe c
metabol isme
Ġcolla geen
Ġtwijf el
ĠT ype
Ġminst ens
lae sies
ond yl
is is
Ġs m
Ġob stipatie
Z N
lo x
Ġt al
Ġbacter iÃ«le
ruppel s
Ġverb l
ĠKennis instituut
Ġgecorrel eerd
Ġc utaan
com pen
ĠArt s
Ġhier na
Ġonge w
- .
or ide
pl eren
gra mm
Ġgeconstat eerd
8 9
Ġident ificatie
iform e
ĠG ering
ĠToe dieningsweg
et al
Ġaut on
ult uur
itone ale
Ġkan did
sympt omen
olec alc
p orten
ĠS ur
suffic intie
ĠEr nstig
ĠH NP
er ken
V rouw
S TEMI
u in
ul ator
otrop ie
ĠCont rast
ĠVer gelijk
ĠT G
Ġ3 9
Ġk ra
ern aal
ĠGe schatte
ĠD VT
ĠGed urende
ĠWat t
ijk t
st herapie
Ġkw art
Ġingen omen
Ġge form
6 6
Ġp oeder
Ġzo veel
Ġin structie
or ect
Ġbloed glucose
Ġgep aced
ĠLe ad
os om
ĠP H
Ã¨ re
Ġgew enst
Ġinst ellen
Ġ#% -
n acht
i lep
bra ak
Ġad ol
all el
Ġp y
Ġcomorbiditeit en
Ġherh aald
Ġverb inding
Ġo est
Ġpro ducten
OR DER
Ġbe antwoorden
Ġap ixaban
Sch ema
Ġle zen
ar g
re sectie
Ġbe per
Ġo v
Ġm ater
om een
Ġaange vraagd
Ġw andelen
Ġ< #.#
Ġpanc reat
Ġprik kel
ien ce
Ġrel axatie
Ġdomin antie
Ġurine weginfectie
Ġbeval ling
ĠAtheros clerose
f actoren
Ġer f
ĠT elefonisch
ĠSten ose
oor th
ation aal
Ġabsol ute
ĠW as
ĠM omenteel
Ġge men
b io
Ġv oren
4 2
le ge
ver h
Ġbeschik baarheid
compens atio
A ctieve
Ġverspre id
Ġinf lamm
Ġlange termijn
Ġautor ijden
Ġgest oorde
Ġdaarna ast
Ġaut omatisch
ver klaring
neu ropathie
end atabase
Ġvoor gaande
Ġdoods oor
actie s
i ose
os omen
nam nestisch
Ġb u
Ac enocoumarol
moe id
Ġp H
ten d
Ġwe der
Ġcoronari alijden
Ġslok darm
ucle aire
Ġm alen
Ġse qu
Ġboven buik
+ /-
Ġ umol
Ġmamm acarcinoom
ĠV ER
woor den
ĠN et
Ġb aar
ORAT ORI
ĠEv idence
isin opril
ORATORI UM
nest hes
Ġgen ot
ĠG eri
P CR
Ġgerelat eerde
st o
Ġobserv ationele
ĠL id
Ã¯ c
ĠUit gangs
Ġben igne
N E
Ġver ge
Ġd onderdag
ac ine
Ġgen oeg
ul ine
Ġperman ent
ĠF unctie
Ġf iguur
ĠAan vullende
y steem
A M
werk ingen
w ijd
Ġl and
Ġhart toon
emmer ing
ge zondheid
leng te
Ġovereen komst
Ġerv aart
Ġinge vuld
In greep
Ġtub erc
k atheter
ĠPer indopril
Ġam plitude
Ġproces sen
Ġsig mo
Ġmitralisklep insufficiÃ«ntie
h n
in jectie
Ġpsychiat rische
Ġf ailure
D it
Ġbeen merg
7 9
ing le
h ang
7 8
j or
Ġregist reren
5 5
Opm erkingen
Ġsch a
Ġre age
ĠCM R
Ġmon ocyten
ralis klep
Ġcholec ystectomie
Ġbe s
rijk e
Ġne o
V ul
kin ase
Ġkomen de
S K
Hoofd stam
AT P
re erde
ĠIm plementatie
Ġna v
ure se
ui dig
ic ot
ĠF T
ĠW T
Ġletsel s
ĠInstit ute
romb o
be wijs
Ġma in
Ġrep resent
ĠB en
ch icine
Ġherst ellen
Ġren ale
ĠS JM
ĠS inus
Ġged acht
Ġtechn icus
le ad
Ġgelijktij dige
Ġrest enose
ug ger
neum onie
Ġinge zet
wijz en
H AS
Ġvlak ke
bi opsie
Ġtr ig
ĠVer min
Ġk week
ĠSt aten
Ġklep pen
ik te
ilep sie
C alc
e sp
Ġkamer functie
Ġlact aat
or pen
Ġwell icht
vallen de
Ġk ool
Âµ mol
4 9
Ġech ografisch
gen ees
m utatie
D NA
Ġzwangerschap s
sen s
Ġrout inem
Ġpre operatieve
Ġe qu
Ġbere kenen
Ġst ikstof
ĠD F
Ġtherapie Ã«n
vl st
Ġin ject
Ġgez et
ĠAc enocoumarol
Ġafzonder lijke
W H
Ġretro spectieve
ĠHoofd stam
sl ocatie
Ġrapport eren
ant s
ĠP AP
in delijk
ĠF iet
Ġo dd
Ġliteratuur conclusie
ĠSt ent
man agement
Ġtra che
eftri axon
Ġreversib ele
Ġpremat ure
d ossier
W ij
stil stand
ascul ar
ond ition
Ġsec ond
ID S
ĠAl g
opnam es
ijk omen
Ġsyndro me
Ġart h
ĠCont act
i i
-# ]:
Ġmitralisklep insufficientie
ĠC ox
Ġgedocument eerd
Ġf ractie
CL USIE
ĠC E
elect ase
oÃ¯ d
meld formulier
ens dag
v ir
k weken
j an
clude erde
Le ucocyten
ĠU SA
Ġk uiten
Ġmut aties
il is
Vaat lijden
ĠV erk
ĠM D
gel d
ĠH eel
den de
zet im
Ġen quÃªte
verdi kking
ĠEn ige
am ent
kun digen
Ġin vas
L O
ĠVeren igde
sp at
Ġps oriasis
Ġf lex
ococ cus
st ill
Ġautor isatie
Ġb o
I m
ĠBe handel
Ġge vo
Ġde f
Ġchron ic
et entie
ricusp ide
Ġplot se
Ġvoor gelegd
ĠF ors
mech anis
Ġc ran
ie ert
Ġduizel ingen
Ġaange d
gem eld
at isch
Ġinfer oseptaal
ver wijzing
Ġ(# ,
Ġw an
Ġverder op
ĠA K
M M
bij voorbeeld
Ġess entieel
Ġst offen
Ġg ram
Ġprofylact ische
Ġhandha ven
Ġh andelen
spra kt
st oename
Ġmal aise
Ġjaarlijk se
ĠHel dere
Ġpre di
Ġtromb ocyten
ĠV ia
ĠB ilirubine
Ġverzam elen
CH O
oprote Ã¯ne
ralings dosis
Ġd omein
Ġex tremiteiten
Ġ[ #]
Ġmult ic
aritm ica
og ingen
M emo
Ġgeob ject
Ġvariab ele
Ã« in
Ġbescherm ing
Ġuit sluiten
kom ing
Ġst olsel
ĠW ond
Ġmagn etische
Ġcardi op
ef al
Ġintens ive
os us
ĠTr iglyceriden
ĠM ESA
Ġinter mitt
Ġsp ieren
Ġover dag
Ġg riep
Ġbij ge
ff iciÃ«nt
{ #
Ġden ken
ĠR FR
Ġge laten
ĠCT C
f eb
Ġoperatie ve
pro duct
Ġprop ofol
Ġgest opte
M ax
Ġges ugger
otherap y
or a
Ġstent plaatsing
ĠBe oor
t achycardie
Ġsigar etten
Ġen tre
Ġsoc iaal
B ilirubine
ran te
ine se
var oxaban
em oglobine
Ġver v
Ġw h
Ġ% ,
Ġec zeem
fer ase
ĠD rug
Sp ironolacton
Ġk eren
ĠDer mat
Ġdruk ken
u deren
ĠB eg
Ġul cus
Ġanter ieure
mon itor
ĠN ierfunctie
Ġant it
stand aard
ĠZ elf
sch al
ĠOn c
ĠpatiÃ«nten perspectief
Ġaan leg
ar r
ele kt
ĠNieuw e
ĠG astro
Ġk reat
OR A
Ġspecialist en
Ġin leiding
Ġhyper th
regel s
Ġeven wicht
â ī
Ġh y
Ġhorm oon
Ġaortaklep insufficiÃ«ntie
P AP
Ġdel ier
Ġdub bele
zel s
jaar s
I U
ĠN ier
Ġonregel matige
m orgen
on nee
ĠN C
Ġh oor
Ġklein er
eth er
Ġth v
iv ar
BI O
E K
E er
iÃ« r
St udie
di st
par atie
Cont rol
Ġstern um
ĠNO AC
O hm
ĠBe iderzijds
Ġpreventie ve
t a
Ġvol um
off ie
oe stand
oorth iazide
N o
Ġlog istische
istollings beleid
t ri
Ġcorticost eroÃ¯den
h am
4 7
Ġhals venen
in stelling
b ruik
Ġhet ero
Ġachter grond
ĠS ept
er bumine
ĠE V
Ġcon sequenties
Ġnadel ige
we st
Ġbe merkt
Ġverdi kking
5 3
Ġv raagt
ĠB SN
iat rie
Ġb lin
Ġglad de
financier d
lyk emische
el low
Ġhypox ie
ium zuur
t i
adem ing
ĠM yoc
Ġbegrij pen
riter ium
j aren
sten en
l ingen
Ġru ptuur
ĠPerfusie defect
Ġlinker b
Ġdis per
ĠRisic oprofiel
at al
Ġne iging
Ġg renzen
ĠD ist
C alcium
Ġbal ans
Ġcytok ines
n u
ĠL ip
Post operatief
oid ose
Ġre constructie
ĠAf wijk
ged ragen
bum inurie
ment en
Ġe mp
h ou
Ġc ov
Ġch emische
ĠPulmon aal
ĠC irc
ĠF ys
Ġsup pletie
Ġoppervla kte
ĠEx tra
Ant icoagulantia
ĠG LS
Ġdefin itie
clusie f
Ġbla uw
Ġboven dien
# ).
T T
voor stel
ic illine
conf lict
ĠI E
spann ings
O H
Ġgesugger eerd
ĠA RV
w ar
z epam
. ).
pl at
pl open
Ġstap pen
il et
g GT
Ġaan to
P antoprazol
ĠS C
Ġopger oepen
Ġjaarlijk s
ĠD us
oph ag
Ġfamilie leden
Ġoper ateur
orac aal
Ġ(% /
tij dige
8 7
G aat
verander ing
Ġbez waar
ĠT ra
8 6
Ġvoorwand infarct
Ġerg o
ati er
Ġtrad itionele
Ġint ram
ĠGenees kundige
ĠAmerik aanse
Ġplotsel ing
rochl oorthiazide
Ġeer stel
Ġro okt
Ġie mand
op ed
Ġc lass
Ġzich zelf
N ame
Ġd ens
Ġna am
Ġdoor snede
mm en
Ġgen orm
Ġinfectie uze
ĠSA M
Ġmedicatie overzicht
Ġverschillen d
jectie ve
):#.# %
Ġhem odialyse
Ġbezig heden
R Cx
Ġwegra king
ij nt
Ġsp oedeisende
r ig
gressie ve
ĠLAB ORATORIUM
Ġintens iteit
Ġdifferent iatie
ĠS la
f ib
schijn selen
ĠM Y
= #)
Vrouw elijk
ĠPro tocol
ĠMeer dere
ĠWand be
Ġmeer der
ent ry
Ġpat ch
Ġdon or
ĠR D
ra clip
Ġf ir
Ġle ek
ĠHier voor
Ġmilj oen
oscop y
Ġne em
Î ¼
ĠH B
ĠD ruk
ĠF DG
ĠKle ine
la ats
Ġop wekbaar
rum enten
Ġer ger
Ġst adi
or ylering
Ġcollater ale
T elefoon
Ġarg ument
ul ation
sul ine
sp irine
i ri
Ġu reum
Ġbiv entriculaire
Ġentre sto
Ġma akte
emb ran
ĠA namnestisch
Ġhe alth
le ver
synchron ie
Ġter men
Ġgel digheid
hyd rox
eg d
Ġweer stand
rad ine
Ġlongitud inale
lichtings gesprek
Ġd ox
m elden
Ġdiagnost ic
la ps
P ressure
Ġtherap ietrouw
ĠPVC s
Ġk orter
Ġgec alcificeerde
R ES
am s
oor den
entan yl
la den
COR BIO
Ġantihypertens iva
6 3
Ġm usc
Ġreg uleren
ien ummer
Ġhier over
is m
Ġpract ice
Ġnef ropathie
del ings
hol te
Ġb ack
alk score
Ġg rens
ĠT ur
blok ker
Ġverwij de
Ġmetast ase
St atus
Ġfiet stest
ĠÎ¼ g
Ġw ijd
re d
Ġsympt oom
Ġvoel de
Ver wijz
Ġdev iaties
Ġme is
ĠInt oxicaties
ĠMedic ation
P lat
Ġint ake
Ġv aste
ĠL ae
Ġer voor
ĠM AP
Ġtoe geschreven
ĠF er
Ġwegra kingen
r ologie
Ġh ouding
Ġbeg repen
u ff
Ġs introm
Ġh azard
or ig
ĠV B
velop ment
Ad justed
Ġsp utum
Ġh onden
un nel
Ġantil ichaam
Ġinter stit
Ġge financierd
Ġge oc
schrij ft
Ġoplos sing
ĠT CH
ro geen
Ġpop ulaties
Ġwijz end
ĠC F
Ġverto ont
Ġz at
ĠL esion
- :
rog ol
Ġgeval ide
PA R
Ġaanget ast
us us
ĠP K
Ġvet weefsel
oh ist
Ġri varoxaban
ĠW ilt
Ġsele ctieve
Ġgeble ven
Ġm uc
alg ie
oc y
Ġs usp
U K
Ġen ter
ab radine
um ul
7 7
ĠKwaliteit s
z tb
Ġcor resp
V E
Ġop vallend
6 2
ĠDe compensatio
Ġper foratie
Ġorig ine
Ġj et
Ġbol us
is ol
Ġaanget roffen
Ġuit zonder
Ġgek wee
ĠLA A
Ġscho ol
L esion
i om
Ġbe schrijving
ĠCRT D
Ġscho on
Ġleveren zym
ĠB SA
N ucleair
Ġleef stijl
ĠK on
el uting
en e
opperv lak
Ġz ag
Ġk auw
Ġvoor bij
Art ikel
ĠAct ueel
al te
ix ed
V oelde
vol le
all ergie
Ġrichtlijn ontwikkeling
ĠM G
g l
Ġmo der
undeltak blok
vo et
lop ende
Ġvo erden
d ate
Ġnucle aire
g radi
n aar
b t
Ġver ouder
Ġbloot gesteld
mmet risch
Ġnierfunctie stoornissen
Ġvoorbere iden
st een
Ġre e
m ateriaal
Ġr ing
Ġlumb ale
ĠWerk groep
xim ab
Ġverk alkingen
t jes
Ġvoorlop ig
Ġhum ane
Ġregel geving
ĠR S
Ġin vullen
Ġwar me
Ġonder kwab
Ġaant onen
Ġaanp assen
ĠH ist
Ġma il
scan de
ĠOr th
y rid
Ġap o
Ġverb onden
Ġim aging
Ġ( ;
ĠEx pectatief
Z ij
Ã« fficiÃ«nt
ĠRW BS
Ġprol iferatie
M R
Ġp ain
Ġlichaams beweging
Ant istollingsbeleid
c i
Ġd insdag
te Text
] ),
ĠR egist
ĠNS VT
ĠS te
Ġlymfe klier
ĠDe el
Plat teText
atri x
gen eratieve
Ġgeleidings stoornissen
Ġo bese
Ġgeval verslag
T rans
om eter
Ġdro og
ĠControl es
Ġgevo eld
Ġk uur
Ġbest eed
Ġoptre edt
ĠO f
ĠG roep
Ġover genomen
Ex tra
AP T
ĠAI OS
oÃ¯ dose
Ġst ijfheid
Ġ7 2
Ġbescherm ende
con omische
Ġo a
Ġmedi ale
c ar
LV H
Ġremm er
ju vant
Ġpass ag
Ġto el
ĠSec ret
Ġvoor schrijven
Ġclin ique
test s
Th orax
V asculair
Ġra ad
Ġvoorlop ige
or al
Ġin nemen
le zen
diagnost iek
Ġant icon
Con clusion
Ġuitein delijke
ver mogen
nt h
ma ken
Ġzenuw stelsel
E chocardiografie
Ġz one
ivar oxaban
Ġs elokeen
Ġj eu
or alis
Ġvol tage
spect rum
H uis
rien e
Ġ4 2
Ġden kt
Ġtijd s
ĠPri ma
Ġbe gele
age d
Ġvent ric
Ġonge acht
Ġgewicht stoename
ĠS u
Ġlymf oom
g lykemie
Ġd okter
uw en
lass ificeerd
ĠC LS
w eten
Ġanterol ateraal
A scal
Ġverlen gde
ĠWor dt
t abel
Ġmon ster
EN T
Ġsub s
Ġaltern atieve
Ġsign alen
Ġaanwez ige
Ġinterpret atie
T ot
k eerde
c alc
Ġnier falen
ult aat
ĠLae sie
ige en
pleren on
ect ine
Ġs es
Geb ruik
Ġregressie analyse
uit slag
u cht
Ġb ruik
menop auz
al a
BB B
ĠP le
rit ine
E le
i ance
Ġkwant ific
4 6
Ġneur ologisch
Ġgebeurten is
Ġbaar moeder
Ġan om
Ġinf luen
ule ert
Ġa ureus
elijk tijdig
hor ende
cun es
Ġgebruik elijke
Ġbel afspraak
ĠT och
ben en
Ġl ym
ĠX T
sc intigram
Ġ(#.# )
Ġf out
ĠCON CLUSIE
Ġadol escent
ĠB Ã¨t
Ġheter ogeniteit
Ġc ost
Ġt ong
m ut
ĠVAS C
Ġex c
ĠL GE
Ġgeble ken
Ġb ijkomen
Ġafge zien
in itis
Ġ#% ),
an ge
st anden
od g
ern ia
Ġaan vrager
ĠI K
Ġap paraat
Ġanest hes
Ġvoor zien
ograph y
ĠV ocht
Ġmeen emen
ĠK a
ine zuur
Ġkwant itatieve
ys eren
oxic illine
ĠG G
on betaald
T ractus
as men
ch ef
Ġmis schien
Ġdou chen
Ġvorm t
Ġkw al
Ġsitu aties
Ġuitvo er
Ġsp oortje
Ġn arc
Ġsur gery
Ġvrij will
ĠToe passen
ĠL aag
Ġop staan
In lichtingsgesprek
d ar
ge assoc
Ġsignificant ie
Ġuitge voerde
Ġass istent
Ġdiast olisch
ver te
Ġle ft
ĠD ag
Ġ#, <
Ġâ Ĩ
opp eld
ant rum
ĠA AA
Ġpar as
ĠRele vant
Ġ#-# %,
Ġbij be
B oston
Ġkl ier
Ġobstructie f
ĠLe iden
ĠT ricuspide
oplast iek
ri but
Ġal len
ĠEurope se
rij s
Ġoss ale
Ġpla st
Ġsc reen
Ġvoor lichting
Ġsub t
te it
ĠT ambocor
ite indelijk
ui gen
Ġform ulier
L L
ind uc
l et
CO PD
Ġtoenem end
Ġs il
las h
Ġro t
Ġon wel
Ġradi of
p ot
ĠD u
is ed
h om
Ġuit sluiting
verw ante
il iseren
Ġorth ostase
Ġin ade
4 1
Ġs ingle
ĠV es
Ġree ks
ĠS B
Ġfactor s
Ġeff usie
eros ol
ol utie
ĠC ancer
ĠB re
ĠB ericht
rol imus
Ġmee ge
Ġg la
geb oren
ĠEH H
ige min
onder steun
Ġon regelmatig
sc om
B oven
kk ige
Ġex centrische
Ġinge pland
ob iel
Ġout put
unction eel
ap h
ĠVer wijzer
CA M
of en
f actor
ĠI R
am enteuze
p v
press iva
ob structie
r atten
Ġgede taille
Ġonder druk
Ġonderzocht e
Ġs ustained
ĠRichtlijn endatabase
R O
ĠN ID
Ġop dracht
Ġhypog lykemie
Ġb umetanide
oc yste
ĠSom mige
Ġtachycardie Ã«n
Ġf und
vent ilatie
ĠSt abiel
ĠS CD
Ġledem aten
Ġaange eft
ho sp
sp or
ĠSle chte
ox ische
ik e
Ġm Gy
Ġbesch er
Ġm apping
re ction
V ol
Ġz ogen
odg kin
oc on
Ġdi am
] \
Ġgec lassificeerd
ĠElekt rocardiogram
Ġw en
;# (#)
Ġpleura e
Ġbrad y
Ġcardi ologische
ĠBe v
Ġnod us
ace ut
ĠW er
Ġinc isie
Ġvol de
Ġd abigatran
ver g
Ġcent ra
oc ale
ript ion
Ġr at
lo ot
ile pt
Ġaltern atief
Ġbe Ã«in
? ).
Ġlever de
A B
Ġca us
qu ate
Ġafge vallen
ameth ason
arm aceut
Ġstrategie Ã«n
cardi aal
ĠLV ED
Ġbloed vaten
Ġp a
Ġlucht weg
ĠImm un
Ġre umato
ĠO pt
ec rose
Ġbre de
Ġkan aal
anal ysis
Ġgeb aseerde
Ġvert rouwen
ĠCB O
Ġverbl ijf
if erol
S inds
Ġgebruik ers
Ġf iets
ĠCh inese
Ġnauwkeur igheid
Ġlat ere
kk ig
ĠO P
Ġvar kens
odi um
Ġen do
Ġc ou
Ġanti oxid
Ġaf nemen
Ġasc ites
Ġontw orpen
trans fusie
Ġorg anen
ĠS yn
Ġg on
u dic
Ġc ine
ĠSt ress
Ġbeh oren
ĠM ax
mer c
arc ering
sch aal
L ocatie
oplas ma
ĠI H
ĠEurope an
Ġcruc iale
n ie
7 2
ĠCon cluderend
Q Tc
ion als
Ġn ucleair
Ġterug verwezen
le uk
ĠN P
le ving
A r
ĠPar kinson
Ġzeg t
A o
w ay
Ġaan w
Ġjong ere
ent iaal
Ġgesla ag
d ruppels
l ot
Ġauton ome
ohist och
Ġdisper tablet
Ġtr un
Ġd rank
vel en
ĠZ iek
Al le
hul d
Ġinsp annen
h ist
p us
ise ase
ĠM amm
Ġgezicht s
p as
Ġpsych osociale
Ġhypertrof isch
ĠK alkscore
Ġ6 4
Ġweder om
Ġachter ste
ĠRel iance
inf usie
ĠS LE
ĠB iot
Ġrect um
9 8
ier ing
ĠT c
Ġco Ã¶rd
ĠRec ente
Ġfibr in
gemiddel d
Ġdicht heid
h orm
h s
Ġin d
Ġhart klep
mat ica
ĠD ilat
ma il
f racturen
ĠOver wegingen
Ġemb ol
a ug
Ġonder been
Ġvis uele
Ġdruk kend
st oestand
Ġbe in
Ġk il
Ġsche del
vat s
Ġmethod ologische
as ische
b es
Ġge keken
Ġspre ken
Ġnec rose
ex tra
z one
Ġsub groepen
ĠIn leiding
Ġwo ensdag
ĠB ic
Ġge sc
R D
t je
Ġverla ging
Ġge di
Ġmult i
Ġto on
A mer
af el
ip p
Ġo ther
g ers
houden de
Ġtrans fusie
ĠS S
Ġ(#% ),
ĠG ep
Ġsp oradisch
m ocard
Ġall er
ij ven
rijd ing
Ġgest andaard
lig gende
Ġn eer
waarde s
ry o
Ġbij lage
Ġreactie ve
ĠP lan
lo ze
Ġr s
Ġhart stilstand
Ġmee gegeven
ri kt
ire ct
o int
ul arisatie
ĠS MA
Ġ[âĢĵ ].
Ġgeobject iveerd
L I
ctie f
Ġaf kap
ĠEch ografisch
clu deren
Ġuit sluitend
Ġpijn still
inu eerd
Ġbijbe horende
ul aris
h uid
par ine
Ġbel emm
Ġbioch emische
arb asalaatcalcium
C F
Ġple urale
Hoofd diagnose
Ġbeeld vorm
port aal
O rale
ode m
Ġintracran iÃ«le
ĠA ug
Ġverz w
ĠL eef
RE E
Ġs ho
Ġplaat jes
ig ers
im ulatie
ep ine
Ġinter na
7 4
kan s
ĠH O
r isk
Ġnit ro
p omp
Ġt ip
Ġinge scand
Ġextra cellulaire
Ġallerg ische
Ġlu kt
Ġambul ante
Ġinh ib
icht e
oorte datum
Ġrap porten
pro duc
Ġpro duct
Ġmeth yl
o ont
Ġvoor stel
Ġpri kken
ĠgeÃ¯n cludeerd
T H
ol ic
ĠH ad
Ġintra cellulaire
intens iteit
ĠB ro
Ġtrend s
Ġn ycturie
Ġretro spectief
icot ine
Ġlaag ste
ĠAan meldformulier
d osering
Ġmonom orfe
Ġgecont inueerd
ag er
pleegkun de
Ġbe k
Ġlos artan
kw ad
o dig
Ġbereik te
ĠD isease
ĠI U
roep en
ĠSp oedeisende
ra y
Ġweer spiegel
Ġex t
Ġbact erie
Ġwel k
8 4
Ġa erosol
ĠM oe
Ġ% .
l ocatie
lec a
Ġop gel
re c
Ġhuis art
rap port
Ġcons ul
ĠEer dere
Ġdiff usie
MO D
Ġhulp verlen
v i
Ġgez in
Ġkandid aat
sp ieren
Ġvertraag de
Ġgedrag s
Ġla gen
ĠI D
ĠAt riale
w on
Ġst em
ĠLang werkend
I mpedantie
Ġopperv lak
beur ten
ar men
Ġgerapport eerde
Ġonderhoud s
ap paraat
ĠMedic ine
ĠHart revalidatie
T icagrelor
Ġser ienummer
Ġm atrix
ĠCol lege
ĠArter iÃ«le
ator y
ĠH H
Ġbel aste
ĠM agn
ĠIntern ational
Ġpe diat
Ġlever t
ĠU iteindelijk
Ġon langs
Ġjong er
ost atische
Ġmeerder heid
R em
af name
Ġmodi ficatie
Ġpolym orf
z heim
ĠV ader
Ġklas sieke
ĠKle in
Ġer o
Ġk ram
emm ers
Ġdatabase s
Ġsu Ã¯c
aar dige
Ġnacht elijke
ne y
Ġals nog
Ġbeper ken
Ġgro up
H CK
ĠVermin derde
Ġal fa
w aren
im mun
Med tronic
Ġvoor gestelde
Ġverst uurd
Ġelektrofysi ologisch
Ġconf iguratie
Ġconsol idatie
ber g
Ġsamen stelling
Ġw omen
ĠFys icon
der iv
Ġac etylsalicylzuur
Ġaf geleid
Ġvers n
alle en
ĠD ie
ĠR E
Ġplasm ac
ks gezondheid
Ġeind diastolische
Ġhel pt
op ost
ure au
Ġdoor gankelijk
ĠTot ale
plaat sen
wijz ingen
Ġb inding
sie f
Ġ ill
Ġverander t
ĠB et
Ġ~ #
Ġet n
heel kundige
Ġf un
Ġ5 2
ife dipine
lo opt
Ġhyper lipidemie
Ġ% :
ĠAst ma
Ġna delen
M E
Ġl ob
ĠM P
h oek
Ġcort onen
Ġch ec
IS CH
Ġodd s
romb otische
ĠFamilie anamnese
ĠBÃ¨t ablokker
Î º
Cardi oloog
Ġorg an
I A
scop ische
Ġover weeg
ĠC ro
Ġkwaliteit s
lin ks
Ġge deel
Meer vatslijden
Ġge ste
bi opt
n ers
oc aÃ¯ne
H G
dic atoren
Ġaan komst
Ġdro ge
os et
ked in
Ġe jectie
ui delijke
Ġlucht weginfectie
re ductie
az ine
or isatie
iz umab
ich en
Ġhypoth yreoÃ¯die
Ġst ee
Ġt ib
Ġinf erieure
Ġb igemin
ocyt aire
re x
Ġmid dag
Ġfist el
Ġepis oden
c ubeerd
Ġsl ik
Ġbloed beeld
Ġgener al
il ie
dev iaties
m ummer
tra ject
met hoden
Ġtoevoe ging
op e
Ġm erk
Ġbenadruk t
CH D
Ġfamil iaire
Ġfen omeen
ĠS a
Ġbev indt
Ġ4 6
Ġliteratuur analyse
Ġstre pt
Ġvoorbere iding
eth erapie
Ġge in
h ib
Ġla g
IS A
zheim er
re in
b innen
Ġf am
Ġu g
ra ject
Ġsarc oidose
Ġprakt ische
ac rolimus
Ġrest erende
Ġgew enste
Ġtachyc ardi
N HR
5 9
Ġprest aties
Ġsymp athische
Ġsarc oÃ¯dose
Ġc al
assa y
Ġge tra
Hart team
ĠAc uut
Ġinf low
eri ode
Ġontwat eren
Ġcol itis
ag ulatie
D rug
ĠB innen
Ġv pk
cor rige
Ġres id
ĠNe ut
mal ige
ĠLo opt
m aar
ver k
ĠS imvastatine
Ġr isc
Ġmit raal
ĠAf gelopen
blin d
ĠO ut
ad ren
d aling
I G
da gen
Ġhinder lijke
Ġsub klinische
femor alis
Ġverm ijden
Ġafw achten
Ġverdo ving
7 6
Ġe e
oÃ¯ den
ĠZ ou
Ġk aart
ĠE osinof
Ġmg l
rati ficatie
bew aking
Ġmedicatie lijst
ĠR IMA
Ġverna uwing
Ġp antoprazol
ĠDe pressie
olog ical
ail le
r h
Ġar te
di a
Ġj euk
ne x
Ġfamilie anamnese
Ġwillekeur ig
Ġhart afwijking
o ire
Ġtrans missie
ĠP at
w an
Ġimmun os
5 6
= #,#
ver houding
Ġb ip
Ġpoly neuropathie
Ġs ectie
Ġnod uli
p arenchym
ĠAO I
in sufficintie
Ġdegen eratie
Ġgerust gesteld
Ġvan ochtend
Ġd im
L C
Ġvertegenwoor digen
t ie
Ġ4 4
Ġd raagt
ĠBe sproken
8 3
Ġna zorg
ĠSpec ialisme
Ġzeld zaam
later aal
sprakt ijk
Ġwe st
aar s
ĠSecret ariaat
Ġl ie
H E
ocardi ocardi
Ġeind stadium
Ġoste oporose
ĠD a
ĠU l
ĠINR s
Ġvis us
Ġde x
Ġgel ok
it heel
uizel igheid
Ġbein vloeden
veren iging
pulmon aal
Ġuur s
Ġz acht
gev onden
ĠN IV
ĠH ep
Ġl im
ac rogol
ĠPer icard
Ġfen otype
oot schap
Ġmet er
Ġonder wijs
Ġlipoprote in
nesthes iologie
ant el
Ġleverenzym afwijkingen
Ġonderwer pen
Ġstij gt
at ure
ĠV ier
Ġover ge
Ġidi opathische
Ġro kers
circ ulatie
Ġelektrofysi ologie
am ycine
Ġm bt
Ġaange wezen
Ġvacc inatie
Ġ# +
Ġhel aas
ĠU WI
oc ker
Ġhel dere
ule s
ver gelijk
Ġt pv
ATIE NT
werk groep
Ġinterstit iÃ«le
ag ra
ter m
requ ente
N C
k aart
ed ieerd
ak ten
o wer
ĠMon ocyten
Ġf oto
oc us
ĠRe view
Ġgelijktij dig
ĠM DO
Ġbiomar ker
Ġpro port
ĠS an
Ġintro ductie
Ġinzicht en
Ġvis u
Ġuit dag
Ġte ken
et t
ĠRisic o
ĠDaar entegen
Ġcerv icale
ĠN it
Ġanal yseren
Verwijz end
ĠC aps
ĠL ok
Telefoon mummer
k osten
Ġch l
Ġb ru
Ġ4 3
Ġm uis
Ġpart icip
Ġtromb ocyt
uit komst
Ġafger ond
er tijd
ĠM ob
g ave
Ġdoor dat
ĠNV K
Ġkransslagader s
ĠE Ã©n
Ġup grade
Ġonder arm
Ã¯n ide
os orbide
nam en
- )
me i
Ġend omet
inf ect
Ġrect aal
on eel
/ #,#
Ġd ur
Ġem fyse
Ġgele ide
tem in
Ġref ract
Ġnatuur lijke
ant ies
ox in
Ġ4 1
D esc
Ġkinder arts
Ġun ivers
Ġrecept oren
Ġmelan oom
ĠCont inu
ulmon ale
Bloed ing
8 2
ĠH M
Ġbere id
Ġrisc ofactoren
Ġregel matige
te sten
ĠS NP
leca Ã¯nide
Ġd ak
ĠL ymfocyten
ĠMeth ode
Ġintern ationale
ĠL i
Ġb ood
Ġmen stru
Ġovert ui
Ġfunction eert
ok okken
Ġbeg int
XX XX
Ġbedo eld
ĠCHADS VASC
ĠSt atist
ol ytische
ĠV ragen
Ġal g
Ġhervat ten
ru im
opt ies
Ġc eftriaxon
ia ir
Ġklein ere
Ġse quentie
ge beurten
Ġbi oprothese
Ġgeh ant
Ġinf arcering
Ġelekt ro
ĠgeÃ¯n cubeerd
ĠDi ast
Ġv ir
Ġc ataract
rif ten
inter vallen
auz es
Ġant agonist
Ġsusp ect
z eer
Ġrug pijn
Ġeerstel ijns
Ġneut rofielen
aar dig
Ġpersoon lijk
m eter
Ġgedefin ieerde
w eer
la cunes
ĠB ron
min ist
Ġvoel en
Ġh oud
ap p
Ġb uurt
control eerde
Ġcy clus
Ġhyper glykemie
Ge achte
Huis arts
order de
Ġ#-# )
ĠAan vrager
Ġverdi kte
ext irpatie
Ġcontractie le
Ã Ĺ
Ã« t
segment en
ĠInter essant
Ġaden oc
Ġt arget
ig o
Ġinspann ingen
Ġgecorrige erde
Ġint olerantie
ov ag
8 1
Ġa ber
a ven
Ġgesch reven
Ġinject ion
m i
L ongen
im al
syst olische
wer p
ĠN A
ul d
ephal ica
Ġwil de
ĠSp ironolacton
reg istratie
Ġvooraf gaande
Ġbra ch
Ġw are
Ġbelast baarheid
P atiÃ«nten
R isic
# ),
Ġdoel wit
spro ces
Ġdal ende
ĠL at
ri ctieve
Ġ(+ )
Ġp ul
Ġvoldo en
Ġint ima
daag se
Ġd yst
ĠF lecainide
Ġep ilepsie
ĠJ C
Ġinter view
kun dig
Ġexacerb atie
v ix
ven euze
Ġcardi oprote
ie us
i dere
le ur
Ġabsol uut
e emt
ĠN iveau
is h
p ad
ĠP OS
Sc an
u atie
N agekeken
Ġt bv
Ġverk ort
Z wangerschap
Ġlapar oscopische
spre ek
Ġ# \
yla xe
Ġop stellen
ĠD S
Ġhemat urie
Ġbe schrijft
ab y
Ġ- #,#
ien de
is su
Ġess entiÃ«le
st ijds
be handelaar
Ġro su
bi as
v asc
Ġchirurg isch
Ġ201 0
ic ontrole
zie kenhuis
Ġvroeg tijdige
Ġdi en
Ġb oek
Ġop lopen
Ġt ro
Ġj ug
Ġcruc iaal
z t
Ġat en
Over matig
o ge
ot ide
Ġtox iciteit
ĠF iguur
Ġex cisie
et ine
ĠO peratie
n es
ĠZ uid
TE E
Ġdiverticul itis
Ġ+ /
Îº B
Ġmult if
la bel
ĠAm lodipine
su st
ĠF unctionele
Ġtre edt
rofie le
Ġtot dat
Ġcom merc
ol len
L abiele
Ġk la
ĠAD ENOS
Ġst elt
medic amenteus
Ġwacht en
ĠV max
Ġch rom
V al
w ond
ĠOver matige
ĠS BP
behandel d
Ġp yl
di mens
b oek
Ġlinkerhart oor
ment atie
ĠCA C
vis u
uid ant
Ġd rager
Ġ#-# -#
H S
Ġvet zuren
ia zem
Ġul c
â ģ
Ġliteratuur onderzoek
Ġop gebouwd
ĠCaps ure
ĠD irect
os u
7 1
Ġkort durende
odel ijst
Ġsp anning
G elijktijdig
Ġda ad
Ġen c
se ptaal
ĠBas of
cy ste
CT A
ĠVes iculair
Ġricht en
Ġsuper ius
d c
T er
Ġfamilie geschiedenis
ĠbeÃ¯nvloed t
atri ur
Ġmill imeter
ond itie
di eren
Ġargument en
er ge
ĠVan af
ĠL ow
T SH
Z O
spat roon
is men
r ang
Tijd stip
od iek
Ġper ip
ys ici
ĠIV S
Ġc riterium
ĠI A
et ic
or k
Ġthorac aal
Ġdoel groep
Ġt end
ĠInter medi
Ġdui den
Ġafwez ig
ĠF am
Ġarterie el
ich e
Ġechtgen oot
Ġge acht
Bel afspraak
Ġcongen itale
Ġbe zoeken
aort a
Ġho spital
Uit leg
ĠEven zo
Ġlymf ocyten
B uik
Ġv d
s zins
Ġo t
gel s
St roke
Ġselect eren
F FR
Ġtrun cus
Ġcar vedilol
compen seerd
Ġar itm
ob acter
ĠVer z
Ġcol oscopie
Ġtra plopen
pro ducten
Ġinf uus
of age
b ul
ĠB K
ĠA DL
Ġsch ijn
Ġbl ot
aam de
kw ant
ath kamer
sch il
Ġ5 6
Ġdoodsoor zaak
Ġontw erp
ĠZ oek
S EN
Ġeen voudige
rop ium
Ġhist ologische
ĠA antal
la mp
ĠARV C
ĠD iv
ific ation
dnis on
Ġpse ud
Ġ#:# :#
b last
ĠMan agement
d ra
Ġdefin itief
ĠAl zheimer
0 6
sp ijn
ĠON T
Ġduur t
Ġmetabol isme
Ġanom alie
Ġoutcom e
en se
ĠGen ootschap
sch riften
gelijk ertijd
Ġcardi ogene
Ver pleegkunde
ov ascular
neg atieve
Ġaandacht s
Ġseks uele
Ġ4 9
Ġdec en
ĠNov us
Ġcon gestief
wissel ing
Ġvast stellen
Ġf asc
Ġspier pijn
Ġf asen
Ġact u
od ule
iot ensine
S ub
Ġaan sluitend
Ġover gebracht
Ġgere geld
Ġinteractie s
Ġant ip
k lasse
ne emt
ĠP rop
Ġinte g
Ġar rest
udic atio
Ġac ra
Ġinst room
Ġretro grade
plant eerd
Ġs oftware
ĠJ aar
Ġopgel ost
B l
ĠN ot
Ġin continentie
Ġreg urg
Ġc umul
Ġf ys
Ġimp edantie
di cht
Ġgroe if
Ġant ide
ĠE valu
Ġge vorm
ar aat
Ġblijk en
ĠT T
Ġexpert ise
diabet ische
ĠGeri atrie
Ġgenorm aliseerd
Ġdyspnoe isch
le y
ĠAG REE
Ġresult s
H olter
Ġer bij
Ġret ard
Ġt aak
Ġter m
Ġver traging
Ġbuiten land
l um
ĠS up
ĠO ede
ent riculair
Ġw k
ĠD ob
ĠI v
ĠG uidel
Ġvar ieerde
Eer dere
P ATIENT
ĠC l
Ġgem et
I F
Ġ {\
Ġop io
ĠAD HD
ĠO F
ĠCoronair lijden
Ġvertegenwoordig t
ĠIC U
ĠGer egistreerd
Ġtoen eemt
Ġgesch ikte
Ġwens elijk
Ġbes met
ĠGro up
Ġsat uratie
u ide
odi fic
w en
ur t
Ġac cess
% -
Ġvag inale
us h
Ġf ab
Ġiv abradine
Ġsl anke
Ġwe gen
Ġge vuld
um flex
Ġd urende
Ġ(# /#
Ġcap aciteit
Ġ5 4
ĠN EE
Ġgen eratie
Ġpancreat itis
Ġkin ase
Ġk offie
od on
cht ingen
Ġfysi otherapie
richtlijn en
Ġover lap
Ġverschil den
Ġnet werk
Ġbacter iÃ«n
PATIENT NUMMER
Ġpulmon alisklep
ver schijnselen
pervis or
ug rel
Ġcon cluderen
Ġcomputer tomografie
Ġin val
Ġsubc utane
Ġc lu
Ġap pen
M V
g ol
ĠEG M
Ġgeform uleerd
No oit
ific ant
Ġ(#/ #)
ver kl
ĠCardi ologische
Ġgynaec oloog
Ġa sy
H emoglobine
de tectie
ĠW et
b ec
Ġversch enen
ĠM ild
Ġnab ij
Ġqu ality
ĠDO AC
Ġad ult
Ġst ra
u il
Ġinstructie s
ras ugrel
ĠE nt
M K
Ġre mo
IN G
dys functie
idiver end
Ġanat omische
Ġ8 5
Ġkn oop
G er
ĠT E
Ġfy siek
aryn x
Ġaten olol
ĠD r
s m
ĠP art
Ġverb indingen
ĠT ran
Ġhier door
ĠTel emetrie
ĠWel ke
ĠI BD
st oel
Ġlinkerkamer functie
Ġur eter
ap ar
Ġlucht wegen
N it
Ġfen procoumon
Ġdu oden
Ġ(#% -
ĠCro hn
ĠI MT
al ingen
Ġe osinof
to ets
Ġir reversib
rect omie
Ġsur ve
ĠNeur ologie
os oom
Ġb ul
ĠâĨ ²
Ġ201 2
ĠAp ixaban
Ġten zij
Ġstent ing
lan de
Ġt ambocor
ĠMet S
Ġals mede
ĠGem iddel
Ġaortab oog
Ġsub opt
Ġsyndro men
Ġtoen emen
0 9
n ist
Ġbesliss ing
Ġwereld wijd
ot rex
Ġverwijz ers
re ekuur
ĠJourn aal
Y P
ĠVE GF
Ġuit lok
cy clus
ilt iazem
ot oxiciteit
Ġgemeen schap
/ âĪĴ
Ġdiabet esp
Ġel ast
Ġhart spier
d us
houden dheid
pel ing
Na zorginstantie
Ġoesofag us
OR D
art h
Î ³
n ecrose
epis odelijst
Ġnef roloog
Ġopge zet
Ġs al
N tg
ĠKennis lacunes
Ġ4 7
ĠSch ildklier
ĠVer antwoording
Ġgericht e
Ġn aald
Ġeen voudig
Ġg ift
b o
gro te
Ġdaad werk
Ġat electase
Ġontwikkel den
B ent
Ġindicatie s
Â Ń
Ġbest raling
n i
plic ation
Ġsinus bradycardie
ur inol
ĠOnge wijzigde
ĠAt orvastatine
Ġanal ysis
com pressie
Ġinfilt ratie
Ġspiegel s
Ġvoort geleiding
bel oven
Hoe wel
f eer
Ġaan g
recept oren
Ġw kn
lig gen
Ġre duc
Ġcardiologie dossier
b aan
Ġh arde
ĠS elokeen
ĠM i
ĠT GF
Ġhier op
Ġul cer
onc oloog
Ġpathofysi ologie
Ġregulier e
ĠToen ame
N B
it oren
yl ine
Ġend oscopische
Ġhart afwijkingen
bere iding
Ġzorgvul dig
ge maakt
gel icht
h em
Ġad hesie
Ġpneum on
f rine
Ġster ker
ĠElektrofysi ologie
Ġpassen de
stim ulatie
p agina
Ġspec iale
Ġgem edieerd
Ġb ouw
Ġhier boven
lin k
Ġcycl i
E n
ĠE DI
ĠC enter
Ġerv aringen
Ġfoet ale
(# ),
Ġbloed ings
Ġatrium fibrillatie
op pen
Ġin vent
on cent
ĠOp merk
Ġbevorder t
p ool
Ġde ed
Max imum
Ġt am
le ctie
Ġoper aties
Ġfibrill atie
n it
ĠV AN
Ġextrasyst olie
6 1
di meer
ĠL PA
Ġass ay
dan ig
coh ort
An g
Ġverst erkte
Ġaange paste
5 4
Ġhoog st
Ġbij nier
Ġloc ale
Ġe arly
ĠgeÃ¯nform eerd
arte facten
cor onaire
Ġdeelnem ende
Ġprim ary
Ġoorspron kelijke
Ġwijz igen
sust ained
ĠbÃ¨t ablokkers
P ulm
rati fic
be spreking
Ġp res
Ġaan brengen
ic l
Ġ' #
ĠF EV
Ġg ister
Ġveel beloven
Ġsinds dien
Ġeth ische
IE F
Ġarbe id
kw am
tr ig
d rain
Ġverwijzers nummer
ĠH eparine
Ġbest uderen
Ġstee g
Ġinfarct en
i pl
on ent
ĠKan ker
geassoc ieerde
ĠB o
EF O
Ġuitzonder ing
ĠDiff uus
ĠW acht
in continentie
pulmon ale
in clusief
Ġstadi a
Ġ5 8
ĠP alpitaties
di rection
Ġan te
ĠNorm al
oe men
Ġpsych ologische
ous en
Ġ12 0
Ġop vragen
H e
Ġafgrens bare
Ġtrombose dienst
Ġ5 9
Ġhyd roc
Ġintermedi air
leb oog
ĠM ACE
Ġen orm
Ġacc umulatie
Ġpath ologisch
mmet rische
emb olische
ĠUit leg
Ġged aald
Ġgest im
emat ologie
Ġabdomin alis
ĠUitgangs vraag
voe gde
ĠM oeder
Ġinfilt ratieve
ysp neu
ĠSp oortje
ĠB D
Ġgev aar
ĠMin imale
F luor
ic olon
wor pen
Ġin cl
i vol
Ġin suff
Ġversch eiden
Ġerf elijke
Ġbesch a
Ġres olutie
Ġvaat wand
Ġcur ve
Ġmot orische
S heath
pleegkun digen
mend ations
ĠG isteren
Ġof f
ma xim
em enten
Ġe scap
con form
ĠLaboratorium uitslagen
Ġzwang ere
Ġdi urese
Ġaort ast
Ġverantwoordelijk heid
Ġ- #.#
Ġgastro scopie
f asc
Ġd raa
Ġ5 3
Ġat ypisch
ĠD ig
cur ve
Ġcerebro vasculaire
Ġpl anning
Ġc ursus
beeld vorming
Ġsens or
r int
Ġspec ieel
in etisch
Ġgewricht en
th m
V C
i oloog
y ndroom
uss ent
S ens
Ġvoor beeld
ĠB ar
al d
k liniek
Ġap othe
ĠGeb eld
is ion
od ont
ĠAllergie Ã«n
F E
Ġsc intigram
Ġn p
reg io
Ġmy oview
tr ent
Ġinf ero
w een
Ġverdw ijnen
Ġgrond slag
ĠT ractus
le ven
erap eut
ot rans
Ġne gen
Ġgew one
infectie s
ĠB B
ĠInter ventie
Zij de
Ġbest uur
Ġreumato Ã¯de
ĠD oet
ge voerde
Ġstim uleren
Ġpla vix
Ġgewricht s
Ġtuberc ulose
osu vastatine
Ġplaats gevonden
Ġgene zing
Ġmitraal klep
Ġpromin ente
Q RS
sp ar
Ġdiafrag ma
or ende
Ġbi direction
Ġpoli bezoek
Ġonderzoek er
Ġat rofie
ĠInter ne
Ġn or
Ġv eld
Ġvan avond
ĠNeu ro
Ġsp ann
ru cht
ĠD APT
Ġdoel en
Ġlu x
OR M
ĠO og
Ġomge keerd
de ficiÃ«ntie
ĠOnge veer
P unctie
Ġcor rect
t romb
if en
ĠP atint
Ġb aby
Ġge lux
Ġst uren
Ġus ed
Ġinform eren
ag l
Ġn atriur
Ġrosu vastatine
ĠAnt i
Ġstudie populatie
Ġinj vlst
Ġmob iliseren
ne iging
Ġsem i
stit ut
Ġovar ium
Ġz ak
ĠPro gn
bla sten
olecalc iferol
Ġhist opath
Ġk m
ĠBij werkingen
ĠEB U
ĠRV P
t ime
Ġmoeiz aam
rocardi ografie
ĠM aag
Ġdem ografische
F ollow
Ġbe oog
Ġveget aties
ĠM a
5 2
Ġram us
Ġimp on
Ġmee genomen
ĠA ZN
Ġzw eten
Ġgeste gen
Ġcol orect
ram ide
ap ine
Ġbez waren
co Ã«fficiÃ«nt
ĠE T
c k
ĠO SA
ĠOn veranderd
Ġtelefoon nummer
es en
Ġzogen aamde
wer kers
Ġme vrouw
verkl aringen
Ġs uik
Ġad juvante
Ġcor figuur
esc and
B i
ĠPersist erend
ĠC reat
L eft
l im
Ġuit gel
op amine
Ġe u
Ġom trent
c ijfers
stij ging
Ġkwets bare
af il
Ġgesch eiden
Ġgeassoc ieerde
ĠToe gang
ĠRe delijk
ĠS al
Ġwo ont
T rombo
ib iliteit
f un
ĠT he
Amer ik
org anisatie
Ġc LVH
o a
Ġgepro duceerd
Ġlevens stijl
ĠS U
ĠV al
bre ed
Ġe vol
h g
Ġgemeen schappelijke
b ro
Ġoverleg gen
ĠCent rum
or ven
Ġe d
ĠV raag
Ġbest and
ĠHel der
tra ining
Ġcommun is
rof ische
Ġt ele
h eeft
ĠW ire
Pro xim
Ġverl icht
Ġdefect en
ĠA g
Ġkracht ige
h ma
ĠSc an
spec ialist
verh oging
techn iek
C atheter
Ġ#.# -#.#
ĠI HD
Ġverm oed
Ġco arct
arb onaat
M CV
k linisch
Ġeind punten
ĠMult idisciplin
c ir
A na
m yocard
ten de
Ġgek oppeld
Ġb ad
iz ation
ader ing
ĠE Z
ĠL ater
Ġstroom gebied
sne den
z umab
Ġv asculair
re di
be hoe
Ġin itieel
e vent
9 6
ĠMit ralisklep
w at
c lav
ijf er
antil ichamen
Ġle v
aando ening
Ġvar ieert
Ġep ig
Ġverst erkt
Ġont plo
Ver antwoordelijke
on ectine
Ġ- ),
ĠNeven bevindingen
Ġdienst doende
Ġ201 3
veren igingen
Ġartsen bezoek
ĠRec idiverende
mo di
Ġap pendectomie
v acc
Ġh ome
Al gemeen
Ġnatuur lijk
sor ptie
Ã« ren
Ġzelf de
Af deling
Ġstandaard deviatie
Ġt et
lop urinol
h ulp
pl icht
Ġc Tn
Ġbi opten
Ġbinnen komst
Ġgelux eerd
ĠA CI
Ġvier de
effect iviteit
ĠL ijkt
B SE
c reatinine
âĢ ²
Ġmagn esium
ver deling
Ġe f
Per indopril
in deren
ĠO AC
Ġex acte
st or
ĠSle chts
ĠHoofd diagnose
wa ys
ĠgeÃ¯nform eerde
gen oeg
ĠH yd
Ġ201 1
com missie
sp annen
Ġslechter e
ĠH CT
ĠDiv isie
Ġla ser
Ġhoofd stuk
G oede
sign aal
Toegang slocatie
ĠRitme stoornissen
Ġmanifest aties
Ġspect rum
sign alering
Ġs ect
Ġleg gen
Ġob ject
- <
kk ingen
Ġpart iÃ«le
Ġvergelijk ingen
Ġbijzonder e
P ijn
ĠHel aas
Ġst abil
m nd
Ġdan k
5 8
id on
wer ker
Ġn abl
Neven diagnoses
9 2
ep ten
Ġre modellering
Ġrood heid
re perfusie
Ġonder worpen
kan alen
Ġaan vragen
ad vies
Ġ(#,# %)
Ġmultip le
N G
Ġde termin
Ġf ijn
sche iding
st ract
rag ers
ren gt
Ġecho ven
ĠD es
Ġoptim aliseren
ĠP ub
Ġk laagde
Ġpath ogene
Ġvast gelegd
Ġen e
Ġverlen ging
Ġvan zelf
Ġvariab iliteit
al f
Ġgedeelt elijke
el et
uw ings
ĠA ust
ĠT romb
Hart slag
Ġtere cht
Ġinfer opost
Ġk ent
Ġ use
Ġbeh oud
Ġvan middag
ĠPatiÃ«nt nummer
ĠGec om
Ġwandbe wegingen
Ġab normaal
Ġst oel
Ġ5 7
Ġmeld t
Ġverwijd ing
Ġinduc eert
ĠAnt istof
do x
Ġ6 2
Ġtak ken
ar a
Ġbevol kings
ral aterale
ĠPar acetamol
aal f
t elijke
Ġcomp art
Ġt aille
ISCH E
Ġt int
Ġinte gr
t umor
Ġa a
iden te
ĠSc ale
Ġtre kken
Ġvergro ting
Ġk eten
ĠZ uur
Ġgemen gde
Ġb ar
al len
Ġgra d
v d
Ġdiagnose s
in spanning
anc y
k eren
ĠH is
Ġcy sten
Ġ5 1
Ġst ro
Ġobserv eerden
b urg
ĠHA RT
l og
Ġre ageren
Ġemot ionele
strategie Ã«n
Ġremo deling
Ġ#; <
Ġw rs
Ġmon otherapie
Ġhard lopen
Ġma jor
Ġinsp iratie
Ġt ransplant
Ġ% ;
Ġverouder ing
R et
ĠHeel kunde
ĠI ets
Ġant woorden
Ġuitge legd
dis functie
g iÃ«
Ġblok kade
Ġherstel de
Ġper spectief
kort ingen
ĠAng ina
ĠIn middels
th uis
Ġinge deeld
Ġtrap pen
gewricht en
Ġur in
Ġ+ #
u Gym
Ġontde kten
Ġdoubl et
Ġlan delijke
ĠK orte
H C
di ameter
ĠB ra
elf ase
Ġbet rof
ĠS ure
NS TEMI
ĠRv O
or de
ĠVer ander
Ġ15 0
Ġop zet
Ġm ic
vari atie
Ġsom atische
rom y
elefon ische
Ġf luoroscopie
Ġgev orderde
Ġvari anten
Ġwe kelijk
Ġbinnen kort
NO VA
Ġhart katheterisatie
Ġbigemin ie
5 1
em ic
ilt ratie
um oren
Ġverw achting
ix atie
Ġtablet ten
sch ool
keur ing
Ġmorf ine
ĠUnivers itair
Ġpl ant
Ġas sessment
Ġvoort gezet
Ġd ruppel
is el
Ġbe velen
u ul
ĠCH F
amil iaire
ent rum
Ġdu ctus
v ak
Ġvolg de
alie mie
ran olol
Ġlevens bed
ot a
Ġeen heid
ĠE CM
Desc ription
blok kade
ge Ã¯n
Ġasp iratie
Ġ( âī
Ġsp ondyl
Ġ#- <
Ġpara valvulaire
Ġbegele iden
Ġintern at
Ġpyl ori
Pro graft
Ġp auzes
ed uc
Ġgroot schal
cholesterol aemie
Ġcarcin oma
Ġplaceb ogroep
ĠIK NL
om trek
aar de
Ġhyp of
Control ateral
Geb oortedatum
komen d
Ġconserv atieve
ree ks
Ġrec ur
Ġenig szins
ĠSMA RT
n od
een h
Ġwaar nem
ĠHo ge
Ġover plaatsing
Ġbelangen conflict
t ussen
Ġvoorzicht ig
Ġsign alering
:# /#
Ġb ran
Ġcol chicine
Ġl et
ĠIn stituut
Ġstam cel
ĠAp o
Ġvullings drukken
at ose
ĠD o
den ten
ĠIn houd
Ġverl oren
Ġdiabetesp atiÃ«nten
C losure
Ġb rand
Ġdynam ische
Ġz akt
ul erend
met rie
b ack
Ġvergelijk end
or ders
Ġ[ -
Ġvocht beperking
op end
cor rectie
eter ing
Ġsterk te
Ġlok alisatie
Ġveel voor
Ġpect oralis
ul ering
Ġgem at
p op
d rug
Ġ9 9
spro ef
olog ic
ne ctie
Ġ5 00
ĠNe em
s nel
Ġelekt rocardiogram
Ġ(#% ).
Ġindic ator
Ġbloed onderzoek
Ġm erkt
dnis olon
o ide
ol air
Ġst il
ĠV itale
aal den
Ġhoeveel heden
Ġge vest
ĠKl aring
Aandachtsp unten
ĠCM V
âĪĴ /âĪĴ
Ġnauwkeur ig
Ġgeoc cludeerd
Ġontvang t
o zyg
Ġdermat oloog
vul lings
Ġe ut
Ġvers nel
Ġtoege wezen
ĠSamen stelling
Ġop enen
act ion
ĠIV US
Ġ(# ).
rin sieke
Ġ6 3
ge sloten
Ġlongembolie Ã«n
Ġ( "
sp oed
aan val
ĠM c
Ġop vallende
Ġgal wegen
Ġbijkomen de
Ġgeh aald
ĠAntistof screening
j uni
lae sie
ĠNID M
Ġment ale
sp eriode
9 3
ĠATP dc
deriv aten
an je
S otalol
u do
ĠBel angen
Ġangi ografisch
houden d
se qu
ĠH U
Ġverkal kt
Ġdes kundigen
Ġtromb olyse
Ġth at
A gatston
Ġh oren
e ch
Ġaan genomen
Med ische
ĠF eb
Ġdi ameters
idem iologie
press ion
Ġg lykemische
Fluor oscopy
Ġinjectie s
erd ag
Punctie plaats
ur ine
zin king
ab domin
Ġo oit
9 4
ĠW D
oc ortic
Ġpar ast
Ġoog druppels
ver wij
Ġ200 0
ĠI tal
Ġcollater alen
Ġre port
Ġgereg uleerde
ĠIn spannings
geruis en
Ġant istoffen
Ġzw anger
ip s
Ġtand heelkundige
Ġk eur
ne f
Ġsug gestief
Ġt unnel
Ġkru is
ĠE CHO
sla an
Ġres istentie
Ġkle uring
toe diening
Ġadvis eren
ĠAl hier
ĠIn st
yrid amol
ĠCh ild
VA R
Ġvergro ten
ter ing
Ġuitste kend
ĠP ath
Ġh ila
ĠCent rale
i op
ĠEvalu ation
0 7
ĠNu chter
kru t
ings stoornissen
Ġplat liggen
Ġam oxicilline
ct asie
Ġn tb
ron ik
ĠStart pagina
Ġiliac a
ĠD A
ĠBelangrijk e
ĠEl ke
Ġk e
ĠChirurg ie
op y
ĠO ste
Ġzw akte
Ġmultic enter
R eg
Ġpalp atie
ĠEnd ot
s le
Ġatri o
rel ated
Ġamp utatie
ura vocht
ĠIm plantatie
Ġ= >
Ġterugk eer
ofage ale
R F
ar iteit
ĠO D
Ġmin dere
ĠG a
om geving
ĠC alc
oe dig
ĠI AS
ĠMV R
Ġbronch itis
ĠMet formine
ĠVis ite
Sens itivity
Ġaantal len
af geleide
p sych
ĠSt roke
Ġdos eringen
#-# -#
ĠW HO
Ġzwak ke
ĠG escand
Ġinf o
Ġh t
ion aal
Ġaandachts gebieden
Ġfla uw
dien en
0 8
h alen
ger ust
ĠT est
Ġirreg ulair
agl if
ol l
Ġp ch
lox acine
Ġs heath
ep h
Ġast hma
ĠSign ificante
am ple
f amilie
ĠB io
Ġelekt rolyten
Pol i
ĠOn bekend
Ġcomment aren
ĠF en
Ġa bl
St aged
Ġveel al
Ġ6 8
Ġhom ograft
Ġ3 00
Ġschrift elijk
+ )
ge corrige
v antie
Ġverschil de
Ġgele verd
cy cl
onden tie
geb eld
ub bel
Ġj l
Ġtab ellen
Ġpro spective
ribut ie
Ġtra den
Ġtechn ische
del t
ĠL oh
Ġelect rocardi
Ġnorm alisatie
Ġimmunos up
ke uren
ĠCor onaire
Ġprofess ionals
Ġic m
Ġnod ulaire
oph age
Ġre produc
Ġgek leur
il ity
Ġinspannings gebonden
ir ur
Ã¯ den
Pre vious
u an
Ġhoe ft
in o
Ġfor ward
ĠMeest al
Ġmedi um
ĠS amenvat
Ġcont ro
Ġvis ite
Ġv oe
Ġballon dilatatie
bep aling
Ġorthop ed
ĠY ork
RA Z
Ad vies
Ġbedrij fs
ĠNeven diagnoses
Ex tr
ĠB est
ĠER I
Ġuiter aard
Ġdi p
ĠAd vis
ĠW PW
Ġk lin
ĠE mb
ĠB r
Ġt ime
ul itis
ĠM GA
Ġer yt
lan ge
on or
Ġhom ogene
Ġen zy
Ġoverle ven
ĠQu ality
Ġa der
in emie
ane ur
Ġwer e
ĠL ife
Ġcom pleet
Ġstap eling
ona zol
Ġrandom ised
Ġg li
gel ing
Ġving ers
j un
vol doende
ĠL F
ĠM J
Ġslijm vlies
or itme
syst emen
Ġvroeg er
AN N
Ġaange komen
Ġverbeter ingen
Ġtoel ichting
g las
Ġ6 1
c are
Ġvererger ing
sla ving
Ġvolde den
io den
Ġboven kwab
Ġen alapril
Ġmob iel
ster fte
laar de
Ġanat omy
Ġgevorm d
kel s
ofag ie
Ġcumul atieve
Boven genoemde
om an
Ġp dr
Ġe isen
Ġdicht bij
P ET
Ġaorta e
Ġbronch iale
Ġs ulf
00 2
Ġur oloog
ost aal
Ġs v
ĠF r
Ġgen expressie
Ġvere iste
Ġrem t
waar ts
Ġgeactiv eerd
ĠEer st
Ġgemet ast
ac uut
ap opt
ĠH UIS
mar kers
ia e
9 1
9 7
Ġfen ot
Ġf ec
ĠG eef
Ġselectie criteria
ĠZ H
ĠADENOS INE
Ġrapport eerde
Ġver werkt
Ġbe ademing
spro gramma
Ġhal ve
ĠBI RADS
st an
ut amine
sul f
C iclo
ĠEn gel
ĠE igen
Ġmens elijk
Ġr itm
.| #.
Ġradi o
umat isch
w intig
Ġgekwee kt
Ġkw aad
ĠH uidige
Ġme as
wer kende
ĠL p
gelijk s
ale s
ĠG uiding
Ġverst erken
k as
aan vullend
Ġrechter boven
ĠGro ot
ĠStop reden
Ġar ch
B K
Ġdrukpijn lijk
U G
Ġk et
ie ur
Ġ200 9
Ġgespec ialis
Ġliet en
ĠHUIS ART
tre den
Ġp al
ĠConclusie s
Ġves sel
ĠSer um
ct or
if er
Ġwijz igingen
fect eerd
gra dige
dimens ionale
Ġinst ent
Ġzu ige
z outen
Ġherken baar
p rik
Ġindivid ueel
otrex aat
Ġm IU
Ġover all
Ġh ond
Ġlym ph
ras mus
Ġgez egd
Ġmodu les
os y
Ġaanhouden d
imulatie drempel
ĠVit amine
Ġa kin
ĠP ositie
Ġdiast ole
t rokken
n g
t emperatuur
f il
Ġcategorie Ã«n
irur gen
angi ogram
and ha
van c
Ġ10 9
ĠG aarne
Spec ialist
Ġdist al
vle es
Ġaortast enose
Ġoor deel
ĠHer sen
-# ,#
her sen
Ġre al
gebeurten issen
do en
B etreft
Ġangi ogenese
remm ing
u ste
ell ingen
Ġf atale
ulp rit
e chter
d aar
ĠMo et
Ġepidemi ologische
< #
y e
Ġn icotine
Ġprogra mm
ec on
Ġ6 7
Ġvan nacht
Ġzorg product
al buminurie
Ġge est
ĠP P
ĠToegang stijd
last ische
s bevinding
t ijden
ĠH oudt
section ele
le i
Ġinst it
ver traging
ter s
ĠP W
Ġverd uidelijk
Ġrele vantie
Ġm ont
Ġver ne
cht gen
Ġuitvo ering
-# .
Ġge visu
Ġt reat
ĠAust ral
Ġmediast inale
cor relatie
Ġm ast
Ġjeu gd
Ġglomer ulaire
Ġvrijwill igers
ill ary
Ġelekt ronische
Ġ6 6
huis arts
ogra mmen
ĠR ookt
Ġongew enste
di um
Ġn ationale
ab ine
Ġverbre ed
rogen e
Ġs pl
Ġk laar
ĠM SC
Ġhier onder
over ig
Ġep id
Ġventrikel s
ĠB ed
at omie
iÃ«r end
ĠP raktijk
ĠÃ ł
} ,
ie uze
Ġw oorden
w ens
Ġro ker
o un
Ġex clusie
ĠF ol
Ġpsych iater
Ġgez amen
Ġamin o
Collater als
Ġbe wegingen
d aan
Ġantibiot ic
Ġre jectie
Ġt ussent
S ten
ĠZorg verzeker
Ġspra ak
ikel s
op a
Ġsept ische
Ġver die
Ġvocht balans
Ġgewicht s
m es
Ġgesc re
lut ic
Ġfysi otherapeut
ĠC L
Ġpub l
dicht heid
i os
âĢ Ķ
ĠAs sessment
oos heid
o ons
v acy
ĠVoor al
Ġaan melden
vo eren
best rijding
T acro
ĠgeÃ¯n ject
Ġle sie
am ers
sup pletie
le ar
Ġslaap ap
Ġgedetaille erde
te x
zi atische
Ġp ravastatine
Ġ201 4
af gifte
Ġm cg
Ġost iaal
V N
Ant i
ĠR DA
Ġtermin ale
Ġzout oplossing
Aber rant
ĠBe zinking
spor ine
Ġvle es
ĠQ s
ĠN E
om ot
ĠRV EF
pla sie
ĠN ef
Ġdrin kt
Ġm rt
Ġl ife
Ġhoog uit
t ran
Ġde stijds
ĠA mb
Ġhaal baar
Ġbidirection eel
Ġh eft
Ġver los
op ende
ov irus
kw art
Ġt on
ĠV ijf
Ġnarc ose
ĠIn formatie
ĠD osis
ĠP a
Ġafge beeld
Ġg as
ĠR ivaroxaban
Ġreferentie test
cor bio
groe i
Ġschrift elijke
gebruik ers
Ġgedeel te
ĠI MA
g as
ĠâĢ ¦
Ġuitgel okt
Ġim plic
af spraken
ĠLD H
Ġc ip
ien e
ĠH and
Ġspre iding
Ġ- .
ĠCA PS
Ġbro ers
Ġm ogen
ĠP PAR
Ġch ar
ax t
H V
ic acy
eroÃ¯ d
ĠArt sen
ĠG eeft
K ath
Com plication
Ġcerv ix
ĠWerk wijze
Ġdossier s
Ġnabl oeding
Ġdo ch
ec ept
Ġgra c
l ite
Ġchron otrope
Ġsuper visie
Ġprec ies
ĠK ore
Ġcolon oscopie
os artan
chec klist
k eten
Ġj odium
b asis
ĠON DER
Ġhart t
Ġbet ween
ĠC ell
ation eel
Ġf racturen
ĠP PI
ĠS COR
Ġbloed kweken
Ġdou ble
ĠD abigatran
dilat eerd
Ġneon atale
ĠP resent
ĠEu rop
ĠSinds dien
rom ycine
Ġex plic
Ġbij gedragen
Ġpro mocard
ĠM L
com ycine
in ase
Ġat t
Ġgestandaard iseerde
Ġo k
compens atie
ab ellen
ĠgeÃ« xtra
ĠB esl
ĠG ynaec
ol pen
fibrill ator
rin ologie
ysici an
ider ende
Ġbijd raagt
un ning
ĠW erkt
vloe istof
Proxim al
Ġik v
Ġeff iciÃ«nt
Ontslag bericht
Z org
Ġinge scande
i ol
han ol
Ġp ij
F T
Ġ200 8
r atief
oel i
yc odon
menopauz ale
Ġkl ieren
Ġgem odific
Ġgevisu aliseerd
Ġzo danig
Ġdyspnoe klachten
Ġonderste unt
Ġepig ast
in ib
Ġdoorge geven
w k
ond ing
Ġgeh andha
j unct
Ġsamen gestelde
Ġrug gen
Neven diagnose
onder kwab
cardi omyopathie
Ġoest rogeen
Ġb ind
st aand
ff erentie
eu ten
ĠGe w
Par acetamol
Ġw oon
Ġvacc in
isch arge
Ġgep ool
Ġhev ige
Ġom eprazol
Ġm antel
Ġmit raclip
ĠProxim ale
otrans ferase
ĠMult ip
aglif lo
P E
ĠE rasmus
Ġex ams
Ġin zak
ur al
Ġbenader ingen
Ġst ille
ĠZ w
D DR
Ġduur de
cell ente
Ġwe zen
ĠV TE
Ġto ets
Ġaccept abel
Ġn mol
der t
ĠO CT
Ġt aken
ver pleegkundige
St ralingsdosis
K atheter
Ġbeginnen de
Ġdoor verwezen
yp t
Ġj ongen
Ġj ourn
Ġaccess oire
Ġ201 5
Sten ose
Ġverd achte
Ġbest aand
der ende
Kath ether
ip ril
Ġtra umatische
ent herapie
Be eld
Ġconclusie f
n s
| -
inf erior
ĠH ernia
Ġna druk
di b
Ġact iveren
ĠE t
J S
: .
Ġal arm
Ġplaque vorming
Ġoverleving s
Ġbip olaire
Ġin com
Ġmob iliteit
is cus
Ġpo wer
Ġc ateg
eer der
ĠAtrium flutter
Gebruik t
Ġvertegenwoordig ers
ĠG P
lo ad
leuk ine
Ġchem o
but amol
Ġom huld
Ġ# ):
Ġaortaklep insufficientie
p acing
ver re
Ġt ym
Ġw w
Ġrandom isatie
) /
Ġne ar
g oed
ge wijze
N K
rop h
ĠKon ink
Ġduizeligheid sklachten
Ġb ilirubine
Ġhals slagader
uc oom
Ġextra ctie
Ġtricuspid alis
ĠA uteur
s um
om isch
rog atie
E MA
fosf aat
ĠPM VL
j uli
bl ijven
ĠIn dex
wijs brief
ĠWand onregelmatigheden
Ġmening itis
ĠRe validatie
d f
Q R
h t
Ġt reden
O x
b inding
re activiteit
ot ica
Familie anamnese
Ġto ilet
ĠL act
id ase
Ġklep bladen
Ġvermoe delijke
z ende
ter men
P ulmon
Ġsch imm
Ġaf vallen
ĠCom missie
Ġw s
Ġmeld ing
Ġma akten
ĠDermat ologie
Ġterugk erende
Ġextre me
Ġg ron
ant i
Ġher opname
Ġmedicijn gebruik
#.# ,
n on
ĠB uik
ge zondheids
Ġeffectie ver
Voor keur
le dig
Ġdiafrag matica
Ġintact e
Ġlie ver
Ġst ond
G ep
ĠK reat
Ġult ras
ĠDat abase
Ġf usie
ĠAc etylsalicylzuur
ĠO M
Ġontslag bericht
Ġk iezen
Ġuit gesch
breed te
ĠEnd oc
ĠPe diat
T G
e ind
Ġverz ending
ĠT rop
act ivering
Ġon line
Ġgerust stelling
B M
Ġn ifedipine
p on
Ġref lex
Ġimmun ohistoch
ill ance
Ġge werkt
armac on
ap a
Ġg lut
heids klachten
wor ding
a chter
Ver slag
ĠG eleid
Ġherst elfase
Ġun der
Ġoorspron kelijk
Ġoperatie f
Ġ1 000
Ġgeh oord
Ġdynam iek
Ġonder bouwing
Ġinfarct grootte
Ġziekenhuis opnames
ĠVen a
Ġw oord
l eten
Ġvoor be
Ġkop je
ĠN AG
it t
Ġonge wijzigde
Bel oop
ĠDob utamine
er us
y rox
he chting
Ġ+ ,
g ie
s at
ĠAan wijzingen
ond ag
or ub
ĠV aak
M obiel
iv es
as eline
Ġherken nen
Ġgehandha afd
Ġlin k
Ġlig ging
Ġor iÃ«nt
OL D
Ġden k
AI R
Ġdev iatie
he em
ĠP ract
Ġst uwings
ocon st
Ġh ang
): \
On ze
id azol
fici Ã«nt
ĠGuidel ines
c r
In formed
ĠHier door
Ġget rokken
Ġeu vol
Ġvast gestelde
ĠI P
Ġep ilept
Ġafzonder lijk
ĠNeg atieve
ri min
la f
Ġk weken
ĠEx cellente
n l
Ġvooruit gang
Ġg olf
in hib
aliteit en
Ġhulp middel
ĠNa zorginstantie
Ġzon odig
oper aties
ĠV ent
Ġhemor rag
il aterale
ĠT hans
Ġfosf orylering
wij de
mechanis me
ĠAc adem
Ġb aat
Ġdysp lasie
up us
Ġdefin iÃ«ren
ĠC YP
Ġ#.# ).
fie len
Ġl ijnen
Ġpri or
Ġgein diceerd
ĠKN UK
! )
rik ulaire
Ġhal ver
Ġ200 7
gem akkelijk
Ġbek ijken
os yst
Ġj ump
Ġberoe p
Ġrechts zijdige
Ġu Gym
Ġend ogene
Ġtand arts
Ġfol iumzuur
rik ant
asc ore
gebre k
Ġac etyl
Ġtransp ort
w onden
Ġbevest iging
m ac
ĠVoor alsnog
ĠF ont
ĠP O
erv atief
a ff
Ġa z
Ġmig ratie
lutic ason
#-# ,
Ġjong eren
Ġv est
v oren
cons umptie
T ijdens
Ġwat tage
Ġdiagn osis
ĠPle uravocht
Ġgel et
Ġherstart en
su pervisor
Ġvas ovag
Ġont ving
ĠW ee
h b
Ġwor k
if f
erv atie
ĠK ern
Ġvar ices
Ġpathofysi ologische
ĠGezondheids zorg
Ġslaap t
Ġparoxys male
Ġint ubatie
ret entie
de erde
Ġl yme
Ġindirect e
ĠLab orator
ter e
ĠH om
di ment
Ġit ems
ander s
Ġcontact en
ĠF actor
ut ch
e igen
Ġgen otype
Ġv el
ĠG es
Ġaange vuld
Ġembolie bron
Ġom hoog
Ġmo oi
ĠDe generatieve
Ġle pt
Ġvragenlijst en
Ġst reng
lit az
Ġhorm onale
gel aten
Hoofdstam stenose
ĠVer pleeg
Ġna genoeg
Ġ201 6
onden ten
Ġt im
Ġplas sen
kle ur
risic ofactoren
Ġseks ueel
Ġdoorgaan s
ĠJ J
+ /
chl oride
Ġtoen am
rag min
Ġoog arts
Ġlong ziekten
sp asme
ablok kade
p end
iel d
ĠT n
Ġverkal king
Ġintermitt erende
Ġlevensbed reigende
p athologie
Ġde den
oxid ase
Ġaan passingen
pl ane
ĠPre ventie
Ġonzeker heid
B ericht
ĠV aat
Ġn een
Ġhoor baar
ic ide
ac ute
et rische
Ġprostaat carcinoom
Ġproduc eren
" )
is ering
- [
ĠOp nieuw
waar d
endoc ardiale
Ġcontractie s
ĠL C
Ġuit spraak
k a
Ġvert elt
ĠgeÃ« x
prof ylaxe
ap id
Ġinst rumenten
Ġver gemakkelijk
Ġop sp
ma ild
ij e
do el
o o
ost ratificatie
b arri
ax el
Ġin deling
ZO EK
ĠIg M
Ġbep aalt
Ġgraft s
Ġechoven sters
Ġv re
acter ist
Ġ(# ):#
ste in
Ġonrust ig
gesch ikt
a a
ĠSure Scan
Ġpath ways
ĠProcedure voorstel
ĠS cho
Ġk uren
spro ble
eiwit ten
Ġpijnstill ing
Ġeffect s
Ġste ken
Ġhuisart spraktijk
Ġadip onectine
al am
Ġsy mmetrisch
ĠIntern isten
ĠOb st
Ġemfyse em
At orvastatine
ĠBe houden
ĠH IT
ĠOnge compliceerde
ĠGra ves
ĠRv C
Ġbevat te
ĠSCOR E
or ige
sp unt
ĠRet our
Ġcom pens
Ġp antozol
Ġken merk
Ġgebeur t
Val ue
Ġ ion
sp ie
urg ical
en ce
Ġt zt
Ġre com
Ġna vel
AR B
Ġg ly
Ġcircum sc
ĠT reatment
erk omst
Ġbre uk
ĠAM VL
Ġpsych oloog
ĠIv m
wer pen
a antal
p or
ur an
m orf
ĠG u
Ġinade quate
Ġhoe k
Ġst res
Ġopge treden
( -
press ien
Ġscha delijke
reactie s
Ġaan b
ĠB er
ret e
part um
ĠP te
Ġl ief
l ymf
Ġtop pen
di aal
ĠNiet temin
Ġconc re
D omein
w acht
Ġtoe passen
Ġcoronair angiografie
p pm
ĠA AN
ĠEndot ak
om ycine
> ;
ĠCom p
Ġur eth
Ġa ge
Ġmyoc yten
Ġsteekproef omvang
ĠAf spraak
Sp reekuur
Ġf raction
ri aal
Ġnit roglycerine
aad pleeg
Ġ arc
ĠT F
ĠT LR
Ġvoltage s
ĠLM WH
Ġch or
Ġpar allel
cl ox
Ġwil den
gew oon
Ġpublic aties
Ġge trig
att ingen
N D
ĠN oord
Ġrol stoel
ĠAng i
Ġgeslaag de
Ġver wek
ree kt
ĠRadi ation
ĠHyp ok
ĠG uidant
r is
Ġform ule
erk ent
Ġpat ent
f ysi
sc riteria
ĠMS R
Ġwerk elijke
ĠCh ol
Ġuitste kende
Ġst elde
ĠB umetanide
Ġbe moe
ne us
Ġuitbre iden
Ġhem is
Ġaan vulling
Ġadenoc arcinoom
heel kunde
u ig
ĠIntermedi aire
ĠVer wezen
Ġpla stiek
Ġfluor escentie
ĠP U
er zijds
proble em
Ġverw achte
genwoor dig
b odem
Ġvent ilatie
oped isch
ĠD el
ĠE valuatie
v reden
] /[
Ġtwe etal
ĠS omat
-#> -
Ne oral
Ġz agen
ĠUitgebre id
LV G
Ġv ztb
Ġn m
hoe st
Ġavond s
lat or
Ġrest functie
oper ative
ĠOver name
bloed ingen
Ġs ap
an ine
Ġh een
Ġac adem
ĠAF S
Ġtegen over
Ġadolescent en
Ġbloed vat
G IN
Ġfir st
i be
Ġhypok inetisch
Ġ200 4
Z E
Ġmoment en
ĠS M
ĠCC S
Ġd war
Ġhart oor
ĠOntslag checklist
Ġmin im
Ġge be
Ġonder v
den afil
di er
em ia
ons ille
Ġf a
SE H
Ġdors aal
Le ad
ĠS tra
uls aties
Ġbron nen
stap eling
ĠZorg vraag
r ation
Ġsc ala
long arts
Ġvervolg d
Ġel leboog
er al
ĠM ann
Ġnorm otensie
Bloed chemie
Ġpulmonaal vene
Ġrib ben
Res ultaten
Ġo ksel
Re animatie
ĠG old
Ġveelvoor komende
Ġl en
Ġrecent elijk
d ro
Ġinc re
Ġ[ <
pla s
h emat
ve isel
onder d
Ġtricuspidalisklep insufficiÃ«ntie
In plannen
Ġep itheel
Ġer kend
ĠCar ot
ine el
Ġ6 9
ema zepam
Ġhemodynam iek
om schrijving
Ġsign al
tot aal
uitkomst en
Ġobserv aties
Ġgevalide erd
agliflo zine
g lut
usc ulaire
ho od
p unctie
Ġoverle ed
Ġp i
Ġup date
ĠP las
ĠV K
ritme stoornissen
on itor
Ġverstre kt
Ġfab rikant
ĠA MP
Ġbedrij f
mak oepel
ĠMeet waardes
D V
Ġer ytrocyten
ĠbÃ¨t ablokker
r ight
Ġsp len
kt ie
Ġgeob serv
re er
p ath
ĠIH Z
Ġzoek actie
roc yt
ar s
Ġspier cellen
Ġvere isen
Ġge kwant
Ġd ingen
p leg
Ġre verse
Ġ9 6
Ġpol iep
h k
fib rose
verw achting
Ġt ijden
s inds
Ġpers oneel
ĠRe veal
ĠrÃ¶ntgen foto
Ġcre me
Ġaf gebouwd
Ġgede compenseerd
Ġcorrel aties
amen stelling
Ġon behandelde
Ġse arch
Ġmater n
Ġhang t
dar one
ĠU r
ente am
Ġ !
ĠT emperatuur
ox idatie
Ġac et
ĠUitgebre idere
Ġgluc oset
F U
Ġmaag klachten
ren geling
oel en
f req
ĠI mp
Ġdisc rep
ĠS SS
Ġveget atieve
Ġschildklier functie
Ġanter o
ĠM erkt
Ġwe ig
Ġin otropie
f ten
Ġlong ziekte
ĠS ens
ond anks
monitor ing
Ġcla udicatio
Ġtra in
Ġcor pus
Ġrug klachten
R egist
Ġf ellow
Ġgelu kkig
Ġthuis zorg
ĠL age
pl or
ef rose
# <
ĠU K
clude erden
ĠRD W
ocyste Ã¯ne
ĠA sympt
est ion
ex c
Ġf ietserg
Ġmaat schappelijk
Al s
Ġgescre end
Ġhoe verre
Ġra s
Ġsteun k
Ġrec idiverend
Ġperic ardi
ĠBev indingen
Ġe chte
Ġmis lu
Ġnier schade
ĠLinker ventrikel
W F
V O
Ġw anden
Ġcomp et
ĠPro gressieve
Ġc lip
ĠG LP
eb ivol
Ġevalu ation
b etre
Ġv rucht
Ġurine zuur
f arine
Ġtek sten
Ġverspre iding
se erde
Ġbloed transfusie
lat e
Ġheter ogene
Ġversch ui
Ġm ol
Ġf ot
Z o
). "
des artan
ĠBl ijft
ru it
U T
Ġf ilt
ĠC ascore
Ġcardi ologen
d omein
ĠMax imale
ĠJ icht
Ġradi atie
prote Ã¯ne
ĠOnc ologie
i ven
Ġcohort studie
an emie
Ġge scand
ode s
Ġoutcom es
Ġinst abiliteit
Ġplasmac oncent
#% .
ebivol ol
letsel s
Ġ urg
ĠVP K
ust rie
Ġzw arte
Ġonder delen
Ġcortic ale
Ret our
Ch arge
sch reven
Ġweerspiegel t
Ġonc ologie
Ġb rid
m ov
ant h
maat regelen
ken nen
Ġgen etica
Ġoes ophag
Ġpredi ct
ĠLeef regels
Ġmeis je
Ġvar iÃ«rend
ĠMyoc ardiaal
sc ontrole
Ġinterventie cardioloog
Ġtrig ger
Ġsuik er
Ġc ult
ĠHa ematologie
ĠF ig
Ġ(< #
Ġcongen ital
st rij
P VAI
Ġhypertensie f
Ġa atst
ĠAR B
r sch
ĠV rouwen
Ġonthul den
Ġguidel ine
dic ap
Ġhart lijden
Ġaf braak
ĠSV G
Ġb ang
Ġkl aring
Ã¨ me
Ġorganis aties
osy nthese
Ġc ijfers
ol ithiasis
Ġde ath
erie ur
verst rengeling
molec ulen
ĠTer ug
Ġnierfunctie stoornis
la gen
F UN
ger ichte
Ġcytok ine
Ġaan v
es is
Ġmiddel bare
Ġox y
ru ptuur
osf aat
Ġver zoeken
ĠV entriculaire
I MT
Ġuit gang
gel uk
Ġmolec ulen
Ġmes enter
ien ces
Ġbloed verdun
ĠS DS
ĠT icagrelor
ĠNI BD
E H
an o
Ġr he
Ġvaso dilatatie
lamp sie
An dere
ĠP J
i raal
Ġr onde
m yoc
Ġanomalie Ã«n
ĠIn formed
Ġon gest
Ġl isinopril
ĠK inderen
Ġtran sth
min der
ĠUit ste
Ġcohort onderzoek
ĠONDER ZOEK
ĠCons ent
Ġg ouden
Ġtechn isch
oxic atie
scop isch
bij t
Ġcons umptie
Ġn atieve
Ġe duc
Ġ7 4
EN D
ĠG y
Ġsc re
Ġbe antwoord
t ige
Ġm ixed
Ġcom plement
Ġben eden
ĠOp vallend
ing ham
om on
ORA X
ĠP AT
Ġd uid
van gende
ox ifen
aggreg atier
mon oxide
ĠF ysi
Ġmedicatie wijz
Ġgevoel ige
Ġt ur
'- '-
O r
ĠE ind
CO M
na ire
00 5
ge erd
Ġverte b
ler aar
h eerd
ĠGro te
Ġdub ieus
re chter
Ġp auze
Ġaf meting
ĠOm eprazol
Ġvoor gaand
P lan
Ġ#-# <
Ġperi operatieve
bl ocker
Ge zien
Ġt omografie
Ġreversib iliteit
Ġantide pressiva
ator ische
Ġdisc ipl
f l
Ġf entanyl
Ġople veren
Ġzeker e
ĠgeÃ¯nject eerd
Ġst reven
Ġuit een
Ġg ingen
ĠInf ectie
iv m
Ġverk le
eff ectie
Ġ200 6
Ġloc aties
ici Ã«ntie
spie gelen
ri end
Ġvas oconst
Ġveget atie
eer baarheid
Ġco il
Ġgekwant ificeerd
Ġkool hyd
ron efrose
ĠHier op
g o
Ġe zetim
erg y
ĠgeÃ¯n fecteerde
pro p
at aal
Ġge laat
eg ra
rij f
Ġlang ste
sel ing
Ġspec ialis
ĠCent raal
Ġtotaal score
erap port
Ġadvis eert
al iÃ«mie
Ġle vel
ĠEZ IS
mogelijk heden
ĠTur k
A VR
Ġsy nth
Ġstu denten
ĠMed line
a emische
Ġradi al
ĠS m
ĠB R
inform eerd
iter atuur
Ġmel k
se ct
CH A
Ġtint elingen
Ġc ephalica
aan vallen
at osis
b ri
Ġun ieke
ĠF H
oc kt
Ġstam cellen
ment in
CH AP
ĠEx per
ok riet
Ġel im
gra dig
Ġ2 50
Ġtachycardie en
ĠPri vacy
U corbio
b s
vul de
Ġspre ek
__ __
Ġgeactiv eerde
ĠE plerenon
I K
f ractie
Ġlinkerb oezem
ĠBur st
Ġbe urt
ĠF lash
l ij
Ġget roffen
Ġim plicaties
Ġsugger eerde
ĠB BL
ker ing
Ġin geschreven
ert iliteit
Ġgew ogen
Ġmoe ders
gerelat eerd
Ġkant oor
chec kt
ge komen
Ġgeh alte
Ġrechter oog
o der
Ġde hydratie
cir rose
Ġp ad
Ġb racht
Ġmon itoren
Ġhyper ventilatie
ĠWest ern
f ac
Ġex trem
Ġp AF
Ġlevens vat
Ġochtend s
ĠEL ISA
ĠAan wez
Ġdoor lopen
Ġcap illaire
Ġweer spiegelen
Ġant igeen
Ġuit put
Ġopge vraagd
Ġo bl
Ġmedic al
ĠNV v
em men
pol ym
ĠM H
Ġpro st
Ġople idings
ju ist
Ġ- );
Ġper in
Ġontbre ekt
ad ox
Ġgeh olpen
Ġtrans vers
Ġtym pan
ĠT rombose
orub icine
omat euze
Ġon sch
Ġgen et
ate chol
Ġab norm
T ER
Ġequ ival
ĠCardi omyopathie
Ġversnel de
in i
ram adol
gradi Ã«nt
Ġtachy aritmie
Ġcom mon
st offen
sum med
# },
inter nist
Ġpacemaker implantatie
Ġaange sloten
Ġd otter
ro s
bet rouw
orig ineel
aneur ysma
Ġw ed
ĠD imen
Ġbescher men
laat ste
Ġtert iaire
ĠC OR
Ġlong beeld
i aten
Ġp u
Ġmodi fic
Ġconsult atie
Ġst eroÃ¯den
Ġverw ard
X A
Ġmoeiz ame
Ġre gelen
hypertensie ve
Ġp ret
Ġsy nthese
Ġap ical
Ġmicro bi
Ġcorrel eerde
Ġaan verwante
C U
G ek
Ġbeg rens
os ide
Ana esthesie
@ #.#
ĠLab waarde
Ġsp asme
Ġpassag ere
ĠBiot ronik
Ġmyocard perfusie
Ġvol gend
p enteam
Ġleuk emie
blin de
Ġzicht bare
Ġle sies
ma ak
m embraan
Ġbuik klachten
Ġaange ven
c ultuur
Ġcontrolegroep en
ĠLat itude
Ġgemiddel den
ID E
Ġreumat oloog
Ġanticon ceptie
con vert
Ġch i
ĠS O
ib ele
Ġepic ardiaal
Ġinc ons
Ġill ust
Ġ7 1
Ġk ost
leb itis
ij en
in vas
Ġle er
ĠPI CC
Ġbestude erde
Ġcas p
ĠC he
Ġhetero zyg
Ġontwikkel ings
ag ram
over leving
ul um
ĠÂµ M
ĠC onditie
omy el
Ġd iltiazem
rij pen
Ġgebe uren
Ġverh aal
Ġincomp etentie
. ),
per itoneale
ĠD ub
diast olisch
Ġbl ood
Ġangi ogram
Ġer na
Ġuitst room
Ġv aardig
ijn a
re constructie
hart en
hy thm
ĠBeoor deling
ĠSG LT
ĠO kt
ĠRC C
Ġcoronair sclerose
sept ale
uw de
ĠG el
Ġonder schat
Ġgly hb
or rel
ĠR ntgen
Ġvar iÃ«ren
otter d
oc clusie
Ġh yst
pro even
Ġde fibrillatie
Ġcov ari
Ġescap e
ĠQ S
Ġcholec yst
Ġla ad
Ġuitdag ing
Ġfiet st
el k
ort ality
sy nthese
b y
osom ale
gecorrige erde
st erd
EE L
Ġoplos baar
Ġge el
ĠL ies
ĠTh erapie
Ġbereik baar
Ġn ul
Ġis ol
pre ventie
Ġge informeerd
ition eel
ĠVerpleeg afdeling
Ġp T
effect en
Ġbenadruk ken
mitt ee
ut el
Ġprop ranolol
ĠB MS
ab elen
.[ ]
de fin
Ġca ud
Ġre con
Ġaden oom
Ġont kende
Ġpak ken
coronair en
Ġ4 00
r ele
ĠP AD
ĠMet hoden
Ġlies breuk
WI JS
Ġvoor hoofd
Ġfibrin ogeen
vullings beeld
voe gen
s ine
f ront
ĠH LA
ub itus
lig gend
ome diast
b rug
ĠElekt rocardiografie
proble matiek
Ġisthmus afhankelijke
dend um
ĠIr reg
Ġhyperth yreoÃ¯die
if eratieve
Ġvolg respons
Gek ozen
Ġbev inden
order line
Ġc oeli
Ġcontrol ep
oscop isch
ĠSt reef
ĠLab or
u en
Ġlinks zijdige
Ġfysi ologisch
t ijdens
Ġoverge plaatst
. -
Ġlevens verwachting
St art
Ġvoorbij gaande
Ġsug gestie
ĠPub Med
Ġextra cardiale
enc ing
ge controleerde
ati va
Ġtemp o
AT ED
f ix
BR IEF
ĠU P
Ġk ap
ver loop
Ġuit ing
yc y
ĠMy oview
Ġperman ente
G en
Ġdruk kende
Ġhalver wege
Ġbl oe
ĠH E
Ġm yc
ĠH igh
Ġres erve
Ġroutinem atige
vaar dig
Ġdon ker
Ġsp iro
Ġverkrij g
Ġont bijt
Ġangi ografische
Ġgef ix
P H
Ġond uidelijke
Ġsugger eerden
Ġaan deel
Ġgeslacht s
Ġscreen ings
moe delijk
ĠJapan se
ĠCS F
Ġdomin ante
Ġsch attingen
Ġverzeker ings
ou ch
af et
or roe
Ġnef ro
yrox ine
Ġnaar mate
ereb rale
A nesthesiologie
ĠH ER
wee gt
ĠSp ont
ĠMamm ografie
Ġol ig
Ġzat erdag
ic ol
Ġrest afwijkingen
Ġneurop sych
lav ix
O ther
ĠSt u
ĠIN SP
Ġspecialist ische
me an
Ġcol i
Ġf al
IN GS
Ġech ocor
ĠOb esitas
Ġmot or
Ġt illen
Ġc ox
ĠAut orisatie
onge veer
Ġpost erieure
ident ie
Ġc ut
Ġgesp annen
Ġpol iepen
Ġt om
Ġonder benen
meth yl
Ġroutinem atig
Ġst rum
Ġversch ilt
Ġuit druk
Ġ7 8
af e
Ġpen icilline
Ġonder vulling
ver min
ab domen
ĠM ag
ĠN R
ĠbÃ¨t a
ĠB E
Collater alen
ĠH um
p oint
Ġsc intigrafie
ari o
onsille ctomie
ĠSyst olische
echn icus
Ġkon ijnen
Ġwaar aan
Ġ ib
ĠOver igens
a us
ĠS ociale
Ġge maild
ak s
Bl anco
op renaline
Ġwacht woord
Ġprotocol len
R ookt
Ġsamen han
Ġfemor ale
Ġvals artan
id ol
Ġbur den
ĠD own
a denosine
Be oor
Ġwillekeur ige
Ġcom pli
ig raine
ĠM al
ĠV o
Ġ7 3
besch erm
Ar ter
ou ders
Ġchar acterist
T NF
ing er
mon on
c ardiologie
Ġag on
ĠTH P
Ġun it
ab onnee
actie f
Ġin gebracht
ist ant
over belasting
Ġtere chte
Ġpediat rische
ĠCON COR
f luor
Ġpas geboren
Ġaf beeld
Ġtachycardi omyopathie
Ġant im
Ġlinker vent
sh ypertensie
Aber rante
Ġst ier
Ġbloeddruk meting
ĠMedic amenteus
Y L
Ġmedi aal
dic itis
Ġaort ic
Ġkrit ieke
ĠD T
ept ide
Artikel omschrijving
aggreg atie
ĠgeÃ¯m planteerd
ĠF requentie
x dd
we kt
Ġhart aandoeningen
ĠRegist reer
Ġcontra h
Ġtrombocyt openie
ĠK lep
c al
ĠI GF
Ġ201 7
ĠNa zorg
Regist reren
Ġ200 5
iteit s
her stel
Ġ7 6
ĠP an
Ġvert icale
verz adiging
ĠE chtgen
Ġberoeps groepen
b uis
mut aties
a vanc
Ġs onde
if y
Ġzo dra
Ġot itis
Ġh ant
Ġgest ratific
eed back
ĠR H
moeid heid
Ġst ri
ĠF armac
ĠOnt houd
Ġhyp on
Ġgro ve
Ġinstellen Registreren
. '
ĠW arm
Ġlongembolie en
Ġan a
Ġimm ers
ĠProgn ose
ori Ã«nt
ens ive
remm ende
to ch
Ġses sie
ĠP neumonie
lin ge
zaam heid
U n
wen dige
ĠWacht woord
O nt
A H
ĠH t
Ġaf metingen
afet y
ar com
ĠVES sen
pleg ing
is erende
Ġinflamm atie
un c
Ġgere krut
op zet
Ġin zien
im pl
ĠBas eline
Ġclu ster
orte d
Ġex osomen
ĠL as
c lassificatie
ol imus
Ġverwijz er
Ġontst ond
Ġarc us
ĠHyp oth
Ġer ectie
ĠEosinof iele
Ġmenstru atie
V itale
Ġregurg itatie
verander de
Ġli qu
Ġwerk te
Ġhoest klachten
Ġdier modellen
Ġw onden
ĠA specifieke
ĠH uid
Ġverscheiden heid
Ġs i
#, #)
Ġmen op
lip t
Ġt acrolimus
E t
Ġfe ite
Ġthorax foto
ir atoire
Ġaf geleide
eroÃ¯ de
ulier e
Ġs low
Ġcollater aal
Ġwerk diagnose
Ġge compliceerde
Ġ( ?
waar t
embran en
le dige
ĠC ogn
ĠD yspneu
ann er
Ġher pes
ĠSA B
armaceut ische
st reeks
Ġgedi fferentie
/ (
cont rast
ĠInter val
ĠGecom plic
f atale
ĠgeÃ¯ nst
sl otte
Ġnauwkeur ige
ĠS nel
ĠB isoprolol
ĠVER WIJS
Ġf lecaÃ¯nide
Ġcon cur
Ġfosf aat
icro b
Ġrest rictieve
Ġantit rombotische
on ef
ĠH odgkin
ĠVT s
ĠcoÃ¶rd inatie
Ġple kken
ĠAp pendectomie
ĠO ne
D ruk
Ġa ch
Ġinter leukine
eg a
Ġdoubl etten
Ġb a
ad uw
to en
Ġarth ritis
Ġver loopt
et te
Ġmantel zorg
Ġat ten
Ġc ef
Ġzorg instelling
eld ood
Ġontwikkel t
Ġte gelijkertijd
U CORBIO
c alciumscore
in suline
Ġ- :
Ġlong ontsteking
Ġwaarschijnlijk heid
ĠSomat om
Ġl ing
Ġplac ement
Ġorth ostatische
f armac
Ger inge
op ische
Ġno de
aan ge
Ġprote Ã¯n
ĠEle ctieve
m ann
ĠINSP ANN
Ġaccept eren
ĠM F
ĠN VA
Ġdoor lopend
ondition ering
gevoel ige
Ġsyst emen
v ig
ĠAC M
stu zumab
den ken
ĠOn s
iat rische
Ġveronder steld
nt het
ĠO or
ĠDif fer
ĠLok ale
ĠVERWIJS BRIEF
Ġre fer
ps is
p ra
: {#
ĠInt acte
o z
ĠS H
di men
voor zitter
k i
Ġgezondheid stoestand
ĠWandbe wegingen
ĠB RCA
oper fusie
um araat
ĠBM J
voor sp
ĠPV R
ĠSt andaard
Ġdiafrag makoepel
Ġwaar sch
ĠNV DV
ĠDefin ition
Ġcorresp ondentie
Ġken mer
Ġverst oring
hyd rogen
ĠE th
Ġinfluen za
Ġterug val
Ġre paratie
Ġww sp
ĠA dip
gol ven
Ġmin or
te kort
Ġir rit
Ġback flow
Ġhet zij
Ġwar farine
Ġ(#-# ),
Ġpart us
V U
vas k
Ġcreat ine
de hy
Ġe NOS
iclo vir
ve il
Ġaritm ogene
EMA I
ver antwoording
vorm ig
Rec ente
Ġvoor genomen
Ġmid ventriculair
ofen ac
Ġgediagnostic eerde
Ġpop ulation
Ġaf geb
Ġs ize
ĠAnt ibiot
LAD RES
Over lap
EMAI LADRES
ĠP la
ĠGe autoriseerd
Ġprote in
aritm ische
Ġl upus
a h
m ortaliteit
Ġsamen hang
Ġb rug
Ge gevens
c f
Ġl ichen
Ġinfectie us
Am iodaron
ĠNeut rofiele
Ġberoerte s
Ġkrit ische
ĠR PA
Ġret inale
oe kt
P VI
Ġmob iele
ĠStop datum
aryn g
Ġtransm uraal
ĠX ECG
Ġhartfalen poli
J aar
Ġher inn
ĠVoor af
Ġresp ondenten
Ġtw aalf
at es
r ate
Ġb ib
ĠVer b
Ġzuige lingen
is her
Ġaf gest
ater ialen
Ġbeoordeel de
st al
ed uctie
ĠMI BI
M odule
Buik omvang
Ġant icoagul
M atige
Ġver vallen
NI BP
Ġdomein en
y cl
Ġintern ationaal
Ġvan comycine
ot oxische
ath er
oc aine
rain ing
ĠPer c
ex istent
ycy cline
ĠN or
Ġgelok aliseerd
ĠBasof iele
m ary
weten schappelijke
f ort
Ġpol yp
ĠL R
mis bruik
h oc
Ġhier in
Ġd raag
Ġsp reekt
rop ine
gen o
Ġcasp ase
Ġverdie ping
Ġde velopment
ĠP athologie
A K
ab usus
ier e
Ġdis orders
ob ie
as k
Ġinterventie groep
w erd
Ġbeh oort
ol ute
Ġon betaald
Cont ralaterale
Ġdat as
ced urele
Ġwaar uit
Ġwerkzaam heden
in cl
Ġbeoordeel den
sl oping
ader ingen
ith el
Ġver tra
Ġdysp no
Ġcardiop ulmonale
be stand
ĠF luoroscopie
do wn
Ġhyd ronefrose
Ġgevest igde
ĠN AF
ond s
Ġkamer lucht
litaz on
ok lep
or apid
al bumine
W T
Ġpre operatief
ĠD uur
pol ikliniek
Ġg uiding
Ġtra ct
issu e
Ġdecen nia
ĠPA H
Ġbere kende
ĠA sc
Ġbronch opathie
ĠLin kedin
Ġc usp
Ġlyme ziekte
g ram
Ġvl ie
ster se
Ġtoe pas
deel nemers
V roeg
f an
le ct
Ġfil m
ĠI PL
ĠK ap
Ġsub endocardiale
ĠQu ad
aadpleeg d
Ġon mogelijk
ĠAutorisatie datum
m iss
Ġzorgverlen er
ĠA v
Ġdeelnem en
rot isch
Ġdex amethason
opperv la
ap se
mal ling
Ġdiagnostic eren
Ġadult s
is functie
Ġget rans
Ġnood situatie
Ġantibiot ische
C reat
ĠA CHD
Ġab onnee
Ġcom plic
Uit gevoerde
o y
A spirine
re view
ken ning
ĠUit komst
Ġgehoor verlies
. (
Ġ[- ].
Ġmont hs
voor waarden
ENS CHAP
Ġt elefonische
Ã¯ teit
Ġtegen strij
ĠCont ra
Ġpse udo
E ver
h ouder
secret ie
# \
Ġbe kle
ĠC ap
Ġuit lezen
ĠElektrofysi ologisch
Ġper itoneale
Ġend oscopie
Ġgenot eerd
Ġatrio ventriculaire
Ġpro th
Ġrichtlijn werkgroep
ve zels
Ġd uren
on chi
andig heden
ho spital
Ġbloed som
Ġcoron ary
ĠW ET
ĠsuÃ¯c id
ro ker
ĠINSPANN INGS
ist ers
Ġabonnee Bij
Ġonver k
sp asmen
W h
Ġuitge steld
Ġaanget aste
Ġ(âī ¥
ĠT ak
ĠA spirine
Ġapic o
ockt ail
Ġsympt oms
pop ulaties
Ġal ve
Ġfiet sproef
Ġhyd rox
ĠBre ast
Ġd ar
ĠO u
ĠF e
Ġgoed keuring
raties nelheid
Ġst abiliteit
Ġ> #:
techn ieken
Ġhyd ratie
Ġont regel
Ġen erg
Ġc q
top progressie
n omen
Ġsch iz
s ele
Ġver plicht
rip te
d raad
ĠB ent
Ġhypoth yreoidie
Ġhyp erk
ĠAan gemeld
Ġpost tra
Ġlipiden profiel
v aties
el y
Ġglucoset olerantie
it te
ne em
Ġremm ers
Ġkorter e
Ġakin etisch
ĠC G
Ġactu aliteit
v ag
ĠCh olec
aan vraag
Ġt anden
ab e
romy algie
omyel itis
hoofd pijn
Ġab d
ĠCa ve
ĠM g
Ġhulp middelen
Re chter
Ġextre em
Ġendomet rium
t d
Ġterug gezien
il us
F P
Ġblauw e
ĠOede em
Ġk oud
ĠNAF LD
Ġjaar controle
Ġtoe gankelijk
erg o
ĠPrivacy verklaring
Ġneo ad
ĠL yme
af leidingen
Ġbeschouw en
ol oge
Ġopge slagen
ĠA A
Ġregist er
percentage s
ĠMedic amenteuze
ĠA UC
S ympt
ĠEn kel
Ġs r
Ġgast ritis
Ġbelangenconflict en
Ġte kening
ver schil
Ġreg adenoson
ĠHep at
ĠAl bumine
ĠVoor ts
Ġab stract
kwad raat
ĠE PC
d on
Ġt raag
pro fen
ĠE P
plement en
ĠWandbe wegings
ur s
Ġaan nem
horm oon
Ġrol lator
ver de
RAZ OL
ĠD IS
ĠR OC
Ġpre dis
on ly
Ġradi ologische
eros a
M in
cell ulair
Ġvis cer
u x
Ġkwantific eren
F r
V ER
Ġpro stat
Ġverkort ing
Ġgekleur d
Ġgeb onden
ran den
c et
an ken
Ġb undeltakblok
Ġdev ices
Ġn v
et iek
ak king
F unction
sh unt
ram ingham
Ġe conomische
Ġsh ort
sp agina
ondersteun ing
Ġdruk verband
gele gen
u be
VA STAT
Ġg ar
ĠOnder bouwing
w w
Ġcolla p
Ġdig itale
Ġdr ingen
wer vel
ĠO AS
ĠDa gelijks
ox azol
ORI GIN
g erapport
ĠB orst
Ġgere cht
ĠTV P
Ġpla veisel
ro sis
Ġu ro
ĠU S
uw e
Ġinvas ief
Ġover sch
Ġomge keerde
ist isch
ma and
C RT
Ġv iel
ip pen
ĠOverzicht spagina
Ġoppervla kkige
Ġfor amen
inet ijd
ĠA CT
ĠS in
Ġmidden kwab
ijd t
ĠVer zoek
ĠV AT
ĠVol ksgezondheid
CF G
he cht
Zorg Domein
f iets
Ġk lop
ivari abele
ap icaal
ĠSyst em
ORIGIN AL
ol iose
ĠPI CO
Ġlipoprote Ã¯nen
Ġinter fer
ern ale
Ġz ondag
ĠD em
over eenkomst
icl ofenac
Ġfit ness
Ġdiffer entieel
Ġantioxid ant
I g
ĠO pen
z end
V H
Ġachter wand
Ġvari antie
Ġve zels
ĠR am
ĠS im
ĠMe i
waart se
Ġg old
ed ing
ĠKinder geneeskunde
Ġge organis
ater ing
anc et
Ġop bouw
ec atie
v ice
ĠT end
activ eerde
ent in
ure erde
Ġout flow
Ġaort ak
Ġradiof armacon
Ġcoarct atio
T emp
ĠgeÃ«xtra heerd
ik s
man ent
Ġg aarne
spectie velijk
Ġemp ir
Ġ7 9
Ġgerekrut eerd
Ġbe waard
âĢ ¢
ĠTer wijl
Ġgroeif actor
hydrogen ase
ĠA NOVA
ĠL Cx
Ġac cur
Ġbronch us
over y
pect omie
St imulatiedrempel
onef ritis
Ġvaardig heden
Ġmaxim um
Ġpat ronen
ym aal
Ġfilt ratiesnelheid
ĠScho ol
Ġamylo idose
Ġmen g
pri kt
ĠMe vrouw
ro duceerd
hk v
syn cope
ransp ort
ĠZ on
s ig
VASTAT INE
Ġuitput ting
e i
Ġim pro
Ġp ren
Ġp raten
ad at
chol ine
ap en
Ġbeoor delingen
prol iferatie
Ġknelpunten analyse
Ġwand verdikking
Ġrefract aire
Ġbewegings artefacten
re f
Ġgef axt
ĠTran sth
ĠK nie
Ġafhan kelijke
ĠL et
Ġover vullingsbeeld
Ġneur onen
Ġsigmo id
re a
Ġre vask
Ġc atechol
dis sectie
ĠUit er
Ġst ollings
Ġpraktijk en
Ġdens iteit
ac illine
ĠHer h
e jectiefractie
Ġinferopost erior
g res
Ġgez w
Ġst raal
Ġgepool de
Ġpost vak
Ġb rengt
L N
dehy de
Par ameter
Co C
requ ent
Ġving er
G uid
mb ol
Ġleven de
S I
Ġeen malige
Ġonder buik
Ġ7 7
Ġsurve illance
Ġinf ants
] }
stru eerd
Ġger iatrie
ĠF ax
ĠSp oradisch
Ġbe iden
ĠT N
Ġovertui gende
ath iop
ĠVoor bereiding
ĠF in
Ġoef ening
e v
D H
h old
Ġpot ent
sul osine
Ġn erv
Ġmitochond ria
he p
inf lamm
ĠDataLin q
Ġben zo
ĠOut com
Ġverbeter den
stand koming
op op
sen sing
ĠM inder
lin ker
Ġvloe ib
Ġbe keken
Ġpan iek
Ġtest osteron
Ġonder ling
Ġf link
CD EF
Ġre is
Ġexplic iet
Ġte pel
lasse Guid
Ġlinkerventrikel hypertrofie
ality Name
FUN CDEF
Module Name
Function alityName
CoC lasseGuid
= {#
ge sproken
Ġge lijke
ĠP eri
FN MK
ORDER COM
Ġbeeld bel
ĠZ it
Ġcontact persoon
ĠM T
org aan
ĠU CORBIO
ĠPre dnison
ĠCol laps
Ġonder b
Ġper im
ĠL PS
Ġopt ische
Ġlan oxin
Ġco un
Ġverlaag t
ĠSP SS
res c
ĠHUISART S
Ġbev onden
Ġsubtot aal
Ġverdi ent
Ġpar ac
D rempel
Ġcor tex
ĠF ib
Ġrepresent atief
Ġspann ings
al m
itone aal
Ġgeb oden
ond ylo
Ġpost menopauzale
t rombose
di az
Ġinclusie criteria
Ġhypof yse
Ġc ulprit
ge wogen
Ġin voering
Ġals of
Ġafgrens baar
mm ing
p EF
AG E
sp ort
ĠSp rint
Ġge spre
Ġmon on
Ġenc efal
Ġlong parenchym
ĠParox ismaal
ĠSch erp
Ġvan morgen
Ġkunst klep
scom missie
kn ie
Ġbelemm eren
Ġop vat
Ġlong kanker
ĠF VT
Ġmen eer
Ġl ys
Ġoptim alisatie
Ġinge sproken
behoe fte
ad viezen
ĠGe dilateerd
Ġf ixatie
ip olair
Ġpla cent
Ġverw orven
ĠB la
orm en
Ġuitlok kende
Ġop tra
Ġverk eer
Ġverduidelijk en
ĠT UR
Ġfys io
ĠZuur stof
Ġpre gn
it eerd
iglycer ide
oel ing
ĠSu per
Ġ8 8
le et
Ġieder een
ĠChirurg ische
Ġgemetast aseerd
oe st
00 3
ĠLV P
Ġvererg eren
ĠT ussen
pak ket
ĠM TX
ĠGe zondheid
een heid
Ġinform ed
Ġheb t
h i
Ġdubbel blinde
ĠA E
ĠK LIN
c ategorie
Ġcircumsc ripte
FNMK ORD
Ġvoor koming
bl ijf
Ġ8 2
Ġste kende
Ġin schatting
ot on
Ġmetabol ieten
Ġd aalt
Ġop port
mot or
Ġoverwegen d
O F
ĠV C
Ġverl iep
pat ronen
Ġb ut
ine x
Ġelektrocardi oversie
ol in
zak elijke
ec lampsie
ur ium
ĠAan sluitend
ĠEurop a
ver schillen
of ren
Be schrijving
Ġcoh orten
Am lodipine
Ġklep vervanging
ĠW ell
Ġmorgen ochtend
ĠVergelijk ing
ĠAf name
Ġ14 0
ĠSec undaire
ĠUitste kende
Ġj on
ĠF ramingham
ĠB rug
ron idazol
om pen
ste chn
r f
Ġbrid ging
w andig
Ġab ort
t v
Ġvoorbe houd
e valuatie
ĠA OS
Ġc eldood
Ġchem ok
ĠAK I
ak eld
Ġorganis atorische
ost oma
st uren
O AC
aggregatier emmers
ic aria
Ġhemis feer
Ġmoe sten
Ab domen
ot s
baarheid s
Ġop merking
waar dige
Aan meld
ĠP BS
ĠI J
S introm
o ien
Ġper ioden
Int er
Ġpalp abele
ir t
ema il
Ġ8 4
Ġaut ofagie
Ġder gelijk
ero be
for d
vit ational
Ġi CMP
lop ig
ig den
oglob uline
Ġparox ymaal
Ġzal f
Ġzorg t
Ġdisc rimin
ĠWET ENSCHAP
ar in
val entie
on enten
rij gt
r ingen
s a
t ypen
na am
Ġveelbeloven de
de kt
gele verd
ill ingen
re spectievelijk
Ġver werking
Ġafger aden
ĠV e
qu ire
ĠCons ervatief
C arbasalaatcalcium
Ġre ag
Ġp sy
isic o
V CI
Ġdiscipl ines
Ġvergelijk ende
athiop rine
Ġ(#-# ):
ĠAut ogen
Ġtransm urale
Ġm akkelijk
Ġaf st
Ġ9 8
Ġcompar ison
Ġlever cirrose
ort ison
Ġfem ur
Ġvat slijden
G G
Ġonder drukken
Ġborst voeding
g oede
att ro
Ġspl it
Ġpro gest
bel consult
Ġuitst ral
ĠSympt omatische
Ġklep functies
Ġgeb lin
ĠL og
wor k
Ġdaadwerk elijk
ĠG OLD
ĠJ uli
Ġg ent
re ferentie
som eprazol
Ġzw art
Ġins ert
Ġmat glas
mat ch
val v
sterd am
ĠMet ingen
ĠDoel groep
ĠE A
ĠAn ders
r iek
Aan gemeld
Ġre search
Ġomgeving s
Ġ $
Ġmaal tijd
in um
Ġbloedsom loop
Ġen t
Ġov ale
Ġbep alingen
elijk heid
Ġveil ige
ĠP lavix
ĠPrima ire
Ġ Ï
Bel angen
com plicaties
Ġaortaklep sclerose
Ġverpleeg huis
ig ma
Ġwen sen
Ġgaan de
Ġulcer a
ings datum
Ġv ide
Ġap arte
ĠNa Cl
om m
ann ulus
Ġsteunk ousen
m aart
medi a
d it
Ġinf ra
Ġm isk
ĠH aag
Ġlinker arm
Ab d
erp ret
ol one
Ġpolym orfe
TA VI
ĠS K
gene zing
ak been
et ie
ĠR and
on yl
ie erden
ĠSla apt
Ġhist ologisch
u v
ocardi aal
ie ze
ĠE et
ĠW h
ost omie
Ġrisic ostratificatie
Ġtaille omtrek
Ġs lacht
leg ging
ul ieren
Ġlinker zijde
Ġp arese
Ġtrache a
ĠAr ch
vorm en
Ġonmiddel lijke
ĠVocht balans
f ectie
of ib
cl ose
Per ifeer
b ar
ĠP s
Ġt olerantie
ent al
c ijfer
in dien
ĠM ac
bel emmering
p ran
ĠG al
Ġsle utel
AS T
M ode
Ġw rsch
Ġwekelijk s
k eb
Ġop roep
ĠL ast
Sp oed
Ġ(#, #)
Ġh alen
geven de
omst andigheden
Ġsl ot
Ġgepro gramm
Ġun ivariate
Ġvroeg tijdig
Ġge lo
MM F
ĠE arly
Ġaannem elijk
) ?
ĠPro staat
Ġla cun
Ġbeh av
Ġep ider
Ġprest atie
Ġrevask ularisatie
Ġhem ostase
monon itraat
w ell
st abiel
aryn ge
Ġ idem
Ġhep atische
Ġsub fasc
rin oloog
aan delijk
rie ven
Ġplaatsv indt
Ġb aan
Ġe in
volg t
Ġpass age
pro ject
Ġontst ane
nem end
Ġtra stuzumab
Ġopmerk ingen
Ġthe orie
Ġlevens jaar
ĠgeÃ¯nt eg
Ġprov ocatie
ĠS ol
Ġge avanc
Ġret icul
Ġprednis olon
Ġtoeval sbevinding
Ġassoci ated
ĠAan vankelijk
Ġrij bewijs
door sneden
Ġcap t
rie ve
ĠA neur
and at
ĠQu attro
st ro
yl ococcus
Ġinter vent
radi ol
Ġimp uls
Ġarte facten
ien cy
och romat
ĠM ass
Ġgefix eerd
Ġ8 1
M eth
Ġanalyse erden
polym orf
stu kken
per foratie
oi ing
ĠTH ORAX
o is
ĠR x
Ġveren iging
ĠR PL
Ġsur v
op leiding
Ġthe or
ĠBep erkte
ĠNe emt
h l
Ġwas sen
rouw d
Ġmiddel ste
Ġhom ocysteÃ¯ne
Ġcardi omediast
par atuur
e qu
Ġd riet
Ġventrikel fibrilleren
Ġap pro
chocardi ogram
h oudt
Ġad ren
Ġgenet icus
Ġendotheel functie
Ġflu clox
ch ine
Ġhol te
Ġp ogingen
Ġlong vene
ĠGep lande
atie ven
Ġz omer
Ġbypass operatie
ĠO MT
ĠSp anje
CL S
Ġhoud ings
spra k
Ġser ies
Ġclin ici
Ġcommun ic
Ġbeleid s
Ġintra ventriculaire
Tot aal
cy cline
as ker
ĠIn gev
Ġzoek termen
Ġsens ing
Ġgesla pen
ch em
Ġex tr
Ġbood schappen
ĠS kelet
ĠL td
gesch at
Ġaange prikt
ĠSp oed
Ġgel den
Ġon verw
Ġelectrocardi oversie
Ġprofess ionele
g erd
Ġpy el
mer ase
Ġp ur
Ġsyst ole
ĠF L
di x
Ġsub jectieve
Ġverbre ding
Ġpop lite
rest o
S imvastatine
Ġpost erolateraal
oxy gen
Ġreage ert
ra am
Ġneus spray
ĠCh ronisch
Ġp agina
Ġdiafrag mata
D a
ĠVan ochtend
ĠIngev ity
Opm erking
r ill
ĠTwee de
L ip
ĠAb b
Ġcr isis
ic email
Ġfoc aal
Ġlief st
Ġmechan oprothese
er on
Ġh iv
Ġdepressie s
han kelijk
Ġverst orende
ĠZiek te
ĠDi abet
it a
Ġob jectieve
Ġdocument atie
ĠJ T
Ġschimm el
Rem ote
Ġwij de
chirurg ische
Ġz ol
drempel ig
ĠJ uni
Ġetn ische
ap pen
om eer
ĠG I
ti ab
ĠR ay
ĠG H
Lin ker
in eerd
Ġtra ctus
sed atie
Sp O
Ġsecret ie
Rec ent
v ader
#-# .
in aties
Ġs et
ĠHart team
hel ft
ur et
Ġi hkv
sub o
et sen
Ġbind weefsel
F ORM
Ġuit geno
Ġinc ubatie
Ġantibiot icum
keb ach
Ġinge voerd
ach n
ĠD BP
rof umaraat
Ġfrequentie s
Ġangst ig
Ġevalu eerden
Ġovereenkomst ige
ĠOp nam
Ġbla d
ĠS F
iet herapie
Ġge per
Ġdys kinesie
Ġkrit iek
Ġv riend
Ġnog al
aad tijd
Ġongest oord
pro cedures
ĠO l
as pect
ĠD PP
Ġrechter zijde
Ġna gegaan
Ġmeth otrexaat
Ġverwij st
Ġtran sl
met oprolol
Ġn an
Ġbe zorg
Ġsol ide
Ġangi oplastiek
ĠH CV
abol e
ĠM CP
ĠO MH
di vid
Ġmorf ologische
Ġr ijk
Ġrechter atrium
start en
Ġbij eenkomst
ĠF rank
r erende
On ge
Ġhoog leraar
ĠO t
Ġberust en
Ġst raling
Im uran
Ġis o
Ġbed re
Ġop gestelde
ĠP LA
Ġmyocard scintigrafie
Ġbeste den
ruim te
Ġb inden
usc ult
ĠCirc umflex
ĠA DP
Ġro ot
Ġvoorsp elling
Ġt ypen
Ġom gaan
Ġk ie
Ġintensie f
Ġrecom mendations
n ieren
ĠD isc
ĠIA BP
Ġbeheer sen
Ġembol isatie
W P
Ġun iform
la my
ĠDo chter
Ġc ann
Ġuit oef
Ġmicro vasculair
Ġmultidisciplin air
ri ch
Ġhe chting
Ġh ere
ĠN ative
na ud
Ġinter mit
ĠVol ume
ĠMe an
ten se
Ġtam oxifen
ĠAorta wortel
rip rieve
Ġbestude erden
ĠIn breng
ĠDe velopment
r EF
activiteit en
di agram
Ġurineweginfectie s
ĠL ancet
Ġb arri
dat abase
ĠInt act
W S
ein de
Im plantatie
Ġdaar entegen
ĠS Y
on aal
Ġ8 6
ĠR en
Ġsp m
> <
ĠBic arbonaat
Ġcardioprote ctieve
Ġg las
Ġsinus itis
or o
ĠD L
Ġel ementen
Ġvoor vallen
Ġtijd schrift
5 00
se ffect
Ġallerg isch
Ġgerecht vaardigd
ĠP laats
Ġc is
ĠAng io
ĠKLIN ISCHE
Ġ }
ĠSt ruct
Ġwerk ings
Vroeg ere
Ġne w
verk alkingen
ĠF isher
Ã¯ t
Ġha em
c atheter
Ġho op
Ġcyt os
ric s
Ġonc ologische
Ġgec irc
Ġanti ox
Ġvermoeidheid sklachten
ript yline
ep s
#, #,
up unct
oman agement
ĠE M
Ġberoeps verenigingen
Ġgezw ollen
femor ale
Ġmo de
eld isfunctie
p y
Ġrestrictie f
Ġvent rikulaire
Ġrustig er
mod ule
Ġzitten d
Ġmenop auze
ĠOn voldoende
Ġafge geven
Ġge tal
Ġhom ozyg
ĠG BS
ia ale
Ġgemodific eerde
Ġren ine
Ġsubfasc iaal
Ġurin ary
ĠAp ril
Ġenorm e
ĠAn emie
sc entrum
Ġreg uleert
Ġschouder bladen
ĠVan uit
Ġ8 3
Ġcereb ri
ĠBron ch
ge keerd
it im
antrum isolatie
Ã¯ dose
R apa
o eld
osorbide mononitraat
K omt
Ġmod uleren
oes ofageale
Ġap olip
Ġsp urium
deel contact
yle erd
Ġonder drukt
Ġover d
tens ion
ĠPersist erende
ĠM aart
Ġt afel
i deren
Ġto ol
Ġaanv aard
Ġn ale
Ġgem erkt
vest ig
ĠQT C
inen ce
Ġlapar otomie
ĠL S
di da
Ever o
verdun ning
Ġvent raal
ĠKa uk
st olling
Ġw enst
Ġsc opie
Leeftijd score
D VT
gel den
Ġur t
Ġrechts druk
er oseptaal
Ġsp oren
ĠN ET
ĠZorgverzeker aar
Ġc atheterisatie
Ġrun s
Ġhyp operfusie
ctasie Ã«n
Ġp acem
ist erie
Ġdeel tjes
it ed
Aanmeld ingsdatum
ee ksel
Ġ200 3
s inusritme
Ġhuisarts geneeskunde
Ġi at
Ġinter vention
st raject
Ġru b
Ġr an
osc ore
ĠP l
s elect
Ġkwal itatief
x ie
yla se
Ġinteg rale
Ġamb u
Ġij z
Ġafhankelijk heid
Ġverne vel
af yla
Ġve zel
bes artan
Ġad nex
Ġpol icontrole
ĠInt eg
ĠP ass
ĠH un
Ġpre vention
Ġaandacht spunten
sen d
Ġi CVA
t wee
ĠIg A
ĠT K
Ġc ag
ĠB S
of osf
H erkomst
m rt
D ischarge
cop ie
opath y
Ġor al
Ġqu o
Ġpr eter
c ocktail
ĠH eter
ĠForm ulier
et ra
Ġz aak
ĠL ongembolie
ure um
act ive
Ġin sch
ĠC r
Ġvag ale
âģ »
ĠL aadtijd
Ġbetre ffen
st op
ĠN CC
oplast ische
Ġhepat is
ĠWer vel
ĠbeÃ«in digd
L BTB
a ys
el ink
pel de
Ġcase s
adren erge
ĠBe wijs
Ġt etrofosmine
ĠD ys
Ġge legd
Ġhart grootte
ipp oc
Ġelect rocardiogram
aar ten
ten olol
Ġkalk score
Ġwijz iging
al in
Ġblok ker
ĠSp ier
Ġidentific eerden
Ġpresent eerden
Ġtympan ie
Ġdu ct
Ġuterus extirpatie
Ġhe chtingen
Ġontbre kende
Ġdors ale
ĠCapsure fix
z alf
Ġreg ime
leg gen
ot ic
Ġonder linge
ĠTri al
n at
mechanis men
ĠWe inig
Ġf armaceutische
Ġslaapap neu
Ġintermit tens
ĠHart catheterisatie
ron g
ag ie
ĠCB R
Ġdysf unction
G O
betre ffende
ĠV pk
Ġ9 4
Al les
ĠÎ¼ mol
d uidig
Ġm emo
ir eren
min istratie
ila at
Ġvolto oid
ĠR Q
Ġtit el
pla st
Ġdi ens
Ġstij gen
res hold
ĠMo del
h aald
ĠN AD
ĠP OL
ĠV roeg
ĠZ es
gele idings
i ra
Ġch emor
Ġt ie
Ġst atin
Ġk at
Ġon gebruik
Ġgest enose
sign ificante
F DG
Ġbez it
Ġaneurys mata
Ġparast ernaal
Ġuit no
Ġh uidig
Ġins ult
Ġk eus
ron inezuur
we et
ĠÎ¼ m
w rijven
ri o
Ġcardi oth
Ġleg itim
Ġus ing
T wee
aan s
estion naire
it on
Ġover expressie
Ġch irurgen
Ġind ustrie
Ġsm all
leg ie
Ġzoek strategie
Ġvast houden
e w
ĠVO D
Ġ+/ +
Ġc ultuur
ĠVS MC
Artikel nummer
ĠAm sterdam
Ġwacht tijd
ĠCan ada
Ġanesthes ioloog
ĠRadi otherapie
Ġnef rologie
os ac
omon as
Ġ# (
k oorts
Ġperi od
ĠR ed
Ġconf erence
ĠB asis
du id
metast ase
Ġradic ale
et up
id ity
ĠO DS
diagnost isch
Ġag greg
Ġapothe ker
org anen
Ġbij geruisen
Ġp ig
Ġlitteken vorming
ĠT ij
in stellingen
ok l
ĠAf rik
geÃ¯n fecteerde
Ġbed ragen
ĠM el
Ġuitgeno digd
Ġrol len
ĠSec ure
d in
Ġinzien s
ob last
f ont
Ġc utane
rokken heid
ĠJ M
Ġile us
Ġfoet us
morf ologie
Ġst emming
Ġpat inte
opro st
egist reerde
W ond
gen cy
Ġversch een
su ik
be spreken
Ġimm ob
Ġfa ec
Ġvoor kwam
h abil
ĠÂ «
Ġafge z
ien d
Ġ9 2
Ġappen dicitis
Ġdo bu
Ġbot structuur
Ġsect io
ett ings
Ġre uma
Ġa gressie
Ġvererg erd
Ġbesch adiging
Ġgel open
ĠR X
ĠB orderline
Ġoef eningen
Ġguidel ines
Ġp rijs
Ġanti hypertensieve
stan dige
idente el
y rax
ĠA NI
ĠSE M
Ġaang ren
Ġen z
ĠBelangen verklaringen
ast er
Ġsch ro
ĠPol y
Ġziekte beeld
Ġdi Ã«t
Ġgeb lok
Ġgecirc uleerd
Ġter rein
ur id
hep atische
ĠE ver
ist ieke
Over name
Ġlevens duur
Ġre combin
oezem fibrilleren
h ra
iv atie
Ġval vulaire
te vreden
are a
Ġfunction erende
Ġw onen
ĠH Y
Ġver plaatst
ĠN adat
or n
oun ders
o ad
Ġverst oorde
Ġexter na
ĠHals vaten
ĠSt aph
sl id
Ġcell ulitis
Ġk ast
kan alisatie
Ġker nen
ĠGynaec ologie
ĠNit roglycerine
Ġdrie vatslijden
Ġretro st
ĠGest art
verz am
Ġcombin eren
re kt
F ix
Trans Text
Ġge ge
Ġcr is
Ġspecialis men
ĠZ N
correlatie correlatie
A MI
enter itis
Ġverlen en
Ġdifferent iaal
' :
Ġtherapeut ic
A MP
ĠO c
ĠEen malig
Ġee uw
zien ing
ĠPro te
ran ge
s inus
deelt jes
t rofische
ar ks
t he
ĠDrug s
b oog
f ul
op o
W ER
ĠL BBB
Ġscre enen
iss eld
Ġlo wer
Ġkwets baarheid
m oment
Ġaf nam
Ġhemat ologische
femor al
Ġtim ing
Ġs ample
gen oten
rof ib
ĠEl k
Ġcou pes
ĠP DA
Ġonge mak
Ġincident ele
Ġle uc
as er
GR ACE
Ġhuis hou
ĠD utch
be staande
Ġbemoe ilijk
Ġst ep
uide d
ĠTen sie
ĠBesl oten
Ġb on
ĠB L
apt atie
Ġfocus groep
Ġlang zame
ĠIL R
val s
vl ie
S U
Ġin won
Ġintra vasculaire
ĠW BS
do et
ĠVoor stel
ĠPL N
n p
ĠF inanc
Ġfietserg o
ĠBe wegen
it ation
gem eten
sp in
ind ings
Ġnut tige
Ġv a
Ġred actie
v ocatie
Ġcoronair insufficiÃ«ntie
ĠMagn esium
Ġwe sterse
Ġverl ichting
it z
Ġsub ject
k lacht
Ġonc oloog
st oon
Ġpar ameter
Ġhypertrof e
Ġ#/# ;
K le
ĠJ an
ĠÂ ®
ffer ent
ĠM MB
Ġchrom osoom
pressien iveaus
Ġgehant eerd
Ġ( %)
Ġf uro
ĠTotaal score
ĠIn dicatoren
ĠW MA
Ġherken ning
eg raad
Ġbloed monsters
Ġb rain
K reatinine
ĠS eg
ier st
Ġapopt otische
in dicatoren
Ġz et
ĠAmb ul
Ġhiel d
Cont inu
Ġinduc eerde
ĠF ran
Ġc T
Ġsp ast
zw akte
Ġ>#% .
Ġm aten
te d
do elen
Ġgew assen
Ġwandbe weging
Ġconst ant
Ġost iale
Be handelaar
od ds
ĠWe et
ie u
Ġgedocument eerde
Ġatten uatie
Ġon no
Ġle eft
Ġpil ot
im p
Ġgener eren
azol am
K CL
Ġv ind
Ġruim e
U LE
Ġfamil ies
ĠRay naud
Ġver y
ĠC arbasalaatcalcium
ĠL iteratuur
Ġsp asmen
Ġthuis situatie
Ġdrie maal
organis aties
ĠSt re
ĠI AP
Ġbl anke
lum en
Ġpath ogen
Ġp rasugrel
ĠF O
Ġform uleren
k ram
lipt ine
ĠRet ro
N eur
ĠVoor zitter
V G
ĠBe kken
Ġgrootschal ig
Ġerg ometrische
Ġgebeur d
Ġbenader d
Ġgestim uleerd
m sec
ac u
ĠStu dent
Ġfibro blasten
iz er
Ġheup prothese
Ġcateg orische
Ġgek arakter
serv atie
f out
Ġbij v
ro pen
of ilie
ĠB F
Ġinfectie ziekten
ax is
Ġkosten effectiviteit
Ġz ussen
ĠSub c
st emperatuur
Ġdev ic
Ġont h
Ġmeis jes
fici entie
ĠGecomplic eerd
k uur
Ġcor rig
Ġmeer voudige
â Ħ
ĠC N
antil ichaam
ĠFen procoumon
Ġhart centrum
Ġam ong
ĠH ili
ĠR I
Ġmaat schappelijke
Ġgener ator
bri de
Ġreg ie
ĠM aand
Ġliqu or
v aart
ĠPro b
Ġwaarde s
Ġmar kt
Ġ9 7
l aring
ar me
unst klep
ĠForm uleren
Ġsinus ar
en zym
Ġac cel
Ġchem otherapy
Ġald us
spercentage s
ĠpatiÃ«nten groep
ĠWe gens
Ġintern et
Ġho of
sh ock
Ġs uc
Ġsoc iaale
Un ivers
ĠgeÃ¯n cludeerde
ĠAn al
Ġd w
-# ),
p neumonie
ĠL a
H als
Ġgebruik elijk
ort u
Ġtijdstip pen
Druk verband
Me ier
Ġcon junct
Ġgestratific eerd
oe p
ĠQ U
ĠNI CE
Ġop roepen
aan de
Ġc t
onclusie f
omy omy
Ġstreef waarde
Ġc ry
spec ifiek
Ġr ange
sc or
arm oede
ĠA z
Ġtot al
Ġrisic omanagement
pro fielen
Ġpar agra
ĠT RA
? ),
Ġboven been
ĠF ound
Ġbelangen verstrengeling
ĠU A
Ġcogn itief
k amers
le m
Ġbere ken
route s
Ġ(# -
Ġf acet
Ġherhaal delijk
al dehyde
Ġvo ert
id t
ent wintig
ĠproteÃ¯n urie
Ġprec ieze
Ġpart ieel
lichting stijd
werd a
Ġman ieren
Ġmoder ate
ir en
ĠF GF
Ġwerk ge
ur y
pulmonaal venen
Ġwaarschijnlijk e
we den
z eld
beg repen
Ġp up
Ġm ortality
bel angrijk
afrag ma
ĠWer eld
Ġin gelicht
Ġinter st
re cht
ne den
ĠRe v
ĠB rit
ĠIn derdaad
ef zol
ĠT we
Ġgetrig gerd
Ġt uin
pressie ve
Ġsuper oxide
delaar s
s diabetes
Ġwervel s
Ġper iv
medi aan
bep erkt
Ġslagader s
ne a
s erie
Ġas doorsneden
Ġmass ale
mov icolon
ĠL osartan
bet a
f r
m orbiditeit
ov id
Ġhal veren
ĠSy ndroom
Ġad juvant
Ġcomplex iteit
ec g
Ġin test
ĠVVI R
ĠE VAR
ife ste
Ġafw acht
ul os
re flex
Ġsch rij
Ġdal end
gradi ent
M EN
Ġejectie geruis
re kte
Ġsigmo Ã¯d
van af
Ġtrans fer
Ġa synchronie
ir st
lijst en
Ġf outen
ĠN LR
Ġnitro spray
Ġsch ok
ID d
Ġintra pulmonale
Ġin komen
g ar
Ġmet een
ĠL IN
Ġgep rikt
Pulmon es
Co A
Ġero sieve
A denosine
ĠG raad
Ġpan el
ub erc
su d
Ġmyocard scintigram
Î¼ L
ĠCom mittee
Ġvaat chirurg
Ġbehoe ft
ak ie
Ġtoe dienen
ĠC al
Ġmal aria
if urcatie
onderzoek er
ĠV KA
Ġse dert
Ġdeelnem er
la ire
Ġmann elijk
Ġbel de
lat ing
na uw
Ġpath way
hydrox y
Ġgespecialis eerde
zw elling
t ps
Ġorig in
Ġtrac king
ro kers
ĠWandbewegings analyse
ed ische
H CM
ĠT B
gerapport eerde
V en
ĠANI OS
ge z
ĠK er
Ġbedrijfs arts
Ġuitgesch eiden
Ġre ces
Ġpost pran
Ġontstekings remmende
Ġd iet
ex istente
Ġsympt omat
Ġvas op
Ġdi vert
han den
an z
Ġ1 10
Ġon ly
Ġpre vious
Ġbouw en
Ġd ame
P a
ip el
ĠFound ation
o ik
Ġd acht
ĠSat uratie
S O
ĠD ur
ies werda
iÃ« ctasieÃ«n
Ġverst an
ĠCon f
Ġverslechter de
Ġontw atering
Ġpar adox
erpret eerd
ĠAng st
ĠV asculaire
Ġdis order
ĠO LVG
Ġsu icide
ĠW L
Ġwith out
Ġpol ariteit
Ġsyst olic
ĠPro spectief
Ġ( âĢĵ
Ġmis bruik
ĠPulmon ale
y r
Ġpept iden
ĠGe z
Ġconsul ten
waar dig
ĠAf hankelijk
positie f
ĠPrima ir
ippoc amp
Ġonderdruk king
Ġsub end
rij ze
Ġcommerc iÃ«le
c ult
eth yl
LA VI
Ġw a
Ġmon oc
Ġtij dig
Ġgele zen
ati en
Ġom schreven
kin deren
Ġk om
Ġfer ritine
alis ering
over leg
Ġdes betreffende
Ġge induc
ĠP omp
Ġher nieuw
Ġex plantatie
Ġh oc
icoagul ation
ri Ã«n
olip iden
ĠI FN
Ġontstekings reactie
VA G
or ph
sp ees
Ġirreg ulaire
Ġrechter kant
ĠA dd
Ġger emd
Ġmacro vasculaire
ĠG ER
Ġdu plex
Ġver rijk
Ġop lopend
ĠT S
mon ster
ĠKern deel
C B
Ġs ac
vol um
Ġman ifeste
Ġgem andat
- (
os itis
Ġorgan ische
ge sie
ĠPer close
Ġuiter lijk
ĠGemiddel de
Ġbacterie mie
T r
o L
as isch
Na zorg
p akt
Ġcardi otoxiciteit
#/ #:
eu p
Ġox azepam
ĠPAC s
Ġgevalide erde
| #.
ĠgeÃ¯nt roduceerd
Ġex plor
verte b
l ijnt
ĠgeÃ¯nt erpreteerd
Ġfir ma
ardi al
Ġro bu
ĠA andachtsp
Ġepid urale
v eerd
Ġfamil iale
C ar
C irc
ĠM igraine
ub b
uizel ingen
R BTB
ge activeerde
vacc inatie
Ġopge wekt
ĠR a
alc oh
Ġnauw e
Ġbe ats
ĠS introm
sp it
ro ege
e ve
Ġuitge zet
H el
Ġdoel stellingen
m ode
ĠH z
Ġmit s
ĠBas aal
ocardiocardi ocardiocardi
Ġover matig
ĠArt ikel
Ġplan us
ann acht
ĠMultip ele
ĠF MD
Ġinter essant
ĠN ucleaire
la g
an i
Ġdox ycycline
ĠE SC
later ale
ĠToe voegen
eer st
ĠEl ders
Ġkwaad aardige
Ġrecht streeks
Ġd raden
T en
ĠSc ience
Ġaan vr
Ġulc erosa
ĠG T
erol aterale
ĠR P
ĠVer pleegkundigen
cent rif
Ġsy s
ger aakt
Ġmoeilijk er
Ġmetast atische
ith ium
Ġcollap sen
hosp h
âĦ ¢
Ġasp art
Ġalg oritme
ĠCardi ology
Ġindic es
Ġmedi atoren
Ġveronder stel
art ritis
cell ig
Ġmicro scopische
otherap euten
Ġab sorptie
meth odiek
Ġtechn ologie
B aseline
t bl
Ġcov id
act ine
Ġvaat ziekte
iden ten
Ġhem olyse
Ġa gressieve
ac a
ĠM aat
Ġple it
ol i
Ġrechter b
D CM
ĠAll erg
geb oorte
Ġsociaale conomische
g ast
Ġbezoek datum
ĠStatist ische
Ġb undel
Ġ200 2
ĠC yt
Ġbest onden
ĠVoor lichting
Ġgecon cludeerd
Ġc ryo
ĠM ocht
Ġpers oons
ofren ie
ĠD ien
s oorten
Ġgehant eerde
Ġh oort
Ġge ac
I QR
Ġdan ken
Over igen
Ġgroep s
Ġkru iden
asc ade
ĠBro er
p il
ĠDeel nemers
Ġbi op
rogen en
Ġmanifest atie
Ġverst andig
Ġuitvoer baarheid
Ġcons istentie
u pt
Ġgeb roken
get ica
Rem arks
hal f
ĠMen eer
in ator
Ġverslag datum
Re sp
opnam en
Ġmult iforme
G raag
Ġge aut
ĠR EG
reg ister
Ġhartt onen
ĠN L
v v
Ġs PAP
Ġon e
Ġob ser
00 4
die et
ĠCT S
p ul
Ġtrac ing
Ġbelang stelling
Ġmitralis insufficiÃ«ntie
ale d
de ff
ĠRef erentie
dien sten
Ġg da
arter iÃ«n
Ġdiagon ale
Ġinter esse
ĠIV C
Ġconf lict
ĠGG Z
Ġe s
ĠV erd
Ġnef rectomie
N u
van ced
Ġendot he
Ġge opend
bloed druk
Or th
as se
ug h
Ġn at
ĠSec ond
Ġselectie f
ĠHF pEF
Ġdien sten
ĠA GE
l d
me den
arine derivaten
ĠECM O
Ġprakt isch
Ġsp in
m eten
Ġbekken bodem
ic le
Ġbiv entriculair
Ġrepresent atieve
Ġaf bouw
Ġcon stitut
ĠLact aat
Ġbesch eiden
Ġjug ularis
ĠEmb ase
Ġaan kn
stoon issen
control es
inst rument
Ġstikstof monoxide
Ġchemor adi
est enose
alam us
Ã«nt en
Ġhyd rochloorthiazide
he up
Ġonge moeid
Ġtr iglyceride
Ġfrag min
Ġk eu
De vice
ĠgeÃ¯n fecteerd
ĠCAPS ULE
Ġvari aties
Ġoc cip
il iter
ĠA sp
Ġconsul ent
Ġtussent ijd
Ġendoc ardiale
ĠGen eral
Lab oratorium
Ġov v
Ġaanto ont
Ġmen iscus
Ġrechter onderkwab
ost at
ans i
ĠC athkamer
Ġiliac aal
Ġc G
Ġst rateg
Ġp ut
C athkamer
Ġ200 1
ĠC ode
Ġvertegenwoordig er
Ġrib fracturen
Ġlaag drempelig
H ij
} \
control led
Ġrapport age
ĠP ump
Ġger aadpleegd
Ġt rouw
dimen sies
Ġtevreden heid
ren ce
ĠPro gressie
Ġmeas ure
p pen
ynam ische
ĠV rouw
Ġacadem ische
ar achn
Ġw rijven
le kkage
Ġvoor keuren
ĠSa O
Ġmediastin aal
ron ken
Ġgev or
C ent
os uctie
ĠRes olute
h in
Â ¹
Ġ8 7
an ische
Ġinsul in
iot ropium
Ġpersist eren
nest hesie
onge erde
ĠL P
Ġinvas ie
rt f
is waar
la ad
ĠL umb
Ġ(% ):
ĠSeg oe
se p
Ġger iater
verb ruik
f unction
Ġgegener aliseerde
ĠCardi ovascular
ĠIndi vid
ren icus
Ġdal te
itu ximab
Ġsch il
Ġstij gende
bu ffer
Ġcoun seling
Ġv w
Ġtra bec
Q T
Ġmalign iteiten
Ġac id
Ġin put
lip iden
ĠR osuvastatine
Ġstim uli
Ġmil rin
OL OL
iven ess
Ġbevest igt
ĠMA ZE
ĠM K
MI C
font tbl
res ultaat
iÃ« t
Ġpsychiat rie
de ficiÃ«nt
of luor
Ġprecor diaal
ol yt
Ġleeftijds groepen
Ġbev redi
Ġatri al
aag s
convert erend
Ġresult eren
Ġkn ock
ĠR SS
Ġval ve
Ġslag volume
Ġcovari aten
Ġp aren
sign ificant
ĠBrug ada
S uccesvolle
Ġonwel wording
= #%
ct er
wij nt
ob asaal
Ġgla ucoom
st reef
Ġaut opsie
Ġwarm te
Ant icoagulation
s ingen
ĠM aakt
ĠT o
Ġabdomin aal
Ġher beoordeling
ute d
Ġcor darone
Geslacht score
hoe wel
mon st
Ġvijf de
ĠRV ED
3 00
Ġirreversib ele
ar ium
Ap ixaban
Ġidentific eerde
ĠMultidisciplin air
Ġc ount
Ġbasis lijn
Ġtri plet
e gen
al fa
ĠP f
ĠV ar
Ġim plement
Ġe ierst
Ġsp oedig
ĠSpecialist ische
Ġdiafragmakoepel s
Ġsp ondylo
op le
son ide
Ġstrum a
all uc
Ġfund ament
cor d
Ġsom ber
Ġhoog risic
tre kken
ĠCh em
Z U
Ġover belasting
ĠHart kloppingen
Ġmeld ingen
ĠW J
Ġkauw tablet
ĠW O
ĠP B
Ġle iding
termin ale
ĠpatiÃ«nten populatie
ĠK n
ĠPresent atie
Ġlob ectomie
Zwangerschap shypertensie
f ocus
Ġst een
Ġcardi over
Ġverk eerde
Ġverdw een
ĠProxim aal
k o
ĠBI J
comp onenten
Ġbewustzijn sverlies
agonist en
Ġp iep
Ġpolymorf isme
Ġtranscript ief
Ġdys synchronie
Ġverteb ralis
Ġzwaar lij
oe pele
Ġverwek ker
Ġ8 9
cyt aire
ĠHer stel
ĠHR V
quire d
ilis eert
Ġver zocht
Ġinfect ion
ĠR ond
Ġ#/# )
ge tal
ĠD uizeligheid
Ġt tv
vari abelen
H yd
assistent en
mar ker
ad ine
Ġher kend
N H
b ord
ĠLinker atrium
Ġw sl
Ġk o
rat ropium
Ġaf loop
Ver volg
Ġkra akbeen
ĠT av
werk ings
Ġbenzo diaz
Ġcompar ed
ĠBehouden s
to onde
ule au
Ġdruk meting
Ġaan k
Ġneur onale
ro scopie
Ġkamer temperatuur
Ġlong ven
zeker ings
ĠR J
ĠBij voorbeeld
SP V
it abine
schapp ij
ar ma
ĠPC SK
ĠDimen sies
vari abiliteit
Ġf ull
Ġc li
ĠC ataract
upunct uur
deel de
comp action
Ġhum aan
lamy dia
ses sie
Ġ#:#:# \
Ġdyspno isch
ĠBij lage
Ġst elden
ĠT elefoon
verla ging
Ġw ijk
te k
Ġgal stenen
UM C
Ġ Ã©n
Ġarbe ids
id o
Ġor b
ax a
Ġkrit isch
ver blijf
ritis h
): {\
ĠTh romb
l ia
Ġges lachten
; }\
th mie
sc ans
ĠHier mee
Ġbegrij p
medic amenteuze
Ġse vere
Ġvasoconst rictie
ĠÎ¼ M
Ġzorg vraag
Ġzorg verzeker
Ġtri ple
ni dipine
p iek
Ġbet ablokkade
Ġborst kas
b rand
Ġhartfalen medicatie
om as
Ġst ad
Ġbuik wand
Ġgluc ocortic
Ġc uff
ĠA kt
emm ings
loot stelling
ĠTend ril
oik oorts
Ġaankn oping
Ġge groep
Ġre umatische
ru is
cent ra
Ġtromb otische
oef eningen
ĠI F
ĠAp icaal
ĠCH Z
Zwangerschap sdiabetes
lijn en
pre paraten
me abiliteit
Ġcongen itaal
Co V
Ġtox ische
Ġd ram
Ġfront aal
ĠAS T
Ġgra de
W ilt
ĠSS RI
ĠDist ale
Ġkarakter iseren
Ġminim aliseren
ĠN ationale
opt im
Op roep
roe gen
Ch olesterol
Ġth yre
Ġer voer
Ġth or
Ġbel emmer
Ġing rijpen
ĠH AP
he x
Ġdalte parine
do butamine
Ġkwart iel
ĠP r
Ġbe geleid
am uleau
ĠV D
Ġgroe iende
osom aal
Ġp all
Ġver meden
Ġex on
omet ason
mat euze
ĠSyst emische
Ġst af
if ied
u es
ĠT P
Ġhyper plasie
ox etine
gewoon ten
Ġon op
ĠVO OR
Ġvoor doen
ri b
yst rofie
Ġcar p
Ġrechter kamer
ic or
ĠAut o
Ġt i
Ġsch isis
ĠLong vaattekening
Ġzwang eren
Ġst el
Ġovereen komt
complex en
m ij
Ġ13 0
rim oxazol
ĠOpmerk elijk
Ġgast heer
maxim aal
Ĥ ¬
ath ion
rof loxacine
voor rang
Ġtre ft
inst rumenten
Ġb is
vol tage
cont inence
Ġh is
ome dic
Ġvat baar
Ġgla zen
V EC
Ġop gelopen
ĠÂ ©
Ġben oemd
Ġelektrofysi ologische
d amycine
ic ardi
ĠMo gelijke
hy rox
Ġin brengen
ĠL U
reg ressie
ĠmM ol
ĠNeg atief
rol ithiasis
par a
Ġpacem ak
ĠMaand ag
ĠH P
CS F
Ġeff icacy
Ġ#/# (#),
laat sen
Ġcorrig eren
se ud
ot oxic
Ġonderzoek afd
la zide
ĠP F
Ġm issen
ĠK oorts
Ġtach yp
aden oom
Ġimmun o
Ġocclusie s
Ġhila ir
Ġon gerust
abdomin ale
id a
ĠN K
Ġcompart imenten
cont inu
Ġop vraag
Ġversch ijnen
scap aciteit
Ġurt icaria
Ġret entie
m n
Oproep baar
Ġplasmaconcent raties
ĠE iwit
Ġman ip
Ġstatin etherapie
gro ting
gel uid
asc arcinoom
ĠP unctie
Ġbehoe ve
Ġmet ronidazol
Ġabort us
ĠKauk asische
ĠI l
O peratie
M w
ĠAd minist
Ġimmuun respons
Ġcoronair angiogram
Hb A
Ġlumb aal
Ġleef stij
ĠKap lan
ĠW oont
Ġgew eld
col laps
ĠS RS
Nit roglycerine
ont werp
ĠPer manent
ĠSch ouder
Ġin gestelde
Ġref ill
interventie s
k m
GE V
ĠEver a
z u
v irale
cl it
Ġdoor genomen
ĠMar fan
ic ula
Ġaf leiding
Ġcoronari us
Ġur ologie
Ġoplos bare
Ġad minist
Ġaspec ifiek
ĠDen kt
Ġp ra
Ġdi azepam
CL C
advis e
Ġcir kel
Ġinhib itor
ĠSamenvat tend
Ġth ym
Ġses sies
Ġser ologie
ab ces
ĠInt ensive
Ġad renaline
Ġvi raal
Ġdox orubicine
Ġb v
ĠE PD
Ġreactie f
Ġaan spreek
rad ing
lic lazide
Ġb aden
ĠD elen
Voor geschiedenis
Ġp ool
Ġm erende
ulmon aal
Ġlucht houdendheid
Ġn ebivolol
Ġsubopt imale
Ġpneumon iae
Ġmacrof aag
our ce
Ġdynam isch
Ġass ays
ĠT RI
Ġ9 3
Ġstenose graad
ant igeen
Ġdaar in
Ġsc oliose
e chocardiografie
Ġbacter iÃ«mie
Ġfac il
Ġgez ins
ure erd
Ġbact eri
ĠP alp
Ġ(#.# -#.#
T OR
ĠK amer
ĠZ wangerschap
gest aan
Ġfysi ologie
Patient e
H emat
ĠC NS
Ġged achten
Ġverlicht en
resent atieve
Ġadvis eerde
ver antwoordelijke
hydrox ide
Ġpericard wrijven
ĠK rijgt
inf iltratie
ĠCardi ovasculair
Ġver laten
Ġoesophag us
Ġru we
verzam eling
Ġhoog stand
ĠMedic ijn
Ġfib rotische
Ġcre Ã«ren
Ġgelei delijke
Ġbehoe ften
Ġverv roeg
og ie
sc ript
vul dig
ĠN agekeken
ĠDig oxine
" -
Ġsp eeksel
ĠPsych iatrie
Ġram ipril
Ġgeh al
Â ·
Ġgeleidings vertraging
Ġnas chol
er wijs
ĠOn langs
Ġan afyla
Ġezetim ibe
Ġserum creatinine
a af
Ġt issue
Ġtoege kend
Ġ201 8
Ġal lopurinol
be heer
ifest yle
oh n
ĠItal iÃ«
ĠTr ig
Ġgem ot
gebre ks
c um
Ġal lo
Ġgrad aties
igen en
Di alyse
Ġst rom
ĠT a
lamm ing
Ġile um
Ġth yro
raa ie
ĠR ad
ĠD aags
ĠCom mun
ĠH G
Ġdilat ed
Ġst opt
ĠR Ã¶ntgen
ĠT BC
Ġinter rogatie
ex per
ĠAM L
open ing
zet rol
Ġlept ine
Ġaanged ane
Ġbloed suik
Ġs oft
Ġserum spiegels
syst olie
ĠR eeds
Ġtra umatisch
Ġtransp ireren
ĠP CM
Ġtumor cellen
Ġgeest elijke
g amma
Ġstu kken
S ense
Ġet hanol
ne de
Ġken nen
ver v
sc oop
cent risch
c olecalc
Ġac idose
ĠCardi ac
oppervla kte
egraad s
ĠS L
Ġgeobserv eerd
v lak
m ers
Ġhart klachten
ys ipel
Ġlong carcinoom
Ġp df
ĠL ocatie
Ġsubopt imaal
o ung
Ġw on
Ġn iks
Ġradi otherapeut
T APSE
Ġ ],
mis handeling
ĠWaar den
Ġt a
ĠInspanning stolerantie
Ã ¤
Ġaangeb racht
( [
beg rip
Ġpregn ancy
VU LL
ge volge
Ġdevic et
Ġv elden
ant istoffen
it ing
ĠP ulsaties
Ġof fic
een heden
Ġd ri
ĠB ritish
to om
irurg ie
Ġhemat ologie
Ġ) #
alg ia
ĠEB V
Ġk west
Ġgec ons
Ġhev ig
ose pt
Ġon juist
ter us
Ele kt
ĠFer ritine
Ġbereik ten
zetim ib
Ġ# (#
ĠLas ix
erv ice
om yc
Ġleuk o
clit axel
Ġthorac alis
spre ekt
Ġ9 1
Ġpak je
Ġvolum ina
Ġkracht ig
l ichaam
Ġhol osyst
ill er
ĠAo i
ĠCC N
Ġruggen merg
p a
Ġh alluc
Ġgeboorte gewicht
Ġeryth emat
ĠS v
Ġduoden um
Ġvar ic
Ġannulus dilatatie
Ġmill iliter
ĠOnt wikkeling
Ġverkla art
oÃ¯d ale
: *
ound ing
ĠDu plex
Ġvol ksgezondheid
Ġlaad tijd
ĠgeÃ¯n itie
Ġvent il
he pat
Ġneu rot
Ġfinanc iering
Ġcommerc ieel
h ome
ang iotensine
orad renaline
ĠGeleid ingsstoornissen
Ġis oprenaline
ĠEp idemiologie
S MA
Ġopvraag baar
OL OG
Ġslik ken
ĠW BC
ĠRec om
Ġgemen gd
en zymen
Ġverd wijnt
RS A
ron den
int olerantie
ĠPro ject
Ġbesliss ingen
Ġelektrocardi ografische
ĠDiffer entiaal
ĠB ureau
Ġtranscript ie
Ġ il
Ġvoedings middelen
intest inaal
Ġhersen bloeding
Ġtal rijke
ĠC FR
prol aps
Ġbil ateraal
Ġgeorganis eerd
hart falen
Ġgeavanc eerde
s ur
Ġcorrel eren
Ġplaatsv ond
Ġd gn
ĠObst etrie
1 50
Ġander zijds
Ġthorax beeld
Ġondersteun ende
ĠKl ik
Ġte veel
Ġantip sych
valv ulair
n iciteit
Ġbij houden
dt ype
st atist
Ġwand verdunning
ĠT w
Ġa VR
Ġventrikel respons
Ġle ken
giÃ« ne
ĠF emor
ent ion
ell ere
eert ig
Ġinter ventriculaire
Ġv h
amin ation
Ġm bv
ĠM amma
Ġger ep
Ġextra ct
ĠLe ucocyten
Ġgestenose erd
ĠG GT
trans ferase
b a
Ġver gele
rad axa
P uls
ĠVer moeidheid
Ġonsch ul
stit utie
gen erie
Ġhum erus
ap ro
Ġmy x
bron ch
Ġmy opathie
orgen den
Ġf eedback
vo erder
Ġgeruis en
m uc
ĠB iv
Re chts
Ġblijven de
arc oumar
K S
Ġmac ula
Ġhypok aliemie
Ġconf ounders
ĠS oort
Ġhoofdstam stenose
Ġplaveisel celcarcinoom
h azard
ĠVS M
ĠKwaliteits gelden
Ġ(, ).
b ipolair
iclo sporine
Ġc ocaÃ¯ne
re modellering
Ch ol
Ġvolg orde
it ney
re ert
kal veren
ĠEffect iviteit
Ġz ui
Ġinval iditeit
Ġhaal baarheid
ĠD OC
ĠV U
Ġintermitt erend
ĠM ijn
ĠCor on
ĠCom bin
Ġtrain ings
Ġdevicet echnicus
Ġh ippocamp
sulf aat
ro od
Ġal anine
nieuw e
w th
ibr atie
f ollow
as h
ĠC arb
yper ing
Ġcyt oplasma
Ġbaarmoeder hals
AD ENOS
ĠGer ust
ĠElect rische
Ġpersoonlijk heids
Ġant istollings
Ġknie Ã«n
Ġcaus ale
Ġverst erking
ĠSA RS
ĠCo A
Ġverschui ving
Ġo hm
Ġaangren zende
ri kele
Ġco agulatie
Ġpols frequentie
de generatie
ĠFrank rijk
af en
Ġvrien den
Ġprostaat kanker
odynam ische
ĠHypok inesie
ĠP DS
Ġvlees kalveren
Ne em
ĠÂµ m
Ġscherp e
Ġdoor verwijzing
ĠMe ch
at esse
ĠV orige
Ġcris iss
Ġge me
Ġaange zicht
bi opten
H uid
defect en
Ġpolymorf ismen
Ġle eg
Ġvergemakkelijk en
re sten
of emor
Ġkw ad
ecept or
Ġaanknoping spunten
Ġver le
Ġaf delingen
han asie
Ġrep orted
ct ische
organis men
M y
Ġpro be
Ġval idatie
Met formine
ĠDag behandeling
aan vrager
amp utatie
Ġhoofd behandelaar
Ġvaso dilat
Ġl iezen
Ġst rikt
u profen
Ġbeeldvorm ings
la sten
Ġhyper reactiviteit
Ġw ijn
Ġmede werkers
Ġhem ip
Ġdiscrep antie
Ġax illaire
Ġperiode s
ĠCRP S
sch ouder
ĠX thorax
ĠL T
Ġzwaarlij v
Ġopleidings niveau
ĠOkt ober
all ot
Ġcombinatie therapie
Ġt iÃ«nt
Ġcorresp onder
A g
ad hesie
ĠAd renaline
Ġexper ts
Ġrem de
age s
ORA AL
M acrogol
st raat
Ġkin etiek
. %
ect omy
Ġpas sieve
Ġsen ior
GEV ENS
Ġactiv eert
Ġc s
ĠEvent ueel
ĠCor ona
ĠF osfaat
Ġint oxicaties
spar ende
Ġbe sprak
procedure el
Ġs amenvat
ĠAO V
Ġbloed armoede
Ġaf neemt
ĠDilat atie
Ġklier weefsel
Ġprofylact isch
lijk s
Ġtreat ed
ĠRec ept
Ġopio Ã¯den
ol us
ĠD ou
di fferent
Ġgel dig
um er
Ġmetab olische
verte genwoordig
ĠVer t
opy ramide
Ġsch eur
ĠÎ Ķ
Ġafgeb roken
af stand
overeenkomst ig
Ġmatern ale
Ġperic ardiale
ĠM iddel
Ġd opamine
Ġaccept abele
Ġ(#-# %
12 0
Ġox idatie
Ġpri ori
Ġvoorspellen d
Ġjourn al
pl atting
Ġcontro versie
Ġf ruit
Ġcort isol
oss a
Ġemot ioneel
Ġpoplite a
OC M
wit ser
Ġar ry
u z
Ġst oma
Ġapolip oproteÃ¯ne
Res ultaat
Ġchl oor
Ġopge trokken
Ġimmuun systeem
v ement
Ġgener ieke
) |
Ġmitralisklep stenose
Ġpostpran diale
ĠD BC
en ario
ĠIrreg ulaire
Ġinwon ers
Ġovereen komend
an amnestisch
ĠRe ageren
Ġzw emmen
modi ficatie
Ġs afety
-# :
Ġhuid afwijkingen
Ġbescher mend
Ġreg ulaire
Ġmortaliteit s
Lin kedin
Ġm erkte
Ġwond genezing
Ġgest ruct
Puls breedte
Ġultras ound
ĠB uiten
Ant istolling
ĠLan delijke
ĠL WI
Ġnier insufficintie
ĠH eup
el v
ĠN J
Ġth ee
issel end
Ġver vel
te s
Ġhouden d
Ġb ox
iz ing
ank bord
Ġkeel pijn
Ġn atief
be vat
ĠStaph ylococcus
weefsel s
ĠPsych iat
Ġsept al
qu in
Ġtroponine s
ĠA kinesie
Ġvergele ek
kw amen
Ġwandbewegings stoonissen
o B
arg inine
Ġstudie periode
ĠS ieswerda
Am plitude
Ġcardioversie s
extra ctie
rocedure el
verla gers
Ġsp iraal
ĠLong ziekten
ĠGE GEVENS
Ġ#- [
Ġkil o
R CT
ijd ing
L icht
Ġk opie
Ã ¡
ĠTh erap
ĠF requente
Sh ort
Ġhemorrag ische
et st
ĠC ru
Ġcre stor
Ġs o
Ġverm elden
ADENOS ON
ef low
Ġbetrouwbaarheids intervallen
Ġg ol
gra den
Ġald osteron
Ġk it
ĠI mpedantie
Ġoverleg d
arde h
Ġsuspect e
V ast
Ġint rinsieke
OP R
nem ende
Ġgast ric
Pol s
Ġv ect
Ġaug mentin
ĠSt room
Ġpl anten
Ġmicro albuminurie
ĠHyper cholesterolaemie
ĠH L
app a
Ġl opende
Ġlong oedeem
Ġsuper ieur
loos heid
Ġac ne
Ġges neden
ĠOpmerk ingen
Ġuitge werkt
ĠEp is
N ov
ple k
Ġgekarakter iseerd
Ġlinks zijdig
aritm ien
ysipel as
ĠCar elink
ĠI DM
Ġisch emic
Ġtoe passingen
bre ken
Ġverge zeld
ĠRand voorwaarden
Ġa uscult
ĠAn n
Ġlab orator
Ġ> #.#
Ġchec klist
ran ten
ĠL ymf
ĠAB O
ĠAf ro
ĠContinu e
Ġbij nieren
Ġmod ulatie
PW V
ĠREG ADENOSON
Ġ- #.
Ġisthmus block
k ker
Ġk eerde
ĠVer moedelijk
Ġgezamen lijk
Ġkwantific ering
l ymfocyten
Ġbe weeg
Ġre model
Ġcardi ologisch
Ġ18 0
Ġbevolkings onderzoek
Ġfemor al
oes ophage
Tn T
Ġm er
fosf orylering
ĠCE A
Ġall el
Ġaanval s
ĠL L
oc iaal
agn esium
VA S
Ġaller lei
Ġimpon eert
Ġversle cht
Ġt ube
it ron
Ġkauw tb
Ġvoel baar
Ġbescha digde
ib le
Ġdo of
Ġab usus
Ġruim telijke
Ġn en
Ġtransth oracale
ill i
gramm ering
r or
Ġproject erend
Ġduid t
ĠSur ve
b us
Ġp rag
molec uul
Ġaanto onde
ĠBic uspide
Ġzwangerschap pen
cap aciteit
Ġuitstral end
Ġversn eld
ĠV annacht
oud heid
Ġbe han
Ġbevest igden
Ġequival ent
in suff
Ġcatechol amine
r yl
Ġre compensatie
ĠDelen Linkedin
ĠRel atie
ma ag
ĠKw ant
ĠpatiÃ«nten vereniging
ĠImplementatie plan
orie el
de ma
i rium
Ġaanged aan
ĠM is
ĠU IT
ĠC Z
Ġgest oord
ysp lasie
spoed patient
uur de
Ġsil denafil
ĠAfwijk ingen
Ġhistopath ologische
Ġcrisiss ituatie
Ġbi plane
Ġmeer maals
nem er
pat ch
Ġoverleven den
syst olisch
Ġsn ellere
Ġregel s
ĠBest uur
im umab
Ġma ste
ul teit
Ġreversib el
I M
Ġdubbel blind
breng st
Ġgon artrose
Ġsh am
effectie f
Ġk atheterisatie
Ġirreversib el
Ġsch ouders
BP C
sproble matiek
Ġth rill
ĠCOR ON
1 000
Ġinh ou
Ġwerk wijze
ph a
Ġre veal
P LA
Ġj unctioneel
Ġsom at
Ġver plaatsen
Ġk wij
ĠTurk ije
Ġt no
Ġaber rante
em ar
il and
E u
Ġbere kening
Ġanders zins
Ġrec order
Ġ iter
i qu
Ġbeginnen d
ĠPlaats ing
Ġincom pleet
Ġkinder leeftijd
ĠR ES
im es
St oppen
Ġgec alc
ra b
Sub diagnose
In vulling
A CT
ĠZ weden
ĠInspanning stest
K l
Ġtemp or
Ġd re
o die
ĠVer zekerings
ĠN acht
Ġsla per
Ġtoege voegde
Ġwijd ver
f L
Cardi ogene
Ġbron cho
Ġin otrope
Di agnost
og lyc
Ġover gezet
h oor
Ġvoorzien ingen
g luc
Ġn oemen
Ġ( ?)
ĠIn suline
r antie
Ġmeet baar
is al
ĠSla ap
voren s
Ġcorticost eroÃ¯d
Ġscha delijk
Ġmult ivariabele
i w
p ora
Ġmon okl
Ġcontrast middel
ĠAMP K
Ġfamil iair
Ġhemat ocriet
ĠLang dur
pot entiaal
Ġprogramm ering
S Y
Ġmen inge
Ġarte fact
ĠsuÃ¯c ide
Ġdes ign
Ġstri kte
end ocarditis
ear son
Ġvest ib
ĠFiet sen
ram ine
Ġcontroversie el
Calcium carb
Ġon tere
ĠCom ment
Ġclass ific
me ster
Door lichtingstijd
lin ieken
du ctieve
ĠInf arct
ĠSin ustachycardie
Ġob st
ĠHolter onderzoek
Ġib uprofen
Ġ(> #%
Ġzenuw en
ĠD yslipidemie
Wh itney
ĠVerander ingen
r ond
ĠP ER
Ġbloed afname
ĠPs oriasis
Ġge oxide
Ġernstig er
E CV
l atie
Ġbevorder ing
ress ion
Ġfl ank
Ġb ank
Ġals ook
Ġstuk je
CV RM
Ġd reigende
ĠV CS
ine d
F amiliaire
Ġdu al
Ġs arcom
apopt ose
Ġorigin ele
rist al
Ġh erkent
Ġre k
4 00
v oc
Ġp ack
in dic
Ġhoog gradig
ĠAf kortingen
Ġz aal
kn apt
Ġis su
ĠMS CT
Ġcur atieve
Ġde ficiÃ«ntie
Ġcardi ovascular
Ġpos ition
ge val
arcin oma
Ġsurv ival
ĠS OL
ĠA AI
um c
dis c
ĠEp idemi
ent ia
Ġantioxid anten
ĠEchtgen ote
ver zorg
ĠEx t
Ġjon gens
ĠHier onder
Ġte en
Ġbe adem
Ġverk ouden
An alyse
b oud
Ġm aandelijk
verlen ging
Ġvag inaal
Ġemb ry
Ġnatriur etisch
Ġbeoog de
c ox
Ġ#/# ,#
Ġaange duid
Ġben o
ĠR BC
ĠEnt resto
Ġval g
Ġc le
ortic ost
Ġeerst verantwoordelijke
A ort
ĠC ovid
ĠDi verticul
Ġremm ende
elat onine
ier s
Ġtw o
Ġverge ten
Ġna vraag
Ġhuid uitslag
CA L
mm el
UM ENT
Ġidi opath
Ġontplo oid
Ġtegenstrij dige
ĠgeÃ¯nitie erd
Ġ id
ver wijsbrief
Ġweg geraakt
Ġcholecyst itis
ĠH I
ite ct
ĠPL Cx
er gen
ĠB ot
ĠW an
Ġmethyl pre
Ġcombin aties
H ier
Ġs oa
eer ste
Ġbloeddruk ken
Ġstim uleert
s o
Ġm ore
ĠSt and
Pre dilatatie
vermin dering
os ale
Ġregist ry
Ġa ft
u ale
Ġop regulatie
ĠCO X
voor al
Ġm erken
RI MA
acc umulatie
ĠT ricuspid
oc ain
ĠBe spreken
Ġpoly merase
iglycer idemie
ĠCom par
Ġs clerotische
Ġcorrel eert
ĠR andom
Ġonder ver
Ġkinder tijd
Ġmolec ulair
de kken
Ġh ave
der ly
ON D
ĠCA S
ĠcTn I
ant erior
NV v
ofosf amide
Ġmaag zuur
Ġconst rict
ĠH MC
sen de
enter ologie
Ġmoder ne
ĠLaborator iale
Ġaccur atesse
Ġwat t
ĠIsch emische
Ġdetermin anten
H er
ĠA J
Ġpot entie
r alen
Ġgemandat eerd
Ġcis pl
ver werking
Ġklep penteam
K lachten
Ġl uid
Ġklep blad
Ġop laden
Ġt ap
OC T
ĠUl tra
Spec ial
Ġevol utie
ĠWee kend
u di
Ġoste omyelitis
Ġger egistreerde
ĠOpnam ed
Ġmg r
Ġverd ubb
Ġlig gende
Ġprote inurie
ĠIn greep
iche w
Ġal buminurie
Ġleuk ocytose
ĠInterval anamnese
Ġver slaving
Ġsubs idie
atief ase
Ġovertui gend
dat a
ve d
land s
ĠMi ctie
ĠsuÃ¯cid aal
il ine
ent s
Ġuiter st
Lip iden
em de
ĠI BS
qu ine
Ġdwar s
Ġge ografische
ĠFiet st
Ġger aakt
Ġpap illair
Ġhypox emie
Ġcyst ische
ijft ig
ĠErg o
Ġb are
ĠG ATED
ibr ary
du ction
Ġasy mmetrische
ĠHoe st
ĠpatiÃ«nten voor
12 5
Ġkram p
ĠC ur
em atische
ĠN oor
ĠPh ysician
Q C
b od
ĠIg E
ĠEnd ocarditis
ver groting
ĠV ztb
Ġvert eld
Ġcorrel eerden
R osuvastatine
ĠEch ocor
re cor
Ġwil dtype
B A
f rag
Ġop lopende
ĠP ravastatine
Ġla min
ut ion
Ġzorgvul dige
ĠZelf s
ĠB A
Ġwerk nemers
z n
Ġgehal veerd
Ġdeel namen
ĠIndi a
ĠWervel kolom
Ġafw achting
Ġge ann
er um
Ġactiviteit s
Ġnerv us
ra che
Ġnit raten
Ġet i
f ol
ĠEndoc rinologie
tot ale
ĠC t
be zoeken
Ġblok keren
Ġrecur rent
ĠII b
ĠAm iodarone
ĠV RA
Ġgen oom
Ġgem onitor
Ġap neu
Ġreage erde
ing ang
OR T
lab or
s ink
Ġtachy aritmien
Ġ#+ #
ĠS witch
Ġâ Ĥ¬
Ġontde kte
Ġin zetten
Ġbesch reef
snel heden
Ġverd unning
och rom
Ġvl ot
Âµ g
E ch
Ġaut ologe
ym p
Ġinc onclusief
neur oloog
ĠV VR
Ġhemat oloog
Ġvet zuur
Ġra ken
ĠV oeding
Ġp ed
ĠC riteria
ĠMit raclip
iton itis
Ġth erm
ĠZ witser
Ġger ec
PatiÃ«nt e
Ġk uit
Ġqu ad
Ġh f
Ref erence
ĠRep resentatieve
op lasie
del ijns
s onde
ase s
vd H
f ederatie
ĠZ onder
Ġt rem
Ġsyn ov
in alis
ĠT D
Ġop v
op ram
Ġ199 9
Ġna ge
uit gang
Ġgeleidings stoornis
atrie mie
ra dic
ot ing
Ġn er
Ġap art
pel oosheid
oplas m
ĠSt ralingsdosis
bl anco
Ġinc identeel
alte parine
ast en
Ġpsy cho
ant us
Ġd iclofenac
Ġtre kt
micro scopie
Ġverg oed
Ġsub arachn
Ġzij tak
A chter
AT EN
Ġn eph
Ġnet to
Ġmoeilijk heden
f mol
Ġd aalden
AC R
Ġn i
Ġbet aald
z il
s zorg
hor end
Ġres istent
clude d
Ġhulpverlen ers
k las
iz ers
in etische
ro otte
ĠK L
Ġvoorzicht igheid
Ġdik ker
Ġra den
Ġb ac
Ġ- /-
am a
urid ische
Ġom zetten
RI L
Ġgege ten
ĠStre pt
or et
ĠA cht
eg uleerd
yl ocain
Ġf ax
form ance
Ġin spectie
ila d
be wegingen
Ġepigast rio
sp leet
Trombocyten aggregatieremmers
ĠCR S
Ġaz athioprine
Ġop a
ĠMin imaal
ĠB MD
Ġgrac iel
Ġ- )
Ġlever venen
i aanse
ac us
LV ED
Ġcy an
ĠDOC UMENT
M o
c ave
Ġge deeld
ĠB al
E nd
Ġdi vers
Ġmerende el
ost ri
Ġlong geneeskunde
ocor eg
ĠA tenolol
ys ical
Ġdis locatie
ere se
ĠSpec ifieke
ĠH J
Ġgelu id
je ure
Ġtachyc ard
ot erol
Ġopmerk elijke
ĠGenees middelen
yro sine
ĠGemiddel d
Ġkwant itatief
tect a
ital opram
I nst
Ġexclusie criteria
Ġsol itaire
activ ity
st raling
Ġbi atriale
es ultaten
Ġge wijzigde
b ank
Ġp ees
Ġverh ogingen
ĠOF F
ĠB lood
Ġr illingen
Ġsec onde
Ġamylo Ã¯dose
ĠPass ag
N HG
Ġsur rog
ĠT SP
ĠCh amuleau
Ġint r
Ġfollow ing
T M
Ġre kanalisatie
Ġobserv ationeel
Ġmisk raam
ff ort
io blast
Ġvocht retentie
G oed
Ġb indt
Ġsoort gelijke
ul atoire
ĠO ff
OLOG IE
kwad rant
ĠAandachtsp unten
Ġ#:# .
Ġkatheter ablatie
Ġinterview s
at rische
ĠB ay
uberc ulose
Ġin continence
Ne derland
woor dig
yc ard
Ġob jectief
Ġcarb asalaatcalcium
Ġv iew
gen otype
Ġboezem flutter
s itis
Ġs ettings
ath eros
ĠBe sch
as ale
Ġpro even
Ġrechts zijdig
bet rokkenheid
Ġhyper in
Ġg rijze
ĠST AT
st ichting
Ġbreed te
ĠP ublic
ĠM CI
ĠSc iences
ĠT ok
ĠSt aat
Ġinsuline gevoeligheid
Ġtermin aal
Ġc at
ĠHemat okriet
m ort
Ġaanleg gen
low ing
ĠAH I
Ġtransvers ale
Ġh ap
Ġt han
Ġcoronair insufficientie
ĠT s
ĠP AS
ĠPW V
Ġverk eerd
Ġstikstof oxide
iv um
ĠVerk al
Ġ roepen
Ġch ond
Ġschiz ofrenie
Ġlichaam stemperatuur
Ġgeaut omat
Âµ Gym
Ġconcre menten
ĠF allot
Ġposttra umatische
Ġbas o
Ġperip rocedureel
ĠAN G
i ders
Ġverb anden
ĠGe sproken
ilad res
ĠER K
Ġinstroom belemmering
Ġster iele
i zen
Ġrh onchi
p te
ĠPost operatieve
ĠDist aal
r Ã¶ntgen
Ġscler otisch
an a
Ġrem ote
Ġsp inale
Ġrechterboven kwab
Ġbelast baar
ĠV V
Ġontde kking
Ġdyst rofie
ge k
ĠZ od
ĠPL CX
e vt
Ġ#/ [
M it
iv itis
Ġselect eerden
Ġven sters
Ġknie prothese
NE W
Ġpost partum
l eren
Ġhem ochromat
ĠG J
ĠCapsure Fix
on nen
Ġpren atale
Ġw inter
Ġf oci
or r
Ġlid ocaÃ¯ne
Ġradic alen
comp onent
ĠG A
oes ofag
Ġverkrijg baar
ĠToe komst
Ġloop band
l ike
Ġgemakkelijk er
Ġun iforme
gebruik t
ĠPA I
it eerde
ct omy
li ximab
gebreks anemie
F H
ĠU rologie
is sectie
Ġinvent aris
Ġbegrens d
ĠM olec
, .
Ġl oss
ĠL CC
Ġmamm ogram
ĠMin nes
ver vangende
Ġspec iaal
ĠCholec ystectomie
om ide
ĠD N
Ġcomp ati
Ġcon gres
Ġex ces
ĠRA AS
Ġcereb ella
Ġgedrag stherapie
Ġhier aan
Ã¨t ablokkers
Ġfosf or
A ziatische
Ġge voerd
ĠK nelpunten
entin el
Ġlinker nier
Ġverz a
OPR OLOL
itatief ractie
Ġnec rot
Ġvoor beelden
vert eerd
Ġkwal itatieve
ĠMinnes ota
Ġdu ale
sl ijm
Ġonge val
bre king
Ġbloedings risico
dib ulaire
D yspnoe
am inen
ont rol
Ġgec o
Ġht tps
Ġintegr iteit
re cisie
of yt
Ġdist ributie
Amerik aanse
Ġgedifferentie erd
Ġax iale
Ġexacerb aties
Ġrisic ogroep
D aar
Ġonder voeding
est er
ĠAt t
Ġde ment
ĠAustral iÃ«
raction eerde
z uigen
Ġpart ners
b asaal
arc oom
Ġven ster
Ġhist orie
Ġonderver deeld
mp je
ĠA Z
cont ractie
Ġ#/# /#
Ġparoxys men
Ġdrager schap
du raal
E rg
ĠC erv
emat ic
ĠBrit se
Ġconst ante
Ġwer kende
Ġimplant eerbare
Ġret ina
ĠDi ameter
Ġmeld den
uin alis
Ġd ragers
Ġbe spreekt
Ġpro t
Ġt ol
Ġc lav
iek lachten
er get
Ġd alen
Ġhs CRP
Ġrechter nier
s oftware
ind ow
y g
ost ale
ĠAf ib
Ġsmal le
ĠKonink rijk
pra isal
ĠE EG
ĠSc intigram
orf ine
ĠH CC
Ġw sch
arcin omen
Ġvertra gen
la zen
Ġexperiment eel
ĠDiagnost ische
oe uv
Ġpath oloog
ĠGes laagde
Ġeff iciÃ«ntie
Ġcycl o
Ġbloed gas
Ġmictie klachten
Ġbrach ialis
ver pleegkundigen
ar el
Ġap paraten
andom iseerde
Ġhe ad
Ġs urgical
ct u
Ġplacent a
Ġonder nomen
Ġatheros cler
ul ten
Ġpost erieur
ĠHO MA
Ġs ex
ĠA de
ur is
ĠP ower
ĠHT N
ĠC la
event s
kun st
r un
w et
Ġant if
ĠAn der
Ġfarmac ok
m ult
ogen etica
afhankelijk heid
ĠLabor ant
Ġad apt
Ġverwacht ingen
K O
Ġk olom
tri al
ĠBe schrijving
ĠAL T
idi afragma
ĠPA R
ĠP anc
Ġademhalings frequentie
Ġcolorect ale
ĠL WK
os iteit
Ġintra operatieve
Ġmarg inale
Ġbeschouw ing
st rom
Ġgec ol
S L
Ġp iepen
Ġact in
Ġop slag
ot ab
Ġa men
Ġultra son
rikele jectiefractie
Ġradi ale
Ġachter halen
Ġc it
erapeut ische
Ġvoorbere id
Ġantim icrob
st oft
Radi alis
Ġvasovag ale
Ġresult erende
Ġante grade
ĠD opamine
Ġtricuspidalisklep insufficientie
Ġver re
Ġfront ale
a ft
Ġischemie detectie
ot subo
oth yroxine
Ġtromb ine
ank elijke
Ġanticon cept
Ġma jeure
Ġaf platting
ĠC y
Ġrec e
ĠHart bewaking
select ine
vaar digen
ĠZoek verantwoording
ĠEn alapril
iv irale
Ġgemonitor d
Ġdermat itis
ĠE d
iv us
Ġhoofd ingang
ĠPro tecta
He art
Ġdiagn osen
Ġver ont
Ġendoc riene
re eds
Ġop laad
CT R
ĠK C
Ġgeblin deerd
er a
Ġbloedsuik er
T DI
lymf oom
Ġspreek kamer
Ġetn iciteit
ific ations
Ġtri mester
Ġ201 9
ĠC lass
ĠP rol
ĠACI DO
iss ing
Ġwel iswaar
Ġskelet spieren
ĠAneur ysma
nem ann
Ġgekwee kte
ĠPro min
Ġtoets ing
rie s
n ium
Ġcollaps neiging
Ġzout beperking
Ġverwijz ingen
ĠER CP
ĠKore a
ĠST S
sla ap
Ġbeoor del
Ġmet al
ĠS AP
Ġradi us
Ġinduc eerbaar
b ic
ĠV l
ĠB cl
Ver wijs
Ġover gedragen
th oracaal
rec idief
ĠH IF
Ġvaat lumen
ĠBar ret
Ġcardiover ter
id ney
Ġlan delijk
vergelijk end
Ġkil ometer
Ġsub ple
AC HD
ma iladres
R ivaroxaban
behandel ingen
ĠPer centage
Ġbu kken
Ġer a
Ġrec overy
Ġs us
injectie s
O ndanks
m aten
Ġflow cyt
Ġmitralisklep plastiek
Ġgespec ificeerd
ch roon
Ġveiligheid s
Ġkortademigheid sklachten
Ġl onge
ĠAN D
ar esse
: <
ĠSh ock
ĠA MS
Ġcom bi
Ġpromin ent
Ġcon vention
Ġbew uste
Ġtoe gestuurd
Ġthromb ose
min uten
Ġten en
ran ul
Ġgemot iveerd
comp uter
ant a
ĠE ff
kle in
Ġafgest emd
> /
ĠAan ge
Ġmid azolam
Ġw inst
ati de
ĠV raagt
ĠF ragmin
ĠU terus
Aan vullende
Ġport ie
SK MS
Ġant hra
ico agulatie
ĠHel sink
Ġaf d
rop s
Ġis of
Ġin geb
Ġvrien delijk
l oc
ĠHealth care
ĠInst abiele
Ġd oppler
Ġaf weging
Ġvo icemail
Ġregist raties
Risic oprofiel
menopauz aal
Ġst aps
ĠLang ste
ĠATP x
ĠL apar
ĠVer schillen
Ġhe id
Ġlipiden verlagende
. /
ro of
Ġ(# ;
ged aan
Ġeerstelijns zorg
Ġk atten
Ġv on
if ere
ist ieken
Ġcost omy
ĠHelsink i
ab d
LM WH
art iculaire
ch ar
ĠP antozol
Ġliter ature
ĠL Y
Ġse iz
omot orische
ang st
volg ing
ver wijzen
Ġaf lever
Ġmonitor zone
ĠR AS
Ġverspre ide
net jes
Ġclass ification
Ġbed rijven
Ġelast ische
f ellow
Ġgestim uleerde
Ġstabil isatie
Ġvak gebied
Ġob ductie
eren ces
" :
k eer
Ġtrans femorale
Ġa ir
pla que
Ġgeslaag d
Ġph ase
Ġpass eren
Ġverzorg ing
Ġt ortu
Ġin vitational
Ġintest inale
ĠKort adem
igen d
Uit slagen
in houd
ĠPro x
Ġdef ecatie
epine frine
Ġstra k
B Ã¨tablokkers
Ġheft ige
sp lit
Ġaort ale
hes is
.# :
Ġverzw akt
Ġa o
Ġneur ale
Ġaneurys matische
Ġalve olaire
kram pen
T e
s orb
Ġbegrij pt
Ġhist ologie
m ass
ker n
Ġkan alen
ben adering
CM R
N VT
Ang iotensine
ĠMultidisciplin aire
ak elen
Ġsens orische
ĠT X
ĠB ijna
Ã¼ nemann
it ol
? ,
Ġge wezen
ĠF ac
A UC
cl op
coh olische
Ġbijdragen d
ĠN ut
Ġser iÃ«le
Ġnab ep
Ġverge et
ĠDeel name
voor ziening
Ġmedic ation
u if
Ġspra k
Ġhernieuw de
Ġinterpret eren
icip atie
Ġing u
Ġdag behandeling
iÃ« ctomie
met a
ĠOrth op
Ġrechter been
ĠPers oon
Ġwan delt
ĠA ureus
Ġver waar
or p
it alis
Ġsub jectief
Ġople vert
Ġen erzijds
Ġg aten
all oprote
ag as
Ġlig ament
home ostase
Î Ķ
Ġmyocardinfarct en
Ġhome ostase
L ongembolie
Ġr is
Ġaange toonde
Ġcox artrose
Ġop vang
Ġnet vlies
EM IE
Ġlaag gradige
j aag
Ġnale ving
Ġgevoel ens
Ġtransp ar
gehal ten
icag o
ĠA BI
sy nth
ĠL ig
ankbord groep
x pressie
ver if
Ġlinker been
ĠMe di
wee s
l anden
eter de
Ġna denken
cont our
Ġ10 3
Ġk aken
Ġing uinalis
ik ken
Ġd m
Bel angrijk
Ġons et
Ġger es
Ġrh in
Ġser ot
Ġmitralis insufficientie
Ġopge hel
ĠC W
ĠR BBB
Verwijs datum
S al
U P
et ro
Ġver antwoord
Ġmil ieu
il de
ap agliflozine
Ġom slag
ĠM TP
Sp oor
te kende
Ġgister avond
Ġom liggende
ĠSinus bradycardie
ĠWell icht
de mie
te gen
ic obacter
Ġtegen woordig
Uit slag
oplast ie
Ġcardiomediast inale
Ġmo cht
uit val
Ġpu f
Ġcoeli akie
Ġstamcel transplantatie
Ġvar ieerden
Ġholter onderzoek
st ate
over dracht
Ġinspannings onderzoek
Ġpre paraten
iss ion
Ġelect rische
Ġhyd ro
Ġax illair
Ġverst oord
ĠS OD
vel ine
ĠPK C
Ġmeng sel
Ġstaan de
ĠAr th
Ġz oster
Ġuit gaande
Ġvroeg geboorte
g ankelijke
Ġle af
ĠAl tern
Ġacetyl choline
Ġmethod iek
ĠZ oeken
ĠPatiÃ«nten federatie
Ġinit iatie
Ġt ent
omar kers
ostri dium
voor t
e em
Ġbasaal celcarcinoom
ur se
iat ed
Di uretica
Ġlang gere
Calc ifications
Ġconstrict iva
ĠT AC
re am
amin otransferase
Ġton us
hes us
Ġna ad
al geen
om ic
Ġadip eus
Ġhartritme stoornis
O HO
Ġover heer
Ġple isters
Ġverd raagt
ĠG S
Ġcogn itie
z ingen
Ġcons um
b uiten
ĠA NA
Ġre kru
Ġbeh aald
roe i
Ġsch reven
Ġt abl
ĠpatiÃ«nten groepen
Ġprob eert
og litazon
ĠRe vascularisatie
wit te
ĠVerz orgenden
h ila
ist iek
Ġover brug
ĠW eer
Post dilatatie
pan sie
Ġport aal
tre cht
Ġpo int
ĠO s
ĠGen etische
Cent rale
oc ell
ĠOnder liggend
ĠPol icontrole
B atterij
AIR EN
Ġzelf gerapporteerde
ĠJ E
Ġth is
Ġtemp orale
ĠBent all
op atiÃ«nten
Ġpost uur
Ġmethod ologie
ĠR ect
Ġl ot
ĠVES SEN
Ġimplant aat
ĠgeÃ¯dent ificeerde
ĠO nd
Ġinter collegiaal
ĠNV N
Ġappro ach
T VR
Ġgegevens bestand
Ġ#,# -#,#
AS H
Ġcontinu Ã¯teit
Ġequ aal
or ptie
Ġcon cludeerden
c re
c reat
ak ken
ĠF amil
Ġech ografische
Kle plijden
ijst en
Ġrec epten
Ġven ous
ri x
14 0
domin ant
ikel y
ĠIntern ist
Ġr ang
ang io
Ġap paratuur
00 6
hersen en
ĠA nesthesiologie
Ġmede werker
Ġstam men
Ġmamm ografie
Neur ologisch
st erkte
P Q
Ġpar odont
ĠR O
ed och
Ġdiabet ici
ĠP neum
different iatie
Ġhaar den
Ġep ithel
Ġver se
vet vet
Ġpar enter
medi um
Ġbez in
Ġtrans gene
ax ine
V AT
ĠPositie ve
ĠSt raling
ĠE EN
Ġopport uun
ĠSt atine
ĠTrombose dienst
Ġvervolg afspraak
Ġj u
Ġvoor handen
Ġal waar
D EN
Ġcon nectie
ĠAT R
ĠDS M
Ġdiast ologie
u ken
Ġpreter m
Ġaut oris
Ġbe werk
Ġover heid
Ġparagra af
ĠA ziatische
t eren
Ġh am
den se
AS D
re delijke
ĠD un
OC X
Ġper fus
Ġthuis meting
Ġpen is
Ġmetabol iet
sat uratie
Ġopgehel derd
pro tectie
Ġeerst egraads
Ġtox isch
Ġsch reef
de ze
iner ge
Ġfilm om
Ġcompart iment
Ġad ministratie
ie ven
secret ariaat
ĠOnder zoeken
Ġt arge
Ġoptreden de
Ġs ul
ĠE ss
Ġbew aking
Ġaan ger
oc aal
Ġtot standkoming
el le
ĠS n
ĠEosinof ielen
h av
Ġvoe gen
ĠC ase
Ġhippocamp us
c eb
Ġp unct
ĠOste oporose
S m
Ġarter y
Ġneut ropen
Lipiden verlagers
W anneer
Ġweer gave
pol arisatie
Ġbescherm t
ĠDer gelijke
y el
it amine
Ġlymf klier
ĠRad boud
um inale
Ġhypert r
Ġvoorsp elt
ar ray
ĠAV F
ĠS oepel
ser um
ĠAss istant
Ġoptra d
c ond
Ġth ema
Ġisch aemische
Ġsuper ieure
Ġouderen geneeskunde
Ġfibr ine
Ġmitochond riÃ«n
M SC
Ġarch ief
ĠJan uari
at oloog
Ġver tekening
ot act
cl in
Ġinduc eerbare
Ġdoorgankelijk heid
ĠL isinopril
ĠBel giÃ«
13 3
g h
uit y
ĠHR CT
u ct
Ġimmun ologische
F ietsergometrie
ĠVer groot
ĠTijd schrift
Ġstres stest
Ġprov inc
Ġge optim
col lectie
Ġtoe zicht
Ġsch uim
):# -#
get rokken
ke y
ĠOm gekeerd
ĠPC OS
Ġovert u
Ġafbeeld ing
ith me
ĠAF C
Ġri f
/ |
Ġonver mogen
ĠV ari
par ath
Ġstand aarden
ij s
ers onen
Ġreg ulator
ag o
Ġeut hanasie
Ġon even
ĠT NO
Ġant rop
Ġmater ialen
Ġdec ubitus
Ġanti diabet
Ġparticip atie
st reng
ĠRV H
Ġeven re
ĠVrij wel
ig ratie
ĠCORON AIREN
ĠWeten schappelijk
us ion
Ġverbet erend
Ġblin d
er mie
Ġgecalc ificeerd
com pro
Ġ6 00
ĠL eg
ut ionele
Ġde compressie
DI C
d ynam
y ma
eg ulatie
erc ise
am sulosine
ĠPLA X
Ġf raaie
Ġradi ografie
Ġpredis pon
Ġs elf
Ġmm hg
ĠPe ak
em i
Ġpulmonaal ven
Ġweer standen
och e
Ġmon o
Ġimmun oglobuline
centrif u
ĠBoven staande
Ġinge v
ĠâĨ² <
T rac
A rg
ged urende
Ġgec ode
wassen en
ĠLip iden
ĠLVED D
Ġimmunohistoch emische
deficiÃ«nt e
: _
Ġorganis me
Ġcollega e
Ġpreventie f
ĠNov ember
dip yridamol
spre ekuur
Ġanal gesie
prof ess
ĠVerzekerings nummer
mat igheid
Ġgecont ra
ĠPro gram
ads vasc
Ġrot atie
sie l
Ġbeno digde
Ġc ot
Ġboven arm
waarde tijd
iose al
ret ie
ĠD V
Ġleveren zymen
Ġbemoeilijk t
ĠES RD
ĠK O
Ġw ig
ĠAort ab
Ġintro duc
ĠGezondheids raad
E p
Ġafkap waarden
c an
ĠFont an
Ġinter vallen
M AP
Ġverlos kundige
Ġstreng th
Ġz oog
part ment
ra akt
ill us
ges lacht
er nstig
ĠE m
Ġj un
sy nthet
ĠPA V
dist ributie
IE T
Ġmult im
w nst
Sc ar
Ġklas sen
Ġaant asting
Ġhem angi
Ġpresent aties
Ġopge knapt
Retour reden
Ġkantoor uren
Ġlongven eflow
ives sel
Ġv rijk
Ġn oradrenaline
mb os
Ele ct
Ġpol yc
Ġlum inale
ĠUitgangs vragen
il ot
ĠP earson
ri kken
last iek
M CG
Ġan us
ra me
Ġgra f
ĠF lu
Nit raten
ĠDiff use
spijn spijn
Ġat ropine
ĠKort om
ĠZoek acties
I ON
all erg
Ġass ist
gebre ken
os ition
Ġsug gest
Ġdi gest
ĠZe ker
rans fusie
Ġdown sloping
ĠOr de
on in
Ġover slag
Ġonverk laarde
Ġimmuun sup
Ġsectie s
Ġin breng
Ġsurrog aat
Z D
h igh
Ġcholesterol gehalte
Ġreag erend
Min imal
Ġgecol lab
be ide
Ġvoort durende
Ġadip ocyten
os um
er ectomie
st radiol
Ġp us
Ġtransplant aat
ran ken
n c
ap r
Ġaf sluiting
Ġdaar toe
Ġlong vaat
:#-# :
t ransplant
in ject
Ã« x
ot one
Ġover schat
Ġst ere
ĠM RSA
Ġele ctief
exc itatie
I CC
he ven
ir th
Ġt ramadol
ĠDuit se
Ġendothe eldisfunctie
Ġsubt iele
Ġont sp
LA A
Ġbruik baar
yp s
ĠSept um
C olecalciferol
Ġbeoordel end
Ġbloedverdun ners
pre paraat
ĠAl gehele
ĠP ort
oscop ic
et i
H a
Ġvol daan
Ġverk laarde
Ġrecon nectie
Ġm and
Ġconcent risch
Ġgem ist
Ġcond uit
Ġsterfte cijfers
Ġimplic eert
Ġverk oudheid
Ġger eed
Ġident iek
Ġdysf agie
S BP
Be sproken
Ġendo vasculaire
ho ge
an ale
Ġinter c
tre kking
ec ontrole
ĠVerk laring
Calcium antagonisten
ĠApo E
Ġl ithium
Huid hechting
Ġherziening straject
bevat tende
t ings
ĠMAP K
Ġdel etie
Ġd ij
y com
Ġt elling
Ġplast isch
AD L
Ġdiep te
Ġa erobe
Ġl v
Ġre aliseren
Ġuitdruk kelijk
ĠH ET
Ġafwez ige
Ġvisu aliseren
ge min
Ġgek ocht
Ġgeblok keerd
Ġve h
Ġf ung
Ġin verse
ĠR he
ort ium
ĠCR C
Ġgewoon lijk
Ġad vanced
Ġontwat erd
Ġpij l
bron nen
Ġlevens lange
Ġvertegenwoor digd
Ġgelegen heid
Ġple x
Ġafge wogen
ZU UR
be et
Ġwel zijn
Ġgec ateg
der tig
Ġsou ff
Ġpremat uur
uret icum
im uleerde
ĠCh icago
HV Z
yp as
ĠCh i
Orth opedisch
gen itor
ĠUit slagen
ĠPlas ma
ĠTK P
Ġelim in
ĠAllergie en
nauw keur
Ġ12 5
ĠEn ergen
pol s
ĠCAR DI
ĠSI RT
bra ken
Ġroute s
Ġamin otransferase
s analyse
ĠV oelde
u y
vit amine
Ġk olon
Ġstuwings kenmerken
ĠCol labor
ĠPerc utane
ĠPatient s
Ġop he
ha gen
Ġwaar neem
ĠK i
Ġrisic or
mis sies
ompen seerd
Ġhalluc inaties
Ġharten zymen
est het
di alyse
ĠMyocard infarct
idi abet
kwart iel
Ġissu es
ĠH SP
E CHO
Ġo gende
Ġwaarnem ing
s nr
Ġoxy gen
S G
Ġdokter s
int ake
Circ umflex
sy l
ep ro
Ġanti hist
Ġinspannings vermogen
Ġdiagon al
ĠSign ificant
Ġa er
Ġsc ans
ĠP OD
Ġvast gezet
Ġsamenge voegd
Ġcontrah erende
ok inase
ĠDec ember
Ġbehandel opties
ur n
Ġneu roc
Ġsi RNA
Ġb in
Ġsterfte cijfer
Ġpen et
osc oop
Ġhila ire
Ġon geluk
Ġbi ologisch
Ġtri age
Ġhand matige
ĠA MO
han dicap
Ġmin imum
Ġuitvo erder
S inus
Ġaf fin
ĠSt rategie
Ġnec rotische
Ġsignal erings
re cent
Ġzwangerschaps duur
T el
ĠConsult atie
Ġcharacterist ics
Ġvoor grond
Ġbeh oor
Gep lande
ch et
Ġbe jaar
Ġpulmon ary
Ġrechterventrikel functie
Ġpract ition
l itteken
Ġgem ar
ĠPre vention
Ġuitdag ingen
ar p
Ġfib romyalgie
Ġp ent
Ġp illen
ec ut
Ġvast en
ĠAn atomie
Ġhyper cholesterolaemie
Ġasp ir
Ġtest is
Ġl ood
ĠE vt
Ġpro ton
Ġhals vaten
Ġantiox iderende
Ġreumat ologie
le ss
Ġnorm en
ĠNS TE
Ã« l
Ġch romat
ĠElect rocardiogram
onyl ureum
p eptide
vocatie test
ĠN D
Ġsens ibiliteit
z es
Ġtom ography
ho opt
sequ ent
Ġuit d
Ġdis s
Fig ure
Ġafwacht end
E DP
Ġdat ar
Ġkop peling
Ġlegitim atie
Ġt ons
Om eprazol
C oum
Ġp arenchym
ĠL G
Ġfun ktie
Ġf les
Ġbronch iÃ«ctasieÃ«n
Ġsubend ocardiaal
Ġten nis
Ġfund us
atri Ã«
ge wijs
med isch
Ġop sturen
Ġgro en
Ġhypok aliÃ«mie
ĠAanbevel ingen
i ru
ĠV oet
maxim ale
idiabet ica
Ġherzien e
verb etering
ĠL ibrary
Ġim port
Ġthromb i
ĠLong functie
neg atief
Ġvertraag d
Ġcombinatie afspraak
ĠC NI
Ġ1 01
Ġsv p
Ġgespre kken
Ġf ract
th alm
Ġcru x
pervis eerde
ĠDiabet ische
Ġsla peloosheid
Ġal vorens
handel d
Ġaort ad
O AS
Z uid
Ġa systolie
ĠJ F
ĠIJ zer
inn itus
Ġst omp
atri aal
Ġach ille
Ġpre klinische
Ġs ek
aan bevel
al se
Ġer toe
ĠPract ice
it iden
Ġincons istentie
Ġover vloe
thuis medicatie
ĠMM SE
ĠBasof ielen
Ġhyperth yreoidie
up periode
Ġs ein
ĠB on
stre ek
ER G
Ġh inge
Ġdoodsoor zaken
ĠS Sc
Ġclin damycine
Ġm uur
ĠBep erkt
Ġagon ist
ak i
lin ke
ĠOnder steun
Ġare a
Ġh aak
ik elen
Ġhart operatie
Achter grond
m apping
Ġg un
Ġmolec uul
ĠTel igen
ob il
Ġgl ioblast
Ġ199 8
com ma
Ġamino zuren
a ffen
C re
ch ing
Ġn oe
reactie ve
ĠRecom mendations
rit ion
vers malling
Ġsup port
os er
elen a
y o
Ġvo erde
Ġzitten de
Ġpart ijen
arel to
ot heel
Ġa ios
as oom
Ġr ig
ĠHU VEC
Ġr ithme
Ġgecon verteerd
Ġinsch atten
L ong
delings datum
ĠS oepele
Ġob t
Ġdaadwerk elijke
Ġinstit uut
Ġkwij t
ĠR ug
Ġborst klachten
G C
Ġc afe
Ġdu im
enc kebach
Ġzwaarlijv igheid
Ġvit aal
ĠRe visie
ro op
fen otype
pri ma
Ġslacht off
ug atie
Ġge verif
Ġzuurstof verzadiging
DD D
Ġencefal opathie
Ġhem opt
ring t
ĠL ichen
org d
Ġgep re
acter iÃ«le
ĠPL R
LV AD
Ġbetre kken
J K
ro blasten
Ġtransp ositie
Ġplaats elijke
ĠTen slotte
Ġdip yridamol
Ġambul ant
ass ist
M F
klier klier
Ġpublicatie bias
ĠSuper visie
Ġleid raad
Ġproport ionele
rid ge
o enen
ag liptine
G es
ĠT ID
ĠS ER
Ġfeb r
Ġade men
pro xim
Ġbe sp
Ġtest ing
Coum arinederivaten
aort ale
Ġhiel p
Ġee a
prop ion
invas ief
Ġ ort
Ġcap itis
Ġtri gemin
Ġmoeilijk e
Ġvisu alisatie
og ere
ĠInt ake
Ġon begrepen
U LT
Ġle ed
Ġamino zuur
ĠEx clusie
Ġrespir atoir
Ġmedicatiewijz igingen
Ġbe wijzen
ec k
Ġcircum fer
Ġactie s
Ġpul se
dens iteit
AS A
ĠNV OG
ĠLan ge
F requentie
Ġp reren
wand verdikking
M atig
van kelijke
Ġbib asaal
Ġo om
ur on
Ġelekt rol
Ġverlen gen
Ġre vis
Ġmeer waarde
stellen de
Ġdoor geven
Ġhist ory
ĠK Cl
ĠAP TT
Ġweg ing
Ġper itonitis
Ġeosinof iele
Ġ(# :#
Ant idiabetica
gevoel ig
ĠAdip ositas
ĠP lot
Ġterug verwijzing
ĠUiter aard
Ġlegitimatie bewijs
ral ogie
ĠDi agn
Ġlymf oedeem
Ġenkel oedeem
M ee
am i
Ġziekte activiteit
oc lop
ace a
ill ing
ĠVen ere
ĠPK P
on afhankelijke
is aties
re uze
Ġrun netjes
at rofie
Ġel ement
zo wel
Ġgecateg oriseerd
ĠS j
alle erd
Ġreg ionaal
Ġmot ivatie
ĠP TX
endoc riene
I r
Ġafw eer
Ġveel vuldig
Ġdig itaal
Ġom ega
om ics
ĠO A
ĠIn form
Ġinterfer on
ĠWeten schappelijke
oc ept
Pre dnisolon
atriÃ« mie
Ġele vaties
ĠNo vo
Ġsterker e
ĠSh op
Ġhyp erd
Ġal kalische
Ġtumor necrose
Ġoperatie kamer
Ġsport school
Ġtw intig
Ġgecollab eerd
Ġb rieven
Ġauscult atie
ĠJ vdH
lu raan
T roponine
Ġr ituximab
Ġviscer ale
Ġiat rogene
t elijk
ĠbeÃ¯nvloed ing
Ġperiod ieke
k ent
aam d
AR C
Ġrep air
III a
Ġrekru tering
ou ffle
Ġpraktijk voering
ĠPT SS
Beoor delingsdatum
on ische
bep erkingen
ie voerder
Ġoverle ef
Ġdo wnst
vascul ar
rapport age
ul o
Ġcomp uted
Ġin versie
ĠE AT
ier es
ov ir
Ġbelemm erd
per itoneaal
PL C
Ġregressie modellen
Ġinter ferentie
ĠHersen en
ar ring
ĠC CTA
ofluor escentie
ĠP iek
Ġeind diastolisch
D at
H yp
ĠG C
ss ss
aritmie Ã«n
Ġbeeldvorm ende
Ġbloed kweek
Ġdatar egistratie
Ġdiverticul ose
Ġaanger aden
Ġradi ologisch
Ġth i
ĠHyper trofische
Ġbur st
P rasugrel
Ġmorb ide
ĠHier in
di kten
Ġren al
Ġ16 0
Ġgro wth
Ġziek tel
Reg ievoerder
Ġmob ilisatie
Ġoef entherapie
-#, #)
Ġsho uld
zen der
Ġy ear
ĠAfwijk end
Ġaut omatische
Angiotensine blokkers
ed ocard
ĠKN MG
fun deerd
Ġbelangrijk er
Ġna deel
Ġpre vent
Ġabl atio
00 7
Ġbrand wonden
at uratie
Ġged ronken
m c
Ġcom a
Ġintrac erebrale
M CH
veil igheid
Ġp ron
Ġge grade
Ġant icoagulatie
spro tocol
Ġvoort durend
Ġrecht op
ĠA x
ĠW K
ĠFol der
vari ant
Ġn ie
im ens
ĠLV ES
Ġel derly
ĠC ereb
Ġwee s
Ã Ń
Ġvi abiliteit
centrifu geerd
mac rof
ĠComment aar
Ġmedi Ã«ren
pol y
Ġk appa
slaan de
Ġrecombin ant
h aarden
ortic ale
Ġ199 0
ox ie
ĠCol on
Ġn M
ĠP en
iv ist
oem t
Ġu ve
toen ame
C ons
Ġver staan
Ġi FR
ras send
Ġin eens
Ġaneurys matisch
Ġenkel voudige
ĠAI C
ĠB le
ĠJ H
Ġdon oren
Ġvrouw elijk
spin atus
ĠJ e
Ġop geleverd
Ġep ine
se min
rofib an
b oom
ble em
ĠEu ro
ĠR OK
Ġval ide
ĠAt riaal
Ġs O
Ġ20 20
ĠBP PD
Ġlevensvat baarheid
Ġrevalidatie arts
Ġst oring
Ġge te
Ġhart weefsel
Ġcip rofloxacine
Ġsamen spraak
Ġst age
Ġf ossa
Ġverg oeding
Me dic
Ġf lav
Ġinsert ie
Ġhep ato
ĠefficiÃ«nt e
Ġbelasting stest
Ġcorresponder ende
Ġlinker boven
ust er
ĠU se
Ġbescha digd
Ġol der
k on
n atrium
Ġpsych os
aph rag
Ġcogn itive
T ri
or it
Ġm embranen
Ġhoofd stukken
Ġform ulering
Ġendomet ri
ic ardiale
Ġsequentie s
Ġh uw
Ġon veranderde
Ġover al
onder s
Ġlever den
Ġwaarde volle
Ġrh initis
Ġ# [
âĢ² -
Ġsc enario
Ġdisc opathie
re paratie
Ġhart aandoening
Ġgew end
Ġtel kens
Ġrhe umat
ol ing
Ġz oekt
S yst
ĠK im
ĠVeren igd
Ġmis match
Ġop komende
waarde erd
ic ally
ĠM DA
mm hg
IS T
uit ens
minuut volume
ĠG la
ma ge
Ġdatas et
Ġ#(# ):
Ġal pha
f et
ne ct
ĠCH EMIE
al ende
ari gen
Ġzuur stoft
ĠCombin atie
Ġin m
Ġpe ak
Ġnaschol ing
or del
ec a
Ġregressie model
ĠDilat erende
Ġziekenhuis verblijf
g lob
Ġcardi omegalie
A Z
spre id
Ġonderb roken
Ġde fibrillator
asc al
clop idogrel
ĠOver all
r us
ro w
Ġde ficientie
Ġstudie groep
plaat ste
Ġsch one
ĠM yc
ĠR otterd
Ġgel d
Risic ofactoren
Ġw ho
Ġ[, ],
ĠSept ember
Ġt acro
In otropie
g al
ĠOnge compliceerd
ĠFemor ales
t hans
ell i
oe mb
ĠF amiliaire
ĠIn fect
gesch akeld
res istente
Ġeryth ema
Ġop brengst
Ġsinus knoop
k it
yl line
ĠAanwez ige
ĠE U
Ġvolg den
PL Cx
ĠHer start
ĠM PA
Ġpomp functie
ĠIndivid uele
de se
vens duur
ĠZe ven
Ġcan desartan
Ġfer riprieve
Ġontst oken
ĠD H
ĠNe der
Ġobser veren
d os
Ġbreed complex
ĠAct iviteit
p ij
Ġpulmonaalven estenose
Ġlong circulatie
Ġmult in
oclop ramide
Ġcont our
eter mijn
Fig ures
ien s
Ġge centrifugeerd
ger inge
Ġval id
ĠV roege
ĠSup ra
Ġgeann uleerd
ĠVen euze
ĠOn col
Ġinh om
ĠHerh aalde
oro quine
Ġwaar b
ov a
romb us
Ġglut athion
Ġmediaan lijn
F ront
ES T
Ġsap hen
er ator
ĠG ister
Ġal coholische
ĠJ G
M DL
pos itive
Ġglomer ul
H Y
Ġgezamen lijke
Ġstop zetting
V eel
Ġwaarschijnlijk er
ĠA IDS
ĠR BK
itone um
ĠLU TS
Ġthe ir
ul atoren
iet ijd
n ationale
Ġaf voer
ĠSyst ematic
Ġchec k
ĠA na
Ġline air
asc iculair
ex ie
ĠMyocard perfusie
CA S
lijk se
Ġaange houden
Ont slaande
ĠM PS
ĠW MH
dox aban
ĠOp iaten
ĠGen etisch
Ġherinn eren
din itraat
Ġle zing
Ġaccept atie
ĠA RT
Ġinj v
atin ib
Ġpropofol sedatie
Ġkoolhyd raat
Ġachter af
Ġtaal barri
Ġp rel
ĠAf gesproken
Ġext irpatie
Ġinhib itie
reef d
Ġ(- )
Ġge glyc
ĠT ask
Ġsin ussen
ĠgeÃ¯m plement
sign alen
Ġkanaal stenose
ĠD B
Ġl ifestyle
ĠDefin itie
Ġf ond
ĠToe genomen
ĠH K
ore se
Ġ(< #.#
Ġrec ip
acet aat
em e
ĠCh ar
Ġdownst ream
iz ame
la ct
ĠN rf
Ġinfect ions
uitens huis
ero id
Ġpulmonaal klep
Ġaan trek
Ġnorm ocytaire
Ġmid line
Ġsignaal intensiteit
Ġcol or
ĠPre dilatatie
ĠN OS
Ġpersoons jaren
Ġle zie
Ġnier arterie
Ġe mail
Ġgem ak
M ult
sla pen
Ġsnel heden
ĠVooraf gaand
C ON
omedic s
Ġfluclox acilline
Ġal armen
ge vat
Ġtijd schriften
A O
eg t
Ġperfusie stoornissen
ĠD arm
ĠAV B
ĠGest oorde
struct uren
Calc ificaties
N r
ĠC olecalciferol
[...]
