{"<s>":0,"</s>":1,"<pad>":2,"<unk>":3,"<mask>":4,"!":5,"\"":6,"#":7,"$":8,"%":9,"&":10,"'":11,"(":12,")":13,"*":14,"+":15,",":16,"-":17,".":18,"/":19,"0":20,"1":21,"2":22,"3":23,"4":24,"5":25,"6":26,"7":27,"8":28,"9":29,":":30,";":31,"<":32,"=":33,">":34,"?":35,"@":36,"A":37,"B":38,"C":39,"D":40,"E":41,"F":42,"G":43,"H":44,"I":45,"J":46,"K":47,"L":48,"M":49,"N":50,"O":51,"P":52,"Q":53,"R":54,"S":55,"T":56,"U":57,"V":58,"W":59,"X":60,"Y":61,"Z":62,"[":63,"\\":64,"]":65,"^":66,"_":67,"`":68,"a":69,"b":70,"c":71,"d":72,"e":73,"f":74,"g":75,"h":76,"i":77,"j":78,"k":79,"l":80,"m":81,"n":82,"o":83,"p":84,"q":85,"r":86,"s":87,"t":88,"u":89,"v":90,"w":91,"x":92,"y":93,"z":94,"{":95,"|":96,"}":97,"~":98,"¡":99,"¢":100,"£":101,"¤":102,"¥":103,"¦":104,"§":105,"¨":106,"©":107,"ª":108,"«":109,"¬":110,"®":111,"¯":112,"°":113,"±":114,"²":115,"³":116,"´":117,"µ":118,"¶":119,"·":120,"¸":121,"¹":122,"º":123,"»":124,"¼":125,"½":126,"¾":127,"¿":128,"À":129,"Á":130,"Â":131,"Ã":132,"Ä":133,"Å":134,"Æ":135,"Ç":136,"È":137,"É":138,"Ê":139,"Ë":140,"Ì":141,"Í":142,"Î":143,"Ï":144,"Ð":145,"Ñ":146,"Ò":147,"Ó":148,"Ô":149,"Õ":150,"Ö":151,"×":152,"Ø":153,"Ù":154,"Ú":155,"Û":156,"Ü":157,"Ý":158,"Þ":159,"ß":160,"à":161,"á":162,"â":163,"ã":164,"ä":165,"å":166,"æ":167,"ç":168,"è":169,"é":170,"ê":171,"ë":172,"ì":173,"í":174,"î":175,"ï":176,"ð":177,"ñ":178,"ò":179,"ó":180,"ô":181,"õ":182,"ö":183,"÷":184,"ø":185,"ù":186,"ú":187,"û":188,"ü":189,"ý":190,"þ":191,"ÿ":192,"Ā":193,"ā":194,"Ă":195,"ă":196,"Ą":197,"ą":198,"Ć":199,"ć":200,"Ĉ":201,"ĉ":202,"Ċ":203,"ċ":204,"Č":205,"č":206,"Ď":207,"ď":208,"Đ":209,"đ":210,"Ē":211,"ē":212,"Ĕ":213,"ĕ":214,"Ė":215,"ė":216,"Ę":217,"ę":218,"Ě":219,"ě":220,"Ĝ":221,"ĝ":222,"Ğ":223,"ğ":224,"Ġ":225,"ġ":226,"Ģ":227,"ģ":228,"Ĥ":229,"ĥ":230,"Ħ":231,"ħ":232,"Ĩ":233,"ĩ":234,"Ī":235,"ī":236,"Ĭ":237,"ĭ":238,"Į":239,"į":240,"İ":241,"ı":242,"Ĳ":243,"ĳ":244,"Ĵ":245,"ĵ":246,"Ķ":247,"ķ":248,"ĸ":249,"Ĺ":250,"ĺ":251,"Ļ":252,"ļ":253,"Ľ":254,"ľ":255,"Ŀ":256,"ŀ":257,"Ł":258,"ł":259,"Ń":260,"en":261,"er":262,"in":263,"ie":264,"an":265,"Ġv":266,"de":267,"at":268,"or":269,"ge":270,"ij":271,"on":272,"ch":273,"ar":274,"st":275,"Ġm":276,"et":277,"al":278,"Ġ#":279,"Ġb":280,"is":281,"el":282,"Ġde":283,"ing":284,"ol":285,"Ġd":286,"Ġh":287,"Ġo":288,"Ġp":289,"Ġt":290,"re":291,"Ġvan":292,"Ġw":293,"Ġge":294,"Ġn":295,"Ġen":296,"Ġe":297,"it":298,"oor":299,"di":300,"Ġa":301,"Ġin":302,"Ġ(":303,"ro":304,"den":305,"Ġc":306,"Ġs":307,"der":308,"le":309,"ĠC":310,"Ġ-":311,"cht":312,"og":313,"la":314,"ct":315,"oe":316,"atie":317,"ra":318,"Ġz":319,"Ġver":320,"Ġmet":321,"Ġeen":322,"aar":323,"om":324,"Ġk":325,"ent":326,"Ġ[":327,"us":328,"Ġop":329,"ĠA":330,"ver":331,"Ġbe":332,"isch":333,"ul":334,"am":335,"ijk":336,"ic":337,"se":338,"Ġon":339,"id":340,"gen":341,"Ġvoor":342,"em":343,"um":344,"ĠD":345,"Ġhet":346,"ardi":347,"eer":348,"nt":349,"ur":350,"ale":351,"ig":352,"Ġg":353,"Ġl":354,"Ġbij":355,"ken":356,"Ġst":357,"ee":358,"ati":359,"ot":360,"ĠP":361,"as":362,"op":363,"sch":364,"Ġaan":365,"Ġre":366,"te":367,"il":368,"art":369,"ĠT":370,"ER":371,"ON":372,"ĠH":373,"ijn":374,"AT":375,"Ġf":376,"ĠS":377,"ische":378,"ĠL":379,"OON":380,"aal":381,"ĠE":382,"ĠM":383,"ag":384,"del":385,"PER":386,"PERS":387,"PERSOON":388,"Ã«":389,"olog":390,"un":391,"sp":392,"ĠG":393,"ĠI":394,"ĠV":395,"ven":396,"Ġis":397,"ĠR":398,"ctie":399,"iet":400,"ri":401,"UM":402,"Ġte":403,"Ġu":404,"ine":405,"Ġwer":406,"ĠB":407,"ologie":408,"Ġgeen":409,"DAT":410,"DATUM":411,"ru":412,"oc":413,"sie":414,"ĠN":415,"Ġonder":416,"eg":417,"Ġal":418,"Ġan":419,"ĠO":420,"ingen":421,"Ã«nt":422,"orm":423,"ten":424,"es":425,"ik":426,"ele":427,"ult":428,"ĠDe":429,"ardiologie":430,"he":431,"ab":432,"atiÃ«nt":433,"ak":434,"Ġ#.":435,"Ġof":436,"Ġper":437,"Ġniet":438,"ons":439,"cl":440,"Ġr":441,"len":442,"ve":443,"zoe":444,"im":445,"eren":446,"usie":447,"and":448,"ont":449,"os":450,"CA":451,"ĠpatiÃ«nt":452,"Ġdat":453,"ft":454,"yp":455,"een":456,"ep":457,"ed":458,"icht":459,"Ġna":460,"zoek":461,"ant":462,"ir":463,"Ġuit":464,"Ġover":465,"-#":466,"),":467,"oed":468,"Ġaf":469,"onsult":470,"Ġpro":471,"Ġdi":472,"Ġdoor":473,"sen":474,"ze":475,"Ġwor":476,"ap":477,"ter":478,"ijd":479,"iek":480,"lijk":481,"oog":482,"Ġ<":483,"ste":484,"ok":485,"Ġj":486,"clusie":487,"ose":488,"Ġ#.#":489,"ire":490,"Ġzijn":491,"ut":492,"if":493,").":494,"min":495,"Ġwaar":496,"ort":497,"ang":498,":#":499,"rij":500,"Ġwerd":501,"Ġdie":502,"han":503,"onclusie":504,"dic":505,"Ġer":506,"ff":507,"ige":508,"ac":509,"eld":510,"Ġom":511,"ad":512,"Cardiologie":513,"uw":514,"ec":515,"eerd":516,"lacht":517,"ier":518,"lin":519,"Ġhart":520,"ne":521,"CAR":522,"ist":523,"aat":524,"Ġtot":525,"elijk":526,"]:":527,"aan":528,"nam":529,"ast":530,"pl":531,"ker":532,"Ġonderzoek":533,"vens":534,"wij":535,"ite":536,"ĠConsult":537,"heid":538,"ect":539,"be":540,"Ġ#/":541,"Ġle":542,"rol":543,"ĠGeen":544,"Ġ#,":545,"unctie":546,"sla":547,"entie":548,"Ġ1":549,"res":550,"ou":551,"Ġla":552,"ving":553,"uis":554,"woor":555,"ĠIn":556,"ĠpatiÃ«nten":557,"handel":558,"me":559,"act":560,"iteit":561,"ĠTh":562,"Ġsp":563,"omen":564,"vol":565,"ath":566,"IE":567,"Ġ(#":568,"uur":569,"of":570,"onder":571,"Conclusie":572,"dicatie":573,"Ġmm":574,"Ġnaar":575,"Ġwas":576,"Ġgeb":577,"gevens":578,"ateg":579,"schrij":580,"Ġals":581,"ĠLV":582,"iv":583,"lachten":584,"Ġcor":585,"ema":586,"ost":587,"atum":588,"Ġcardi":589,"die":590,"Ġcont":591,"chter":592,"slag":593,"ĠAnt":594,"woord":595,"ijden":596,"ĠK":597,"nen":598,"orie":599,"ure":600,"ond":601,"gelijk":602,"Ġbl":603,"erd":604,"ide":605,"schrijving":606,"ategorie":607,"Om":608,"Ġme":609,"Ġont":610,"Ġvol":611,"val":612,"Ġnorm":613,"ula":614,"ĠF":615,"dt":616,"ĠW":617,"ĠAntwoord":618,"Omschrijving":619,"ĠCategorie":620,"ĠThema":621,"ien":622,"Ġmo":623,"Ġlin":624,"Ġsy":625,"erk":626,"Ġto":627,"lo":628,"],":629,"ific":630,"yper":631,"eb":632,"AD":633,"ill":634,"Ġworden":635,"mg":636,"):":637,"eerde":638,"uc":639,"we":640,"con":641,"ich":642,"af":643,"mm":644,"ib":645,"sc":646,"dere":647,"Ġbehandel":648,"eeft":649,"Ġ2":650,"ia":651,"ĠU":652,"Ġwe":653,"ende":654,"EF":655,"ĠVer":656,"Ġx":657,"ĠCardiologie":658,"rie":659,"Ġook":660,"ell":661,"Ġwerden":662,"amen":663,"roep":664,"Ġinf":665,"ui":666,"versie":667,"ieden":668,"Ġ#:":669,"ruk":670,"acht":671,"ma":672,"ona":673,"Ġwordt":674,"delijk":675,"eter":676,"isic":677,"Ġ#-#":678,"Ġeer":679,"dig":680,"Ã¯":681,"Ġkan":682,"Ġstu":683,"ion":684,"qu":685,"ĠOver":686,"Ġ#,#":687,"eel":688,"ruik":689,"vat":690,"aties":691,"Ġdeze":692,"ind":693,"Ġth":694,"wijz":695,"gesch":696,"Ġklachten":697,"Ġ#%":698,"Datum":699,"vo":700,"Ġma":701,"Ġor":702,"ke":703,"kel":704,"eu":705,"Ġzo":706,"richt":707,"ram":708,"ard":709,"Ġdan":710,"gegevens":711,"iedenis":712,"ĠZ":713,"ced":714,"ectie":715,"ran":716,"per":717,"Ġdag":718,"ign":719,"Ġbel":720,"ub":721,"ulaire":722,"eleid":723,"ium":724,"voor":725,"ere":726,"men":727,"ip":728,"aren":729,"Ġtoe":730,"Ġnu":731,"wee":732,"ĠHet":733,"Ġ#/#":734,"emie":735,"Ġat":736,"CG":737,"Ġcom":738,"od":739,"agn":740,"kt":741,"Ġch":742,"cedure":743,"Ġ|":744,"conversie":745,"name":746,"conversiegegevens":747,"Ġjaar":748,"pt":749,".#":750,"geschiedenis":751,"ys":752,"Ġbloed":753,"Nee":754,"EN":755,"Ġcol":756,"arts":757,"leg":758,"nese":759,"sus":760,"Ġter":761,"Ġex":762,"ings":763,"Ġger":764,"Ġstudie":765,"lep":766,"Ġlinker":767,"vul":768,"end":769,"ann":770,"gel":771,"raag":772,"CI":773,"iddel":774,"Ġmg":775,"oede":776,"'s":777,"lat":778,"IS":779,"ase":780,"pen":781,"iden":782,"Ġfunctie":783,"Ġrisic":784,"fie":785,"als":786,"Ġheeft":787,"Ġmin":788,"wijk":789,"alis":790,"Ġmeer":791,"Ġmaar":792,"ron":793,"est":794,"zien":795,"Ġgoed":796,"zicht":797,"oren":798,"Ġverh":799,"role":800,"yse":801,"ting":802,"Ġgebruik":803,"Ġvoorgeschiedenis":804,"Ġsign":805,"Ġinter":806,"rium":807,"aten":808,"uit":809,"zel":810,"cent":811,"cho":812,"Ġ#:#":813,"ies":814,"Ġpol":815,"kend":816,"].":817,"erap":818,"ass":819,"Ġpla":820,"Ġcorona":821,"ers":822,"OC":823,"ore":824,"tra":825,"Ġ/":826,"Ġher":827,"Ġhyper":828,"ks":829,"alen":830,"Ġheb":831,"baar":832,"functie":833,"chts":834,"asc":835,"ben":836,"mb":837,"Ġverb":838,"ĠEr":839,"nis":840,"druk":841,"Ġnog":842,"alyse":843,"Hg":844,"Ġpijn":845,"abl":846,"gens":847,"Ġwel":848,"eratie":849,"ATIE":850,"Ġno":851,"Ġgro":852,"00":853,"tensie":854,"Ġant":855,"ĠCT":856,"linische":857,"ĠECG":858,"ogra":859,"Ġim":860,"dien":861,"Ġcon":862,"TE":863,"Ġeff":864,"bij":865,"ussen":866,"rit":867,"oloog":868,"do":869,"ment":870,"Ġgen":871,"ressie":872,"UIS":873,"org":874,"Ġbehandeling":875,"KEN":876,"LOC":877,"Ġsignific":878,"LOCATIE":879,"TI":880,"king":881,"ZIE":882,"rouw":883,"HUIS":884,"Ġnormale":885,"KENHUIS":886,"pro":887,"ZIEKENHUIS":888,"Ġbet":889,"ĠAl":890,"geb":891,"ox":892,"eten":893,"ĠSt":894,"Ġtijd":895,"aak":896,"ursus":897,"Ġhebben":898,"Ġalle":899,"atient":900,"Ġhuis":901,"Ġdit":902,"Ġsc":903,"Ġ3":904,"LE":905,"ĠBij":906,"yoc":907,"Ġzonder":908,"sl":909,"Ġgem":910,"vent":911,"Ġversch":912,"Ġverhoog":913,"vullen":914,"ept":915,"itie":916,"zen":917,"Ġhoog":918,"com":919,"ĠRV":920,"ĠCA":921,"van":922,"CD":923,"oel":924,"Ġisch":925,"ug":926,"th":927,"sel":928,"Ġpre":929,"Ġwaren":930,"lijn":931,"Ġtussen":932,"Ġwat":933,"genomen":934,"âĢ":935,"ong":936,"ijst":937,"sy":938,"na":939,"oven":940,"amenvat":941,"dilat":942,"iÃ«":943,"onden":944,"dige":945,"ple":946,"Ġ0":947,"ĠMet":948,"Ġmogelijk":949,"ijdens":950,"Ġsyst":951,"Ġac":952,"Ġkun":953,"amenvatting":954,"abet":955,"ibr":956,"Ġgest":957,"Ġged":958,"groep":959,"ef":960,"yc":961,"volg":962,"omst":963,"ID":964,"ype":965,"Ġsch":966,"Ġafwijk":967,"Ġoraal":968,"Ġru":969,"namnese":970,"Ġaort":971,"ger":972,"eft":973,"enose":974,"ĠJ":975,"illen":976,"nst":977,"ellen":978,"Ġart":979,"ax":980,"Ġkunnen":981,"Ġaange":982,"low":983,"alc":984,"inf":985,"ater":986,"Ġeffect":987,"ardiale":988,"spra":989,"Ġwaarvoor":990,"anc":991,"radi":992,"olische":993,"-#>":994,"Ġgoede":995,"iale":996,"to":997,"Ġvent":998,"ric":999,"ation":1000,"Ġbep":1001,"itis":1002,"IN":1003,"oornis":1004,"nd":1005,"deren":1006,"vullend":1007,"ogen":1008,"ieuw":1009,"Ġdatum":1010,"are":1011,"ces":1012,"ablet":1013,"atief":1014,"Ġhad":1015,"ĠMe":1016,"igram":1017,"age":1018,"Ġiv":1019,"Ġbas":1020,"Ġziek":1021,"Ġricht":1022,"Ġbelang":1023,"arct":1024,"Ġda":1025,"liniek":1026,"Ġho":1027,"bl":1028,"ate":1029,"su":1030,"Ġuitge":1031,"ode":1032,"spann":1033,"ĠGe":1034,"JD":1035,"ren":1036,"ĠOverzicht":1037,"Ġzich":1038,"Ġne":1039,"Ġmill":1040,"ulm":1041,"ĠNorm":1042,"Ġdaar":1043,"ive":1044,"TIJD":1045,"EFTIJD":1046,"LEEFTIJD":1047,"iding":1048,"etten":1049,"erapie":1050,"fibr":1051,"ov":1052,"Ġdiagn":1053,"plic":1054,"elijke":1055,"Ġres":1056,"Ġbeh":1057,"rief":1058,"TX":1059,"Ġnee":1060,"waar":1061,"wel":1062,"ĠmmHg":1063,"Ġcontrole":1064,"Aan":1065,"ĠOn":1066,"Ġ=":1067,"stell":1068,"ĠEen":1069,"Ġrechts":1070,"Ġtablet":1071,"ĠQ":1072,"ss":1073,"roken":1074,"Ġnormaal":1075,"Ġmilligram":1076,"ĠPCI":1077,"Ġaanwijz":1078,"kl":1079,"ander":1080,"inge":1081,"Ġet":1082,"Ġandere":1083,"RI":1084,"mer":1085,"Ġtijdens":1086,"ari":1087,"Ġman":1088,"#,":1089,"rijk":1090,"aanden":1091,"up":1092,"Ġrechter":1093,"athie":1094,"Ġcolleg":1095,"rocedure":1096,"Ġmmol":1097,"xim":1098,"arm":1099,"Tijd":1100,"abetes":1101,"Ġ+":1102,"Ġvermin":1103,"Ġap":1104,"Ġmyoc":1105,"requ":1106,"VA":1107,"Ġgeh":1108,"ame":1109,"ĠAan":1110,"antatie":1111,"erol":1112,"Ġja":1113,"mat":1114,"ĠICD":1115,"Ġrisico":1116,"Ġbor":1117,"spraak":1118,"Beleid":1119,"Ġgedilat":1120,"Ġang":1121,"Ġmedicatie":1122,"romb":1123,"ĠBe":1124,"int":1125,"atige":1126,"igheid":1127,"schap":1128,"ĠRe":1129,"ute":1130,"Ġze":1131,"ĠOp":1132,"gest":1133,"Ġernst":1134,"Ġ4":1135,"Ġopname":1136,"Ġtwee":1137,"Ġischemie":1138,"ziek":1139,"ym":1140,"rop":1141,"Ġsub":1142,"Ġmee":1143,"ouden":1144,"ografie":1145,"erde":1146,"stoornis":1147,"Ġuur":1148,"ocht":1149,"Ġcoronair":1150,"Ġbesch":1151,"kun":1152,"MI":1153,"Ġmaanden":1154,"Ġpatient":1155,"Ġ]":1156,"deling":1157,"Ġeerste":1158,"Ġaanwijzingen":1159,"Ġ5":1160,"Ġinspann":1161,"oth":1162,"ĠNa":1163,"delijke":1164,"heden":1165,"fibrill":1166,"actoren":1167,"dd":1168,"Ġwerk":1169,"Ġborst":1170,"yten":1171,"Ġgegevens":1172,"rikel":1173,"Ġatrium":1174,"Keu":1175,"zelijst":1176,"Keuzelijst":1177,"Ġhier":1178,"Ġreg":1179,"Ġivm":1180,"Ġrichtlijn":1181,"Ġzetten":1182,"Ġob":1183,"ologische":1184,"gende":1185,"amil":1186,"ĠLAD":1187,"ach":1188,"ĠConclusie":1189,"Ġlong":1190,"innen":1191,"form":1192,"ante":1193,"Ġ'":1194,"Ġbeoor":1195,"weg":1196,"wicht":1197,"open":1198,"inus":1199,"aker":1200,"ici":1201,"aliteit":1202,"Ġvergelijk":1203,"Ġgele":1204,"Anamnese":1205,"Ġverschillen":1206,"consult":1207,"asculaire":1208,"Ġkle":1209,"opathie":1210,"unt":1211,"Ġlinks":1212,"Ġ#)":1213,"Ġdui":1214,"ress":1215,"Ġbest":1216,"Ġi":1217,"Ġweer":1218,"iÃ«le":1219,"ragen":1220,"Ġrec":1221,"isatie":1222,"icham":1223,"Ġresult":1224,"ulmon":1225,"onde":1226,"ulp":1227,"Ġand":1228,"arige":1229,"fibrilleren":1230,"Ġzie":1231,"Ġverminder":1232,"Ġhem":1233,"Ġhuisarts":1234,"oom":1235,"Ġprocedure":1236,"komst":1237,"ens":1238,"orax":1239,"Ã©":1240,"Ġstenose":1241,"Ġcardiale":1242,"vel":1243,"Ġvrouw":1244,"ering":1245,"stelling":1246,"onen":1247,"Ġpar":1248,"eftijd":1249,"atieve":1250,"kende":1251,"Ġdo":1252,"ĠVoor":1253,"ĠAF":1254,"Ġontw":1255,"aire":1256,"Ġvia":1257,"lu":1258,"ocardi":1259,"Ġgezien":1260,"nel":1261,"Ġwee":1262,"ĠDeze":1263,"ats":1264,"Ġweken":1265,"Ġhartf":1266,"atus":1267,"Ġpost":1268,"ventie":1269,"Ġbelangrijk":1270,"racht":1271,"Ġhypertensie":1272,"ivea":1273,"huis":1274,"spre":1275,"CT":1276,"Ġel":1277,"olest":1278,"Ġechter":1279,"room":1280,"Ġdeel":1281,"Ġhij":1282,"#/":1283,"vallen":1284,"Ġprog":1285,"cursus":1286,"ator":1287,"Ġsignificant":1288,"Ġdd":1289,"pressie":1290,"reat":1291,"kken":1292,"gele":1293,"olesterol":1294,"ble":1295,"requentie":1296,"abie":1297,"score":1298,"Ġeerder":1299,"Ġonge":1300,"Ġafwijkingen":1301,"Ġtype":1302,"ichamelijk":1303,"Ġtoen":1304,"ĠNe":1305,"opt":1306,"Ġecho":1307,"ĠgeÃ¯":1308,"ofd":1309,"Ġdagen":1310,"FR":1311,"met":1312,"iviteit":1313,"alcium":1314,"ysp":1315,"ĠSp":1316,"Ġtra":1317,"Ġinspanning":1318,"omy":1319,"Ġleeftijd":1320,"fusie":1321,"Aanvullend":1322,"Ġad":1323,"Ġgez":1324,"yl":1325,"chocardi":1326,"ĠNormale":1327,"itme":1328,"dat":1329,"ade":1330,"urende":1331,"ĠII":1332,"Samenvatting":1333,"Ġ6":1334,"Ġzoals":1335,"ĠMI":1336,"Ġveel":1337,"Ġgroep":1338,"ling":1339,"ikliniek":1340,"Ġnier":1341,"werk":1342,"lijden":1343,"Ġkw":1344,"acem":1345,"cont":1346,"Ġstudies":1347,"oh":1348,"Ġrust":1349,"klachten":1350,"ĠUit":1351,"linisch":1352,"ĠÂ":1353,"Ġspec":1354,"ĠMRI":1355,"yt":1356,"plantatie":1357,"sproken":1358,"Ġsle":1359,"cler":1360,"Ġsec":1361,"datum":1362,"acemaker":1363,"urg":1364,"Ġmyocard":1365,"DL":1366,"mpt":1367,"Ġhyp":1368,"Ġbinnen":1369,"Ġten":1370,"Ġbloeddruk":1371,"wez":1372,"Ġlang":1373,"Ġzorg":1374,"ĠPol":1375,"Ġ:":1376,"oten":1377,"De":1378,"hal":1379,"aam":1380,"Ġsl":1381,"ust":1382,"antie":1383,"Ġverhoogd":1384,"Ġverander":1385,"Ġml":1386,"ritme":1387,"Ġdis":1388,"rel":1389,"rans":1390,"klep":1391,"tal":1392,"ber":1393,"ulatie":1394,"suff":1395,"ader":1396,"akt":1397,"ees":1398,"TEL":1399,"achting":1400,"Ġanalyse":1401,"#)":1402,"ikkel":1403,"omie":1404,"ĠRR":1405,"Ġvervolg":1406,"Ġcollegiale":1407,"ositie":1408,"#.#":1409,"io":1410,"ĠCAG":1411,"one":1412,"ulair":1413,"ction":1414,"ening":1415,"uut":1416,"Ġgebruikt":1417,"assen":1418,"loed":1419,"Ġou":1420,"oort":1421,"eslacht":1422,"ieerd":1423,"Ġvolgens":1424,"])":1425,"pla":1426,"Ġ;":1427,"Ġfor":1428,"osis":1429,"Ġ>":1430,"rose":1431,"Ġact":1432,"Ġbasis":1433,"HTX":1434,"du":1435,"emische":1436,"Ġben":1437,"line":1438,"Ġlever":1439,"Ġboven":1440,"eden":1441,"elf":1442,":[":1443,"voerd":1444,"infarct":1445,"Ġhoe":1446,"Ġbev":1447,"Ġneg":1448,"ocyten":1449,"rof":1450,"wijs":1451,"arc":1452,"Ġsignificante":1453,"zoeken":1454,"Ġnieuw":1455,"In":1456,"Ġcoronaire":1457,"Ġklinische":1458,"vraag":1459,"Ġbeeld":1460,"jarige":1461,"actie":1462,"erg":1463,"Ġ([":1464,"ief":1465,"ica":1466,"BG":1467,"kelijk":1468,"ĠRCA":1469,"erende":1470,"ĠDi":1471,"):#":1472,"bare":1473,"schijn":1474,"Ġbekend":1475,"Ġverm":1476,"ĠX":1477,"ente":1478,"operatie":1479,"igen":1480,"resent":1481,"Ġnodig":1482,"gem":1483,"Ġdysp":1484,"Ġele":1485,"Ġhoogachting":1486,"nem":1487,"Ġzw":1488,"Ġverk":1489,"ek":1490,"elen":1491,"ardie":1492,"eert":1493,"inds":1494,"ĠDit":1495,"Ġmoe":1496,"Ġbeleid":1497,"Ġcm":1498,"gang":1499,");":1500,"stoornissen":1501,"Ġ.":1502,"ĠNiet":1503,"orac":1504,"all":1505,"ofactoren":1506,"ypertensie":1507,"kenhuis":1508,"ycardie":1509,"geven":1510,"Ġziekte":1511,"Ġhartfalen":1512,"ĠLVEF":1513,"wege":1514,"Ġverhoogde":1515,"ameter":1516,"Ġdruk":1517,"ichting":1518,"mie":1519,"Ġuitgevoerd":1520,"Dec":1521,"ES":1522,"ratie":1523,"Ġgedurende":1524,"amnese":1525,"Ġwaarbij":1526,"zaak":1527,"suffici":1528,"Ġkin":1529,"ex":1530,"Ġgaat":1531,"tre":1532,"omyopathie":1533,"ucces":1534,"vang":1535,"atuur":1536,"Ġventrikel":1537,"atiÃ«nten":1538,"AC":1539,"Decursus":1540,"Ġlicht":1541,"Ġverschillende":1542,"Ġgra":1543,"land":1544,"deel":1545,"Brief":1546,"ĠEcho":1547,"atine":1548,"ĠVerslag":1549,"schijnlijk":1550,"ollow":1551,"ĠCR":1552,"rofie":1553,"Ġ,":1554,"komen":1555,"wer":1556,"Ja":1557,"ĠMedicatie":1558,"Ġade":1559,"ĠAo":1560,"Ġernstige":1561,"amer":1562,"man":1563,"ĠCardiale":1564,"Ġdiagnose":1565,"erv":1566,"Ġresp":1567,"ede":1568,"Ġend":1569,"ĠOverige":1570,"Ġvaat":1571,"Ġopgenomen":1572,"Ġpri":1573,"vorm":1574,"noe":1575,"Ġthe":1576,"ĠST":1577,"CV":1578,"port":1579,"ĠCor":1580,"Ġpath":1581,"OR":1582,"Ġoperatie":1583,"Ġpers":1584,"Ġontwikkel":1585,"aard":1586,"ĠOnder":1587,"Ġaantal":1588,"Ġpulmon":1589,"Ġab":1590,"Ġradi":1591,"CH":1592,"je":1593,"Ġoor":1594,"irurg":1595,"amilie":1596,"vis":1597,"Ġ(#.#":1598,"riculaire":1599,"Ġimplantatie":1600,"Ġsystolische":1601,"Ġgedilateerd":1602,"ob":1603,"pleeg":1604,"Ġmid":1605,"Ġwand":1606,"Ġmen":1607,"Ġatriumfibrilleren":1608,"valu":1609,"Ġzelf":1610,"Ġverband":1611,"Ġmiddel":1612,"Ġbeg":1613,"aklep":1614,"ging":1615,"Ġrecent":1616,"Ġdiabetes":1617,"Ġgemiddel":1618,"Ġhaar":1619,"gt":1620,"Ġbere":1621,"Ġ9":1622,"01":1623,"ĠAV":1624,"Ġep":1625,"jectie":1626,"Ġgehad":1627,"Ġmatige":1628,"Ġrel":1629,"atische":1630,"Ġlab":1631,"gemen":1632,"Ġminder":1633,"Ã«n":1634,"Ġaorta":1635,"Ġlaat":1636,"Ġverder":1637,"ject":1638,"gemene":1639,"Be":1640,"assoc":1641,"Ġcontrol":1642,"erkt":1643,"oprol":1644,"Ġmit":1645,"ĠDaar":1646,"Ġro":1647,"AS":1648,"delen":1649,"cop":1650,"ĠInt":1651,"rum":1652,"ml":1653,"Ġ7":1654,"#-":1655,"Ġuw":1656,"ĠCardi":1657,"gaan":1658,"uid":1659,"eri":1660,"Ġaanwez":1661,"analyse":1662,"ĠTI":1663,"igd":1664,"inusritme":1665,"Ġbetre":1666,"oprolol":1667,"Ġoede":1668,"atio":1669,"oop":1670,"oon":1671,"ĠCV":1672,"Ġvervolgconsult":1673,"Ġstabie":1674,"Ġstart":1675,"eros":1676,"middel":1677,"Over":1678,"Ġintra":1679,"Ġ#-":1680,"Ġplaats":1681,"itu":1682,"Ġbehulp":1683,"Ġwij":1684,"lob":1685,"omt":1686,"ĠLab":1687,"iets":1688,"ina":1689,"RS":1690,"Procedure":1691,"voel":1692,"ĠEF":1693,"lut":1694,"Ġpl":1695,"uccesvol":1696,"ane":1697,"onderzoek":1698,"reven":1699,"Ġweek":1700,"Ġhoge":1701,"handeling":1702,"Ġ\"":1703,"Ġalleen":1704,"uele":1705,"ps":1706,"Ġsympt":1707,"âĢĵ":1708,"Ġgesch":1709,"ident":1710,"Ġtach":1711,"Ġdiast":1712,"plicaties":1713,".:":1714,"fin":1715,"Ġ(#)":1716,"Ġple":1717,"Ġgeringe":1718,"ith":1719,"Ġsnel":1720,"Ġble":1721,"stru":1722,"icro":1723,"indingen":1724,"Ġterug":1725,"Ġconsult":1726,"Ġchron":1727,"kele":1728,"kg":1729,"Ġcons":1730,"uik":1731,"Ġhog":1732,"cept":1733,"VI":1734,"ogram":1735,"omet":1736,"Ġritme":1737,"ĠGeslacht":1738,"ock":1739,"%)":1740,"Ġam":1741,"Ġonderzoeken":1742,"zonder":1743,"pijn":1744,"ĠCh":1745,"matig":1746,"Ġziekenhuis":1747,"Ġzeer":1748,"luc":1749,"ieke":1750,"Ġgeassoc":1751,"ret":1752,"Ġint":1753,"Ġlijk":1754,"aken":1755,"Ġbi":1756,"Ġresultaten":1757,"unction":1758,"eng":1759,"Ġlaag":1760,"beeld":1761,"ĠLA":1762,"clerose":1763,"ract":1764,"Ġhun":1765,"Ġpositie":1766,"Ġ#;":1767,"Ġnieuwe":1768,"cor":1769,"Ġtoonde":1770,"sloten":1771,"Ġstent":1772,"iter":1773,"Ġcontact":1774,"las":1775,"ovasculaire":1776,"ril":1777,"gra":1778,"gro":1779,"uwd":1780,"oud":1781,"ndroom":1782,"iging":1783,"Ġvanwege":1784,"Ġafspraak":1785,"ueel":1786,"ity":1787,"#.":1788,"alciumscore":1789,"Ġzal":1790,"stel":1791,"Ġwv":1792,"AP":1793,"ĠSR":1794,"Ġvergelijking":1795,"sten":1796,"oem":1797,"Ġontslag":1798,"Ġaortaklep":1799,"maal":1800,"par":1801,"oracale":1802,"uren":1803,"geen":1804,"gesteld":1805,"ial":1806,"bin":1807,"Ġarter":1808,"omin":1809,"Ġscore":1810,"Ġzou":1811,"Ġgeassocieerd":1812,"afwijk":1813,"Ġlater":1814,"sych":1815,"blatie":1816,"Ġsamen":1817,"olter":1818,"Ġzij":1819,"euze":1820,"mol":1821,"Ġwaarschijnlijk":1822,"ders":1823,"Ġ10":1824,"Reden":1825,"pel":1826,"Ġverminderde":1827,"Ġasp":1828,"Ġhoofd":1829,"ziekte":1830,"Ġdecursus":1831,"Ġgev":1832,"ĠProcedure":1833,"ontrole":1834,"Ġser":1835,"da":1836,"Ġklep":1837,"ffle":1838,"adi":1839,"dag":1840,">,":1841,"Ġfollow":1842,"Ġextra":1843,"Ġarts":1844,"ziekten":1845,"derland":1846,"rag":1847,"Ġproble":1848,"Ġkort":1849,"Ġmeest":1850,"Ġret":1851,"Ġ8":1852,"Ġafge":1853,"over":1854,"Ġsept":1855,"MA":1856,"Ġven":1857,"Ġsou":1858,"zocht":1859,"mo":1860,"Ġverbeter":1861,"ule":1862,"St":1863,"LIN":1864,"iveau":1865,"zorg":1866,"Ġdiff":1867,"ied":1868,"Ġvast":1869,"aald":1870,"ero":1871,"Ġpresent":1872,"Ġspra":1873,"Ġcolla":1874,"Ġanamnese":1875,"Ġmoet":1876,"Ġstop":1877,"Ġatri":1878,"ĠEx":1879,"Di":1880,"ractie":1881,"ĠBoven":1882,"Ġinform":1883,"ĠVT":1884,"cholesterol":1885,"ĠNederland":1886,"Ġath":1887,"Ġra":1888,"idief":1889,"Ġmed":1890,"Ġmax":1891,"sies":1892,"alp":1893,"Ġ#-#:":1894,"Ġsouffle":1895,"Ġbewijs":1896,"gebre":1897,"Ġproxim":1898,"Ġtromb":1899,"lop":1900,"Ġbehandeld":1901,"leden":1902,"Ġmedic":1903,"Ġdiagnost":1904,"Ġvrouwen":1905,"toond":1906,"Ġstress":1907,"staan":1908,"Ġonze":1909,"Hart":1910,"wit":1911,"Lichamelijk":1912,"Ġgroot":1913,"Ġzien":1914,"iaal":1915,"rische":1916,"av":1917,"^#/":1918,"Ġenkele":1919,"verslag":1920,"Ġgep":1921,"uiten":1922,"ce":1923,"roc":1924,"chte":1925,"Ġmedi":1926,"lutter":1927,"ilt":1928,"#^#/":1929,"mmHg":1930,"Ġges":1931,"Ġtherapie":1932,"Ġgevolg":1933,"meld":1934,"ĠWe":1935,"aring":1936,"waarden":1937,"Ġur":1938,"Ġgew":1939,"Ġar":1940,"ĠMed":1941,"lies":1942,"ura":1943,"ctieve":1944,"Ġtegen":1945,"vie":1946,"Ġmor":1947,"eed":1948,"tijd":1949,":#.#":1950,"orator":1951,"achte":1952,"stand":1953,"Ġ\\":1954,"ĠGer":1955,"OS":1956,"onair":1957,"oment":1958,"door":1959,"Ġveranderingen":1960,"ograf":1961,"insuffici":1962,"dis":1963,"Ġaando":1964,"irc":1965,"Ġperfusie":1966,"NA":1967,"Ġev":1968,"cm":1969,"ern":1970,"rale":1971,"ĠAn":1972,"ransp":1973,"jes":1974,"/-":1975,"ĠCABG":1976,"ace":1977,"regen":1978,"usp":1979,"ĠAC":1980,"Ġpat":1981,"Ġangi":1982,"Al":1983,"bel":1984,"Ġdyspnoe":1985,"Ġinterventie":1986,"ocol":1987,"ondheid":1988,"maakt":1989,"Ġdrie":1990,"ĠHart":1991,"ice":1992,"ĠAP":1993,"denos":1994,"Ġmaxim":1995,"itus":1996,"Ġablatie":1997,"oelichting":1998,"inine":1999,"coh":2000,"Ġik":2001,"Ġmon":2002,"Ġval":2003,"Ġgrote":2004,"ho":2005,"]-":2006,"Ġevent":2007,"?:":2008,"Ġtoename":2009,"atheter":2010,"ĠHij":2011,"pol":2012,"Ġelekt":2013,"Ġdys":2014,"Ġsla":2015,"Ġrisicofactoren":2016,"Ġhel":2017,"Ġhadden":2018,"Ġbeter":2019,"plan":2020,"vers":2021,"arcin":2022,"wand":2023,"ĠCO":2024,"Ġanti":2025,"lucose":2026,"Ġbed":2027,"Ġverd":2028,"Ġas":2029,"pm":2030,"Ġsinds":2031,"Ġstatus":2032,"ongen":2033,"Ġkinderen":2034,"ument":2035,"ĠDD":2036,"otal":2037,"Ġ().":2038,"doende":2039,"Ġwerkgroep":2040,"Ġken":2041,"Ġsom":2042,"kers":2043,"Ġaut":2044,"Ġgevoel":2045,"ĠGoede":2046,"Ġatheros":2047,"Ġgedilateerde":2048,"tocol":2049,"agnose":2050,"Ġmaken":2051,"ix":2052,"Ġlast":2053,"Ġcardiovasculaire":2054,"test":2055,"egment":2056,"ysi":2057,"ĠPro":2058,"ymf":2059,"Ã«ntie":2060,"engte":2061,"Ġverw":2062,"Ġaangetoond":2063,"oscop":2064,"Ġweten":2065,"Ġacute":2066,"Ġdist":2067,"chn":2068,"ralis":2069,"Ã©n":2070,"Ġprima":2071,"elden":2072,"zet":2073,"zol":2074,"Ġachter":2075,"ogene":2076,"oris":2077,"Ġliter":2078,"Ġeigen":2079,"Ġ#%.":2080,"slagen":2081,"ĠPatiÃ«nt":2082,"ĠPatient":2083,"otalol":2084,"ĠVan":2085,"(#)":2086,"RE":2087,"Ġder":2088,"Ġzowel":2089,"afhan":2090,"lijke":2091,"rokken":2092,"Ġerg":2093,"rect":2094,"abel":2095,"Ġmicro":2096,"Ġprogressie":2097,"atrium":2098,"Ġinfarct":2099,"Ġlijkt":2100,"elat":2101,"Ġgemiddelde":2102,"Ġrest":2103,"Ġeven":2104,"oratorium":2105,"Ġthoracale":2106,"Ġpolikliniek":2107,"Ġinformatie":2108,"ild":2109,"Ġmult":2110,"Ġverricht":2111,"wijzigd":2112,"ĠSc":2113,"MER":2114,"vorming":2115,"Ġasc":2116,"ĠRA":2117,"VT":2118,"Ġvorm":2119,"CK":2120,"ider":2121,"Ġrol":2122,"wezen":2123,"Ġcardiomyopathie":2124,"yd":2125,"Ġstand":2126,"Ġoedeem":2127,"Ġgenees":2128,"HA":2129,"rakt":2130,"reatinine":2131,"atig":2132,"ifieke":2133,"vies":2134,"Ġechocardi":2135,"ert":2136,"iz":2137,"Ġlig":2138,"erend":2139,"Ġy":2140,".|":2141,"NUM":2142,"NUMMER":2143,"Ġtachycardie":2144,"teken":2145,"actor":2146,"Ġvolgende":2147,"geleken":2148,"ĠAS":2149,"ECG":2150,"thorax":2151,"keur":2152,"Ġrele":2153,"Ġperc":2154,"Ġblij":2155,"Ġuitkomst":2156,"plex":2157,"Ġkomt":2158,"ato":2159,"Ġcardioloog":2160,"Ġbeide":2161,"ijf":2162,"Ġlage":2163,"Ġinfectie":2164,"Ġvoorsp":2165,"Ġventriculaire":2166,"nieuw":2167,"Ġpoli":2168,"deeld":2169,"inu":2170,"cohol":2171,"Ġgevonden":2172,"ĠQRS":2173,"Ġeffecten":2174,"kw":2175,"Ġwith":2176,"imen":2177,"ADS":2178,"pleegkun":2179,"ijds":2180,"Ġinst":2181,"CM":2182,"Ġvrij":2183,"ilat":2184,"raagstelling":2185,"anis":2186,"pens":2187,"ellitus":2188,"Ġinc":2189,"uten":2190,"fsel":2191,"Ġcent":2192,"gelmatig":2193,"ral":2194,"Ġevalu":2195,"Ġperic":2196,"ĠAf":2197,"Ġsh":2198,"Ġduur":2199,"ĠSE":2200,"vocht":2201,"Af":2202,"cellen":2203,"och":2204,"Ġmoment":2205,"steem":2206,".,":2207,"Ġons":2208,"Ġpalp":2209,"ometrie":2210,"dens":2211,"ĠHTX":2212,"kte":2213,"Ġliteratuur":2214,"ĠGeringe":2215,"Ġaanbe":2216,"GFR":2217,"Ġklinisch":2218,"Ġtest":2219,"eningen":2220,"Ġfunction":2221,"air":2222,"amine":2223,"und":2224,"rom":2225,"Ġbelangrijke":2226,"Ġvragen":2227,"ude":2228,",#":2229,"adem":2230,"Ġsprake":2231,"Ġoog":2232,"LING":2233,"Ġtoege":2234,"Ġvaak":2235,"Ġvari":2236,"ĠTe":2237,"ocument":2238,"Ġkomst":2239,"olie":2240,"ance":2241,"otherapie":2242,"Ġchirurg":2243,"ĠOnderzoek":2244,"oemde":2245,"houden":2246,"Ġco":2247,"ialist":2248,"reg":2249,"ĠIndicatie":2250,"Toelichting":2251,"Ġbuik":2252,"Ġ%":2253,"ĠZo":2254,"ĠAnamnese":2255,"Ġrecidief":2256,"Âł":2257,"EFOON":2258,"EFOONNUMMER":2259,"TELEFOONNUMMER":2260,"ĠPV":2261,"ĠAt":2262,"ĠUitslag":2263,"Ġwil":2264,"Ġrecente":2265,"Ġgewicht":2266,"Ġvermoe":2267,"Ġlip":2268,"Ġminuten":2269,"Ġbekende":2270,"AG":2271,"Ġopt":2272,"vast":2273,"reening":2274,"weest":2275,"Ġbevindingen":2276,"Ġass":2277,"Ġtotale":2278,"Me":2279,"vante":2280,"Ġchronische":2281,"Ġtri":2282,"Ġverla":2283,"Ġiets":2284,"Ġdus":2285,"lip":2286,"iot":2287,"Ã©Ã©n":2288,"zuur":2289,"STEL":2290,"Ġveroor":2291,"STELLING":2292,"Ġsyndroom":2293,"fect":2294,"uk":2295,"baarheid":2296,"Ġgeweest":2297,"Ġverwij":2298,"patiÃ«nten":2299,"NP":2300,"eur":2301,"Ġtoont":2302,"medi":2303,"elef":2304,"Ġnegatief":2305,"Ver":2306,"ĠHier":2307,"Ġstabiel":2308,"ĠTA":2309,"yst":2310,"gemeen":2311,"udie":2312,"ĠPolikliniek":2313,"Ġgede":2314,"iveaus":2315,"anneer":2316,"heel":2317,"Ġcomplicaties":2318,"ologisch":2319,"neum":2320,"ĠIN":2321,"Ġmyocardinfarct":2322,"los":2323,"arisatie":2324,"schapp":2325,"Ġkomen":2326,"sul":2327,"ĠPer":2328,"ĠAT":2329,"uizen":2330,"erior":2331,"Ġtrans":2332,"nee":2333,"rin":2334,"Ġperi":2335,"Ġgek":2336,"ĠNederlandse":2337,"emen":2338,"ank":2339,"zelf":2340,"Ġvolle":2341,"ail":2342,"INSTELLING":2343,"Ġvro":2344,"ms":2345,"Ġvoorkomen":2346,"our":2347,"dip":2348,"Ġdoel":2349,"Ġdimen":2350,"Ġdosis":2351,"Ġdilat":2352,"arcinoom":2353,"Ġgemeten":2354,"Ġindicatie":2355,"Ã³":2356,"Ġkwaliteit":2357,"igh":2358,"oci":2359,"PD":2360,"ET":2361,"Ġgevallen":2362,"neu":2363,"ĠOok":2364,"ĠVeren":2365,"zie":2366,"Ġdev":2367,"artsen":2368,"centage":2369,"Ġ[].":2370,"Ġcollega":2371,"ĠÃ©Ã©n":2372,"Ġonderzocht":2373,"mijn":2374,"uidige":2375,"venen":2376,"duc":2377,"RR":2378,"Ġinge":2379,"raktijk":2380,"melding":2381,"hese":2382,"ĠCVD":2383,"Ġgeval":2384,"mun":2385,"Ġbesproken":2386,"orte":2387,"eeds":2388,"compens":2389,"Ġbijwerk":2390,"Ġmitralis":2391,"Ġcardiologie":2392,"anger":2393,"spectie":2394,"Ġsterk":2395,"veer":2396,"itale":2397,"ductie":2398,"Ġonderste":2399,"onge":2400,"Ġcollaps":2401,"rast":2402,"Ġconform":2403,"wijl":2404,"Ġpassen":2405,"bre":2406,"zijds":2407,"ĠAls":2408,"kan":2409,"ĠAd":2410,"Ġpsych":2411,"ĠECV":2412,"Ġdiastolische":2413,"Geen":2414,"ĠZe":2415,"Ġlaatste":2416,"Ġ12":2417,"gelopen":2418,"Ġhand":2419,"idatie":2420,"Ġkg":2421,"radioloog":2422,"view":2423,"lyc":2424,"ĠLVF":2425,"alium":2426,"riter":2427,"Ġing":2428,"elde":2429,"Ġwaargenomen":2430,"kk":2431,"ranspl":2432,"Ġtotaal":2433,"ieren":2434,"ĠOm":2435,"Ġcar":2436,"Ġduidelijk":2437,"Ġsymptomen":2438,"Ge":2439,"ĠNee":2440,"ĠSEH":2441,"Ġlymf":2442,"Ġverwijz":2443,"volgens":2444,"anco":2445,"fer":2446,"OB":2447,"lig":2448,"Ġhersen":2449,"weging":2450,"ĠCa":2451,"ĠPM":2452,"vastatine":2453,"PCI":2454,"egist":2455,"LV":2456,"ruct":2457,"Ġkeer":2458,"Ġlan":2459,"Ġsegment":2460,"Ġactiviteit":2461,"Ã¯n":2462,"Ġartik":2463,"dracht":2464,"SP":2465,"Ġmeerdere":2466,"ĠDecursus":2467,"iss":2468,"Ġcirc":2469,"oorts":2470,"medicatie":2471,"Ġversus":2472,"Ġkleine":2473,"rug":2474,"peratie":2475,"kamer":2476,"Ġcombin":2477,"Ã¯ne":2478,"Ġprotocol":2479,"Ġverst":2480,"ummer":2481,"ichaam":2482,"Ġopnieuw":2483,"Ġcordis":2484,"Ġlead":2485,"denosine":2486,"ventrikel":2487,"ĠHypertensie":2488,"Ġgaan":2489,"ĠEchocardi":2490,"opro":2491,"iliteit":2492,"Ġbetrokken":2493,"flutter":2494,"#:":2495,"genoemde":2496,"Ġ#%,":2497,"ĠHeeft":2498,"kenen":2499,"Ġneur":2500,"emat":2501,"10":2502,"AF":2503,"Ġlaten":2504,"Ġms":2505,"ĠKlinische":2506,"Ġvolgt":2507,"Ġoverleg":2508,"Ġuitgebre":2509,"ĠVerder":2510,"oord":2511,"omat":2512,"ĠÂ±":2513,"ow":2514,"Ġsteeds":2515,"Ġtherap":2516,"ĠgeÃ¯n":2517,"Ġopge":2518,"ĠCK":2519,"atst":2520,"#-#":2521,"iwit":2522,"Ġ#),":2523,"Ġrond":2524,"opp":2525,"Ġpect":2526,"Medicatie":2527,"kunde":2528,"inig":2529,"Ġverschil":2530,"Ġgezondheid":2531,"Ġvo":2532,"Ġomdat":2533,"Ġâ":2534,"merken":2535,"Ġmedische":2536,"Ġthuis":2537,"assa":2538,"Ġvergeleken":2539,"Ġname":2540,"Ġpleura":2541,"uccesvolle":2542,"Ġwegens":2543,"Ġterwijl":2544,"SA":2545,"gebruik":2546,"Ġhuidige":2547,"osf":2548,"Ġsug":2549,"Ġtum":2550,"Ġslechte":2551,"Ġindien":2552,"ĠpatiÃ«nte":2553,"ĠCRP":2554,"Ġfamilie":2555,"vest":2556,"Ġprogn":2557,"iegel":2558,"Ġanter":2559,"âĢī":2560,"Afspraak":2561,"ĠSamenvatting":2562,"unten":2563,"kking":2564,"ĠNormaal":2565,"acing":2566,"olling":2567,"Ġbetreft":2568,"Ġflow":2569,"Ġca":2570,"inter":2571,"ĠÂµ":2572,"Ġpolik":2573,"Â²":2574,"Ġgeleiding":2575,"aand":2576,"erking":2577,"TEMI":2578,"Ġmetoprolol":2579,"Ġbleek":2580,"Ġmech":2581,"Ġfrequentie":2582,"vanging":2583,"Ġgroepen":2584,"stenose":2585,"oit":2586,"ortaliteit":2587,"ĠBeleid":2588,"DR":2589,"ĠRC":2590,"emm":2591,"behandeling":2592,"Ġmoeten":2593,"ĠHolter":2594,"#,#":2595,"Ġperif":2596,"itaties":2597,"ember":2598,"Ġgraad":2599,"Ġangina":2600,"05":2601,"Ġhypert":2602,"ein":2603,"Ġvis":2604,"ĠGeachte":2605,"iguur":2606,"Ġaspect":2607,"Ġnon":2608,"andom":2609,"ĠReden":2610,"entiÃ«le":2611,"dex":2612,"Ġbijwerkingen":2613,"aakt":2614,"ly":2615,"Ġatriale":2616,"frequentie":2617,"sluit":2618,"TB":2619,"istent":2620,"Ġpacemaker":2621,"onine":2622,"ergie":2623,"ĠDM":2624,"kelijke":2625,"itor":2626,"Ġdoen":2627,"ijnen":2628,"Ġ_":2629,"Ġatherosclerose":2630,"riteria":2631,"Ġyes":2632,"eut":2633,"eeftijd":2634,"zonderheden":2635,"angerschap":2636,"norm":2637,"Ġsitu":2638,"ĠLe":2639,"ĠVCI":2640,"Ġ*":2641,"iditeit":2642,"reep":2643,"Ġacuut":2644,"wegen":2645,"Ġcalciumscore":2646,"last":2647,"complic":2648,"Ġcomp":2649,"Ġ19":2650,"Ġduizel":2651,"ĠBloed":2652,"klaring":2653,"Ġtweede":2654,"Ġlu":2655,"Ġbeschik":2656,"Ġhartas":2657,"ypische":2658,"RT":2659,"mis":2660,"ialis":2661,"Ġgebied":2662,"inale":2663,"ili":2664,"ĠLDL":2665,"Ġpneum":2666,"etsel":2667,"Ġaanwezig":2668,"ificatie":2669,"structie":2670,"Ġ->":2671,"ĠIk":2672,"agnost":2673,"az":2674,"ricusp":2675,"zij":2676,"Ġaandoeningen":2677,"ary":2678,"pass":2679,"ĠVereniging":2680,"Ġdec":2681,"verlies":2682,"sec":2683,"ĠCH":2684,"Ġpresentatie":2685,"iderzijds":2686,"velijk":2687,"ĠCom":2688,"Ġeind":2689,"iel":2690,"ĠQT":2691,"Ġplaqu":2692,"oot":2693,"Ġcontinu":2694,"Ġvaatziekten":2695,"Ġstaat":2696,"Ġvert":2697,"Ġbeoordelen":2698,"Ġsinus":2699,"stof":2700,"REHTX":2701,"ĠHF":2702,"ĠIs":2703,"houd":2704,"Ġ#<":2705,"Ġongeveer":2706,"ĠRec":2707,"Ġdirect":2708,"Ġweinig":2709,"Het":2710,"denking":2711,"Ġgeven":2712,"osering":2713,"II":2714,"Ġnierfunctie":2715,"Ġstruct":2716,"ĠEn":2717,"Ġklein":2718,"Ġmannen":2719,"iod":2720,"Ġmatig":2721,"isk":2722,"uteur":2723,"Ġmil":2724,"LAD":2725,"loe":2726,"rad":2727,"etische":2728,"Ġaanbevel":2729,"ionele":2730,"Ġbeschreven":2731,"Ġrespectie":2732,"ĠâĢ":2733,"Ġhoger":2734,"Ġbre":2735,"Ġwelke":2736,"Ġmellitus":2737,"inden":2738,"ST":2739,"Ġsinusritme":2740,"Ġcombinatie":2741,"eerden":2742,"Ġmeth":2743,"iken":2744,"Ġelke":2745,"endens":2746,"rt":2747,"bekend":2748,"Ġontwikkeling":2749,"Ġsu":2750,"sectie":2751,"Ġmortaliteit":2752,"rofiel":2753,"groot":2754,"Ġverbetering":2755,"verander":2756,"Ġeerdere":2757,"ical":2758,"peratieverslag":2759,"Ġelk":2760,"Ġkoorts":2761,"Ġve":2762,"otische":2763,"voe":2764,"Ġafgelopen":2765,"Ġobv":2766,"Ġcardio":2767,"ucc":2768,"cholesterolemie":2769,"Ġster":2770,"oeding":2771,"ĠAanmelding":2772,"zaam":2773,"ĠIC":2774,"ransplantatie":2775,"Ġdecompens":2776,"ĠTTE":2777,"Sp":2778,"Ġzicht":2779,"RA":2780,"Ġstandaard":2781,"Ġserum":2782,"Ġpulmonaal":2783,"vloed":2784,"waarde":2785,"Ġverz":2786,"iodar":2787,"Ġpreventie":2788,"Ġtermijn":2789,"Ġpectoris":2790,"ĠHb":2791,"control":2792,"ouw":2793,"BP":2794,"imaal":2795,"entiel":2796,"Ġplas":2797,"yocard":2798,"%,":2799,"ucle":2800,"ullen":2801,"Ġoorzaak":2802,"tr":2803,"Ġbestaan":2804,"Ġgestart":2805,"ĠStatus":2806,"ĠAlle":2807,"Ġ(<":2808,"Ġcholesterol":2809,"oglob":2810,"atten":2811,"agon":2812,".\"":2813,"Ġond":2814,"leiding":2815,"lic":2816,"Ġ#.#,":2817,"spreking":2818,"ume":2819,"ynam":2820,"Ġgel":2821,"enen":2822,"Ġherh":2823,"afwijkingen":2824,"BTB":2825,"Ġischemische":2826,"aalde":2827,"Ġcomplex":2828,"emor":2829,"ĠÎ":2830,"Ġlae":2831,"Ġindi":2832,"Ġroken":2833,"Ġenige":2834,"oÃ¯":2835,"ĠHoe":2836,"Een":2837,"Ġtoch":2838,"Ġkn":2839,"Ġprimaire":2840,"Ġ#.#),":2841,"Ġrespectievelijk":2842,"reum":2843,"beur":2844,"Ġalcohol":2845,"raal":2846,"Ġverbet":2847,"oelt":2848,"jectief":2849,"Ġcellen":2850,"Ġkrij":2851,"Hypertensie":2852,"Ġgemaakt":2853,"idemie":2854,"ulier":2855,"Ġurine":2856,"Ġtonen":2857,"ĠBovendien":2858,"ans":2859,"Ġdeelnem":2860,"dur":2861,"intig":2862,"Ġafwijking":2863,"ĠDaarna":2864,"Ġniveau":2865,"raagt":2866,"Ġbeoordeeld":2867,"Ġcoronairlijden":2868,"Ġneu":2869,"oscopie":2870,"Ġveroorzaak":2871,"Ġkamer":2872,"roponine":2873,"enten":2874,"gend":2875,"At":2876,"-#],":2877,"mp":2878,"Ġhogere":2879,"Ġrap":2880,"imale":2881,"ĠOK":2882,"Ġreactie":2883,"ĠNu":2884,"Cor":2885,"ĠAb":2886,"rg":2887,"veel":2888,"ess":2889,"MG":2890,"Ġmaand":2891,"Ġcap":2892,"SE":2893,"Ġkans":2894,"Ġwaarde":2895,"Ġrelevante":2896,"Ġkorte":2897,"Ġse":2898,"Ġpercentiel":2899,"elect":2900,"ĠMV":2901,"Ġbereik":2902,"mide":2903,"IV":2904,"Ġbeperkt":2905,"Ġredelijke":2906,"Ġtr":2907,"Ġmal":2908,"None":2909,"atoire":2910,"ĠVraagstelling":2911,"richting":2912,"Ġdaarna":2913,"ameters":2914,"Ġwanneer":2915,"space":2916,"On":2917,"Ġfactoren":2918,"oprofiel":2919,"Ġgr":2920,"Ġhe":2921,"CR":2922,"Ġscreening":2923,"Ġ20":2924,"Ġpols":2925,"Ġoverig":2926,"ĠIII":2927,"vid":2928,"Ġlevens":2929,"lijst":2930,"Ġparox":2931,"ize":2932,"ĠKliniek":2933,"Ġhuid":2934,"Ġontste":2935,"opie":2936,"aag":2937,"Ġtekenen":2938,"Ġsotalol":2939,"abol":2940,"rain":2941,"Ġaanzien":2942,"tens":2943,"Ġjaren":2944,"Ġdaarom":2945,"mal":2946,"insufficiÃ«ntie":2947,"Ġmitralisklep":2948,"veal":2949,"ĠAL":2950,"emt":2951,"out":2952,"operatief":2953,"Ġsugger":2954,"Ġgegeven":2955,"klier":2956,"ĠRF":2957,"zelfde":2958,"olec":2959,"itas":2960,"Ġvocht":2961,"ografisch":2962,"orth":2963,"ĠUn":2964,"Ġintermedi":2965,"ĠTot":2966,"ĠeGFR":2967,"oek":2968,"Ġpericard":2969,"Ġinsul":2970,"ĠâĢĵ":2971,"etre":2972,"operatieve":2973,"Ġbelast":2974,"hm":2975,"Ġdevice":2976,"Sc":2977,"regelmatig":2978,"12":2979,"mmol":2980,"ĠBl":2981,"Ġbeiderzijds":2982,"oler":2983,"mbolie":2984,"raat":2985,"Ġweg":2986,"-#>,":2987,"Ġpraktijk":2988,"middelen":2989,"uiden":2990,"ĠIV":2991,"Cardi":2992,"eff":2993,"ĠAc":2994,"Ġgeslacht":2995,"elefon":2996,"Ġaanwezigheid":2997,"lamm":2998,"Ġverdere":2999,"ĠTel":3000,"zaken":3001,"Ġvooraf":3002,"Ġwaaronder":3003,"uli":3004,"Ġgestopt":3005,"roon":3006,"kn":3007,"klopp":3008,"Ġnood":3009,"erie":3010,"hoog":3011,"au":3012,"Ġpleuravocht":3013,"Ġsten":3014,"validatie":3015,"Ġlichaam":3016,"diening":3017,"urose":3018,"Ġherstel":3019,"ntslag":3020,"iteiten":3021,"ascul":3022,"Ġassoci":3023,"cardi":3024,"Ġverto":3025,"lijkt":3026,"oken":3027,"pacemaker":3028,"MP":3029,"lasse":3030,"Ġperiode":3031,"urosemide":3032,"ool":3033,"Ġreview":3034,"Ġ200":3035,"fte":3036,"Ġmensen":3037,"opulatie":3038,"Ġpersist":3039,"studie":3040,"Ġleven":3041,"rift":3042,"mon":3043,"Ġproblemen":3044,"oum":3045,"Ġzwangerschap":3046,"issel":3047,"kloppingen":3048,"ĠGen":3049,"werken":3050,"Ġonafhan":3051,"ain":3052,"Ġbeperk":3053,"matige":3054,"ĠVerrichting":3055,"Ġbevest":3056,"Ġkortadem":3057,"Ġduidelijke":3058,"nduc":3059,"Ġstatine":3060,"ĠLeeftijd":3061,"ĠLVAD":3062,"atist":3063,"ĠINR":3064,"angi":3065,"dz":3066,"Ġapic":3067,"stit":3068,"Ġernstig":3069,"Ġgeeft":3070,"ocatie":3071,"cus":3072,"Ġkon":3073,"pland":3074,"Ġdiffer":3075,"Ġ15":3076,"onie":3077,"ĠHo":3078,"lipidemie":3079,"issen":3080,"idi":3081,"Ġgestaakt":3082,"pect":3083,"model":3084,"ĠRisic":3085,"Type":3086,"ICD":3087,"Ġgroter":3088,"Ġdepressie":3089,"Ġangiografie":3090,"#%":3091,"wassen":3092,"emb":3093,"eds":3094,"orb":3095,"ĠInter":3096,"oglobine":3097,"istolling":3098,"ĠPVC":3099,"Ġtechn":3100,"Ġbepalen":3101,"Ġun":3102,"eth":3103,"Ġlok":3104,"Ġall":3105,"EP":3106,"Ġpercentage":3107,"alk":3108,"jectiefractie":3109,"Ġslechts":3110,"Ġwaardoor":3111,"Ġber":3112,"Ġvooral":3113,"Ġvit":3114,"Ġmar":3115,"ĠVerslagdatum":3116,"spec":3117,"Ġerv":3118,"OT":3119,"Ġgeleden":3120,"CL":3121,"nemen":3122,"ĠVol":3123,"ffen":3124,"lex":3125,"ibiot":3126,"infectie":3127,"afwijking":3128,"Ġplaat":3129,"rench":3130,"Controle":3131,"BS":3132,"erte":3133,"Ġ201":3134,"gangs":3135,"mee":3136,"luor":3137,"Ġdefin":3138,"Ġcy":3139,"Ġbelangrijkste":3140,"ded":3141,"serv":3142,"Ġleid":3143,"bi":3144,"Document":3145,"],[":3146,"Ġbeoordeling":3147,"Ġafdeling":3148,"Ġmodel":3149,"ouwd":3150,"anks":3151,"kin":3152,"Ġtumor":3153,"Ġprognose":3154,"ster":3155,"ĠFFR":3156,"remm":3157,"olatie":3158,"Ġmy":3159,"ĠTevens":3160,"ĠHR":3161,"anden":3162,"Ġkenmerken":3163,"DS":3164,"ctomie":3165,"Aanvraag":3166,"Ġdoorge":3167,"passing":3168,"ĠMedic":3169,"ĠPA":3170,"Ġvier":3171,"Ġadvies":3172,"vas":3173,"Ġsamenvatting":3174,"Ġomvat":3175,"Ġintern":3176,"inding":3177,"digen":3178,"Ġeviden":3179,"geluiden":3180,"ĠCRT":3181,"Ġ30":3182,"itieve":3183,"Ġnemen":3184,"diagnose":3185,"cip":3186,"Ġpijnklachten":3187,"Ġmate":3188,"Ġsoms":3189,"ĠCD":3190,"Ġpassend":3191,"ĠVS":3192,"Ġbdz":3193,"Ġgebeur":3194,"Ġ(#%":3195,"zem":3196,"Ġrug":3197,"Ġzichtbaar":3198,"orgen":3199,"french":3200,"unst":3201,"Size":3202,"ocard":3203,"Ġdagelijk":3204,"ĠZie":3205,"Ġpot":3206,"Ġdysfunctie":3207,"ĠIndien":3208,"Ġnegatieve":3209,"Ġpulmonale":3210,"Ġrelatie":3211,"Ġredelijk":3212,"spiegel":3213,"Ġmag":3214,"Ã¨":3215,"ĠPG":3216,"Ġhuisartsen":3217,"ĠLichamelijk":3218,"Diabetes":3219,"arine":3220,"Ġconcent":3221,"cel":3222,"Bij":3223,"ĠWel":3224,"Ġvanaf":3225,"OL":3226,"stellingen":3227,"Ġcardiaal":3228,"Ġadem":3229,"scan":3230,"ĠCOPD":3231,"Ġvs":3232,"Ġmaximaal":3233,"PA":3234,"ĠTijdens":3235,"BI":3236,"YHA":3237,"ets":3238,"ĠHT":3239,"gd":3240,"Ġverdenking":3241,"Ġdiagnostiek":3242,"Ġeiwit":3243,"Ġingreep":3244,"Ġident":3245,"Ġbijgeluiden":3246,"ud":3247,"Ġprof":3248,"ublic":3249,"IMA":3250,"Ġepis":3251,"Ġincident":3252,"Lengte":3253,"Ġverlaag":3254,"Ġvet":3255,"these":3256,"Ġproximale":3257,"ĠLin":3258,"elefonisch":3259,"AL":3260,"Ġbron":3261,"atter":3262,"Ġsouffles":3263,"opril":3264,"Ġreeds":3265,"Ġadequ":3266,"Ġhep":3267,"Ġspecifieke":3268,"Ġbepaald":3269,"etreft":3270,"blok":3271,"reveal":3272,"stam":3273,"emp":3274,"Ġhartkloppingen":3275,"ĠTele":3276,"Ġvervolgens":3277,"Ġthorax":3278,"plaats":3279,"Ġartikelen":3280,"Ġbero":3281,"ereb":3282,"Ġoc":3283,"omatische":3284,"voorbeeld":3285,"dilatatie":3286,"Ġpart":3287,"Algemene":3288,"Ġhulp":3289,"Ġrepol":3290,"kle":3291,"Ġchem":3292,"Ġvolwassen":3293,"Ġverpleegkun":3294,"olerantie":3295,"Ġec":3296,"hart":3297,"Ġwetenschapp":3298,"wegingen":3299,"Ġhemat":3300,"Klinische":3301,"plijden":3302,"Ġorth":3303,"inesie":3304,"Ġdecompensatio":3305,"ight":3306,"rocardi":3307,"Ġrapport":3308,"Ġindivid":3309,"bla":3310,"aling":3311,"Ġimp":3312,"ior":3313,"ritis":3314,"ry":3315,"staande":3316,"get":3317,"asculair":3318,"Ġhartslag":3319,"fic":3320,"Ġpositieve":3321,"Ġpositief":3322,"ĠATP":3323,"Ġovereen":3324,"Ġspier":3325,"Ġglucose":3326,"lass":3327,"pers":3328,"Ġverwijzing":3329,"ĠSpec":3330,"consultatie":3331,"Ġverl":3332,"Ġvastgesteld":3333,"ĠAanvullend":3334,"emming":3335,"hesie":3336,"SC":3337,"vullende":3338,"pties":3339,"regelmatigheden":3340,"eus":3341,"oprote":3342,"ĠLaboratorium":3343,"Ġexpressie":3344,"ĠCoronair":3345,"ogrel":3346,"antwoor":3347,"Ġstabiele":3348,"ĠCont":3349,"Ġhartziekte":3350,"Ġfib":3351,"utatie":3352,"ouder":3353,"Ġweefsel":3354,"Ġgast":3355,"Ġ#;#":3356,"Ġdilatatie":3357,"ĠTeleconsultatie":3358,"Ġmaag":3359,"eek":3360,"idogrel":3361,"ĠAoI":3362,"Ġblijft":3363,"001":3364,"ĠLVH":3365,"Ġ95":3366,"Ġbrief":3367,"razol":3368,"Ġvasculaire":3369,"ĠCAD":3370,"ja":3371,"past":3372,"osten":3373,"Ġeerst":3374,"Ġsup":3375,"stijden":3376,"Ġenkel":3377,"Ġvermoeid":3378,"Ġbpm":3379,"opname":3380,"Ġsysteem":3381,"Ġorg":3382,"ĠSinusritme":3383,"Ġ+/-":3384,"ĠGezien":3385,"vragen":3386,"gewicht":3387,"trem":3388,"lan":3389,"Ġberoerte":3390,"Ġbasaal":3391,"onregelmatigheden":3392,"carcinoom":3393,"Ġeffectie":3394,"ĠPT":3395,"-,":3396,"Ġplac":3397,"derd":3398,"Ġrisicoprofiel":3399,"iat":3400,"missie":3401,"zak":3402,"Ġgec":3403,"yla":3404,"Ġjarige":3405,"GT":3406,"allon":3407,"transplantatie":3408,"Ġplot":3409,"Op":3410,"ivers":3411,"Ġrecept":3412,"ĠNS":3413,"Succ":3414,"Ġscan":3415,"eeded":3416,"elling":3417,"Ġveroorzaakt":3418,"ĠACS":3419,"Ġbetrouw":3420,"Ġconclusie":3421,"ĠHe":3422,"Ġvolledig":3423,"Succeeded":3424,"Ġcond":3425,"Ġcontrast":3426,"Ġexper":3427,"ĠHuis":3428,"andig":3429,"Ġreden":3430,"Ġlange":3431,"Opties":3432,"CABG":3433,"ĠBI":3434,"Ġsnelle":3435,"ĠNT":3436,"Ġalgemeen":3437,"Ġlinkerventrikel":3438,"Ġlucht":3439,"plement":3440,"Ġpatiente":3441,"reeg":3442,"activiteit":3443,"Ġ).":3444,"kundige":3445,"ĠbeÃ¯n":3446,"Ġcorrel":3447,"iodaron":3448,"angen":3449,"osen":3450,"sympt":3451,"/#.#":3452,"Ġ)":3453,"ĠPOB":3454,"eline":3455,"Ġantibiot":3456,"Ġverkregen":3457,"urie":3458,"ĠGaat":3459,"ĠPar":3460,"daag":3461,"Ġproces":3462,"ificeerd":3463,"Ġ[,":3464,"Ġdeelnemers":3465,"Ġafname":3466,"laar":3467,"uring":3468,"Ġstoornis":3469,"top":3470,"ĠCon":3471,"Ġpalpitaties":3472,"Ġpreval":3473,"Atrium":3474,"ialisme":3475,"Ġproef":3476,"dacht":3477,"ĠBloeddruk":3478,"Ġzuur":3479,"Ġinferior":3480,"aseerd":3481,"Ġdient":3482,"#/#":3483,"ĠCalciumscore":3484,"Ġfoc":3485,"Ġtoediening":3486,"falen":3487,"ĠMo":3488,"Ġinsuffici":3489,"ĠControle":3490,"Ġcontroles":3491,"Ġcarot":3492,"Ġvar":3493,"Ġintermediaire":3494,"Ġevaluatie":3495,"Ġste":3496,"Ġsubc":3497,"Ġgeleidingstijden":3498,"Ġaneur":3499,"DP":3500,"ĠBovengenoemde":3501,"sol":3502,"Ġopzicht":3503,"Ġox":3504,"Ġmaximale":3505,"Ġspont":3506,"slijden":3507,"ĠDiabetes":3508,"lopidogrel":3509,"amma":3510,"Ġniveaus":3511,"Ġhouden":3512,"Ġbijzonderheden":3513,"syst":3514,"Ġherst":3515,"ĠBlanco":3516,"BLE":3517,"ĠPQ":3518,"/#":3519,"Ġnauw":3520,"Ġlichte":3521,"ĠOnge":3522,"risic":3523,"Ġpt":3524,"Ġascendens":3525,"Ġopen":3526,"Ġtij":3527,"Ġsn":3528,"Ġdimensie":3529,"band":3530,"Ġregist":3531,"Ġaneurys":3532,"gere":3533,"Ġproximaal":3534,"Ġbijwerken":3535,"staat":3536,"ĠBel":3537,"vangen":3538,"Ġvoort":3539,"cy":3540,"ĠMO":3541,"Ġpersonen":3542,"ript":3543,"Ġonvol":3544,"Ġmassa":3545,"Ġvariab":3546,"ĠVAG":3547,"Ġblok":3548,"ieerde":3549,"ĠHyper":3550,"Ġhal":3551,"ĠHCK":3552,"Ġpathologische":3553,"eest":3554,"lycer":3555,"ĠPatiÃ«nten":3556,"diagnost":3557,"uus":3558,"ablok":3559,"Ġbeloop":3560,"Ġgraag":3561,"Ġast":3562,"ook":3563,"CVA":3564,"ĠAort":3565,"Ġmi":3566,"Ġalgemene":3567,"Ġgedaan":3568,"raties":3569,"gegeven":3570,"tect":3571,"ĠEle":3572,"Ġqu":3573,"Ġmiddels":3574,"compliceerd":3575,"Ġkreeg":3576,"Ġgevolgd":3577,"Ġtevens":3578,"Ġkleplijden":3579,"amens":3580,"spreken":3581,"lak":3582,"ĠBetreft":3583,"Ġfactor":3584,"ĠTen":3585,"Ġmyocardiale":3586,"Ac":3587,"Ġvoldoende":3588,"oezem":3589,"ĠPost":3590,"Ġmogelijke":3591,"ĠPI":3592,"orf":3593,"uls":3594,"vrouw":3595,"Ġvor":3596,"Ġnooit":3597,"ĠgeÃ«":3598,"uiding":3599,"groepen":3600,"Ġstuk":3601,"Ġrepolarisatie":3602,"bere":3603,"Ġvanuit":3604,"omatisch":3605,"Ġervan":3606,"domen":3607,"Ġgb":3608,"dipine":3609,"Ġ24":3610,"Ġmechanis":3611,"iseerde":3612,"Ġpatint":3613,"Ġoverle":3614,"Ġtherapeut":3615,"Ġjan":3616,"bezoek":3617,"ĠTer":3618,"ieve":3619,"Ġcoh":3620,"ĠWij":3621,"ege":3622,"Overige":3623,"Ġdiabet":3624,"Ġuitgesloten":3625,"etica":3626,"Ġrichtlijnen":3627,"50":3628,"apport":3629,"Ġnet":3630,"Ġbla":3631,"uleerd":3632,"Ġmuizen":3633,"ilijk":3634,"Ġ(#-#":3635,"insufficientie":3636,"ĠWat":3637,"spro":3638,"ateraal":3639,"Ġstatist":3640,"rem":3641,"Ġcardioversie":3642,"CC":3643,"uni":3644,"Ġdistale":3645,"igde":3646,"later":3647,"Ġlopen":3648,"ĠOnderzoekdatum":3649,"utane":3650,"Ġâī":3651,"Ġsuper":3652,"Coronair":3653,"annen":3654,"Ġgerelat":3655,"Ġstoppen":3656,"=#":3657,"vloe":3658,"Ġballon":3659,"Ġcoronairen":3660,"ph":3661,"Ġuitgebreide":3662,"Ġmilde":3663,"iver":3664,"Ġaltijd":3665,"Ġseptum":3666,"aden":3667,"sprek":3668,"ichtlijn":3669,"oen":3670,"Ġplaceb":3671,"ografische":3672,"Ġgeschat":3673,"ĠHoewel":3674,"vant":3675,"dnis":3676,"akte":3677,"uurd":3678,"abiele":3679,"Ġklasse":3680,"VAD":3681,"Ġondersteun":3682,"Ġdomin":3683,"esitas":3684,"Ġmaat":3685,"ĠÃ":3686,"Ġtricusp":3687,"uze":3688,"DI":3689,"Ġtoonden":3690,"nummer":3691,"iklinische":3692,"Ġbuiten":3693,"Ġopzichte":3694,"Ġaandacht":3695,"aart":3696,"iele":3697,"erm":3698,"Ġong":3699,"ĠSP":3700,"Ġwarm":3701,"Ġprote":3702,"oging":3703,"Ġincidentie":3704,"Ġaanbevelingen":3705,"LA":3706,"Ġafhan":3707,"ĠDat":3708,"zy":3709,"isme":3710,"aste":3711,"Ġcel":3712,"Ġvers":3713,"Ġstim":3714,"ronic":3715,"emaal":3716,"asis":3717,"ĠLaat":3718,"Ġwaarin":3719,"ĠIL":3720,"Ġnacht":3721,"ĠCVA":3722,"Ġmorgen":3723,"oper":3724,"NO":3725,"hyd":3726,"ĠVF":3727,"Ġspecialist":3728,"20":3729,"Ġcyt":3730,"indt":3731,"Ġprevalentie":3732,"Ġgradi":3733,"ĠSV":3734,"Geslacht":3735,"Ġcre":3736,"ogn":3737,"19":3738,"schrift":3739,"team":3740,"tremiteiten":3741,"Ġziekten":3742,"ĠSinds":3743,"gr":3744,"cardiale":3745,"hul":3746,"Ġruim":3747,"Ġoptre":3748,"mger":3749,"RNA":3750,"ree":3751,"Ġfrequ":3752,"Ġgebeurten":3753,"Ġimmun":3754,"ĠTC":3755,"mgeruis":3756,"ors":3757,"pectatief":3758,"Ġslank":3759,"stemming":3760,"Ġbegin":3761,"Bel":3762,"Ġwandonregelmatigheden":3763,"oxic":3764,"tern":3765,"Ġplaque":3766,"Ġepisode":3767,"iep":3768,"ruiken":3769,"ĠToe":3770,"Ġintraven":3771,"Ġritmestoornissen":3772,"Ġshock":3773,"yre":3774,"Ġgerapport":3775,"Ġademgeruis":3776,"Ġantistolling":3777,"Ġvroeg":3778,"armac":3779,"spectief":3780,"EE":3781,"Ch":3782,"Ġ&":3783,"ĠNYHA":3784,"Ġleiden":3785,"ĠPre":3786,"Ġverwezen":3787,"Ġomge":3788,"sters":3789,"plet":3790,"Ġobserv":3791,"Ġ14":3792,"oma":3793,"dent":3794,"vulling":3795,"Ġech":3796,"Ġfosf":3797,"Ġlaboratorium":3798,"Ġtoekomst":3799,"li":3800,"Ġbloeding":3801,"Ġbezoek":3802,"bev":3803,"Ġmeeste":3804,"ĠKalium":3805,"ĠAlgemene":3806,"Ġverslag":3807,"raad":3808,"Ġsuccesvolle":3809,"ĠRichtlijn":3810,"acter":3811,"Ġverminderd":3812,"ines":3813,"ĠDaarnaast":3814,"rombocyten":3815,"Ġhartfrequentie":3816,"Ġbestaat":3817,"Ġgeschiedenis":3818,"nest":3819,"Ġzit":3820,"Ġbez":3821,"Ġresultaat":3822,"pat":3823,"her":3824,"Ġaanvullend":3825,"nduceerde":3826,"resp":3827,"ĠBehandeling":3828,"Ġzeker":3829,"aban":3830,"duct":3831,"Ġwond":3832,"comp":3833,"usc":3834,"Ġ11":3835,"ĠAp":3836,"tekeningen":3837,"ĠAm":3838,"clude":3839,"Ġbenen":3840,"Ġsens":3841,"Ġbijd":3842,"sche":3843,"Ġpoliklinisch":3844,"Ġlijn":3845,"ĠQTc":3846,"Ġcalc":3847,"ronische":3848,"weefsel":3849,"Ġongewijzigd":3850,"Ġgroe":3851,"oumar":3852,"Ġdegen":3853,"ĠTAVI":3854,"oston":3855,"Ġmaakt":3856,"hr":3857,"ĠRitme":3858,"Ã¶":3859,"stest":3860,"bum":3861,"Ġsoe":3862,"Ġgebruiken":3863,"ĠBrief":3864,"afdeling":3865,"MB":3866,"Ġkunt":3867,"%.":3868,"Cardiomyopathie":3869,"Ġontstaan":3870,"ital":3871,"mma":3872,"Ġ?":3873,"Ġblijven":3874,"Ġ#/#,":3875,"Ġmac":3876,"Ġverminderen":3877,"Ġretro":3878,"ement":3879,"ĠVAD":3880,"ysmaal":3881,"nog":3882,"Ġgedefin":3883,"Ġarm":3884,"Ġorale":3885,"Ġdiameter":3886,"000":3887,"Ġie":3888,"Ġglob":3889,"itmie":3890,"Ġ13":3891,"rateg":3892,"moe":3893,"riale":3894,"Ġuitgangs":3895,"Ġden":3896,"ECT":3897,"odynam":3898,"vrij":3899,"Ġwaarna":3900,"Ġonvoldoende":3901,"ractuur":3902,"Ġbew":3903,"ĠPulm":3904,"arb":3905,"Ġinsuline":3906,"week":3907,"Ġmedicam":3908,"ĠMedisch":3909,":\\":3910,"Ġisolatie":3911,"controle":3912,"ĠHg":3913,"adium":3914,"Ġmedicijnen":3915,"riet":3916,"Ġanemie":3917,"Ġlager":3918,"]):":3919,"cell":3920,"ient":3921,"niet":3922,"Ġrisk":3923,"klepafwijking":3924,"ĠCC":3925,"Ġaantekeningen":3926,"ocyt":3927,"Ġbetrekking":3928,"CO":3929,"wegings":3930,"Ġwillen":3931,"asen":3932,"Ġdosering":3933,"anamnese":3934,"plaatst":3935,"Ġholter":3936,"Ġuitslag":3937,"Ġcereb":3938,"Ġgemiddeld":3939,"ĠGewicht":3940,"seg":3941,"Ġfiet":3942,"ĠEFO":3943,"lammatoire":3944,"ressure":3945,"Ġontsteking":3946,"Ġheel":3947,"Ġ(>":3948,"Ġtelefonisch":3949,"ocarditis":3950,"Ġremm":3951,"itatie":3952,"Ġbeschouwd":3953,"Ġtak":3954,"agonist":3955,"drukken":3956,"sing":3957,"Ġduizeligheid":3958,"Ġstaken":3959,"Ġnam":3960,"Ġfase":3961,"fter":3962,"digd":3963,"Ġechocardiogram":3964,"Ġmetabol":3965,"zo":3966,"iseerd":3967,"oden":3968,"Ġref":3969,"alisatie":3970,"Ġ50":3971,"Ġdarm":3972,"olom":3973,"Ġbeschikbaar":3974,"Ġgericht":3975,"Ġkader":3976,"Ġrate":3977,"entieel":3978,"Ġpatients":3979,"rog":3980,"uun":3981,"ĠY":3982,"ins":3983,"vasculaire":3984,"domin":3985,"segment":3986,"Ġsystemische":3987,"Ġparameters":3988,"angiografie":3989,"Behandel":3990,"tronic":3991,"Ġassociatie":3992,"DM":3993,"ĠÂµmol":3994,"perv":3995,"Ġindex":3996,"Ġverte":3997,"ĠHem":3998,"va":3999,"Ġprobleem":4000,"ĠMatige":4001,"ĠHDL":4002,"Ġ18":4003,"ĠZij":4004,"tot":4005,"ĠDaarom":4006,"defect":4007,"Ġvroege":4008,"sieke":4009,"Ã³Ã³":4010,"Ġwacht":4011,"Ġcohort":4012,"vatslijden":4013,"omp":4014,"Ġmeet":4015,"ED":4016,"Ġvandaag":4017,"amp":4018,"ĠNH":4019,"ptaal":4020,"MO":4021,"Ġauteur":4022,"halve":4023,"ĠDoor":4024,"reerd":4025,"ĠSch":4026,"figuur":4027,"Ġgecontrol":4028,"euk":4029,"use":4030,"iologie":4031,"niveau":4032,"RADS":4033,"ĠarteriÃ«le":4034,"Ġgebaseerd":4035,"Ġmoeilijk":4036,"Ġoverzicht":4037,"RV":4038,"ome":4039,"Ã³Ã³r":4040,"Ġvul":4041,"chirurg":4042,"ime":4043,"Ġdisfunctie":4044,"fs":4045,"bouw":4046,"Ġhoogte":4047,"Ġstarten":4048,"Ġhoeveel":4049,"lang":4050,"Ġwaarvan":4051,"oid":4052,"Ġbijvoorbeeld":4053,"ĠStart":4054,"ise":4055,"aterale":4056,"Ġpneumonie":4057,"ition":4058,"Ġspre":4059,"reden":4060,"Pacemaker":4061,"Ġadenosine":4062,"Ġup":4063,"Ġimpl":4064,"ociale":4065,"vraagd":4066,"Ġstij":4067,"Ġeventueel":4068,"meth":4069,"concent":4070,"Hartklepafwijking":4071,"order":4072,"95":4073,"erden":4074,"Ġverpleeg":4075,"ĠEvent":4076,"Ġdu":4077,"ĠVES":4078,"acet":4079,"Ġademhal":4080,"fibril":4081,"US":4082,"ĠHA":4083,"Ġzuurstof":4084,"ĠMCH":4085,"Ġactie":4086,"orten":4087,"Ġvraag":4088,"oumarol":4089,"Ġdiagnostische":4090,"EC":4091,"Ġdistaal":4092,"vert":4093,"Ġvl":4094,"ĠâĢĶ":4095,"bep":4096,"artan":4097,"enoc":4098,"Ġgepland":4099,"egroep":4100,"icus":4101,"ĪĴ":4102,"Ġhyd":4103,"13":4104,"loop":4105,"ĠRisicofactoren":4106,"ongenitale":4107,"idiver":4108,"undaire":4109,"antal":4110,"ĠAD":4111,"Ġcriteria":4112,"15":4113,"Ġafhankelijk":4114,"Ġzullen":4115,"ay":4116,"ĠMS":4117,"Ġneemt":4118,"Ġfen":4119,"Ġtroponine":4120,"HR":4121,"Ġbeen":4122,"Ġblijkt":4123,"Ġevenals":4124,"Ġhist":4125,"Ġocclusie":4126,"rot":4127,"Ġkl":4128,"Ġconserv":4129,"iron":4130,"erp":4131,"kanker":4132,"ĠIm":4133,"Ġvervanging":4134,"Ġdezelfde":4135,"Ġmiddelen":4136,"Ġuitein":4137,"Ġvaker":4138,"hyper":4139,"Behandelplan":4140,"Ġrespons":4141,"ĠCreatinine":4142,"Ġplacebo":4143,"advis":4144,"kort":4145,"etisch":4146,"Ġaanvullende":4147,"Ġ#/#(#)":4148,"veranderd":4149,"Ġaandoening":4150,"Ġoud":4151,"Ġfysi":4152,"geschreven":4153,"Ġondergaan":4154,"ĠOpname":4155,"Ġwissel":4156,"erder":4157,"enter":4158,"ildklier":4159,"Ġslaap":4160,"Ġletsel":4161,"duur":4162,"BMI":4163,"Ġvoelt":4164,"GF":4165,"enocoumarol":4166,"Ġlagere":4167,"atheterisatie":4168,"gressie":4169,"Ġvaten":4170,"Ġamb":4171,"Ġdimensies":4172,"fibrileren":4173,"ĠJa":4174,"agement":4175,"Ġverbeteren":4176,"RCA":4177,"intigra":4178,"ĠCardioloog":4179,"amm":4180,"uidelijk":4181,"Ġontslagen":4182,"Ġobesitas":4183,"ĠPC":4184,"genwoor":4185,"Ġgezondheids":4186,"Ġmeestal":4187,"Ġbena":4188,"Diameter":4189,"mige":4190,"perfusie":4191,"Ġform":4192,"Ġhypok":4193,"Ġbronch":4194,"Ġvergroot":4195,"ortic":4196,"Ġanest":4197,"Ġratio":4198,"Ġbehouden":4199,"Ġoverleden":4200,"jaar":4201,"rategie":4202,"Com":4203,"abase":4204,"Ġstenosen":4205,")-":4206,"plicatie":4207,"Ġaanhouden":4208,"Ant":4209,"LU":4210,"ĠUreum":4211,"indopril":4212,"14":4213,"rofysi":4214,"Ġsyn":4215,"raa":4216,"pre":4217,"Ġevt":4218,"max":4219,"ĠDiagnose":4220,"ablatie":4221,"Ġvinden":4222,"vou":4223,"ĠDES":4224,"Ġcath":4225,"Ġbeeldvorming":4226,"clerotische":4227,"volgen":4228,"eeskunde":4229,"Ġplaatsing":4230,"Ġafter":4231,"Ġoverige":4232,"Ġverdi":4233,"iatie":4234,"Ġoedemen":4235,"ear":4236,"raling":4237,"ĠvÃ³Ã³r":4238,"rempel":4239,"aut":4240,"ongembolie":4241,"atterij":4242,"Ġverzam":4243,"Ġchirurgische":4244,"Ġpopulatie":4245,"been":4246,"Ġkosten":4247,"stip":4248,"reef":4249,"lec":4250,"rien":4251,"richtlijn":4252,"Bloed":4253,"ĠUnivers":4254,"Congenitale":4255,"Ġanat":4256,"Ġ16":4257,"ĠNV":4258,"Ġarterie":4259,"plaat":4260,"verse":4261,"son":4262,"Ġleidt":4263,"Ġejectiefractie":4264,"Ġkanker":4265,"Coronairlijden":4266,"ico":4267,"Ġout":4268,"kkoord":4269,"lings":4270,"reatment":4271,"ionale":4272,"nstige":4273,"ood":4274,"Ġvolume":4275,"Ġnov":4276,"Ġmei":4277,"Ġwaarden":4278,"Post":4279,"Ġtel":4280,"Ġlangdur":4281,"UR":4282,"Ġvergelijkbaar":4283,"mit":4284,"Ġuitst":4285,"Ġimm":4286,"ĠNI":4287,"ĠEchocardiogram":4288,"Ġ>#":4289,"Ġ#.#);":4290,"afspraak":4291,"ierfunctie":4292,"Er":4293,"activ":4294,"Ġnef":4295,"gelijke":4296,"Ġapicaal":4297,"PREHTX":4298,"Ġgezonde":4299,"Ġvas":4300,"Ġcalcium":4301,"Ġaneurysma":4302,"ĠLicht":4303,"lav":4304,"Ġdes":4305,"Ġboezem":4306,"ĠBMI":4307,"ology":4308,"Ġdub":4309,"Ġstaan":4310,"Ġinspannings":4311,"Ġir":4312,"igingen":4313,"Ġinclusie":4314,"ha":4315,"Ġgerelateerd":4316,"Ġclin":4317,"cc":4318,"ropathie":4319,"gerelat":4320,"Gewicht":4321,"SH":4322,"Ġcogn":4323,"Ġvermoeidheid":4324,"Ġkinder":4325,"Ġdyspneu":4326,"Ġbot":4327,"Ġright":4328,"Guiding":4329,"Â°":4330,"Ġcontrolegroep":4331,"Ġendot":4332,"Ġgerapporteerd":4333,"ĠRCX":4334,"isie":4335,"ĠPulmon":4336,"Ġveil":4337,"Ġvijf":4338,"Ġperifere":4339,"Atriumfibrileren":4340,"punten":4341,"Ġvolg":4342,"oss":4343,"Ġnit":4344,"Ġaug":4345,"merk":4346,"Ġonderlig":4347,"Ġhersenen":4348,"ĠFamilie":4349,"Ġtrial":4350,"amol":4351,"Ġafwijkend":4352,"Ġsituatie":4353,"Pol":4354,"ĠLBTB":4355,"arde":4356,"gelen":4357,"Ġafwez":4358,"standig":4359,"Ġverandering":4360,"gebied":4361,"Ġmoeder":4362,"meting":4363,"Ġnaast":4364,"Ġbespreken":4365,"olact":4366,"minuut":4367,"ged":4368,"Ġ25":4369,"ĠReg":4370,"expressie":4371,"Ġgebeurtenissen":4372,"ote":4373,"but":4374,"Ġmens":4375,"Ġecht":4376,"ĠCol":4377,"Ġfurosemide":4378,"Ġdaarbij":4379,"Ġperifeer":4380,"geleiding":4381,"ĠNF":4382,"Ġokt":4383,"Ġidentific":4384,"Ġmorf":4385,"Ġlokale":4386,"roke":4387,"ational":4388,"Ġander":4389,"Ġdood":4390,"Ġverlen":4391,"Ġpathologie":4392,"isselijk":4393,"Ġverwijderd":4394,"alth":4395,"Ġdrug":4396,"ĠAtrium":4397,"11":4398,"Ġverklaring":4399,"Ġanders":4400,"esc":4401,"Ġ#-#/":4402,"Ġfibr":4403,"Ġknie":4404,"Ġoptreden":4405,"ĠRVF":4406,"olacton":4407,"schat":4408,"ultaten":4409,"illa":4410,"Ġpacing":4411,"inde":4412,"idings":4413,"Ob":4414,"Ġtoepassing":4415,"Ġplasma":4416,"Ġinvloed":4417,"therapie":4418,"Ġonthul":4419,"uleren":4420,"Ġmediast":4421,"Ġtran":4422,"Ġri":4423,"aps":4424,"rine":4425,"Ġrelatief":4426,"legd":4427,"AN":4428,"namelijk":4429,"gaand":4430,"Ġfeb":4431,"Ġcontractie":4432,"Ġtoegenomen":4433,"utaan":4434,"Ġbenauwd":4435,"Domin":4436,"Ġjuni":4437,"acc":4438,"rectie":4439,"Ġzouden":4440,"Ġsystem":4441,"Ġdik":4442,"rengen":4443,"visie":4444,"Ġcentrale":4445,"Ġlanger":4446,"ĠOntslag":4447,"ĠSpecialist":4448,"Ġfunctionele":4449,"Ġkind":4450,"Ġzelfs":4451,"blemen":4452,"Ġuitkomsten":4453,"Ġonderwand":4454,"astolische":4455,"Ġget":4456,"kening":4457,"Ġkrijgen":4458,"Indicatie":4459,"ieken":4460,"diging":4461,"Operatieverslag":4462,"ĠVoorgeschiedenis":4463,"ironolacton":4464,"Ġuitkomstm":4465,"Ġbestaande":4466,"Ġgedefinieerd":4467,"punt":4468,"Ġinit":4469,"oph":4470,"ĠRVSP":4471,"gingen":4472,"SS":4473,"Ġgeneesmiddelen":4474,"EPI":4475,"otomie":4476,"Ġslecht":4477,"ĠThorax":4478,"Ġconditie":4479,"col":4480,"gezien":4481,"ĠPREHTX":4482,"gestelde":4483,"Ġauteurs":4484,"ĠCI":4485,"Ġhemodynam":4486,"ister":4487,"Bekend":4488,"hoden":4489,"Ġ#);":4490,"ĠLIMA":4491,"Ġatypische":4492,"Ġstellen":4493,"Ġdieet":4494,"yslipidemie":4495,"iÃ«n":4496,"wogen":4497,"rope":4498,"ventriculaire":4499,"verlen":4500,"Ġakkoord":4501,"itm":4502,"kelet":4503,"Ġexpectatief":4504,"ectomie":4505,"Ġdem":4506,"ĠOperatieverslag":4507,"vervanging":4508,"radycardie":4509,"gaande":4510,"positie":4511,"Soort":4512,"stij":4513,"Ġendocarditis":4514,"kwab":4515,"Ġâī¥":4516,"enst":4517,"Ġhypertrofie":4518,"hier":4519,"gehal":4520,"Ġgerandom":4521,"Ġkracht":4522,"gs":4523,"ated":4524,"ĠCTA":4525,"Ġopnam":4526,"Ġsegmenten":4527,"Ġveneuze":4528,"Ġhals":4529,"Ġvermindering":4530,"Ġfe":4531,"PM":4532,"ientific":4533,"bet":4534,"rip":4535,"Ġforse":4536,"Cont":4537,"Ġgradient":4538,"spiegels":4539,"olisch":4540,"Ġiom":4541,"Ġverzoek":4542,"Ġvoorspellen":4543,"Ġechocardiografie":4544,"sule":4545,"AI":4546,"Ġachteruit":4547,"ĠGR":4548,"Ġlum":4549,"geÃ¯":4550,"ĠRechts":4551,"Ġvolledige":4552,"lux":4553,"Ġgastro":4554,"Pre":4555,"Ġascal":4556,"delaar":4557,"zer":4558,"veren":4559,"ue":4560,"Ġbloot":4561,"Ġ(#,#":4562,"ĠdifferentiÃ«le":4563,"Ġwandbe":4564,"Ġlo":4565,"MS":4566,"rens":4567,"ĠAll":4568,"enteus":4569,"Ġvoorschrift":4570,"Ġratten":4571,"Ġafgenomen":4572,"ĠMeet":4573,"assistent":4574,"Ġlaesie":4575,"anisatie":4576,"iglycer":4577,"Ġondanks":4578,"opath":4579,"Ġfo":4580,"Ġorthop":4581,"Ġgunst":4582,"emper":4583,"reactie":4584,"toon":4585,"Ġvolwassenen":4586,"Ġantibiotica":4587,"Ġmaal":4588,"rige":4589,"Ġgedrag":4590,"25":4591,"Ã¨t":4592,"ctuele":4593,"Ġess":4594,"ikel":4595,"arch":4596,"uting":4597,"Ġhypertrof":4598,"ĠBoston":4599,"ĠMyocard":4600,"Ġlaesies":4601,"systeem":4602,"Ġ100":4603,"regel":4604,"Ġamiodaron":4605,"uari":4606,"ĠRadi":4607,"Ġnod":4608,"Ġlongen":4609,"Ġverleden":4610,"Ex":4611,"ori":4612,"ĠCre":4613,"Ġanal":4614,"Ġsecundaire":4615,"ypass":4616,"ĠAI":4617,"VL":4618,"ĠES":4619,"werking":4620,"irus":4621,"Ġlichaams":4622,"Ġmga":4623,"ĠPijn":4624,"Ġbedraagt":4625,"agul":4626,"ĠKan":4627,"ĠEvents":4628,"ulus":4629,"ĠSotalol":4630,"Ġgeanalyse":4631,"Ġartsen":4632,"raten":4633,"ĠRoken":4634,"Ġsterfte":4635,"Ġminimaal":4636,"diagnostic":4637,"Ġvere":4638,"ĠExtr":4639,"ĠPacing":4640,"etyl":4641,"odi":4642,"iment":4643,"egistratie":4644,"Ġdiabetische":4645,"apamil":4646,"Ġoperatieverslag":4647,"vloeden":4648,"ĠEchter":4649,"Ġdig":4650,"Ġli":4651,"Ġmeta":4652,"vit":4653,"istentie":4654,"Ġvoornamelijk":4655,"Ġthromb":4656,"ĠAoV":4657,"Ġvoed":4658,"Ġmaart":4659,"roeg":4660,"Familie":4661,"Ġonafhankelijk":4662,"Ġastma":4663,"recept":4664,"ĠCHADS":4665,"risico":4666,"ĠÃĹ":4667,"Ġapril":4668,"Ġmeting":4669,"Ġmeld":4670,"idem":4671,"ancer":4672,"Ġgering":4673,"vaar":4674,"DRD":4675,"16":4676,"Ġmisselijk":4677,"Ġadvis":4678,"Ġbil":4679,"Ġouder":4680,"ferentie":4681,"ĠCP":4682,"Ġverwijd":4683,"ĠThuis":4684,"Ġvertoonden":4685,"no":4686,"inst":4687,"Ġwie":4688,"weeg":4689,"weken":4690,"rager":4691,"velden":4692,"Ġgere":4693,"Ġgrootte":4694,"inder":4695,"ochond":4696,"Ġ(%":4697,"urele":4698,"Ġcontinueren":4699,"Ġergometrie":4700,"ĠNO":4701,"Ġcell":4702,"Ġbehandelen":4703,"Ġsele":4704,"Ġgecor":4705,"aris":4706,"Ġpanc":4707,"Ġoverleving":4708,"ĠSVT":4709,"normale":4710,"Ġasympt":4711,"Ġbra":4712,"RM":4713,"Ġtre":4714,"co":4715,"Ġbal":4716,"losure":4717,"Ġaanvang":4718,"atoren":4719,"Ġlies":4720,"Ġ40":4721,"Ġoph":4722,"kal":4723,"flex":4724,"Ġdicht":4725,"ĠTR":4726,"Ġwervel":4727,"otherap":4728,"oseptaal":4729,"spanning":4730,"Ġbegon":4731,"ĠMedtronic":4732,"ĠGeb":4733,"ĠLM":4734,"Ġspoor":4735,"Natrium":4736,"PL":4737,"Ġga":4738,"Ġcav":4739,"merking":4740,"lodipine":4741,"oudt":4742,"VALU":4743,"Ġbijna":4744,"zeker":4745,"riculair":4746,"Ġfemor":4747,"Ġgal":4748,"Ġverhogen":4749,"Ġlichamelijk":4750,"zondheid":4751,"Ġvermeld":4752,"etrie":4753,"combin":4754,"clus":4755,"Ġpaar":4756,"Ġtev":4757,"cess":4758,"Ġic":4759,"Ġgebracht":4760,"ĠSN":4761,"Meest":4762,"iculair":4763,"traat":4764,"kings":4765,"Ġbaseline":4766,"oto":4767,"Ġopnemen":4768,"Ġontwikkelen":4769,"rocyten":4770,"Ġverwacht":4771,"18":4772,"cardioloog":4773,"VALUE":4774,"Ġbelangen":4775,"ĠCM":4776,"Ġoudere":4777,"Ġmede":4778,"Ġinjectie":4779,"ĠAdenosine":4780,"site":4781,"dy":4782,"ĠAr":4783,"Ġgewijzigd":4784,"Ġantrum":4785,"Ġoste":4786,"Ġvormen":4787,"Object":4788,"Ġmis":4789,"Ġgebeld":4790,"Ġinfilt":4791,"volgende":4792,"Ġregelmatig":4793,"AfspraakObject":4794,"gerelateerde":4795,"ĠPL":4796,"Ġvariabelen":4797,"Ġhierbij":4798,"Ġdagelijks":4799,"dering":4800,"Ġoorzaken":4801,"uretica":4802,"Ġstap":4803,"Ġpulmonaalvenen":4804,"Ġjuli":4805,"ĠHel":4806,"Ġleuk":4807,"Ġbete":4808,"hoogd":4809,"personen":4810,"Ġvertegenwoor":4811,"ner":4812,"sh":4813,"gehalte":4814,"Ġpas":4815,"Succesvol":4816,"Ġuitvo":4817,"rgentie":4818,"emperatuur":4819,"Ġconservatief":4820,"ĠAng":4821,"contact":4822,"Ġherken":4823,"ĠElekt":4824,"asting":4825,"Ġprogressieve":4826,"ĠACE":4827,"rik":4828,"Ġprol":4829,"Ġhom":4830,"Met":4831,"isteren":4832,"Ġactieve":4833,"rox":4834,"Ġgeplaatst":4835,"Dyslipidemie":4836,"Ġverpleegafdeling":4837,"ĠPET":4838,"Ġhoofdpijn":4839,"ĠHer":4840,"versib":4841,"Ġgeanalyseerd":4842,"ĠLD":4843,"Ġligt":4844,"orbiditeit":4845,"SD":4846,"ĠHuisarts":4847,"Ġambul":4848,"zym":4849,"Ġlipiden":4850,"ĠNog":4851,"Ġtov":4852,"otensie":4853,"Ġvoorkeur":4854,"plande":4855,"Ġfors":4856,"Urgentie":4857,"Ġtoegedi":4858,"idiverende":4859,"VASc":4860,"ĠgeÃ¯dent":4861,"ile":4862,"Ġgediagnostic":4863,"hes":4864,"Ġstoornissen":4865,"CX":4866,"niveaus":4867,"Ġbelasting":4868,"Ġangst":4869,"/[":4870,"dL":4871,"ĠHoofd":4872,"ju":4873,"bijv":4874,"Ġweergegeven":4875,"EB":4876,"adviseerd":4877,"tail":4878,"Ġheu":4879,"uma":4880,"zakelijk":4881,"Ġloop":4882,"ĠErg":4883,"inen":4884,"Ġfy":4885,"Ġpersisterend":4886,"wijzing":4887,"ietserg":4888,"Ġrandom":4889,"Ġdoorgemaakt":4890,"ae":4891,"ocor":4892,"CKD":4893,"Ġwerkzaam":4894,"Ġcf":4895,"rust":4896,"Ġgran":4897,"ĠInstellingen":4898,"Ġnadien":4899,"ila":4900,"Ġkortademig":4901,"gatst":4902,"atiek":4903,"ease":4904,"30":4905,"rijd":4906,"Ġafw":4907,"Ġvergro":4908,"Ġtherapeutische":4909,"egistreerd":4910,"ures":4911,"Overweging":4912,"Spec":4913,"Ġvoorwand":4914,"Ġprednis":4915,"Ġhiervoor":4916,"ĠSA":4917,"Ġverbeterde":4918,"ĠTIA":4919,"cope":4920,"Ġtrombose":4921,".)":4922,"ĠLong":4923,"Na":4924,"ourn":4925,"ative":4926,"kracht":4927,"apt":4928,"ĠNHG":4929,"Ġbevat":4930,"Ġvader":4931,"opsie":4932,"ĠER":4933,"Ġkrijgt":4934,"geÃ¯nduceerde":4935,"Re":4936,"Ġpressure":4937,"ĠRCx":4938,"ĠAlgemeen":4939,"Ġkant":4940,"=[":4941,"Ġonveranderd":4942,"MT":4943,"laag":4944,"ĠHemoglobine":4945,"iltraat":4946,"ucleair":4947,"Niet":4948,"effort":4949,"slagader":4950,"Ġmetingen":4951,"ĠSTEMI":4952,"Ġoverwegen":4953,"brief":4954,"Ġcapsule":4955,"Ġeffectief":4956,"oprazol":4957,"Ġpoliklinische":4958,"ĠLaatst":4959,"Ġmethode":4960,"Ġondergingen":4961,"VR":4962,"Ġuitgebreid":4963,"afhankelijke":4964,"Ġorig":4965,"Ġhepat":4966,"Ġdisease":4967,"Ġ#/#:":4968,"revalidatie":4969,"scal":4970,"Ġbeperkte":4971,"ĠRCT":4972,"atm":4973,"Ġoverlijden":4974,"ikt":4975,"stellen":4976,"Ġbenader":4977,"Ġregressie":4978,"Ġng":4979,"urale":4980,"Ġmetast":4981,"BNP":4982,"letsel":4983,"GE":4984,"ablokker":4985,"lyk":4986,"ĠED":4987,"bpm":4988,"Ġtoenem":4989,"Ġgeplande":4990,"Ġmean":4991,"tectie":4992,"ĠHemat":4993,"ĠNamens":4994,"bumine":4995,"Ġzes":4996,"syndroom":4997,"emisch":4998,"Ġonderging":4999,"Ġapex":5000,"Ġost":5001,"Ġevidente":5002,"Ġweb":5003,"Ġaangezien":5004,"Ġmidden":5005,"Ġinduc":5006,"schappen":5007,"ifiek":5008,"alic":5009,"Ġaritmie":5010,"Ġgekregen":5011,"Ġbereikt":5012,"Ġflutter":5013,"Ġtreatment":5014,"ariaat":5015,"Ġsluiten":5016,"Ġevalueren":5017,"Ġnuchter":5018,"alt":5019,"Ġgecompliceerd":5020,"ĠQu":5021,"ĠAdvies":5022,"Ġzen":5023,"ĠSoc":5024,"herapie":5025,"Ġbro":5026,"Ġatherosclerotische":5027,"ĠVP":5028,"ogenese":5029,"Ġpuls":5030,"elt":5031,"Ġhoewel":5032,"ads":5033,"ĠRes":5034,"for":5035,"vasieve":5036,"plementatie":5037,"Ġinterventies":5038,"Ġmijn":5039,"Ġlow":5040,"dikte":5041,"sign":5042,"Ġendotheel":5043,"eroÃ¯":5044,"uratie":5045,"NT":5046,"Ġneuro":5047,"deelt":5048,"ĠNSTEMI":5049,"ĠHierbij":5050,"ased":5051,"Ġbevol":5052,"Ġgestuwd":5053,"Ġverlaagd":5054,"]).":5055,"Ġbypass":5056,"ĠBekende":5057,"Ġmob":5058,"Ġdiffuus":5059,"Ġlongembolie":5060,"antoprazol":5061,"achycardie":5062,"Ġbleef":5063,"Ġaortaklepstenose":5064,"Ġ17":5065,"tak":5066,"stolerantie":5067,"Ġelkaar":5068,"Ġtraject":5069,"Ġnut":5070,"umat":5071,"Ġchemotherapie":5072,"vascul":5073,"Ġhoeveelheid":5074,"normaal":5075,"mL":5076,"ADE":5077,"Ġsim":5078,"Ġobstructie":5079,"Ġregel":5080,"Onbekend":5081,"erolateraal":5082,"Ġmonitor":5083,"Ġ#.#.":5084,"Ġfl":5085,"ous":5086,"ĠMetoprolol":5087,"valueerd":5088,"aliseerd":5089,"ities":5090,"Ġstudy":5091,"Ġhypercholesterolemie":5092,"Ġkregen":5093,"Î±":5094,"Ġonbekend":5095,"Ġadequaat":5096,"Ġparoxysmaal":5097,"Ġderde":5098,"HD":5099,"Norm":5100,"Ġkortademigheid":5101,"icoagul":5102,"spectieve":5103,"Ġconf":5104,"Ġpoly":5105,"Ġgroet":5106,"stroom":5107,"VID":5108,"Î²":5109,"gif":5110,"Ġbezocht":5111,"ĠPols":5112,"-#)":5113,"uwing":5114,"Ġeens":5115,"Ġgraft":5116,"ieel":5117,"Ġberekend":5118,"bine":5119,"ĠBNP":5120,"ĠZeer":5121,"grade":5122,"gatston":5123,"Ġcarotis":5124,"Ġinterne":5125,"Ġpostoperatieve":5126,"ations":5127,"Ġjanuari":5128,"Ġbeperkingen":5129,"Ġul":5130,"Ġmalign":5131,"ĠDet":5132,"ĠLeuk":5133,"Ġdose":5134,"West":5135,"Ġproefpersonen":5136,"Ġgesproken":5137,"Ġverantwoor":5138,"Ġsommige":5139,"schrijven":5140,"Ġadip":5141,"even":5142,"IP":5143,"afrag":5144,"press":5145,"17":5146,"iva":5147,"Ġconversie":5148,"oriseerd":5149,"var":5150,"andaard":5151,"yn":5152,"Ġlateraal":5153,"Ġschade":5154,"Ġ#).":5155,"Uit":5156,"Ġvorige":5157,"ning":5158,"Ġgeadviseerd":5159,"Ġvat":5160,"LS":5161,"ack":5162,"Ġspoed":5163,"Ġleeftijds":5164,"40":5165,".\\":5166,"ĠDatum":5167,"risch":5168,"alie":5169,"xt":5170,"zit":5171,"ĠSuccesvolle":5172,"Ġeffectiviteit":5173,"Ġschildklier":5174,"ĠEu":5175,"idis":5176,"Ġ60":5177,"DA":5178,"Ġtoegediend":5179,"Ġsuccesvol":5180,"vaat":5181,"ĠCardio":5182,"aine":5183,"oms":5184,"toe":5185,"vaten":5186,"Ġonthulde":5187,"ĠHV":5188,"Ġmechan":5189,"Ġwijz":5190,"Ġchirurgie":5191,"Ġsecret":5192,"cur":5193,"offen":5194,"Ġwetenschappelijke":5195,"Ġmediastin":5196,"BLET":5197,"ding":5198,"zijn":5199,"Ġcorrelatie":5200,"Ġeventuele":5201,"Ġaangeb":5202,"Ġneus":5203,"voegd":5204,"Ġvitamine":5205,"Ġcompon":5206,"Ġsignaal":5207,"handelaar":5208,"Ġzenuw":5209,"Ġspelen":5210,"kenis":5211,"abil":5212,"ozen":5213,"Ġlongvelden":5214,"ĠSPECT":5215,"spect":5216,"grond":5217,"Ġradiologie":5218,"ĠgeÃ¯dentificeerd":5219,"Ġaanzienlijk":5220,"NF":5221,"icag":5222,"iner":5223,"Ġpersoon":5224,"merkt":5225,"Ġanterior":5226,"Ġgrotere":5227,"Ġmeten":5228,"Ġhele":5229,"TIMI":5230,"agen":5231,"?)":5232,"alisklep":5233,"Ho":5234,"ĠTwee":5235,"opte":5236,"Ġmnd":5237,"fen":5238,"heids":5239,"ĠVO":5240,"Ġdou":5241,"ĠMB":5242,"ortel":5243,"ĠAmer":5244,"Ġgeselect":5245,"gener":5246,"ikk":5247,"ĠMon":5248,"Ġvonden":5249,"tekening":5250,"Ġnoodzakelijk":5251,"pe":5252,"geh":5253,"ĠStop":5254,"Ġstadium":5255,"alicyl":5256,"Ġjong":5257,"Ġpercutane":5258,"Voor":5259,"ife":5260,"vuld":5261,"ĠTrombocyten":5262,"Ġbehoe":5263,"ĠCoronairangiografie":5264,"interval":5265,"specifieke":5266,"ping":5267,"Ġmorb":5268,"Ġuiteindelijk":5269,"Ġmutatie":5270,"eling":5271,"ainide":5272,"Ġhiervan":5273,"boven":5274,"Ġoper":5275,"Ġaanp":5276,"matiek":5277,"ĠSpecialisten":5278,"Ġtop":5279,"reren":5280,"Ġzoek":5281,"ĠPAC":5282,"erentie":5283,"Ġlate":5284,"bevindingen":5285,"Ġbepaalde":5286,"Ġia":5287,"Ġsystematische":5288,"Ġrustig":5289,"Ġarteria":5290,"OP":5291,"anten":5292,"Ġartikel":5293,"Ġgeheel":5294,"Ġvag":5295,"Ġmitochond":5296,"ĠMogelijk":5297,"Ġafgesloten":5298,"WI":5299,"ytrocyten":5300,"ĠgeÃ«valueerd":5301,"Ġonafhankelijke":5302,"aanse":5303,"wortel":5304,"mot":5305,"Ġbetekenis":5306,"igne":5307,"Ġherhalen":5308,"Ġvalt":5309,"oemd":5310,"Ġauto":5311,"gifte":5312,"alicylzuur":5313,"ĠbeÃ¯nvloed":5314,"atale":5315,"elefoon":5316,"Ġ#,#%":5317,"MRI":5318,"ĠPE":5319,"Ġgesteld":5320,"vatie":5321,"indicatie":5322,"iatief":5323,"Ġcrep":5324,"spron":5325,"ĠGRADE":5326,"ekuur":5327,":#,#":5328,"mid":5329,"Ġabdomin":5330,"ikkeld":5331,"anim":5332,"Ġmedisch":5333,"Ġeinde":5334,"lecainide":5335,"req":5336,"ologen":5337,"antagonist":5338,"ĠVG":5339,"nestisch":5340,"respons":5341,"Ġlongarts":5342,"hy":5343,"ĠArt":5344,"Ġgereg":5345,"ĠSpoor":5346,"Ġ#-#%":5347,"ĠTotaal":5348,"Ġoogt":5349,"Ġging":5350,"ivari":5351,"pleegkundige":5352,"lassificatie":5353,"erc":5354,"otte":5355,"Ġlog":5356,"ras":5357,"ĠMIRADS":5358,"Ġsuggereert":5359,"yste":5360,"ĠVis":5361,"iliru":5362,"oorte":5363,"Ġmsr":5364,"ĠZorg":5365,"gevoel":5366,"anen":5367,"middels":5368,"Ġbesloten":5369,"Stent":5370,"Ġren":5371,"gde":5372,"ĠGest":5373,"Ġbewust":5374,"Ġmogelijkheid":5375,"Ġomvatten":5376,"Ġip":5377,"inatie":5378,"Ġlengte":5379,"Ġondersche":5380,"drachten":5381,"Ġheup":5382,"plaatsing":5383,"Ġgenomen":5384,"uter":5385,"Ġaanhoudende":5386,"grootte":5387,"Ġsur":5388,"Ġmechanismen":5389,"Ġtwe":5390,"patroon":5391,"ĠMellitus":5392,"Ġverdw":5393,"eder":5394,"Ġgepublic":5395,"istof":5396,"ĠHypercholesterolemie":5397,"adenos":5398,"Ġbelt":5399,"ĠNB":5400,"Ġgewricht":5401,"ĠGro":5402,"Le":5403,"Ġretour":5404,"Ġouderen":5405,"ĠGlucose":5406,"Ġregulier":5407,"Â±":5408,"Registratie":5409,"quentie":5410,"ĠPR":5411,"ĠTABLET":5412,"Ġij":5413,"Ġinfiltraat":5414,"Ġcomplexen":5415,"aemie":5416,"beoor":5417,"repen":5418,"sub":5419,"Ġverantwoordelijk":5420,"Ġtrombus":5421,"Ġwo":5422,"Ġcognitieve":5423,"ateriaal":5424,"salicylzuur":5425,"Ġdialyse":5426,"ĠMeer":5427,"ycine":5428,"off":5429,"Ġheden":5430,"Ġkwam":5431,"Ġcircum":5432,"trans":5433,"Ġglobaal":5434,"Ġwaarop":5435,"tel":5436,"Ġinstelling":5437,"Pro":5438,"geneeskunde":5439,"Ġav":5440,"Ġwit":5441,"eratieve":5442,"ille":5443,"Ġinj":5444,"ĠTEE":5445,"Ġbeoordeel":5446,"verw":5447,"Ġsoepel":5448,"Ġverdacht":5449,"Ġtoevoe":5450,"Ġlaterale":5451,"CRP":5452,"Ġbeelden":5453,"adenoson":5454,"Ġanesthesie":5455,"Ġgener":5456,"Ġcare":5457,"ĠAoS":5458,"Ġsig":5459,"ogeen":5460,"AR":5461,"Ġplotsel":5462,"Ġ-(":5463,"tekend":5464,":#:#":5465,"Ġcommun":5466,"Ġsuggereren":5467,"nelheid":5468,"ĠALAT":5469,"ĠLinker":5470,"Ġinternist":5471,"verd":5472,"schillen":5473,"Ġgediagnosticeerd":5474,"ĠZijn":5475,"Aantal":5476,"ality":5477,"Ġist":5478,"Ġvisueel":5479,"spital":5480,"Ġwebsite":5481,"-#]":5482,"Ġrelevant":5483,"ĠNieuw":5484,"orvastatine":5485,"criteria":5486,"ciplin":5487,"Ġprocent":5488,"âĪĴ":5489,"unda":5490,"Ġberoe":5491,"hmus":5492,"behandel":5493,"ĠIg":5494,"Ġgranul":5495,"Ġzout":5496,"ser":5497,"stituut":5498,"Ġliggen":5499,"ffect":5500,"Ġvoorkomende":5501,"Ġafwezigheid":5502,"Ġgepro":5503,"Ġopperv":5504,"ĠBi":5505,"chtend":5506,"Cardiale":5507,"ĠLeukocyten":5508,"imeter":5509,"Ontslag":5510,"Ġinhal":5511,"Ġprofyla":5512,"Ġonduidelijk":5513,"ĠEer":5514,"Ġondersteuning":5515,"Ġkennis":5516,"ĠAG":5517,"Ġplat":5518,"inanc":5519,"achy":5520,"Ġkatheter":5521,"ĠNTG":5522,"selen":5523,"Ġhartteam":5524,"Ġelect":5525,"Ġinclusief":5526,"ĠKen":5527,"Ġclopidogrel":5528,"enteuze":5529,"Ġontde":5530,"omar":5531,"ĠCent":5532,"fici":5533,"amb":5534,"Nierfunctie":5535,"An":5536,"Ġschouder":5537,"etylsalicylzuur":5538,"Ġbescherm":5539,"eller":5540,"autoriseerd":5541,"LD":5542,"ĠDetail":5543,"Lin":5544,"SR":5545,"wikkel":5546,"iglyceriden":5547,"ĠSec":5548,"Ġregio":5549,"Ġconcept":5550,"Ġblanco":5551,"orden":5552,"Ġbehandelingen":5553,"ĠTr":5554,"Ġverkl":5555,"Ġdeels":5556,"HT":5557,"ĠMw":5558,"spraken":5559,"ocriet":5560,"ĠMeetwaarden":5561,"ĠGoed":5562,"Ġgenetische":5563,"ĠVoelt":5564,"Ġindividuele":5565,"Ġliet":5566,"ĠOS":5567,"ĠTabel":5568,"Ġgecontroleerd":5569,"put":5570,"eparine":5571,"ĠDDD":5572,"ĠSub":5573,"formine":5574,"Ġregionale":5575,"ntgen":5576,"Ġlos":5577,"BC":5578,"ĠÎ¼":5579,"Ġgeduid":5580,"ACE":5581,"ilirubine":5582,"ĠWaar":5583,"ĠNatrium":5584,"Ġvaatlijden":5585,"Ġstatistisch":5586,"Ġbevestigd":5587,"rijven":5588,"Ġontwikkeld":5589,"icul":5590,"Ġclosure":5591,"ĠOR":5592,"IT":5593,"ober":5594,"Ġaangepast":5595,"Ġfocus":5596,"Ġmomenteel":5597,"Ġangio":5598,"keken":5599,"oxine":5600,"Ġvindt":5601,"abiliteit":5602,"Ġonderzoeks":5603,"Ġindruk":5604,"implantatie":5605,"Ġag":5606,"Hoofd":5607,"Ġgene":5608,"Myocard":5609,"Ġgesprek":5610,"Ġcoron":5611,"Ġmolec":5612,"umab":5613,"ĠPatiente":5614,"luoroscopie":5615,"Ġintens":5616,"ĠHals":5617,"Ġouders":5618,"Ġdiuretica":5619,"volen":5620,"ĠEchocardiografie":5621,"undair":5622,"andaag":5623,"fiel":5624,"atri":5625,"Ġactiv":5626,"Ġspontaan":5627,"Ġtricuspid":5628,"Ġvlgs":5629,"ofactor":5630,"omische":5631,"Ġgrond":5632,"DF":5633,"irine":5634,"Ġmamm":5635,"Ġskelet":5636,"ĠCOVID":5637,"itteken":5638,"ysis":5639,"Ġlymfe":5640,"Ġrout":5641,"Ġisthmus":5642,"regelen":5643,"relor":5644,"Ġverwijderen":5645,"ĠTV":5646,"Ġzwelling":5647,"ificaties":5648,"MC":5649,"Ġhelder":5650,"Ġidentificeren":5651,"tij":5652,"malig":5653,"Ġwetenschappelijk":5654,"raan":5655,"Ġtav":5656,"HDL":5657,"ĠAbdomen":5658,"gew":5659,"Ġpiek":5660,"olon":5661,"Ġaanwijzing":5662,"Ġinflammatoire":5663,"22":5664,"Ġimmuun":5665,"Ġradialis":5666,"Ġrect":5667,"Ġochtend":5668,"Ġgebieden":5669,"Ġoude":5670,"ietsergometrie":5671,"ovasculair":5672,"Ġinspanningstolerantie":5673,"Ġadequate":5674,"Ġgehouden":5675,"besch":5676,"ĠDer":5677,"ORG":5678,"Ġontbre":5679,"ĠExtremiteiten":5680,"Ġgef":5681,"Ġdisc":5682,"gramma":5683,"itionele":5684,"Ġcorrectie":5685,"laat":5686,"schade":5687,"Ġgamma":5688,"antwoord":5689,"itude":5690,".):":5691,"Ġbijzonder":5692,"Ġ].":5693,"ĠCHA":5694,"DO":5695,"PS":5696,"Ġatriumflutter":5697,">#":5698,"Ġjonge":5699,"Ġves":5700,"Ġbovenste":5701,"Ġalles":5702,"%),":5703,"Ġinteractie":5704,"ĠMCV":5705,"ossier":5706,"icagrelor":5707,"80":5708,"Ġgecon":5709,"Ġcolon":5710,"atint":5711,"zame":5712,"ĠSyst":5713,"eiden":5714,"Ġrekening":5715,"ole":5716,"ĠAllergie":5717,"ĠinsufficiÃ«ntie":5718,"BL":5719,"lopen":5720,"Ġdagelijkse":5721,"Ġsupra":5722,"Ġgecombin":5723,"LVEF":5724,"Ġprob":5725,"Ġoplos":5726,"retard":5727,"kleuring":5728,"Ġonderliggende":5729,"Ġvrien":5730,"Ġgl":5731,"ĠLengte":5732,"Ġminste":5733,"Ġachteruitgang":5734,"ĠOngewijzigd":5735,"TID":5736,"idatieve":5737,"Ġpolikliniekbezoek":5738,"ĠEnd":5739,"Ġlipoprote":5740,"ĠAnalyse":5741,"Ġchronisch":5742,"ores":5743,"ĠpotentiÃ«le":5744,"Ġgepresent":5745,"alsnog":5746,"wijzer":5747,"Ġdissectie":5748,"Ġkliniek":5749,"ave":5750,"Ġhoofdstam":5751,"ĠgeÃ¯sol":5752,"Ġaanbevolen":5753,"ookt":5754,"Ġzeg":5755,"epam":5756,"rest":5757,"ining":5758,"gevallen":5759,"lad":5760,"Ġversle":5761,"Ġevidence":5762,"ĠFollow":5763,"Ġgehele":5764,"belasting":5765,"Ġstern":5766,"akkelijk":5767,"Ġconsol":5768,"Med":5769,"Ġboezemfibrilleren":5770,"Ġzin":5771,"Ġspontane":5772,"mine":5773,"Ġaspecten":5774,"Ġoorspron":5775,"Wire":5776,"Ġrondom":5777,"Ġverbeterd":5778,"struct":5779,"Ġcode":5780,"idisciplin":5781,"Ġspeel":5782,"Ġ-#":5783,"VF":5784,"Ġwater":5785,"remmers":5786,"Ġverlagen":5787,"ĠAtriumfibrilleren":5788,"Ġhartritme":5789,"Ġstroom":5790,"ĠSten":5791,"type":5792,"ĠASAT":5793,"Ġdesc":5794,"Ġhalf":5795,"rocardiogram":5796,"%).":5797,"Ġkalk":5798,"beelden":5799,"illine":5800,"ĠIntern":5801,"olol":5802,"les":5803,"VASC":5804,"BB":5805,"ĠOb":5806,"ffusie":5807,"sis":5808,"Ġkal":5809,"compliceerde":5810,"acetamol":5811,"Ġdergelijke":5812,"tig":5813,"Ġhelemaal":5814,"aad":5815,"Ġleveren":5816,"Ġbio":5817,"ĠCCU":5818,"Ġrevalidatie":5819,"ĠSter":5820,"Ġrep":5821,"Ġoptimaal":5822,"gehele":5823,"Ġ~":5824,"kinesie":5825,"ĠCo":5826,"Ġinh":5827,"Ġgeneeskunde":5828,"ĠKw":5829,"24":5830,"ĠUitgebre":5831,"otype":5832,"Ġgeschatte":5833,"ĠErnstige":5834,"ĠSpO":5835,"Ġvoet":5836,"Ġindic":5837,"volume":5838,"Ġembolie":5839,"Ġvena":5840,"ĠThuismedicatie":5841,"INE":5842,"Ġaanbeveling":5843,"lichting":5844,"Ġoverwogen":5845,"Ġsport":5846,"Ġoverdracht":5847,"Ġbesluit":5848,"arree":5849,"Ġmass":5850,"ationale":5851,"Ġrisicofactor":5852,"Ġdefect":5853,"icum":5854,"Ġmij":5855,"Ġregistratie":5856,"Ġintraveneus":5857,"Ġzn":5858,"Ġanalyses":5859,"Ġcortic":5860,"Ġveroorzaken":5861,"Ġfamil":5862,"Ġzitten":5863,"Ġann":5864,"ĠCreatie":5865,"Ġprogra":5866,"Ġdata":5867,"ĠKlachten":5868,"rid":5869,"Ġdelen":5870,"Ġminimale":5871,"zing":5872,"nia":5873,"ĠInf":5874,"vari":5875,"Ġondertekend":5876,"];":5877,"ĠVervolgens":5878,"olen":5879,"iaire":5880,"23":5881,"Ġbacter":5882,"ĠCVRM":5883,"JEC":5884,"Ġ#;#(#)":5885,"ijken":5886,"Auteur":5887,"Ġplaques":5888,"Ġplaatsen":5889,"OBJEC":5890,"OBJECTID":5891,"Ġbestude":5892,"Ġontwikkelde":5893,"Ġmodu":5894,"ofag":5895,"Poliklinische":5896,"Ġaanget":5897,"erkte":5898,"Ġhypokinesie":5899,"Ġfosfat":5900,"Ġontvangen":5901,"Ġwerkgroepleden":5902,"Ġmening":5903,"adiging":5904,"proef":5905,"ptie":5906,"antia":5907,"dose":5908,"Ġgebruikte":5909,"yna":5910,"Ġstructurele":5911,"Ġbuikpijn":5912,"ZORG":5913,"Ġ<#":5914,"Ġlangdurige":5915,"ouding":5916,"ĠWeten":5917,"ĠErgometrie":5918,"oxide":5919,"lab":5920,"okt":5921,"Ġrecidiverende":5922,"search":5923,"Ġscho":5924,"ĠAorta":5925,"Ġeluting":5926,"Ġverlopen":5927,"Ġvond":5928,"Nierfunctiestoornis":5929,"60":5930,"Ġbellen":5931,"Ġtoestand":5932,"Ġsymptomatische":5933,"CS":5934,"Ġhypoth":5935,"idingen":5936,"olf":5937,"Ġalhier":5938,"ĠAVR":5939,"Ġsterke":5940,"ĠEl":5941,"FO":5942,"Ġantil":5943,">-":5944,"oraal":5945,"sept":5946,"ĠHbA":5947,"Ġgaf":5948,"Ġaden":5949,"was":5950,"Ġdecember":5951,"ostase":5952,"ĠHIV":5953,"Ġvlak":5954,"ĠbeÃ¯nvloeden":5955,"Ġhypotensie":5956,"Ġfibrose":5957,"chl":5958,"Ġgeregistreerd":5959,"cement":5960,"ichamen":5961,"Ġprednison":5962,"ĠHealth":5963,"Ġintact":5964,"zymen":5965,"Ġslag":5966,"Ġloopt":5967,"othorax":5968,"Ġspecialisme":5969,"Ġverkal":5970,"Ġbereiken":5971,"ĠNo":5972,"rek":5973,"Bespreking":5974,"Ġbent":5975,"aseerde":5976,"Ġblaas":5977,"orische":5978,"arte":5979,"Ġbreed":5980,"Ġteam":5981,"ĠBeeld":5982,"sluiting":5983,"Ġsecundair":5984,"zw":5985,"Ġwandbewegings":5986,"Ġdiafrag":5987,"Ġinsufficientie":5988,"Ġvullen":5989,"licht":5990,"Cx":5991,"Ġaantoon":5992,"Ġgeworden":5993,"Ġsclerose":5994,"Ġmediastinum":5995,"Tc":5996,"ĠWerk":5997,"Ġuitslagen":5998,"ZORGINSTELLING":5999,"Ġstam":6000,"Ġfarmac":6001,"wek":6002,"bal":6003,"ts":6004,"amin":6005,"Ad":6006,"Ġvoorbere":6007,"Ġcancer":6008,"Ġtand":6009,"Ġmig":6010,"onale":6011,"COR":6012,"andelen":6013,"oft":6014,"diceerd":6015,"Ġbevor":6016,"Ġmaligniteit":6017,"Ġnovo":6018,"Ġsat":6019,"ĠDNA":6020,"Segment":6021,"Ġervaren":6022,"Ġdirecte":6023,"Ġbijdragen":6024,"Ġhigh":6025,"azol":6026,"wor":6027,"arak":6028,"Ġgepaard":6029,"viezen":6030,"ĠAss":6031,"Ġvergelijkbare":6032,"andacht":6033,"ĠRecidief":6034,"oeder":6035,"ivering":6036,"Ġ()":6037,"Ġbeste":6038,"flow":6039,"',":6040,"Ġrechtsdrukken":6041,"Ġophogen":6042,"sver":6043,"Ġradiotherapie":6044,"Ġfysieke":6045,"NS":6046,"paraat":6047,"wikkeling":6048,"cludeerd":6049,"Ġcc":6050,"syn":6051,"ring":6052,"CHADS":6053,"ics":6054,"Ġprostaat":6055,"Ġslagen":6056,"ĠSh":6057,"Ġogen":6058,"pli":6059,"EL":6060,"Ġtemp":6061,"nr":6062,"ĠRBTB":6063,"Ġherzien":6064,"Zie":6065,"Ġfeit":6066,"Ġcontra":6067,"ynaec":6068,"Ġpop":6069,"Ġmanier":6070,"ĠHaar":6071,"ĠJourn":6072,"Ġvoel":6073,"ĠPatiÃ«nte":6074,"hoe":6075,"ĠDCM":6076,"Ġovervulling":6077,"ĠVanwege":6078,"Ġtoegevoegd":6079,"ĠPoliklinische":6080,"Ġsarc":6081,"accept":6082,"Ġmann":6083,"ĠComplicaties":6084,"100":6085,"Ġvoeding":6086,"Ġsubst":6087,"ĠMin":6088,"Ġmetabole":6089,"Gy":6090,"Ġgeleidings":6091,"Ġsluit":6092,"Ġcontinue":6093,"Ġdementie":6094,"Ġzover":6095,"Ġgenen":6096,"Ġtoegang":6097,"Ġmagn":6098,"Ġbovengenoemde":6099,"Ġ199":6100,"ĠAgatston":6101,"Ġvoorgeschreven":6102,"Ġcomorbiditeit":6103,"Ġns":6104,"aliseren":6105,"Ġorde":6106,"ylo":6107,"arakter":6108,"ĠEp":6109,"methode":6110,"xe":6111,"Ġtachy":6112,"APSE":6113,"Ġpara":6114,"index":6115,"Ġkwant":6116,"Ġnader":6117,"PC":6118,"Ġevents":6119,"Ġdel":6120,"Ġgelu":6121,"gemiddel":6122,"ext":6123,"ĠHyp":6124,"komt":6125,"Ġbevolking":6126,"ĠRele":6127,"ĠOrg":6128,"BD":6129,"ĠPsych":6130,"icine":6131,"sverlies":6132,"Ġtoegepast":6133,"ason":6134,"Ġgenoemd":6135,"Ġ(#%)":6136,"Ġdrin":6137,"Ġfietsen":6138,"ĠOhm":6139,"Ġsite":6140,"ĠWanneer":6141,"tage":6142,"Ġvloe":6143,"othel":6144,"Dominance":6145,"Ġvolgen":6146,"Ġtek":6147,"pele":6148,"Ġmod":6149,"Ġdegenen":6150,"Ġexperiment":6151,"Ġplaatsv":6152,"Ġhen":6153,"ĠMult":6154,"ardeffusie":6155,"Hartfrequentie":6156,"Ġreferentie":6157,"Ġzeld":6158,"Ġbetrouwbaarheid":6159,"iber":6160,"ĠDoel":6161,"aline":6162,"Ġje":6163,"Ġtabel":6164,"Sh":6165,"ĠPh":6166,"Ġactiviteiten":6167,"Ġplannen":6168,"Ġuitleg":6169,"Ġonderwer":6170,"Ġhorm":6171,"Ġlangs":6172,"ĠTroponine":6173,"Ġademhaling":6174,"Ġ#.#)":6175,"Roken":6176,"Ġautor":6177,"Ġneven":6178,"Ġveren":6179,"Ġepisodes":6180,"Ġmorfologie":6181,"Ġvoorafgaand":6182,"effect":6183,"ĠHoog":6184,"Ġatria":6185,"ake":6186,"Ġgepresenteerd":6187,"Ġsystemat":6188,"Ġcur":6189,"Ġprop":6190,"Ġresectie":6191,"Art":6192,"ĠVeel":6193,"uurs":6194,"oorde":6195,"prothese":6196,"gestuurd":6197,"idine":6198,"Ġgelijk":6199,"status":6200,"Ġpen":6201,"rogen":6202,"het":6203,"ĠPerfusie":6204,"stat":6205,"Ġselectie":6206,"volge":6207,"Ġpublic":6208,"Ġmultip":6209,"pletie":6210,"Ġfosfatase":6211,"ĠCar":6212,"wn":6213,"dosis":6214,"bloed":6215,"ĠHVZ":6216,"Ġgezocht":6217,"Ġmot":6218,"weginfectie":6219,"ischemie":6220,"yreoÃ¯":6221,"iew":6222,"ĠPri":6223,"ĠASD":6224,"Ġhum":6225,"ĠVVI":6226,"Ġdrain":6227,"Ġlijden":6228,"ochtend":6229,"heu":6230,"Ġvoldo":6231,"rincip":6232,"Ġanatomie":6233,"Ġgemeld":6234,"Ġgecorrige":6235,"Ġduizelig":6236,"Bloeddruk":6237,"Ġrichting":6238,"remmer":6239,"Ġlijken":6240,"ixaban":6241,"Ġperist":6242,"BSN":6243,"ifest":6244,"ĠAO":6245,"hans":6246,"omein":6247,"lap":6248,"Ġindividu":6249,"Ġbiomar":6250,"ĠLCA":6251,"ustus":6252,"ĠMR":6253,"icale":6254,"plaatjes":6255,"Ġstimulatie":6256,"Ġdr":6257,"Ġhoesten":6258,"Ġnum":6259,"osin":6260,"chol":6261,"iciteit":6262,"kwaliteit":6263,"dilateerde":6264,"Ġprimair":6265,"Ġcru":6266,"ĠNaam":6267,"ificeerde":6268,"Ġafgesproken":6269,"ĠBatterij":6270,"Ġinhalatie":6271,"Ġgerandomiseerde":6272,"Ġextrasyst":6273,"ĠOnt":6274,"Ġbetere":6275,"Ġacht":6276,"We":6277,"Ġaltern":6278,"MD":6279,"beleid":6280,"Ġgeneeskundige":6281,"Ġsyncope":6282,"70":6283,"Ġverklaren":6284,"ĠPAF":6285,"olyse":6286,"Ġvereist":6287,"Ġacc":6288,"Ġsteek":6289,"ulerende":6290,"Ġspeelt":6291,"que":6292,"XX":6293,"Ġdieren":6294,"old":6295,"Ġdeelcontact":6296,"ĠÂµg":6297,"Ġbasale":6298,"Ġfrequent":6299,"Ġwitte":6300,"PatiÃ«nt":6301,"uleerde":6302,"URL":6303,"andachtsp":6304,"ĠOnze":6305,"ĠAct":6306,"Ġelektrische":6307,"kolom":6308,"zitter":6309,"ĠDev":6310,"Ġcollater":6311,"vascularisatie":6312,"ypisch":6313,"Ġdiarree":6314,"Ġpersisterende":6315,"clu":6316,"ĠRegadenoson":6317,"lust":6318,"Ġinsp":6319,"Ġsucces":6320,"Ġtests":6321,"oscopische":6322,"Ġnauwkeur":6323,"Ġzieke":6324,"ĠLinks":6325,"ĠZiekenhuis":6326,"Ref":6327,"Ġaard":6328,"angrijk":6329,"Ġmorbiditeit":6330,"Ġkonden":6331,"itiviteit":6332,"omyoc":6333,"raai":6334,"Is":6335,"Ġliep":6336,"Ġgedeelt":6337,"Ġtox":6338,"durend":6339,"ederatie":6340,"nelpunten":6341,"ront":6342,"kalische":6343,"Ġbespreking":6344,"Ġpotentieel":6345,"ĠAB":6346,"Ġmedicamenteus":6347,"oster":6348,"otheek":6349,"ĠmiR":6350,"Ġgeautoriseerd":6351,"progressie":6352,"Ġtoenemende":6353,"vt":6354,"ĠOmdat":6355,"Ġverlies":6356,"irale":6357,"ĠCardiovasculaire":6358,"ronisch":6359,"idie":6360,"ĠHematocriet":6361,"Thuis":6362,"Ġ#,#)":6363,"Ġstof":6364,"werkt":6365,"ĠDiagnost":6366,"Ġimpact":6367,"dev":6368,"Ġdoet":6369,"ichamelijke":6370,"imm":6371,"ijm":6372,"ACS":6373,"Ġsociale":6374,"Ġverslechter":6375,"ĠKlinisch":6376,"Ġelektrofysi":6377,"Ġgedetect":6378,"Ġintrac":6379,"oorten":6380,"Ġnot":6381,"Ġplaatse":6382,"emetrie":6383,"omer":6384,"ĠCX":6385,"Ġloc":6386,"Ġsed":6387,"Ġepic":6388,"Ġkrans":6389,"Ġbif":6390,"Ġoxidatieve":6391,"21":6392,"etting":6393,"Ġruimte":6394,"Ġneurologische":6395,"Ġhypertrofische":6396,"Ġtricuspide":6397,"ĠKle":6398,"=#,":6399,"Ġwanddikte":6400,"ĠPoli":6401,"Ġfrequente":6402,"gelegd":6403,"oplast":6404,"sluitend":6405,"Ġbesl":6406,"SN":6407,"Ġliggend":6408,"ĠTachy":6409,"ruari":6410,"Ġdifferent":6411,"Ġlitteken":6412,"BLED":6413,"vrager":6414,"Ġuitkomstmaten":6415,"reng":6416,"Ġlocatie":6417,"eens":6418,"voudige":6419,"Ġpatroon":6420,"ĠbÃ¨t":6421,"ĠClin":6422,"Ġdro":6423,"heugen":6424,"ĠErytrocyten":6425,"alve":6426,"ĠâĢ¢":6427,"ivariate":6428,"Ġfinanc":6429,"klieren":6430,"Ġbradycardie":6431,"ody":6432,"-#,":6433,"Ġhor":6434,"Ġspecifiek":6435,"PV":6436,"ĠAut":6437,"Ġherstart":6438,"Ġwerken":6439,"animatie":6440,"Ã¯de":6441,"poli":6442,"Ġbur":6443,"Ġaanleiding":6444,"icon":6445,"ices":6446,"Ġ#%)":6447,"Ġph":6448,"Ġgisteren":6449,"metingen":6450,"Ġtub":6451,"Ġcardiovasculair":6452,"Ġbekken":6453,"Ġbevorderen":6454,"tb":6455,"Ġconcentratie":6456,"Ġdaling":6457,"Ġrecht":6458,"ficatie":6459,"Ġneut":6460,"Ġniets":6461,"ĠTemp":6462,"anning":6463,"Ġuitgangsvraag":6464,"Actuele":6465,"Ġgereguleerd":6466,"Ġgelegen":6467,"Ġvrijwel":6468,"Ġaantoonbaar":6469,"yle":6470,"Thuismedicatie":6471,"Ġdon":6472,"pende":6473,"Ġbegeleiding":6474,"Ġgebruikten":6475,"TA":6476,"Ġleren":6477,"Ġcr":6478,"ĠPulmones":6479,"cisie":6480,"rup":6481,"Ġverapamil":6482,"Ġechtgen":6483,"graad":6484,"Opname":6485,"own":6486,"rictie":6487,"ria":6488,"led":6489,"isende":6490,"urc":6491,"Ġalgehele":6492,"dienst":6493,"ndro":6494,"yspnoe":6495,"reas":6496,"Ġfibrill":6497,"Ġgelei":6498,"Ġomstandig":6499,"embraan":6500,"studies":6501,"Chronische":6502,"#=#":6503,"ĠAscal":6504,"icoagulantia":6505,"ĠVR":6506,"Ġverkla":6507,"dem":6508,"istente":6509,"INR":6510,"Ġoktober":6511,"Ġpericardeffusie":6512,"uist":6513,"HB":6514,"Ġveiligheid":6515,"Ġsin":6516,"Ġmechanisme":6517,"Ġ@":6518,"ĠproteÃ¯ne":6519,"Ġmethoden":6520,"Ġverspre":6521,"geving":6522,"ĠESV":6523,"Ġvak":6524,"VAI":6525,"Ġverpleegkundige":6526,"Ġkalium":6527,"Ġtijdelijk":6528,"arge":6529,"ĠDiastolische":6530,"vankelijk":6531,"Ġartritis":6532,"Ġderhalve":6533,"witch":6534,"Ġontstekings":6535,"Ġ-[":6536,"Ġdochter":6537,"ĠNeven":6538,"edantie":6539,"Ġperindopril":6540,"Ġ[]":6541,"Ġseptember":6542,"Ġcomment":6543,"Ġrelatieve":6544,"ized":6545,"isoprolol":6546,"75":6547,"eerbare":6548,"Ġbilaterale":6549,"ureel":6550,"Ġoverwegingen":6551,"Hb":6552,"Ġdun":6553,"echo":6554,"leidingen":6555,"ĠKennis":6556,"Ġorganis":6557,"problemen":6558,"ffende":6559,"LINK":6560,"Ġbiv":6561,"Ġgraden":6562,"oeg":6563,"zijdige":6564,"Ġbloedverlies":6565,"Ġmyocarditis":6566,"aritm":6567,"Ġafkomst":6568,"ags":6569,"Ġqua":6570,"gv":6571,"ĠWil":6572,"ĠRichtlijnen":6573,"Ġverzameld":6574,"code":6575,"Ġomgeving":6576,"altiek":6577,"Ġvulling":6578,"orad":6579,"Ġverlaagde":6580,"Ġomstandigheden":6581,"buik":6582,"lykemie":6583,"Ġgedetecteerd":6584,"Ġperfusiedefect":6585,"Ġax":6586,"WEB":6587,"ĠHTx":6588,"plannen":6589,"peri":6590,"WEBLINK":6591,"Ġcollab":6592,"Ġintraveneuze":6593,"Ġpericardvocht":6594,"ĠVAS":6595,"ĠSl":6596,"ĠÎ²":6597,"Ġfunctioneren":6598,"ĠLang":6599,"rank":6600,"rane":6601,"Ġenergie":6602,"ĠLVOT":6603,"etje":6604,"text":6605,"accepteerd":6606,"att":6607,"rap":6608,"Ġdiagon":6609,"Ġbrengen":6610,"Ġwilt":6611,"ĠVerpleegkundige":6612,"Ġaangegeven":6613,"oedeisende":6614,"Ġovereenstemming":6615,"Ġberoeps":6616,"maanden":6617,"Ġmenselijke":6618,"Ġatm":6619,"Ġmel":6620,"ĠSle":6621,"ĠMedical":6622,"heen":6623,"sn":6624,"scopie":6625,"umet":6626,"geleide":6627,"Eerder":6628,"Ġdetect":6629,"Ġ22":6630,"ĠDhr":6631,"bra":6632,"fractuur":6633,"Ġbieden":6634,"Ġvoorlop":6635,"Ġthorac":6636,"mitt":6637,"Ġdaarop":6638,"geleid":6639,"Ġgerust":6640,"che":6641,"Ġhematoom":6642,"aringen":6643,"Ġmond":6644,"Ġdermat":6645,"kingen":6646,"chirurgie":6647,"ĠAMI":6648,"gn":6649,"Ġvele":6650,"Ã¶ntgen":6651,"rs":6652,"34":6653,"Ġpe":6654,"rand":6655,"ĠEDV":6656,"Ġstreef":6657,"Ġverpleegkundigen":6658,"Ġbloedplaatjes":6659,"Ġvervangen":6660,"iratie":6661,"els":6662,"schappelijke":6663,"instituut":6664,"Nog":6665,"Ġaspec":6666,"Ġdetectie":6667,":#:":6668,"CE":6669,"Ġ#/#.":6670,"iseren":6671,"intigrafie":6672,"Ġapopt":6673,"ĠMDRD":6674,"Ġstents":6675,"Ġald":6676,"DER":6677,"ĠToen":6678,"onaire":6679,"diale":6680,"Ġshunt":6681,"ensine":6682,"Sch":6683,"ĠHCM":6684,"Ġperistaltiek":6685,"Ġect":6686,"verla":6687,"concentratie":6688,"Ġeigenlijk":6689,"Ġactief":6690,"Ġfocale":6691,"ĠAM":6692,"isc":6693,"ĠRDP":6694,"Ġnec":6695,"):#,#":6696,"ĠBekend":6697,"entriculaire":6698,"Ġsubling":6699,"Ġnucle":6700,"][":6701,"ĠmV":6702,"ĠÂ°":6703,"ĠMCHC":6704,"AA":6705,"ĠStudie":6706,"Ġplasm":6707,"Ġpunten":6708,"Ġincomp":6709,"ĠBas":6710,"Ġdiverse":6711,"Ġjaarlijk":6712,"Ġblootstelling":6713,"Ġzieken":6714,"ĠVergeleken":6715,"kade":6716,"CP":6717,"Ġmethod":6718,"Ġvertoonde":6719,"oppl":6720,"stijl":6721,"ĠAndere":6722,"Ġpolym":6723,"ĠParox":6724,"Ġgezicht":6725,"aas":6726,"Ġkransslagader":6727,"Ġwegra":6728,"huizen":6729,"ĠLaboratoriumonderzoek":6730,"dr":6731,"Ġtoestemming":6732,"Ġzodat":6733,"ĠnsVT":6734,"rument":6735,"ĠgeÃ¯nt":6736,"Ġeiwitten":6737,"Ġtrap":6738,"ĠMatig":6739,"Specialisme":6740,"drukt":6741,"Ġsep":6742,"fact":6743,"Ġeci":6744,"stiek":6745,"receptor":6746,"ĠCardiaal":6747,"Ġvermoedelijk":6748,"Ġtesten":6749,"Access":6750,"cer":6751,"ĠData":6752,"Overig":6753,"cellulaire":6754,"Ġspecific":6755,"Ġbic":6756,"undel":6757,"Ġcas":6758,"Ġide":6759,"Ġstopdatum":6760,"ocket":6761,"sne":6762,"digheid":6763,"eprazol":6764,"90":6765,"Ġhiermee":6766,"ivo":6767,"Ġzorgverlen":6768,"Ġavond":6769,"aliseerde":6770,"avond":6771,"Ġdubbel":6772,"maals":6773,"ducten":6774,"waarschijnlijk":6775,"adol":6776,"35":6777,"foto":6778,"ventionele":6779,"openie":6780,"Ġnovember":6781,"ĠTSH":6782,"Ġzwaar":6783,"uidel":6784,"ĠIsch":6785,"ĠMBq":6786,"Ġverschijn":6787,"populatie":6788,"ĠUw":6789,"Ġmarkers":6790,"TR":6791,"Ġetiologie":6792,"Ġaanvallen":6793,"Ġcycl":6794,"Ġstroke":6795,"Ġenhan":6796,"formulier":6797,"Ġpan":6798,"Ġtrend":6799,"alg":6800,"Ġvragenlijst":6801,"aando":6802,"Ġmaatregelen":6803,"Ġgunstige":6804,"ĠSD":6805,"Ġmicrog":6806,"Ġschema":6807,"Ġabnormale":6808,"cg":6809,"intigr":6810,"Ġbraken":6811,"ontwikkeling":6812,"Ġscintigr":6813,"Ġgang":6814,"Ġvoedings":6815,"Ġstijging":6816,"intigram":6817,"Ġtransp":6818,"Ġcase":6819,"ink":6820,"igens":6821,"Deze":6822,"Ġreversib":6823,"dood":6824,"bed":6825,"beoordeling":6826,"HO":6827,"Ġhoest":6828,"Ġamlodipine":6829,"Ġdaags":6830,"ĠPers":6831,"oxaban":6832,"Ġgevraagd":6833,"Onder":6834,"Ġmisselijkheid":6835,"Ġbetrokkenheid":6836,"periode":6837,"ĠGebruik":6838,"Ġlichamelijke":6839,"Ġprognost":6840,"36":6841,"Ġenig":6842,"Ġbenadering":6843,"Ġreceptor":6844,"ĠCB":6845,"Ġbegonnen":6846,"eef":6847,"Ġminuut":6848,"ĠDR":6849,"ollings":6850,"Heparine":6851,"inaal":6852,"Ġstructuur":6853,"Ġvrije":6854,"centrum":6855,"ĠGFR":6856,"ĠEurope":6857,"Ġopmerk":6858,"ĠCons":6859,"Ġvertegenwoordig":6860,"pret":6861,"pan":6862,"Th":6863,"Ġ28":6864,"Ġinmiddels":6865,"ĠPt":6866,"grens":6867,"Ġpsychiat":6868,"Ġsnelheid":6869,"Ġrechterventrikel":6870,"Ġinferolateraal":6871,"trofie":6872,"Ġveget":6873,"sklachten":6874,"NI":6875,"Ġinzicht":6876,"PI":6877,"Ġcytok":6878,"38":6879,"ĠTAPSE":6880,"Ġrun":6881,"ĠMit":6882,"Ġtherapy":6883,"ĠAbd":6884,"Ġhypo":6885,"ained":6886,"ĠCS":6887,"ĠFor":6888,"Ġbloedingen":6889,"spier":6890,"Ġvascul":6891,"Ġimplementatie":6892,"Ġstrategie":6893,"ndanks":6894,"dil":6895,"26":6896,"ympt":6897,"Ġfractuur":6898,"Ġfemoralis":6899,"Ġgraads":6900,"ĠOSAS":6901,"Ġtrials":6902,"Ġaccept":6903,"vl":6904,"diast":6905,"Ġ35":6906,"oppler":6907,"itone":6908,"lae":6909,"ĠAlcohol":6910,"gezet":6911,"Ġbehandelde":6912,"ĠPFO":6913,"Ġprincip":6914,"ratio":6915,"Ġinfer":6916,"Ġeenheden":6917,"Ġseptaal":6918,"ĠResp":6919,"Ġijzer":6920,"ĠTrans":6921,"yreoÃ¯die":6922,"Ġfreq":6923,"Ġnek":6924,"iform":6925,"esion":6926,"Ġmaandag":6927,"ĠVolgens":6928,"Ġhartinfarct":6929,"#;":6930,"Ġpos":6931,"Ġspiegel":6932,"Ġleef":6933,"Ġ80":6934,"Ġpneumothorax":6935,"eroÃ¯den":6936,"OK":6937,"Ġ21":6938,"ĠMen":6939,"iaties":6940,"ĠHeart":6941,"ĠAortaklep":6942,"sequentie":6943,"omografie":6944,"intigraf":6945,"Âµ":6946,"Ġomvang":6947,"Ġdal":6948,"ituatie":6949,"oplas":6950,"Ġbovenstaande":6951,"beperking":6952,"Ġoes":6953,"wijze":6954,"Ġendothel":6955,"27":6956,"Ġmyocardi":6957,"auz":6958,"ĠFlow":6959,"Ġdrukpijn":6960,"ĠAangezien":6961,"STAT":6962,"Ġvriendelijke":6963,"Ġonc":6964,"cedures":6965,"Ġlinkerkamer":6966,"ĠIM":6967,"Ġwachtlijst":6968,"pri":6969,"oprothese":6970,"Ġbreast":6971,"Ġzorgen":6972,"ĠVSD":6973,"Ġuitbre":6974,"Ġplus":6975,"NRT":6976,"merg":6977,"Ġnr":6978,"ular":6979,"bu":6980,"Ġmut":6981,"Ġopnamen":6982,"deels":6983,"Ġdefinitieve":6984,"ĠLongen":6985,"proBNP":6986,"lasting":6987,"Ġgroei":6988,"Ġblock":6989,"ligging":6990,"Ġtypische":6991,"sup":6992,"Ġgegener":6993,"Ġalcoholgebruik":6994,"29":6995,"ĠScientific":6996,"Ġpulsaties":6997,"Ġverkrij":6998,"ength":6999,"Ġhartziekten":7000,"iteren":7001,"fore":7002,"lay":7003,"Ġgeble":7004,"anide":7005,"Ġ-%":7006,"iÃ«ren":7007,"Ġonver":7008,"Sinusritme":7009,"ions":7010,"hoofd":7011,"ĠJR":7012,"vaattekening":7013,"Ġgranulocyten":7014,"ĠIS":7015,"iezen":7016,"mogelijk":7017,"edt":7018,"Ġgevolgen":7019,"istische":7020,"passen":7021,"Ġcir":7022,"ismaal":7023,"nier":7024,"Ġvermogen":7025,"45":7026,".;":7027,"Ġproblematiek":7028,"alle":7029,"#]":7030,"otherapeut":7031,"Ġoppervla":7032,"ĠSTT":7033,"Ġ90":7034,"Ġ#-#.":7035,"ĠFederatie":7036,"laten":7037,"Ġverrichten":7038,"Ġeet":7039,"Ġgemeen":7040,"LDL":7041,"structieve":7042,"Ġpulmonalis":7043,"ĠMil":7044,"Ġgelijkt":7045,"Ġannulus":7046,"vene":7047,"Ġmedicijn":7048,"Ġpunctie":7049,"):[":7050,"Ġpap":7051,"Ġbetrouwbaar":7052,"imenten":7053,"ella":7054,"maakte":7055,"Ġknelpunten":7056,"Patint":7057,"Ġtrad":7058,"Ġnumber":7059,"Ġgelijktij":7060,"Ġadd":7061,"âĢ¦":7062,"ung":7063,"Ġonderzoekers":7064,"Ġabsol":7065,"Ġcerv":7066,"rijdag":7067,"catheterisatie":7068,"Ġgesloten":7069,"ulaties":7070,"28":7071,"Ġgebrek":7072,"za":7073,"Ġrespir":7074,"III":7075,"leeftijd":7076,"gebonden":7077,"kant":7078,"Ġoef":7079,"introm":7080,"GA":7081,"Ġvoordeel":7082,"ĠON":7083,"raine":7084,"Ġmitochondriale":7085,"ĠConform":7086,"inform":7087,"Ġseks":7088,"Ġgekozen":7089,"Kalium":7090,"lage":7091,"ĠNov":7092,"Ġimplant":7093,"contin":7094,"Ġsubcutaan":7095,"Ġvooralsnog":7096,"Ġult":7097,"Ġople":7098,"ruppel":7099,"Ġnieren":7100,"yth":7101,"stijd":7102,"ross":7103,"oedeem":7104,"Ġgevolge":7105,"Radi":7106,"Ġconsistent":7107,"vention":7108,"Ġclassificatie":7109,"Ġaugustus":7110,"Ġinfecties":7111,"Ġtransc":7112,"ĠRecent":7113,"Ġdilatation":7114,"oeken":7115,"Ġconclusies":7116,"Ġles":7117,"voer":7118,"Ġnamens":7119,"april":7120,"Ġ(+":7121,"Ġterugk":7122,"Ġwerkt":7123,"Ġnl":7124,"Ġaankleuring":7125,"ther":7126,"Ġlaatst":7127,"Ġposterior":7128,"(#":7129,"lood":7130,"astom":7131,"VD":7132,"Ġlangzaam":7133,"procedure":7134,"ĠRel":7135,"asie":7136,"Aandachtsp":7137,"Ġcomponent":7138,"VP":7139,"HCA":7140,"Ġtoevoegen":7141,"Ġballo":7142,"darm":7143,"Ġbefore":7144,"oet":7145,"Ġtevoren":7146,"Ġkrit":7147,"Ġ23":7148,"Ġmild":7149,"Ġpass":7150,"elok":7151,"Ġaortawortel":7152,"plant":7153,"ĠAlkalische":7154,"amide":7155,"Ġrevisie":7156,"'-":7157,"Ġwerking":7158,"Ġlangere":7159,"Ġverdragen":7160,"Ġventrikelfunctie":7161,"illaire":7162,"iodarone":7163,"vaardigd":7164,"Ġpancreas":7165,"Ġacenocoumarol":7166,"akker":7167,"isten":7168,"Ġnatrium":7169,"Ġpericarditis":7170,"Ġpunt":7171,"ves":7172,"Ġsecretariaat":7173,"oi":7174,"isen":7175,"utie":7176,"Ġmilt":7177,"sclerose":7178,"Ġcentimeter":7179,"vulaire":7180,"Ġdominant":7181,"FA":7182,"Ġostium":7183,"Ġhoudt":7184,"Ġwijzen":7185,"Ġbetrouwbaarheids":7186,"Ġenhancement":7187,"Ġmodule":7188,"dl":7189,"uspide":7190,"ĠKwaliteit":7191,"Ġapotheek":7192,"Ġfebruari":7193,"Ġoptimale":7194,"iedt":7195,"ambocor":7196,"Ġspreekuur":7197,"Ġplan":7198,"Ġsoort":7199,"Ġambulance":7200,"ĠLeads":7201,"rati":7202,"Ġcarotiden":7203,"fosf":7204,"Ġlymfaden":7205,"Ġwereld":7206,"Ġbestond":7207,"Ġ26":7208,"ĠLCX":7209,"Ġzijde":7210,"Ġtrauma":7211,"Ġmn":7212,"med":7213,"Ġcyste":7214,"delingen":7215,"complex":7216,"ĠSterk":7217,"Ġvertonen":7218,"Ġbol":7219,"ĠBP":7220,"Ġwortel":7221,"Ġhypox":7222,"emo":7223,"AIOS":7224,"Ġhemodynamische":7225,"ĠWand":7226,"praktijk":7227,"zijde":7228,"Ġsyndro":7229,"ptuur":7230,"zondheids":7231,"Ġnamelijk":7232,"OG":7233,"ĠSoms":7234,"productie":7235,"ĠOr":7236,"ĠEch":7237,"Ġbericht":7238,"Ġonderhoud":7239,"chron":7240,"Ġbehandelings":7241,"orter":7242,"bloeding":7243,"Ġfmol":7244,"intest":7245,"Ġovergewicht":7246,"Ġstatistische":7247,"Ġbezig":7248,"Ġmes":7249,"ĠHC":7250,"Ġchild":7251,"Ġdocument":7252,"Ġsteun":7253,"massa":7254,"Ġgeaccepteerd":7255,"Ġlapar":7256,"agina":7257,"zetten":7258,"aryn":7259,"techn":7260,"Ġtgv":7261,"Ġbeginnen":7262,"Ġlact":7263,"Ġziekenhuisopname":7264,"oplos":7265,"Ġwar":7266,"Ġ70":7267,"Ġpostoperatief":7268,"eiwit":7269,"intigrafisch":7270,"#/#(#)":7271,"concentraties":7272,"Ġtweemaal":7273,"anal":7274,"Ġkaliber":7275,"Ġcircumflex":7276,"Ġhetzelfde":7277,"ationele":7278,"programma":7279,"Ġ48":7280,"idence":7281,"Ġmedicamenteuze":7282,"Ġflecainide":7283,"elokeen":7284,"Ġhartrevalidatie":7285,"reen":7286,"igat":7287,"ochrane":7288,"Ġbroer":7289,"Ġharttransplantatie":7290,"Ġgezondheidszorg":7291,"ĠInc":7292,"ricuspid":7293,"Referentie":7294,"onade":7295,"Ġgesp":7296,"Length":7297,"abiel":7298,"Ġpo":7299,"Ġpept":7300,"itief":7301,"Ġsedatie":7302,"ĠNIBP":7303,"gebracht":7304,"Ġmultidisciplin":7305,"Ġverg":7306,"Ġvergrote":7307,"RDP":7308,"Ġrib":7309,"Ġchol":7310,"Ġplotselinge":7311,"ĠPacemaker":7312,"modellen":7313,"stim":7314,"amnestisch":7315,"abele":7316,"Ġdiscus":7317,"femor":7318,"Ġallemaal":7319,"idemi":7320,"Ġsteekproef":7321,"ĠMA":7322,"Ġsche":7323,"ĠHS":7324,"Ġ45":7325,"klinische":7326,"Ġovername":7327,"Ġleverfunctie":7328,"Ġnab":7329,"zide":7330,"Ġjr":7331,"lok":7332,"ĠCON":7333,"ius":7334,"Ġspironolacton":7335,"Ġgevoeligheid":7336,"Ġvraagstelling":7337,"ĠPVI":7338,"Ġhemoglobine":7339,"ĠRU":7340,"Ġactueel":7341,"Ġnoodzaak":7342,"ĠToelichting":7343,"Geb":7344,"Fig":7345,"wijzigde":7346,"emmer":7347,"strategie":7348,"ĠRechter":7349,"Ġneuroloog":7350,"Ġactuele":7351,"elijks":7352,"Ġmannelijke":7353,"Ġuitgesproken":7354,"chen":7355,"ĠRVOT":7356,"ĠVen":7357,"enste":7358,"ĠTM":7359,"ican":7360,"rant":7361,"udy":7362,"bevel":7363,"Verap":7364,"voerde":7365,"ift":7366,"kenmerken":7367,"Ġcongen":7368,"Ġkeuze":7369,"Ġonbe":7370,"ĠAVNRT":7371,"Verapamil":7372,"Ġmelden":7373,"mmet":7374,"Ġspecificiteit":7375,"Ġcardiomyoc":7376,"Ġbeschikbare":7377,"Ġleden":7378,"Ġhernia":7379,"ĠDaarbij":7380,"Ġheter":7381,"Ġeenmaal":7382,"meer":7383,"Ġeenmalig":7384,"Ġbehalve":7385,"iger":7386,"abigat":7387,"Ġinvasieve":7388,"Ġgrootste":7389,"Ġcava":7390,"izont":7391,"aort":7392,"uro":7393,"ĠOverig":7394,"Ġgeheugen":7395,"start":7396,"Ġjuist":7397,"Gym":7398,"ĠGlob":7399,"inaat":7400,"Ġverklaard":7401,"Ġpoging":7402,"sluiten":7403,"ĠMDL":7404,"oxid":7405,"Ġtechniek":7406,"schillende":7407,"abigatran":7408,"Ġdynam":7409,"Ġonderdeel":7410,"Ġherhaalde":7411,"Ġklachtenvrij":7412,"aria":7413,"ĠNederlands":7414,"onderzoeken":7415,"ĠDif":7416,"Ġafwijkende":7417,"Ġstatines":7418,"keerd":7419,"Ġdetail":7420,"iliac":7421,"ĠMan":7422,"Ġwervelkolom":7423,"Ġseconden":7424,"unct":7425,"ĠCholesterol":7426,"mod":7427,"Ġfraai":7428,"compli":7429,"ĠOverweeg":7430,"Ġgeneesmiddel":7431,"ensus":7432,"urcatie":7433,"EM":7434,"neg":7435,"artrose":7436,"rat":7437,"Ġmacrof":7438,"Ġcholec":7439,"Ġmanagement":7440,"vingen":7441,"ĠHalsvenen":7442,"ĠGedilateerde":7443,"Ġervaring":7444,"rouwen":7445,"Ġlevenslang":7446,"hals":7447,"hor":7448,"ytische":7449,"Ġinstabiele":7450,"Ġgepubliceerd":7451,"able":7452,"hypertrofie":7453,"Ġgegaan":7454,"lus":7455,"osinof":7456,"Ġmanifest":7457,"Ġgeleidelijk":7458,"Ġprospectieve":7459,"ĠEffect":7460,"etrof":7461,"long":7462,"pulmon":7463,"Ġsoc":7464,"osine":7465,"Ġsoepele":7466,"wijf":7467,"Ġsubtot":7468,"idaties":7469,"Ġgluc":7470,"Ġklacht":7471,"Col":7472,"analyses":7473,"+-":7474,"oortje":7475,"ĠBespreking":7476,"Ġdescendens":7477,"Ġallergie":7478,"Ġvoordelen":7479,"Ġbewustzijn":7480,"blaas":7481,"Ġdiffuse":7482,"nduceerd":7483,"Ġfrom":7484,"Ġprox":7485,"Ġdelay":7486,"Ġinte":7487,"gesprek":7488,"Ġ37":7489,"metast":7490,"amponade":7491,"ĠMorgen":7492,"Ġobservatie":7493,"erb":7494,"Ġwandbewegingsstoornissen":7495,"ĠWetenschap":7496,"male":7497,"hol":7498,"ĠJap":7499,"ĠCochrane":7500,"roffen":7501,"Ġuitgangsvragen":7502,"Ġintensie":7503,"Ġvoordat":7504,"Vraagstelling":7505,"aalt":7506,"-/":7507,"Ġharten":7508,"Normale":7509,"Par":7510,"Ġcontroleren":7511,"Ġnatuur":7512,"Ġcruc":7513,"diat":7514,"Ġinname":7515,"ĠJude":7516,"ler":7517,"Ġaanval":7518,"etrofos":7519,"Ġgehoor":7520,"iciÃ«nt":7521,"verticul":7522,"Ġdoses":7523,"Ġbegrij":7524,"Ġasymptomatisch":7525,"snelheid":7526,"Ġniertransplantatie":7527,"Ġcomplicatie":7528,"Ġlumb":7529,"Ġcontract":7530,"Ġvivo":7531,"Ġscientific":7532,"Ġclinical":7533,"Ġlymfadenopathie":7534,"glucose":7535,"Ġspray":7536,"vallend":7537,"ĠPD":7538,"Ġanteroseptaal":7539,"icatie":7540,"Ãª":7541,"ĠControl":7542,"Ġklepafwijkingen":7543,"alva":7544,"04":7545,"ĠGenees":7546,"Ġdaarvan":7547,"gebieden":7548,"Ġ(,":7549,"aging":7550,"Ġ(>#":7551,"Ġline":7552,"ĠJL":7553,"kom":7554,"oring":7555,"verb":7556,"Figuur":7557,"umatische":7558,"Ġvergelijken":7559,"Ġrem":7560,"Ġgeken":7561,"ĠNeur":7562,"Ġpalpitatie":7563,"Ġprecor":7564,"rif":7565,"Ġmechanische":7566,"Ġinstantie":7567,"Belconsult":7568,"greg":7569,"Ġbeschrijven":7570,"best":7571,"kkage":7572,"Ġwet":7573,"ĠKopie":7574,"Ġonzeker":7575,"Ġrevascularisatie":7576,"depressie":7577,"Ġbiologische":7578,"Ġbeheer":7579,"Oper":7580,"betaald":7581,"veranderingen":7582,"Ġrood":7583,"ositas":7584,"ĠDetails":7585,"Ġopeen":7586,"Ġvervolgen":7587,"Ġbevinding":7588,"Ġklepvit":7589,"-#-":7590,"nthese":7591,"Ġbeta":7592,"ĠEH":7593,"Ġecg":7594,"Ġstructureel":7595,"quis":7596,"-#.#":7597,"Kolom":7598,"ronen":7599,"derde":7600,"umetanide":7601,"aking":7602,"ca":7603,"Ureum":7604,"Ġdienen":7605,"Ġgekenmerkt":7606,"Kolomnr":7607,"ĠGraag":7608,"rombose":7609,"ump":7610,"Ġbiedt":7611,"Ġkortdurend":7612,"Ġgekomen":7613,"Ne":7614,"Ġcan":7615,"Ġprogramma":7616,"ĠEB":7617,"ious":7618,"Ġbewijskracht":7619,"ĠAchter":7620,"Ġrapporteerden":7621,"ĠSI":7622,"ĠmL":7623,"Ġverenigingen":7624,"Ġdeelname":7625,"astro":7626,"orfe":7627,"etrofosmine":7628,"voudig":7629,"Ġhelpen":7630,"kanaal":7631,"Ġafzonder":7632,"vlies":7633,"Ġvacc":7634,"renaline":7635,"Ġveranderd":7636,"Ġsensitiviteit":7637,"Ġorigo":7638,"Ġreperfusie":7639,"Ġieder":7640,"Ġdrempel":7641,"Ġaanmelding":7642,"aciteit":7643,"ifeer":7644,"Ġbeoordeelbaar":7645,"Ġongunst":7646,"Ġaanpassing":7647,"gene":7648,"uss":7649,"Ġwens":7650,"Ġgeob":7651,"Ġaanmerking":7652,"Ġbeperking":7653,"Ġontstaat":7654,"Ġdienst":7655,"hoogde":7656,"Ġhili":7657,"65":7658,"lucht":7659,"verwezen":7660,"Ġlas":7661,"Ġcalcificaties":7662,"ĠVals":7663,"bron":7664,"ĠGestopte":7665,"ĠLAVI":7666,"Ġcorticost":7667,"ractus":7668,"Ġproductie":7669,"Ġhypog":7670,"\",":7671,"Ġslijm":7672,"mede":7673,"inflammatoire":7674,"OM":7675,"Ġvasc":7676,"Ġademhalings":7677,"Ġmateriaal":7678,"Ġtrage":7679,"Ġgynaec":7680,"Ġglyc":7681,"Ġapicale":7682,"Per":7683,"erkingen":7684,"Ġverloop":7685,"Ġreductie":7686,"Ġlek":7687,"Ġsol":7688,"ardiaal":7689,"itting":7690,"mar":7691,"inc":7692,"continentie":7693,"asal":7694,"Overdracht":7695,"alli":7696,"Ġuitstraling":7697,"Ġomvatte":7698,"part":7699,"adruk":7700,"uccinaat":7701,"itatieve":7702,"Am":7703,"Ġserie":7704,"ĠEchocardiografisch":7705,"face":7706,"bericht":7707,"Ġconcentraties":7708,"Ġhandmatig":7709,"ĠOndanks":7710,"Ġgeldt":7711,"Ġsamenge":7712,"Trombocyten":7713,"Referentiedatum":7714,"Ġhard":7715,"Ġmetab":7716,"ware":7717,"ĠUniversity":7718,"Ġemb":7719,"Ġ(#):":7720,"achten":7721,"Ġontbreken":7722,"Ġkop":7723,"Ġ75":7724,"kens":7725,"Ġanastom":7726,"Ġgewichtsverlies":7727,"Ġtricuspidalisklep":7728,"ART":7729,"Ġaant":7730,"Ġmediane":7731,"33":7732,"Ġhoogste":7733,"Ġfol":7734,"atin":7735,"umor":7736,"ĠResearch":7737,"ĠTri":7738,"plitude":7739,"Ġpte":7740,"sieve":7741,"Ġtab":7742,"ĠDataLin":7743,"Ġeten":7744,"Ġmsec":7745,"TTE":7746,"gev":7747,"Ġessentie":7748,"zijdig":7749,"Ġconsolidaties":7750,"opnam":7751,"Ġallerg":7752,"idieven":7753,"Ġproximal":7754,"ĠNaar":7755,"verband":7756,"Ġvallen":7757,"ĠRPM":7758,"Ġ27":7759,"Ġhelft":7760,"EV":7761,"PG":7762,"calcium":7763,"Ġvrijdag":7764,"Ġvolgfrequentie":7765,"rage":7766,"Ġopdat":7767,"Con":7768,"Ġhypertensieve":7769,"antwoording":7770,"Gesproken":7771,"Ġsporten":7772,"ORI":7773,"mV":7774,"Ġtraining":7775,"ĠJournal":7776,"ĠTIMI":7777,"ound":7778,"leb":7779,"Ġcalcificatie":7780,"Ġbloedstroom":7781,"HF":7782,"ĠHartfrequentie":7783,"Ġaanzienlijke":7784,"inopathie":7785,"Ġdatabase":7786,"Ġontlasting":7787,"tablet":7788,"ĠLO":7789,"Creatinine":7790,"Shock":7791,"ĠTDI":7792,"Ġischemisch":7793,"fa":7794,"ericht":7795,"plete":7796,"Ġlinkerventrikelfunctie":7797,"Ġpresenteerde":7798,"ĠVerwijzing":7799,"Ġdoc":7800,"CVD":7801,"AV":7802,"LR":7803,"Ġconventionele":7804,"Ġherkenbare":7805,"fibrillatie":7806,"Ġperman":7807,"Ġongecompliceerd":7808,"DD":7809,"Ġbetreffende":7810,"ofysi":7811,"sess":7812,"Ġziekenhuizen":7813,"Ġprofess":7814,"itaal":7815,"ĠStabiele":7816,"ĠAR":7817,"Ġdecompensatie":7818,"ĠFA":7819,"des":7820,"Ġcirca":7821,"oes":7822,"Ġklepvitia":7823,"Ġcollabeert":7824,"Ġradioloog":7825,"Hyper":7826,"uiste":7827,"Ġcyst":7828,"Ġkeel":7829,"Ġtemperatuur":7830,"ĠGem":7831,"ears":7832,"CAG":7833,"Ġresulteert":7834,"ijft":7835,"Ġredenen":7836,"wissel":7837,"valuatie":7838,"Ġlanden":7839,"ococ":7840,"Ġopeenvolgende":7841,"ĠfL":7842,"Ġ(%):#":7843,"Ġgeselecteerde":7844,"ĠRv":7845,"colleg":7846,"anto":7847,"centrische":7848,"Ġ#.#%":7849,"maat":7850,"Ġafgifte":7851,"Ġpijnlijk":7852,"Ġakinesie":7853,"constructie":7854,"Ġmodi":7855,"gemerkt":7856,"Ġq":7857,"Ġrugligging":7858,"gewricht":7859,"Ġbehoefte":7860,"drempel":7861,"Ġ<#%":7862,"Ġverhoging":7863,"Ġverschijnselen":7864,"ĠEN":7865,"Ġhepatitis":7866,"Ġzeggen":7867,"Ġonmiddel":7868,"termin":7869,"nstig":7870,"Ġexter":7871,"racturen":7872,"seerd":7873,"Ġtermin":7874,"resultaten":7875,"Ġ36":7876,"Toe":7877,"Ġvv":7878,"erence":7879,"ĠRUST":7880,"Ġ[,].":7881,"oude":7882,"ilatie":7883,"ĠGed":7884,"Ġprognostische":7885,"Echo":7886,"Ġvoorspeld":7887,"paste":7888,"Ġaanvankelijk":7889,"ĠNadien":7890,"ustachycardie":7891,"via":7892,"Ġkarakter":7893,"Ġhorizont":7894,"Ġproject":7895,"iclo":7896,";#":7897,"Ġverdwenen":7898,"Ġnummer":7899,"Ġendotheliale":7900,"Ġartrose":7901,"ites":7902,"ineuze":7903,"azepam":7904,"zoals":7905,"ull":7906,"Ġthrombus":7907,"Ġvermindert":7908,"Ġvenen":7909,"Ġeigenschappen":7910,"DG":7911,"water":7912,"Ġmodellen":7913,"Ġballoon":7914,"rd":7915,"Ġapoptose":7916,"Ġbehandelaar":7917,"butamine":7918,"iklinisch":7919,"Ġaspecifieke":7920,"Tabel":7921,"sth":7922,"Ġaanpak":7923,"Ġcomputer":7924,"Ġuiter":7925,"vet":7926,"Ġprest":7927,"medic":7928,"Ġhanden":7929,"pk":7930,"Ġcontext":7931,"Ġcreatinine":7932,"Ġgecontroleerde":7933,"alkingen":7934,"PR":7935,"ĠAssoci":7936,"Ġeffectieve":7937,"Ġ#,#;":7938,"Ġnevenbevindingen":7939,"olaire":7940,"foratie":7941,"Ġtensie":7942,"Ġopent":7943,"Ġechografie":7944,"ĠPVAI":7945,"Ġdanwel":7946,"ĠTH":7947,"scop":7948,"99":7949,"ĠTNF":7950,"Ġreson":7951,"ĠAcute":7952,"ique":7953,"Klinisch":7954,"okken":7955,"stipatie":7956,"ĠGra":7957,"Ġontst":7958,"Ġwakker":7959,"ijfers":7960,"Ġfuncties":7961,"Ġreflux":7962,"edieerde":7963,"Ġvoeren":7964,"brengen":7965,"acro":7966,"Ġlymfeklieren":7967,"Ġvorming":7968,"dheid":7969,"ĠJapan":7970,"graft":7971,"Ġsnr":7972,"Ġindividuen":7973,"Verwijzer":7974,"ielen":7975,"ison":7976,"financ":7977,"ĠMar":7978,"Ġasymptomatische":7979,"erieure":7980,"ĠDO":7981,"daad":7982,"Ġlid":7983,"Ġdraad":7984,"Ġsimvastatine":7985,"Ġ(/":7986,"ocks":7987,"Ġcardiomyocyten":7988,"traging":7989,"Ġfluor":7990,"Ġgeschikt":7991,"ransplant":7992,"Ġwijze":7993,"Ġnachts":7994,"roe":7995,"Ġradic":7996,"Ġvaso":7997,"Ġnauwelijks":7998,"Ġhartfunctie":7999,"Ab":8000,"Ġol":8001,"Ġprincipe":8002,"Ġhartdood":8003,"matische":8004,"Ġmetformine":8005,"atting":8006,"Ġleg":8007,"yro":8008,"Ġelektronisch":8009,"succinaat":8010,"Ġgeboorte":8011,"keurd":8012,"tendeels":8013,"lid":8014,"sper":8015,"conf":8016,"ending":8017,"Ġvoorspellende":8018,"Ġ(#),":8019,"Ġopger":8020,"Ġgedeeltelijk":8021,"Ġtegenstelling":8022,"ĠScintigrafisch":8023,"Opm":8024,"Ġversie":8025,"Ġvariatie":8026,"Ġswitch":8027,"Ġstenosering":8028,"Ġenzym":8029,"Ġleidde":8030,"ĠCx":8031,"Ġopleiding":8032,"Ġps":8033,"ĠSer":8034,"inium":8035,"Ġdyslipidemie":8036,"alering":8037,"Ġfoet":8038,"Ġlat":8039,"Ġdier":8040,"LT":8041,"Ġmogelijkheden":8042,"Ġziet":8043,"compliant":8044,"bouwen":8045,"Ġbeweging":8046,"ĠMaar":8047,"scand":8048,"Ġcardiac":8049,"fase":8050,"ĠDuit":8051,"formatie":8052,"ĠSociaal":8053,"37":8054,"Co":8055,"ĠOHCA":8056,"Ġaspirine":8057,"Ġritmestoornis":8058,"breuk":8059,"imus":8060,"Ġdhr":8061,"ses":8062,"ĠInit":8063,"0001":8064,"derdaad":8065,"Ġ65":8066,"ĠgeÃ¯nduceerd":8067,"balans":8068,"ges":8069,"Ġ#%).":8070,"Ġ#-#,":8071,"Ġdors":8072,"ineres":8073,"ĠAmerican":8074,"Ġuitkomstmaat":8075,"voeding":8076,"ĠAlleen":8077,"ĠKort":8078,"Ġpremat":8079,"ulose":8080,"gestief":8081,"Ġnuttig":8082,"ĠDyspnoe":8083,"ephal":8084,"Naam":8085,"Ġopgehoogd":8086,"stent":8087,"Ġglad":8088,"%;":8089,"ĠBelangrijk":8090,"erings":8091,"Ġcomplexe":8092,"olip":8093,"Ġexp":8094,"ctus":8095,"Ġinfiltraten":8096,"JM":8097,"Ġwijst":8098,"ĠAVA":8099,"Ġgoedge":8100,"Ġtevreden":8101,"Hartfalen":8102,"Ġcerebrale":8103,"Ġ(),":8104,"inn":8105,"oÃ¯de":8106,"Ġendoc":8107,"attery":8108,"ucocyten":8109,"Ġresulteerde":8110,"Ġuter":8111,"beweging":8112,"âĢĬ":8113,"SAID":8114,"Ġroutine":8115,"atar":8116,"ĠICC":8117,"Ġwell":8118,"bv":8119,"schema":8120,"ĠNaast":8121,"Ġemot":8122,"ĠaritmieÃ«n":8123,"ĠCTO":8124,"acy":8125,"ids":8126,"Ġpocket":8127,"Ġverdeling":8128,"Ġingesteld":8129,"Ġ(#-#)":8130,"Ġonrust":8131,"Ġonderzochten":8132,"steking":8133,"beelde":8134,"Ġeveneens":8135,"Ġcellulaire":8136,"golf":8137,"Ġmoeite":8138,"Ġpract":8139,"Ġbenadruk":8140,"Ġcoronari":8141,"heath":8142,"achtige":8143,"Ġstuwing":8144,"screening":8145,"oping":8146,"Ġverhoogt":8147,"Ġtrop":8148,"Ġby":8149,"ĠEnkele":8150,"Ġker":8151,"ypen":8152,"oview":8153,"Ġinfect":8154,"TS":8155,"Ġregulatie":8156,"ijns":8157,"mens":8158,"patiÃ«nt":8159,"Ġnadat":8160,"Ġinterpret":8161,"Ġzwak":8162,"diagnoses":8163,"Ġlongvaattekening":8164,"âĢĲ":8165,"Ġmacro":8166,"Lab":8167,"Ġtriglyceriden":8168,"Ġvoorspelde":8169,"Ġlongvenen":8170,"aced":8171,"Ġmonitoring":8172,"Ġsoorten":8173,"Leeftijd":8174,">)":8175,"Ġbody":8176,"Ġrecidieven":8177,"Contrast":8178,"Ġprec":8179,"Ġdigoxine":8180,"ick":8181,"Ġheer":8182,"ĠSamen":8183,"Ġbetablokker":8184,"Ġtoelat":8185,"raden":8186,"Ġsubclav":8187,"Ġwerkzaamheid":8188,"wa":8189,"Ap":8190,"density":8191,"itair":8192,"my":8193,"ual":8194,"ĠaVL":8195,"esium":8196,"Metoprolol":8197,"Fluoroscopie":8198,"iferatie":8199,"__":8200,"Ġtekst":8201,"Ġafspraken":8202,"oriasis":8203,"Ġonderwerp":8204,"Ġopin":8205,"gan":8206,"Ġbedroeg":8207,"Ġsymp":8208,"ĠWor":8209,"conclusie":8210,"Ġbestudeerd":8211,"Ġbewegen":8212,"Ġvoeten":8213,"Ġgetest":8214,"ĠROS":8215,"theros":8216,"Ġmanusc":8217,"eerbaar":8218,"ĠGE":8219,"lict":8220,"known":8221,"Ġvrouwelijke":8222,"iety":8223,"Ġexperimentele":8224,"uizel":8225,"zuren":8226,"quisitie":8227,"Ġmediaan":8228,"Ġactivering":8229,"Ġgecorrigeerd":8230,"ĠChronische":8231,"Ġfysiologische":8232,"based":8233,"Ġevident":8234,"regulatie":8235,"blin":8236,"Ġband":8237,"afhankelijk":8238,"rist":8239,"Ġtoelating":8240,"Ġenkels":8241,"Ġafgebeelde":8242,"Ġpomp":8243,"Ġdiep":8244,"Ġbeetje":8245,"ĠMC":8246,"ĠZoals":8247,"Ġport":8248,"iste":8249,"ĠMedische":8250,"rechts":8251,"ĠBSE":8252,"organis":8253,"enc":8254,"digde":8255,"nemers":8256,"otrop":8257,"ĠSVES":8258,"ĠnierinsufficiÃ«ntie":8259,"Ġtelefoon":8260,"ĠAblatie":8261,"dienings":8262,"Ġlipide":8263,"monsters":8264,"diastolische":8265,"Ġgedocument":8266,"Ġvaliditeit":8267,"Ġstre":8268,"PT":8269,"Ġnoch":8270,"Ġmw":8271,"diabetes":8272,"Ġovermatige":8273,"geruis":8274,"Ġabdominale":8275,"ĠIom":8276,"ĠmRNA":8277,"Ġlasix":8278,"collegiaal":8279,"ĠVisueel":8280,"Ġrespon":8281,"metabol":8282,"Ġklas":8283,"Ġreacties":8284,"acerb":8285,"zeem":8286,"Ġbiomarkers":8287,"NL":8288,"Ġproberen":8289,"Standaard":8290,"Ġadviezen":8291,"Ġelectieve":8292,"Ġverdeeld":8293,"vormige":8294,"clusion":8295,"Ġface":8296,"azard":8297,"greep":8298,"opperv":8299,"ĠCHD":8300,"mogen":8301,"Ġfer":8302,"02":8303,"trek":8304,"inem":8305,"Jx":8306,"EG":8307,"Ġcarcin":8308,"'.":8309,"Ġselect":8310,"Ġelders":8311,"Ġprim":8312,"stress":8313,"ĠPS":8314,"cons":8315,"kap":8316,"chym":8317,"som":8318,"Ġmamma":8319,"opor":8320,"ENS":8321,"chten":8322,"Ġwisselende":8323,"Ġrand":8324,"ĠgeÃ¯nform":8325,"Ġactivatie":8326,"Ġverpleegkundig":8327,"ystectomie":8328,"Ġflu":8329,"ĠAs":8330,"03":8331,"ĠRedelijke":8332,"Ġafger":8333,"proc":8334,"Ġmicrovasculaire":8335,"Ġcompressie":8336,"Ġverhouding":8337,"ylering":8338,"Ġrandomized":8339,"sland":8340,"Ġfist":8341,"emd":8342,"Ġwisselend":8343,"Ġpartner":8344,"Ġcategorie":8345,"Ġipv":8346,"Cl":8347,"NV":8348,"Ġzeldzame":8349,"Laat":8350,"Ġvle":8351,"Ġoptim":8352,"cun":8353,"Ġinterval":8354,"Ġsubstraat":8355,"Complicatie":8356,"Ġgemakkelijk":8357,"Ġmanuscript":8358,"Ġoptie":8359,"Ġ29":8360,"ĠNational":8361,"Ġcreat":8362,"tijdig":8363,"ĠSat":8364,"ĠStudy":8365,"Ġbetrouwbaarheidsinterval":8366,"Ġiliac":8367,"Ġassociaties":8368,"Ġopgesteld":8369,"Ġonderscheiden":8370,"200":8371,"ioneel":8372,"Ġelevatie":8373,"inurie":8374,"Ġtamponade":8375,"ĠVerhoogd":8376,"Ġantilichamen":8377,"ĠarteriÃ«n":8378,"Ġatorvastatine":8379,"Ġherhal":8380,"onc":8381,"ory":8382,"ĠEjectiefractie":8383,"Ġplaatsvinden":8384,"Ġus":8385,"ĠDrie":8386,"Ġweet":8387,"structuur":8388,"Ġbevorder":8389,"Ġtransplantatie":8390,"Ġmarker":8391,"Ġvue":8392,"bele":8393,"mand":8394,"ĠHospital":8395,"acte":8396,"anderen":8397,"ĠinitiÃ«le":8398,"Ġpathofysi":8399,"Ġthuismedicatie":8400,"Ġhypot":8401,"Ġafkomstig":8402,"athische":8403,"lasie":8404,"Ġvoldoet":8405,"Ġconc":8406,"Ġongunstige":8407,"protocol":8408,"Ġkwets":8409,"sed":8410,"Ġsmal":8411,"ord":8412,"Ġanamnestisch":8413,"+,":8414,"ĠZD":8415,"ateur":8416,"Heeft":8417,"Ġvoedsel":8418,"muizen":8419,"Ġdossier":8420,"Ġkwamen":8421,"ĠAanbevel":8422,"Van":8423,"oradisch":8424,"ĠSign":8425,"Ġslotte":8426,"zins":8427,"igende":8428,"ĠRep":8429,"Blood":8430,"Ġarteri":8431,"ulen":8432,"ĠLE":8433,"houding":8434,"ĠOrganisatie":8435,"Ġit":8436,"ĠBep":8437,"ĠMilde":8438,"Ġsluiting":8439,"isolatie":8440,"Ġcross":8441,"Ġzoon":8442,"Ġventriculair":8443,"uaal":8444,"atible":8445,"block":8446,"Ġobstructieve":8447,"ĠâĪĴ":8448,"Ġdiagnostisch":8449,"Ġrichtingen":8450,"ĠKl":8451,"Ġminst":8452,"ĠUniversiteit":8453,"zetting":8454,"Ġscler":8455,"roglycer":8456,"Int":8457,"ineresistentie":8458,"ĠDan":8459,"Ġabdomen":8460,"inol":8461,"Ġtumoren":8462,"imvastatine":8463,"Ġmedia":8464,"oumon":8465,"Ġamiodarone":8466,"gemiddelde":8467,"ĠLichte":8468,"erger":8469,"dec":8470,"synchron":8471,"otter":8472,"oxicaties":8473,"Plus":8474,"gebouwd":8475,"Myocardinfarct":8476,"Ġischaemie":8477,"Ġtw":8478,"ness":8479,"Ġneurologie":8480,"ralings":8481,"Alcohol":8482,"Ġaangeboren":8483,"Ġaanvraag":8484,"ked":8485,"intens":8486,"Ġpitting":8487,"73":8488,"ĠgeÃ¯nduceerde":8489,"hypertensie":8490,"Ġgestuurd":8491,"Ġgunstig":8492,"Ġlongfunctie":8493,"oos":8494,"alcificeerde":8495,"Ġafleidingen":8496,"Ġrustige":8497,"langs":8498,"otisch":8499,"Ġorthopnoe":8500,"ĠGegevens":8501,"ubatie":8502,"post":8503,"Ġprofylact":8504,"Ġvesiculair":8505,"ilisatie":8506,"alliatieve":8507,"Ġconsent":8508,"Ġ>#%":8509,"Complicaties":8510,"procoumon":8511,"ĠRet":8512,"istoffen":8513,"Ġjuiste":8514,"Ġhorizontale":8515,"Ġrh":8516,"Ġ[],":8517,"chocardiografie":8518,":#-#":8519,"TIA":8520,"mTc":8521,"MDRD":8522,"Ġlesion":8523,"inet":8524,"oonplaats":8525,"Ġbehoudens":8526,"scintigrafie":8527,"ĠVandaag":8528,"Ġvene":8529,"Ġbiopsie":8530,"ĠAN":8531,"icaal":8532,"istollings":8533,"steun":8534,"PW":8535,"ĠVerdenking":8536,"Ġgeboren":8537,"Dominantie":8538,"roglycerine":8539,"heim":8540,"bereik":8541,"micro":8542,"Ġgeoper":8543,"ieure":8544,"ĠRout":8545,"rac":8546,"ĠMy":8547,"ieten":8548,"Ġheparine":8549,"itud":8550,"chting":8551,"ĠNSAID":8552,"ĠKomt":8553,"ĠUnknown":8554,"ĠCMP":8555,"gankelijk":8556,"ival":8557,"Ġgoedgekeurd":8558,"ĠLaatste":8559,"ĠArter":8560,"Ġile":8561,"Ġovert":8562,"omeg":8563,"Ġverslechtering":8564,"Ġlangdurig":8565,"Ġveroorzaakte":8566,"verzeker":8567,"ĠKNO":8568,"OD":8569,"verst":8570,"unctionele":8571,"Ġpast":8572,"Ġuitste":8573,"Ġbeval":8574,"Ġhervat":8575,"Ġdelayed":8576,"Ġkleur":8577,"ĠHuisartsen":8578,"oelde":8579,"umb":8580,"Ġtien":8581,"Ġamylo":8582,"Ġincompatible":8583,"ĠBijzonderheden":8584,"Ġtechnieken":8585,"Ġwijten":8586,"Ġ#-#%.":8587,"gery":8588,"->":8589,"Operator":8590,"ĠopPlus":8591,"ĠintOperator":8592,"ĠNeu":8593,"beerd":8594,"Opdrachten":8595,"year":8596,"Ġopgemerkt":8597,"ĠFurosemide":8598,"Text":8599,"Ġpleister":8600,"oepen":8601,"icip":8602,"positieve":8603,"activatie":8604,"Ġram":8605,"ĠLo":8606,"Ġwille":8607,"iÃ«nt":8608,"Ġbeeldkwaliteit":8609,"Ġprakt":8610,"omvang":8611,"Ġkru":8612,"Ġbewezen":8613,"ĠDevice":8614,"Ġlaboratoriumonderzoek":8615,"Ġpak":8616,"Ritme":8617,"mech":8618,"Ġechocardiografisch":8619,"67":8620,"instantie":8621,"ĠUitgebreide":8622,"ĠRelevante":8623,"adolinium":8624,"Ġbegrip":8625,"85":8626,"ĠHulp":8627,"ĠAH":8628,"Ġcommentaar":8629,"ffer":8630,"iasis":8631,"Ġangiot":8632,"ĠAmerik":8633,"Ġtoekomstige":8634,"ĠMeth":8635,"Ġdominance":8636,"ĠMonitor":8637,"apping":8638,"ĠValsalva":8639,"Ġremming":8640,"Ġrook":8641,"stelsel":8642,"Ġprogressief":8643,"Ġ(=":8644,"Ġoverigens":8645,"Ġtwijf":8646,"Ġlastig":8647,"GS":8648,"Ġprocedures":8649,"ĠPSA":8650,"Ġglobale":8651,"Ġvermoeden":8652,"Ġondersteund":8653,"Ġvitro":8654,"opathische":8655,"Ġovergang":8656,"Ġwetenschap":8657,"Ġparoxismaal":8658,"percentage":8659,"Ġdetails":8660,"Ġem":8661,"Ġgerandomiseerd":8662,"Ġfunctioneel":8663,"groe":8664,"ĠWest":8665,"Ġbehandelend":8666,"Ġcirculatie":8667,"Ġplots":8668,"termijn":8669,"Ġwillekeur":8670,"acarcinoom":8671,"Ġconsensus":8672,"Ġchildren":8673,"atabase":8674,"oef":8675,"Ġepicardiale":8676,"Ġdaaropvolgende":8677,"sequenties":8678,"Ġzekerheid":8679,"Ġpercentages":8680,"Ġregulair":8681,"Ġgewoon":8682,"lanke":8683,"Ġinitiatief":8684,"Ġgeselecteerd":8685,"Ġpalpabel":8686,"ĠProf":8687,"Ġidee":8688,"sessment":8689,"ĠrÃ¶ntgen":8690,"outen":8691,"Ġpob":8692,"Ġcla":8693,"Ġweekend":8694,"ĠLever":8695,"-#>)":8696,"Ġbisoprolol":8697,"oplossing":8698,"ĠDis":8699,"ĠAtheros":8700,"ĠgeÃ¯ndiceerd":8701,"Ġconst":8702,"ĠmM":8703,"Ġheart":8704,"ĠCKD":8705,"chemie":8706,"stadium":8707,"toppen":8708,"ton":8709,"Ġpresenteert":8710,"Ġonderscheid":8711,"ĠStudies":8712,"uctie":8713,"Ġatriaal":8714,"Ġreanimatie":8715,"Ġvorig":8716,"XT":8717,"Ġsupraventriculaire":8718,"zorginstantie":8719,"Ġmetastasen":8720,"Ġinspanningstest":8721,"amenteus":8722,"Ġmacrofagen":8723,"LM":8724,"entan":8725,"Ġ(#/":8726,"ĠEv":8727,"beschadiging":8728,"Ġdiepe":8729,"kinson":8730,"celcarcinoom":8731,"Ġprolaps":8732,"UC":8733,"achtig":8734,"Ġverbre":8735,"ĠMeest":8736,"quÃª":8737,"Ġcentrum":8738,"Ġbicuspide":8739,"onaat":8740,"rotische":8741,"ĠScore":8742,"verdi":8743,"Ġgesla":8744,"Ã¶rd":8745,"ĠInstit":8746,"Ġscherp":8747,"Ġinstrument":8748,"inte":8749,"ĠChirurg":8750,"ĠDen":8751,"aritmie":8752,"Ġhersteld":8753,"ĠAtria":8754,"Ġmembraan":8755,"#=#,":8756,"orst":8757,"Ġzeven":8758,"Ġhartritmestoornissen":8759,"Ġgezond":8760,"yreoid":8761,"Ġverna":8762,"Ġbrad":8763,"ĠLAB":8764,"Neven":8765,"Â®":8766,"Ġopinion":8767,"Ġoverweging":8768,"relatie":8769,"Ġprothese":8770,"Ġslechter":8771,"ĠaVF":8772,"ablokkers":8773,"Ġoutcom":8774,"ĠSlank":8775,"Tn":8776,"Ġjicht":8777,"Ġorder":8778,"zine":8779,"Ġconcentrische":8780,"Ġverkrijgen":8781,"Ġtoeval":8782,"Ġschrift":8783,"Ġfibro":8784,"Ġpathogenese":8785,"Ġdown":8786,"Ġvoorspeller":8787,"mend":8788,"ĠBattery":8789,"ai":8790,"nov":8791,"Ġmeetwaarden":8792,"zyg":8793,"Ġslagader":8794,"ĠAfdeling":8795,"Ġins":8796,"ĠStichting":8797,"Ġherhaal":8798,"did":8799,"rochl":8800,"ogroep":8801,"IC":8802,"matisch":8803,"Ġpulm":8804,"ĠSy":8805,"):>#":8806,"UCH":8807,"bradycardie":8808,"Ġ#]":8809,"plastiek":8810,"Ġha":8811,"Ġ38":8812,"Ġpm":8813,"iveerd":8814,"Ġpalpitatieklachten":8815,"schappelijk":8816,"Ġ#%;":8817,"ĠPCR":8818,"jr":8819,"Ġmigraine":8820,"ĠAtypische":8821,"iazide":8822,"Vaat":8823,".[":8824,"arterie":8825,"Ġgecont":8826,"ĠThoracale":8827,"Ġbias":8828,"Ġ#.#;":8829,"Ġmoleculaire":8830,"LP":8831,"Ġfem":8832,"Ġprik":8833,"lering":8834,"Ġintracran":8835,"hel":8836,"Ġving":8837,"VS":8838,"Ġmat":8839,"prote":8840,"Ġlijst":8841,"ubeerd":8842,"Ġmyel":8843,"Ġverwijs":8844,"plo":8845,"Ġmultidisciplinaire":8846,"ĠAssociation":8847,"Ġvirale":8848,"ĠRoutine":8849,"ĠDoppler":8850,"Ġontslagbrief":8851,"Ġcrepitaties":8852,"Ġechtgenote":8853,"fus":8854,"31":8855,"moeder":8856,"Ġidi":8857,"Ġ31":8858,"yct":8859,"Ġgecombineerde":8860,"ĠME":8861,"osa":8862,"Ġ-,":8863,"Ġnuchtere":8864,"Ġbatterij":8865,"Ġabces":8866,"Ġzorgverleners":8867,"Ġeryth":8868,"axatie":8869,"Ġmoeiz":8870,"ĠÎ±":8871,"eGFR":8872,"riep":8873,"ĠgeÃ¯soleerd":8874,"Ġzachte":8875,"Ġeth":8876,"Ġsamengesteld":8877,"ogeniteit":8878,"Ġzelfstandig":8879,"umato":8880,"Diagnose":8881,"ricuspidale":8882,"itaire":8883,"Ġnogmaals":8884,"gevoeligheid":8885,"pendectomie":8886,"Ġdaarmee":8887,"hypertens":8888,"Ġpmol":8889,"quÃªte":8890,"Ġboog":8891,"juvante":8892,"PO":8893,"ima":8894,"Ġdaardoor":8895,"ureus":8896,"Ġdrugs":8897,"ĠmiRNA":8898,"heer":8899,"Ġdoorgemaakte":8900,"Ġgerookt":8901,"ficiÃ«ntie":8902,"Ġgadolinium":8903,"Ġextern":8904,"oftware":8905,"44":8906,":-":8907,"undeltak":8908,"mate":8909,"valvulaire":8910,"ĠCan":8911,"ems":8912,"ageren":8913,"Ġrode":8914,"chec":8915,"Ġetc":8916,"ount":8917,"inname":8918,"lichtings":8919,"ĠStenosis":8920,"ĠGlobaal":8921,"scap":8922,"Ġvoorste":8923,"Ġdragen":8924,"escentie":8925,"aarne":8926,"Ġantwoord":8927,"Ġbevatten":8928,"Ġnitraat":8929,"Rec":8930,"ĠSlanke":8931,"Ġkern":8932,"ALAT":8933,"ateral":8934,"Ġmyocardium":8935,"uitslagen":8936,"Ġos":8937,"gemedieerde":8938,"Ġmicrogram":8939,"anke":8940,"Ġsterf":8941,"ailure":8942,"ĠSG":8943,"asalaat":8944,"Ġarg":8945,"Behandeling":8946,"Ġvloeistof":8947,"Ġnormal":8948,"ometrische":8949,"sproblemen":8950,"Ġhol":8951,"Ġdrinken":8952,"ĠRNA":8953,"Ġinhoud":8954,"Ġtelemetrie":8955,"Ġprofylaxe":8956,"uurt":8957,"Ġhan":8958,"escent":8959,"Ġcort":8960,"Ġveronder":8961,"]/":8962,"Onderzoek":8963,"genen":8964,"ĠDC":8965,"39":8966,"Ġtranscript":8967,"Ġyears":8968,"otrope":8969,"iro":8970,"Ġvoorheen":8971,"Ġbeschouw":8972,"aandoeningen":8973,"Ġpse":8974,"Ġvoorspell":8975,"Ġvakantie":8976,"Ġdikke":8977,"ĠGec":8978,"ĠVerhoogde":8979,"Ġwant":8980,"mGy":8981,"Ġzware":8982,"Ġ#;#<":8983,"Ġreceptie":8984,"Ġofwel":8985,"Ġafstand":8986,"Ġbact":8987,"Ġspect":8988,"Ġglomer":8989,"cluder":8990,"arly":8991,"mata":8992,"entegen":8993,":|":8994,"ĠAst":8995,"Ġbewegings":8996,"Ġgecombineerd":8997,"ĠCPAP":8998,"ian":8999,"Ġthans":9000,"ĠDE":9001,"Ġorgaan":9002,"Ġcrepiteren":9003,"Ġopnames":9004,"diabet":9005,"Ġscores":9006,"Indien":9007,"ĠKinder":9008,"eenkomst":9009,"Ġongecompliceerde":9010,"ontsteking":9011,"PP":9012,"minste":9013,"Clopidogrel":9014,"ofol":9015,"athologie":9016,"Ġleads":9017,"ĠPTCA":9018,"kweek":9019,"ĠIndi":9020,"Ġleeftijdsgroep":9021,"Ġsepsis":9022,"ĠImpl":9023,"luen":9024,"Ġvervaardigd":9025,"Ġcarcinoom":9026,"Ġdunne":9027,"Ġsymptomatisch":9028,"pos":9029,"48":9030,"STATE":9031,"Ġverwijzen":9032,"formed":9033,"Ġinductie":9034,"Ġinfusie":9035,"Ġinplannen":9036,"ĠScreening":9037,"Ġshocks":9038,"Acetylsalicylzuur":9039,"Ġbepaling":9040,"arter":9041,"Ġextrasystolen":9042,"Ġirreg":9043,"ycturie":9044,"suffic":9045,"ĠMicro":9046,"ĠHartfalen":9047,"bladen":9048,"ĠBeide":9049,"ĠSe":9050,"ravastatine":9051,"Ġhinder":9052,"xtra":9053,"Ġondersteunen":9054,"snede":9055,"Ġiedere":9056,"elevatie":9057,"Ġcompar":9058,"ĠResultaten":9059,"Ġsublinguaal":9060,"patient":9061,"erve":9062,"ĠRW":9063,"stap":9064,"ĠgeÃ¯soleerde":9065,"Ġfac":9066,"Ġcentraal":9067,"Ġsystolisch":9068,"ĠVerschillende":9069,"Ġvoorzitter":9070,"ĠMVP":9071,"ĠCAR":9072,"Ġschrijven":9073,"iÃ«mie":9074,"Ġherziening":9075,"ĠEL":9076,"Ġlekkage":9077,"ĠZowel":9078,"circ":9079,"Ġnierziekte":9080,"Ġbesliss":9081,"proces":9082,"Ġzelden":9083,"osc":9084,"Ġvi":9085,"Ġexpert":9086,"UN":9087,"Air":9088,"Ġdiverticul":9089,"yes":9090,"Ġopdrachten":9091,"Ġduring":9092,"perspectief":9093,"Ġacquisitie":9094,"Ã¯d":9095,"Ġdaarvoor":9096,"ĠRIP":9097,"Ġgespec":9098,"ĠMid":9099,"ĠMRA":9100,"ĠOpmerking":9101,"Ġ(>#/#":9102,"atrie":9103,"ĠElektrofysi":9104,"CMP":9105,"Ġgegenereerd":9106,"asme":9107,"virus":9108,"zin":9109,"ĠPoliklinisch":9110,"schatting":9111,"Ġneon":9112,"oepel":9113,"Ġment":9114,"menop":9115,"Ġgeruis":9116,"ijfheid":9117,"Ġoss":9118,"Ġstructuren":9119,"Ġcirrose":9120,"Ã¼":9121,"ĠIgG":9122,"werkend":9123,"Ġdoubl":9124,"net":9125,"Ġdysf":9126,"Hypercholesterolemie":9127,"Ġ32":9128,"Ġsubclavia":9129,"Ġmeldde":9130,"201":9131,"ĠEGFR":9132,"ĠNeg":9133,"Ġtransm":9134,"Ġangiotensine":9135,"Ġonbekende":9136,"Ġbleven":9137,"Ġseptale":9138,"Ġprecordiale":9139,"raction":9140,"Ġvoorkomt":9141,"Ġnas":9142,"auze":9143,"Ġcommunicatie":9144,"esse":9145,"Ġcl":9146,"Ġ#(#)":9147,"Ġgrotendeels":9148,"Ġuitval":9149,"rode":9150,"ĠRT":9151,"laagde":9152,"iepen":9153,"beg":9154,"Ġherseninfarct":9155,"essant":9156,"Ġinsulineresistentie":9157,"rofielen":9158,"ĠHierna":9159,"Hoe":9160,"istratie":9161,"cyt":9162,"nucleair":9163,"Ġvirus":9164,"paraten":9165,"ĠHAS":9166,"Ġ(-":9167,"duceerd":9168,"omenteel":9169,"Ġkunst":9170,"invasieve":9171,"stre":9172,"Ġepidemi":9173,"loos":9174,"bp":9175,"ĠBM":9176,"Ġdikte":9177,"persoon":9178,"ĠNon":9179,"Ġ#,#.":9180,"eringen":9181,"gebaseerde":9182,"yreoidie":9183,"Ġonderliggend":9184,"Ġcatheter":9185,"Ġmilj":9186,"Laatst":9187,"sor":9188,"Ġberust":9189,"Ġ55":9190,"Ġtrombo":9191,"Ġsubtotale":9192,"Ġprofiel":9193,"Ġdefinities":9194,"Ġdilaterende":9195,"Ġadviseur":9196,"Normaal":9197,"Ġsamenwerking":9198,"Ġmetabool":9199,"asp":9200,"kop":9201,"Toegang":9202,"reactief":9203,"carb":9204,"Ġtert":9205,"Ġzon":9206,"Ġtypisch":9207,"blad":9208,"immuun":9209,"Ġdiagonaal":9210,"oversie":9211,"hen":9212,"Ġnamen":9213,"zi":9214,"Ġtijdstip":9215,"clip":9216,"Ġbleken":9217,"dend":9218,"ivity":9219,"axon":9220,"Ġstrain":9221,"Ġleukocyten":9222,"Ġreumat":9223,"voering":9224,"Ġgeopereerd":9225,"Ġslok":9226,"Ġtijdelijke":9227,"Ġlongitud":9228,"Ġaortab":9229,"Ġzus":9230,"Ġlumen":9231,"Bijzonderheden":9232,"Ġindirect":9233,"ĠAmiodaron":9234,"durende":9235,"Ġtere":9236,"Ġanastomose":9237,"AGB":9238,"intie":9239,"ds":9240,"Ġ#,#,":9241,"43":9242,"Ġsen":9243,"olsel":9244,"SPECT":9245,"Ġvoorgesteld":9246,"gedrag":9247,"ataract":9248,"asalaatcalcium":9249,"onderdag":9250,"Ġbedrij":9251,"Radiation":9252,"Ġlinkerhart":9253,"intestinale":9254,"ĠSociety":9255,"ĠEerder":9256,"section":9257,"velop":9258,"Ġtachyc":9259,"oename":9260,"antwoordelijke":9261,"Ġrespiratoire":9262,"Ġamp":9263,"Ik":9264,"just":9265,"ificante":9266,"Ġintro":9267,"ĠClopidogrel":9268,"Ġverzeker":9269,"ĠLan":9270,"ĠHa":9271,"Ġafgrens":9272,"esl":9273,"Ġanterol":9274,"Ġhypothese":9275,"Ġaangemeld":9276,"Ġtit":9277,"functies":9278,"vr":9279,"Ġmaligne":9280,"Ġhaal":9281,"Ġfit":9282,"IR":9283,"NOAC":9284,"dilol":9285,"Ġwaarmee":9286,"ĠOrale":9287,"umptie":9288,"Ġreviews":9289,"osociale":9290,"USIE":9291,"neur":9292,"mak":9293,"Meer":9294,"indicaties":9295,"GR":9296,"facten":9297,"Ġresonantie":9298,"Ġlokaal":9299,"echn":9300,"Ġonderstaande":9301,"mpedantie":9302,"veld":9303,"bese":9304,"imum":9305,"ĠASA":9306,"Ġdepressieve":9307,"ating":9308,"Ġtrac":9309,"ernstige":9310,"otricuspidale":9311,"Ġbifurcatie":9312,"Ġlinkeratrium":9313,"ĠRest":9314,"itieel":9315,"ĠMET":9316,"Ġcontrolled":9317,"vedilol":9318,"Ġproduc":9319,"hydratie":9320,"ĠPHT":9321,"Ġerop":9322,"idose":9323,"TC":9324,"ĠBeloop":9325,"ograph":9326,"ĠBur":9327,"Ġborder":9328,"):#.#":9329,"kru":9330,"deviatie":9331,"{\\":9332,"ĠDI":9333,"ĠEven":9334,"tetrofosmine":9335,"ĠWoonplaats":9336,"cline":9337,"aggreg":9338,"ekt":9339,"ĠPTA":9340,"alijden":9341,"Ġuitgedrukt":9342,"orbide":9343,"ESA":9344,"hyp":9345,"uraal":9346,"ĠPe":9347,"zout":9348,"Ġvolto":9349,"gegaan":9350,"Ġdetecteren":9351,"ĠUI":9352,"ĠInitiatief":9353,"88":9354,"Ġdoi":9355,"Ġectopie":9356,"antozol":9357,"Ġvariant":9358,"Ġhartcatheterisatie":9359,"financier":9360,"arget":9361,"Ġpsychische":9362,"Ġmelan":9363,"ĠDDDR":9364,"Ġpatienten":9365,"ĠPostoperatief":9366,"Ġkaak":9367,"Ġbijdrage":9368,"Ġorganisatie":9369,"Ġgenetisch":9370,"schatte":9371,"siek":9372,"Ġretinopathie":9373,"itatief":9374,"Ġovar":9375,"pleet":9376,"ĠPantoprazol":9377,"ventriculair":9378,"hand":9379,"Ġhiel":9380,"Ġinstellingen":9381,"ĠMM":9382,"irp":9383,"bew":9384,"Ġmoeheid":9385,"Ġcommissie":9386,"Ġelektrocardi":9387,"ĠVerdere":9388,"Ġaortaklepvervanging":9389,"ĠKN":9390,"Ġrij":9391,"Ġangineuze":9392,"Ġsterfgevallen":9393,"Ġfietsergometrie":9394,"schien":9395,"ĠForse":9396,"umol":9397,"ĠRisk":9398,"Ġschatten":9399,"oporose":9400,"Ġbesluitvorming":9401,"dan":9402,"Ġdos":9403,"Ġeetlust":9404,"Ġicc":9405,"stu":9406,"ĠActuele":9407,"Ġpresenteren":9408,"iater":9409,"katheterisatie":9410,"Ġpr":9411,"Ġverbetert":9412,"Ġbiopt":9413,"Ġcontractiliteit":9414,"Ġuitvoeren":9415,"ML":9416,"Ġgeprobeerd":9417,"molec":9418,"Ġ('":9419,"Ġveneus":9420,"MH":9421,"verz":9422,"Ġgevoelig":9423,"Ġ34":9424,"Ġtekort":9425,"ĠParoxysmaal":9426,"embolie":9427,"ĠRust":9428,"ĠVolgende":9429,"ikstof":9430,"ĠUp":9431,"Ġgelukt":9432,"Ġsem":9433,"itraat":9434,"Ġgeconstat":9435,"ithiasis":9436,"ialen":9437,"overzicht":9438,"ĠDiagnostiek":9439,"itive":9440,"ASAT":9441,"KA":9442,"inal":9443,"Ġvererger":9444,"rict":9445,"Ġfarmacologische":9446,"illair":9447,"Ġhetgeen":9448,"Ġroute":9449,"spray":9450,"Ġather":9451,"parameters":9452,"Ġhuisartsenpraktijk":9453,"Ġopening":9454,"elingen":9455,"Ġnadel":9456,"Ġsetting":9457,"Ġorthopneu":9458,"endoc":9459,"Ġremissie":9460,"situatie":9461,"wangerschap":9462,"gepland":9463,"ĠCare":9464,"sk":9465,"Ġgeactiv":9466,"rim":9467,"icard":9468,"Ġfalen":9469,"Ġbedo":9470,"gaat":9471,",:":9472,"middag":9473,"renzen":9474,"Ġhemodynamisch":9475,"Ġaangeboden":9476,"Ġadipositas":9477,"alapril":9478,"Ġcirculerende":9479,"Ġonwaarschijnlijk":9480,"Ġmyocardischemie":9481,"Ġenzymen":9482,"Ġcontractiepatroon":9483,"Ġoorsprong":9484,"Ġbioch":9485,"WK":9486,"ĠHD":9487,"spunten":9488,"Ġhs":9489,"Ġdoorgaan":9490,"ymfocyten":9491,"Ġaldaar":9492,":#.":9493,"orale":9494,"pak":9495,"Ġprospectief":9496,"Ġsternotomie":9497,"Ġvasculitis":9498,"Ġopgestuurd":9499,"Ġbetrouwbare":9500,"tem":9501,"#-#:":9502,"Ġmultipele":9503,"ĠVA":9504,"ceptie":9505,"ĠOnderstaande":9506,"32":9507,"ĠTABL":9508,"ĠfinanciÃ«le":9509,"Ġfrag":9510,"Ġpg":9511,"secret":9512,"Ġcook":9513,"Ġverlengd":9514,"Ġborderline":9515,"ĠDerhalve":9516,"Ġdobutamine":9517,"Ġâī¤":9518,"Ġsamengevat":9519,"ĠCTR":9520,"ĠVE":9521,"oxy":9522,"passingen":9523,"Ġsystematisch":9524,"lit":9525,"ability":9526,"Ġexacerb":9527,"Ġparoxys":9528,"ĠAdres":9529,"Ġveilig":9530,"odel":9531,"Ġstolling":9532,"leng":9533,"Ġresponse":9534,"ĠAchtergrond":9535,"Ã«le":9536,"Glucose":9537,"Ġvoorwaarden":9538,"Ġgaven":9539,"ĠWaarschijnlijk":9540,"atoir":9541,"Ġlekker":9542,"Ġborstkanker":9543,"ograft":9544,"Aandachtspunt":9545,"ekent":9546,"Ġarmen":9547,"Ġweefsels":9548,"Res":9549,"Ġdegeneratieve":9550,"epis":9551,"ĠFU":9552,"Ġtenminste":9553,"metastasen":9554,"ĠGeneeskunde":9555,"Ġstenoses":9556,"okter":9557,"Ġcave":9558,"Ġverdo":9559,"Ġtherapeutisch":9560,"68":9561,"Ġkoude":9562,"Ġfil":9563,"ĠOverleg":9564,"Ġbevestigde":9565,"irpatie":9566,"Ġgeleid":9567,"ĠDuitsland":9568,"Ġlineaire":9569,"opten":9570,"fyse":9571,"Ġ),":9572,"agekeken":9573,"alpitaties":9574,"ĠGUCH":9575,"Ġcerebro":9576,"Ġhandha":9577,"ĠKCL":9578,"behandelde":9579,"Ġnierinsufficientie":9580,"Ġnadere":9581,"ĠSport":9582,"Ġmonsters":9583,"Time":9584,"deerd":9585,"komende":9586,"Atriumfibrilleren":9587,"Ġarbe":9588,"esthesie":9589,"64":9590,"Ġvertraag":9591,"Ġmoest":9592,"Ġwaarom":9593,"septum":9594,"ĠPersist":9595,"ĠProxim":9596,"dys":9597,"Ġtijde":9598,"Ġingrepen":9599,"ĠNooit":9600,"Ġalert":9601,"Ġvullings":9602,"Ġindicatoren":9603,"ĠlipoproteÃ¯ne":9604,"Ġherhaling":9605,"ENOS":9606,"ĠGezondheids":9607,"ĠMede":9608,"Ġ[âĢĵ":9609,"DE":9610,"Ġlichaamsgewicht":9611,"Ġsuperior":9612,"Ġendotheelcellen":9613,"Ġweke":9614,"#):":9615,"vandaag":9616,"Ġfla":9617,"ĠIntra":9618,"DC":9619,"ĠIschemie":9620,"Ġverwachten":9621,"chi":9622,"ĠMMP":9623,":#,":9624,"Ġzorgvul":9625,"Ġvererg":9626,"Ġbetekent":9627,"osteron":9628,"arri":9629,"breng":9630,"Ġontvingen":9631,"Ġgalblaas":9632,"ksel":9633,",[":9634,"ĠRadiologie":9635,"glyc":9636,"Ġultra":9637,"ĠVerapamil":9638,"ĠEC":9639,"ĠOx":9640,"Ġingen":9641,"prol":9642,"DES":9643,"stil":9644,"dieningsweg":9645,"Ġmultivariate":9646,"ĠElect":9647,"route":9648,"ĠChina":9649,"ĠDataLinQ":9650,"TP":9651,"Ġpublicatie":9652,"Ġadditionele":9653,"Ġuren":9654,"Collater":9655,"Ġveranderde":9656,"Ġremmen":9657,"ĠVrij":9658,"Ġanderen":9659,"Ġwire":9660,"Ġonregel":9661,"Wat":9662,"Ġuitbreiding":9663,"Ġverkalkte":9664,"pes":9665,"ameth":9666,"Ġverzorg":9667,"Ġvooruit":9668,"ĠTijd":9669,"ward":9670,"Ġpub":9671,"Ġschatting":9672,"ket":9673,"ĠIntercollegiaal":9674,"vere":9675,"arenchym":9676,"Ġexterne":9677,"NYHA":9678,"aarden":9679,"interventie":9680,"Ġrepolarisatiestoornissen":9681,"Ġontvang":9682,"steld":9683,"wekbaar":9684,"Aber":9685,"Ġpijnlijke":9686,"omegalie":9687,"Ġpeptide":9688,"ĠJA":9689,"\".":9690,"Ġred":9691,"Ġamin":9692,"aise":9693,"spective":9694,"generatie":9695,"Ġticagrelor":9696,"ulf":9697,"ĠNew":9698,"ĠForm":9699,"blokkers":9700,"Ġhemor":9701,"antil":9702,"Ġfibrilleren":9703,"Ġverstre":9704,"Ġvitale":9705,"ional":9706,"lopend":9707,"ott":9708,"ratieve":9709,"Ġdaalde":9710,"ĠIr":9711,"Ġguidel":9712,"Ġgenoemde":9713,"aÃ¯ne":9714,"Ġkreatinine":9715,"oxiciteit":9716,"Ġpalliatieve":9717,"klist":9718,"Ġkijken":9719,"ĠAntistolling":9720,"rep":9721,"CAD":9722,"Ġ33":9723,"ĠCalcium":9724,"ĠAGB":9725,"Ġveranderen":9726,"Ġzoeken":9727,"Ġontdekt":9728,"rolyten":9729,"actieve":9730,"Ġsigar":9731,"Ġpersoonlijke":9732,"mcg":9733,"Ġontwat":9734,"profiel":9735,"kten":9736,"Ġdoods":9737,"Ġgetoond":9738,"Ġplek":9739,"romat":9740,"vrije":9741,"Ġopties":9742,"Ġverwijdering":9743,"ĠSom":9744,"stuk":9745,"vasculair":9746,"proble":9747,"pervis":9748,"ĠUrine":9749,"coronair":9750,"utum":9751,"')":9752,"Ġoesofag":9753,"Furosemide":9754,"Ġexperimenten":9755,"Ġsubgroep":9756,"roloog":9757,"57":9758,"Ġprov":9759,"Score":9760,"modellering":9761,"Ġparacetamol":9762,"ustained":9763,"Ġrelaties":9764,"Ġmeen":9765,"Ġzwang":9766,"arese":9767,"will":9768,"Ġalbumine":9769,"Ġsystematic":9770,"ĠSympt":9771,"Ġantihypertens":9772,"ĠFietsergometrie":9773,"Ġfront":9774,"ĠImm":9775,"Ġopmerkelijk":9776,"Ġcavotricuspidale":9777,"ĠVit":9778,"igt":9779,"Ġdrainage":9780,"tingen":9781,"knoop":9782,"bevinding":9783,"Ġonmiddellijk":9784,"ĠDefin":9785,"Ġpil":9786,"Ġsinustachycardie":9787,"yme":9788,"Ġextre":9789,"Ġmarg":9790,"ĠAanbeveling":9791,"uim":9792,"Ġgecorrel":9793,"Ġdiscussie":9794,"Ġsneller":9795,"mus":9796,"Ġechocardiografische":9797,"ĠgeÃ¯m":9798,"ĠEG":9799,"eftri":9800,"Ġblijk":9801,"fecteerde":9802,"Ġbenauwdheid":9803,"Ġcookies":9804,"Ã¯nen":9805,"odialyse":9806,"beloop":9807,"Ġafbouwen":9808,"verlagende":9809,"tomografie":9810,"ally":9811,"Ġcomponenten":9812,"umulatie":9813,"afd":9814,"ĠDiff":9815,"rax":9816,"Ġpromin":9817,"ĠNieuws":9818,"ocytose":9819,"informatie":9820,"iveren":9821,"cap":9822,"ypes":9823,"Extremiteiten":9824,"Ġrestrictie":9825,"ĠGebruikt":9826,"spercentage":9827,"isin":9828,"Ġontwikkelingen":9829,"Ġtaal":9830,"NOS":9831,"iguratie":9832,"IL":9833,"reigende":9834,"Ġcarb":9835,"Ġhev":9836,"antwoorden":9837,"othe":9838,"Ġbuis":9839,"69":9840,"auw":9841,"rent":9842,"Ġledem":9843,"prof":9844,"ĠgradiÃ«nt":9845,"Ġomgezet":9846,"TEXT":9847,"atriale":9848,"ORAT":9849,"Ġperfusiedefecten":9850,"asaal":9851,"Ġslapen":9852,"ĠHeden":9853,"Ġverdikt":9854,"Ġare":9855,"Ġschaal":9856,"ĠClinical":9857,"itivity":9858,"gestie":9859,"insdag":9860,"ĠPerifeer":9861,"ĠKreatinine":9862,"vle":9863,"ysma":9864,"Ġzinvol":9865,"Ġmictie":9866,"Ġbased":9867,"Ġinduceren":9868,"Ġbloedcellen":9869,"Ġneuropathie":9870,"Ġleverziekte":9871,"tg":9872,"Ġvals":9873,"ĠVervolg":9874,"Ġgenezen":9875,"ĠTechn":9876,"antagonisten":9877,"Ġoverslagen":9878,"Ġcomplete":9879,"ata":9880,"Ġcasus":9881,"BR":9882,"vious":9883,"Patient":9884,"Door":9885,"ietrouw":9886,"Ġgepubliceerde":9887,"Ġmonom":9888,"ĠInjectie":9889,"Ġneurop":9890,"reversib":9891,"Ġbevestigen":9892,"Ġnvt":9893,"FN":9894,"Ġzaken":9895,"cluderend":9896,"ĠEerste":9897,"justed":9898,"Ġintensieve":9899,"ĠInspanning":9900,"verdun":9901,"Ġzu":9902,"taille":9903,"Ġvoorspellers":9904,"Ġconceptrichtlijn":9905,"Ġanticoagulantia":9906,"Ġbijwerking":9907,"LIMA":9908,"iculaire":9909,"bouwing":9910,"Ca":9911,"Ġeindpunt":9912,"Ingepland":9913,"scores":9914,"its":9915,"ischemische":9916,"Ġvoorzicht":9917,"Ġuterus":9918,"Ġonderwandinfarct":9919,"Ġinderdaad":9920,"ada":9921,"ĠRef":9922,"ĠDec":9923,"metabolisme":9924,"Ġcollageen":9925,"Ġtwijfel":9926,"ĠType":9927,"Ġminstens":9928,"laesies":9929,"ondyl":9930,"isis":9931,"Ġsm":9932,"Ġobstipatie":9933,"ZN":9934,"lox":9935,"Ġtal":9936,"ĠbacteriÃ«le":9937,"ruppels":9938,"Ġverbl":9939,"ĠKennisinstituut":9940,"Ġgecorreleerd":9941,"Ġcutaan":9942,"compen":9943,"ĠArts":9944,"Ġhierna":9945,"Ġongew":9946,"-.":9947,"oride":9948,"pleren":9949,"gramm":9950,"Ġgeconstateerd":9951,"89":9952,"Ġidentificatie":9953,"iforme":9954,"ĠGering":9955,"ĠToedieningsweg":9956,"etal":9957,"Ġauton":9958,"ultuur":9959,"itoneale":9960,"Ġkandid":9961,"symptomen":9962,"olecalc":9963,"porten":9964,"ĠSur":9965,"sufficintie":9966,"ĠErnstig":9967,"ĠHNP":9968,"erken":9969,"Vrouw":9970,"STEMI":9971,"uin":9972,"ulator":9973,"otropie":9974,"ĠContrast":9975,"ĠVergelijk":9976,"ĠTG":9977,"Ġ39":9978,"Ġkra":9979,"ernaal":9980,"ĠGeschatte":9981,"ĠDVT":9982,"ĠGedurende":9983,"ĠWatt":9984,"ijkt":9985,"stherapie":9986,"Ġkwart":9987,"Ġingenomen":9988,"Ġgeform":9989,"66":9990,"Ġpoeder":9991,"Ġzoveel":9992,"Ġinstructie":9993,"orect":9994,"Ġbloedglucose":9995,"Ġgepaced":9996,"ĠLead":9997,"osom":9998,"ĠPH":9999,"Ã¨re":10000,"Ġgewenst":10001,"Ġinstellen":10002,"Ġ#%-":10003,"nacht":10004,"ilep":10005,"braak":10006,"Ġadol":10007,"allel":10008,"Ġpy":10009,"Ġcomorbiditeiten":10010,"Ġherhaald":10011,"Ġverbinding":10012,"Ġoest":10013,"Ġproducten":10014,"ORDER":10015,"Ġbeantwoorden":10016,"Ġapixaban":10017,"Schema":10018,"Ġlezen":10019,"arg":10020,"resectie":10021,"Ġbeper":10022,"Ġov":10023,"Ġmater":10024,"omeen":10025,"Ġaangevraagd":10026,"Ġwandelen":10027,"Ġ<#.#":10028,"Ġpancreat":10029,"Ġprikkel":10030,"ience":10031,"Ġrelaxatie":10032,"Ġdominantie":10033,"Ġurineweginfectie":10034,"Ġbevalling":10035,"ĠAtherosclerose":10036,"factoren":10037,"Ġerf":10038,"ĠTelefonisch":10039,"ĠStenose":10040,"oorth":10041,"ationaal":10042,"Ġabsolute":10043,"ĠWas":10044,"ĠMomenteel":10045,"Ġgemen":10046,"bio":10047,"Ġvoren":10048,"42":10049,"lege":10050,"verh":10051,"Ġbeschikbaarheid":10052,"compensatio":10053,"Actieve":10054,"Ġverspreid":10055,"Ġinflamm":10056,"Ġlangetermijn":10057,"Ġautorijden":10058,"Ġgestoorde":10059,"Ġdaarnaast":10060,"Ġautomatisch":10061,"verklaring":10062,"neuropathie":10063,"endatabase":10064,"Ġvoorgaande":10065,"Ġdoodsoor":10066,"acties":10067,"iose":10068,"osomen":10069,"namnestisch":10070,"Ġbu":10071,"Acenocoumarol":10072,"moeid":10073,"ĠpH":10074,"tend":10075,"Ġweder":10076,"Ġcoronarialijden":10077,"Ġslokdarm":10078,"ucleaire":10079,"Ġmalen":10080,"Ġsequ":10081,"Ġbovenbuik":10082,"+/-":10083,"Ġumol":10084,"Ġmammacarcinoom":10085,"ĠVER":10086,"woorden":10087,"ĠNet":10088,"Ġbaar":10089,"ORATORI":10090,"ĠEvidence":10091,"isinopril":10092,"ORATORIUM":10093,"nesthes":10094,"Ġgenot":10095,"ĠGeri":10096,"PCR":10097,"Ġgerelateerde":10098,"sto":10099,"Ġobservationele":10100,"ĠLid":10101,"Ã¯c":10102,"ĠUitgangs":10103,"Ġbenigne":10104,"NE":10105,"Ġverge":10106,"Ġdonderdag":10107,"acine":10108,"Ġgenoeg":10109,"uline":10110,"Ġpermanent":10111,"ĠFunctie":10112,"Ġfiguur":10113,"ĠAanvullende":10114,"ysteem":10115,"AM":10116,"werkingen":10117,"wijd":10118,"Ġland":10119,"Ġharttoon":10120,"emmering":10121,"gezondheid":10122,"lengte":10123,"Ġovereenkomst":10124,"Ġervaart":10125,"Ġingevuld":10126,"Ingreep":10127,"Ġtuberc":10128,"katheter":10129,"ĠPerindopril":10130,"Ġamplitude":10131,"Ġprocessen":10132,"Ġsigmo":10133,"ĠmitralisklepinsufficiÃ«ntie":10134,"hn":10135,"injectie":10136,"Ġpsychiatrische":10137,"Ġfailure":10138,"Dit":10139,"Ġbeenmerg":10140,"79":10141,"ingle":10142,"hang":10143,"78":10144,"jor":10145,"Ġregistreren":10146,"55":10147,"Opmerkingen":10148,"Ġscha":10149,"Ġreage":10150,"ĠCMR":10151,"Ġmonocyten":10152,"ralisklep":10153,"Ġcholecystectomie":10154,"Ġbes":10155,"rijke":10156,"Ġneo":10157,"Vul":10158,"kinase":10159,"Ġkomende":10160,"SK":10161,"Hoofdstam":10162,"ATP":10163,"reerde":10164,"ĠImplementatie":10165,"Ġnav":10166,"urese":10167,"uidig":10168,"icot":10169,"ĠFT":10170,"ĠWT":10171,"Ġletsels":10172,"ĠInstitute":10173,"rombo":10174,"bewijs":10175,"Ġmain":10176,"Ġrepresent":10177,"ĠBen":10178,"chicine":10179,"Ġherstellen":10180,"Ġrenale":10181,"ĠSJM":10182,"ĠSinus":10183,"Ġgedacht":10184,"Ġtechnicus":10185,"lead":10186,"Ġgelijktijdige":10187,"Ġrestenose":10188,"ugger":10189,"neumonie":10190,"Ġingezet":10191,"wijzen":10192,"HAS":10193,"Ġvlakke":10194,"biopsie":10195,"Ġtrig":10196,"ĠVermin":10197,"Ġkweek":10198,"ĠStaten":10199,"Ġkleppen":10200,"ikte":10201,"ilepsie":10202,"Calc":10203,"esp":10204,"Ġkamerfunctie":10205,"Ġlactaat":10206,"orpen":10207,"Ġwellicht":10208,"vallende":10209,"Ġkool":10210,"Âµmol":10211,"49":10212,"Ġechografisch":10213,"genees":10214,"mutatie":10215,"DNA":10216,"Ġzwangerschaps":10217,"sens":10218,"Ġroutinem":10219,"Ġpreoperatieve":10220,"Ġequ":10221,"Ġberekenen":10222,"Ġstikstof":10223,"ĠDF":10224,"ĠtherapieÃ«n":10225,"vlst":10226,"Ġinject":10227,"Ġgezet":10228,"ĠAcenocoumarol":10229,"Ġafzonderlijke":10230,"WH":10231,"Ġretrospectieve":10232,"ĠHoofdstam":10233,"slocatie":10234,"Ġrapporteren":10235,"ants":10236,"ĠPAP":10237,"indelijk":10238,"ĠFiet":10239,"Ġodd":10240,"Ġliteratuurconclusie":10241,"ĠStent":10242,"management":10243,"Ġtrache":10244,"eftriaxon":10245,"Ġreversibele":10246,"Ġpremature":10247,"dossier":10248,"Wij":10249,"stilstand":10250,"ascular":10251,"ondition":10252,"Ġsecond":10253,"IDS":10254,"ĠAlg":10255,"opnames":10256,"ijkomen":10257,"Ġsyndrome":10258,"Ġarth":10259,"ĠContact":10260,"ii":10261,"-#]:":10262,"Ġmitralisklepinsufficientie":10263,"ĠCox":10264,"Ġgedocumenteerd":10265,"Ġfractie":10266,"CLUSIE":10267,"ĠCE":10268,"electase":10269,"oÃ¯d":10270,"meldformulier":10271,"ensdag":10272,"vir":10273,"kweken":10274,"jan":10275,"cludeerde":10276,"Leucocyten":10277,"ĠUSA":10278,"Ġkuiten":10279,"Ġmutaties":10280,"ilis":10281,"Vaatlijden":10282,"ĠVerk":10283,"ĠMD":10284,"geld":10285,"ĠHeel":10286,"dende":10287,"zetim":10288,"ĠenquÃªte":10289,"verdikking":10290,"ĠEnige":10291,"ament":10292,"kundigen":10293,"Ġinvas":10294,"LO":10295,"ĠVerenigde":10296,"spat":10297,"Ġpsoriasis":10298,"Ġflex":10299,"ococcus":10300,"still":10301,"Ġautorisatie":10302,"Ġbo":10303,"Im":10304,"ĠBehandel":10305,"Ġgevo":10306,"Ġdef":10307,"Ġchronic":10308,"etentie":10309,"ricuspide":10310,"Ġplotse":10311,"Ġvoorgelegd":10312,"ĠFors":10313,"mechanis":10314,"Ġcran":10315,"ieert":10316,"Ġduizelingen":10317,"Ġaanged":10318,"gemeld":10319,"atisch":10320,"Ġinferoseptaal":10321,"verwijzing":10322,"Ġ(#,":10323,"Ġwan":10324,"Ġverderop":10325,"ĠAK":10326,"MM":10327,"bijvoorbeeld":10328,"Ġessentieel":10329,"Ġstoffen":10330,"Ġgram":10331,"Ġprofylactische":10332,"Ġhandhaven":10333,"Ġhandelen":10334,"sprakt":10335,"stoename":10336,"Ġmalaise":10337,"Ġjaarlijkse":10338,"ĠHeldere":10339,"Ġpredi":10340,"Ġtrombocyten":10341,"ĠVia":10342,"ĠBilirubine":10343,"Ġverzamelen":10344,"CHO":10345,"oproteÃ¯ne":10346,"ralingsdosis":10347,"Ġdomein":10348,"Ġextremiteiten":10349,"Ġ[#]":10350,"Ġmultic":10351,"aritmica":10352,"ogingen":10353,"Memo":10354,"Ġgeobject":10355,"Ġvariabele":10356,"Ã«in":10357,"Ġbescherming":10358,"Ġuitsluiten":10359,"koming":10360,"Ġstolsel":10361,"ĠWond":10362,"Ġmagnetische":10363,"Ġcardiop":10364,"efal":10365,"Ġintensive":10366,"osus":10367,"ĠTriglyceriden":10368,"ĠMESA":10369,"Ġintermitt":10370,"Ġspieren":10371,"Ġoverdag":10372,"Ġgriep":10373,"Ġbijge":10374,"fficiÃ«nt":10375,"{#":10376,"Ġdenken":10377,"ĠRFR":10378,"Ġgelaten":10379,"ĠCTC":10380,"feb":10381,"Ġoperatieve":10382,"product":10383,"Ġpropofol":10384,"Ġgestopte":10385,"Max":10386,"Ġgesugger":10387,"otherapy":10388,"ora":10389,"Ġstentplaatsing":10390,"ĠBeoor":10391,"tachycardie":10392,"Ġsigaretten":10393,"Ġentre":10394,"Ġsociaal":10395,"Bilirubine":10396,"rante":10397,"inese":10398,"varoxaban":10399,"emoglobine":10400,"Ġverv":10401,"Ġwh":10402,"Ġ%,":10403,"Ġeczeem":10404,"ferase":10405,"ĠDrug":10406,"Spironolacton":10407,"Ġkeren":10408,"ĠDermat":10409,"Ġdrukken":10410,"uderen":10411,"ĠBeg":10412,"Ġulcus":10413,"Ġanterieure":10414,"monitor":10415,"ĠNierfunctie":10416,"Ġantit":10417,"standaard":10418,"ĠZelf":10419,"schal":10420,"ĠOnc":10421,"ĠpatiÃ«ntenperspectief":10422,"Ġaanleg":10423,"arr":10424,"elekt":10425,"ĠNieuwe":10426,"ĠGastro":10427,"Ġkreat":10428,"ORA":10429,"Ġspecialisten":10430,"Ġinleiding":10431,"Ġhyperth":10432,"regels":10433,"Ġevenwicht":10434,"âī":10435,"Ġhy":10436,"Ġhormoon":10437,"ĠaortaklepinsufficiÃ«ntie":10438,"PAP":10439,"Ġdelier":10440,"Ġdubbele":10441,"zels":10442,"jaars":10443,"IU":10444,"ĠNier":10445,"Ġonregelmatige":10446,"morgen":10447,"onnee":10448,"ĠNC":10449,"Ġhoor":10450,"Ġkleiner":10451,"ether":10452,"Ġthv":10453,"ivar":10454,"BIO":10455,"EK":10456,"Eer":10457,"iÃ«r":10458,"Studie":10459,"dist":10460,"paratie":10461,"Control":10462,"Ġsternum":10463,"ĠNOAC":10464,"Ohm":10465,"ĠBeiderzijds":10466,"Ġpreventieve":10467,"ta":10468,"Ġvolum":10469,"offie":10470,"oestand":10471,"oorthiazide":10472,"No":10473,"Ġlogistische":10474,"istollingsbeleid":10475,"tri":10476,"ĠcorticosteroÃ¯den":10477,"ham":10478,"47":10479,"Ġhalsvenen":10480,"instelling":10481,"bruik":10482,"Ġhetero":10483,"Ġachtergrond":10484,"ĠSept":10485,"erbumine":10486,"ĠEV":10487,"Ġconsequenties":10488,"Ġnadelige":10489,"west":10490,"Ġbemerkt":10491,"Ġverdikking":10492,"53":10493,"Ġvraagt":10494,"ĠBSN":10495,"iatrie":10496,"Ġblin":10497,"Ġgladde":10498,"financierd":10499,"lykemische":10500,"ellow":10501,"Ġhypoxie":10502,"iumzuur":10503,"ti":10504,"ademing":10505,"ĠMyoc":10506,"Ġbegrijpen":10507,"riterium":10508,"jaren":10509,"stenen":10510,"lingen":10511,"Ġruptuur":10512,"ĠPerfusiedefect":10513,"Ġlinkerb":10514,"Ġdisper":10515,"ĠRisicoprofiel":10516,"atal":10517,"Ġneiging":10518,"Ġgrenzen":10519,"ĠDist":10520,"Calcium":10521,"Ġbalans":10522,"Ġcytokines":10523,"nu":10524,"ĠLip":10525,"Postoperatief":10526,"oidose":10527,"Ġreconstructie":10528,"ĠAfwijk":10529,"gedragen":10530,"buminurie":10531,"menten":10532,"Ġemp":10533,"hou":10534,"Ġcov":10535,"Ġchemische":10536,"ĠPulmonaal":10537,"ĠCirc":10538,"ĠFys":10539,"Ġsuppletie":10540,"Ġoppervlakte":10541,"ĠExtra":10542,"Anticoagulantia":10543,"ĠGLS":10544,"Ġdefinitie":10545,"clusief":10546,"Ġblauw":10547,"Ġbovendien":10548,"#).":10549,"TT":10550,"voorstel":10551,"icilline":10552,"conflict":10553,"ĠIE":10554,"spannings":10555,"OH":10556,"Ġgesuggereerd":10557,"ĠARV":10558,"war":10559,"zepam":10560,".).":10561,"plat":10562,"plopen":10563,"Ġstappen":10564,"ilet":10565,"gGT":10566,"Ġaanto":10567,"Pantoprazol":10568,"ĠSC":10569,"Ġopgeroepen":10570,"Ġjaarlijks":10571,"ĠDus":10572,"ophag":10573,"Ġfamilieleden":10574,"Ġoperateur":10575,"oracaal":10576,"Ġ(%/":10577,"tijdige":10578,"87":10579,"Gaat":10580,"verandering":10581,"Ġbezwaar":10582,"ĠTra":10583,"86":10584,"Ġvoorwandinfarct":10585,"Ġergo":10586,"atier":10587,"Ġtraditionele":10588,"Ġintram":10589,"ĠGeneeskundige":10590,"ĠAmerikaanse":10591,"Ġplotseling":10592,"rochloorthiazide":10593,"Ġeerstel":10594,"Ġrookt":10595,"Ġiemand":10596,"oped":10597,"Ġclass":10598,"Ġzichzelf":10599,"Name":10600,"Ġdens":10601,"Ġnaam":10602,"Ġdoorsnede":10603,"mmen":10604,"Ġgenorm":10605,"Ġinfectieuze":10606,"ĠSAM":10607,"Ġmedicatieoverzicht":10608,"Ġverschillend":10609,"jectieve":10610,"):#.#%":10611,"Ġhemodialyse":10612,"Ġbezigheden":10613,"RCx":10614,"Ġwegraking":10615,"ijnt":10616,"Ġspoedeisende":10617,"rig":10618,"gressieve":10619,"ĠLABORATORIUM":10620,"Ġintensiteit":10621,"Ġdifferentiatie":10622,"ĠSla":10623,"fib":10624,"schijnselen":10625,"ĠMY":10626,"=#)":10627,"Vrouwelijk":10628,"ĠProtocol":10629,"ĠMeerdere":10630,"ĠWandbe":10631,"Ġmeerder":10632,"entry":10633,"Ġpatch":10634,"Ġdonor":10635,"ĠRD":10636,"raclip":10637,"Ġfir":10638,"Ġleek":10639,"ĠHiervoor":10640,"Ġmiljoen":10641,"oscopy":10642,"Ġneem":10643,"Î¼":10644,"ĠHB":10645,"ĠDruk":10646,"ĠFDG":10647,"ĠKleine":10648,"laats":10649,"Ġopwekbaar":10650,"rumenten":10651,"Ġerger":10652,"Ġstadi":10653,"orylering":10654,"Ġcollaterale":10655,"Telefoon":10656,"Ġargument":10657,"ulation":10658,"suline":10659,"spirine":10660,"iri":10661,"Ġureum":10662,"Ġbiventriculaire":10663,"Ġentresto":10664,"Ġmaakte":10665,"embran":10666,"ĠAnamnestisch":10667,"Ġhealth":10668,"lever":10669,"synchronie":10670,"Ġtermen":10671,"Ġgeldigheid":10672,"hydrox":10673,"egd":10674,"Ġweerstand":10675,"radine":10676,"Ġlongitudinale":10677,"lichtingsgesprek":10678,"Ġdox":10679,"melden":10680,"Ġdiagnostic":10681,"laps":10682,"Pressure":10683,"Ġtherapietrouw":10684,"ĠPVCs":10685,"Ġkorter":10686,"Ġgecalcificeerde":10687,"RES":10688,"ams":10689,"oorden":10690,"entanyl":10691,"laden":10692,"CORBIO":10693,"Ġantihypertensiva":10694,"63":10695,"Ġmusc":10696,"Ġreguleren":10697,"ienummer":10698,"Ġhierover":10699,"ism":10700,"Ġpractice":10701,"Ġnefropathie":10702,"delings":10703,"holte":10704,"Ġback":10705,"alkscore":10706,"Ġgrens":10707,"ĠTur":10708,"blokker":10709,"Ġverwijde":10710,"Ġmetastase":10711,"Status":10712,"Ġfietstest":10713,"ĠÎ¼g":10714,"Ġwijd":10715,"red":10716,"Ġsymptoom":10717,"Ġvoelde":10718,"Verwijz":10719,"Ġdeviaties":10720,"Ġmeis":10721,"ĠIntoxicaties":10722,"ĠMedication":10723,"Plat":10724,"Ġintake":10725,"Ġvaste":10726,"ĠLae":10727,"Ġervoor":10728,"ĠMAP":10729,"Ġtoegeschreven":10730,"ĠFer":10731,"Ġwegrakingen":10732,"rologie":10733,"Ġhouding":10734,"Ġbegrepen":10735,"uff":10736,"Ġsintrom":10737,"Ġhazard":10738,"orig":10739,"ĠVB":10740,"velopment":10741,"Adjusted":10742,"Ġsputum":10743,"Ġhonden":10744,"unnel":10745,"Ġantilichaam":10746,"Ġinterstit":10747,"Ġgefinancierd":10748,"Ġgeoc":10749,"schrijft":10750,"Ġoplossing":10751,"ĠTCH":10752,"rogeen":10753,"Ġpopulaties":10754,"Ġwijzend":10755,"ĠCF":10756,"Ġvertoont":10757,"Ġzat":10758,"ĠLesion":10759,"-:":10760,"rogol":10761,"Ġgevalide":10762,"PAR":10763,"Ġaangetast":10764,"usus":10765,"ĠPK":10766,"Ġvetweefsel":10767,"ohist":10768,"Ġrivaroxaban":10769,"ĠWilt":10770,"Ġselectieve":10771,"Ġgebleven":10772,"Ġmuc":10773,"algie":10774,"ocy":10775,"Ġsusp":10776,"UK":10777,"Ġenter":10778,"abradine":10779,"umul":10780,"77":10781,"ĠKwaliteits":10782,"ztb":10783,"Ġcorresp":10784,"VE":10785,"Ġopvallend":10786,"62":10787,"ĠDecompensatio":10788,"Ġperforatie":10789,"Ġorigine":10790,"Ġjet":10791,"Ġbolus":10792,"isol":10793,"Ġaangetroffen":10794,"Ġuitzonder":10795,"Ġgekwee":10796,"ĠLAA":10797,"Ġschool":10798,"Lesion":10799,"iom":10800,"Ġbeschrijving":10801,"ĠCRTD":10802,"Ġschoon":10803,"Ġleverenzym":10804,"ĠBSA":10805,"Nucleair":10806,"Ġleefstijl":10807,"ĠKon":10808,"eluting":10809,"ene":10810,"oppervlak":10811,"Ġzag":10812,"Ġkauw":10813,"Ġvoorbij":10814,"Artikel":10815,"ĠActueel":10816,"alte":10817,"ixed":10818,"Voelde":10819,"volle":10820,"allergie":10821,"Ġrichtlijnontwikkeling":10822,"ĠMG":10823,"gl":10824,"Ġmoder":10825,"undeltakblok":10826,"voet":10827,"lopende":10828,"Ġvoerden":10829,"date":10830,"Ġnucleaire":10831,"gradi":10832,"naar":10833,"bt":10834,"Ġverouder":10835,"Ġblootgesteld":10836,"mmetrisch":10837,"Ġnierfunctiestoornissen":10838,"Ġvoorbereiden":10839,"steen":10840,"Ġree":10841,"materiaal":10842,"Ġring":10843,"Ġlumbale":10844,"ĠWerkgroep":10845,"ximab":10846,"Ġverkalkingen":10847,"tjes":10848,"Ġvoorlopig":10849,"Ġhumane":10850,"Ġregelgeving":10851,"ĠRS":10852,"Ġinvullen":10853,"Ġwarme":10854,"Ġonderkwab":10855,"Ġaantonen":10856,"Ġaanpassen":10857,"ĠHist":10858,"Ġmail":10859,"scande":10860,"ĠOrth":10861,"yrid":10862,"Ġapo":10863,"Ġverbonden":10864,"Ġimaging":10865,"Ġ(;":10866,"ĠExpectatief":10867,"Zij":10868,"Ã«fficiÃ«nt":10869,"ĠRWBS":10870,"Ġproliferatie":10871,"MR":10872,"Ġpain":10873,"Ġlichaamsbeweging":10874,"Antistollingsbeleid":10875,"ci":10876,"Ġdinsdag":10877,"teText":10878,"]),":10879,"ĠRegist":10880,"ĠNSVT":10881,"ĠSte":10882,"Ġlymfeklier":10883,"ĠDeel":10884,"PlatteText":10885,"atrix":10886,"generatieve":10887,"Ġgeleidingsstoornissen":10888,"Ġobese":10889,"Ġgevalverslag":10890,"Trans":10891,"ometer":10892,"Ġdroog":10893,"ĠControles":10894,"Ġgevoeld":10895,"Ġkuur":10896,"Ġbesteed":10897,"Ġoptreedt":10898,"ĠOf":10899,"ĠGroep":10900,"Ġovergenomen":10901,"Extra":10902,"APT":10903,"ĠAIOS":10904,"oÃ¯dose":10905,"Ġstijfheid":10906,"Ġ72":10907,"Ġbeschermende":10908,"conomische":10909,"Ġoa":10910,"Ġmediale":10911,"car":10912,"LVH":10913,"Ġremmer":10914,"juvant":10915,"Ġpassag":10916,"Ġtoel":10917,"ĠSecret":10918,"Ġvoorschrijven":10919,"Ġclinique":10920,"tests":10921,"Thorax":10922,"Vasculair":10923,"Ġraad":10924,"Ġvoorlopige":10925,"oral":10926,"Ġinnemen":10927,"lezen":10928,"diagnostiek":10929,"Ġanticon":10930,"Conclusion":10931,"Ġuiteindelijke":10932,"vermogen":10933,"nth":10934,"maken":10935,"Ġzenuwstelsel":10936,"Echocardiografie":10937,"Ġzone":10938,"ivaroxaban":10939,"Ġselokeen":10940,"Ġjeu":10941,"oralis":10942,"Ġvoltage":10943,"spectrum":10944,"Huis":10945,"riene":10946,"Ġ42":10947,"Ġdenkt":10948,"Ġtijds":10949,"ĠPrima":10950,"Ġbegele":10951,"aged":10952,"Ġventric":10953,"Ġongeacht":10954,"Ġgewichtstoename":10955,"ĠSu":10956,"Ġlymfoom":10957,"glykemie":10958,"Ġdokter":10959,"uwen":10960,"lassificeerd":10961,"ĠCLS":10962,"weten":10963,"Ġanterolateraal":10964,"Ascal":10965,"Ġverlengde":10966,"ĠWordt":10967,"tabel":10968,"Ġmonster":10969,"ENT":10970,"Ġsubs":10971,"Ġalternatieve":10972,"Ġsignalen":10973,"Ġaanwezige":10974,"Ġinterpretatie":10975,"Tot":10976,"keerde":10977,"calc":10978,"Ġnierfalen":10979,"ultaat":10980,"ĠLaesie":10981,"igeen":10982,"plerenon":10983,"ectine":10984,"Ġses":10985,"Gebruik":10986,"Ġregressieanalyse":10987,"uitslag":10988,"ucht":10989,"Ġbruik":10990,"menopauz":10991,"ala":10992,"BBB":10993,"ĠPle":10994,"ritine":10995,"Ele":10996,"iance":10997,"Ġkwantific":10998,"46":10999,"Ġneurologisch":11000,"Ġgebeurtenis":11001,"Ġbaarmoeder":11002,"Ġanom":11003,"Ġinfluen":11004,"uleert":11005,"Ġaureus":11006,"elijktijdig":11007,"horende":11008,"cunes":11009,"Ġgebruikelijke":11010,"Ġbelafspraak":11011,"ĠToch":11012,"benen":11013,"Ġlym":11014,"ĠXT":11015,"scintigram":11016,"Ġ(#.#)":11017,"Ġfout":11018,"ĠCONCLUSIE":11019,"Ġadolescent":11020,"ĠBÃ¨t":11021,"Ġheterogeniteit":11022,"Ġcost":11023,"Ġtong":11024,"mut":11025,"ĠVASC":11026,"Ġexc":11027,"ĠLGE":11028,"Ġgebleken":11029,"Ġbijkomen":11030,"Ġafgezien":11031,"initis":11032,"Ġ#%),":11033,"ange":11034,"standen":11035,"odg":11036,"ernia":11037,"Ġaanvrager":11038,"ĠIK":11039,"Ġapparaat":11040,"Ġanesthes":11041,"Ġvoorzien":11042,"ography":11043,"ĠVocht":11044,"Ġmeenemen":11045,"ĠKa":11046,"inezuur":11047,"Ġkwantitatieve":11048,"yseren":11049,"oxicilline":11050,"ĠGG":11051,"onbetaald":11052,"Tractus":11053,"asmen":11054,"chef":11055,"Ġmisschien":11056,"Ġdouchen":11057,"Ġvormt":11058,"Ġkwal":11059,"Ġsituaties":11060,"Ġuitvoer":11061,"Ġspoortje":11062,"Ġnarc":11063,"Ġsurgery":11064,"Ġvrijwill":11065,"ĠToepassen":11066,"ĠLaag":11067,"Ġopstaan":11068,"Inlichtingsgesprek":11069,"dar":11070,"geassoc":11071,"Ġsignificantie":11072,"Ġuitgevoerde":11073,"Ġassistent":11074,"Ġdiastolisch":11075,"verte":11076,"Ġleft":11077,"ĠDag":11078,"Ġ#,<":11079,"ĠâĨ":11080,"oppeld":11081,"antrum":11082,"ĠAAA":11083,"Ġparas":11084,"ĠRelevant":11085,"Ġ#-#%,":11086,"Ġbijbe":11087,"Boston":11088,"Ġklier":11089,"Ġobstructief":11090,"ĠLeiden":11091,"ĠTricuspide":11092,"oplastiek":11093,"ribut":11094,"Ġallen":11095,"ĠEuropese":11096,"rijs":11097,"Ġossale":11098,"Ġplast":11099,"Ġscreen":11100,"Ġvoorlichting":11101,"Ġsubt":11102,"teit":11103,"ĠTambocor":11104,"iteindelijk":11105,"uigen":11106,"Ġformulier":11107,"LL":11108,"induc":11109,"let":11110,"COPD":11111,"Ġtoenemend":11112,"Ġsil":11113,"lash":11114,"Ġrot":11115,"Ġonwel":11116,"Ġradiof":11117,"pot":11118,"ĠDu":11119,"ised":11120,"hom":11121,"Ġuitsluiting":11122,"verwante":11123,"iliseren":11124,"Ġorthostase":11125,"Ġinade":11126,"41":11127,"Ġsingle":11128,"ĠVes":11129,"Ġreeks":11130,"ĠSB":11131,"Ġfactors":11132,"Ġeffusie":11133,"erosol":11134,"olutie":11135,"ĠCancer":11136,"ĠBre":11137,"ĠBericht":11138,"rolimus":11139,"Ġmeege":11140,"Ġgla":11141,"geboren":11142,"ĠEHH":11143,"igemin":11144,"ondersteun":11145,"Ġonregelmatig":11146,"scom":11147,"Boven":11148,"kkige":11149,"Ġexcentrische":11150,"Ġingepland":11151,"obiel":11152,"Ġoutput":11153,"unctioneel":11154,"aph":11155,"ĠVerwijzer":11156,"CAM":11157,"ofen":11158,"factor":11159,"ĠIR":11160,"amenteuze":11161,"pv":11162,"pressiva":11163,"obstructie":11164,"ratten":11165,"Ġgedetaille":11166,"Ġonderdruk":11167,"Ġonderzochte":11168,"Ġsustained":11169,"ĠRichtlijnendatabase":11170,"RO":11171,"ĠNID":11172,"Ġopdracht":11173,"Ġhypoglykemie":11174,"Ġbumetanide":11175,"ocyste":11176,"ĠSommige":11177,"ĠtachycardieÃ«n":11178,"Ġfund":11179,"ventilatie":11180,"ĠStabiel":11181,"ĠSCD":11182,"Ġledematen":11183,"Ġaangeeft":11184,"hosp":11185,"spor":11186,"ĠSlechte":11187,"oxische":11188,"ike":11189,"ĠmGy":11190,"Ġbescher":11191,"Ġmapping":11192,"rection":11193,"Vol":11194,"Ġzogen":11195,"odgkin":11196,"ocon":11197,"Ġdiam":11198,"]\\":11199,"Ġgeclassificeerd":11200,"ĠElektrocardiogram":11201,"Ġwen":11202,";#(#)":11203,"Ġpleurae":11204,"Ġbrady":11205,"Ġcardiologische":11206,"ĠBev":11207,"Ġnodus":11208,"aceut":11209,"ĠWer":11210,"Ġincisie":11211,"Ġvolde":11212,"Ġdabigatran":11213,"verg":11214,"Ġcentra":11215,"ocale":11216,"ription":11217,"Ġrat":11218,"loot":11219,"ilept":11220,"Ġalternatief":11221,"ĠbeÃ«in":11222,"?).":11223,"Ġleverde":11224,"AB":11225,"Ġcaus":11226,"quate":11227,"Ġafgevallen":11228,"amethason":11229,"armaceut":11230,"ĠstrategieÃ«n":11231,"cardiaal":11232,"ĠLVED":11233,"Ġbloedvaten":11234,"Ġpa":11235,"Ġluchtweg":11236,"ĠImmun":11237,"Ġreumato":11238,"ĠOpt":11239,"ecrose":11240,"Ġbrede":11241,"Ġkanaal":11242,"analysis":11243,"Ġgebaseerde":11244,"Ġvertrouwen":11245,"ĠCBO":11246,"Ġverblijf":11247,"iferol":11248,"Sinds":11249,"Ġgebruikers":11250,"Ġfiets":11251,"ĠChinese":11252,"Ġnauwkeurigheid":11253,"Ġlatere":11254,"kkig":11255,"ĠOP":11256,"Ġvarkens":11257,"odium":11258,"Ġendo":11259,"Ġcou":11260,"Ġantioxid":11261,"Ġafnemen":11262,"Ġascites":11263,"Ġontworpen":11264,"transfusie":11265,"Ġorganen":11266,"ĠSyn":11267,"Ġgon":11268,"udic":11269,"Ġcine":11270,"ĠStress":11271,"Ġbehoren":11272,"ĠMax":11273,"merc":11274,"arcering":11275,"schaal":11276,"Locatie":11277,"oplasma":11278,"ĠIH":11279,"ĠEuropean":11280,"Ġcruciale":11281,"nie":11282,"72":11283,"ĠConcluderend":11284,"QTc":11285,"ionals":11286,"Ġnucleair":11287,"Ġterugverwezen":11288,"leuk":11289,"ĠNP":11290,"leving":11291,"Ar":11292,"ĠParkinson":11293,"Ġzegt":11294,"Ao":11295,"way":11296,"Ġaanw":11297,"Ġjongere":11298,"entiaal":11299,"Ġgeslaag":11300,"druppels":11301,"lot":11302,"Ġautonome":11303,"ohistoch":11304,"Ġdispertablet":11305,"Ġtrun":11306,"Ġdrank":11307,"velen":11308,"ĠZiek":11309,"Alle":11310,"huld":11311,"Ġinspannen":11312,"hist":11313,"pus":11314,"isease":11315,"ĠMamm":11316,"Ġgezichts":11317,"pas":11318,"Ġpsychosociale":11319,"Ġhypertrofisch":11320,"ĠKalkscore":11321,"Ġ64":11322,"Ġwederom":11323,"Ġachterste":11324,"ĠReliance":11325,"infusie":11326,"ĠSLE":11327,"ĠBiot":11328,"Ġrectum":11329,"98":11330,"iering":11331,"ĠTc":11332,"ĠcoÃ¶rd":11333,"ĠRecente":11334,"Ġfibrin":11335,"gemiddeld":11336,"Ġdichtheid":11337,"horm":11338,"hs":11339,"Ġind":11340,"Ġhartklep":11341,"matica":11342,"ĠDilat":11343,"mail":11344,"fracturen":11345,"ĠOverwegingen":11346,"Ġembol":11347,"aug":11348,"Ġonderbeen":11349,"Ġvisuele":11350,"Ġdrukkend":11351,"stoestand":11352,"Ġbein":11353,"Ġkil":11354,"Ġschedel":11355,"vats":11356,"Ġmethodologische":11357,"asische":11358,"bes":11359,"Ġgekeken":11360,"Ġspreken":11361,"Ġnecrose":11362,"extra":11363,"zone":11364,"Ġsubgroepen":11365,"ĠInleiding":11366,"Ġwoensdag":11367,"ĠBic":11368,"Ġgesc":11369,"RD":11370,"tje":11371,"Ġverlaging":11372,"Ġgedi":11373,"Ġmulti":11374,"Ġtoon":11375,"Amer":11376,"afel":11377,"ipp":11378,"Ġother":11379,"gers":11380,"houdende":11381,"Ġtransfusie":11382,"ĠSS":11383,"Ġ(#%),":11384,"ĠGep":11385,"Ġsporadisch":11386,"mocard":11387,"Ġaller":11388,"ijven":11389,"rijding":11390,"Ġgestandaard":11391,"liggende":11392,"Ġneer":11393,"waardes":11394,"ryo":11395,"Ġbijlage":11396,"Ġreactieve":11397,"ĠPlan":11398,"loze":11399,"Ġrs":11400,"Ġhartstilstand":11401,"Ġmeegegeven":11402,"rikt":11403,"irect":11404,"oint":11405,"ularisatie":11406,"ĠSMA":11407,"Ġ[âĢĵ].":11408,"Ġgeobjectiveerd":11409,"LI":11410,"ctief":11411,"Ġafkap":11412,"ĠEchografisch":11413,"cluderen":11414,"Ġuitsluitend":11415,"Ġpijnstill":11416,"inueerd":11417,"Ġbijbehorende":11418,"ularis":11419,"huid":11420,"parine":11421,"Ġbelemm":11422,"Ġbiochemische":11423,"arbasalaatcalcium":11424,"CF":11425,"Ġpleurale":11426,"Hoofddiagnose":11427,"Ġbeeldvorm":11428,"portaal":11429,"Orale":11430,"odem":11431,"ĠintracraniÃ«le":11432,"ĠAug":11433,"Ġverzw":11434,"ĠLeef":11435,"REE":11436,"Ġsho":11437,"Ġplaatjes":11438,"igers":11439,"imulatie":11440,"epine":11441,"Ġinterna":11442,"74":11443,"kans":11444,"ĠHO":11445,"risk":11446,"Ġnitro":11447,"pomp":11448,"Ġtip":11449,"Ġingescand":11450,"Ġextracellulaire":11451,"Ġallergische":11452,"Ġlukt":11453,"Ġambulante":11454,"Ġinhib":11455,"ichte":11456,"oortedatum":11457,"Ġrapporten":11458,"produc":11459,"Ġproduct":11460,"Ġmethyl":11461,"oont":11462,"Ġvoorstel":11463,"Ġprikken":11464,"ĠgeÃ¯ncludeerd":11465,"TH":11466,"olic":11467,"ĠHad":11468,"Ġintracellulaire":11469,"intensiteit":11470,"ĠBro":11471,"Ġtrends":11472,"Ġnycturie":11473,"Ġretrospectief":11474,"icotine":11475,"Ġlaagste":11476,"ĠAanmeldformulier":11477,"dosering":11478,"Ġmonomorfe":11479,"Ġgecontinueerd":11480,"ager":11481,"pleegkunde":11482,"Ġbek":11483,"Ġlosartan":11484,"kwad":11485,"odig":11486,"Ġbereikte":11487,"ĠDisease":11488,"ĠIU":11489,"roepen":11490,"ĠSpoedeisende":11491,"ray":11492,"Ġweerspiegel":11493,"Ġext":11494,"Ġbacterie":11495,"Ġwelk":11496,"84":11497,"Ġaerosol":11498,"ĠMoe":11499,"Ġ%.":11500,"locatie":11501,"leca":11502,"Ġopgel":11503,"rec":11504,"Ġhuisart":11505,"rapport":11506,"Ġconsul":11507,"ĠEerdere":11508,"Ġdiffusie":11509,"MOD":11510,"Ġhulpverlen":11511,"vi":11512,"Ġgezin":11513,"Ġkandidaat":11514,"spieren":11515,"Ġvertraagde":11516,"Ġgedrags":11517,"Ġlagen":11518,"ĠID":11519,"ĠAtriale":11520,"won":11521,"Ġstem":11522,"ĠLangwerkend":11523,"Impedantie":11524,"Ġoppervlak":11525,"beurten":11526,"armen":11527,"Ġgerapporteerde":11528,"Ġonderhouds":11529,"apparaat":11530,"ĠMedicine":11531,"ĠHartrevalidatie":11532,"Ticagrelor":11533,"Ġserienummer":11534,"Ġmatrix":11535,"ĠCollege":11536,"ĠArteriÃ«le":11537,"atory":11538,"ĠHH":11539,"Ġbelaste":11540,"ĠMagn":11541,"ĠInternational":11542,"Ġpediat":11543,"Ġlevert":11544,"ĠUiteindelijk":11545,"Ġonlangs":11546,"Ġjonger":11547,"ostatische":11548,"Ġmeerderheid":11549,"Rem":11550,"afname":11551,"Ġmodificatie":11552,"Ġpolymorf":11553,"zheim":11554,"ĠVader":11555,"Ġklassieke":11556,"ĠKlein":11557,"Ġero":11558,"Ġkram":11559,"emmers":11560,"Ġdatabases":11561,"ĠsuÃ¯c":11562,"aardige":11563,"Ġnachtelijke":11564,"ney":11565,"Ġalsnog":11566,"Ġbeperken":11567,"Ġgroup":11568,"HCK":11569,"ĠVerminderde":11570,"Ġalfa":11571,"waren":11572,"immun":11573,"Medtronic":11574,"Ġvoorgestelde":11575,"Ġverstuurd":11576,"Ġelektrofysiologisch":11577,"Ġconfiguratie":11578,"Ġconsolidatie":11579,"berg":11580,"Ġsamenstelling":11581,"Ġwomen":11582,"ĠFysicon":11583,"deriv":11584,"Ġacetylsalicylzuur":11585,"Ġafgeleid":11586,"Ġversn":11587,"alleen":11588,"ĠDie":11589,"ĠRE":11590,"Ġplasmac":11591,"ksgezondheid":11592,"Ġeinddiastolische":11593,"Ġhelpt":11594,"opost":11595,"ureau":11596,"Ġdoorgankelijk":11597,"ĠTotale":11598,"plaatsen":11599,"wijzingen":11600,"Ġbinding":11601,"sief":11602,"Ġill":11603,"Ġverandert":11604,"ĠBet":11605,"Ġ~#":11606,"Ġetn":11607,"heelkundige":11608,"Ġfun":11609,"Ġ52":11610,"ifedipine":11611,"loopt":11612,"Ġhyperlipidemie":11613,"Ġ%:":11614,"ĠAstma":11615,"Ġnadelen":11616,"ME":11617,"Ġlob":11618,"ĠMP":11619,"hoek":11620,"Ġcortonen":11621,"Ġchec":11622,"ISCH":11623,"Ġodds":11624,"rombotische":11625,"ĠFamilieanamnese":11626,"ĠBÃ¨tablokker":11627,"Îº":11628,"Cardioloog":11629,"Ġorgan":11630,"IA":11631,"scopische":11632,"Ġoverweeg":11633,"ĠCro":11634,"Ġkwaliteits":11635,"links":11636,"Ġgedeel":11637,"Meervatslijden":11638,"Ġgeste":11639,"biopt":11640,"ners":11641,"ocaÃ¯ne":11642,"HG":11643,"dicatoren":11644,"Ġaankomst":11645,"Ġdroge":11646,"oset":11647,"kedin":11648,"Ġejectie":11649,"uidelijke":11650,"Ġluchtweginfectie":11651,"reductie":11652,"azine":11653,"orisatie":11654,"izumab":11655,"ichen":11656,"ĠhypothyreoÃ¯die":11657,"Ġstee":11658,"Ġtib":11659,"Ġinferieure":11660,"Ġbigemin":11661,"ocytaire":11662,"rex":11663,"Ġmiddag":11664,"Ġfistel":11665,"Ġepisoden":11666,"cubeerd":11667,"Ġslik":11668,"Ġbloedbeeld":11669,"Ġgeneral":11670,"ilie":11671,"deviaties":11672,"mummer":11673,"traject":11674,"methoden":11675,"Ġtoevoeging":11676,"ope":11677,"Ġmerk":11678,"Ġbenadrukt":11679,"CHD":11680,"Ġfamiliaire":11681,"Ġfenomeen":11682,"ĠSa":11683,"Ġbevindt":11684,"Ġ46":11685,"Ġliteratuuranalyse":11686,"Ġstrept":11687,"Ġvoorbereiding":11688,"etherapie":11689,"Ġgein":11690,"hib":11691,"Ġlag":11692,"ISA":11693,"zheimer":11694,"rein":11695,"binnen":11696,"Ġfam":11697,"Ġug":11698,"raject":11699,"Ġsarcoidose":11700,"Ġpraktische":11701,"acrolimus":11702,"Ġresterende":11703,"Ġgewenste":11704,"Ġtachycardi":11705,"NHR":11706,"59":11707,"Ġprestaties":11708,"Ġsympathische":11709,"ĠsarcoÃ¯dose":11710,"Ġcal":11711,"assay":11712,"Ġgetra":11713,"Hartteam":11714,"ĠAcuut":11715,"Ġinflow":11716,"eriode":11717,"Ġontwateren":11718,"Ġcolitis":11719,"agulatie":11720,"Drug":11721,"ĠBinnen":11722,"Ġvpk":11723,"corrige":11724,"Ġresid":11725,"ĠNeut":11726,"malige":11727,"ĠLoopt":11728,"maar":11729,"verk":11730,"ĠSimvastatine":11731,"Ġrisc":11732,"Ġmitraal":11733,"ĠAfgelopen":11734,"blind":11735,"ĠOut":11736,"adren":11737,"daling":11738,"IG":11739,"dagen":11740,"Ġhinderlijke":11741,"Ġsubklinische":11742,"femoralis":11743,"Ġvermijden":11744,"Ġafwachten":11745,"Ġverdoving":11746,"76":11747,"Ġee":11748,"oÃ¯den":11749,"ĠZou":11750,"Ġkaart":11751,"ĠEosinof":11752,"Ġmgl":11753,"ratificatie":11754,"bewaking":11755,"Ġmedicatielijst":11756,"ĠRIMA":11757,"Ġvernauwing":11758,"Ġpantoprazol":11759,"ĠDepressie":11760,"ological":11761,"aille":11762,"rh":11763,"Ġarte":11764,"dia":11765,"Ġjeuk":11766,"nex":11767,"Ġfamilieanamnese":11768,"Ġwillekeurig":11769,"Ġhartafwijking":11770,"oire":11771,"Ġtransmissie":11772,"ĠPat":11773,"wan":11774,"Ġimmunos":11775,"56":11776,"=#,#":11777,"verhouding":11778,"Ġbip":11779,"Ġpolyneuropathie":11780,"Ġsectie":11781,"Ġnoduli":11782,"parenchym":11783,"ĠAOI":11784,"insufficintie":11785,"Ġdegeneratie":11786,"Ġgerustgesteld":11787,"Ġvanochtend":11788,"Ġdim":11789,"LC":11790,"Ġvertegenwoordigen":11791,"tie":11792,"Ġ44":11793,"Ġdraagt":11794,"ĠBesproken":11795,"83":11796,"Ġnazorg":11797,"ĠSpecialisme":11798,"Ġzeldzaam":11799,"lateraal":11800,"spraktijk":11801,"Ġwest":11802,"aars":11803,"ĠSecretariaat":11804,"Ġlie":11805,"HE":11806,"ocardiocardi":11807,"Ġeindstadium":11808,"Ġosteoporose":11809,"ĠDa":11810,"ĠUl":11811,"ĠINRs":11812,"Ġvisus":11813,"Ġdex":11814,"Ġgelok":11815,"itheel":11816,"uizeligheid":11817,"Ġbeinvloeden":11818,"vereniging":11819,"pulmonaal":11820,"Ġuurs":11821,"Ġzacht":11822,"gevonden":11823,"ĠNIV":11824,"ĠHep":11825,"Ġlim":11826,"acrogol":11827,"ĠPericard":11828,"Ġfenotype":11829,"ootschap":11830,"Ġmeter":11831,"Ġonderwijs":11832,"Ġlipoprotein":11833,"nesthesiologie":11834,"antel":11835,"Ġleverenzymafwijkingen":11836,"Ġonderwerpen":11837,"Ġstijgt":11838,"ature":11839,"ĠVier":11840,"Ġoverge":11841,"Ġidiopathische":11842,"Ġrokers":11843,"circulatie":11844,"Ġelektrofysiologie":11845,"amycine":11846,"Ġmbt":11847,"Ġaangewezen":11848,"Ġvaccinatie":11849,"Ġ#+":11850,"Ġhelaas":11851,"ĠUWI":11852,"ocker":11853,"Ġheldere":11854,"ules":11855,"vergelijk":11856,"Ġtpv":11857,"ATIENT":11858,"werkgroep":11859,"ĠinterstitiÃ«le":11860,"agra":11861,"term":11862,"requente":11863,"NC":11864,"kaart":11865,"edieerd":11866,"akten":11867,"ower":11868,"ĠMonocyten":11869,"Ġfoto":11870,"ocus":11871,"ĠReview":11872,"Ġgelijktijdig":11873,"ĠMDO":11874,"Ġbiomarker":11875,"Ġproport":11876,"ĠSan":11877,"Ġintroductie":11878,"Ġinzichten":11879,"Ġvisu":11880,"Ġuitdag":11881,"Ġteken":11882,"ett":11883,"ĠRisico":11884,"ĠDaarentegen":11885,"Ġcervicale":11886,"ĠNit":11887,"Ġanalyseren":11888,"Verwijzend":11889,"ĠCaps":11890,"ĠLok":11891,"Telefoonmummer":11892,"kosten":11893,"Ġchl":11894,"Ġbru":11895,"Ġ43":11896,"Ġmuis":11897,"Ġparticip":11898,"Ġtrombocyt":11899,"uitkomst":11900,"Ġafgerond":11901,"ertijd":11902,"ĠMob":11903,"gave":11904,"Ġdoordat":11905,"ĠNVK":11906,"Ġkransslagaders":11907,"ĠEÃ©n":11908,"Ġupgrade":11909,"Ġonderarm":11910,"Ã¯nide":11911,"osorbide":11912,"namen":11913,"-)":11914,"mei":11915,"Ġendomet":11916,"infect":11917,"Ġrectaal":11918,"oneel":11919,"/#,#":11920,"Ġdur":11921,"Ġemfyse":11922,"Ġgeleide":11923,"temin":11924,"Ġrefract":11925,"Ġnatuurlijke":11926,"anties":11927,"oxin":11928,"Ġ41":11929,"Desc":11930,"Ġkinderarts":11931,"Ġunivers":11932,"Ġreceptoren":11933,"Ġmelanoom":11934,"ĠContinu":11935,"ulmonale":11936,"Bloeding":11937,"82":11938,"ĠHM":11939,"Ġbereid":11940,"Ġriscofactoren":11941,"Ġregelmatige":11942,"testen":11943,"ĠSNP":11944,"lecaÃ¯nide":11945,"Ġdak":11946,"ĠLymfocyten":11947,"ĠMethode":11948,"Ġinternationale":11949,"ĠLi":11950,"Ġbood":11951,"Ġmenstru":11952,"Ġovertui":11953,"Ġfunctioneert":11954,"okokken":11955,"Ġbegint":11956,"XXXX":11957,"Ġbedoeld":11958,"ĠCHADSVASC":11959,"ĠStatist":11960,"olytische":11961,"ĠVragen":11962,"Ġalg":11963,"Ġhervatten":11964,"ruim":11965,"opties":11966,"Ġceftriaxon":11967,"iair":11968,"Ġkleinere":11969,"Ġsequentie":11970,"gebeurten":11971,"Ġbioprothese":11972,"Ġgehant":11973,"Ġinfarcering":11974,"Ġelektro":11975,"ĠgeÃ¯ncubeerd":11976,"ĠDiast":11977,"Ġvir":11978,"Ġcataract":11979,"riften":11980,"intervallen":11981,"auzes":11982,"Ġantagonist":11983,"Ġsuspect":11984,"zeer":11985,"Ġrugpijn":11986,"Ġeerstelijns":11987,"Ġneutrofielen":11988,"aardig":11989,"Ġpersoonlijk":11990,"meter":11991,"Ġgedefinieerde":11992,"weer":11993,"lacunes":11994,"ĠBron":11995,"minist":11996,"Ġvoelen":11997,"Ġhoud":11998,"app":11999,"Ġbuurt":12000,"controleerde":12001,"Ġcyclus":12002,"Ġhyperglykemie":12003,"Geachte":12004,"Huisarts":12005,"orderde":12006,"Ġ#-#)":12007,"ĠAanvrager":12008,"Ġverdikte":12009,"extirpatie":12010,"Ġcontractiele":12011,"ÃĹ":12012,"Ã«t":12013,"segmenten":12014,"ĠInteressant":12015,"Ġadenoc":12016,"Ġtarget":12017,"igo":12018,"Ġinspanningen":12019,"Ġgecorrigeerde":12020,"Ġintolerantie":12021,"ovag":12022,"81":12023,"Ġaber":12024,"aven":12025,"Ġgeschreven":12026,"Ġinjection":12027,"mi":12028,"Longen":12029,"imal":12030,"systolische":12031,"werp":12032,"ĠNA":12033,"uld":12034,"ephalica":12035,"Ġwilde":12036,"ĠSpironolacton":12037,"registratie":12038,"Ġvoorafgaande":12039,"Ġbrach":12040,"Ġware":12041,"Ġbelastbaarheid":12042,"PatiÃ«nten":12043,"Risic":12044,"#),":12045,"Ġdoelwit":12046,"sproces":12047,"Ġdalende":12048,"ĠLat":12049,"rictieve":12050,"Ġ(+)":12051,"Ġpul":12052,"Ġvoldoen":12053,"Ġintima":12054,"daagse":12055,"Ġdyst":12056,"ĠFlecainide":12057,"Ġepilepsie":12058,"ĠJC":12059,"Ġinterview":12060,"kundig":12061,"Ġexacerbatie":12062,"vix":12063,"veneuze":12064,"Ġcardioprote":12065,"ieus":12066,"idere":12067,"leur":12068,"Ġabsoluut":12069,"eemt":12070,"ĠNiveau":12071,"ish":12072,"pad":12073,"ĠPOS":12074,"Scan":12075,"uatie":12076,"Nagekeken":12077,"Ġtbv":12078,"Ġverkort":12079,"Zwangerschap":12080,"Ġlaparoscopische":12081,"spreek":12082,"Ġ#\\":12083,"ylaxe":12084,"Ġopstellen":12085,"ĠDS":12086,"Ġhematurie":12087,"Ġbeschrijft":12088,"aby":12089,"Ġ-#,#":12090,"iende":12091,"issu":12092,"ĠessentiÃ«le":12093,"stijds":12094,"behandelaar":12095,"Ġrosu":12096,"bias":12097,"vasc":12098,"Ġchirurgisch":12099,"Ġ2010":12100,"icontrole":12101,"ziekenhuis":12102,"Ġvroegtijdige":12103,"Ġdien":12104,"Ġboek":12105,"Ġoplopen":12106,"Ġtro":12107,"Ġjug":12108,"Ġcruciaal":12109,"zt":12110,"Ġaten":12111,"Overmatig":12112,"oge":12113,"otide":12114,"Ġtoxiciteit":12115,"ĠFiguur":12116,"Ġexcisie":12117,"etine":12118,"ĠOperatie":12119,"nes":12120,"ĠZuid":12121,"TEE":12122,"Ġdiverticulitis":12123,"Ġ+/":12124,"ÎºB":12125,"Ġmultif":12126,"label":12127,"ĠAmlodipine":12128,"sust":12129,"ĠFunctionele":12130,"Ġtreedt":12131,"rofiele":12132,"Ġtotdat":12133,"Ġcommerc":12134,"ollen":12135,"Labiele":12136,"Ġkla":12137,"ĠADENOS":12138,"Ġstelt":12139,"medicamenteus":12140,"Ġwachten":12141,"ĠVmax":12142,"Ġchrom":12143,"Val":12144,"wond":12145,"ĠOvermatige":12146,"ĠSBP":12147,"behandeld":12148,"Ġpyl":12149,"dimens":12150,"boek":12151,"Ġlinkerhartoor":12152,"mentatie":12153,"ĠCAC":12154,"visu":12155,"uidant":12156,"Ġdrager":12157,"Ġ#-#-#":12158,"HS":12159,"Ġvetzuren":12160,"iazem":12161,"Ġulc":12162,"âģ":12163,"Ġliteratuuronderzoek":12164,"Ġopgebouwd":12165,"ĠCapsure":12166,"ĠDirect":12167,"osu":12168,"71":12169,"Ġkortdurende":12170,"odelijst":12171,"Ġspanning":12172,"Gelijktijdig":12173,"Ġdaad":12174,"Ġenc":12175,"septaal":12176,"ĠBasof":12177,"cyste":12178,"CTA":12179,"ĠVesiculair":12180,"Ġrichten":12181,"Ġsuperius":12182,"dc":12183,"Ter":12184,"Ġfamiliegeschiedenis":12185,"ĠbeÃ¯nvloedt":12186,"atriur":12187,"Ġmillimeter":12188,"onditie":12189,"dieren":12190,"Ġargumenten":12191,"erge":12192,"ĠVanaf":12193,"ĠLow":12194,"TSH":12195,"ZO":12196,"spatroon":12197,"ismen":12198,"rang":12199,"Tijdstip":12200,"odiek":12201,"Ġperip":12202,"ysici":12203,"ĠIVS":12204,"Ġcriterium":12205,"ĠIA":12206,"etic":12207,"ork":12208,"Ġthoracaal":12209,"Ġdoelgroep":12210,"Ġtend":12211,"ĠIntermedi":12212,"Ġduiden":12213,"Ġafwezig":12214,"ĠFam":12215,"Ġarterieel":12216,"iche":12217,"Ġechtgenoot":12218,"Ġgeacht":12219,"Belafspraak":12220,"Ġcongenitale":12221,"Ġbezoeken":12222,"aorta":12223,"Ġhospital":12224,"Uitleg":12225,"ĠEvenzo":12226,"Ġlymfocyten":12227,"Buik":12228,"Ġvd":12229,"szins":12230,"Ġot":12231,"gels":12232,"Stroke":12233,"Ġselecteren":12234,"FFR":12235,"Ġtruncus":12236,"Ġcarvedilol":12237,"compenseerd":12238,"Ġaritm":12239,"obacter":12240,"ĠVerz":12241,"Ġcoloscopie":12242,"Ġtraplopen":12243,"producten":12244,"Ġinfuus":12245,"ofage":12246,"bul":12247,"ĠBK":12248,"ĠADL":12249,"Ġschijn":12250,"Ġblot":12251,"aamde":12252,"kwant":12253,"athkamer":12254,"schil":12255,"Ġ56":12256,"Ġdoodsoorzaak":12257,"Ġontwerp":12258,"ĠZoek":12259,"SEN":12260,"Ġeenvoudige":12261,"ropium":12262,"Ġhistologische":12263,"ĠAantal":12264,"lamp":12265,"ĠARVC":12266,"ĠDiv":12267,"ification":12268,"dnison":12269,"Ġpseud":12270,"Ġ#:#:#":12271,"blast":12272,"ĠManagement":12273,"dra":12274,"Ġdefinitief":12275,"ĠAlzheimer":12276,"06":12277,"spijn":12278,"ĠONT":12279,"Ġduurt":12280,"Ġmetabolisme":12281,"Ġanomalie":12282,"Ġoutcome":12283,"ense":12284,"ĠGenootschap":12285,"schriften":12286,"gelijkertijd":12287,"Ġcardiogene":12288,"Verpleegkunde":12289,"ovascular":12290,"negatieve":12291,"Ġaandachts":12292,"Ġseksuele":12293,"Ġ49":12294,"Ġdecen":12295,"ĠNovus":12296,"Ġcongestief":12297,"wisseling":12298,"Ġvaststellen":12299,"Ġfasc":12300,"Ġspierpijn":12301,"Ġfasen":12302,"Ġactu":12303,"odule":12304,"iotensine":12305,"Sub":12306,"Ġaansluitend":12307,"Ġovergebracht":12308,"Ġgeregeld":12309,"Ġinteracties":12310,"Ġantip":12311,"klasse":12312,"neemt":12313,"ĠProp":12314,"Ġinteg":12315,"Ġarrest":12316,"udicatio":12317,"Ġacra":12318,"Ġinstroom":12319,"Ġretrograde":12320,"planteerd":12321,"Ġsoftware":12322,"ĠJaar":12323,"Ġopgelost":12324,"Bl":12325,"ĠNot":12326,"Ġincontinentie":12327,"Ġregurg":12328,"Ġcumul":12329,"Ġfys":12330,"Ġimpedantie":12331,"dicht":12332,"Ġgroeif":12333,"Ġantide":12334,"ĠEvalu":12335,"Ġgevorm":12336,"araat":12337,"Ġblijken":12338,"ĠTT":12339,"Ġexpertise":12340,"diabetische":12341,"ĠGeriatrie":12342,"Ġgenormaliseerd":12343,"Ġdyspnoeisch":12344,"ley":12345,"ĠAGREE":12346,"Ġresults":12347,"Holter":12348,"Ġerbij":12349,"Ġretard":12350,"Ġtaak":12351,"Ġterm":12352,"Ġvertraging":12353,"Ġbuitenland":12354,"lum":12355,"ĠSup":12356,"ĠOede":12357,"entriculair":12358,"Ġwk":12359,"ĠDob":12360,"ĠIv":12361,"ĠGuidel":12362,"Ġvarieerde":12363,"Eerdere":12364,"PATIENT":12365,"ĠCl":12366,"Ġgemet":12367,"IF":12368,"Ġ{\\":12369,"Ġopio":12370,"ĠADHD":12371,"ĠOF":12372,"ĠCoronairlijden":12373,"Ġvertegenwoordigt":12374,"ĠICU":12375,"ĠGeregistreerd":12376,"Ġtoeneemt":12377,"Ġgeschikte":12378,"Ġwenselijk":12379,"Ġbesmet":12380,"ĠGroup":12381,"Ġsaturatie":12382,"uide":12383,"odific":12384,"wen":12385,"urt":12386,"Ġaccess":12387,"%-":12388,"Ġvaginale":12389,"ush":12390,"Ġfab":12391,"Ġivabradine":12392,"Ġslanke":12393,"Ġwegen":12394,"Ġgevuld":12395,"umflex":12396,"Ġdurende":12397,"Ġ(#/#":12398,"Ġcapaciteit":12399,"Ġ54":12400,"ĠNEE":12401,"Ġgeneratie":12402,"Ġpancreatitis":12403,"Ġkinase":12404,"Ġkoffie":12405,"odon":12406,"chtingen":12407,"Ġfysiotherapie":12408,"richtlijnen":12409,"Ġoverlap":12410,"Ġverschilden":12411,"Ġnetwerk":12412,"ĠbacteriÃ«n":12413,"PATIENTNUMMER":12414,"Ġpulmonalisklep":12415,"verschijnselen":12416,"pervisor":12417,"ugrel":12418,"Ġconcluderen":12419,"Ġcomputertomografie":12420,"Ġinval":12421,"Ġsubcutane":12422,"Ġclu":12423,"Ġappen":12424,"MV":12425,"gol":12426,"ĠEGM":12427,"Ġgeformuleerd":12428,"Nooit":12429,"ificant":12430,"Ġ(#/#)":12431,"verkl":12432,"ĠCardiologische":12433,"Ġgynaecoloog":12434,"Ġasy":12435,"Hemoglobine":12436,"detectie":12437,"ĠWet":12438,"bec":12439,"Ġverschenen":12440,"ĠMild":12441,"Ġnabij":12442,"Ġquality":12443,"ĠDOAC":12444,"Ġadult":12445,"Ġstra":12446,"uil":12447,"Ġinstructies":12448,"rasugrel":12449,"ĠEnt":12450,"MK":12451,"Ġremo":12452,"ING":12453,"dysfunctie":12454,"idiverend":12455,"Ġanatomische":12456,"Ġ85":12457,"Ġknoop":12458,"Ger":12459,"ĠTE":12460,"Ġfysiek":12461,"arynx":12462,"Ġatenolol":12463,"ĠDr":12464,"sm":12465,"ĠPart":12466,"Ġverbindingen":12467,"ĠTran":12468,"Ġhierdoor":12469,"ĠTelemetrie":12470,"ĠWelke":12471,"ĠIBD":12472,"stoel":12473,"Ġlinkerkamerfunctie":12474,"Ġureter":12475,"apar":12476,"Ġluchtwegen":12477,"Nit":12478,"Ġfenprocoumon":12479,"Ġduoden":12480,"Ġ(#%-":12481,"ĠCrohn":12482,"ĠIMT":12483,"alingen":12484,"Ġeosinof":12485,"toets":12486,"Ġirreversib":12487,"rectomie":12488,"Ġsurve":12489,"ĠNeurologie":12490,"osoom":12491,"Ġbul":12492,"ĠâĨ²":12493,"Ġ2012":12494,"ĠApixaban":12495,"Ġtenzij":12496,"Ġstenting":12497,"lande":12498,"Ġtambocor":12499,"ĠMetS":12500,"Ġalsmede":12501,"ĠGemiddel":12502,"Ġaortaboog":12503,"Ġsubopt":12504,"Ġsyndromen":12505,"Ġtoenemen":12506,"09":12507,"nist":12508,"Ġbeslissing":12509,"Ġwereldwijd":12510,"otrex":12511,"Ġverwijzers":12512,"reekuur":12513,"ĠJournaal":12514,"YP":12515,"ĠVEGF":12516,"Ġuitlok":12517,"cyclus":12518,"iltiazem":12519,"otoxiciteit":12520,"Ġgemeenschap":12521,"/âĪĴ":12522,"Ġdiabetesp":12523,"Ġelast":12524,"Ġhartspier":12525,"dus":12526,"houdendheid":12527,"peling":12528,"Nazorginstantie":12529,"Ġoesofagus":12530,"ORD":12531,"arth":12532,"Î³":12533,"necrose":12534,"episodelijst":12535,"Ġnefroloog":12536,"Ġopgezet":12537,"Ġsal":12538,"Ntg":12539,"ĠKennislacunes":12540,"Ġ47":12541,"ĠSchildklier":12542,"ĠVerantwoording":12543,"Ġgerichte":12544,"Ġnaald":12545,"Ġeenvoudig":12546,"Ġgift":12547,"bo":12548,"grote":12549,"Ġdaadwerk":12550,"Ġatelectase":12551,"Ġontwikkelden":12552,"Bent":12553,"Ġindicaties":12554,"ÂŃ":12555,"Ġbestraling":12556,"ni":12557,"plication":12558,"Ġsinusbradycardie":12559,"urinol":12560,"ĠOngewijzigde":12561,"ĠAtorvastatine":12562,"Ġanalysis":12563,"compressie":12564,"Ġinfiltratie":12565,"Ġspiegels":12566,"Ġvoortgeleiding":12567,"beloven":12568,"Hoewel":12569,"feer":12570,"Ġaang":12571,"receptoren":12572,"Ġwkn":12573,"liggen":12574,"Ġreduc":12575,"Ġcardiologiedossier":12576,"baan":12577,"Ġharde":12578,"ĠSelokeen":12579,"ĠMi":12580,"ĠTGF":12581,"Ġhierop":12582,"Ġulcer":12583,"oncoloog":12584,"Ġpathofysiologie":12585,"Ġreguliere":12586,"ĠToename":12587,"NB":12588,"itoren":12589,"yline":12590,"Ġendoscopische":12591,"Ġhartafwijkingen":12592,"bereiding":12593,"Ġzorgvuldig":12594,"gemaakt":12595,"gelicht":12596,"hem":12597,"Ġadhesie":12598,"Ġpneumon":12599,"frine":12600,"Ġsterker":12601,"ĠElektrofysiologie":12602,"Ġpassende":12603,"stimulatie":12604,"pagina":12605,"Ġspeciale":12606,"Ġgemedieerd":12607,"Ġbouw":12608,"Ġhierboven":12609,"link":12610,"Ġcycli":12611,"En":12612,"ĠEDI":12613,"ĠCenter":12614,"Ġervaringen":12615,"Ġfoetale":12616,"(#),":12617,"Ġbloedings":12618,"Ġatriumfibrillatie":12619,"oppen":12620,"Ġinvent":12621,"oncent":12622,"ĠOpmerk":12623,"Ġbevordert":12624,"pool":12625,"Ġdeed":12626,"Maximum":12627,"Ġtam":12628,"lectie":12629,"Ġoperaties":12630,"Ġfibrillatie":12631,"nit":12632,"ĠVAN":12633,"Ġextrasystolie":12634,"61":12635,"dimeer":12636,"ĠLPA":12637,"Ġassay":12638,"danig":12639,"cohort":12640,"Ang":12641,"Ġversterkte":12642,"Ġaangepaste":12643,"54":12644,"Ġhoogst":12645,"Ġbijnier":12646,"Ġlocale":12647,"Ġearly":12648,"ĠgeÃ¯nformeerd":12649,"artefacten":12650,"coronaire":12651,"Ġdeelnemende":12652,"Ġprimary":12653,"Ġoorspronkelijke":12654,"Ġwijzigen":12655,"sustained":12656,"ĠbÃ¨tablokkers":12657,"Pulm":12658,"ratific":12659,"bespreking":12660,"Ġpres":12661,"Ġaanbrengen":12662,"icl":12663,"Ġ'#":12664,"ĠFEV":12665,"Ġgister":12666,"Ġveelbeloven":12667,"Ġsindsdien":12668,"Ġethische":12669,"IEF":12670,"Ġarbeid":12671,"kwam":12672,"trig":12673,"drain":12674,"Ġverwijzersnummer":12675,"ĠHeparine":12676,"Ġbestuderen":12677,"Ġsteeg":12678,"Ġinfarcten":12679,"ipl":12680,"onent":12681,"ĠKanker":12682,"geassocieerde":12683,"ĠBo":12684,"EFO":12685,"Ġuitzondering":12686,"ĠDiffuus":12687,"ĠWacht":12688,"incontinentie":12689,"pulmonale":12690,"inclusief":12691,"Ġstadia":12692,"Ġ58":12693,"ĠPalpitaties":12694,"direction":12695,"Ġante":12696,"ĠNormal":12697,"oemen":12698,"Ġpsychologische":12699,"ousen":12700,"Ġ120":12701,"Ġopvragen":12702,"He":12703,"Ġafgrensbare":12704,"Ġtrombosedienst":12705,"Ġ59":12706,"Ġhydroc":12707,"Ġintermediair":12708,"leboog":12709,"ĠMACE":12710,"Ġenorm":12711,"Ġaccumulatie":12712,"Ġpathologisch":12713,"mmetrische":12714,"embolische":12715,"ĠUitleg":12716,"Ġgedaald":12717,"Ġgestim":12718,"ematologie":12719,"Ġabdominalis":12720,"ĠUitgangsvraag":12721,"voegde":12722,"ĠMoeder":12723,"Ġinfiltratieve":12724,"yspneu":12725,"ĠSpoortje":12726,"ĠBD":12727,"Ġgevaar":12728,"ĠMinimale":12729,"Fluor":12730,"icolon":12731,"worpen":12732,"Ġincl":12733,"ivol":12734,"Ġinsuff":12735,"Ġverscheiden":12736,"Ġerfelijke":12737,"Ġbescha":12738,"Ġresolutie":12739,"Ġvaatwand":12740,"Ġcurve":12741,"Ġmotorische":12742,"Sheath":12743,"pleegkundigen":12744,"mendations":12745,"ĠGisteren":12746,"Ġoff":12747,"maxim":12748,"ementen":12749,"Ġescap":12750,"conform":12751,"ĠLaboratoriumuitslagen":12752,"Ġzwangere":12753,"Ġdiurese":12754,"Ġaortast":12755,"Ġverantwoordelijkheid":12756,"Ġ-#.#":12757,"Ġgastroscopie":12758,"fasc":12759,"Ġdraa":12760,"Ġ53":12761,"Ġatypisch":12762,"ĠDig":12763,"curve":12764,"Ġcerebrovasculaire":12765,"Ġplanning":12766,"Ġcursus":12767,"beeldvorming":12768,"Ġsensor":12769,"rint":12770,"Ġspecieel":12771,"inetisch":12772,"Ġgewrichten":12773,"thm":12774,"VC":12775,"ioloog":12776,"yndroom":12777,"ussent":12778,"Sens":12779,"Ġvoorbeeld":12780,"ĠBar":12781,"ald":12782,"kliniek":12783,"Ġapothe":12784,"ĠGebeld":12785,"ision":12786,"odont":12787,"ĠAllergieÃ«n":12788,"FE":12789,"Ġscintigram":12790,"Ġnp":12791,"regio":12792,"Ġmyoview":12793,"trent":12794,"Ġinfero":12795,"ween":12796,"Ġverdwijnen":12797,"Ġgrondslag":12798,"ĠTractus":12799,"leven":12800,"erapeut":12801,"otrans":12802,"Ġnegen":12803,"Ġgewone":12804,"infecties":12805,"ĠBB":12806,"ĠInterventie":12807,"Zijde":12808,"Ġbestuur":12809,"ĠreumatoÃ¯de":12810,"ĠDoet":12811,"gevoerde":12812,"Ġstimuleren":12813,"Ġplavix":12814,"Ġgewrichts":12815,"Ġtuberculose":12816,"osuvastatine":12817,"Ġplaatsgevonden":12818,"Ġgenezing":12819,"Ġmitraalklep":12820,"Ġprominente":12821,"QRS":12822,"spar":12823,"Ġdiafragma":12824,"orende":12825,"Ġbidirection":12826,"Ġpolibezoek":12827,"Ġonderzoeker":12828,"Ġatrofie":12829,"ĠInterne":12830,"Ġnor":12831,"Ġveld":12832,"Ġvanavond":12833,"ĠNeuro":12834,"Ġspann":12835,"rucht":12836,"ĠDAPT":12837,"Ġdoelen":12838,"Ġlux":12839,"ORM":12840,"ĠOog":12841,"Ġomgekeerd":12842,"deficiÃ«ntie":12843,"ĠOngeveer":12844,"Punctie":12845,"Ġcorrect":12846,"tromb":12847,"ifen":12848,"ĠPatint":12849,"Ġbaby":12850,"Ġgelux":12851,"Ġsturen":12852,"Ġused":12853,"Ġinformeren":12854,"agl":12855,"Ġnatriur":12856,"Ġrosuvastatine":12857,"ĠAnti":12858,"Ġstudiepopulatie":12859,"Ġinjvlst":12860,"Ġmobiliseren":12861,"neiging":12862,"Ġsemi":12863,"stitut":12864,"Ġovarium":12865,"Ġzak":12866,"ĠProgn":12867,"blasten":12868,"olecalciferol":12869,"Ġhistopath":12870,"Ġkm":12871,"ĠBijwerkingen":12872,"ĠEBU":12873,"ĠRVP":12874,"time":12875,"Ġmoeizaam":12876,"rocardiografie":12877,"ĠMaag":12878,"Ġdemografische":12879,"Follow":12880,"Ġbeoog":12881,"Ġvegetaties":12882,"ĠMa":12883,"52":12884,"Ġramus":12885,"Ġimpon":12886,"Ġmeegenomen":12887,"ĠAZN":12888,"Ġzweten":12889,"Ġgestegen":12890,"Ġcolorect":12891,"ramide":12892,"apine":12893,"Ġbezwaren":12894,"coÃ«fficiÃ«nt":12895,"ĠET":12896,"ck":12897,"ĠOSA":12898,"ĠOnveranderd":12899,"Ġtelefoonnummer":12900,"esen":12901,"Ġzogenaamde":12902,"werkers":12903,"Ġmevrouw":12904,"verklaringen":12905,"Ġsuik":12906,"Ġadjuvante":12907,"Ġcorfiguur":12908,"escand":12909,"Bi":12910,"ĠPersisterend":12911,"ĠCreat":12912,"Left":12913,"lim":12914,"Ġuitgel":12915,"opamine":12916,"Ġeu":12917,"Ġomtrent":12918,"cijfers":12919,"stijging":12920,"Ġkwetsbare":12921,"afil":12922,"Ġgescheiden":12923,"Ġgeassocieerde":12924,"ĠToegang":12925,"ĠRedelijk":12926,"ĠSal":12927,"Ġwoont":12928,"Trombo":12929,"ibiliteit":12930,"fun":12931,"ĠThe":12932,"Amerik":12933,"organisatie":12934,"ĠcLVH":12935,"oa":12936,"Ġgeproduceerd":12937,"Ġlevensstijl":12938,"ĠSU":12939,"ĠVal":12940,"breed":12941,"Ġevol":12942,"hg":12943,"Ġgemeenschappelijke":12944,"bro":12945,"Ġoverleggen":12946,"ĠCentrum":12947,"orven":12948,"Ġed":12949,"ĠVraag":12950,"Ġbestand":12951,"ĠHelder":12952,"training":12953,"Ġcommunis":12954,"rofische":12955,"Ġtele":12956,"heeft":12957,"ĠWire":12958,"Proxim":12959,"Ġverlicht":12960,"Ġdefecten":12961,"ĠAg":12962,"Ġkrachtige":12963,"hma":12964,"ĠScan":12965,"specialist":12966,"verhoging":12967,"techniek":12968,"Catheter":12969,"Ġ#.#-#.#":12970,"ĠIHD":12971,"Ġvermoed":12972,"Ġcoarct":12973,"arbonaat":12974,"MCV":12975,"klinisch":12976,"Ġeindpunten":12977,"ĠMultidisciplin":12978,"cir":12979,"Ana":12980,"myocard":12981,"tende":12982,"Ġgekoppeld":12983,"Ġbad":12984,"ization":12985,"adering":12986,"ĠEZ":12987,"ĠLater":12988,"Ġstroomgebied":12989,"sneden":12990,"zumab":12991,"Ġvasculair":12992,"redi":12993,"behoe":12994,"Ġinitieel":12995,"event":12996,"96":12997,"ĠMitralisklep":12998,"wat":12999,"clav":13000,"ijfer":13001,"antilichamen":13002,"Ġlev":13003,"aandoening":13004,"Ġvarieert":13005,"Ġepig":13006,"Ġversterkt":13007,"Ġontplo":13008,"Verantwoordelijke":13009,"onectine":13010,"Ġ-),":13011,"ĠNevenbevindingen":13012,"Ġdienstdoende":13013,"Ġ2013":13014,"verenigingen":13015,"Ġartsenbezoek":13016,"ĠRecidiverende":13017,"modi":13018,"Ġappendectomie":13019,"vacc":13020,"Ġhome":13021,"Algemeen":13022,"Ġnatuurlijk":13023,"sorptie":13024,"Ã«ren":13025,"Ġzelfde":13026,"Afdeling":13027,"Ġstandaarddeviatie":13028,"Ġtet":13029,"lopurinol":13030,"hulp":13031,"plicht":13032,"ĠcTn":13033,"Ġbiopten":13034,"Ġbinnenkomst":13035,"Ġgeluxeerd":13036,"ĠACI":13037,"Ġvierde":13038,"effectiviteit":13039,"ĠLijkt":13040,"BSE":13041,"creatinine":13042,"âĢ²":13043,"Ġmagnesium":13044,"verdeling":13045,"Ġef":13046,"Perindopril":13047,"inderen":13048,"ĠOAC":13049,"Ġexacte":13050,"stor":13051,"ĠSlechts":13052,"ĠHoofddiagnose":13053,"ways":13054,"ĠgeÃ¯nformeerde":13055,"genoeg":13056,"ĠHyd":13057,"Ġ2011":13058,"commissie":13059,"spannen":13060,"Ġslechtere":13061,"ĠHCT":13062,"ĠDivisie":13063,"Ġlaser":13064,"Ġhoofdstuk":13065,"Goede":13066,"signaal":13067,"Toegangslocatie":13068,"ĠRitmestoornissen":13069,"Ġmanifestaties":13070,"Ġspectrum":13071,"signalering":13072,"Ġsect":13073,"Ġleggen":13074,"Ġobject":13075,"-<":13076,"kkingen":13077,"ĠpartiÃ«le":13078,"Ġvergelijkingen":13079,"Ġbijzondere":13080,"Pijn":13081,"ĠHelaas":13082,"Ġstabil":13083,"mnd":13084,"Ġdank":13085,"58":13086,"idon":13087,"werker":13088,"Ġnabl":13089,"Nevendiagnoses":13090,"92":13091,"epten":13092,"Ġremodellering":13093,"Ġroodheid":13094,"reperfusie":13095,"Ġonderworpen":13096,"kanalen":13097,"Ġaanvragen":13098,"advies":13099,"Ġ(#,#%)":13100,"Ġmultiple":13101,"NG":13102,"Ġdetermin":13103,"Ġfijn":13104,"scheiding":13105,"stract":13106,"ragers":13107,"rengt":13108,"Ġechoven":13109,"ĠDes":13110,"Ġoptimaliseren":13111,"ĠPub":13112,"Ġklaagde":13113,"Ġpathogene":13114,"Ġvastgelegd":13115,"Ġene":13116,"Ġverlenging":13117,"Ġvanzelf":13118,"Ġvariabiliteit":13119,"alf":13120,"Ġgedeeltelijke":13121,"elet":13122,"uwings":13123,"ĠAust":13124,"ĠTromb":13125,"Hartslag":13126,"Ġterecht":13127,"Ġinferopost":13128,"Ġkent":13129,"Ġuse":13130,"Ġbehoud":13131,"Ġvanmiddag":13132,"ĠPatiÃ«ntnummer":13133,"ĠGecom":13134,"Ġwandbewegingen":13135,"Ġabnormaal":13136,"Ġstoel":13137,"Ġ57":13138,"Ġmeldt":13139,"Ġverwijding":13140,"Ġinduceert":13141,"ĠAntistof":13142,"dox":13143,"Ġ62":13144,"Ġtakken":13145,"ara":13146,"Ġbevolkings":13147,"ralaterale":13148,"ĠParacetamol":13149,"aalf":13150,"telijke":13151,"Ġcompart":13152,"Ġtaille":13153,"ISCHE":13154,"Ġtint":13155,"Ġintegr":13156,"tumor":13157,"Ġaa":13158,"idente":13159,"ĠScale":13160,"Ġtrekken":13161,"Ġvergroting":13162,"Ġketen":13163,"ĠZuur":13164,"Ġgemengde":13165,"Ġbar":13166,"allen":13167,"Ġgrad":13168,"vd":13169,"Ġdiagnoses":13170,"inspanning":13171,"ancy":13172,"keren":13173,"ĠHis":13174,"Ġcysten":13175,"Ġ51":13176,"Ġstro":13177,"Ġobserveerden":13178,"burg":13179,"ĠHART":13180,"log":13181,"Ġreageren":13182,"Ġemotionele":13183,"strategieÃ«n":13184,"Ġremodeling":13185,"Ġ#;<":13186,"Ġwrs":13187,"Ġmonotherapie":13188,"Ġhardlopen":13189,"Ġmajor":13190,"Ġinspiratie":13191,"Ġtransplant":13192,"Ġ%;":13193,"Ġveroudering":13194,"Ret":13195,"ĠHeelkunde":13196,"ĠIets":13197,"Ġantwoorden":13198,"Ġuitgelegd":13199,"disfunctie":13200,"giÃ«":13201,"Ġblokkade":13202,"Ġherstelde":13203,"Ġperspectief":13204,"kortingen":13205,"ĠAngina":13206,"ĠInmiddels":13207,"thuis":13208,"Ġingedeeld":13209,"Ġtrappen":13210,"gewrichten":13211,"Ġurin":13212,"Ġ+#":13213,"uGym":13214,"Ġontdekten":13215,"Ġdoublet":13216,"Ġlandelijke":13217,"ĠKorte":13218,"HC":13219,"diameter":13220,"ĠBra":13221,"elfase":13222,"Ġbetrof":13223,"ĠSure":13224,"NSTEMI":13225,"ĠRvO":13226,"orde":13227,"ĠVerander":13228,"Ġ150":13229,"Ġopzet":13230,"Ġmic":13231,"variatie":13232,"Ġsomatische":13233,"romy":13234,"elefonische":13235,"Ġfluoroscopie":13236,"Ġgevorderde":13237,"Ġvarianten":13238,"Ġwekelijk":13239,"Ġbinnenkort":13240,"NOVA":13241,"Ġhartkatheterisatie":13242,"Ġbigeminie":13243,"51":13244,"emic":13245,"iltratie":13246,"umoren":13247,"Ġverwachting":13248,"ixatie":13249,"Ġtabletten":13250,"school":13251,"keuring":13252,"Ġmorfine":13253,"ĠUniversitair":13254,"Ġplant":13255,"Ġassessment":13256,"Ġvoortgezet":13257,"Ġdruppel":13258,"isel":13259,"Ġbevelen":13260,"uul":13261,"ĠCHF":13262,"amiliaire":13263,"entrum":13264,"Ġductus":13265,"vak":13266,"Ġvolgde":13267,"aliemie":13268,"ranolol":13269,"Ġlevensbed":13270,"ota":13271,"Ġeenheid":13272,"ĠECM":13273,"Description":13274,"blokkade":13275,"geÃ¯n":13276,"Ġaspiratie":13277,"Ġ(âī":13278,"Ġspondyl":13279,"Ġ#-<":13280,"Ġparavalvulaire":13281,"Ġbegeleiden":13282,"Ġinternat":13283,"Ġpylori":13284,"Prograft":13285,"Ġpauzes":13286,"educ":13287,"Ġgrootschal":13288,"cholesterolaemie":13289,"Ġcarcinoma":13290,"Ġplacebogroep":13291,"ĠIKNL":13292,"omtrek":13293,"aarde":13294,"Ġhypof":13295,"Controlateral":13296,"Geboortedatum":13297,"komend":13298,"Ġconservatieve":13299,"reeks":13300,"Ġrecur":13301,"Ġenigszins":13302,"ĠSMART":13303,"nod":13304,"eenh":13305,"Ġwaarnem":13306,"ĠHoge":13307,"Ġoverplaatsing":13308,"Ġbelangenconflict":13309,"tussen":13310,"Ġvoorzichtig":13311,"Ġsignalering":13312,":#/#":13313,"Ġbran":13314,"Ġcolchicine":13315,"Ġlet":13316,"ĠInstituut":13317,"Ġstamcel":13318,"ĠApo":13319,"Ġvullingsdrukken":13320,"atose":13321,"ĠDo":13322,"denten":13323,"ĠInhoud":13324,"Ġverloren":13325,"ĠdiabetespatiÃ«nten":13326,"Closure":13327,"Ġbrand":13328,"Ġdynamische":13329,"Ġzakt":13330,"ulerend":13331,"metrie":13332,"back":13333,"Ġvergelijkend":13334,"orders":13335,"Ġ[-":13336,"Ġvochtbeperking":13337,"opend":13338,"correctie":13339,"etering":13340,"Ġsterkte":13341,"Ġlokalisatie":13342,"Ġveelvoor":13343,"Ġpectoralis":13344,"ulering":13345,"Ġgemat":13346,"pop":13347,"drug":13348,"Ġ99":13349,"sproef":13350,"ologic":13351,"nectie":13352,"Ġ500":13353,"ĠNeem":13354,"snel":13355,"Ġelektrocardiogram":13356,"Ġ(#%).":13357,"Ġindicator":13358,"Ġbloedonderzoek":13359,"Ġmerkt":13360,"dnisolon":13361,"oide":13362,"olair":13363,"Ġstil":13364,"ĠVitale":13365,"aalden":13366,"Ġhoeveelheden":13367,"Ġgevest":13368,"ĠKlaring":13369,"Aandachtspunten":13370,"ĠCMV":13371,"âĪĴ/âĪĴ":13372,"Ġnauwkeurig":13373,"Ġgeoccludeerd":13374,"Ġontvangt":13375,"ozyg":13376,"Ġdermatoloog":13377,"vullings":13378,"Ġeut":13379,"Ġversnel":13380,"Ġtoegewezen":13381,"ĠSamenstelling":13382,"Ġopenen":13383,"action":13384,"ĠIVUS":13385,"Ġ(#).":13386,"rinsieke":13387,"Ġ63":13388,"gesloten":13389,"ĠlongembolieÃ«n":13390,"Ġ(\"":13391,"spoed":13392,"aanval":13393,"ĠMc":13394,"Ġopvallende":13395,"Ġgalwegen":13396,"Ġbijkomende":13397,"Ġgehaald":13398,"ĠAntistofscreening":13399,"juni":13400,"laesie":13401,"ĠNIDM":13402,"Ġmentale":13403,"speriode":13404,"93":13405,"ĠATPdc":13406,"derivaten":13407,"anje":13408,"Sotalol":13409,"udo":13410,"ĠBelangen":13411,"Ġangiografisch":13412,"houdend":13413,"sequ":13414,"ĠHU":13415,"Ġverkalkt":13416,"Ġdeskundigen":13417,"Ġtrombolyse":13418,"Ġthat":13419,"Agatston":13420,"Ġhoren":13421,"ech":13422,"Ġaangenomen":13423,"Medische":13424,"ĠFeb":13425,"Ġdiameters":13426,"idemiologie":13427,"pression":13428,"Ġglykemische":13429,"Fluoroscopy":13430,"Ġinjecties":13431,"erdag":13432,"Punctieplaats":13433,"urine":13434,"zinking":13435,"abdomin":13436,"Ġooit":13437,"94":13438,"ĠWD":13439,"ocortic":13440,"Ġparast":13441,"Ġoogdruppels":13442,"verwij":13443,"Ġ2000":13444,"ĠItal":13445,"Ġcollateralen":13446,"Ġreport":13447,"Ġgereguleerde":13448,"ĠInspannings":13449,"geruisen":13450,"Ġantistoffen":13451,"Ġzwanger":13452,"ips":13453,"Ġtandheelkundige":13454,"Ġkeur":13455,"nef":13456,"Ġsuggestief":13457,"Ġtunnel":13458,"Ġkruis":13459,"ĠECHO":13460,"slaan":13461,"Ġresistentie":13462,"Ġkleuring":13463,"toediening":13464,"Ġadviseren":13465,"ĠAlhier":13466,"ĠInst":13467,"yridamol":13468,"ĠChild":13469,"VAR":13470,"Ġvergroten":13471,"tering":13472,"Ġuitstekend":13473,"ĠPath":13474,"Ġhila":13475,"ĠCentrale":13476,"iop":13477,"ĠEvaluation":13478,"07":13479,"ĠNuchter":13480,"krut":13481,"ingsstoornissen":13482,"Ġplatliggen":13483,"Ġamoxicilline":13484,"ctasie":13485,"Ġntb":13486,"ronik":13487,"ĠStartpagina":13488,"Ġiliaca":13489,"ĠDA":13490,"ĠBelangrijke":13491,"ĠElke":13492,"Ġke":13493,"ĠChirurgie":13494,"opy":13495,"ĠOste":13496,"Ġzwakte":13497,"Ġmulticenter":13498,"Reg":13499,"Ġpalpatie":13500,"ĠEndot":13501,"sle":13502,"Ġatrio":13503,"related":13504,"Ġamputatie":13505,"uravocht":13506,"ĠImplantatie":13507,"Ġ=>":13508,"Ġterugkeer":13509,"ofageale":13510,"RF":13511,"ariteit":13512,"ĠOD":13513,"Ġmindere":13514,"ĠGa":13515,"omgeving":13516,"ĠCalc":13517,"oedig":13518,"ĠIAS":13519,"ĠMVR":13520,"Ġbronchitis":13521,"ĠMetformine":13522,"ĠVisite":13523,"Sensitivity":13524,"Ġaantallen":13525,"afgeleide":13526,"psych":13527,"ĠStroke":13528,"Ġdoseringen":13529,"#-#-#":13530,"ĠWHO":13531,"Ġzwakke":13532,"ĠGescand":13533,"Ġinfo":13534,"Ġht":13535,"ionaal":13536,"Ġaandachtsgebieden":13537,"Ġflauw":13538,"dienen":13539,"08":13540,"halen":13541,"gerust":13542,"ĠTest":13543,"Ġirregulair":13544,"aglif":13545,"oll":13546,"Ġpch":13547,"loxacine":13548,"Ġsheath":13549,"eph":13550,"Ġasthma":13551,"ĠSignificante":13552,"ample":13553,"familie":13554,"ĠBio":13555,"Ġelektrolyten":13556,"Poli":13557,"ĠOnbekend":13558,"Ġcommentaren":13559,"ĠFen":13560,"Ġabl":13561,"Staged":13562,"Ġveelal":13563,"Ġ68":13564,"Ġhomograft":13565,"Ġ300":13566,"Ġschriftelijk":13567,"+)":13568,"gecorrige":13569,"vantie":13570,"Ġverschilde":13571,"Ġgeleverd":13572,"cycl":13573,"ondentie":13574,"gebeld":13575,"ubbel":13576,"Ġjl":13577,"Ġtabellen":13578,"Ġprospective":13579,"ributie":13580,"Ġtraden":13581,"Ġtechnische":13582,"delt":13583,"ĠLoh":13584,"Ġelectrocardi":13585,"Ġnormalisatie":13586,"Ġimmunosup":13587,"keuren":13588,"ĠCoronaire":13589,"Ġprofessionals":13590,"Ġicm":13591,"Ġnodulaire":13592,"ophage":13593,"Ġreproduc":13594,"Ġgekleur":13595,"ility":13596,"Ġinspanningsgebonden":13597,"irur":13598,"Ã¯den":13599,"Previous":13600,"uan":13601,"Ġhoeft":13602,"ino":13603,"Ġforward":13604,"ĠMeestal":13605,"Ġmedium":13606,"ĠSamenvat":13607,"Ġcontro":13608,"Ġvisite":13609,"Ġvoe":13610,"Ġballondilatatie":13611,"bepaling":13612,"Ġorthoped":13613,"ĠYork":13614,"RAZ":13615,"Advies":13616,"Ġbedrijfs":13617,"ĠNevendiagnoses":13618,"Extr":13619,"ĠBest":13620,"ĠERI":13621,"Ġuiteraard":13622,"Ġdip":13623,"ĠAdvis":13624,"ĠWPW":13625,"Ġklin":13626,"ĠEmb":13627,"ĠBr":13628,"Ġtime":13629,"ulitis":13630,"ĠMGA":13631,"Ġeryt":13632,"lange":13633,"onor":13634,"Ġhomogene":13635,"Ġenzy":13636,"Ġoverleven":13637,"ĠQuality":13638,"Ġader":13639,"inemie":13640,"aneur":13641,"Ġwere":13642,"ĠLife":13643,"Ġcompleet":13644,"Ġstapeling":13645,"onazol":13646,"Ġrandomised":13647,"Ġgli":13648,"geling":13649,"Ġvingers":13650,"jun":13651,"voldoende":13652,"ĠLF":13653,"ĠMJ":13654,"Ġslijmvlies":13655,"oritme":13656,"systemen":13657,"Ġvroeger":13658,"ANN":13659,"Ġaangekomen":13660,"Ġverbeteringen":13661,"Ġtoelichting":13662,"glas":13663,"Ġ61":13664,"care":13665,"Ġverergering":13666,"slaving":13667,"Ġvoldeden":13668,"ioden":13669,"Ġbovenkwab":13670,"Ġenalapril":13671,"Ġmobiel":13672,"sterfte":13673,"laarde":13674,"Ġanatomy":13675,"Ġgevormd":13676,"kels":13677,"ofagie":13678,"Ġcumulatieve":13679,"Bovengenoemde":13680,"oman":13681,"Ġpdr":13682,"Ġeisen":13683,"Ġdichtbij":13684,"PET":13685,"Ġaortae":13686,"Ġbronchiale":13687,"Ġsulf":13688,"002":13689,"Ġuroloog":13690,"ostaal":13691,"Ġsv":13692,"ĠFr":13693,"Ġgenexpressie":13694,"Ġvereiste":13695,"Ġremt":13696,"waarts":13697,"Ġgeactiveerd":13698,"ĠEerst":13699,"Ġgemetast":13700,"acuut":13701,"apopt":13702,"ĠHUIS":13703,"markers":13704,"iae":13705,"91":13706,"97":13707,"Ġfenot":13708,"Ġfec":13709,
[...]
