#version: 0.2 - Trained by `huggingface/tokenizers`
Ġ Ġ
e n
e r
i n
i e
a n
ĠĠ ĠĠ
g e
Ġ v
Ġ d
a t
i j
Ġ m
o r
e l
Ġ o
s t
c h
e t
a l
Ġ b
a r
i s
Ġ h
Ġ n
Ġ ge
o n
Ġ p
Ġ t
r e
o l
in g
Ġ w
Ġ a
Ġ P
i t
e d
Ġd e
o or
Ġ 1
Ġ en
Ġ in
ch t
ĠĠ Ġ
d er
r o
2 0
Ġ l
Ġ k
Ġ z
Ġ s
d e
r a
Ġ e
Ġv an
Ġ A
Ġ G
Ġ c
E R
Ġo p
a ar
ĠĠĠĠ ĠĠĠĠ
at ie
O N
l e
c t
l a
Ġ (
o m
g en
ER S
ERS ON
a m
Ġm et
e e
i d
ĠP ERSON
Â ł
Ġ g
Ġ -
u r
o g
Ġv er
k en
u s
Ġ B
Ġ D
Ġ C
o e
i c
en t
Ġ u
ij k
Ġb e
Ġ 2
a g
Ġo n
d en
o p
ij n
i g
Ġ M
v er
Ġ V
u m
Ġ S
ie t
s e
20 1
o ed
e er
a al
Ġ H
i l
Ġe en
Ġv oor
Ġb ij
o t
Ġ O
Ġge en
Ġ re
Ġa an
Ġ st
a s
e m
s p
is ch
f t
Ġh et
Ġ I
Ġ is
an d
u l
i k
Ġ T
P E
Ġ L
ĠG e
r u
n t
Ġn iet
Ġ 3
al e
ar t
Ġ N
Ġ f
Ġt e
a b
Ġa f
Ġ R
el e
ct ie
Ġ E
a k
v en
t e
i er
ĠG PE
_ _
on t
e s
a at
at i
in e
Âł Âł
o s
Ã «
Ġon der
Ġn a
Ġ 0
or m
d i
u n
Ġ al
ee ft
n e
a p
0 0
el ijk
Ġm g
oe k
Ġ 4
w e
s ch
o c
ĠGe en
ing en
en d
i st
z oek
i cht
Ġo ver
i r
Ġ 5
Ġ an
isch e
201 7
o u
in k
t en
Ġu it
e el
Ã« nt
a an
o k
n am
ic atie
ge l
ĠĠĠĠĠĠĠĠ ĠĠĠĠĠĠĠĠ
Ġ K
a st
ĠĠĠĠ Ġ
p er
on d
Ġg oed
a d
i m
â Ģ
Ġn aar
Ġd oor
- -
ati Ã«nt
Ġ er
v e
e g
u ur
ie k
Ġp ro
Âł Ġ
an g
Ġ W
o og
Ġo m
Ġw aar
Ġo f
Ġh eeft
Ġ r
h e
i ge
cht en
Ġc ont
u is
c l
o f
er d
st e
s la
er en
Ġn og
Ġ âĢ
w ij
i en
Ġ F
cht er
Ġ 6
ĠĠ Ċ
in d
l en
Ġd at
d d
Ġp er
Ġ j
Ġ i
ed en
Ġs p
om en
Ġ U
u w
Ġonder zoek
r ol
ie s
Ġge b
ij d
s en
Ġw or
a c
el ing
el d
la chten
e p
Ġl ink
a ct
ĠâĢ ¢
Ġ1 0
Ġp ijn
__ __
us ie
ol og
o se
Ġ 201
Ġz ijn
Ġm o
on der
le g
b e
a cht
Ġon t
M C
p l
u t
Ġ 20
o el
ĠA l
h and
ĠI n
Ġv ol
z e
l oed
i ch
ĠD e
1 0
Ġ Z
Ġw e
or t
o d
cht s
nam e
cl usie
s ie
Ġm ed
m a
ele id
ra ag
i a
Ġw el
er k
an t
) .
eer d
ĠC on
e c
j e
ÂłÂł ÂłÂł
ĠS t
Ġ 7
o st
Ġ 8
u id
Ġo ok
it e
Ġn u
o en
1 1
Ġd i
i um
Ġin f
Ġp atiÃ«nt
re s
sla g
ĠĠĠĠ ĠĠĠ
a x
he id
Ġin t
ĠĠĠĠ ĠĠ
ĠV er
ne se
ĠCon clusie
Ġd an
Ġt ot
f f
v oor
ee k
gel ijk
Ġ 9
l in
l u
v al
r ij
Ġp ol
a f
i p
in der
e u
p en
Ġc ol
art s
l et
la at
E N
Ġt h
e b
ge ven
at um
i de
e ct
ent ie
Ġm eer
ul t
Ġge h
m en
n en
Ġm aar
l o
Ġ or
i b
e en
n a
4 4
Ġm m
ĠB eleid
Ġd it
ab let
Ġn orm
d t
olog ie
a ag
Ġge w
Ġk lachten
Ġh y
y m
c o
Ġre chts
ru ik
-- --
ken d
l ing
el f
Ġw at
ge sch
oor d
wij z
1 2
Ġlink s
e f
er g
t s
r an
Ġh er
l ijk
rol e
ie den
as s
) :
z ien
ĠB e
v ul
u b
der e
ite it
q u
er atie
l ij
it is
Ġc on
ru k
Ġu ur
at h
m g
Ġ +
Ġ Ċ
Ġt er
Ġbe hand
v ol
ro ken
b ij
Ġi v
o om
Ġu w
Ġd ag
P ERSON
op en
) ,
ieden is
Ġl e
i re
20 20
Ġ ch
gesch iedenis
Ġs ch
Ġal s
Ġh ier
Ġk an
et er
Ġt ablet
h al
ĠO p
Ġb loed
it ie
Ġw erd
b le
ĠV oor
201 8
Ġw as
s el
w ijk
ak t
Ġop name
Ġwor dt
Ġe er
ee m
re k
Ġ1 2
sp ra
ati ent
ar m
i v
ĠO n
k e
k er
Ġwor den
i f
o cht
I N
ĠA an
s l
o ven
ge b
o on
Ġge st
sp roken
ar di
ro m
ĠM ed
Ġiv m
R A
Ġd ie
gen omen
ot h
Ġ1 3
Ġge d
Ġ ru
at er
et en
p ijn
Ġ1 5
u it
ro uw
r on
er e
z en
ind s
1 9
or g
I E
Ġ0 20
o of
y s
ag n
di en
ur g
Ġ1 4
Ġn e
u g
ĠB ij
op t
Ġh ij
O L
k t
A T
____ ____
der s
Ġcol leg
Ġa d
Ġz e
Ġ Â
er v
u ik
Ġcont act
er s
at en
Ġh aar
Ġwaar voor
m in
ĠD atum
er ap
Ġd d
Ġz ich
ie l
ĠM et
id d
al is
Ġgeh ad
ra gen
en s
Ġz o
k un
Ġmo gelijk
oof d
s c
Ġd a
ĠS p
Ġd r
wijk ingen
Ġh uis
S T
Ġe x
Ġg aat
Ġg ro
Ġan t
u la
ĠA MC
gen s
ĠH eeft
o x
Ġz onder
st el
Ġt oe
Ġm a
G PE
Ġh oog
de m
ee st
Ġde ze
u p
nam nese
Ġz elf
Ġ ÂłĠ
at us
Ġge geven
k ing
ĠĠ ÂłĠ
Ġw eer
g t
1 7
ir urg
oed ing
el s
Ġmed icatie
Ġd aar
un ctie
am elijk
Ġv eel
l an
ĠC T
Ġh eb
n is
ĠĠĠ Ċ
6 6
e ctie
Ġwe ken
y p
Ġh em
v an
ent r
m e
Ġor aal
en de
Ġge v
p ro
Ġ1 9
Ġ /
c in
or gen
h ou
3 0
A L
u nt
ich amelijk
Ġlink er
atie f
on g
Ġcont role
ij den
Ġre chter
ol oog
i ale
Ġge zien
Ġ1 1
ĠI nt
el en
b en
os s
ĠP atiÃ«nt
la st
ĠA namnese
s u
h es
s ult
Ġver b
Ġaf wijkingen
r i
b aar
t h
l erg
Ġre c
Ġv ia
z ig
A R
Ġ1 6
p le
k lachten
st and
c om
Ġ :
Ġ20 0
Ġk om
we g
om ie
ge v
ĠO ver
Ġp ar
r ie
o b
t er
Ġw eek
Ġc om
Ġ3 0
Ġp atient
Ġda gen
Ġj aar
Ġz ij
ĠE r
oed er
Ġp laat
m et
u re
Ġgeb ruik
am nese
Ġn od
Ġmm ol
ĠA r
erap ie
Ġw il
em en
gen de
Ġal le
i aal
r icht
Ġnorm aal
Ġb el
l ies
ch o
ĠĠĠĠ Ċ
e st
A N
oss ier
a ge
ing s
d eling
1 8
or ax
ra m
R I
Ġc m
o et
spra ak
y n
ra in
Ġz w
Ġ ur
' s
n ie
aat ste
et re
k l
Ġm in
Ġl ang
ĠL ichamelijk
m erk
ĠH et
Ġbehand eling
0 1
Ġk le
Ġ1 8
Ġp re
ar d
l end
Ġst art
Ġa c
Ġpro ble
orm atie
Ġaan wijz
lerg ie
Ġt o
R O
Ġhy per
v is
Ġbe kend
ik lin
ep t
Ġ2 5
oc y
elijk e
ĠR eden
acht e
ist ent
c op
Ġk g
Ġb en
am e
ÂłÂłÂłÂł ÂłÂłÂłÂł
0 5
etre ft
m at
d u
h uis
0 8
u we
we zig
i on
ym f
ĠN a
A M
y st
a se
Ġb uik
Ġver wij
Ġc or
Ġ1 7
an n
am il
Ġz iek
ĠĠĠĠĠĠĠĠĠĠĠĠĠĠĠĠ ĠĠĠĠĠĠĠĠĠĠĠĠĠĠĠĠ
---- ----
C H
Ġheb ben
ra ct
rom b
ĠR e
p t
Ġs inds
in f
Ġaan ge
Ġ1 00
h eden
0 6
0 2
d ruk
0 7
Ġn ier
Ġb oven
Ã« n
ĠV U
st ig
0 3
Ġver m
ele f
oor ts
1 5
vul lend
j es
Ġk eer
Ġm ee
Ġa b
Ġnod ig
G een
i gen
Ġ gen
Ġa p
Ġ2 4
E S
5 66
ab iel
Ġ x
z ol
at r
ĠVoor geschiedenis
sp rek
Ġh oe
Ġen k
e ur
Ġ 2017
Ġo b
ĠAr ts
ĠA f
ar cin
ijden s
Ġ *
Ġge l
iet s
Ġb ed
ĠC ont
Ġ4 0
e ft
Ġ J
m m
Ã ¯
ge st
v ies
Ġk unt
Ġc ardi
Ġt oen
Ġw v
d ag
ĠMed icatie
ie uwe
ar e
Ġo u
Ġp r
id ing
Ġh art
d ro
ed s
il l
h oog
ĠI s
h r
Ġl u
agn ose
Ġop eratie
Ġt ijd
arcin oom
em ie
A D
Ġp ost
Ġpol iklin
der d
Ġcolleg a
is s
Ġaanwijz ingen
ĠSt ap
0 9
s y
Ġp le
in nen
Ġh uid
Ġ ra
c ont
ĠÂ ·
Ġe v
Ġs c
t ra
res sie
Ġh oofd
or en
Ġm oe
n r
ot en
0 4
Ġt ra
ĠD i
k ken
ten sie
2 5
o de
aan den
op eratie
ĠN orm
Ġh el
Ġg er
Ġinf ormatie
m l
sla gen
Ġ '
Ġm an
Ġ ik
Ġgew eest
Ġnorm ale
ctie f
Ġm l
Ġvoor geschiedenis
eer de
ge en
ĠN iet
Ġle ver
Ġop ge
I C
ra cht
Ġl ast
Ġge sl
a v
u atie
ocy ten
amil ie
st en
Ġd ruk
Ġk un
Ġer g
o v
ĠP ol
Ġp at
I R
C T
Ġm oeder
ĠA d
w ee
E T
ĠAan vullend
d oen
ĠGe achte
m ed
o op
Ġ ro
Ġl ymf
is ic
E L
h ol
sy ch
ĠĠĠĠĠĠĠĠ ĠĠĠĠĠĠĠ
Ġont slag
u st
a der
z a
ver lies
ge m
Ġ iets
Ġw ij
Ġgegeven s
Ġbe g
Ġk oorts
Ġv ragen
sch ijn
re qu
hou den
Ġm aanden
Ġth uis
E H
os cop
O R
ic a
ath ie
ĠD D
icatie s
atie s
m ent
ven s
y se
al s
i der
Ġgoed e
st aan
Ġ |
os itie
Ġm e
Ġk l
ie le
Ġk en
Ġeer der
Ġaan wezig
ic i
ro f
ne st
Ġ2 1
Ġ X
Ġl ong
on de
Ġ201 6
s f
Ġ5 0
u us
p laat
ra al
y sp
Ġst e
z icht
is sel
Ġter ug
Ġ2 2
Ġaf deling
at uur
Ġn eg
ak e
d icatie
Ġbe sproken
Ġk inder
er t
I G
st ru
Ġs la
v ang
di ge
oor nis
Ġr ond
y l
O P
Ġs ub
r en
ĠU it
ass istent
Ġint er
Ġkun nen
Ġo og
Ġver d
ul p
ma akt
y c
ken de
ĠI C
n ee
ple eg
Ġver der
ĠB etreft
Ġz al
ĠĠĠĠĠĠĠĠ Ġ
ĠOn der
yp e
Ġhuis arts
ct iv
at e
an k
Ġaf spraak
la s
w aar
kun de
Ġge k
at or
acht ing
ar ige
al c
Ġ ,
ijd s
I S
oth erapie
atr ium
ou w
ijk t
z org
den king
z onder
ent e
Ġz ie
ar en
Ġm inder
re e
Ġ ?
Ġt elef
ĠĠĠĠĠ Ċ
an c
Ġl ab
Ġv rouw
Ġt em
ĠR R
ĠL ab
o gen
Ġ3 7
Ġz it
om ent
Ġkom t
Ġan amnese
oe m
Ġsp ra
Ġm idd
Ġn ieuwe
Ġm w
el l
Ġ arts
Ġna cht
c ose
Ġvol gens
O S
f orm
ĠS oc
ĠM RI
Ġ el
irurg ie
ĠT el
Ġ2 3
1 3
Ġs n
Ġproble men
ul m
Ġmo et
Ġst abiel
Ġvol gt
ĠO K
ee s
Ġver l
1 4
C A
Ġg raag
Ġt ijdens
ro se
Ġpat nr
Ġhy p
ĠP ijn
lergie Ã«n
iss elijk
* ,
schijn lijk
ĠA m
Ġg aan
k k
Ġe chter
Ġ >
Ġh ad
A MC
m idd
a ir
Ġad res
er ing
Ġ2 8
re at
ro p
u d
ĠpatiÃ«nt e
as sen
oe p
a ire
Ġz ou
we ge
w erk
ĠGe b
C G
Ġb innen
isic o
Ġgew icht
kl ier
olog isch
on den
Ġwaar bij
lu it
Ġcolleg iale
5 0
com pl
z et
2 4
t ijd
ĠN u
z ijds
ge le
Ġhoog achting
dem hal
Ġk lin
Ġl aten
Ġ art
oel t
hes ie
s ing
E P
oor t
m er
Ġop genomen
per atuur
onder zoek
Ġgev oel
su ff
Ġb lij
Ġe p
val len
ie f
Ġenk ele
al en
Ġan dere
Ġt ran
m c
ract uur
d at
ider zijds
1 6
Ġa de
Ġa sp
ra g
requ entie
n l
w eek
ĠM D
in u
i o
Ġv oeding
doen de
as c
zonder heden
nie uw
w el
Ġg ra
201 6
Ġb as
vol g
c c
w icht
A G
Ġd hr
Ġver richt
os is
Ġbe eld
A P
ic eerd
le p
Ġde f
v rouw
eu k
al ig
ne um
Ġover leg
am en
pleeg kun
Ġcon sult
in t
I D
ur en
Ġd u
Ġt en
or st
Ġ2 7
Ġinf ectie
oscop ie
s s
Ġ2 6
Ġst atus
Ġken merk
ĠB loed
al yse
co hol
Ġm orgen
g ang
or e
Ġs om
eel d
g te
Ġb eter
d omen
ĠVU MC
ie p
suff ici
ken huis
f unctie
Ġw ond
Ġver hoog
r il
Ġa m
Ġl ater
ĠD r
a ch
n emen
re eg
________ ________
u ele
o o
sch ap
Ġaf ge
Ġd ysp
Ġb eleid
u per
ĠC h
se ctie
S t
d ig
ĠG aat
b ere
Ġr et
lo w
Ġv ocht
ĠĠĠĠĠĠĠĠ ĠĠ
ĠP C
st oornis
Ġa chter
Ġp al
F R
ĠH ier
Ġmo b
o ver
re ken
E M
Ġne ur
Ġm oment
ula ire
i z
ink s
il is
Ġpol i
lu cose
Ġverb and
Ġm isselijk
Ġra di
Ġz ien
ĠP ro
g aan
Ġur ine
c on
an s
Ġalle en
i x
k g
st ige
Ġ %
= =
Ġp art
oem de
I n
ĠT e
z iek
stand ig
Ġv al
c ed
A S
be hand
Ġge eft
ĠA M
olog ische
Ġl ig
us sen
Ġvan d
ik k
44 4
le x
ĠE n
y per
um c
E D
eer t
ĠM ijn
in aal
en gte
Ġp ass
Ġst op
ĠC R
ir c
ĠD ossier
m ol
Ġ im
Ġs le
Ġwaar schijnlijk
Ġgest art
der en
ĠD it
gen oemde
ge geven
et am
Ġp ositie
w oord
ist eren
ula ir
Ġl icht
Ġvand aag
ĠB S
ĠA nest
Ġm aag
op athie
Ġh and
ĠA L
A C
g ro
ĠH uid
n oe
ri end
in ig
im aal
Ġ3 6
Ġma ken
Ġm ag
Ġl ijkt
Ġ5 00
Ġz org
Ġge z
d z
Ġste eds
2 2
Ġpoliklin iek
Ġgebruik t
Ġop nieuw
ar i
H g
Ġlu cht
Ġre f
ij ken
ĠV an
er i
Ġ2 9
Ġe cho
h oe
Ġe igen
l ed
d oor
ĠAl s
re gen
Ġneg atief
b er
u eel
il t
Ġd uid
Ġl aatste
ĠIn dien
R eden
at o
m aal
last ing
Ġd rain
Ġ ing
ĠH ij
Ġst aat
Ġen d
stru ctie
Ġk rij
ĠA D
Ġge maakt
a ak
an e
RA AL
Ġe ff
ĠE CG
Ġl o
Ġin dien
r atie
IR C
il iteit
stel ling
y t
ist er
i ve
k om
spra ken
ees kunde
Ġvan wege
Ġa ctiv
pl ant
Ġ eten
Ġver denking
ĠD aar
ĠOn s
ced ure
a ctie
ort a
Ġvol gende
Ġont vang
Ġs it
Ġbehand el
Ġc ap
v oeding
we gen
ĠT em
ĠU RO
ĠNorm ale
ĠO RAAL
rie f
e x
le s
ĠD IG
Ġm ax
an den
IN E
agn ost
el t
Ġs l
Ġdaar na
re ef
d nis
erd am
Ġb ra
Ġw erk
gem een
Ġ201 5
al ium
geb re
. .
Ġh ou
ĠA S
ĠĠĠĠĠĠĠ Ċ
ĠĠĠĠĠĠĠĠ ĠĠĠĠĠ
g ing
Ġb dz
G FR
Ġb la
aal d
ĠH em
Ġm en
st erdam
ind t
ie zen
du ctie
ĠIn f
Ġf amilie
id en
i ot
in a
Ġs up
Ġbe en
Ġf or
raag d
Ġon s
p ar
c ept
c arcinoom
Ġrec id
ĠT h
ĠÂ °
Ġp neum
Ġru stig
M A
ĠB oven
a ve
ur ende
im ale
N O
Ġbe iderzijds
am er
Ġint ra
gel open
v el
v ond
1 00
Ġb orst
ĠC c
c m
a u
uper vis
Ġ at
Ġpijn lijk
w it
eu ro
med icatie
Ġbij zonderheden
ER D
Ġv riend
an amnese
ru g
oed e
Ġv rij
it me
ct omie
ĠP ost
a uw
I J
ang er
ĠĠĠ ÂłĠ
ĠC IRC
Ġw issel
co de
s ul
eem t
u k
O G
Ġge le
sl oten
Ġin dicatie
Ġon ge
ĠS inds
il i
Ġou ders
ĠAd vies
Ġm y
e i
Ġkom st
R E
ast ro
th orax
ĠBS N
ĠĠĠĠ ĠĠĊ
-------- --------
it us
ĠV raag
Ġl a
O p
ĠA B
Ġk omen
Ġeff ect
wijz ing
entr ik
um or
Ġpro g
om a
ĠF ax
ig heid
2 3
a and
ĠSt atus
Ġre d
u te
ĠE en
Ġd oen
ĠI I
es ult
Ġverwij derd
Ġma and
Ġhem at
lij m
Ġk w
am c
Ġint act
l ig
j arige
Ġeer ste
2 8
Ġsn el
Ġhyper tensie
on ie
Ġt romb
Ġtelef oon
pl an
sp ir
Ġspra ke
ĠO nt
Ġsom s
hou d
v orm
Ġd er
e k
il len
val uatie
etam ol
ac etamol
7 3
Ġgek regen
yn dro
ab et
Ġver t
n er
il at
re ep
Ġe ven
lin ische
Ġ Âł
v ocht
Ġ8 0
om p
Ġan g
2 9
Ġ201 8
oc ol
staan de
ĠP A
er ie
ĠV ol
Ġv raag
a di
Ġz eer
p p
s erv
ĠO ok
Ġverm inder
em m
Z S
P R
lo b
ĠH b
Ġge m
er p
Ġhoog te
ĠAl lergieÃ«n
Ġuit ge
Ġd arm
yndro om
ne u
Ġge sprek
uit en
st art
ĠP atient
Ġpro t
ulm on
Ġtoen ame
ot or
u ra
o den
Ġh al
ĠAm sterdam
Ġp sych
compl iceerd
Ġl open
V U
Ġc ode
entr um
AR T
eeft ijd
Ġ0 8
pleegkun dige
ĠE x
Ġh eel
Ġpatient e
a z
ec i
it ale
Ġt wee
Ġs oep
es ie
Ġpal p
Ġkle ine
in ge
e ut
Ġo ed
ĠSoc iaal
Ġaf genomen
Ġs ig
ĠGeb ruik
o ol
l op
Ġ6 0
ES P
un ct
Ġbe oord
Â °
on en
Ġben en
ul atie
cht end
Ġto ch
n orm
ĠM e
oel en
Ġi om
ĠCont role
I A
Ġziek te
Ġmin u
re m
a de
Ġzie kenhuis
4 5
ic ro
a zol
Ġcont inu
Ġ #
Ġont lasting
Ġa demhal
Ġm id
Ġasp ect
os f
lij st
u c
Ġo or
Ġs yst
Ġ0 6
3 3
be en
Ġgel eden
A B
Ġpass end
Ġz icht
m ie
ĠL V
Ġa vond
Ġb et
Ġbe st
Ġo x
ĠS EH
rol es
Ġp as
v umc
z elf
Ġint ake
em a
ar ing
Ġdi agnose
Ġop t
Ġm eest
ĠE cho
mat ig
sp reken
Ġv en
ann ing
C K
Ġom dat
Ã ©
ati ge
Ġade qu
Ġd o
ĠBe hand
Ġs onde
Ġper s
Ġd us
Ġh ulp
Ġs ec
Ġ =
Ġf unctie
9 0
Ġl ijn
a akt
Ġin ge
Ġinf uus
c es
Ġt ype
U R
Ġwe inig
Ġbe per
Ġ ar
ble em
Ġs ym
ra at
j a
Ġ .
v ragen
Ġbe zoek
h eel
Ġr isico
er entie
Ġn emen
Ġ1 10
ge men
i ctie
b loed
ma il
Ġw eg
Ġne us
Ġp anc
Ġan est
Ġver k
b ouw
3 5
ys i
6 0
Ġop en
gemen e
Ġmed ic
ĠR ESP
o id
ath eter
Ġv ast
E G
esult aat
eu ze
z uur
ra zol
ziek ten
Ġhel der
in ale
Ġm at
ĠZ ij
ĠGe wicht
Ġl eeftijd
2 7
ĠH oofd
v raag
ERD AM
id atie
ab el
Ġ201 4
um mer
geb ruik
bere ik
or ac
p r
ĠW el
ST ERDAM
Ġgest opt
o erd
N A
Ġex tra
Ġ3 1
O K
ĠTe vens
t al
a den
ier en
Ġged aan
Ġplaat s
4 0
201 9
Ġ- -
ar ct
Ġru g
Ġth orax
operatie f
Ġtem peratuur
ak ker
w w
Ġl aag
ĠDi agnose
in us
g r
Ġopge slagen
Ġc o
ĠA ct
ie d
Ġpre dnis
Ġver w
Ġn ame
Ġn ee
Ġminu ten
Ġt ussen
v ind
ĠA n
on e
Ġd ist
Ġb i
p ressie
Ġ0 9
ĠPatiÃ«nt e
Ġv indt
Ġpro cedure
o ge
ctie ve
Ġlo opt
V er
ĠVraag stelling
Ġbas is
oth eek
ĠVer der
ĠC ardi
van gen
Ġuit gebre
Ġin sp
ĠT ot
Ġa ut
Ġk reeg
or f
Ġg b
abet es
R S
Ġer n
ik ken
Ġvan af
Ġon ze
Ġre gel
Ġbe ide
ĠInt ox
Ġw ee
ĠP OL
Ġm ond
Ġk n
ĠI N
un d
ĠN eur
on isch
unct ion
re en
m eld
ĠCR P
EN T
in s
z ie
Ġc y
2 1
Ġver an
Ġob v
b el
Ġpijn klachten
Ġv oelt
anger schap
Ġhoofd pijn
ĠSt art
ĠA b
Ġaf spraken
L O
ĠBoven genoemde
Ġs lijm
I P
Ġf ol
Ġp lan
em ber
p atiÃ«nt
l ant
ator ium
emm ing
Ġzelf standig
ron ische
ĠK alium
Ġre g
Ġcont ra
ĠZ e
Ġh e
Ġuit slag
Ġmidd els
on gen
we zen
ĠĠĠĠĠĠĠĠ ĠĠĠĠ
je ct
el den
Ġpr im
ijn en
ĠB el
in suffici
at ische
Ġcom pl
k w
Ġ20 20
âĢ Ļ
Ġv ader
ĠS upervis
Ġv oet
o ur
Ġsle cht
or atorium
Ġred elijk
s luit
M I
re ven
ou ff
ĠAl gemeen
v o
oc atie
Ġher sen
Ġdysp noe
K linische
te st
Ġe cht
atie ve
k omen
E V
ĠE er
Ġing reep
os ering
am ine
in ken
2 6
ib iot
Ġst and
za am
ĠA P
operatie ve
Ġr ol
Ġge ven
alc ium
Ġpol s
plaat st
566 9
p ect
oo it
Ġv entrik
Ġo chtend
Ġch ol
Ġl i
ĠVer slag
Ġon d
M S
l ok
Ġbloed ing
v at
Ġ7 5
Ġvol led
Ġk ort
ĠPol s
Ġlang s
ast ase
ĠA F
oor de
su le
kk oord
A l
el k
Ġs at
Ġre st
Ġs ouff
Ġ <
U M
er ol
inf ectie
p s
al ie
el ling
ĠS T
re ct
ant ie
re g
oe id
Ġ3 8
Ġev ent
Ġrecid ief
Ġverhoog d
- ,
f requentie
ĠĠĠĠĠĠĠĠ ĠĠĠ
Ġst en
Ġmm Hg
il d
i Ã«
Ġant woord
ft e
c g
G A
ank elijk
iteit en
t ing
Ġch em
in den
Ġb ro
Ġpar acetamol
Ġad vies
je ctie
Ġdi agnost
E K
erentie bereik
il de
ĠN og
on s
ĠHuid ige
Ġverwij deren
ĠO m
Ġw er
Ġp ath
ĠP M
ĠW e
Ġpro b
EP I
Ġple ura
ur ie
Ġ0 7
Ġn ot
Ġd ys
la d
CK D
as en
c is
in ine
z ijn
Ġ arm
b eeld
Ġre sult
om et
Ġ201 9
ĠI E
hal en
Ġg ing
ann eer
m alig
ol ling
Ġw akker
Ġt umor
el len
R esultaat
Ġkinder en
Ġf ractuur
pl and
ĠAnest hesie
c us
k le
Ġontvang ers
ĠIntox icaties
Ġgeb eld
Ġl it
Ġaf gelopen
sprek ing
il et
ĠW ij
av ond
Ġzw elling
Ġm ult
Ġte gen
ĠP er
kom st
Ġadequ aat
Ġd is
Ġal cohol
V T
met r
ĠH yper
Ġg al
ĠNorm aal
wijz ig
reat inine
Ġprot ocol
te ken
on it
Ġduid elijk
Ġgro ot
Ġap otheek
eren de
Ġj a
Ġde c
Ġk nie
Ġzit ten
ĠF amilie
p ol
00 0
vul len
Ġle ven
O n
Ã«nt ie
Ġs inus
Ġv is
7 5
ra a
gev eer
w ust
Ġv l
Ġb rief
Ġbe sch
a ken
Ġch irurg
st r
re chts
ur atie
van te
M D
T H
ĠK an
il ijk
O B
Ġm cg
Ġe et
Ġsp ont
er eb
ĠS ch
or s
Ġmeer dere
ar is
w ikk
res ent
ik t
Ġged urende
ol on
v eel
Ġre eds
G e
Ġblij ft
ro kken
Ġ201 3
U S
Ġoed eem
Ġa sc
Ġte vens
and aag
Ġprog ressie
ĠDaar na
ra f
u le
i ken
o gelijk
aar t
Ġher stel
ĠL aatste
Ġv or
Ġzicht baar
al ing
Ġbuik pijn
O ver
ĠI k
Ġsit u
ar b
ĠH er
ĠA nt
he se
Ġa kkoord
Ġb er
0 20
ĠG lucose
C L
ĠO per
m an
Ġdruk pijn
ĠAM STERDAM
b i
Ġm aal
wijk ing
Ġf oc
Ġev t
houden d
Ġk ind
Ġbla as
ĠR o
n d
a chten
weg ing
d r
vorm ing
Ġbloed verlies
Ġcap sule
Ġmat ig
we ken
oed ien
Ġro od
Ġi le
O D
ru pp
b re
ĠSp O
I nt
8 0
a dem
te am
Ġ19 9
Ġsla ap
m ijn
ĠDe ze
g er
b ol
ar ree
Ġbra ken
b are
u ut
cis ie
ĠOp name
Ġzw angerschap
ĠDe f
ĠI V
ĠBloed druk
gev oerd
Ġstart en
op ie
v ast
Ġte ken
id ent
ch n
of f
el aan
Ġs yndroom
Ġ3 5
Ġn eemt
spir ato
Ġb le
Ġ0 3
ast asen
h y
Ġ "
Ġvriend elijke
ĠL euk
stoornis sen
Ġ0 1
Ġh ep
e klier
ĠH uis
i wit
ro on
erap eut
Ġp t
Ġcor on
ien st
hoe fte
r im
Ġv o
w and
ĠK NO
el de
Ġbe gele
Ġm icro
Ġaan tal
Ġh eer
Ġru im
l i
ul i
or te
Ġo gen
ĠC om
Ġj r
Ġref erentiebereik
Ġvol doende
6 9
Ġp la
Ġv it
Ġv ul
r ill
ilis eren
plaat sing
ibiot ica
ĠDr s
Ġgro et
vind ingen
ĠLab oratorium
uur d
o ot
Ġs amen
or i
gest oord
s ol
ed atum
in atie
r itis
ak k
um a
Ġwil len
Ġon geveer
ĠC AD
Ġj arige
Ġmed i
oe ken
Ġkle in
Ġver zoek
Ġe m
Ġdo chter
rug s
Ġsoep el
Ġs h
la ag
Ġh oge
ĠVU mc
Ġg ram
uid en
Ġdr inken
et h
Ġw arm
d om
T E
m ee
L E
ag ina
val idatie
za ak
k el
Ġbe spreken
5 5
L aatste
Ġwat er
ĠN atrium
ĠM w
at ine
ĠP re
ĠĠĠĠĠĠĠĠ ĠĠĠĠĠĠ
Ġn et
Ġb etreft
il ling
Ġk uur
ut atie
Ġverm oeid
ĠMD O
ĠĠĠĠĠĠĠĠĠĠĠĠĠĠĠĠ Ġ
iz el
o Ã¯
ĠOver ige
Ġto ilet
Ġkrij gt
ĠO D
Ġ Q
H b
Ġaf wij
Ġ-- >
ink t
ed e
reen ing
Ġ9 0
p ort
Ġu l
Ġn ef
Ġre ct
er n
sp lant
k n
Ġs ept
I V
Ġtem p
serv atie
Ġm alig
Ġth erapie
Ġver dere
Ġst aan
wust zijn
ĠAL AT
ĠH oe
Ġ201 2
Ġre sectie
Ġd en
ÂłÂłÂłÂłÂłÂłÂłÂł ÂłÂłÂłÂłÂłÂłÂłÂł
Ġc a
Ġst oel
ĠC irc
L A
r el
C ZS
Ġs m
Ġbehand eld
i ver
lan k
c ut
Ġ0 2
p k
Ġg r
D ER
ocht end
ĠP sych
r it
ist ratie
otor iek
Ġverb eter
kw ab
ĠIn dicatie
Ġdi ff
Ġ0 5
Ġge sproken
ĠOper atie
al t
ĠR ec
norm aal
Ġkw am
Ġc c
Ġtot aal
Ġver st
Ġeer dere
Ġru st
st ip
og lob
Ġpart ner
ĠO u
at isch
Ġb ent
i ft
ud ie
merk ing
lo op
ĠĠĠĠĠĠĠĠĠĠĠĠĠĠĠĠ ĠĠ
== ==
res s
z ij
ed atie
Ġc ond
Ġgev onden
Ġl ok
Ġsla pen
ou der
ĠC V
ic us
C V
Ġl aat
it r
gelijk s
Ġpro x
Ġhoe sten
Ġn euro
Ġv aat
Ġz iet
Ġa ort
Ġeer st
ĠGe zien
Ġproble em
Âł ĠĠ
k week
er de
ron ch
Ġg a
Ġverhoog de
le iding
Ġwe gens
Ġper i
H O
hes i
Ġdat um
l inks
f ib
d reef
Ġhou den
g ra
Ġprob eren
M V
aar d
ch e
ren gen
ra x
re gel
Ġb ot
ak er
ĠV G
behand el
Ġd ro
V G
ĠAl cohol
ĠZ o
Ġmoe ilijk
ĠL O
am ma
at ologie
Ġpositie f
Ġdi rect
rof ie
Ġal tijd
ib erg
7 0
w assen
ĠO S
iberg dreef
Ġg isteren
Ġf l
Ġwaar na
Ġhy dro
Ġwel ke
Ġa s
% .
Ġr el
ĠSupervis or
ak te
Ġm ictie
ch irurgie
vullen de
Ġplaat sing
n og
f sel
orac ale
ĠG ro
Ġs u
Ġper if
Ġm ac
ys ma
ĠMe ibergdreef
onit or
c ol
ĠH art
Ġlymf eklier
IN G
Ġ0 4
st illing
Ġpleura vocht
t ablet
Ġd osering
Ġab domen
ĠP ar
Ġop nemen
O M
ble men
Ġe GFR
ĠL D
y la
behand eling
Ġgest aakt
hal ve
Ġbeoord elen
Ġonder ste
sch rij
Ġbe p
c el
la k
Ġo es
je ctief
Ġ7 0
Ġklin isch
r in
am eter
d ur
r et
k ingen
o od
ĠP lan
Ġver gelijk
ĠD oor
ep am
Ġaan vragen
v id
Ġaf bouw
Ġ ie
G T
ĠâĢ ĺ
P V
k ijken
Ġpneum onie
Ġin sul
ar yn
3 4
Ġge sp
Ġge Ã¯
c or
N ee
Ġ isch
Ġdi arree
Ġsig n
p on
Ġin suffici
Ġl engte
Ġgra ad
ater iaal
Ġin st
Ġsten ose
J a
gel uiden
h er
ĠTem peratuur
ĠZ ie
r ine
Ġont vangen
Ġcol on
ok t
ĠR V
og raf
Ġch ronische
op ed
auw d
er end
Ġvolled ig
h ankelijk
Ġver sch
Ġp ulmon
al l
D D
Ġver volg
I T
m un
v ic
Ġhuid ige
vol gen
alc if
Ġv r
ro t
Ġk on
Ġan ders
y na
Ġmisselijk heid
Ġk racht
Ġvan uit
Ġern stige
ĠMD L
Ġa orta
oglob ine
V ol
eu co
ĠT C
ur ine
Ġa ug
ĠOver ig
ĠV rij
Ġre actie
ĠT er
Ġgen eeskunde
Ġprednis on
op p
Ġplaat se
lij den
Ġ ele
ĠOnt slag
Ġgro te
Ġge p
Ġm atige
ĠTem p
Ġmed ische
ĠM orgen
a gen
icht ing
ĠW il
m ide
ent raal
Ġcon form
eri or
ati o
v ing
ele vante
rill eren
A V
Ġal lergieÃ«n
Ġl age
Ġinsp anning
Ġen ige
t r
Ġnot itie
atie code
l and
Ġin jectie
Ġhier voor
Ġon ru
Ġrond om
ĠAl gemene
ĠV oelt
Ġsp ier
Ġp l
yc ard
O V
9 5
e us
a am
Ġcontra st
ag us
aden opathie
Ġteken en
p v
Ġm L
rop athie
ĠAct uele
ĠAl lergie
sc ore
ĠĠĠĠĠĠĠĠĠĠĠĠĠĠĠĠ ĠĠĠĠ
Ġst uk
Ġch irurgie
eci alis
3 8
O OR
leg d
id u
C R
wijzig d
Ġm ass
as is
ĠA V
ĠP ulm
Ġzo als
mg er
ip s
es ies
ĠW ond
ens ib
metr isch
Â ²
ect omie
Ġblij ven
Ġenk el
Ġf unction
Ġj e
Ġkrij gen
Ġk ra
Ġo ste
orf ine
Ġ ic
Ġar men
Ġw and
et je
Ġtran sf
Ġn ov
s ver
ĠM S
mger uis
Ġd un
n iet
eg t
t ran
ĠLeuk ocyten
Ġdiagnost iek
6 5
Ġge pland
Ġpanc re
Ġver wijzing
IJ K
k an
Ġber icht
as on
ĠOnder zoek
AT IE
Ġb uiten
Ġbe kijken
ĠG oede
ĠNeur ologisch
Ġveran der
gest eld
m orgen
behandel aar
OL OG
gen d
Ġben auwd
ĠK reatinine
D atum
Ġpro f
b uik
Ġst ent
U IS
Ġbeper kt
ree k
Ġc ereb
un i
ĠT romb
waar den
ro eg
ĠBel oop
ive au
ut um
st of
Ġp ap
Ġla esie
Ġpoliklin ische
ĠHyper tensie
Ġaan p
P K
Ġw anneer
Ġgev raagd
ĠO b
st aat
Z N
ĠC o
ĠB MI
201 5
Ġge plaatst
yna ec
Ġn am
Ġm is
Ġont wikk
cont in
Ġp las
lu x
wassen en
it aal
al iteit
ak lep
ĠN P
Ġb ere
Ġ201 1
Ġlucht weg
Ġz ag
Ġver zorg
p re
Ġtelef onisch
Ġbel len
fib rilleren
Ġm al
vast atine
OLOG IE
art sen
Ġan alyse
Ġa den
Ġh als
al ans
Ġbij geluiden
t o
z oeken
inf arct
Ġd ig
op h
at roon
M ijn
ot omie
Ġel k
Ġd ienst
Ġdu izel
oc ard
8 1
d atum
w issel
Ġbeg in
werk ingen
Ġac ute
Ġl os
Ġaf wijking
Ġa ss
ĠSoc iale
8 5
Ġzo ver
Ġbe kende
as ie
chn iek
8 7
r ijk
Ġf em
Ġzij de
Ġw erv
Ġb ijn
Ġant ist
d racht
ic ale
Ġan emie
Ġlig t
ĠH ulp
Ġ15 0
t rem
Ġt ach
ĠOu ders
ijd ag
Ġt r
gen eeskunde
w erp
ĠM ob
Ġge sch
ĠL euco
Ġh eu
cl er
AN D
la ir
v l
om t
Ġp og
Ġg lucose
Ġgeh oor
ĠL et
atie k
3 7
Ġmaand ag
re den
Ġlymf adenopathie
ort h
Ġdie p
ist alt
Ġn ooit
Ġsc ore
ĠPOL I
Ġp resent
Ġmed e
Ġdist ale
ĠL engte
iek e
ĠCont act
per s
Ġcardi oloog
Ġcontinu eren
v lies
h aal
Ġl oop
Ġbegele iding
gev raagd
Ġcond itie
I I
Ġant ibiotica
Ġfor se
3 1
C P
ĠV IA
az epam
Ġv aak
S p
+ ,
istalt iek
pect atief
Ġrec ente
ie uw
ill ine
ĠĠĠĠĠĠĠĠ Ċ
d rain
Ġoor zaak
Ġgro ei
ĠAb domen
ĠInt er
r ia
D e
ge h
g ave
Ġz uur
N P
Ġhier bij
st emming
Ġt oedien
Ġ atrium
ver len
VU mc
ĠL AD
C I
midd ag
Ġnier functie
Ġwer den
be kend
ysi otherapie
Ġant i
c ent
c ep
Ġl ichamelijk
ro g
vol doende
Ġplaat sen
Ġon gestoord
Ġon ver
den d
oc k
Ġf ib
af wijkingen
if ic
Ġc r
il ig
3 6
k ker
% ,
yc ine
ĠAl k
ilat atie
R e
Ġregel matig
ul len
Ġp aar
B S
Ġ et
af spraak
Ġp te
Ġte st
ell itus
Ġ% .
ge d
pen s
Ġma akt
S H
ĠA N
ĠL e
Ġverminder de
ĠA p
Ġsup port
Ġep i
Ġge sla
ac cin
Ġmedic ijnen
splant atie
Ġkan s
Ġmob iliseren
z ocht
Ġw aren
Ġre sp
Ġgew richt
ten s
n acht
gegeven s
dd ZN
S EH
ru b
Ġade mgeruis
Ġg af
9 9
Ġk amer
um ar
s m
ap ar
ensib iliteit
Ġmed isch
ĠC are
of en
ot o
Ġademhal ings
ĠH el
Ġher halen
Ġdi abetes
ot e
Ġkl ik
Ġsc an
de el
Ġst udie
G eb
Ġh anden
V oor
ĠE GFR
Ġcont roles
B e
is atie
maal s
ĠA c
k lep
Ġe valuatie
Ġv e
Ġuit slagen
g aand
c i
cont role
me vrouw
Ġanest hesie
Ġz n
Ġuitgebre ide
S A
Ġvor ige
o ont
b ul
Ġda gelijks
Ġ201 0
st raat
rek ken
o ch
ĠW at
Ġac cept
ank s
Ġd ub
EN D
it h
ĠPC I
11 1
Ġg astro
ĠN B
ĠInt ake
Ġk orte
Ġklin ische
ycard ie
ĠT ijd
Ġde el
ocy t
Ġverl open
Ġdoor ge
âĢ ¦
Ġkn op
z ak
Ġe ind
Ġw acht
ist e
Ġz oon
Ġj an
den s
ĠP ET
ru iken
ĠCh irurg
om y
ĠB oel
n iteit
Ġbe oorde
f ractuur
ĠG raag
st oel
Ġaan meld
ge ten
an te
u rose
Ġbel oop
ĠBoel elaan
Ġresult aat
ĠG astro
ili rub
Ġd ran
bol ie
ĠT ijdens
ĠO V
et ie
9 8
aar de
m plant
Ġinsul ine
ab iele
asc ulaire
Ġd oet
Ġv inden
Ġventrik el
ĠV andaag
Ġalle s
5 00
Ġ orth
ĠA C
ap t
ub atie
ens ive
v t
Ġ qu
r um
Ġbel ang
op ten
ĠBe sproken
eg ment
Ġademhal ing
vul ling
Ġsit uatie
Ġver pleegkundige
Ġrec ent
Ġ4 5
Ġper istaltiek
Ġbe ve
v ar
b and
urose mide
un ing
lu st
Ġac uut
ĠPro bleem
Ġafwij kend
Ġcompl icaties
ĠA demhal
ec if
Ġgeb oren
ur ing
C h
op er
or b
ĠMed e
Ġe iwit
ĠĠĠĠĠĠĠĠ ĠĊ
Ġbel ast
Ġret our
Ġvoor af
Ġuit leg
d is
r ont
in de
rol og
b la
on gem
h ier
S EN
ol ische
b s
Ġge gaan
ure se
B ij
oÃ¯ d
Ġactiv atiecode
ĠV oeding
6 7
Ġ- >
Ġneur ologie
Ġhal f
Ġpro du
. :
oort edatum
Ġme vrouw
Ġna ast
ĠOn ge
kk age
ĠM M
ant op
Ġbe etje
Ġsp utum
mm Hg
Ġs luit
x e
Ġz us
h ogen
Ġverd acht
8 8
ig ing
P A
u be
ĠMed ische
ĠInf uus
ĠB eeld
ĠM ogelijk
Ġz od
Ġcardi ale
µ mol
Ġver gro
Ġverbeter ing
ĠT r
um ent
ĠM GA
ar ine
Ġger inge
oden um
Ġge compliceerd
Ġher start
Ġvergelijk ing
Ġ100 0
ie gel
Ġsch ouder
Ġc l
s us
Ġpijn stilling
dend um
ro c
ra ad
op rol
Ġdie et
vol gens
Ġcy ste
erk t
* *
n ummer
D E
Ġh ele
le b
antop razol
Ġwissel end
lan co
ÂłÂł Âł
Ġint erv
ĠEn d
ĠTromb ocyten
Ġmee gegeven
Ġademhalings frequentie
ym pt
um ab
b um
Ġinter n
weg ingen
cont rol
ĠV itale
Ġaf geb
Ġaf name
is e
trem iteiten
Ġm ilde
Ġwee kend
sc opie
K T
a ctief
Ġmo eten
Ġwe et
Ġd el
iÃ« le
structie s
Ġple k
Ġver kl
ep razol
Ġfol low
vis ie
Ġpalp abel
s onde
Ġnier insuffici
---------------- ----------------
Ġecht gen
11 17
anc e
op name
en en
Ġuit gevoerd
Ġg ang
Ġhemat oom
ĠK reeg
a as
oe g
Ġk ijken
Ġ- ,
9 4
Ġt we
ĠBovengenoemde patiÃ«nt
Ġtoe genomen
ĠBe spreking
oor te
ĠU ro
Ġl euk
P H
Ġmidd ag
et ten
7 7
T T
Ġaf w
ich aam
ĠT huis
ou ch
Ġp assen
Ġc erv
lex ie
vol gende
A namnese
am m
ild klier
Ġs egment
Ġmalig niteit
oc iaal
alis atie
Ġb ronch
l eden
Ġsym metrisch
ĠHuis artsen
Ġth oracale
Ġpancre as
ed er
Ġ4 8
ge t
IS CH
ĠP agina
r itme
ep s
Ġnam ens
Ġ1 20
W K
if icatie
ĠMed isch
v ent
Ġde x
D G
se c
ou d
ÂłĠ ÂłĠ
Ġou d
ĠD M
an nen
ste king
6 4
ĠCom pl
P RA
entr ale
p el
Ġaanwijz ing
Ġcon c
ĠS om
ia f
z w
A f
ter us
Ġk auw
et ica
oprol ol
Ġspont aan
Ġsyst eem
ic eerde
ent ies
ink er
Ġafbouw en
Ġvr ijdag
C C
Ġsonde voeding
ĠW as
ĠS V
d ossier
Ġble ek
Ġk eel
Ġafge sproken
Ġduid elijke
Ġc ort
l ijn
y re
ĠPol i
Ġnu chter
Ġme i
ĠRe chts
Ġmass a
Ġu mol
ĠO og
re q
met astase
Ġc irc
Ġmob iele
elijk s
Ġter mijn
ind elijk
U N
d osis
ĠP T
pro t
Ġab ces
Ġdaar bij
UIS ART
p art
wij s
t ot
ĠK inder
Ġre validatie
m atiek
Ġbe wegen
Ġin nemen
Ġst aken
Ġsat uratie
ĠI g
ĠT ype
Ġstop pen
ĠG en
ouw d
midd els
Ġal ert
Ġgeb ruiken
Ġgem eten
Ġla esies
ĠAS AT
Ġm nd
Ġm ij
aag s
r id
open ie
Ġniet s
Ġver wezen
Ġper ic
9 7
ke ur
Ġw eten
3 2
Ġbe kken
Ġradi otherapie
u ari
Ġheu p
oord eling
re um
Ġbe vindingen
Ġevent ueel
Ġmoe ite
Ġl um
ĠG E
Ġsouff les
ĠUit leg
Ã© n
Ġd ossier
ĠM T
Ġonge compliceerd
en dens
er ent
b rengen
ĠO r
Ġin druk
Ġf lu
ecialis me
Ġj uni
Ġbij werkingen
ĠC D
Ġst oornis
Ġgeb ied
ĠD rugs
Ġver slag
ĠHier bij
oth orax
6 8
kel et
er ia
Ġaort aklep
Ġmult ip
ĠR CA
c a
Ġd ik
Ġverb et
ĠH ad
st atus
stip atie
ĠC P
U L
ĠD oel
spirato ire
ĠT oe
em aal
Ġontvang t
Ġsch ool
W I
Ġvo eten
la sie
act oren
an ge
ĠRo ken
k amer
iv m
Ġa ctieve
U MC
c e
geh ele
og n
ĠOnder werp
Ġc ar
ec iele
4 8
Ġbet rokken
Ġisch emie
ongem bolie
OP D
aryn x
Ġdran k
Ġon voldoende
C O
Ġlang er
Ġdr ie
Ġex pectatief
t ic
Ġp omp
ub itus
Ġst ap
ver d
Ġ200 9
d uur
ĠVer richt
s it
I B
pl etie
Ġmaar t
ox ic
E F
ĠT ran
ĠR ef
ST R
Ġt av
44 44
Ġz orgen
Ġf low
Ġ )
Ġsc reening
Ġv ing
ch irurg
Ġheb t
u gen
sc an
us s
Ġaut o
a il
Ġuit bre
st ma
Ġverl eden
Ġor ale
Ġne k
Ġf eb
Ġst ij
ĠG oed
Ġk ader
rolog ie
ctie s
Ġ Y
ic aal
Ġv pk
H E
Ġg ift
Ġm orfine
Ġsouff le
s verlies
ĠL inks
os a
ĠN E
f or
Ġlig gen
Ġonderste uning
ĠDaarna ast
ic ulair
Ġwaar door
Ġd rupp
v iezen
Ã ¶
Ġver wijz
kan ker
Ġo ef
ĠOp merking
oth erapeut
ĠS R
C on
Ġeen malig
EN S
Ġp ac
hes iet
st er
Ġmin imaal
3 9
eg atief
el ingen
od y
Ġl ies
ĠM aag
la b
an derd
w ond
Ġb re
ĠC entrum
or aal
Ġst erk
Ġa ctief
Ġwe bs
Ġbeoord eling
RE AT
I OS
Ġhel emaal
! )
itie ve
y ste
Ġgel dig
Ġmogelijk e
Ġbloed druk
ĠO L
Ġ9 5
ĠC ZS
Ġer v
al k
Ġcon sol
Ġged ilat
Ġge volg
la m
Ġb ol
o di
Ġvan avond
Ġ3 9
Ġdaar om
ĠH P
y th
qu or
Ġchem otherapie
laag d
ia ire
Ġm utatie
Ġze ker
Ġf urosemide
A Z
Ġf ax
ĠV ader
at rie
ĠĠĠĠĠĠĠĠĠĠĠĠĠĠĠĠĠĠĠĠĠĠĠĠĠĠĠĠĠĠĠĠ Ġ
re ctie
ch ol
ĠH UISART
C l
5 8
adi um
r and
IN INE
Ġde els
M G
Ġbe h
Ġdr inkt
i us
Ġm aat
REAT ININE
ĠV eel
Ġgeh ele
7 4
t t
VU MC
Ġaan doen
Ġspra ak
Ġc re
p ass
oc a
off en
Ġgesla pen
sten ose
Ġuitgebre id
P L
Ġge geten
Ġmet astasen
Ġf ist
Ġzuur stof
ĠE valuatie
or den
Ġv roeg
uid elijk
Ġbe wustzijn
rag er
Ġ &
Ġan eur
Ġz ullen
Ġhep at
Ġn eu
ĠU w
yla xe
val ling
S C
ĠT elef
Ġwebs ite
B V
Ġlit teken
ĠT oen
ĠK omt
ie len
Ġvoor al
Ġ6 5
ul s
Ġbe sloten
Ġd ors
b alans
ĠZ org
itr alis
Ġd osis
hoog d
sen en
Ġwil de
IC C
ent an
ĠIC C
Ġhersen en
z er
ĠL ocatie
Ġ3 4
Ġhoe st
Ġaanp assen
. ,
Ġapotheek houdend
Ġbe hoefte
act iv
ĠGe w
or dt
Ġmy el
orta dem
c entrum
O X
Ġpog ingen
Ġsub cut
Ġwaar op
ĠAd dendum
Ġd aags
re sectie
Ġl et
ĠB ilirub
Ġmedi ast
d acht
Ġlicht e
c er
yst eem
sf requentie
Ġval len
ĠOL VG
ĠAl g
Ġm ellitus
ie pen
k ort
Ġn iveau
Ġvermoeid heid
Ġb l
reg istratie
Ġf les
ĠM OB
Ġk week
Ġl ichaam
ĠII I
7 8
yn orm
op ril
ĠIC D
Ġp ort
Ġj uli
j un
am p
an im
ĠH F
heel kunde
Ġ roken
lep sie
Ġ9 8
romb o
Ġr itme
Ġinter ne
ĠL open
p ast
ĠSt aat
B C
f ect
âĢ¦ âĢ¦
pro blemen
Ġaanmeld code
ge heel
Ġg ere
s n
up illen
Ġslecht e
Ġprox imale
la ire
Ġover ge
Ġcoron air
Ġ6 9
Ġp unctie
Ã« t
p ositie
ater aal
Ġtra um
Ġt el
I M
ĠT PV
hal s
Ġp antoprazol
ĠVrij gave
ĠHem oglobine
Ġ200 8
Ġprim aire
E r
ĠSp eciele
Ġge laat
Ġj aren
ĠGebruik t
ĠLaboratorium onderzoek
O C
og ing
re pen
Ġv ag
Ġfor s
d it
ost oma
in c
: /
Ġs er
Ġn ieuw
Ġap ril
ic ulaire
Ġh eden
ĠS ub
ic l
Ġaan kle
Ġd on
Ġover ige
Ġjan uari
ĠE chter
Ġv et
Ġlater ale
ograf ie
c la
Ġvan morgen
zelf de
ĠM otoriek
im ent
ent er
P atiÃ«nt
s le
ĠU P
ract us
aar ne
bla as
A an
der ing
Ġlu kt
gest uurd
ĠĠĠĠĠĠĠĠĠĠĠĠĠĠĠĠĠĠĠĠĠĠĠĠĠĠĠĠĠĠĠĠ ĠĠ
ww w
Ġpro staat
Ġn ab
Ġa ct
Ġm ilt
Ġp last
Ġcont rol
Ġb il
iver ende
vat ting
ĠgeÃ¯ n
Ġic c
Ġcy cl
ro e
en uw
Ġdu odenum
5 6
Ġz egt
Ġnog maals
ĠE N
c ur
ĠF osf
ak ken
Ã© Ã©n
Ġst oma
Ġge vallen
5669 111
it one
Ġged uid
vis eerd
al ine
on aat
uit gang
Ġmax imaal
sch ema
u un
Ġ5 4
ĠSp o
O T
KT IJK
ul itis
REATININE AMC
Ġk ant
em at
ĠA O
N a
Ġim plant
Ġel ke
Ġto v
ĠG eeft
ĠR elevante
og ram
Ġf ront
Ġu p
Ġvan nacht
Ġkle ur
lijk e
alcif erol
el at
Ġo s
D S
Ġond anks
compl iceerde
us c
it aties
ĠBe kende
m erg
Ġver volgen
ec alciferol
h oofd
Ġ9 6
ij st
u ze
7 6
Ġbro er
oped ie
m and
oc o
Ġt ong
Ġre s
Ġbas aal
ĠF DG
Ġd elen
Ġang st
Ġperi ode
Ġge val
em aker
d arm
Ġe ch
lig ging
x on
he en
Ġven a
Ġ3 00
im e
ĠU rine
Ġre m
Ġaan dacht
ĠK le
4 9
Ġz agen
g b
Ġ @
Ġsm s
Ġverm oed
ĠM eer
ĠA ctie
f l
ĠN euro
ou t
Ġrec ept
id ine
adem ing
ĠC OPD
af deling
Ġatrium fibrilleren
Ġ9 7
ĠVerricht ing
u i
Ġor der
com pens
ment in
h yper
Ġchirurg ische
Ġinsuffici entie
Ġm ijn
Ġpositie ve
8 2
y el
7 1
ĠÂ µmol
Ġer f
Ġev id
Ġde pressie
Ġre den
5 9
Ġc eft
hal atie
ĠK lin
7 9
PRA KTIJK
v rij
Ġevid ente
pers oon
Ġle v
ĠR v
Ġcom b
Ġg ynaec
Ġpsych i
Ġab dom
Ġlymfeklier en
Ġoes of
8 6
Ġher haal
im m
k te
Ġhoe veel
ziek te
Ġboven genoemde
Ġintern ist
Ġc yst
cop ie
Ġk ortadem
Ġgew orden
ĠTot aal
heid s
Ġl apar
Ġuitge sloten
Ġover leden
entan yl
AB L
unt en
di vid
al f
lo opt
ĠC AG
Ġzo wel
Ġlang zaam
ĠP art
AR D
Ġ+ /
ĠK lachten
f osf
co op
Ġb and
na am
of ielen
erg ie
ma i
onder dag
Ġlit er
Ġsign ific
L IN
rog ol
Ġte v
l ator
Ġass istent
Ġder mat
Ġ [
U T
ad res
g v
Ġactiv iteit
ar co
Ġ ir
agn es
Ġaf hankelijk
8 9
ikk el
b rief
ĠMS R
ĠpatiÃ«nt en
ram ma
Ġsec und
Ġp oeder
Ġdro og
c z
Ġbi opt
Ġs us
w v
Ġs edatie
Ġl ongembolie
Ġnier en
Ġinf arct
ot te
Ġmet h
p m
Ġru stige
oc arcinoom
Ġw it
Ġt ab
Ġperic ard
Ã« le
B O
Ġbeoorde eld
ect io
ĠTh rombo
Ġaange meld
o w
Ġan der
ge w
d ing
4 1
ge sproken
Ġsym pt
Ġhier van
Ġpneum othorax
I L
ĠCont roles
Ġhe cht
werk ing
Ġv d
:/ /
ge sprek
stel len
Ġantist olling
I MA
Ġf rax
Ġn ood
Ġgeb oorte
Ġpanc reat
Ġal hier
Ġou de
Ġo kt
uw en
Ġf ys
itie f
Ġz at
W aarde
c al
l os
Ġst ress
ed el
Ġpar a
ĠAD L
p an
ilis atie
Ġmet oprolol
ĠEx tremiteiten
5 4
Ġa dem
8 3
ol om
Ġ4 44
Ġn ar
zet ten
Ġ3 2
Ġc alcium
iaf rag
houden de
Ġsch ildklier
ant al
Ġdun ne
agnes ium
idu raal
Ġ110 5
ĠD rain
Ġpulmon ale
verlen er
ĠĠĠĠĠĠĠĠ ĠĠĊ
i atie
P S
Ġo k
ati on
Ġep is
gele ken
6 3
Ġaan gevraagd
Ġsluit en
Ġverander ingen
ĠG ed
ĠÂł ĠĠĠ
Ġl ongen
ĠHoofd behandelaar
akk et
ĠVer denking
Ġrood heid
Ġt he
Ġont staan
Ġsch ema
to ond
Ġaan leg
M ed
ĠV AN
v a
Ġvan middag
ĠNa am
Ġu terus
ofen ac
j u
Ġzod at
b oven
Ġverminder d
I O
ro ductie
raag t
is je
Ġger eg
icl ofenac
Ġsp oelen
Ġmet astase
ĠD E
8 4
Ġbe houden
ĠOver leg
r ale
e se
ĠB uik
Ġhier na
ff en
Ġtra ject
Ġspont ane
Ġn as
Ġmid den
5 1
m oid
ract uren
is me
A c
eg gen
Ġ8 1
Ġbeg on
ol er
v eld
f ort
zij de
ĠD NA
Ġto ont
in n
Ġf er
Ġontwikk eling
l open
Ġm on
met astasen
Ġel ders
Ġo c
in es
m onitor
u igen
ru ct
v entie
Ġevent uele
ria xon
Ġpol y
isteren de
r ip
ad viseerd
Ġge he
Ġrol lator
pro bleem
ĠC alcium
v loed
Ġad vis
ĠHUISART SEN
Ġon c
6 2
ost er
ze ker
ĠPC M
4 2
Ġm amm
lex en
Ġaandoen ing
ĠH D
Ġn eem
norm ale
________________ ________
Ġf requ
b eleid
ec atie
ab an
ĠA ctiv
Ġox y
Y L
5 7
Ġv lak
Ġm uc
201 4
ĠS amen
Ġdan wel
Ġob servatie
pol i
le en
Ġ200 7
p us
Ġpers oon
ele ct
V C
Ġl is
Ġc ave
Ġd ilatatie
Ġneur oloog
D i
Ġg ister
Ġover wegen
ĠN T
elk olom
? )
oek om
ust us
Ġge lu
ma x
plan de
Ġbericht en
Ġaneur ysma
20 0
em ische
bum ine
cc es
gen e
Ġtwe ede
Ġle kker
Ġsp oed
ISCH E
cz eem
ra akt
D ossier
Ġst adium
Ġin halatie
ĠIN R
Ġgeb eur
Ġtra uma
Ġv orm
we z
o opt
Ġl ag
Ġcor dis
Ġgesl oten
Ġb act
ĠVer pleegkundige
Ġdi ameter
et s
Ġpath ologie
Ġal gemene
Ġ4 00
Ġt rek
7 2
OS C
. -
ĠA antal
Ġin gel
ĠM I
T C
c ardi
ĠS l
Ġdi ver
ABL ET
h aald
ĠCompl icaties
ru ari
ron ken
ge wicht
Ġst em
wee g
ab domen
be per
l yc
Ġtoen em
Ġover dag
ĠAan vullende
oe stand
ule erd
ON DER
ĠV it
Ġ3 3
ob er
Ġf amil
Ġwil t
ĠTot ale
Ġbel t
ĠInf ectie
Ġre um
ENT R
ĠRe chter
ou den
ol i
Ġst er
Ġp os
nest isch
Ġa stma
Ġv ir
med e
ter n
Ġa x
ĠD an
ic lo
y ten
Ġnar cose
Ġaccept eren
ru st
Ġ ij
eth ason
ia z
dien st
Ġpol sfrequentie
Ġwerk t
lo x
Ġlet sel
Ġart ritis
Ġfoc us
n ier
al ist
Ġaan vullend
rain ing
Ġop hogen
Ġh tt
ĠNa Cl
Ġdi alyse
ĠAct ueel
Ġperif eer
ĠPols slag
Ġbelang rijk
d aar
ĠF T
Ġm ateriaal
oc ument
Ġgek omen
act or
5 3
ĠA H
ĠE et
Ġwe ke
it es
w er
ĠInt ensive
em d
spirato ir
Ġonder staande
Ġr icht
Ġpath ologische
Ġsyst olische
Ġsoep ele
hesi ologie
s duur
Ġob stipatie
st ik
ur ale
Ġbi opten
Ġtoe gang
ĠR et
Ġre spiratoire
is on
ENTR UM
ĠU reum
Ġepi lepsie
re erd
5 2
ie el
sp ro
be hoefte
werk er
gesch reven
Ġtoedien ing
ee f
Ġs cler
umar ol
R D
n ing
ĠC H
Ġplas sen
Ġin cisie
st oestand
ĠB as
ron isch
Ġpoliklin isch
ĠHem atologie
ĠD ag
Ġi de
la cht
Ġk iezen
==== ====
Ġh ist
f alen
her senen
en oco
Ġonver anderd
s h
Ġuit e
ins dag
ĠD er
ĠV T
Ġeet lust
4 6
ĠT ractus
R v
Ġ14 0
c ran
. )
Ġ* **
Z O
ver m
Ġpar ese
ĠHel der
4 3
pleegkun dig
es ch
ul aris
Ġ Ã©Ã©n
Ġdist aal
Ġgra den
Ġd uur
ocard itis
wissel en
Ġover plaatsing
Ġaan vullende
b ra
' ,
ou de
v oet
sluit ing
9 6
Ġn ummer
N iet
l icht
ree kt
sit uatie
ater ale
hy d
Ġv oel
Ġver laagd
Ġduizel igheid
reek uur
M w
Ġsle chts
ĠE p
ĠM ictie
CH T
Ġk weken
AL G
ont role
Ġvoor komen
RA AT
Ġlast ig
Ġj u
ĠI om
Ġo ss
ĠP O
R isico
pon ent
b v
Ġge s
ĠN RS
omet rie
Ġm es
Op name
ak ing
ĠW ilt
midd elen
Ġklin iek
9 3
am ide
Ġin c
Ġpresent atie
gaan de
Ġ5 5
Ġst ruct
enoco umarol
V D
Ġin middels
ul ier
Ġp en
Ġmultip ele
ĠOnder deel
ĠG er
Ġr ib
de s
is ende
ĠL icht
OP IE
is sie
en st
raa i
p os
Ġer yth
gen eratie
N orm
se g
Ġdrain age
ĠPol iklin
Ġpart us
Int er
Ġf oto
Ġsl ok
E C
Ġhier mee
b lad
Ġpro ef
geb ied
Ġ25 0
Ġverkl aring
Ġv oed
ĠD ie
Ġbeeld vorming
Ġop zicht
Ġzich zelf
ĠVol gens
k elijk
Ġrol stoel
in et
ac k
oscop ische
Ġm elden
leb oog
Ġam bul
ĠCT G
Ġmicro gr
at eur
Ġbehandel team
od ig
ĠHier na
Ġresult aten
LO ED
t op
ang i
est erol
h in
Ġlang dur
Ġcardi ologie
V E
Ġvan ochtend
Ġrel atie
Ġuit val
L D
Ġmaal tijd
end ossier
Ġsinus ritme
Ġj euk
ĠZ ijn
ĠS ensibiliteit
Ġcon s
ĠpatiÃ«nt endossier
P ijn
Ġr and
om atisch
Ġtoe ge
Ġv itale
Geb ruik
Ġged ronken
Ġpost operatief
Ġeen s
vul d
ast om
Ġvis us
Ġlymf oom
Ġple ister
ig t
ĠĠ Âł
os in
ĠL ong
Ġfist el
u e
Ġd iafrag
rij gt
Ġhyper t
Ġgen et
Ġu ro
o eld
Ġmet o
Ġval t
oede isende
Ġopzicht e
OR M
ĠV al
sel en
Ġhtt ps
Ġuit wisselen
Ġm itralis
merk t
seg ment
pro b
Ġwissel ende
G IE
ĠDi abetes
ĠS la
ĠA T
ĠEer der
ĠP EG
Ġged rag
ĠHUISARTSEN PRAKTIJK
Ġna uw
Ġhart as
Ġonge wijzigd
Ġont steking
Ġeigen lijk
ĠM ED
lad res
cep ten
ot rim
ĠP t
ĠR adi
ol e
ĠT SH
v ia
re cepten
ĠT ra
Ġg l
Ġ genomen
Ġt pv
Ġcom ple
mer ken
oon de
ĠDiagnose Datum
Ġvit amine
Ġs uper
Ġtra p
e chniek
Ġhier over
Ġ6 4
Ġfoc ale
cel carcinoom
ĠOV ER
Ġop nam
ĠD osis
last iek
par aat
hesi oloog
Ġver ne
ĠC or
Ġd icht
Ġs lank
bi opt
Ġ200 6
oc ardi
Ġbijn a
Ġwee fsel
Ġ4 2
ili ac
Ġvoor bere
ik baar
Ġonru st
eci alist
lig gende
de x
ĠL og
oen s
ĠDatum Waarde
6 1
Ġl og
Ġvoor keur
Ġmoment eel
Ġo var
ympt omen
ON D
Ġziek e
Ġlater aal
Ġpr ikken
ĠV OOR
mai ladres
an gen
N aar
oph agus
Ġin schrij
sch e
Ġ8 5
Ġw k
ĠI mplant
ĠT TE
4 7
ĠW aar
Ġneur ologisch
ker s
Ġp o
ĠE H
Ġonru stig
Ġdel ier
Ġgeh eel
ĠĠĠĠĠĠĠĠĠĠĠĠĠĠĠĠ ĠĠĠ
Ġperif ere
K A
ĠAf gesproken
Ġopge hoogd
Ġs copie
i zaam
ol len
ĠT ABLET
t ig
Ġd oel
Ġtra che
Ġover zicht
l atie
Ġl ange
gro ep
Ġgele gen
g s
Ġd et
k ies
Ġtromb ose
Ġste un
9 1
Ġl ip
Ġgeb raakt
M O
Ġl as
Ġk reat
N ieuwe
Ġsept ember
Inter ne
Ġs kelet
ĠK REATININEAMC
Ġgroot te
Ġaug ustus
ĠP laat
am ethason
pen de
Ġvermoed elijk
A F
Ġder halve
ch l
Ġ7 2
Ġele kt
Ġw kn
Ġven euze
Ġver sle
ĠQ RS
in test
b r
Ġafge vallen
Ġk uren
Ġaange past
Ġgel open
ĠS MS
S V
ro x
Ġaange toond
Ġcomb inatie
ge zien
ZO EK
z it
Ġinterv entie
Ġl ijst
d rupp
are se
st ij
Ġge pr
Ġge zet
Ġd onderdag
Ġproble matiek
oens dag
le pt
Ġpro ductie
Ġs yn
Ġc arb
Ġneg atieve
ĠT R
hesiet echniek
H em
et rie
Ġin name
Ġide e
P D
In divid
Ġc ran
Ġst abiele
b ut
Ġverd w
Ġver z
ak antie
Ġgez ond
Ġc ogn
ĠZ w
Ġfl ink
anim atie
Ġde compens
r d
tran splantatie
Ġmin imale
Ġ9 9
Ġk ap
Ġher n
in opril
Ġe czeem
Ġthuis zorg
ma akte
ĠL inker
it ies
in ter
zie kenhuis
n u
Ġpro ces
Ġf ysiotherapie
Ġhou dt
B E
Ġdysp neu
oten sie
Ġuite indelijk
OSC OPIE
Ġver len
id ief
Ġdi urese
Ġfeb ruari
Ġmac rogol
Ġvoor waarden
ĠBehand eling
ĠZ elf
v r
v la
S S
Ġc entrale
Ġet c
ĠBe wustzijn
ONDER ZOEK
Ġb lok
p atroon
Ġie dere
om at
erie ur
lop end
ver sie
Ġ6 8
be oordeling
Ġresp ons
Ġtran s
Ġc ip
4444 444
schijn selen
ed iment
ĠS c
Ġdrukpijn lijk
l ine
ysp noe
ĠP E
ik te
ĠR C
em p
Ġvol gen
b us
lijk t
ot ion
Ġs ectio
Ġg ips
ben en
ol atie
Ġ8 4
c arb
Ġprim a
ke ken
Ġp cm
o chter
Ġsp iegel
Ġinter med
ra kt
Ġvl oe
Vol wassenen
Ġox ynorm
er b
ch i
ĠB M
Ġverbet erd
im ab
On s
Ġge con
Ġveran derd
ĠA ctieve
Ġherhaal recepten
ĠZ it
dd AN
Ġzal f
e cht
Ġw on
las se
Ġsch oon
waar voor
g d
Ã ¨
ĠJ a
Ġrecid iverende
bloed ing
mm ol
Ġoog t
Ġcom ponent
Ġdub bel
Ġge ori
ĠToe stemming
Ġmet en
i op
Ġge metastase
ĠDatum Ons
Ġen ergie
Ġwerv elkolom
P ro
Ġn ut
ody nam
v ir
Ġal gehele
ĠVer volg
di ff
o sp
Ġslijm vlies
Ġis oc
Ġbe v
Ġs e
Ġepis ode
id azol
cent a
og d
weg ings
Ġd ingen
B R
h eeft
A n
MS R
ip arine
ac cept
Ġpro p
Ġb o
w ater
al g
Ġver h
Ġafgeb ouwd
ch ym
Ġplan nen
ĠHer sen
er us
s om
Ġw oont
% )
N egatief
Ġverw ard
Ġra d
444 11
k weken
Ġop er
wit ch
ĠD hr
Ġd w
H D
oor den
elect ase
Ġal lerg
h a
Ġp uls
Ġme isje
Ġanest hesietechniek
Ġverw acht
On der
ecif ieke
ÂłÂł Ġ
Ġceft riaxon
Ġkl aar
Ġbeve ilig
Ġd raa
Ġv asc
Ġsup pletie
Ġmoe izaam
ĠOver weging
b ron
is ite
.. ..
Ġvul ling
Ac ute
LIN ISCHE
ĠH yp
Ġgelu kt
Ġmen ing
ĠCare Volwassenen
Ġgeb oortedatum
ĠP te
ĠEer ste
la p
ĠSom s
g ressie
ou ten
E E
Ġ+ ,
OL OL
um e
Ġart eria
Ġaf wezig
ĠB er
ĠBij zonderheden
Ġwarm e
Ġ ER
ĠBehand el
ĠM CV
Ġ6 3
Ġvoor geschreven
Ġoesof agus
Ġw ant
o geen
Ġinge zet
ĠW ordt
Ġrem issie
id og
Ġpol iep
ameter s
Ġin contin
Mijn Dossier
ĠS at
Ġge t
lan ke
or is
b o
Ġechtgen ote
sl ikken
Ġge adviseerd
ar de
Ġvoor t
Ġj ongen
Ġt ub
z ing
ĠR T
Ã¶ rd
idog rel
ĠVan af
F T
ĠE l
Ġprof ylaxe
Ġden kt
Ġ and
Ġcon clusie
OR T
St atus
S D
u ff
u cht
p omp
Ġo ut
Ġvis ite
Ġdec ember
Over zicht
ic ine
Ġmedic am
zen den
ken t
ĠTran sf
Ġtransf er
ĠC ol
ĠAL G
ĠA t
ie ve
at te
oc rin
Ġc atheter
ĠS edatie
Ġ13 0
isic of
Ġsch edel
Ġgewicht sverlies
a ise
Ġont houd
ĠAf deling
g n
Ġneur ologische
Ġmen eer
ot ische
ĠAlcohol gebruik
Ġboven staande
z y
or ie
Ġst ro
Ġond uidelijk
M R
Ġt ube
ĠVer m
ĠÂł ĠĠ
o okt
Ġk alium
ac arcinoom
T e
ĠN e
ĠC ON
Ġ9 4
ĠCon sult
y nt
Ġver zenden
w aking
Ġbe elden
OV ID
ĠG amma
il ie
Ġsl ik
100 0
Ġchol ec
ĠW D
Ġn on
astom ose
he p
schap p
di agnose
gr ens
Ġgevolg d
of ol
ĠW HO
Ġasc ites
Ġf ijn
ĠP S
ed ing
Ġile um
re sp
g an
zen uwen
Ġlymf klier
Ġli quor
sluit en
it s
ĠV AG
Ġ8 8
ato ir
ĠM ET
ĠE le
A K
iv a
illen de
ĠLV F
control eer
eg alie
ĠP AC
Ġbep alen
Ġlever ziekten
ogen e
vol gt
or alis
ĠL ijkt
st abiel
Ġvert elt
Ġf entanyl
Ġwacht woord
Ġaankle uring
Ġd insdag
G EN
Ġ5 8
Ġhy d
ĠO P
es s
rij f
accin atie
Ã¯ ne
9 2
Z U
ĠAan wezig
Ġgebruik ers
Ġpers isterende
ne us
k in
Ġ4 6
als nog
st eld
it as
ente us
ĠZ eer
akk elijk
Ã«t ist
s klachten
voor beeld
Ġb lanco
Ġad viezen
Ġ y
prob eerd
ĠBehand eld
Ġd rugs
Ġpost operatieve
ĠE MV
Ġint ubatie
Ġ5 6
: -
AB G
lop idogrel
ym pan
Ġgebruikers naam
t end
ĠK rijgt
Ġm sec
âĢĻ )
b ed
V O
Ġge f
Ġpijnlijk e
Ġ200 5
las s
u il
Ġbeveilig ings
M et
Ġw ens
ĠActiv atie
St uur
Ġprogressie ve
Ġactiv eert
gel d
c ort
ĠFamilie anamnese
Ġingel ogd
Ġgen e
di gen
pass ing
e ff
Ġv oelen
Ġle kkage
Ġst reef
Ġbeveiligings vraag
Ġi p
w en
Ġur eter
ĠActivatie MijnDossier
at ale
o ok
k opp
RO M
ĠUit gebre
Ġm amma
? :
Ġs ach
Ġ4 1
Ġna chts
Ġre cht
Ġwaar genomen
gen itaal
Ġgebruik er
Ġob structie
ĠV Z
Ġsu cces
Ġintra ven
O r
Ġend omet
Ġgemetastase erd
Ġwer ken
p leg
inc ip
ĠN S
kun dige
ad vies
Ġdiep e
Ġont slagen
n o
oxic illine
Ġprobleem lijst
Ġz ak
Ġge zicht
B D
? âĢĻ)
Ġokt ober
id ose
Ġpac emaker
Ġprodu ctief
Ġcor rectie
ĠC ABG
Ġfunction eren
Ġpancreat itis
Ġm onitor
Ġ6 2
M RI
Ġrect um
Ġten sie
Ġmet ab
k et
ĠCont inu
drupp els
Ġm elk
Ġc ur
ĠA IOS
P OL
amc vumc
amcvumc dossier
ĠW ee
Ġfem ur
mijn amcvumcdossier
ĠP ICC
Ġt ro
agnost iek
at in
Ġoog arts
ac ine
r ik
ĠB eg
Ġsubcut aan
Ġkinder arts
Ġdoor g
t el
Ġk cal
Ġver pleeg
IN T
Ġaan val
ĠF ol
Ġma il
ĠN ieuwe
Ġhoeveel heid
Ġpr incip
be zoek
Ġv akantie
Ġret ro
ĠBilirub ine
Ġ6 7
Ġsch erp
Ġh alen
ST RAAT
Ġple kken
Ġref lux
Ġth erapeut
Ġn ec
Ġmal aise
Ġpre mat
Ġ9 2
ĠC entraal
Ġ7 4
ĠNE U
Ġonder been
Ġkle p
for atie
Ġ7 6
et e
Ġgele id
Ġk atheter
ĠBe kend
om egalie
Ġv ond
Ġaan vallen
Ġfront aal
Ġgest eld
ne g
Ġlum b
st at
P I
Ġne ut
it ion
201 3
Ġt int
ĠSp ecialisme
Ġ6 6
N S
Ġcom mun
Ġc av
ĠH V
H et
Ġbeen merg
Ġge oper
Ġnauw elijks
be wegingen
Ġdu ct
Ġ5 9
Ġal gemeen
Ġvoeding s
Ġimplant atie
Ġt onen
Ġelk aar
Ġon bekend
se ud
Ġvergro te
b ro
s up
le ver
Ġonder zoeken
Ġ4 4
Ġ7 8
ox azol
P O
sp atroon
ĠO x
vel den
Ġslaap t
ver band
Ġst ellen
Z org
prot hese
A nest
Ġasc al
Ġv as
Ġduizel ig
ĠVer t
ĠU MC
Ġhe v
R T
Ġprincip e
i asis
ĠV ocht
Ġsup ra
Ġv le
Ġm ate
ĠAl geheel
CR P
Ġgevoel ig
b alie
z alf
ig h
Ġm n
Ġvolled ige
gev oel
est hesie
m ob
Ġverl iep
Ġl act
ver slag
midd el
Ġgal wegen
g as
Ġ Ã
ĠSp oedeisende
Ġgez w
ĠP last
c ap
m ogelijk
ysi otherapeut
Ġt op
ĠH r
Ġb pm
ĠR A
il le
g oed
yp ische
Ġcompl icatie
ĠOnt lasting
em ent
ister end
ĠL oc
Ã«nt eerd
Ġachter uitgang
pleg ing
ist entie
z o
ed i
Ġbeg rij
ĠGer inge
elf unctie
Ġambul ance
Ġh og
ob servatie
a y
Ġsp reken
Ġ20 00
Ġd iet
ĠSupervis ie
Ġgr ond
Ġ7 3
Ġzw aar
Ġmax imale
ip ine
ĠPar acetamol
Ġasc endens
Ch irurgie
ĠC MV
n omen
Ġtijd elijk
v aat
ĠG eld
Ġal lergie
sch ien
Ġtab blad
ĠB K
ct en
N E
inf ormatie
Ġverwijz en
Ġnierinsuffici entie
t je
Ġd iclofenac
T ijd
Ġp us
Ġpols slag
MA CH
ĠVol gende
wel ling
ma ak
Ġinschrij f
ĠRef lexen
ĠC OVID
p ost
ĠVan wege
Ġk oude
ymf ocyten
Ġv ari
Ġinc ident
ĠĠĠĠĠĠĠĠĠĠĠĠĠĠĠĠ ĠĠĠĠĠ
Ġh oor
Ġverd ragen
ab ele
Ġ ingen
on ocyten
geb racht
w k
f en
ĠAf spraak
te kend
oe ver
Ġmidd el
ĠI mm
Ġs al
Ġ( !)
sp anning
m elden
ust ige
insuffici Ã«ntie
Ġover vulling
Ġ5 7
ox aban
us e
isicof actoren
Ġc arcinoom
h uid
Ġwaar den
ge zet
Ġel leboog
gev ing
oth yre
Ġan astomose
Ġl ocatie
M M
IC ATIE
Ġm ar
ĠP R
waar schijnlijk
ĠM oe
Ġd al
Ġhel pt
ol yse
Ġb ang
Ġnierinsuffici Ã«ntie
Ġdoorge maakt
Ġbe zig
ĠPol sf
Ġkortadem ig
il atie
Ġhemat urie
ma ag
Ġv aten
L engte
Ġprednis olon
Ġingen omen
Ġf requentie
Ġi pv
Ġt oonde
am nestisch
ĠNeur ologie
Ġp an
Ġdiff uus
Ġn atrium
Ġnab loed
ĠLe ver
Ġern stig
Ġz etten
AN T
K UN
dur end
Ġm een
Ġde s
di p
Ġth ans
Ġverzorg ing
be wijs
ĠEx tra
M E
op or
Ġd ra
Ġbehandel end
oc oc
Ġst ern
ind icatie
ĠTh orax
I F
Ġpijn medicatie
ĠM C
OL ON
m el
ilt ratie
geven s
O F
lij ft
Ġt aal
Ġsach et
Ġ5 66
Ġoc clusie
gro ei
oc iale
Ġpal li
baar heid
Med icatie
l ik
omy opathie
ĠAd res
p id
Ġtach ycardie
ĠP OB
rij ving
le eft
Ġmitralis klep
Ġdex amethason
Ġbij ge
ĠĠĠĠĠĠĠĠ ĠĠĠĊ
ĠC C
et yl
ulmon aal
Ġsus pect
oid ie
ik king
ĠU WI
ĠPolsf req
Ġvooraf gaand
Ġm otor
ac erb
Ġw oensdag
le ven
w at
ĠF or
ĠUit slag
Ġul cer
EM I
ĠP rof
Ġgro ep
ĠA o
Ġ12 5
Ġinsuffici Ã«ntie
r ink
Ġmed iale
Ġd rager
Ġcol oscopie
8 00
Ġbesch reven
re f
Ġt anden
Ġcor pus
j aar
Ġuitge legd
Ġwaar van
in itief
ru is
form ine
H eeft
Ġ4 7
Ġge probeerd
or ad
Ġmoe st
Ġgez eten
Ġant erior
Ġcerv ix
Ġover dracht
Ġ9 3
ot s
te in
Ġt oekom
ĠZ ou
Ġac enocoumarol
ĠN IB
be iderzijds
Ġdr ink
val u
T B
Ġuit str
ul l
Ġin cl
Ġgest elde
Ġc otrim
Ġv ent
Ġkl ier
Ġp ast
Ã¶rd inatie
age ert
ne ur
ĠP eri
ĠMe vrouw
D EN
Ġt ib
y cl
Ġonder houd
Ġna vel
wij f
oed eem
van kelijk
Âł ĠĠĠ
leeft ijd
12 5
Ġprog ramma
ĠHersen zenuwen
Ġdec ubitus
Ġver pleegkundig
Ġg lob
ot is
Ġl ate
Ġadvis eren
Ġtromb ocyten
Ġz enuw
Ġruim te
eps is
Ġge c
Ġh oort
hes ist
Af deling
ĠM ate
i om
Ġex cisie
Ġro de
p ut
ĠGe plande
ĠN aar
Ġher steld
Ġgehe ugen
Ġcontrol eren
Ġb rengen
Ġaf nemen
neu ropathie
Ġtoe passing
EM IE
am ol
it al
eder om
Ġc lopidogrel
Ġgal blaas
C D
i ra
neum onie
Ġ7 1
AR MACH
Ġl oc
Ġre visie
le ctie
Ġprox imaal
Ġving ers
w as
ARMACH EMIE
ĠK oorts
ĠTelef oon
Ġtemperatuur bron
at ar
ĠPart ner
w ens
ra ctie
Ġ4 3
Ġbe valling
iot omie
Ġversch illende
art an
Ġbest r
wee fsel
ĠBer oep
E CG
Ġbehouden s
sp annen
p end
Ġ8 2
Ġtot ale
Ġna dien
ĠDie et
Ġnov ember
Ġd im
Ġor gan
Ġte am
Ġlok ale
Ġ5 2
eg d
part um
ĠPer if
Ġt uss
E en
Ġ200 4
ĠPsych i
fort abel
Ġger elat
Ġconc entr
Ġbegon nen
ĠVZ R
Ġen ter
Ġep iduraal
ĠL A
min ale
ar men
Ġop leiding
Ġ7 7
Ġgedilat eerd
Ġaan zien
ab ine
ĠAf d
Ġr ichting
A d
er os
Ġkauw en
# #
Ġr elevante
Ġt ri
Ġh iel
Ġboven buik
lo os
Ġreg istratie
Ġc ell
h et
Ġor i
201 2
Ġisoc oor
ĠS D
led ig
teken ing
il lair
Ġv aker
Ġg ast
Ġs ol
Ġul cus
ĠM R
u x
Ġaden ocarcinoom
Ġoss ale
k ele
Con clusie
elaan wijzing
Ġdi ent
cont act
ou ders
Ġbehand elen
Ġh oren
H A
ĠAn g
Ġafw achten
Ġovar ium
Ġv ue
I g
MD O
Ġopt ie
Ġaug mentin
erie ure
Ġl iet
Ġger ookt
L inks
ĠH eel
Ġend ocarditis
la gen
KUN DE
Ġz on
alis eerd
Ġhern ia
Ġbra d
Ġver vangen
Ġs ensibiliteit
oet ale
Ġ10 81
oler antie
ĠInter ne
on ine
Ġal daar
Ġle ad
Ġoes ophagus
ĠCardi ologie
Ġc entrum
op l
in structies
Ġp ect
ĠV PK
ĠR itme
cep hal
Ġaf stand
st anden
Ġonder buik
hyd ratie
B K
Ġ8 3
E EK
Ġf ix
ĠAl bumine
ap ine
Ġen ig
Ġbe spreking
Al g
Ġconsol idatie
Ġkl ieren
ĠKlin isch
ĠNIB P
Ġna am
Ġerf elijke
Ġsignific ante
Ġkauw tablet
ĠC K
Ġpalp itaties
ef rose
er ig
ĠCP AP
b esch
Ġbeg repen
ren aline
ra di
Ġdrupp el
Ġc yt
ram pen
gew richt
________________ ________________________
ouch en
Ġgeb racht
cor r
gen er
ĠSt reef
Ġintermed iaire
ON T
ĠG isteren
Ġaan t
entr iculaire
ÂłÂłÂłÂłÂłÂłÂłÂł ÂłÂł
ar r
m aar
Ġhoe ft
on ge
Ġver volgens
Ġdro ge
intest inaal
ir atie
cht gen
rofie len
Ġm ast
Ġc entraal
15 0
er ien
ĠN ooit
Ġverricht en
ren g
Ġex t
im us
Ġversle chter
ron efrose
Ġgezw ollen
eld t
ĠPsych os
Ġgeoper eerd
ĠContact persoon
ro s
ĠBe vindingen
Ġverl os
ĠN VT
ok ken
Ġl ie
Ġover name
ĠD ig
Ġcre p
l er
m it
Ġsig moid
ĠG G
erv ic
l ip
Ġbe staande
la zen
ĠD uur
U it
ens ies
form eerd
spir atie
Ġgere geld
regel matig
Ġeen maal
inf ect
Ġz in
op a
Ġdecompens atio
PR OLOL
Ġlis inopril
ci pl
Ġtint elingen
Ġvoeding stoestand
ĠM ult
een s
opor ose
isselijk heid
Ġsl iep
Ġh ard
de c
plan nen
n em
Ġ8 6
ec es
Ġ0 0
schapp elijk
O TH
un n
C M
ĠB R
T h
ĠN ier
aar dig
ĠSamen vatting
ele v
r ic
le kkage
Ġechtgen oot
v inden
ĠM aakt
stel de
or ten
O ST
Ġvol wassenen
Ġhecht ingen
Ġger icht
Ġac ra
aal de
Ġbij voorbeeld
N u
Ġfol der
Ġsecund aire
Ġge midd
weg infectie
Ġbeg innen
Ġl iep
ĠP ers
ĠV B
u de
Ġat electase
Ġgele ide
4 00
r at
Y N
ĠMT X
ot aal
Ġvoel de
ij f
Ġm alen
ran ul
Ġa ard
Ġim mun
Ġk eren
ĠM oeder
Ġinf erior
Ġhyp otensie
Ġop per
ic on
RA F
uik er
Ġm er
u in
ĠM oet
Ġij zer
Ġw ww
rek king
ĠEr n
opp ingen
Ġsch aal
Ġver lies
o ken
wez igen
ÂłÂłÂłÂłÂłÂłÂłÂł ÂłÂłÂłÂł
ol sel
oc r
Ġsh ock
ĠP D
Ġrect aal
Ġ6 1
Ġb lijkt
Ġf ac
k racht
el la
ĠE ind
Ġc la
ĠT V
ĠIg G
ĠF unction
o ide
p h
Ġ4 9
ĠAn alyse
N atrium
id aties
ater n
Ġradi ologie
ĠM aar
lu c
wee gt
Ġr en
wen dige
z in
ĠCh irurgie
Ġe inde
metr ische
ĠOp nam
Ġgeori Ã«nteerd
Ġvraag t
Ġb uis
Ġk op
er m
G ES
ee g
d an
ub eerd
Ġadequ ate
ĠIN T
Ġtev reden
iaz ide
Ġfys io
ĠgeÃ¯n formeerd
Ġkl ysma
Ġp s
Ġlong arts
acerb atie
oe s
p atie
ĠH IV
ĠV ia
m oeder
ĠSt op
ail s
ĠL ater
Ġdoor slikken
kl oppingen
a chter
ĠA sc
Ġp upillen
Ġinst eek
m us
dnis on
ĠG ing
v es
H oofd
m w
ĠDi ff
Ġverwij s
P M
Ġ5 3
Ġ8 9
ES E
rakt ijk
Ġh r
Ġgro e
+ /
Ġgra vid
ĠP CA
ĠBovengenoemdepatiÃ«nt e
Ġcardi omyopathie
Ġaange geven
Ġre actief
A AT
an ule
ĠM E
af hankelijk
Ġgest uurd
mevrouw PERSON
Ġw achten
ost ase
Ġb ru
d ra
upervis or
Ġh ol
T elef
Ġang i
lij f
Ġuitbre iding
o i
A r
Ġact uele
Ġf en
k op
ĠGe Ã¯
Ġ8 00
as al
Ġst of
ar y
ek su
Ġde sc
ĠO or
d el
Ġt ympan
Ġl or
all on
Ġ rom
id a
c ef
ĠD en
ĠR u
M ER
ĠL ongen
or adi
Ġsp reekuur
plant air
but amol
Ġn vt
ĠN A
spra y
ĠI U
cl ox
Ġom eprazol
tra at
ĠInter val
ith iasis
con clusie
ĠOD S
LINISCHE OK
Ġont st
Ġf iet
Ġgep last
bel ast
ĠĠĠĠĠĠĠĠĠĠĠĠĠĠĠĠĠĠĠĠĠĠĠĠĠĠĠĠĠĠĠĠ ĠĠĠĠ
Ã«nt atie
Ġben eden
Ġbe merkt
Ġprop ofol
ograf isch
ex istent
ĠV erk
h el
A ST
ic ul
ĠHem at
r ische
Ġou der
v andaag
Ġor ig
Ġoper ateur
Ġz eggen
ÂłÂłÂłÂłÂłÂłÂłÂł ÂłÂłÂł
Ġinschrijf balie
ĠMijn dossier
a e
Ġt and
ĠE ch
ant woord
Ġe ci
Ġh i
Ġcom pressie
ĠCirc ulatie
il traat
iliteit s
Ġt gv
ure us
Ġmen sen
k atheter
uit slag
Ġintraven eus
Ġf lex
ĠT en
Ġin sult
Ġafwij kende
Ġ iliac
Ġte sten
AT I
z outen
' *
Ġgewricht en
Ġtabblad Mijn
ĠH aar
S I
B L
Ġver zeker
Ġger ing
ĠEnd oscopie
Ġprot hese
Ġs witch
Ġst olling
Ġdysp lasie
h em
Ġgedilat eerde
Ġantist offen
p aren
mc g
ier e
ĠP le
l y
Ġvergro ot
Ġerg er
ik s
ic um
l ong
vol le
Ġdors aal
in dien
imm uun
ĠOr th
ĠP H
Ġk aak
ĠH A
ver zorg
Ġk er
Ġv ar
Ġb alie
rij ven
Ġlok aal
Ġth orac
i O
ot iv
ĠThuis medicatie
ib aar
m atige
gel s
ĠâĢ ĵ
Ġ% ,
Ġwit te
Ġaan vraag
rol ijk
Ġbijn ier
Ġslok darm
Ġver v
ĠS ymptomen
GES CH
Ġmalig ne
ĠB E
ge legd
ic al
Ġp yel
ĠM ocht
in um
Ġ7 9
ĠS OC
l ichting
eut rofielen
ĠEen malig
N VT
Ġduct us
Ġnod us
Ġqu a
Ġm otoriek
Ġten en
Ġv ier
ĠVer geleken
ru cht
let sel
ĠE iwit
se qu
Ġe ss
ĠPC R
accin aties
Ġmo vic
Ġgew oon
Ġs im
Ġin v
Ġile ostoma
Ġepi lept
Ġh orm
ĠI MA
nam elijk
Ġwon ende
Ġboven been
or r
Ġuit vo
pro du
Ġh um
Ġer bij
Ġf orm
m s
Hem oglobine
AM STERDAM
rem pel
Ġper itone
m eer
AR M
Ġch ronisch
R R
l og
Ġv asculaire
Ġmovic olon
Ġverzorg d
Ġmen stru
Ġaan melden
Ġcontinu e
insuffici entie
c alcium
Ġinf orm
1 10
o ste
Ġconsol idaties
Ġgele iding
els ysteem
beper king
Ġbe weging
la ps
Ġs epsis
Ġo a
com ycine
ĠZ N
ĠRec ent
oment eel
Ġve ilig
Ġsh unt
ĠAf gelopen
p ress
ĠL G
P ol
G y
ot itie
Ġst im
Ġintra cran
Ġ200 3
ĠAMC POL
Ġp seud
b t
Ġcon f
ĠW anneer
Ġh een
V EN
mplant eerd
Ġmamm acarcinoom
L L
ĠOnge wijzigd
Ġbeve stig
Ġie der
Ġb aring
G AS
Ġnabloed ing
ĠM aand
Ġdoorg ankelijk
Ġpr aten
Ġ8 7
Ġde zelfde
Ġkort durend
asc ulair
uw d
B oven
Ġver nomen
sp ectie
som eprazol
carb onaat
ist iek
ĠAnest hesioloog
vl iezen
re ment
ĠK w
H P
ĠDaar bij
ator ius
ĠPOLI K
Ġvast gesteld
lig gend
Ġhyd ronefrose
rid rink
ĠInt roductie
Ġb ul
R ec
d a
ĠN D
rouw en
o us
sver slag
p atient
ĠB ro
merk ingen
St art
dom inaal
met ing
d us
w eem
inf o
Ġcogn itieve
Ġin structies
Ġoef en
Ġerv aart
Ġ16 0
ĠCh ronische
ĠF ysiotherapie
N F
b u
Ġbinnen komst
Int ensive
Ġp m
is el
ist reerd
C ardi
ĠRet our
Ġbe wegings
pro cedure
vla kk
ra k
pleegkun digen
Ġcon serv
on c
ru im
om atische
Ġpla qu
Ġpass age
an en
Ġzorg verlener
control eerd
+ .
Ġinst antie
st op
Ġvoor heen
u di
on structie
Ġz et
Ġfamil iel
paren chym
f lexie
Ġop bouw
iv us
pro ductie
atar act
yste ctomie
Ġdrink voeding
Ġstoornis sen
eff ort
ĠR isico
ul ose
Ġoverge plaatst
Ġher ken
ic k
ov asculaire
Ġs ens
Ġd ent
Ġu n
weem aal
d s
Ġoverleg gen
id oca
Ġde m
eder land
Ġdef ect
ĠM ag
lox acine
ĠH eden
ĠVit amine
L AG
Ġmeto PROLOL
Ġhart kloppingen
k uur
b ele
Ġ( +
Ġverander ing
Ġd aling
Ġken merken
m L
osin ofielen
Ġsnel le
i or
201 1
generatie ve
Te am
Ġz aal
-- >
Ġbro od
Ġm el
ond ag
oen en
Ġlong vaat
oe c
IR UR
Ġonc ologie
Ġ6 00
Ġ( =
AV I
resp ond
ĠS P
Ġvoor alsnog
on ische
ĠW erk
p unctie
ouw en
Ġred elijke
ĠOb jectief
HE ID
k ant
ST EL
Ġt wijf
Ġw ederom
ĠSt abiel
ĠT M
Ġcycl us
ĠC AP
p as
Ġgynaec oloog
hand eling
ip t
clusie f
la mm
ĠM atige
entrik el
Ġlaat st
b lok
ĠD u
h erapie
Ġhart falen
or der
ost omie
ĠF AC
Ġme et
al ol
ot t
ĠVOOR GESCH
G E
Ġverwij dering
th iazide
Ġsch ade
V oeding
respond entie
Ġtran sver
M W
ju vante
Ġam oxicilline
is sen
ĠB LOED
ĠCh em
ad ol
Ġabdom inale
ĠCV A
Ġge test
aal t
oo i
t onen
IRUR GIE
Ġnier transplantatie
iz umab
Ġreg io
Ġuitbre iden
sp uit
Ġc ut
Ġsp ecialist
ate us
Ġt ip
Ġmogelijk heid
Ġp h
201 0
h oek
ĠZ iet
Ġf raai
dr ang
Ġinf o
ĠRC X
ĠBehand elaanwijzing
ĠB een
op las
ĠRe spiratoir
ab y
Ġev ident
Ġpuls aties
wikk eling
Ġlangdur ig
Ġsl ikken
om er
ĠĠĠĠĠĠĠĠĠĠĠĠĠĠĠĠĠĠĠĠĠĠĠĠĠĠĠĠĠĠĠĠ ĠĠĠĠĠĠĠĠĠĠĠĠĠĠĠĠ
Ġlong velden
ĠAan wezigen
raag de
Ġd om
uw ing
ĠH eb
ĠFosf aat
id is
Ġpla centa
Ġhuid afwijkingen
Ġverslechter ing
last en
Ġp lant
Ġ ator
W S
yp ass
Ġlie ver
c ell
Ġt am
ist olling
Ġden ken
f ol
Ġs arco
Ġfrequ ent
Ġmy ocard
Ġf lexie
Re chts
Ġover gang
ĠMedicatie Team
ov ing
Ġsn ij
ĠB en
iv ar
Ġactiv iteiten
k ins
ath ologie
p ool
spro blemen
ĠM en
Ġmo gen
le vo
ri ft
ĠVer volgens
activ iteit
Ġang stig
Ġaange zien
ĠF EV
Ġbet e
ĠAl leen
ul us
3 00
ver pleegkundige
led ige
acht ig
Ġt rom
K inder
ĠCo Ã¶rdinatie
Ġf ase
ste en
Ġdiff erent
Ġs v
ir patie
Ġend oscopie
ĠN ut
Ġa ctie
Ġhier door
Ġgepr ikt
v lak
ist of
Ġ13 5
Ġaan houdende
Ġc T
os ine
Z OND
ĠA and
Ġmidd elen
Ġsp reekt
sp iegel
cler ose
s al
Ġv es
z t
Ġwe k
ĠA PR
Ġbas ale
Ġf asc
Ġbe ademing
Ġdesc endens
cut ane
ĠPatient e
ink ing
os itis
ĠImplant aat
ulmon ale
Ġ ed
ĠAf spraken
p oging
ria ge
on gestoord
corr ige
Ġge controleerd
alis eren
il igheid
vang ing
Ġt ons
es en
Ġmob iel
Ġafge sloten
Ġaf grens
Ġhel pen
Ġchem o
Ġgeh ol
Ġca ud
ĠM idd
Ġher haald
ĠB I
Ġverminder en
Ġoog druppels
Ġged acht
ĠAllergie en
l it
Ġinsp ectie
Ġgehol pen
ĠProbleem lijst
PH ARMACHEMIE
zak elijk
ZOND HEID
ST EMI
es itas
Ġdaar voor
Ġst amc
actie s
sie ve
rit ine
IN DER
ĠGeÃ¯ mplanteerd
Ġpre ventie
sp re
Ġfem oralis
Ġmet er
Ġbere iken
V L
Ġim m
Ġf e
Ġdrain s
ĠN eemt
Ġs oort
ĠEr g
Ġhyp o
a cl
af wijking
g de
Ġb u
otion eel
open ing
Ġplaats vinden
ĠD yspnoe
ZONDHEID SC
Ġ9 1
Ġvoed sel
Ġmis schien
T riage
ium zuur
i raal
Ġvir ale
A AL
Ġs uc
kins on
vl oe
Ġt rekken
r isico
Ġoed emen
ĠN ee
h il
ĠMaand ag
Ġdis sectie
Ġhyp of
m ateriaal
ĠM KA
f heid
hy dro
Ġvag inaal
ic es
Ã ³
ure au
erd ag
s inds
Ġator vastatine
lu cin
Ġkun st
ĠZie kenhuis
eci Ã«le
ir rose
Ġcol ecalciferol
ivar oxaban
ig ne
wijzig de
Ġhyp othyre
Ġn iks
ĠFor se
AZ GPE
ch an
Ġge lijk
In dien
Ġpap il
Ġpers isterend
Ġonder gaan
Ġ+/ -
Ġex ter
w acht
Ġge de
Ġm akkelijk
rek t
ĠBLOED GAS
r ium
ori asis
ak s
Ġ1 11
ĠHuis arts
Ġ1 44
Ġbestr aling
Ġlor azepam
- /
ĠL igt
chol esterol
ne x
z ins
ĠPatiÃ«nt en
US IE
l ingen
ĠB aring
Onder zoek
Ġalle maal
Ġhou ding
ine zuur
od on
Ġb ad
end oor
Ġaan geb
ZONDHEIDSC ENTRUM
p sych
Ġricht ingen
k ra
Ġdaarna ast
ĠTe chniek
alg ie
II I
Ġonder liggende
over zicht
ĠB urg
Ġ5 1
Ġver erg
ĠAl b
B as
25 0
Ġm ild
Ġbla d
Ġ200 2
OP RA
Ġdienst doende
be h
Ġsympt omen
ĠBe valling
r ens
Ġble ef
am i
ul eren
ĠHulp vraag
cort ison
! !
Ġhepat itis
igheid sduur
ĠToen ame
Ge achte
Ġw r
Ġb ran
ĠM eest
Ġsom ber
Ġverne v
Ġlink erv
a ad
Ġsp ort
Sp O
ĠM in
e chter
Ġm agnesium
ĠP la
% ),
ilis eert
Ġst olsel
Ġmedicam enteus
z inking
ps is
N eutrofielen
ĠH and
ĠDi Ã«tist
ĠChirurg ische
re ctomie
ĠPost operatieve
Ġtablet ten
i alis
Ġtympan ie
IE T
Ġsp eel
f usie
ĠR esultaat
p la
ĠEn kele
ĠM ilde
ĠK eel
ĠAM O
id iteit
verm ogen
Ġwaar de
ige st
Ġbe zocht
b eg
ap pen
Ġr hin
Ġu g
ĠM od
ĠT IA
kom end
ĠGeb oortedatum
Ġcol itis
adem isch
ĠSp eciÃ«le
ĠS C
Ġkra chts
Ġst uren
ĠDr inkt
di end
Ġken nis
is c
ig n
w ogen
ex t
Ġh arde
Ġk ol
col ecalciferol
gr ond
ar s
Ġpr et
on us
Ġventrik elfunctie
ĠOperatie verslag
ĠP akket
ine um
vind ing
ĠM P
Ġgerelat eerd
Ġbest aat
a a
ATI ENT
lyc er
) >
ĠA AN
Ġvast e
ĠT ab
ol act
Ġnood zakelijk
oen ame
Ġfamiliel eden
sche iding
re x
Ġpericard vocht
Ġverdw enen
ĠA dem
is is
Ġbetrokken heid
ĠK PR
Ġge ind
atr ische
ĠAnt istolling
mede werker
h oor
ĠBloed verlies
bre uk
Ġchem oradi
c r
ĠF iO
Ġpl ots
th erapie
gra ad
Ġd ocument
Ġasp iratie
h yp
bi ologie
ur in
h ulp
CL USIE
itie el
ur t
ĠT ime
l oss
Ġs eksu
Ġfrax iparine
ble matiek
Ġ( -
Ġp T
de qu
O b
con form
val lend
Ġconc rement
Ġurine weginfectie
Ġpsych oloog
rof en
Ġret in
sc op
Ġmac ula
rop onine
Ġori Ã«ntatie
Ġn it
Ġpalp abele
Ġd ouchen
E A
ĠVer wijzing
start en
ĠLog istiek
V an
ver s
ĠG ra
is f
ĠN AG
ĠCT A
D R
asal aat
Ġoperatie s
Ġlicht re
Ġl eg
Ġ1 12
Ġre animatie
ĠR ustige
Ġtoenem ende
b urg
: (
ĠD at
Ġcort onen
ran splantatie
olact on
V isite
A AN
sie f
ĠW issel
ĠG em
Ġver schijnselen
ĠUit komst
ĠBe iderzijds
Ġ13 8
ĠM B
Ġdon ker
yt roc
ĠH oog
de fect
Ġlever en
Ġfib rose
Ġgemidd eld
Ġm ic
Ġst r
ĠSub jectief
Ġan amnestisch
cur sus
ĠEer st
Ġna der
et an
ĠĠĠĠĠĠĠĠ ĠĠĠĠĠĊ
Ġinf iltraat
Ã¨ me
Ġzou den
B eleid
Ġur ologie
Ġcon sul
Ġpect oris
a ort
Ġin gebracht
+ +
ma ken
ĠAnt i
ĠAL L
cont inu
st ijden
Ġmo du
ĠDer halve
ĠGeld igheidsduur
ĠS oep
Ġgastro scopie
ĠK racht
b up
bij t
ur ve
Ġn o
Ġpoly neuropathie
ĠP SA
Ġgereg istreerd
ir on
Ġc ellen
ĠĠĠĠĠĠĠĠĠĠĠĠĠĠĠĠ ĠĠĠĠĠĠ
ide mie
Ġpl at
Ġal lo
le aire
Ġmet formine
Ġhem odynam
Ġopper vlakk
Ġmediast inum
i le
ĠNu chter
Ġslijm vliezen
ĠAsc al
ĠL oopt
ver b
ĠH t
Ġz u
Ġl eek
ĠK linische
B loed
ut ter
ĠPsychos ociaal
ĠOn d
yc odon
Ġmogelijk heden
gev oeg
Ġvol ume
lop ig
ĠInt ra
ĠE vent
ĠE F
ĠB es
Ġpog ing
Ġdrupp els
Ġh om
ĠL aat
U P
ĠP Q
Ġcholec ystectomie
ge maakt
Ġvoor namelijk
Ġweer standen
asalaat calcium
Anest hesiologie
ken ing
Ġzw anger
uil en
re st
Ġgesp annen
Ġpar esen
ĠPost operatief
valu eren
Ġdiafrag ma
ul atoir
ĠGe accept
Ġvl ot
ĠR ond
rol oog
th uis
Ġac etyl
ĠD ochter
n aar
ĠH y
ĠE VD
Ġver loop
Ġfrax i
ect aal
el ine
b al
Ġur oloog
ĠAnt ibiotica
Ġcardi o
ĠHier voor
Ġtach yp
ĠSla apt
Ġl ief
ocrin ologie
u ug
pro te
Norm aal
Ġre ageert
Ġtoenem end
it i
ĠAand acht
Ġver pleging
gele id
Ġsuspect e
ocyt ose
ĠDe c
Ġa z
an der
at oloog
ur iteit
igest ivus
Ġopt ies
Ġsuper ior
ĠBas ket
P a
la an
Ġop in
st am
Ã ĭ
ĠVIA In
ĠĠĠĠĠĠĠĠ ĠĠĠĠĊ
OP T
Ġstand aard
de f
ĠInf ormatie
ĠDe cursus
b ril
566 33
Ġgez in
__ _
: <
ge stelde
v it
Ġoef enen
ĠT I
erk te
Ġnef ro
cin aat
ĠER CP
Ġvan comycine
Ġim p
Ġin sch
Ġtablet MSR
IR R
Ġb ypass
Ġe someprazol
ig ra
bere iding
Ġmet ing
Ġdef ici
Ġd ou
ĠC O
re mm
neg atief
S ub
M GA
ĠBM IRR
Ġregel en
ĠP as
op pen
ĠV or
ĠRv O
last ische
em isch
el baar
Ġna ad
us ies
Ġb allon
ĠPols SpO
Ġdoorge maakte
Ġth v
stat eerd
ID E
ĠV is
Ġres idu
y lo
U D
ikkel cel
Ġals nog
Ġcotrim oxazol
Ġbesch ikbaar
ĠDiagnoseDatum registratie
hol te
Ġtemp oraal
pt uur
Ġn amelijk
ĠK on
H B
waar de
ĠEer dere
Ġp rol
Ġflu clox
E er
H er
Ġhersen infarct
zw eten
e cho
sp unten
ar etten
Ġaan leiding
iron olacton
ĠE ten
Ġvloe ibaar
Ġgen t
C ont
Ġaut omatisch
Ġkomen de
Ġart eri
Ġr it
Ġ18 0
ĠAm stel
444 35
OTH EEK
Ġwerv el
s ysteem
Ġgesp oeld
ct er
Ġvriend elijk
Ġlang ere
at ig
s yndroom
v m
Ġin tens
D M
Ġst emming
Ġglob aal
P TT
ĠDi urese
Ġaanleg gen
iclo vir
Ġro ze
Ġtelefoon nummer
ĠA ug
EG EV
ĠMM B
U W
um m
Ġh a
Ġdoor gevoerd
inet otaal
ĠR el
Ġp it
L N
cef al
Ġont sluiting
ĠM omenteel
O RI
ĠB i
k ap
EL E
rucht water
oel i
st aand
Ġp unten
Ġprogressie f
i od
Ġmoment en
st im
Ġtransf usie
ann ings
Ġincontin entie
m p
ĠI ets
er o
Ġret entie
Ġt ox
yl ine
ri ose
RA X
Ġm s
oe z
ien e
Ġbe hoe
ĠEle ctief
ĠD ruk
Ġm bt
con sult
A A
Ġop gel
lamm atie
ĠR ed
ĠDrugs gebruik
Ġinge pland
ĠZ egt
c ereb
Ġc alcif
ĠPost bus
Ġn at
Ġat rofie
Ġkrachts verlies
k ade
Ġbep aald
sf usie
Ġlas ix
ur aties
d ol
ĠS ec
ĠE chtgen
ru it
Ġger ust
ont slag
ĠS oort
am in
Ġsp anning
ol ol
Ġneu ropathie
K EN
Ġf lank
F ORM
ijd ing
at ier
MD RD
Ġt re
ĠCON CLUSIE
ĠK ind
âĢ Ŀ
ram adol
us h
Ġgeb it
Ġop staan
vol ge
Ġac c
it abine
Ġaanp ass
Ġcol l
Ġhal lucin
pende ctomie
Ġcerv icale
UR OLOGIE
ĠR esult
ĠKle ine
Ġmodu les
ĠB lanco
Ġtoekom st
ĠJ J
Ġcirc a
Ġ- .
SA ID
Ġie mand
ĠAc ademisch
ĠV ragen
Ġopin ion
Ġan us
ve isel
Ġenk els
f ys
Ġs in
ĠN ederland
ĠBilirub inetotaal
ĠH B
Ġfunction ele
ten de
Ġs ac
ynt hese
Or ders
Ġor de
ĠE EG
Ġdoor gaan
B NP
o ond
ĠCV L
ĠCon form
M P
oem d
L ON
Ġmeest al
ur etica
1 20
Ġerv aren
or a
Ġpalp atie
L ymfocyten
on idine
Ġex p
Ġam p
Ġsuc cinaat
art rose
sp reek
ĠNEU RO
ĠWe et
ux imab
ĠD oet
Ġbenauwd heid
.. .
Ġdermat oloog
b ureau
NA Q
Ġeen heden
ep ten
or derd
en k
Ġz aken
ĠMedicatie Overzicht
N B
g aat
Ġaan merking
patiÃ«nt en
mat o
ĠT wee
ĠR E
Ġcereb rum
Ġom hoog
Ġge gener
Ġtev oren
Ġbeper kte
Ġd op
ru n
Ġin log
ov ir
regel s
he cht
Ġge com
ĠLD H
MD L
Ġhog er
or ide
ass a
aks gebruik
St abiel
rit eria
Ġart rose
Ġw oon
Ġart sen
if orm
ver en
Ġd ur
Ġhep arine
S AL
ab iliteit
Ġtraum atische
Ġradi us
L V
G oede
Ġher vat
ron k
ĠBe oordeling
ĠB ed
Ġang ina
du raal
Ġvrij wel
Ġic m
Ġfiet sen
Ġtransver s
Ġtoege diend
bup rofen
rol yten
igra ine
U LE
icus pid
Ġsle chter
Ġonder arm
ÂłÂłÂłÂłÂłÂłÂłÂłÂłÂłÂłÂłÂłÂłÂłÂł ÂłÂłÂłÂłÂłÂłÂłÂłÂłÂłÂłÂłÂłÂłÂłÂł
Ġonze ker
et ron
ĠN eus
Ġmg tablet
actie ve
ou dt
Ġsign aal
ĠTab aksgebruik
se pt
sequ enties
O Z
Ġp unt
N AM
ĠGastro scopie
b in
h of
lu cht
Ġlong functie
Ġis olatie
op ro
we k
ĠE T
Ġh un
Ġhier op
ro pen
Ġneus spray
ĠGE ZONDHEIDSCENTRUM
V rij
ĠD VT
Ġf actor
Ġlab oratorium
Ġorth op
Pro bleem
ĠGed urende
ĠM agnesium
C OD
Ġa ureus
Ġsla g
Ġ200 1
Ġfamilie anamnese
Ġerf elijk
ĠRe sp
Ġm erkt
ucht weg
I UM
af name
v rager
of ilie
Ġher hal
Ġcor respondentie
In f
Ġmening itis
loss ing
ectie f
Telef onisch
se ct
ĠPlaat s
ĠV r
Ġvoor gaande
Ġrec onstructie
Ġverk le
Ġverw achten
umar aat
ĠV ER
ĠWe inig
Ġvoor gaand
an oom
G ro
Ġile us
19 1
Ġhemat ologie
Ġuit er
oÃ¯d ie
Ġsp uit
Ġhyp oden
af el
dra chten
os ynthese
ĠP upillen
ĠBe ide
ĠAf name
ath iop
I K
ĠF ab
ox ys
rouw d
Ġverd achte
Ġimm uun
diff erent
Ġpijn Resultaat
Ġf iets
Ġpol iepen
Ġwaar om
N euro
ĠL ymf
Ġth romb
566 4
A ct
E osinofielen
ge s
Ġin brengen
Ġdim ensies
Ġaan vankelijk
omy el
av ir
M onocyten
re c
Ġl ijken
IE DEN
Ġon waarschijnlijk
gang sverslag
Ġin plannen
Ġju ist
ĠC a
p i
E ES
- .
ĠP h
Ġconserv atief
ĠGeaccept eerde
ĠMM W
T SH
ĠUitgebre ide
oez em
ĠErn stige
Ġnov o
C S
M B
Ġcol laps
ĠA CT
f eb
ĠE P
Ġv rolijk
ĠAnest hesist
Ġpulmon aal
Ġont spannen
Ġkra am
Ġspra y
Individ uele
ac illine
Ġvoorbere id
it y
ot he
ĠS NAQ
Ġdi ast
t ie
ĠM ond
EM V
Ġged aald
Ġl eeg
Ġluchtweg infectie
Ġver geleken
Ġaange maakt
ik el
Ġw oorden
Ġinlog poging
ne f
Ġbloed ingen
m aanden
Ġje jun
ĠS ym
jun ctiv
Ġbol us
ig d
Ġab latie
Ġwij z
ĠN ef
int ake
% ).
Ġrug pijn
ic o
Ġlok alisatie
ĠAnesthesie medewerker
rik ant
I OLOGIE
ged rag
Ġmetab ole
t ro
vis ite
ĠĠĠĠĠĠĠĠĠĠĠĠĠĠĠĠĠĠĠĠĠĠĠĠĠĠĠĠĠĠĠĠ ĠĠĠĠĠĠĠĠĠĠĠĠĠĠĠĠĠĠ
l id
be waking
Ġvriend in
Ġth ee
ach n
Ġsp ond
ĠMeer dere
ĠPijn stilling
Ġne o
f oto
iod ar
Ġcar otis
Ġcyst en
Ġge volge
Ġr is
j r
P atient
Ġd B
a ecatie
Ġk uiten
athiop rine
Ġper foratie
prot ocol
ro od
Ġf actoren
Ġincident en
p il
Ġverk ouden
Ġpro tein
Ġcom fortabel
Z ie
ge et
ad on
Ġvor ig
Ġlu ier
Ġaange d
ĠW G
S M
ra d
ra king
ĠA chter
Ġlucht houdend
re i
IEDEN IS
ron idazol
ĠH e
h emat
Ġlum en
ĠS n
m aat
ĠN O
Ġst uit
ĠBe st
P CI
Ġsecund air
ĠResult aten
Ġgro en
Ġinf lammatie
len omegalie
B TB
he vel
abet ische
Ġgeleiding stijden
ug gest
Ã¯ n
ĠP ATIENT
g ram
Ġinf iltratie
NAM E
Ġex acerbatie
ĠOp ge
ĠL ok
Ġter minale
Ġ {
Ġcap itis
Ġtrom mel
ĠAr tic
s k
Ġo t
b ran
en ummer
a in
ĠT ube
Ġart erie
-------------------------------- --------------------------------
Ġm eldt
pro f
s ub
Ġg las
be str
Ġvocht col
Ġmo cht
ost en
ĠH oudt
ĠHoe st
G EGEV
Ġpost erior
open em
Ġb alans
Ġa v
Ġor b
Ġj eu
d aling
Ġf racturen
ĠH C
Ġversch il
ĠArtic ulatie
ĠN egatief
ĠMod el
Ġpost partum
Ġf ysiotherapeut
Ġtoe stemming
ĠBeeld vorming
eef regels
ig ment
Ġbed rijf
ic illine
ple x
ĠMob iliseren
assistent Interne
ĠM ax
Ġmedi aan
Ġgeh oord
Ġaden oom
Ġdik ke
v le
Ġneuro chirurgie
ĠGro otte
Ġ13 9
o zen
geb rek
Ġbel de
ĠM O
oor za
ĠN SAID
k inder
Bas ofielen
ans etron
ĠGe gevens
em etrie
c atheter
Ġ11 5
lass ificatie
Ġele ct
Ġsal butamol
sch ade
ĠAP OTHEEK
Ġsp orten
sl ip
Individ ueel
rof ische
p lastiek
Ġz ondag
isf eer
Ġinfectie s
ĠÃ ł
ervic enummer
Ġchemoradi atie
ĠV ag
CH IRURGIE
Ġgew enst
Ġver hogen
Ġox azepam
Ġdys art
os us
Ġbeg rens
ĠGro ot
Ġh eft
Ġverd oving
la x
Ġem otioneel
onder kwab
pl open
Ġw ith
be zocht
Ġ13 6
l aten
Ġher inn
ĠV AS
Ġsp oor
2017 0
Ġom geving
ĠVocht balans
it atie
d elen
h art
ade men
sten en
be ademing
ĠM ac
Ġpalli atieve
ic yl
ĠZw angerschap
ĠT PR
Ġprim air
Ġj ug
Ġdon or
ĠWee fsel
or ale
A CT
ĠPATIENT GEGEV
Ġpret tig
Ġboven ste
regelmatig heden
otiv eerd
gen itale
Ġverward heid
s er
ĠĠĠĠĠĠĠĠĠĠĠĠĠĠĠĠ ĠĠĠĠĠĠĠĠĠĠĠĠĠĠĠ
verlen ers
ar ia
ram ide
Ġvaat ziekten
off ie
ie ken
Ġhum erus
orb ide
ĠB lijft
ĠPatiÃ«nt nr
Ġtoedien ings
ĠEn ige
stel lingen
k lin
levo ziekenhuis
Ġaan komst
S P
ĠE BV
Ġt weemaal
ET S
Ġlinker arm
Ġ10 5
rof umaraat
Ġvaat lijden
ĠC F
Ġsinds dien
n aald
k lacht
Ġbeoorde elbaar
Ġop drachten
Ġmid azol
Ġhet zelfde
Ġaange komen
Ġsignific ant
ra che
Ġcr Ã¨me
lam mato
Ġgel aten
V A
Ġin zicht
yt ische
Ġgen oeg
c ellen
? ?
Ġverpleeg afdeling
Ġsp ecialisme
Ġk al
ĠRe visie
Ġpre c
ĠOS AS
IC YL
kom t
ĠS I
Ġo cc
ĠD es
ĠA dequ
Ġd ox
Ġuit d
cholesterol emie
an aal
Ġst il
Ġ10 4
s lijm
Ġmenstru atie
ecif iek
ĠFab rikant
c an
r iet
Ġf und
Ġs maak
ĠAdemhal ing
Ġving er
is eerd
is ol
icuspid alis
vo er
Ġst rak
rex aat
r ing
Ġbe wezen
ĠÂł ĠĠÂłĠ
oplas ma
Ġp ub
Ġv ind
ĠL P
h n
Ġtanden rij
hesiet ype
Ġdys urie
H yper
b oek
act er
ĠD BS
ank elijke
Ġbe ste
Norm ale
rek kingen
assistent Anesthesiologie
ic eps
SAL ICYL
schrij ven
ĠPerif eer
ret entie
us us
rag ment
atr isch
Ġ atr
rem or
RS A
rof loxacine
Ġver loopt
ident ificatie
icro biologie
Ġme vr
Ġhoort oe
ĠH ep
oth y
Ġs coop
Ġp iepen
Ġr h
ic ol
Ġmyel um
Ġz akt
v oe
ĠĠĠĠĠĠĠĠ ĠĠĠĠĠĠĊ
M L
ZU ID
ĠS LE
Ġverbet eren
Ġontslag brief
I s
Ġbeper king
ot rexaat
Ġmedicatie overzicht
Ġo st
ĠAS A
t jes
in cl
ang itis
o er
Ġ13 7
Ġmidazol am
ĠCardi aal
Ġmotor ische
ĠD a
Ġben igne
Ġbuik wand
as aal
on ef
Ġmeen emen
Ġin clusief
ĠEH H
ĠâĢ ľ
chl oor
in itieve
gelijk se
Ġmed ia
Ġaange zicht
Ġdiver tic
H r
Ġdaar door
ĠA s
ĠAnest hesietype
if ed
ĠW erd
ĠE CV
Ġvasc ulitis
c yste
Ġg ranul
b l
Ġbep aalde
Ġhoofd behandelaar
Ġl ap
Ġc ef
resent atie
Ġaf asie
ytroc yten
ste kort
Ġaortaklep stenose
gesch at
Ġpar ameters
Ġr onde
Ġoxy contin
Ġp ak
Ġstij ging
Ġa PTT
inder d
ĠK ort
Ġb ril
Ġver zoeken
druk ken
par ine
Ġle vens
Ġaf ger
Ġpsychi ater
âĢ¦âĢ¦ âĢ¦âĢ¦
: +
m on
ĠGen eeskunde
ĠHier op
vorm end
ĠA ort
cipl in
Con sult
Ġvoorbere iding
ĠH H
Ġsp ec
S ociaal
pre ventie
Ġvert elde
EH AND
ĠP rim
rei gende
Ġr ill
plaat s
L AD
Ġlongvaat tekening
t ijden
Ġvit aal
Ġk ijkt
wijz er
Ġbloed kweken
ĠN eu
im plant
op end
eer baar
ĠSt oma
Ġs ociaal
up lex
h an
Ġver oorza
vic e
Ġf a
ĠCardi o
elt ransplantatie
ĠIg M
Ġ( >
Ġdw ang
Ġnacht zweten
Ġat ypische
======== ========
oli ose
on ale
M T
aris atie
ra ject
ic e
ĠD et
Ġsnij tijd
Ġmen inge
Ġsept um
Ġat m
Ġj ong
re chter
ok ter
Ġbloed kweek
Ġv agina
p ing
Ġro ker
Ġpat roon
Ġachter uit
Ġsch rijven
Ġtromb o
Ġconcentr atie
RA DS
z ijd
an alyse
Ġs lanke
m ac
Ġz ussen
Ġt ij
Over weging
em ateus
e valuatie
ĠAl le
ig lycer
Ġinfectie us
Ġavond s
Ġart er
ĠE inde
n eemt
ĠPre dnison
Ġrom p
on regelmatigheden
f ac
T RA
2017 08
ol isch
IC D
ĠSp aarne
Ġmorgen ochtend
omyel itis
V I
ĠOp merkingen
' .
vic ula
Ġer os
ĠPoliklin ische
ĠN F
Ġd y
ĠRec idief
al lergie
ifed ipine
Y C
ĠS luit
Ġbeg int
ĠCirc ulatoir
Ġont bijt
u ro
566 25
Ġsp elen
k v
ED EN
Ġinter mit
Ġre ag
eter o
pl atin
ĠCh emie
Ġin dex
Ġna dat
Ġl un
ne a
ĠP VC
ĠP ositie
g las
) +
ĠG ynaec
Ġged achten
Ġcalcium carbonaat
Ġlig ging
ĠOnge compliceerde
lij ven
h en
EL F
ĠK l
Ġm bv
an ale
Ġverb lijf
ĠU rologie
m al
ĠL OG
Ġmedic ijn
Ġst raal
Ġmed iaal
Ġdys functie
Ġb aby
Ġlapar oscopische
ĠW erkt
ĠR OM
ĠRe validatie
et al
OD S
Ġnod uli
len gte
ĠĠĠ Âł
M OV
Ġf il
Ġt raag
Ġbelast en
Ġc are
plaat sen
ĠVer loopt
idazol am
ot alol
om ide
s amen
Ġverwijz er
Ġdent itie
Ġbev indt
ĠTelef onisch
up il
Ġkan ker
Ġstro om
EES KUNDE
ĠGe v
rot hese
oe pen
p neumonie
ĠL M
ĠVOORGESCH IEDENIS
Ġgeb ieden
Ġok sel
b et
ĠP I
Ġox ycodon
per itone
B G
Ġtherapeut ische
ĠMult ip
Ġw oord
Ġborst voeding
re validatie
Ġs em
Ġvert eld
al p
Ġess entie
ĠS lanke
oxic iteit
K w
AL CI
Ġch l
di ent
or p
Ġhyp ok
r ist
Ġex c
et jes
Ġe valueren
Ġplan ning
Ġgene zen
rol imus
d rempel
ĠR IP
ĠAan brengen
Ġl arynx
ĠL ang
Ġge keken
bo dem
Ġn yst
L S
Ġhev ige
Ġdom in
Ġt ac
ilis eerd
Ġaan drang
Ġdraa ien
Ġgehoor verlies
ien den
m oment
V oort
du c
D it
Ġwond jes
boven kwab
idis ciplin
ve en
Ġan at
Ġant ibiot
Ġhyp og
56633 33
8 50
ĠT EE
Ġlymfklier en
Ġstamc eltransplantatie
ĠAM L
ag itis
Ġcomple x
Ġd oof
ĠB ent
Ġc ataract
Vol gende
ĠC WK
COD ON
ĠM ateriaal
at ose
EHAND EL
Ġoste oporose
ĠV AC
Ġst een
ot isch
ire ct
Ġlu x
ĠKlin iek
Ġad nex
b asis
Ġc oeli
Ġin d
Ġco il
Ġdi uretica
gev onden
Ġc al
sp ecialis
am ycine
Ġdiagnost ische
ar achn
ext irpatie
t umor
de se
Ġvocht balans
in ib
ĠV en
f req
Ġ+ .
hand ig
Ġher beoordeling
ĠV erd
ap ril
Â µmol
ĠD us
sluit end
20 08
Ġsp ironolacton
Ġverk regen
Ġbloed s
Ġopnam es
onef ritis
N og
S inds
aryn g
S E
Ġmel anoom
in tens
Ġd gn
d ose
Ġorb it
ĠM isselijkheid
Ġn erv
lu en
ĠVerk oever
ĠC ave
t ype
c k
Ġstern um
Ġn i
ÂłĠÂłĠ ÂłĠÂłĠ
alie mie
id ol
Ġuitge sproken
ĠMED ICATIE
P lan
Ġbest eld
R itme
K lik
dip ine
Ġme chan
ite indelijk
it t
uit slagen
Ġsc oliose
Ġpan iek
ĠUro genitaal
Ġw onden
ĠEet lust
tot ale
Ġt zt
g oede
MR N
Ġinter na
O u
ĠAan komst
kopp eld
Ġbelast ing
Ġged ocument
Rv K
chloor thiazide
Ġver vel
ĠN ieuw
14 0
ĠD R
Ġim pon
Ġh en
ĠPATIENTGEGEV ENS
ococ cus
Ġgeb roken
AM N
fys eem
U G
ĠH T
ort el
ĠU p
Ġhel dere
Voor geschiedenis
S G
Ġoefen ingen
arm ac
Ġre kening
sla cht
ĠO chtend
ĠPro cedure
Ġtraum atisch
Ġzaal arts
ĠG y
Ġk offie
tr ent
be spreking
Ġmee ge
ĠĠĠĠĠĠĠĠĠĠĠĠĠĠĠĠ ĠĠĠĠĠĠĠĠĠĠĠĠĠĠ
ĠVol ledig
Kinder geneeskunde
Ġond ansetron
Ġbe sluit
zy g
Ge wicht
b erg
Ġdiagnost isch
F G
ĠAn dere
wij deren
Ġam iodar
L C
ĠPERSON bezocht
ĠOor heelkunde
ant ies
Ġcons istentie
Ġin houd
L ater
Ġne on
l ocatie
asie ve
ont steking
Ġaange sloten
activ atiecode
ĠM atig
o eling
di agnost
or es
ĠA vond
ct uur
it er
Ġzou t
Ġex tensie
Ġzat erdag
Ġcons ent
Act ueel
ĠDaar om
w ordt
ĠPer operatieve
ĠgeÃ¯ nd
Ġcoronair lijden
d ragen
Ġdra gelijk
Ġonder zocht
ĠH oud
Ġkortadem igheid
Ġvol g
Ġwand onregelmatigheden
og h
VE EN
ĠOpge slagen
ĠS U
Ġ( <
Ġbla uwe
compl icaties
Ġmac ro
eer sing
tra ject
be kende
lam p
h am
Ġbere ikbaar
ant o
int rom
Ġopt reden
Ġlichtre actief
ĠBoven staande
ĠF er
u ctie
ĠUit gelegd
Ġb is
ac u
acht iging
um b
sch rift
P T
Ġtij de
ĠS O
oord elen
Ġdo od
W G
Ġl am
ĠWG BO
ha ven
l ang
Ġk ram
Ġob esitas
Ġlangdur ige
ĠM RSA
Ġal tern
Ġge ob
G D
g ramma
Ġneut ropen
ĠAP TT
AMN ESE
ox ine
Ġj icht
vloe istof
Ġbro ers
Ġgebeur d
ĠGe start
Ġpla veisel
Ġur in
Ġhist orie
C IRC
p es
orb iditeit
Ġwor tel
Ġb oezem
ell er
Ġoverleg d
mat ologie
B ER
Ġg rij
ĠP AP
Ġplant air
Ġb ron
Ġver lagen
laat ste
ami zol
Ġpsychi atrie
ĠFunction ele
ĠV accinaties
Ġbact erie
Ġradi alis
E n
ell ingen
k nie
oe men
ĠBurg er
sul ine
ut o
ĠS lank
ĠV indt
Ġ14 2
ĠKinder geneeskunde
B LOED
ĠC hol
Ġbegrij pt
an el
N eur
Ġnut ridrink
Ġborst kanker
6 00
Ġinterv enties
Ġgeind iceerd
akt er
b ep
Ġgedocument eerd
oxys maal
Ġk reatinine
AR B
Ġf osf
ol in
c re
zijd ig
Ġge orderd
Ġex tremiteiten
on itis
Ġspier pijn
C ENTRUM
ĠL I
orad renaline
Ġgem otiveerd
Ġhel aas
l inker
ĠFol low
Ġuitvo eren
Ġb uur
Ġstruct uren
uik ers
ul um
Ġbe adem
ib er
wez ige
ĠOver dracht
HO F
is eren
Ġpijn st
n vt
B B
ĠInt erv
Ġt ijden
Ġr ivaroxaban
ol ie
Ġbeh ulp
Ġaangeb oden
per ig
iÃ« t
Ġzw ak
vorm ige
on chi
l ijnen
st udie
Ġherhal ing
Ġve iligheid
Ġmet een
F ax
ĠSt abiele
Ġpulmon alis
t oe
OL VG
in alis
Ġn r
cht e
c irrose
geb oren
IC OLON
Ġp il
Ġhydro cortison
16 0
Ġhart tonen
Ġmyocard infarct
ĠS AB
ĠR F
c irc
ken en
ĠLD L
Ġb ack
ĠGe z
Ġbe wegingen
Ġoperatie ve
CT IE
oo ik
of osf
Ġder de
atern ale
Ġge el
ro ep
Ġhou d
EM EN
Ġonder kwab
K P
Ġendomet riose
ĠW ilde
Ġg luc
CL OPRA
and ida
ĠBuik pijn
be ctomie
as ker
Ġvoor dat
d agen
am ent
Ġmes enter
: >
Ġk oud
Ġnef ropathie
ĠCardi oloog
Ġbo os
Ġs ep
com pressie
atrie mie
ĠH eu
ap s
ot je
K Z
alen der
CL C
Ġur inaal
edi ast
Ġv ruchtwater
Ġaant oon
c yt
iek te
un en
rox ine
o os
ĠVer w
Ġin gestuurd
Ġkop je
Ġst ond
Ġaan spreek
Ġfix atie
ĠZelf standig
ĠI vm
em mer
Ġwijz igen
om e
ĠCR T
ĠPatiÃ«nten registratie
ĠgeÃ¯nd iceerd
hep atische
Ġas ym
ocardi ogram
verd ikking
Ġer uit
Ġverzeker ings
Ġoxy CODON
Ġinge vuld
Ġover ig
Ġulcer a
Ġonge compliceerde
Later aliteit
Ġhypertensie ve
Ġna v
or roe
C U
ĠF l
IJ D
Ġp orta
Ġsyst emische
Al gemeen
ĠVer loop
Ġa ft
Ġgra ft
EL D
ĠS E
bel oop
ĠPar kinson
verzorg ing
Ġge ste
Ġde ed
ef initief
ic ontrole
ĠW oont
ĠĠĠĠĠĠĠĠĠĠĠĠĠĠĠĠĠĠĠĠĠĠĠĠĠĠĠĠĠĠĠĠ ĠĠĠ
Ġrechter been
l ie
Ġs il
lo dipine
icyl zuur
Ã¯ c
Ver denking
ec k
Ġbil aterale
Ġthuis medicatie
ist ers
ĠME WS
RA N
Bij zonderheden
Ġover wogen
Ġprog n
ĠBeeld vormend
Ġp yl
Ġn aald
ĠAN S
ro hn
Ġtrommel vlies
Ġf oetale
stel sel
produ cten
op sie
cephal us
Ġmid line
ĠPoliklin iek
ip itaal
di cht
ĠF unctie
Ġverst uurd
ĠR ug
ooik oorts
Ġbe halve
IO CA
gro e
wij l
Ġ199 9
ed eerd
yla ct
Ġrec epten
ogh urt
n od
Ġkinder wens
gra dig
slip idemie
Ġmaag sonde
Ġprostaat carcinoom
ĠSpeciele anamnese
Ġs uggest
Ġdepressie ve
Ġw a
Ġwaar in
Ġep ig
Ġruim e
Ġpresent eerde
C ontrole
k al
Ġp ra
ĠK weken
l atio
oec um
Ġ199 8
Ġdys f
Ġnod ulaire
ĠU iteindelijk
odi alyse
s ies
ĠAl ert
asc arcinoom
ag mus
al an
ag rel
sc ap
Ġqu o
Ġscler ose
V H
Ġm igraine
CLOPRA mide
ĠV P
sp ar
Ġsub duraal
y o
Ġne oplasma
st ap
ĠOp nieuw
Ġtoe val
Ġaort ab
rom ycine
ic iteit
Ġs ikkelcel
ron inezuur
ĠM an
Ġbeter e
Ġt m
Ġdan k
ĠLicht e
ĠL ijn
s be
oscop isch
Ġ1 17
Ġlichamelijk e
Ġhallucin aties
ĠOn c
________________ ____
Ġbel afspraak
Ġb up
Ġs erie
ose erd
ĠW ater
schrij ving
Ġb if
Ġopen en
u f
pr im
d rom
Ġherstart en
ri ctie
ĠT we
ĠAc ute
Ġele v
c eratie
Ġradi oloog
Ġdoor gegeven
iss eld
P RO
az ine
as se
pp ort
Ġcereb el
Ġp H
2 17
Ġm it
ĠEP IC
Ġf it
ARD IOLOGIE
ĠMob iliteit
p a
" .
H L
Ġdu im
5669 18
Zorg mail
n ess
FORM INE
Ġv iel
Ġbuis maag
at ten
S CH
sp ect
ĠG af
str ument
Ġb or
regel en
ron g
Ġprob eert
G aat
hoog de
run cus
Ġspeel t
Ġaccept abel
ĠP athologie
agrel or
ui zen
Ġv a
con azol
aden oom
Ġaanwezig heid
Ġzo veel
Ġw ie
ling u
ĠS le
oedien ing
k rampen
Ġmediast inale
uc leaire
zy men
werk ers
ĠW est
ĠBest emd
ac emaker
R M
W e
Ġbact eri
ver wezen
Ġg rie
Ġonder benen
p unt
Ġhep ato
Ġom trent
Ġ14 1
ĠC BD
ĠG ister
Ġlinker been
houd ing
Ġdis per
d hr
Ġc el
Ġgecon stateerd
ĠC OL
D hr
gest art
g i
Ġher be
Ġter echt
Ġgez egd
L U
Ġk alender
ĠVan middag
Ġan deren
Ġps oriasis
sp or
Ġk oel
ĠNT G
Ġtem azepam
z ame
pen sie
ĠHb A
ĠCol oscopie
Ġgereg uleerd
Ġk ar
EL IJK
Voort gangsverslag
Ġcom p
Ġzet pil
Ġcon sequenties
Ġop geb
lijk heid
ĠCardi ovasculaire
oc lop
Ġd ragen
schap pen
Ġherinn eren
Ġver geet
ĠCV D
Ġa cht
r ig
p els
Ġgravid iteit
AM ETS
Ġwe gen
18 0
ĠVert rek
Ġk lasse
Ġvoor wand
Ġtrek kingen
Ġmeto CLOPRAmide
o iden
ER GIE
ĠC L
PE T
Ġhier in
os en
Ġtwijf el
Ġlas er
Ġiliac a
ĠF OL
Ġmeth otrexaat
Ġbest emming
Boven genoemde
Ġretin opathie
ĠBS E
ĠGPE UMC
gen oeg
Ġprec ies
M inu
ĠV umc
z ogen
il laire
Z OL
yp isch
Ġamp utatie
ĠVoor t
ĠN ov
gele ide
ĠBehandeld oelen
Ġcarb asalaatcalcium
Ġthorax drain
Sub jectief
p akket
ob b
Ġverz am
ĠT aal
20 09
ĠAS AMETS
st oma
dec ubitus
othy roxine
ĠM y
ĠO F
it em
ent eerd
ĠDet ails
sp oten
oc us
Ġbelangrijk e
ab ces
Ġvl gs
Ġrel atief
Ġ15 00
ĠD OS
ed ag
ĠAug mentin
luen za
ÂłÂłÂłÂł ÂłÂł
Ġtuss endoor
Ġlumb ale
Ġb ouwen
AND OZ
Ġover lijden
Ġdeel name
sy cho
sc and
Ġdub bele
Ġ17 0
k lasse
b reken
z welling
Ġz ol
el sel
ĠTransf ers
Ġnec rose
arm e
at ting
Ġi buprofen
Ġhypof yse
Ġap icaal
Ġsterk e
ĠT AVI
drempel ig
om ediast
ĠAort aklep
Ġbeginnen de
ĠVor ige
OM IE
D U
Ġmidden oor
Ġvl iezen
ĠALL ERGIE
Ġgister avond
Ġgro ter
z uigen
Ġs ervicenummer
hyper t
Ġl esie
it air
lijk s
z end
ĠPro gressie
Ġl eu
ĠP ulmonaal
Ġdaar van
Ġcav a
Ġdi abetische
ĠMR C
wek baar
Ġfasc ie
m ov
cla vic
Ġgeb leven
Ġcontact persoon
sal icylzuur
ĠSp ort
Ġin ductie
rijk e
ĠS kelet
Ġna dro
Ġper sen
eth ra
Ġbloed ings
Ġm il
Ġ13 4
o int
st offen
bestr ijding
ERS T
sp uiten
Ġd okter
Ġinjectie s
Ġgenet isch
a af
Ġincontin ent
Ġtib ia
Ġhem isfeer
ic agrelor
ĠOm dat
Ġnadro parine
Ġfrequ ente
dnis olon
ĠS erien
i rom
c ost
Ġs otalol
ĠVIA Zorgmail
d ilatatie
ĠB rief
ĠV o
Ġch rom
Ġover weeg
- >
ie erd
Ġplaats gevonden
UL M
ĠZ oon
umc arcinoom
STEL VEEN
Ġc alc
Ġbij houden
ĠAMC SEH
ĠThuis situatie
Ġsub lingu
izel igheid
v as
ach ycardie
k ast
ĠU rin
Ġan a
pro ef
Ġdysart rie
entr iculair
Ġrill ingen
Ġde generatieve
pro x
ĠAN AMNESE
ag er
Ġ10 2
Ġm ut
ĠBij werkingen
ĠSinds dien
Ġcalcif icaties
gevoeg d
de kken
W EG
h kv
Ġals of
Ġ14 5
Ġverk al
specialis eerd
ĠPre medicatie
Ġv accinatie
Ġin gesteld
Ġc ost
ari aat
Ġb ur
Ġ13 2
K LINISCHEOK
Ġgest oord
MOV ICOLON
ic c
ap id
oort je
ĠH ART
Ġb lasten
ĠPT A
ret ariaat
voor geschiedenis
Ġn mol
aak naald
ĠR est
Ġgeh aald
ot rop
Ġfunction eel
spir atorius
Ġl iezen
Ġbrad ycardie
Ġdisper tablet
Ġneuro chirurg
Ġbehandel ingen
Ġoste omyelitis
Ġaan geven
ĠMD N
5669 191
Ġsp ieren
Ig G
Ġ110 6
Ġrustig er
ĠBe zinking
Ġventrik elsysteem
Ġgen etica
ofosf amide
Ġzelf de
Ġmede werker
Ġga as
ĠM A
Ġm usc
Ġthuis situatie
P er
st it
Ġhyper cholesterolemie
ĠV l
Ġvroeg er
Ġfer rofumaraat
sc reening
Ġbot er
iti atief
w ortel
Ġnet jes
sp ier
L e
Ġcre me
ol f
Ġmis kra
erol ateraal
Ġmo oi
ĠUit vo
O OST
Ġris k
Ġeryth emat
cop e
ag g
ĠĠĠĠĠĠĠĠĠĠĠĠĠĠĠĠ ĠĠĠĠĠĠĠ
G oed
at ed
Ġk Pa
Ġprodu c
be stemming
ie us
ĠImm ob
u co
icon azol
Ġverd riet
ĠS onde
de ze
zak king
ĠMed ic
Ġsch oenen
Ġlong ziekten
St ap
G es
w oorden
ĠIn spectie
ple in
ot er
ĠA RT
ee p
SEH Triage
ra y
Ġconcrement en
Ġr ij
Ġmuc osa
m ere
ĠVer pleegkundigen
U ID
Ġdoor genomen
ob structie
Ġuitstr aling
ĠDa gelijks
ĠWaar schijnlijk
ĠNederland s
Ġkeel pijn
AR L
ol ithiasis
ĠSp ont
at ter
Ġl idoca
upervis ie
Ġmer openem
es sie
h aar
Ge zien
Ġ* *
ast huis
hoe sten
ĠI G
em men
Ġle zen
ĠAm c
Ġdu oden
on ium
Ġten zij
d osering
ĠAn emie
V AS
spre id
Ġsn eller
Y CH
splant aat
ur ele
ĠGebruik te
ĠPeri operatieve
Z ELF
istent e
ro om
ĠOntslag medicatie
Ġ+ +
ut ic
ow n
ĠGe specialiseerd
1 30
Ġlag er
Ġz oeken
mun icatie
Ġdrager schap
Ġvari ant
B ron
Ġvol t
Ġopt im
B PR
ĠCC U
f racturen
ĠEl ders
N EMEN
Ġap ex
ĠE MG
S upervisor
ĠUitgebre id
ap en
Ġcereb rale
ĠR isicofactoren
Ġvo eren
geb eld
ol us
r is
Ġl en
Ġir reg
st eek
eer der
Ġoperatie f
Ġh uilen
Ġsus pensie
orr h
ĠM ar
Ġopge haald
Ġport ies
Ġpoli bezoek
ĠL ast
CA G
Ġherstel len
ver t
rax iparine
Ġver na
Ġtest is
ĠD y
Ġlo w
ĠE US
20 00
uid elijke
Ġc ou
PK RE
v or
Eer ste
Ġover genomen
Ġkan aal
Ġt ramadol
ra ak
ĠV EN
ĠR EDEN
ĠP IP
ĠOVER NEMEN
D oor
ĠSerien r
at ing
Ġcort ic
re con
Ġminu ut
Ġaz athioprine
Ġpr ikk
ĠF ractuur
ĠGe slacht
Ġlact aat
Ġprogn ose
Ġdoor lopend
ĠA Z
oeid heid
Ġsc rot
h angen
ĠAl gehele
ĠO ste
ĠD ES
ge volgen
c y
ĠV riend
ĠO ed
ĠTransf er
30 1
ak ie
Ġf ot
ĠRe spiratie
Ġst ab
Ġvert ellen
Ġrechter hand
utic ason
sp ort
le m
gele iding
LO D
Ġpl us
Ġcomple et
ĠLV EF
Ġbe vat
Ġhal ve
ion ale
eel de
ud ic
ĠMed i
ĠZ welling
Ġbij werking
ase erd
Ġc riteria
Ġverlen gd
romb ose
Ġtrek t
cont roles
Ġ ath
Ġkalender leeftijd
v i
O OG
met rie
ĠWel ke
m oÃ¯d
Ġpijn team
Ġstap pen
er te
Ġgeh ouden
ĠLong functie
ple ister
ĠBel ast
Ġtand arts
usc ult
Ġbre ed
Ġseksu ele
ĠAP S
V R
Ġe mail
Ġbinnen kort
AT OLOGIE
d l
u im
IJ N
irom etrie
Ġn or
Ġcardi aal
ĠCompl icatie
x dd
Ġcrep itaties
Ġdef initieve
ĠSat uratie
Ġbe waking
ĠH etero
Ġbere ikt
iliteits gevolgen
g ar
heids onderzoek
Ġst reven
Ġsch ouders
Ġpart u
or ders
Ġv oren
Ġt runcus
vallen de
Ġnyst agmus
ĠN otitie
Ġlief st
Ġbe sl
tot aal
Ġendomet rium
L I
ref lex
ĠImmob iliteitsgevolgen
Ġben ader
it eren
Ġper cutane
Ġf ruit
Ġallerg ische
Ġju iste
LA AN
iver en
ĠRe animatie
g l
Ġgesch atte
Ġbloed gas
ĠMoe ilijk
Ġint rekkingen
Ġint r
im er
Ġr isicofactoren
Ġboven kwab
ĠJ u
ĠRo ok
bi opten
ĠLeuk o
Ġdef ecatie
Ġbed rust
Ġneu rop
Ġd igestivus
AN N
Ġte veel
m orf
ken s
sch ool
Ġvol le
n ucleaire
ĠRv K
D NA
Ġl im
E ST
Ġgeleid elijk
Ġk ruis
Ġvervolg d
onc oloog
Ġreg ulair
Ġdex a
w on
Ġvag inale
p ide
etam ine
## ##
v aten
Ġs ociale
Ġaan spreken
ef erentiebereik
and ib
ĠHy dro
ĠV isite
laat pijn
sch ouder
Ġdem entie
p raktijk
Ġre pol
ĠA G
re pt
pp e
Ġg as
Ġlumb aal
ĠT H
Ġbe iden
Ġafger ond
tra um
Ġd ronk
ĠD irect
Ġmeth yl
oclop ramide
? (
ĠLV H
ren zen
Ġal arm
ij t
beh eersing
an dering
Ġvan co
ste st
Ġst rid
y f
Ġop gevraagd
Ġlev othyroxine
Ġc er
Ġc anule
ĠRec ente
Ġzw ellingen
Ġmob ilisatie
acl ofen
Ġcompl ete
Ġbe staan
Ġhal dol
Ġvr ienden
Ġm ent
Ġhydro cephalus
E X
Ġbe weegt
ĠZ iekte
Ġbeper kingen
Ġrib ben
Ġzw are
Ġkl eding
Ġmeth adon
press iva
ut ie
ĠP OS
c ar
Ġ199 7
IO TH
Ġkw aliteit
Ġsec ond
Âł ĠĠÂłĠ
ĠS u
le cties
in emie
AN S
ĠN V
ĠPT C
inf orm
Ġc oecum
cla via
Ġo v
Ġsu f
Ġa dd
wijz ingen
a ug
Ġhecht ing
Ġtransvers um
Ġaantoon baar
id iverende
Ġep ic
e ase
Ġsec onden
Ġj onge
ist el
ORI A
Ġtijd stip
Ġen orm
chn isch
ĠAnesthesie MW
Ġem fyseem
M EN
al id
ĠA v
L ab
gel uk
Ġdiet iste
ĠV F
Al s
ĠS cho
Ġv entraal
wer ken
ĠAr t
etre ff
o LON
Ġgev aar
Ġcoil ing
Ġhem odialyse
Ġbehoe ve
Ġhemat omen
ĠPers oon
ac a
Ġan al
Ġkal iber
Ġw h
IN D
Ġinf ect
ĠH L
b rug
ob iliseerd
p y
ZU UR
Ġop halen
ĠSedatie door
Ġvrij e
Ġcommun icatie
Ġwek elijks
it alis
Ġt remor
Ġb ood
zicht ig
ĠOntslag bestemming
uit val
Ġaanmeld ing
Ġbe vallen
se s
be id
z ym
Ġhulp middelen
umm ers
ĠHoofd pijn
Ġcip rofloxacine
ĠH echt
et rische
Ġom gezet
di agnostiek
Ġsp ecifieke
Ġonder tekend
Ġfunctie s
ĠTh ans
Ġrechter arm
st ijds
Ġob stru
tr ium
R ond
Ġonc oloog
Ġcoron a
sp ieren
ep i
ĠF levoziekenhuis
Ġgynaec ologie
ar k
ix imab
Ġvervel end
Ġsp alk
or apid
ĠNa dien
Ġpr ik
Ġd raag
Ġinform eren
ĠH als
Ġge infect
Ġgew erkt
Ġon g
ĠP ap
ĠOn bekend
Ġdaar mee
Ar ts
ED I
Ġduodenum sonde
kin esie
Ġhem opt
Ġaanspreek baar
sup pletie
y le
ĠK en
Ġsc reen
ĠVer dere
ĠBeg in
Ġl ac
H uid
Ġlig gend
ER AP
g at
Ġvernev elen
Ġfluclox acilline
Ġda gelijkse
Ġin leiding
on eel
ĠV C
Ġdr s
Ġhem i
af spraken
Ġrepol arisatie
Ġreactie vermogen
ura vocht
ĠC l
Ġop los
leg gen
Ġop wekbaar
Ġcaud aal
ĠOn ver
c etam
v ag
Ġt afel
ER V
ĠDr inken
ĠAdem freq
ed och
ĠI F
ĠC ogn
Ġaan vang
Ġm ann
rop ometrie
un g
Ġd ose
or us
Ġpart iele
ĠK ra
Ġro t
demhal ing
ĠG I
X A
Ġop vallend
ĠM inder
ĠT oekom
os coop
Ġop vragen
zij dige
Ġf la
Over dracht
Ġbevestig d
Ġnef rologie
ĠN IET
OR D
cept ie
Ġchol angitis
k aak
Ġprednis oLON
ĠI S
Ġge plande
Ġopnam en
oes of
p ap
Ġh or
Ġbet rouw
oster on
par aten
Ġ ________
ikk eld
v asculair
al leen
Ġsim vastatine
ĠNef rologie
Ġcontact en
uscult atie
V F
ich e
ĠK nie
ver denking
oped isch
Ġlog opedie
tran sfusie
E x
Ġter wijl
Ġeven eens
ĠU n
Ġinf lammato
Ġk ruk
Ġab latio
S ch
Ġlongembolie Ã«n
Ġmoeilijk e
Ġveroorza akt
Ġaf d
gra dige
Ġr isic
Ġt um
Ġstrid or
Ġtromb us
Ġverk oever
Ġdi pl
Ġform ulier
Ġhyp on
Ġp res
Geb eld
m nd
Ġte en
ĠL ijnen
ĠAb d
oe fen
ĠG el
ĠZ enuw
Ġzw art
op ing
iet en
Ġcardi omediast
Ġvle es
la ge
Ġcl ind
H EM
Ġorgan isatie
Ġk alk
ĠB EHANDEL
Ġw en
ĠB l
at uratie
iklin iek
mat a
ysi ologische
Ġthorac aal
r ant
Ġcl onidine
he ffen
Ġm ot
Ġin zetten
Ġwe ig
566 3
odi um
ĠBI OPT
itr ipt
ĠOb servatie
recon structie
Ġtelef onische
eek sel
Ġsch il
Ġpremat uriteit
IN K
Ġopt imaal
Ġtablet MGA
continu eerd
ĠN R
Ġbehandel aar
Ġgezicht s
res ult
ĠAnt ropometrie
ĠD ep
ag ie
Ġdiver se
ĠS CH
ĠĠĠĠĠĠĠĠĠĠĠĠĠĠĠĠ ĠĠĠĊ
Ġdors ale
ĠM H
ĠH R
E cho
Ġcip ro
aand oen
Ġpancreas kop
over sie
Ġhypothyre oidie
r ond
om otor
ĠJ A
Ġhad den
Ġnec rot
Ġcon genitale
ĠVan avond
par ameters
Ġdiet ist
Ġs upervisie
dien de
ĠImm un
Ġgeb aseerd
lyc emie
u z
al len
Ġaankle urende
Ġ eth
ĠL E
ĠAl mere
be st
im atie
Ġbe z
Ġ10 8
ra ken
ĠRV F
ĠU terus
Ġh oop
Vrij gave
ĠP ULM
Ġsep ar
m eten
Ġmet ronidazol
ix aban
chl oride
Ġmaag klachten
erg ill
Ġgesprek ken
S LAG
b innen
Ġsym metrische
Ou ders
w eer
ĠBloed groep
Ġhuid ig
Ġstuk je
Y ST
ĠVan ochtend
ol oge
ERAP IE
on se
Ġk aart
zelf standig
Ġgroot ste
Ġvent ilatie
Ġant erieure
Ġzit tend
ar get
paraat identificatie
r t
Ġp y
inder de
Ġuit scheiding
Ġt ele
Ġadem frequentie
Ġb v
Ġvoor bij
Ġzw akte
Ġjejun um
end roninezuur
ĠH LA
Ġam lodipine
implant atie
Ġlun ch
ĠSc reening
v iatie
- )
ĠL i
gang s
la uco
ĠToekom stige
Ġplaveisel celcarcinoom
P ost
ent iÃ«le
Ġasp ecifieke
la esies
ken merken
Ġgenet icus
orm icum
Ġnerv us
ĠRook status
Ġi hkv
ELE ID
Ġde hydratie
Ġl eggen
lauco om
ĠAb dominaal
ĠPro b
it aire
Ġpijnst ill
Ġboven arm
ab e
Ġsp uiten
Ġge int
st ra
ĠC OG
alis eerde
Ġmult idisciplin
p e
Ġsub arachn
Ġp agina
Ġ" "
ĠVertrek OK
Ġtromb openie
ster eferentiebereik
ĠRu stig
Ġgeste gen
cl ude
Ġge continueerd
ig er
ĠD ienst
U O
Ġn oradrenaline
Ġom a
p al
ÂłÂłÂłÂł Âł
re cept
Ġhoor baar
Ġer y
CH AM
Ġcholec yst
ĠB et
Ġa udi
Ġc f
Ġd acht
Ġfer ritine
accept eerd
Ġwerk diagnose
ne iging
Ġro ute
arco om
Ġlever cirrose
agg reg
Ġint roductie
Ġsp ugen
z apine
etreff ende
Ġant rum
Ġonderhoud s
Ġver te
Ġt ol
Ġv la
ĠKw am
Ġversch oond
nam edatum
volg bewegingen
p oort
au ze
Ġ10 6
g reep
Ġorth opedie
cor rectie
ĠBloed gas
com plex
Ġ110 2
Ġdig oxine
ĠR D
s ymptomen
Ġtac rolimus
a N
opro st
ĠM ee
N H
au z
standig heden
ĠM orfine
m v
Ġoppervlakk ige
ĠSt er
we kker
Ġur en
Ġleg it
566 44
Ġcyste uze
Ġan te
Ġ10 3
ĠMultip ele
ot rache
ĠDen kt
ĠVol ledige
ĠP PI
ĠD arm
Ġna dere
Ġn ifedipine
Ġduur t
Ġser ologie
Ġg aten
Ġwacht lijst
Ġc an
IC U
Ġcla vicula
ĠA R
ĠS DD
f low
Ġ10 7
be kken
H F
MER E
ĠIV F
Ġdet ubatie
atter ij
Hoofd behandelaar
ĠE igen
Ġzeker heid
Ġsp ullen
Ge w
Ġbuik klachten
Kw al
den ken
Ġdis ease
ĠBehandel plan
Ġafgrens bare
Ġver standig
Ġhyper p
ĠHier mee
ĠAr m
ĠSoep ele
il lan
Ġdirect e
dis sectie
et i
p ine
ab aline
ĠSt emming
min ste
Ġwa zig
ro ef
ĠD ist
Ġb ili
:( !)
re d
Ġp raat
urin ol
Ġlapar otomie
er c
Ġmedicam ent
est inaal
Ġper fusie
Ġsch imm
Ġd oelen
Ġcoron aire
U I
Ġuit lok
ĠAp otheek
od opa
Ġcereb ri
ĠBe per
at a
oc on
ĠA NA
Ġmechan ische
Ġh aal
Ġm orf
ĠEvent ueel
ĠSp ier
ĠV pk
Ġv entriculaire
hypert rofie
om on
o der
re cht
Ġp CO
Ġk lacht
Ġk aas
ĠOver plaatsing
Medicatie Overzicht
Ġ ÂłÂł
Ġchol angi
de eld
Ġbegrens de
st ijd
Ġdop pl
ĠJ ong
Ġact ueel
Ġulcer osa
Ġstruct uur
Ġaan b
ĠOp t
LD efinitief
Ġfol iumzuur
Ġant erieur
oc c
Ġvoedings stoffen
Ġs upervisor
Ġsig aretten
urve illan
ĠInt act
ĠRe um
fl utter
Ġover t
D ag
Ġpro min
n ov
CHAM ELIJK
Ġnood zaak
ang t
Ġlegit imatie
ĠD AG
d ie
ĠEx pectatief
ĠEchtgen ote
PK AL
Ġtrache a
Ġmeen eemt
C ENT
Ġconsul ent
rec idief
oler anties
Ġport ie
Ġy oghurt
U RO
Ġvoor lopig
. (
ĠĠĠĠĠĠĠĠĠĠĠĠĠĠĠĠĠĠĠĠĠĠĠĠĠĠĠĠĠĠĠĠ ĠĠĠĠĠĠĠĠĠĠĠĠĠĠĠĠĠĠĠĠĠĠĠĠĠĠĠĠĠĠĠĠ
hydro x
Ġ9 87
ĠT roponine
ĠQ u
10 5
ĠB V
Ġverb onden
ĠA nam
ĠNe ven
Ġdag behandeling
Ġbegrij pen
Ġbru in
ĠLI CHAMELIJK
j an
Ġp upil
ĠGeb ied
ĠS te
H AL
lop urinol
Ġcon versie
Ġzelf s
Ġorig ine
ĠL ip
os yn
Ġpresent eert
Ġh am
Ġdou che
Ġreum atoloog
du oden
b il
Ġ13 3
Ġvochtcol lectie
Ġon bekende
69 14
ie st
ĠNP O
Ġop gestuurd
ver vanging
Ġaf vallen
yper ing
Ġsu Ã¯c
Ġc arcin
Ġal bumine
Ġsucces vol
Ġvan zelf
ĠE S
Ġge accepteerd
oo id
ĠVer z
Ġ ON
Ġv s
M F
Ã« mie
et t
ĠIn form
Ġm ec
Ġexter ne
Ġst uur
omt rek
Ġver sus
ĠHoofd probleem
ra c
Ġsub clavia
YN ORM
lo ot
a emie
ĠTr iglycer
ĠAmstel veen
iclo spor
ĠK uur
Ġor ders
Ġmoe iz
Ġvoor schrijven
em b
B eeld
ĠPAC U
ĠOpnam edatum
Ġv w
Ġhypert rofie
ĠV CI
ol d
Ġge legd
Ġkant oor
Ġge diagnost
wij kend
Ġpit ting
Ġgel uid
ĠĠĠĠĠĠĠĠĠĠĠĠĠĠĠĠ Ċ
Ġochtend s
Ġaan brengen
Ġaf vloed
itr iet
positie f
Ġzod ra
) |
ĠO pen
p oeder
m ond
h ist
ĠA K
Ġem bol
Ġpsych otische
v ader
Ġt raining
ge vallen
Ġbe slag
ox icatie
Ġtra plopen
mm ing
h oging
ver te
Ġbil ateraal
Ġend ocrinologie
art ritis
as p
derd aad
urveillan ce
Ġv iraal
G R
ĠKle in
ull ie
Ġfe it
ag s
Ġbed rand
sp ijn
pr ik
f ig
Ġallerg isch
s stoornissen
it uatie
O og
Ġir rit
b as
ĠSl iep
form ulier
f us
or ro
Ġul na
gel aten
ier adi
G Z
erd un
ONT SLAG
pro blematiek
ĠIn middels
corrige erd
ĠNeuro chirurgie
Ġw ang
ĠA orta
Ġde p
ĠM itralis
ann acht
Ġh ili
Ġanest hesioloog
Ġintracran iÃ«le
ĠVoeding stoestand
Ġmyel oom
iclospor ine
Ġdiast olische
Ġve get
Ġax illair
Ġgecom bin
Ġman ier
werk t
Ġt ouch
oem t
ion ele
er mie
ĠCom municatie
S CT
ĠM a
Ġna genoeg
opl ite
Ġverl oren
Ġeryth eem
Ġ11 4
Ġcran iaal
ĠPOL INE
ĠĠĠĠ ÂłĠ
Ġonder rug
ĠImplant aten
Ġdifferent iatie
Ġk ool
Ġover weging
Ġepig ast
p akt
Ġtoedienings instructies
Ġlos laatpijn
i gens
Y S
Ġlaag drempelig
Ver pleegkundige
ere se
LA IR
Ġre spiratoir
ĠPO INT
Ġspond yl
z el
ĠScho ol
ĠCardi ale
Ġw ijn
Ġt bv
orad isch
Ġfosf aat
aan s
ĠT est
Ġoed emateus
di rect
ot ax
ple k
Ġkra p
Ġmaat schappelijk
EV A
oel ichting
aggreg atier
ĠAr ter
am a
ont wikkeling
Ġcort icale
ĠGeldigheidsduur maanden
Ġ199 6
Ġtoedien en
Ġdomin ant
An alyse
ĠR es
ĠGe sproken
oedien ings
ĠGed ilat
Ġin zien
OP NAME
Ġvoed ingen
ĠVan morgen
ct asie
Ġrecht op
Ġa g
l ymf
and aard
Ġmediast inaal
ĠI m
m utatie
ĠGE EN
Ġfamilie gesprek
Rv O
ĠK LINISCHEOK
roe ge
K REATININEAMC
ĠF ib
ĠLICHAMELIJK ONDERZOEK
M ede
Ġel ement
Ad vies
B MI
H CA
Ġd armen
Ġwel licht
ĠK week
elev ant
ĠB AL
Ġaf dekken
ĠGro te
d oet
G L
Hyper tensie
cont ra
ĠVoor stel
Ġing u
ĠS IM
ĠB ELEID
Ġ12 8
ri o
ĠR ectaal
Ġver wekker
ICATIE S
ĠT T
K NO
oc aal
bloed ingen
es is
UR G
Ġw onen
ch icine
Ġhervat ten
est ase
Ġzon odig
Ġgraad s
Ġhog ere
ilie u
Ġinsul ten
Ġatr iale
Ġtherapeut isch
Ġp ock
Ġm andib
eer bare
RA C
ĠPERSON B
Ġop vang
Ġna vraag
l iximab
Ġopen ing
tende els
Ġwand elen
ĠE D
ĠBes luit
ab dominaal
Ġt ak
Ver volg
Ġneus bril
Ġm oed
ĠSluit en
Ġb ijk
y rax
onit oren
Ġleuk emie
Ġchrom os
Ġfoc aal
Ġgest oorde
dom inale
ĠN STEMI
Ġchol edoch
ĠA stma
K ER
Ġer voor
n ummers
oog d
ĠZ at
oor n
Ġbuiten land
ab usus
ĠI BD
ĠEp iduraal
Ġgef ix
8 000
ol en
Ġbe wust
ĠPsychi atrisch
ĠRitme bewaking
Ġz acht
on air
Ġref ill
ath ische
ĠM onocyten
AT S
ĠOnder staande
Ġallo gene
Ġ10 1
Ġmob iliteit
su per
ex tensie
Ġzorg team
Ġver haal
b lijven
Ġra pport
Ġsp ann
Ġuitstr al
Ġad juvante
bro ek
Ġsubcut ane
Ġi ct
Ġboven benen
Ġerfelijk heidsonderzoek
ĠS h
ĠKle ur
Ġdruk ken
Ġk rampen
Ġ11 8
ĠAB G
Ġmoe heid
ÂłÂłÂłÂł ÂłÂłÂł
zet te
ĠP antoprazol
Ġg lad
Ġsub totale
Ġop la
Ġh b
he x
Ġep id
ia ir
pen se
Ġsyn drom
Ġmee geven
preventie gedrag
ĠRec ept
Ġont regel
Ġsarco idose
Ġboezem fibrilleren
L M
Ġver staan
Ġor en
Ġa st
za ken
aa i
Ġk et
s slag
Ġrit uximab
y r
AS S
Ġr ing
Ġp mol
iel ijn
ĠAmsterdam UMC
Ġterug ge
W ond
Ġout put
Ġhet geen
Ġcol ostoma
gelijk e
Ġtoe gestuurd
444 2
Ġin itieel
ĠL ig
Ġnef rectomie
10 2
Ġath eros
Ġ ________________
ra s
Ġonder liggend
Ġnacht elijke
p ulmonale
Ġcav um
ĠTer ug
gra de
Ġnot ities
lopen de
ĠB orst
hoe st
Ġ11 6
assistent Chirurgie
Ġh ap
Ġeven wicht
ST ART
a ff
Ġperitone ale
Ġzicht bare
Ġgen orm
Ġjug ularis
T el
ĠĠĠĠĠĠĠĠĠĠĠĠĠĠĠĠĠĠĠĠĠĠĠĠĠĠĠĠĠĠĠĠ ĠĠĠĠĠĠ
assistent Intensive
ak elen
az ep
Ġbul bus
ĠVer wezen
b ronch
ĠS er
ĠCon cl
ĠA kkoord
ad ine
Ġaan houdend
ĠC I
ule erde
Ġgez onde
ie mand
st olerantie
Ġ1 19
ant ia
s zins
c atie
ĠC A
le id
ĠOver name
n iveau
Ġmal le
inf uus
Ġexp ir
ĠO AC
Ġverd ikte
ĠB G
org an
ycl ine
oe f
Ġverh oging
eel den
alid omide
H R
il la
Ġt rain
iss eling
AR S
ĠO es
Ġ10 9
.... ....
inn itus
ĠHeb ben
Ġou dere
Ġhypert rofische
Ġ14 3
Ġw enst
e v
Neur ologie
Ġuit gesteld
Ġuit sluiten
Ġhyper th
ĠF ys
Ġbe s
ĠL WK
A m
Ġgev raagde
Ġom schrijving
P LE
stim ulatie
Ġal len
Ġlever metastasen
is olatie
wij ze
c alc
Ġ12 4
Ġmg l
Ġopname Intensive
Ġgek ozen
Ġd yst
Ġopbouw en
Int ake
G eld
RAF ARM
Ġtrombocyten aggregatier
Ġz omer
Ġimpon eert
nt er
ĠVer b
Ġing repen
Ġhemodynam isch
Ġdiff use
mail d
iv iteit
cardi oloog
Ġgesch reven
Ġ7 50
Ġbla uw
Ġj ullie
Ġweer stand
Ġvoor schrift
op ram
ere us
ot ter
? ).
Ġex tern
kun dig
Ġwr s
com p
Ġbed raagt
f ormatie
og l
om st
at ica
Ġt al
M e
Ġmaag hevel
ĠL AB
Ġre spiratorius
Ġlapar oscopie
ĠG B
int uigen
Ġpr ikkel
ĠK orte
zw akte
lop ige
5664 301
te x
âĢĿ .
Ġleuk o
ro ei
prof ylaxe
ond itie
ill aris
Ġbloed beeld
gele kt
en sie
ĠBe spreken
OD EN
CH LO
iver end
Ġmat glas
iform e
Ġgewricht sklachten
Ġ199 5
Ġpericard itis
ĠV rouw
Ġkinder neur
Ġsp ast
Ġbegele id
ĠW FG
Ġu reum
ĠPE EP
T ijdens
up t
Ġvo ert
r al
am enteus
h t
ex tra
kle uring
achter stand
ig moid
Ġverlen gde
itript yline
Ġma j
at ri
ĠEn kel
Ġhoofd klacht
ER M
i ol
ver zeker
al le
ĠM ilieu
Minu ten
ĠBloed kweek
Ge gevens
Ãĭ N
Ġvoor zichtig
Ġe scap
pol s
hou dt
igh t
gel icht
" :
v entrikel
Ġs essie
ĠT D
ĠPOLIK INDER
pro BNP
ĠVal preventiegedrag
Ġro okt
Ġcrep iteren
Ġna denken
i zen
Ġg n
Ġur ethra
ĠD iep
Ġna zorg
Ġontwikkeling s
Cardi ologie
ĠCont rol
IE F
last isch
Ġabdom inaal
Ġfac ialis
Ġ> >
fl on
Ġ% ),
Ġdruk verband
werp spuit
ger elat
uug d
Ġen cefal
Ġbre in
on or
Ġgem obiliseerd
u ard
oel de
Ġhier onder
id im
st ent
ant el
Ġneutropen ie
ĠOx ynorm
scop ische
Ġgebruik te
Ġw s
ĠSIM vastatine
Ġdipl opie
Ġd reigende
Ġcol lectie
Ġter me
I ON
Ġk uit
Ġin structie
ĠAandacht spunten
CHLO OR
ĠS S
je jun
Ġt ril
anc re
Ġom standigheden
START EN
ax el
iÃ« mie
Ġbra chi
aryn ge
Ġogen d
AL L
Ġlab orders
Ġhet ero
Ġdochter s
hydrox ide
et ine
ĠP acemaker
W D
el ft
Ġhi lair
ĠAl l
Ġhyp ot
ĠInt ubatie
laag de
h or
Ġk ost
sul osine
GT T
Ġin derdaad
in name
os um
Ġom ent
Ġb ic
ged ragen
ĠB uiten
un s
Ġbran der
Ġgenet ische
Ġopge t
Ġde stijds
ĠAl lerg
eti apine
ĠMD S
um en
Ġvert rouwen
IN R
he up
Ġkar akter
Ġsp eeksel
corrige erde
ympt omatische
ĠM CH
n atrium
ĠVer st
Ġdefici entie
Ġverpleeg huis
var ingen
ĠĠĠĠĠĠĠĠĠĠĠĠĠĠĠĠĠĠĠĠĠĠĠĠĠĠĠĠĠĠĠĠ ĠĠĠĠĠĠĠ
ap amil
re actie
we et
566 8000
le ct
Ġan n
Ġmult if
assistent Kindergeneeskunde
m idazolam
sl ang
ĠRe eds
C o
bran den
ĠCV VH
Ġnas aal
Ġals mede
ĠM aat
Ġgal weg
f a
ĠLocatie VUMC
Ġc t
ĠPla centa
ĠBR CA
de kt
Ġmal formatie
id aliteit
Ġchl oor
v pk
ĠVoor raad
ĠHem odynam
ille ctomie
Ġper it
Ġmet FORMINE
Ġpost erieure
m ak
Ġuit gel
ĠF lu
ra den
Ġamiodar on
Ġzak je
ital opram
Ġdw ar
V andaag
ven de
Ġhiel p
Ġm aternale
roc ardi
µ g
m oe
g lucose
Ġuro genitaal
Ġstolsel s
ĠBe ste
Ġb io
ade qu
ĠU l
Ġd uplex
Ġang io
Ġden k
ip ple
col i
r ins
Ġplas ma
Ġp akken
m is
Voeding stekort
et ijd
he ven
Ġgepr ikkeld
Ġreactie ve
Ġbronch us
ZUID OOST
ĠRisico beheersing
ĠAf l
oÃ¯ den
Ġa ch
ĠS up
val t
P oli
Ġtoe voe
Ġcol i
nl Afdeling
Ġc all
Ġre positie
Ġl ijden
Ġ- ----------------------------------------------------------------
Ġbad kamer
m ellitus
ĠM icro
Over ige
OX YNORM
Ġ id
ocrin oloog
yre oidie
om ed
st etrische
Ġge compliceerde
Ġu ter
Ġver geten
lox apen
ĠT S
oper amide
Ġs introm
ĠD iclofenac
ĠVal len
Ġnefro drain
Ġv acu
di x
ist ische
o as
Ġdet ails
ĠT yp
pt ie
pro gramma
ĠRadi ologie
Ġtouch er
OR P
omon as
Ġt rim
Ġm u
Ġges edeerd
Ġop roep
Ġh igh
h ane
ĠO t
ĠF raxiparine
20 07
ĠVraag t
Ġmaat regelen
ov ag
Ġprodu cten
Ġgenorm aliseerd
aan vallen
ĠInt ern
Ġge vuld
ĠHecht ingen
Ġv ele
Ġmeninge oom
Ġwat erdun
Ġsu ic
Ġmet amizol
T x
uw elijk
Ġdruk kend
ĠJu iste
ol ogen
Bloed druk
op rothese
Ġhand haven
Ġstroom gebied
ĠTel emetrie
i ater
ĠH al
k st
ĠGeb eld
Ġgefix eerd
ap paraat
per i
ĠD L
Ġtrombocytenaggregatier emmer
Ġne iging
ĠO GTT
O m
cell ig
x ie
Ġgr ens
Ġboter ham
Ġgew ogen
ĠR BK
Ġpass eren
VU LL
en kel
et ting
ĠAnam nestisch
Ġepisode s
Ġverlos kunde
Ġ12 6
Ġcar ot
m icro
Ġrh onchi
Ġse in
emm ings
ass oc
uchtweg registratie
p aal
ĠĠĠĠĠĠĠĠĠĠĠĠĠĠĠĠ ĠĠĠĠĠĠĠĠĠĠĠ
Ġu ve
ĠH EM
Ġo gende
ĠVag inaal
art erie
or d
Ġover een
Ġh u
atern aal
Ġpers onen
ĠD ormicum
Ġge wijzigd
Ġn er
ĠL ymfocyten
pr ikken
rof ur
diff erentie
f er
Ġost ium
ĠOr der
P C
ĠM CP
ĠAvond s
Ġvoor hoofd
Ġstim uleren
Ġmet ingen
an emie
rel atie
ĠF oetale
orac aal
ar a
Ġverricht ten
Ġsympt omatische
stij gend
ĠT BC
ĠĠÂł ĠĠÂłĠ
b oog
Ġin ject
Ġext re
clavic ulair
leg a
ĠNa zorg
ĠEr ytrocyten
Ġhem angi
Ġn g
ĠAng st
Ġprof ylact
Ġrug klachten
sp lenomegalie
T G
CV A
belast ing
ver richt
ĠGe sprek
is erende
ĠBro er
Ġs uiker
Ġvent olin
am sterdam
ĠBehandeld oel
h i
Ġaf fect
L uchtwegregistratie
ĠB le
ĠSp oed
Ġminder e
Ġonder pool
ĠO ri
ĠDec ubitus
D O
Ġtwe etal
Ġuitge zogen
mat ica
cur ve
r ison
antwoord elijk
ĠMin imale
ĠW T
ef act
Ġd raad
Ġp ed
Ġtelefoon nummers
= >
ol aire
Ġp ot
st reng
Ġ q
Ġdys morf
v ula
ĠAC E
ĠO T
Ġheu pen
ĠAnest hesiologie
ĠIC U
Ġpar en
Ġre p
af stand
EV ER
Ġhaal baar
05 7
Ġbij v
ĠV oet
Ġsv p
Ġp ouch
Ġc is
Ġdermat ologie
ocyt openie
D r
c at
af eg
A b
Ġdi Ã«tist
Ġd mv
omen de
Ġmetab ool
b es
ympt omatisch
ĠHoe sten
10 1
Ġo lig
oefen ingen
id aat
ĠB il
ill ig
Ġpro te
Ġvoor sp
int oleranties
ar ium
Ġwaar des
ad juvante
ĠL UMC
Ġradi atie
m eter
Ġ12 9
Ġin versie
Ġverd ikt
Ġdal ende
Ġer varingen
tro ffen
ĠVoorraad item
pos ities
otrache ale
Ġab sol
p arese
Ġl ees
d o
Ġprotein urie
erv aart
T ER
ert je
S R
Ġgec irc
Ġaanpass ingen
Y D
Ġlijn en
Ġ12 7
Ġli ft
Ġaange troffen
Ġvoel baar
ĠDef ecatie
Ġkn ij
uur s
ES S
Ġchol esterol
ĠE vt
ox etine
ĠEp is
ĠIn wendige
ac us
Ġc ister
ĠVol wassenen
Ã³ Ã³
ĠH oge
ĠVUMC SEH
ul o
t em
afeg uard
Ġin itiatief
ĠSp oor
ged aan
Ġp iek
ĠGe st
Ġged et
ut ieve
ob last
Ġwerk zaam
SALICYL zuur
Ġdran ken
Ġverbeter de
ver wijzing
az idim
Ġafgeb eeld
di st
per foratie
ĠF ors
Ġbol le
at itis
ĠB innen
Ġpalli atief
ĠG EN
Ġpar ac
ĠGen er
Ġuur voor
Ġhydro x
Ġverdriet ig
ĠRe actie
ĠOnge wijzigde
Ġge maild
Ġbetrouw baar
ĠSl ot
st uren
ĠMob iliseert
pen dix
Ġher pes
Ġte pel
Ġ ident
Ġbete kent
Ġafbouw schema
ĠHem ogl
be et
ĠE ven
Ġt no
othe kers
D enk
ast as
Ġtran splantatie
Ġ11 3
ĠAdequ ate
at aal
ĠSp raak
P re
per t
ĠRe ade
ĠOm eprazol
Ġcycl ofosfamide
Ġvas eline
ot ype
wer pen
IOTH ERAPIE
om otoriek
Ġslapen de
Ġin vloed
Ġklachten vrij
Ġle kt
Ã³Ã³ r
Ġvir us
Ġnov orapid
ia e
Ġn l
Ġmaal tijden
ĠG IOCA
Ġbe keken
Ġgest en
Ġaanged aan
Ġmalle olus
Ġhart frequentie
Ġzw eten
ĠBel ang
: "
ĠF U
Ġsla gen
Ġten minste
ĠOed eem
Ġn t
IE S
ĠH NP
Ġexter na
Ġech ografisch
ib ele
Ġverd ikking
ĠAAN VULL
pers oneel
Ġth erap
Ġd ens
ĠControle afspraak
Ġklein er
Ġr ate
Ġru ptuur
ĠDiff erent
oc ale
Ġrad icaal
ĠUrin es
Ġvoor stel
vle es
ĠAp gar
verte b
in zicht
Rec ent
ĠN H
Ġafwezig heid
Ġproblemen patiÃ«nt
ĠM AP
las sen
ĠU r
hyper tens
ĠH ist
ĠCh l
Ġdiver t
Ġb aclofen
O nt
Ġop starten
ĠV K
mat uur
Ġmiskra am
20 06
ar c
ĠA sp
ĠB erg
ĠO ef
Ġpass ag
Ġstap eling
Ġ12 2
tra uma
Ġker nen
Ġbijn ieren
Geld ig
Ġpre g
Ġsp oel
Ġmictie klachten
v accinatie
it heel
Ġalcohol gebruik
Ġocc ipitaal
spra k
ĠSom atisch
Ġknie Ã«n
ĠIn spanning
Ġz es
Ġafgeb eelde
Ġpar an
Ġpsych ose
ĠVer los
Ġsm eren
Ġal endroninezuur
Ġtoege diende
ok okken
ous en
Ġcont usie
Ġgebeur en
ĠOchtend s
Ġhol te
Ġconf ig
Ġplaqu e
Ġtr icuspidalis
R C
od ont
in itis
Ġfib ula
Ġte ach
Ġtransf ers
ĠP P
ĠB L
Ġwissel en
Ġb illen
Ġonder voeding
ĠVer wijzer
ig o
Ġgesch at
ĠLong ziekten
Ġwarm te
Ġgewicht st
A IOS
Ġle vel
ĠF ysiotherapeut
Ġna vragen
orm ack
UT AAN
Ġtre ft
Ġsp ecifiek
Ġl ed
P t
Ġtoe stand
ĠĠĠĠĠĠĠĠĠĠĠĠĠĠĠĠ ĠĠĠĠĠĠĠĠĠ
Ġpol icontrole
f ase
Ġpost erieur
Ġflink e
IA AL
ition ering
Ġlig ament
Ġin komend
Ġlong beeld
os ed
d g
ularis atie
Ġaan komen
es se
ĠVer wijderen
ĠTijd stip
ecif iceerd
rop ium
ĠOVER IG
Ġgecirc uleerd
Ġacetyl SALICYLzuur
s a
ĠÂ µg
On bekend
ank el
Ġonge wijzigde
ĠQ T
y contin
o it
ĠGe hoor
Ġgehoor gang
Ġverricht ing
sp le
ĠWee kend
ac iclovir
Ġpersoon lijke
ĠAANVULL END
Ġw c
ru ptuur
o a
Di abetes
Ġ12 3
Ġr atio
ĠHoud ing
Ġs co
Ġmob iliseert
Ġlinker nier
ad rant
he ff
Ġuitgel okt
Ġvoor lichting
C at
Ġgesp uugd
ĠDef aecatie
ic itis
ĠEiwit behoefte
Ġmiddag uur
ax t
Ġe osin
ĠHUISART S
Ġf ragment
Ġs he
Ġpsychi atrische
44435 35
ĠMen eer
ĠM erkt
Ġge volgen
Ġnef roloog
oorde eld
ĠGro ei
Ġlong carcinoom
ĠC ormack
ilt r
Ġth al
uff ed
ic r
sp reekuur
ant us
Ġbij dragen
ocyt aire
hoofd pijn
Ġgesp ecificeerd
existent e
44435 98
Z B
Ġmonitor ing
Ġherbe oordelen
Ġbeadem ings
vul de
Ġtachyp neu
Ġa gv
vel ingen
ĠM is
Ġcortic oster
ijd t
R ET
Ġleuk ocyten
Ġmuc ositis
Ġepigast rio
ĠZ MC
ĠA trium
ix atie
E B
n et
20 05
EP AM
ĠContinu eren
Ġgesten oseerd
ĠS al
Ġde vice
i Ã«n
Ġin s
Ġpreg abaline
ĠJ uni
/ -
Ġverlos kundige
s or
Ġtijd je
Ġbood schappen
ĠV annacht
Ġbloed erig
ren gt
rie ven
Ġoste osynthese
it amine
Zorg verlener
zien ing
ĠB ody
Ġcommun is
Ġges neu
H UIS
et ira
ĠH a
ĠD V
Ġlinkerv entrikel
it iden
Ã¶ per
Ġpassage klachten
ĠP l
ĠDu odenum
Ġdarm kanker
le hane
ver lossing
ĠR SI
eratie s
Ġn atuur
oÃ¯ de
gewricht en
ysp neu
Ġurine kweek
Ġk wij
ad viezen
ĠVr ijdag
raa ien
Ġc lo
ĠI J
ocr iene
ĠTra um
ĠJ uli
f r
H z
Ġgev oerd
ĠP L
Ġver spreid
Ġaortab oog
Ġs ul
Ġfa ec
Ġdy nam
ĠK n
Ġk euze
we gens
besch rijving
otrop ie
Ġfles je
ĠSc ore
D BC
iz ont
ĠOnt wikkeling
kopp eling
Ġlux atie
Ġtri al
Ġverm ijden
veel heid
Ġpath ologisch
d ikte
Ġf oet
Ġfund us
Ġf L
ĠMidd ags
P P
ĠR PR
Ġkort lopend
V eel
Ġb al
Ġrib fracturen
re ed
ĠOperatie personeel
30 44
Ġher kent
cardi ologie
L WK
ĠV O
AR INE
Ġb ank
ĠVis us
IJD ENS
ĠF ac
Ġlev odopa
ri or
etira cetam
am ed
slijm vlies
Ġl ax
ĠKinder en
T S
RE CHT
Ġb r
Ġpas sief
Ġpart iÃ«le
ĠAl hier
Ġcirc um
Ġcol chicine
ent ieradi
Ġbe we
Ġvervolg afspraak
Ġom vang
Ġt illen
Ġzorg verleners
Y HA
z ide
10 3
Ġclind amycine
Ġdis locatie
ar ig
V PK
Ob jectief
Ġvoor uit
vat s
Ġdocument eer
m y
c yst
leb itis
Ġint ram
Ġcontra cties
ĠRadi otherapie
Ġe ct
ĠĠ ÂłÂłÂłÂłÂłÂłÂłÂłÂłÂłÂł
Ġpol iaf
Ġop dracht
Ġret ard
klin iek
Ġfles jes
ĠZ us
L AND
Ġenig szins
Ġcran i
ĠUit slagen
g ere
ĠDi agnostiek
rek te
Ġavond eten
Ġsl ot
Ġkw amen
ger oepen
Ġaange legd
houden s
ĠINT OX
Ġver vanging
Ġzwangerschap sduur
form ance
ĠAan gegeven
a ur
ĠOog arts
Ġdivertic ulitis
ĠVer zoek
gew eest
Ġgewricht s
Ġaan v
pt aal
rij ft
Ġaut ologe
Ġwor d
aort aal
ant h
Ġabdom inalis
on ide
Ġh angen
ema il
Ġpre d
duoden oscopie
S UL
ĠB B
OOR N
ĠVerm oeidheid
12 8
m elk
ĠHeu p
F RAX
ion eel
Ġ ONTSLAG
Ġsat uraties
Ġgro tendeels
ĠVoor bereiding
c ave
ĠHel dere
ĠV ir
pl or
Ã¯ dose
ĠMede werkers
V ER
v HD
aardig heden
Ġv entr
ĠDifferent iaal
ver laagd
Ġinge sproken
ten se
Z EN
ĠC omp
Ġf eces
ĠH E
Ġopgel oste
Ġgesneu veld
enter itis
amsterdam umc
ater i
Ġherken baar
g ering
Ġ16 8
b ru
Ġer na
ĠZ on
ĠVer pleegkundig
ot emp
ĠHD L
ĠVol gt
ab le
hex idine
ĠG al
Ġcr isis
ĠGe h
H S
lu ier
ĠVer hoogde
Ġzuur branden
Ġk ussen
ĠALLERGIE ÃĭN
sn ede
Ġplaqu es
Ġsin ust
Ġbe weeg
ĠT UR
K lin
Ġhypoden s
s yst
ocardi ografie
Ġknie en
Ġmedi ane
ĠInt estinaal
m id
ĠSch erp
ĠZorg verlener
566 34
Ġg on
em aten
Ġer op
Ġverwijs brief
ĠS B
3044 500
pl ic
huis arts
iere chts
ĠN et
) /
ĠSt olling
ker ing
Ġl aryng
UR INE
reg io
Ġgegener eerd
Ġac idose
bra ak
zorg d
of ran
Ġbest raal
W A
aandoen ing
Ġple isters
ĠHulp middelen
t rekken
kn apt
Ġpen icilline
Ġs ereus
ma and
Ġgeint ubeerd
Ġal vast
Ġhev ig
Ġvraag stelling
R CA
je ctiv
Ġuit zuigen
K alium
Ġwaar mee
ol imus
Ġing ang
rom ol
ĠF A
ĠB ot
ei wit
Ġl eren
ĠRec idiverende
over stijgend
Ġop vallende
tic aria
ij s
ĠOnge compliceerd
v d
ĠO CT
ĠZ onder
ĠB ru
ĠH om
ĠINTOX ICATIES
Ġmedicament euze
ĠHart frequentie
Ġlitteken s
ĠP anel
h orm
Ġpyel um
Ġhal lux
Ġhyp ox
Ġtuss ent
Ġdiff usie
AST RO
Ġpijnstill ers
Ġop zet
Ġdoor verwezen
Ġlip pen
Ġdi Ã«t
b lanco
Ġplas mac
Ġversle cht
ĠV SD
ĠCH IR
c en
Ġtach y
Ġcerv icaal
Ġof f
ĠG UO
Ġ100 7
ĠG aarne
Ġfamil iaire
ĠRv C
Ġverh inderd
Ġap pendectomie
ĠD ys
Aan vullend
T I
Ġrect umcarcinoom
Ġbet rekking
kom stig
Ġmed ium
Ġpen is
Ġsc ap
Ġarteri Ã«le
u ist
ynt o
ran k
opt ies
Ġste kende
ycl us
Ġasp art
Ġin tensie
ĠP ORT
ĠD O
Ġn eer
Ġ110 4
Ġcholangi ocarcinoom
Ġstent plaatsing
Ġvar ices
IC A
Ġcell ulitis
Ã« ro
N M
Ġverbeter end
A demhaling
p ra
min istratie
ĠK reat
ĠB ili
Ġqu ad
ĠP en
Ġoog volgbewegingen
Ġh angt
v ant
IP ARINE
Ġaanb ieden
Ġb etreffende
Ġp lo
k oorts
ĠOb stetrische
ax is
astas ering
Ġpassen de
K D
Ġvul len
ĠGener ieke
Ġijzer gebrek
kle ur
Ġjaar lijks
Ġwaar onder
Ġ% )
b pm
pl ijden
ĠIn suline
Ġsub t
ĠF L
Z uid
Ġh osp
id ale
Ġh oek
ĠT op
etan ide
ĠĠĠĠĠĠĠĠĠĠĠĠĠĠĠ Ċ
he c
ĠIg A
Ġpap ieren
Ġsem i
Ġafge koppeld
P rog
ĠSt ent
Ġlu kte
11 5
k linische
Ġwond je
Ġp e
Ġhaar den
Ġparen chym
g astro
ĠDy slipidemie
stand ige
C om
in v
kl eden
Ġbeg ren
Ġaf h
Ġrechter nier
ynaec ologie
Ġb rug
-- -
sch il
at oom
C IS
ĠGev oel
ĠPijn klachten
cut aan
Ġcap ut
ver schijnselen
Ġop p
Ġoss aal
Ġdal end
Ġpro ject
ip pen
Ġbl ock
De ze
ĠĠ ÂłĠĠ
Ġj on
ĠA udi
th eel
Ġdub ieus
Ġma akte
n eem
C WK
Ġisch emische
Ġwon ing
ur catie
ÂłĠ ÂłĠĠ
Ġtachyp noe
Ġinspanning stolerantie
differentie erd
N eg
Ġgene zing
h yl
Ġsp oradisch
17 0
ĠOchtends Rond
b ot
ĠB ijn
ĠValpreventiegedrag Resultaat
rox in
Ġgra p
Ġ13 1
ond anks
Ġverm oe
la esie
A cties
AN G
Ġsepar aat
ĠMoeilijk e
I k
Ġpancre ascarcinoom
os er
ĠAF S
inder en
e a
z u
oss a
b anden
Ġritme stoornissen
HE EL
end ig
Ġreg ulier
g us
Ġple x
sn el
Ġaneur ys
Ġverst erkte
i os
Ġ199 4
ĠB os
ĠM V
Ġcycl i
heids klachten
Ġm onitoren
heel kundige
Ġthromb us
art iculaire
ĠT HP
Be handeling
azol ine
ĠH ET
Ġam bu
Ġh ond
ĠI BS
C ON
Ġl eefregels
T er
Ġd ien
ĠZo wel
ULE ERD
re p
Ġst omp
ANN ULEERD
st aart
Ġwas sen
Ġdaar op
Ġf ra
ĠTwe ede
is inopril
Ġbe w
Ġslag pijn
ot ine
Ġmet oclopramide
Ġlinker zijde
Ġdoor groei
Ġschimm el
hypertens iva
ov id
Ġonder ging
2017 10
ic la
ob acter
Ġsyn cope
Ġsucces volle
Ġvoor grond
Ġz oek
ĠRed elijke
k i
ARB ON
o ft
Ġbenader ing
Ġc andida
Ġon geluk
J M
Ġscrot um
I CHT
Ġop heffen
aan wijzing
vo eten
la as
i end
oÃ¯d ale
Ġaan vrager
Ġg lu
Al geheel
Ġhy ster
over leg
Ġhemopt oe
ĠT RA
Ġsla perig
Ġflu conazol
Ġstolling s
v asculaire
Ġlaboratorium onderzoek
Ġna uwe
Ġal lopurinol
ĠRe gel
Ġz achte
F ER
Ġrechter zijde
H art
Ġab normale
ĠVol doende
ĠC entrale
ane us
Ġp ron
ex ie
Ġtach ycard
Ġstuk jes
as ale
Ġk il
in tra
Ġc iclosporine
ĠInterv entie
eros ol
ĠC rohn
Ġs ediment
he ugen
clude erd
Ġwel k
Ġverst rekken
ĠAvonds Indien
me i
Ġmee ste
hes us
Ġelev atie
ĠS ED
Ġhart slag
pro gressie
Ġpatient en
or o
Ġreum atologie
ver ificatie
Ġgel uiden
Ġeff ectief
ĠL R
ĠVerz onden
ĠC ap
Ch emie
Ġin suff
ĠM g
v elijk
Ġpas sieve
ĠGespecialiseerd Verpleegkundige
ĠHier door
Ġtemp o
Ġhem olyse
ken is
d yspnoe
ĠNier functie
Ġonder wand
Ġmond hoek
Ġbuur t
Ġplots eling
ĠUrines ediment
ju vant
Ġde generatie
Ġpersoon lijk
ĠAL MERE
ann ab
ĠpatiÃ«nten fol
ot eerd
la par
ven en
in jectie
ĠE V
IP T
Ġgn ost
Ġcister nen
roe ven
a ut
Pol sslag
R ustige
ĠN acht
Ġhepato splenomegalie
entrik elfunctie
udic atio
samen vatting
ĠL oop
Ġafgrens baar
Ġreum ato
ot ide
Ġrechter onderkwab
if eratie
Ġbloed verd
Ġt innitus
ĠM L
Ġpock et
if low
Ġembol isatie
mal ige
Ġpyel onefritis
Ġing roei
Ġont breken
k ind
Ġdun n
yc ycline
ĠBi opten
ĠHier onder
Ġst a
Ġne onaat
Ġkap pa
ĠGe sch
Ġkracht ig
Ġhuid uitslag
ĠGeld ig
i ct
ist axis
ateri alen
RI L
def ici
AM O
or ect
ob ra
cus sie
ul atorius
Ġret ina
ĠAF C
Ġzin vol
ĠĠ ÂłÂłĠ
Ġbe etjes
bul king
om ische
ind ing
Ġgele verd
om een
met ingen
ĠP sycho
Ġd raagt
Ġt oxiciteit
Ġontwikk eld
Ġproces sus
ent en
ĠDe x
Ġpijn score
Ġw ankel
sh elft
Ġcost a
Ġhypoden se
ĠL age
Ġwond infectie
E EN
ĠM isselijk
ĠTra uma
ep pra
rose psis
Ġl at
ĠIn houd
S O
LA ST
ĠAf hankelijk
ĠAS D
Ġasp ergill
ĠL aag
ĠMT R
ĠG ASTRO
Ġcardi oversie
ĠL eeftijd
und aire
for ie
Ġinf usie
ist offen
ne ff
iz ine
Ġul n
ic alis
Ġboven pool
an a
Ġhoortoe stellen
Ġer van
Ġprobleem loos
Ġeind standig
ĠA cc
Ġrechter bovenkwab
an amnestisch
ĠVoor af
ĠP ak
H oe
Ġeiwit behoefte
Ġrevalidatie arts
Ġop lopend
s ge
Ġa h
ĠT IJDENS
Ġple urale
P ar
2 10
Ġmassa werking
Ġh ooikoorts
Ġmax illaris
f istel
ĠNS K
Ġgezond heid
Ġkle plijden
Ġis os
ert iliteit
iaz epam
ed arm
Ġleu c
Ġlegitimatie bewijs
Ġangi ografie
Ġap pend
Ġeven als
D IE
ARBON AAT
ĠPOLINE UROLOGIE
Ġretro peritone
ĠGew richt
HEEL KUNDE
ĠLymf eklier
Ġk in
ĠRef bereik
ĠOb stipatie
f in
ĠF entanyl
cipl ines
Z o
ver wij
Ġde ur
Ġ17 5
ĠS A
Ġcyst oscopie
per an
Ġdoor dat
reg ulatie
est er
ĠD ub
Ġzorg plan
Ġverkl aren
Ġbesl iss
Ġachter ste
Ġ7 24
PatiÃ«nt e
ĠD d
ĠV oelde
jejun ostomie
Op merking
ĠS CT
Ġfax nr
Ġuit sluiting
ERS LAG
AD L
Ġi dem
Ġopla ad
ven e
ul d
Ġled ematen
Ġcon st
Int erieur
ĠE B
ĠFol iumzuur
ĠMET S
HAL ATIE
elen a
Di agnostiek
Ġgro ve
Ges lacht
Ġroute beschrijving
Ġbez waar
Ġverwij de
ip el
566 6
Ġap ixaban
Ġal geheel
e vt
ĠD is
IM ENT
Ġb ier
ĠI M
ip le
jectief ractie
ĠH O
ĠPer ineum
Ġget rouwd
Ġict erus
Ġverw achting
ĠL H
Ġkinder geneeskunde
Ġverwij d
ĠS N
ver wege
Ġsol ide
Ġf am
ĠM F
ĠT NP
Ġtons illen
ĠPol sfrequentie
cter isch
ul atuur
Ġrond je
Ġst eek
epi lept
ĠM ilt
ĠS ediment
ĠUrine kweek
in en
Ġst u
U rologie
ĠG et
Ġatheros clerose
Ġhem icol
Ġsn ur
hyper tensie
Ġem ot
I neff
apar oscopische
ui gel
Ġge Ã«
ed uur
oud heid
ĠPro blemen
Ġgeleid ings
Ġgast ritis
ip ro
ie erde
et ab
Ġbloed transfusie
Or th
AV E
Ġontwikk elde
13 6
AL E
ĠU S
Ġap pendix
Ġgra dient
vol umab
y g
ff ect
ĠGeb oorte
ĠPS YCH
icht e
d al
ĠEn gels
ĠP al
contin entie
ro te
Ġg ran
Ġverz orgen
Ġin zakking
Ġorbit a
ĠN IF
Ġuit gaande
R F
waar ts
op s
Ġontslag datum
b ic
Ġg lazen
Ġade men
Ġd uren
Ġ14 6
Ġinsch akelen
ĠOnd uidelijk
Ġco Ã¶per
ĠP F
ovir us
ern ia
Ġreag erend
Ġgev oeld
Ġspann end
Ġa men
St elsel
Ġnu c
get je
Ġg li
ĠDep ressie
v asc
ros is
Ġbesch ouwd
e iden
i atrie
Ġcom pens
vo eren
Ġc ath
ĠOnc ologie
ruk t
Ġmic romol
ĠNE C
du ct
intest inale
ĠNS CLC
Ġnaad lekkage
Ġwij zig
ĠAp othekers
Ġdifferent iaal
Ġl operamide
55 5
drain age
la den
Recent ste
um etanide
re ductie
ot atie
Ġinsp annings
Ġweg werpspuit
Ġge lux
rij s
mc a
Ġgedet ubeerd
ĠD ro
ag on
Ġzenuw stelsel
ic email
ĠH AP
la g
d urende
ancre as
ĠV roeg
Ġconfig uratie
E CT
ĠS PE
Ġge achte
ĠĠĠĠĠĠĠĠĠĠĠĠĠĠĠĠ ĠĠĠĠĠĠĠĠĠĠ
ar um
ot ities
oped ische
FRAX IPARINE
Ġga af
Ġont last
Ġhem ofilie
geb onden
ag o
Ġverk rij
ĠĠĠĠĠĠĠĠĠĠĠĠĠĠĠĠ ĠĠĠĠĠĠĠĠ
ĠT ablet
om m
Ġafw achting
Ġne ven
Ġmandib ula
ĠE m
i al
Ġo lie
ĠP J
Ġerythemat euze
ĠBe weegt
ep hal
Ġgehe cht
ĠR OP
Ġtr ig
ĠMilieu Interieur
Ġloop patroon
van wege
par atuur
ĠM J
ĠNog maals
ĠH ol
ĠIntern ist
ĠRC x
Ġfor lax
ĠPORT IE
z us
junctiv a
Ġslok jes
Ġplek je
B URG
Ineff ectief
Ġern st
ran s
B U
order line
Ġbehandel aanwijzing
Ġkruk ken
er ose
vul sie
Ġtab ak
ost rid
ec itabine
sbe vinding
opl atin
Ġmgtablet MSR
amp utatie
G raad
li quor
p at
icla zide
oped ist
s inus
Ġ il
Ġchol estase
Ġachter grond
Ġt roponine
Ġdecompens atie
ar g
ac ort
ĠN W
Ġperit onitis
al april
ĠVer hoogd
Ġgeori enteerd
m inder
Ġdiep te
il itair
sla vende
Ġsp el
rior iteit
at s
ĠAdemhaling spatroon
ĠPlan ning
os c
Ġst atine
Ġgrie p
Ġoplos sen
unn ers
gene zing
erg y
Ã¨ re
ĠgeÃ¯n fect
Ġbloed onderzoek
ĠEr y
derd ys
Ġerv aring
Ġch ec
Ġw ist
ĠGG Z
Ġin gevoerd
ĠRo okt
Ġe ic
Ġheft ige
Ġvoedingsstoffen Resultaat
Ġop i
Ġze i
Ġhel ft
ĠGebruik elijk
Ġu zelf
Ġster iel
H I
T ype
Ġingel icht
29 9
im umab
Ġin stelling
Ġaf meting
de pressie
Ġbesch rijving
ĠSED IMENT
kl aring
W ee
Ġven e
P CR
Ġmee genomen
arb onaat
iv el
Ġal dus
bel len
Ch ronische
oerd raad
Ġtaal b
uwelijk se
gen italis
ĠOnd anks
Ġpijn poli
ĠA uto
Ġsyndrom e
oord inatie
Ġvererg ering
Ġmidden kwab
yla se
Ġconsul ten
Ġpar oxysmaal
13 5
icus pide
Ġelekt rolyten
Ġnier lo
ĠĠĠĠĠĠĠĠĠĠĠĠĠĠĠĠ ĠĊ
ĠG V
ostrid ium
Ġa erosol
ĠP unt
mak oep
Ġcis platin
Ġtoekom stige
Ġ16 5
Ġal waar
sp oor
C c
ĠGe compliceerd
On ge
Ġtam pon
ĠDag centrum
yt openie
Ġa gressie
Ġ19 90
ra uma
Ġvoorbereid ingen
Ġu pt
Ġt im
Ġhand elingen
ĠPlan bureau
Ġaandoen ingen
Ã¯ de
ĠBorst voeding
Ġlact ulose
Ġcoeli akie
ĠC HE
ĠS ept
gro te
ONT IN
ĠK un
at osis
Ġzw emmen
Ġverst uren
Ġkwij t
elf ractuur
cm H
Ġduoden i
B EP
ĠR hin
rouwen ziekten
M AN
Ġm eld
vl gs
ĠOr ale
ĠB oer
Ġbest aand
ĠS K
Ġbeh aald
Ġd g
Ġkra ppe
ĠU IT
Ġ120 0
ĠL CA
voor ziening
ĠGe adviseerd
Ġge differentieerd
Ġ+/ +,
sp ees
ĠS M
Ġkantoor uren
ĠOnver anderd
Ġinflammato ire
w endig
hemat oom
Ġaorta wortel
ĠMijndossier activatiecode
Ġinv asieve
ur gen
Ġgebeur t
gel eden
Ġst om
ac ie
ter end
OS E
licht ings
Ġk at
Ġdik ker
Ġax iale
Ġachter gelaten
Ġabces sen
I EN
Ġpromin ente
Ġtra cer
Ġtoevoe gen
Ġinhalatie poeder
Ġverna uwing
Ġmin ste
F r
y ct
Ġt ante
ĠSoep el
ĠLip ase
ent or
R et
Ġm antel
re sie
ĠDrugsgebruik Nee
Ġregel s
Ġafge d
ĠU mca
Ġver zocht
Ġveiligheid s
ĠV aat
D er
ĠTijd Zorgverlener
Ġurine wegen
Ġoog contact
Ġbete kenis
ectie velijk
prote ine
u raal
Ġhart ritme
ĠTyp es
sche id
S l
Ġcerebel lair
e ed
ĠH uwelijkse
Ã«ro sol
n iotomie
Ġv roege
Ġintra cereb
G B
ĠSt aan
Ġhem ostase
Ġvolt ooid
st reek
Ġgediagnost iceerd
Ġkle ink
Ġhyp op
Ġt icagrelor
95 00
Ġ110 3
ĠK AT
B I
oc l
444 07
ĠBe h
oc ele
A nt
Ġuur s
ĠT NO
Ġstr uma
ĠE CT
ui gende
ĠB ar
en e
Ġinf liximab
ĠAan vankelijk
Ġhepat ica
ic ip
sch erp
ĠDiff uus
v ocatie
ĠV A
Ġsept ische
Ġc lassificatie
ĠHuid ig
ĠIV IG
Ġse qu
Ġhi laire
Ġbloeds uiker
en a
ĠAlk maar
b uis
ĠS m
Ġinge scand
Ġhypothyre oÃ¯die
v ix
Ġgezichts veld
val ider
Ġop geroepen
H C
el low
as me
Ġna cl
osed ienst
Ġk ru
la sp
Ġaanpass ing
gev at
ĠN CH
ĠSp irometrie
19 0
ĠWij ze
Ġrad icale
G raag
z eer
Ġverm eld
Ġgecon cent
Ġt unn
hel ft
Ġreden en
10 4
Ġv lagen
ĠPle uravocht
ch ure
Ġt ractus
azep ine
Ġana esthesie
T EN
Ġul ceratie
Ġaan houden
Ġh oopt
Ġves iculair
Ġlever functie
Ġzu ig
ell ig
haar den
ste in
Ġfys ieke
Ġ4 80
Ġcoronair en
m uc
Ġp unct
Ġover le
Ġuve itis
kap beademing
Ġbep aling
Ġrechts handig
ef zol
Ġspra k
ĠB T
ĠI P
ĠIn greep
ge zicht
ste kingen
Rv C
ON V
pr ikkel
Ġaf loop
Ġvoet bal
Ġvag in
Ġgef axt
os ale
Ġb oog
Ġbijge spoten
Ġhist ologie
Ġe mai
ra b
icon ceptie
Ġtran splantaat
ĠVerm inderde
ron den
Ġlag ere
am icine
je ctieve
Ġcyt ologie
anto ine
ik els
Ġemai lasp
AS P
Ġoor zaken
Ġteken ing
Ġhemat oloog
os up
________________________ ____
raa id
ĠMP U
st ok
ĠInform ed
DU ODEN
Ġant woorden
ĠMee ste
Ġqu etiapine
Ġim mob
Ġk opp
Ġcor rig
Ġhoortoe stel
Ġ( /
ĠSp utum
Ġlo ad
annab is
Ġon belast
ĠAM S
ato ire
Ġ= >
ar abine
ĠW arme
Ġslik klachten
Ġtub erc
ĠPh ys
ĠSn el
Ġer yt
Ġre is
Ġ12 1
ĠP RO
Ġver apamil
Ġhyp esthesie
sc re
M oeder
ĠCor nea
ĠHem ol
lux atie
leven dig
os arcoom
cr ise
pr et
b eelden
Ġverzorg de
Ġoppervlakk ig
IE K
ijn t
Ġinter val
ĠD BC
Ġlidoca ine
Ġi a
Ġwand verdikking
h ad
In dicatie
ic otine
se in
hou et
Ġkort geleden
Ġkram p
im a
Ġveran deren
Ġdyspnoe isch
Ġg laucoom
Ġkw ets
L ong
Ġoog heelkunde
ĠO ost
Ġend o
ĠE o
ĠBij l
ĠL uchtweg
Ġsten osen
eter ing
ĠVoor al
ĠTijdZorgverlener Afdeling
Ġlinker onderkwab
Ġmy oom
Ġin vullen
ĠHemodynam iek
l issen
Ġmy omat
âĢĻ .
Ġuro theel
yp t
R ust
Ġhem ip
ĠBeoordeling kapbeademing
Ġdoor snede
ĠO f
ĠV MS
w n
g aarne
ĠZwangerschap sduur
C OLON
b dz
ag itt
ĠPle ister
ĠAan vragen
Ġz one
Ġgecombin eerd
b oom
f ront
vol ume
ococ cen
l ate
Ġcom orbiditeit
Ġgift en
Ġcarot iden
Ġess entiÃ«le
Ġbl ds
Ġb rengt
ĠS ANDOZ
ĠS ign
ĠV OD
Ġepilept ische
ov asculair
oplite a
Ġin test
aan val
ĠAan gezien
ĠV e
ĠVerw achte
ĠH CC
ĠL u
ĠT oelichting
pl icatie
ĠDaar voor
lin es
Ġspier kracht
Ġverricht ingen
Ġcholecyst itis
Ġaan w
ĠAd viezen
Ġtam sulosine
R ol
T TE
Ġmut aties
ĠT och
Ġop lossing
D H
I ER
Ġricht lijn
yct urie
C ALCI
ĠGen etica
Ġm elena
rie le
or rag
al b
Ġtro eb
Ġresp ectievelijk
Ġab ductie
Ġbronch itis
ĠM ei
Ġp ur
waar d
iv ing
her stel
Ġpar s
Ġk onden
s gegevens
Ġgesch ikt
rot ische
ĠMT P
ĠNe on
ĠHer start
a h
u gel
ist r
he chten
Ġaut or
och rom
C OPD
ĠChirurg isch
ig ie
m ige
Ġtra ch
Ġra ad
Ġst ud
ĠW eek
Ġga ven
ĠB EP
uin alis
ĠW eer
Ġjeu gd
ervic e
2017 14
Ġhor izont
20 04
t ussen
derdys forie
Ġrapport age
Oog heelkunde
s beeld
et ir
Ġval risico
Ġham str
Ġhypon atriemie
le ason
ĠVervolg afspraak
ĠK omst
v ed
Ġond uidelijke
Ġmoeiz ame
st ern
R V
ĠL os
be v
sm eerd
Ġmond eling
ĠBloed s
Ġv re
omet ason
ĠE C
ĠRel atie
positie ve
reden en
ĠBe kken
scop isch
c olon
ij er
ĠAl ler
ĠPERSON P
m i
u res
isch emie
ien ce
ĠKinder arts
intens iteit
Ġtijd elijke
pass age
ĠSEH Triage
K K
ĠG R
ou cht
ig aretten
ysi ologisch
Ġben oemd
stru ctuur
Ġenter ale
m eest
ER ATIE
TH Y
ĠD eel
inf iltratie
Ġde k
Ġdi pi
Ġsublingu ale
ĠFunction eel
it axel
Ġalarm symptomen
M orgen
Ġradi ologisch
ĠIN HALATIE
Ġge tekend
t romb
e ste
Ġsec retariaat
ĠR h
ĠSym metrisch
Ġn icht
ĠâĢ Ķ
Ġsom atische
ĠE X
Ġ110 7
ĠOm loop
Ġch ron
Ġsil houet
eft riaxon
ĠH OV
M ult
Ġb ar
p ad
Ġvoor gelicht
Ġlongembolie en
ĠN am
spro blematiek
scre end
J E
t elef
rofur antoine
Ġp O
van af
roc yt
se f
o ie
Ġab d
Ġsig moÃ¯d
ĠAc uut
et iek
Ġvol wassen
se psis
Ġsubcut is
We inig
Ġk rit
ocr iet
11 7
hal f
scan de
ders can
PL ANT
Ġsch iz
S B
Ġbestraal d
op te
Ġplast ische
ĠPro ductie
Ġbijdragen d
Ġafge zien
ĠT VE
ĠT o
Ġpas je
ric eps
Ġvernev eling
Ġ14 7
IC ARDIOLOGIE
inform eerd
ĠIn name
Ġt rop
Ġver gel
Ġkle m
Ġaan raking
teken ingen
k eer
ĠFer ritine
Ġhydro ps
13 1
Ġintra pulmonale
Ġad renaline
Ġbacterie mie
ĠGynaec oloog
IG O
Ġbevestig ing
ĠOV B
Ġge assoc
ĠS ectio
Ġlab uitslagen
ort ale
lan ken
RA P
etab ulum
ĠF r
at op
D iÃ«t
Ġdoor lichting
if en
Ġf ossa
Ġluchthoudend heid
GEN EESKUNDE
Ġser um
ĠAp ril
Ġveiligheids redenen
ĠPlaat sen
Ġde posities
sl ikt
Ġwerv els
Ġst opt
Ġziek ten
Ġvaat chirurg
Ġmedicatie lijst
Ġher opname
z ool
Ġontwikkelings achterstand
DUODEN OSCOPIE
ĠâĢ ¦
Ġachter hoofd
Ġvoor ste
Ġopgeb lazen
p assen
b ijn
Ġweg raking
Ġla gen
ĠRo od
Ġdoor geven
Ġsch roef
Ġtox isch
Ġu m
k eel
ell i
Ġradi otherapeut
Ġsla p
rie ve
Ġsamen vatting
ĠAm bul
P AP
Ġb ele
Ġziek er
os om
Ġanat omie
spuit schema
Ġabsol uut
B el
ĠU W
Ġinzicht en
Ġf req
Ġdysf agie
Ġv oerdraad
ilirub ine
ol ec
ĠZ al
ĠIn strument
Ġhoest klachten
Ġk las
Ġtoe gevoegd
EP T
Ġbronch oscopie
etir izine
Ġp ca
th romb
Ġpremat uur
ĠG BS
ĠV I
ĠOrth opedie
m eren
blok kade
ĠCH AD
Ġtrap pen
Ġlater alisatie
ICHT ING
Ġs ed
ĠW aarde
Ġinf iltr
best eding
Ġachter wand
Ġbewustzijn sverlies
Ġvoor gestelde
13 2
ĠL BTB
Ġupt ake
Ġgel ok
Ġanest hesiologie
ĠV V
kk ig
AP AR
Â µ
Ġescap e
G RA
Ġleven dige
ĠMB GPE
Ġc ad
ĠL iep
Ġcorrig eren
mat uriteit
ĠM aart
Ġcolon carcinoom
Ġgew isseld
ich en
iteit s
Ġf in
ĠE M
AM STELVEEN
ver z
Ġst rept
Ġhyper par
Ġnieuw s
Ġt aken
Ġop ent
ĠJ an
Ġbehandel plan
ĠLater aliteit
Ġfol l
of arynx
âĢ ĵ
Ġpak je
Ġmagnesium hydroxide
Ġsla pend
s onderzoek
Ġid iop
gem eld
ĠM on
Ġgez akt
Ġdoor gelekt
ĠH Z
Ġpol yp
kl ist
alc idol
sc ores
Ġgelux eerd
E et
Ġg ar
Ġ# :
Ġnavel streng
Ġplaat jes
Ġoptim aliseren
ss ment
Al gemene
Ġlink erk
Ġfl uticason
20 03
sp alk
Ġo oit
Ġstij f
10 6
ĠC AVE
ch ant
Ġonder b
Ġvol gend
f ocus
Ġhand elen
Ġvoort gezet
Ġz uigel
Ġm em
le iden
Ġin gelopen
ĠVer slavende
Ġdiafrag makoep
Ġur ticaria
Ġhydro chloorthiazide
cost aal
Ġmede werking
Ġbewe gelijk
erose ptaal
Ġhyper g
uns eling
cap sule
rip rieve
Ġsten en
Ġbij zonder
Ġm asker
ĠV OK
Ġappend icitis
Ġnorm of
ap ent
e ind
ĠST ICHTING
t ere
Ġep istaxis
w isseling
Ġgen ees
Ġcef otax
ĠHOV ON
m ar
ĠÂłĠ ÂłĠ
ĠRo ze
ĠP arese
ing reep
Ġcol ectomie
al bum
19 46
ĠOP T
ser veren
ont je
ander ingen
Ġkil o
n ia
Ġvoor lopige
OR G
zo als
Ġlab et
radi ol
wer kende
M ET
Ġrhin itis
Ġstrak s
Ġam LOD
Ġgro eten
ĠG ering
oed elijk
Ġop m
Ġpiepen de
Ġp raktijk
ĠR ad
Ġen t
ĠM G
Ġgev oed
Ġzus je
M isselijkheid
j uni
s coop
Ġ199 3
C OM
Ġstim ulatie
epilept ica
Z EPAM
it teken
ren ie
ant i
ĠSp reekt
al i
Ġbijge sloten
Ġgen oteerd
Ġ24 0
Ġele ctieve
be vindingen
Ġm yc
Ġ15 5
SV AS
ex cisie
beper kingen
ĠN abe
ĠMet h
Ġgnost isch
ur us
Ġl antus
druk pijn
pro ces
ĠInstrument erende
on i
iliac aal
Ġcla udicatio
Cont roles
Ġmon otherapie
Ġper iv
Ġcirc ulatie
ME ER
ĠG asthuis
Ġceft azidim
pl ooi
ro de
ob v
d heid
.: (
acl itaxel
ĠFys io
B A
Ġge informeerd
N ooit
Ġstern otomie
remm ers
ren orfine
Ġna gel
Ġgeinfect eerde
ysp lasie
Ġc as
Ġhal verwege
Ġpost op
f em
Ġport ale
Ġop hoesten
B er
Ġs ensib
wissel end
ij l
Ġni volumab
ĠLok ale
Ġpal atum
gest aan
b act
Ġbe sprak
Ġ ram
Ġp rijs
Ġoesofagus carcinoom
Ġoverge wicht
UN T
ĠLi quor
Ġterug komst
Ġverl aten
Ġover geven
Ġspier zwakte
Ġech ografie
Ġm achtiging
ĠSpont aan
be wegings
E chtgen
L ichamelijk
oph arynx
ĠF low
ĠEchtgen oot
waar bij
t rim
x ia
ur eter
ul ine
sple et
Ġinsteek opening
ĠF urosemide
b da
or otatie
ĠÂł ĠĠĊ
Â ®
result aat
h m
ĠR ust
patiÃ«nten pas
on bekend
Ġch i
ĠMijn Dossier
z n
O PE
her ent
e eding
Ġgereg uleerde
ĠC EA
ĠOog t
2017 13
Geb oortedatum
Ġver plaatst
ĠOver dag
Ġcor tex
ĠOnder ste
ĠB A
ag ulatie
Ġuitstral end
ĠR ect
YD RO
Ġex trem
g ie
Ġpneum on
Ġw ijd
Ġinst abiliteit
Ġhorm onale
Ġend oscopische
Ġorthop neu
ĠR OK
Ġhyper vent
ĠOp leiding
Ġinfectie ziekten
Ġcur atieve
ag ul
Ġbe antwoord
ĠW erv
sch ildklier
Ġcell cept
onit raat
Ġreag eren
566 5
gen atie
ĠSt erk
N D
ang st
est ib
Ġverzeker ing
Ġv ijf
RA D
ven d
ĠLaat stereferentiebereik
ud den
Ġcut ane
ĠAf geb
Ġam itriptyline
t oename
AT E
uug t
of armac
10 8
Ġmaj or
Ġinf luenza
af il
ĠOes ophagus
Ġinzien s
groe id
um on
em esis
BS N
bra ken
Ġal ve
othe ker
Ġv Ã³Ã³r
ĠPap il
geb oort
Ġfib ro
ĠTran s
oef end
Ġax illaire
n i
Ġb ult
Ġk m
ĠN aald
Ġuiter aard
fac alcidol
Ġinject eren
O U
Gro te
Ġst reng
ĠFOL IUM
ĠIN CL
Âµ L
ĠP V
ĠAT P
Ġcholedoch us
ĠOver weeg
Ġver stand
raf ie
ĠV PD
Ġin lopen
Ġpoliaf spraak
Ġbrander ig
V OOR
ĠK ruis
H ad
d ys
ĠPak jes
Ġstij fheid
Ġhemicol ectomie
Ġ14 8
f lu
k cal
Ġop gestart
ĠL BK
ĠEpis iotomie
Ġadres K
pos itas
Ġsluit ing
Ġper cept
Ġem py
ĠT ol
Ġe ut
Ġopge knapt
ĠĠ ÂłÂłÂłÂłÂłÂłÂłÂłÂłÂł
ĠD IP
ac anule
l oten
Ġl ine
ĠDiÃ«tist ische
art ph
Ġsp lit
CENT RAFARM
Ġl eer
Ġinsch atting
zyg ote
P art
klier en
plic iet
b b
Ġrug ligging
V al
ac o
Ġsub opt
ĠSch ildklier
get rokken
Ġal ler
ir urgen
sla an
Ġpseud o
ĠGe c
le v
be ens
h isc
Ġlev etiracetam
pre dnisolon
ĠW OND
plant ings
Ġv entrale
Ġre uma
Ġg aarne
Ġh inder
ĠPoliklin isch
Ġfys iek
Ġt end
ĠSt reven
ĠL isinopril
ĠMogelijk e
geboort etijd
et isch
an eur
G V
Ġtra ge
Ġresp onse
K uur
Ġb ouw
ĠEp i
z ingen
erv ix
iv ent
Ġhuis houd
IE KT
S N
compens atio
ĠSOC IAAL
icr yl
Ġstem banden
d raad
Ġgem akkelijk
Ġverdw ijnen
Ġarter ielijn
Ġpar iÃ«t
ĠB act
Ġcut aan
let jes
ĠKAT Z
Ġdag dienst
Ġprofylact isch
Ġontst oken
min utieve
iv ist
ĠPsychi atrie
Ġintra hepatische
ĠAc enocoumarol
ra kingen
ĠS VT
arr iere
ĠProgressie ve
ver k
Ġd orst
rot isch
Ġloopt raining
n atale
Ġont wat
Ġontst ane
ne c
15 8
orbide mon
ind opril
men ging
ĠVoeding s
EN EN
Ġben oemen
Ġvo icemail
Ġoes oph
ĠĠĠĠĠĠĠĠĠĠĠĠĠĠĠĠ ĠĠĊ
O chtend
f lex
Sp ecialisme
od g
ax ie
ĠGe corrigeerde
2017 1
ĠT uss
plantings geneeskunde
Ġasym metrie
ĠN o
14 5
Ġca es
ĠS an
ink el
Ġverzam elsysteem
ĠF FR
Ġover brug
Ġp akket
Ġl eeft
per k
Ġwee Ã«n
29 7
Ġantibiot ische
Ġon gem
IEKT EN
ĠEl ke
v entriculaire
Ġj l
Ġver antwoordelijk
Ġ ÂłÂłĠ
Ġsch roeven
geboren e
Ġuiter lijk
b ruik
Ġventilatie Resultaat
ĠF requentie
Ġur et
Ġelement en
ĠCT O
v aart
Ġsp inaal
och ond
ĠP RE
ĠP SC
Ġ7 20
et ische
ier est
Ġbloeds uikers
Ġmultip el
Ġte gelijk
Ġhorm oon
ĠZ H
beper kt
Ġgravid arum
ĠL a
Ġing uinalis
Ġged oucht
ĠN oord
Ġmyomat osus
oide us
566918 5
ĠG vHD
sch oenen
Ġdi p
Ġovarium carcinoom
ĠP ZB
sch aal
ĠP rom
ent herapie
Ġnit ro
Ġge maakte
m amma
ĠHel aas
hoor n
Ġgewichtst oename
Ġnierfunctie stoornis
Ġempy eem
ĠĠĠĠĠĠĠĠĠĠĠĠĠĠĠĠĠĠĠĠĠĠĠĠĠĠĠĠĠĠĠĠ ĠĠĠĠĠ
cur sies
ĠIntact e
N oord
Ġgesla ag
444 22
Ġpre operatief
Ġh ees
sch eur
ĠpatiÃ«ntenfol der
Ġuitd raai
ĠDer mat
Ġv accinaties
Ġont staat
orbidemon onitraat
ĠV accinatie
ob asaal
Ġot itis
Ġth yrax
Ġpart ieel
ĠD rie
Ġbegele ider
ĠVr ies
Ġuterus extirpatie
Ġeros ies
h ij
Ġz ofran
ĠAng i
pro co
ĠAanvragen d
Ġgl omer
ĠI Q
Ġge opend
om geving
Ġdubbel zien
ĠcoÃ¶per atief
ĠB ronch
Ġper operatief
asse mie
20 3
Uit slag
ĠHer beoordeling
Z enuw
Ġper ineum
g a
Ġbeg rip
Ġdel etie
T ot
peri ode
be houd
Ġprol aps
et te
ĠOver wegingen
h ipple
Ġbed re
ol or
Ġvrij w
ĠOu der
Ġbe ker
Ġgep aard
ĠDossier informatie
Ġsub feb
ĠZ uur
Ġ7 057
Ġveel gestelde
in stellingen
Ġkopje Mijn
ĠAV A
Ġaange hangen
ĠL act
Ġsub straat
Ġcip roxin
Ġpub is
or eg
serv aties
ion aal
20 02
ĠC onditie
ra se
Ġneu rof
ĠT KP
ĠB esch
Ġover igens
ger ust
ud aal
ĠMijnDossier activatiecode
ĠWe gens
ĠIntox icatie
Ġbre uk
bra d
Ġverwij ding
PE G
ĠĠĠĠĠĠĠĠĠĠĠĠĠĠĠĠ ĠĠĠĠĠĠĊ
Ġleven dig
K le
ĠV RA
id t
ĠDruk verband
Ġpl ot
ob ie
Ġm c
ĠEnd otracheale
Ġe zet
ĠBLOEDGAS ART
Ġinfectie parameters
ĠE G
Ġstruct urele
ĠU RS
inig d
Ġdunn edarm
ĠMet formine
Ġs urveillance
ul ar
ĠDatum evaluatie
ĠC yt
eer st
ĠF IGO
Ġkol ven
Ġinfectie uze
A g
up us
Ġdiff us
Ġontwikk elen
Ġgeob jectiv
ĠT ENS
ĠV ATS
Ġverb inden
resent eerd
ĠV ul
NO ORD
Ġz akken
ĠAdequ aat
sla esie
Ġplast isch
catheter isatie
Ġarterie el
ĠPOLIK NO
Ġuitd rijving
in hal
Ġver sla
Ġpyl orus
Ġmultip le
ak je
566918 1
at z
ĠAO A
Ġval aciclovir
ge deeld
k regen
Ġpancreat icus
Ġp illen
it raat
are a
ĠAl les
ost atische
t oediening
Ġt onus
Ġlig gende
Ġop gelopen
ĠRe ageert
Ġlos se
Ġs ur
ĠA ROM
Ġep ider
Ġd ar
Ġp lu
ĠStart en
vats lijden
ĠP rioriteit
Ġvoort zetten
Ġreg ionale
Ġin gest
proco umon
W E
Ġ199 2
s ent
ist en
Ġdik te
lig gen
Ġontregel ing
Ġme an
Ġzorg t
ĠOnt vang
Ġbeg ane
AMC KLINISCHEOK
mand ib
stof m
ors aal
C hol
Ġafhankelijk heid
Ġna prox
vallen Resultaat
20 01
Ġst uwing
ĠCont ra
probleem lijst
Ġvocht beperking
qu e
Ġbro ertje
ch ine
Ġt v
Ġsac rum
ĠA ard
lij sten
Ġregel t
Ġop lopende
Ġon regelmatig
Ġoment um
Ġur ines
gerelat eerde
Ġvl ie
ĠBloed kweken
ir t
oid ale
af rag
remm er
ĠSym metrische
ĠIF X
Ġver voer
Ġb rieven
Ġsp oortje
Aan vrager
ER CP
Ġnaprox en
? ),
d ent
Ġmaag resectie
r isch
ail ure
ĠMax imale
Ġcur ve
w kn
m ag
Ġanti hypertensiva
Ã ¼
i w
sect abel
ĠBeen merg
Ġtr iceps
AT INE
Ġsegment en
etyl salicylzuur
F amilie
p ub
hisc entie
Ġpro ct
Ġe ier
Ġle ge
Ġcap ecitabine
Ġves ic
CU LAIR
Ġinter actie
c entie
Ġaan sluitend
mov ate
ĠB ER
i amine
Ġhart elijk
Ġlo bectomie
Ġfax en
V ader
Ġin stru
al azine
29 8
Ġ !
ĠH oorn
Ġbe stellen
we kt
5669 5
Huid ige
2017 12
ide o
Ġin stellen
ĠMet oprolol
ĠMac ula
ine uze
Ġprim peran
P lastische
ĠNabe handeling
ĠDi arree
ach irurgie
Ġlaag gradige
Ġverk ort
Ġperitone aal
Ġe s
em end
ĠBehandel team
Ġtoe zicht
Ġb aat
Ġt ensies
ĠCR C
Ġhyperpar ath
vl ie
Ġaanged ane
Ġmast oÃ¯d
Ġneon atologie
Ġpat ella
Ġuitlok kende
ic ieel
D an
ĠW and
Ġp ees
ĠB lok
ĠR M
ĠDAG CENTRUM
CHLOOR thiazide
Op namedatum
Ġdef aecatie
ĠCOL OSCOPIE
ĠT ussen
Ġkleink inderen
l is
agnost ische
ie ctomie
OP R
Ġquad riceps
T emp
omat euze
ĠP s
ym e
st radiol
ĠL ange
ss ituatie
Ġtromb olyse
fus or
Ġgent amicine
SALICYL ZUUR
ĠdiÃ«t iste
Ġpar otis
Ġchromos oom
Ġmoed ers
sch ors
Ġirrit atie
Ġl and
Ġlinker hand
ĠPrim aire
Ġge oc
Ġverd raagt
en il
C irc
Ġpr eren
Ġhemangi oom
Over leg
ĠP rop
Ġprikk eling
Ġtril len
Ġa dip
Ġdox ycycline
obb y
Ġblok kade
ĠFac ilitair
aar zame
w onden
et entie
ati en
ÂłĠ Âł
ĠO k
Z elf
der mat
sm al
ĠZ od
. ).
ĠA ss
Ġnuc le
Ġzwangerschap s
Ġij s
ET YL
ĠV W
di positas
ĠJ aar
ĠA I
g ers
Ġp ulm
Ġkamer lucht
efact en
Ġplex us
Ġbel emm
AST ATINE
par k
K reeg
Ġdis ciplines
ĠR ode
Ġter min
ĠPERSONB etreft
ĠAan wijzingen
ĠEx tr
Ġhoog gradig
h om
L P
at euze
artph rase
Ġlies breuk
C CP
C AR
sp ecialist
ren aal
ĠP resentatie
Ġvolg frequentie
ant istoffen
stap eling
ctasie Ã«n
Ġs an
and idaat
r ib
Ġste ken
ĠM onitor
Ġbet a
T P
it idine
plor atie
Ġk ent
Ġweten schappelijk
ie mie
Ġor gaan
ĠD onderdag
ge komen
Ġg land
ĠRV O
ĠV M
Ġga zen
ĠS lijm
RE VEN
pol ikliniek
l ott
lang s
R ef
Ġd iazepam
ĠO HCA
Ġverkal kingen
Ġover gedragen
Ġl euco
Ġb us
ju ist
odg kin
Ġc uff
Ġbijk omende
Ġdi pid
W AK
Ġk orst
yst ad
Ġextra ctie
IE KEN
ĠV ent
Ġcer cla
ĠH SV
ĠP ass
Ġhe ffen
Ġge toond
ĠEN D
Ġnodig Voor
c lassificatie
idd eld
Ġcarcin omat
Ġhoofd stam
ĠProb eert
p neum
Ġvragen lijst
P sych
eter s
mail en
O H
an ten
ylo dese
ĠRed elijk
Ġdef initief
behand eld
ĠRe spiratoire
Ġbehandel opties
Ġd ilat
hor end
CH O
aort ale
r ingen
Ġafge z
ĠS yst
Ġbra ch
ruim ten
Ġa Ã«rosol
19 47
Ġmultidisciplin air
ĠVoor alsnog
W IJ
ĠT B
Ġr ig
ĠAo S
ĠDef initief
pre dnison
el ystad
Ġe jectiefractie
Ġbe spraken
age erde
ĠVoor malig
ĠF VC
Ġoverge komen
Wee kend
Ġorig o
10 7
ĠN iveau
is su
ici an
S ER
Ġhern iatie
9 40
an zuur
Rec idief
Ġm i
le k
Ġdipid olor
ĠD ijk
ĠAC S
Ġsinus itis
ac uatie
Ġbijge houden
pect omie
Ġgele kt
ĠM CA
k h
Ġcoeli acus
A AND
le ca
Ġhypertensie f
ĠApothekers assistent
ĠCh ronisch
z ag
se x
Ġv als
Ġnier celcarcinoom
e w
Ġinst abiel
Ġcomp act
ran sfusie
Ġuro genitalis
Ġre mm
ĠEch ocardiogram
ĠTe chnisch
ab lok
ged urende
Ġhypok aliemie
k ans
Ġtri as
Ġal g
Ġ________ ____
ĠVert elt
YC ONTIN
ĠThuis zorg
ĠPlaat sing
ĠOt oscopie
ĠSE O
ĠG luc
afhankelijk heid
E l
ĠUitvo erend
inhal eerbare
Ġp oplitea
Ġbuikpijn klachten
Ġmede gedeeld
ĠEx t
Ġimmun osup
ĠKra am
Ġc os
Ġu rosepsis
ierest rictie
Ġaan kleden
Ġmeer maals
Ġzol ang
ĠN ieren
Ġstent s
st adium
Ġcalc aneus
2017 11
Vol ledige
Ġpol sen
Th orax
per en
Ġre anim
horm oon
Ġj odium
Ġgerelat eerde
ige min
Ġ17 8
Ġonder ling
Ġm its
leg ging
Ġglucose s
ĠOp vallend
c entr
ĠPsych oloog
Ġgep resenteerd
Ġkind je
ĠMedic amenteus
Ġnierlo ges
Ġ4 50
Ġm eek
ĠA ut
il us
al acie
ĠPsychi atrische
Ġgen en
Ġfla uw
ĠOpnam edag
Ġklein ere
ĠS ervice
ran den
ĠMob iele
ern stige
ĠC arb
keur d
Ġkruis bloed
ĠN IV
Ġsympt omatisch
ut ten
stru eerd
ol ip
Ġfra cties
Ġob serveren
Ġlangs geweest
ĠN itriet
Ġwacht tijd
ĠG FR
Ġopt iflow
Ġcor nea
Ġintact e
Ġen alapril
Ġonver kl
ĠCentraal Zenuw
In spanning
Ġepid urale
Ġv ies
Ġend oscopisch
fin cter
u ct
Ġepilept icus
ff usie
Ġtel emetrie
aal arts
m ortale
k am
Ġsm elt
ure erd
Ġdefici Ã«ntie
fac e
w erv
Ġinter st
m ale
Ġtromb ocytopenie
V B
Ġge in
Ġ11 00
ĠVOORGESCH REVEN
f L
LD H
elk anaal
l ating
Ġtromb osedienst
Ġinterv entieradi
W eek
ĠC ort
onder zoeken
19 48
ĠLymfeklier en
Ġcardiomediast inaal
Ġerg otherapie
oe pt
Ġpsych ische
Ġgrij s
oide ctomie
pels ap
ĠG eest
ox i
qu in
alan x
ĠGeb oren
g av
Ġcr ise
Ġrad iculair
is cus
j uli
An ders
om ot
Ġkort durende
rin i
Ġavond dienst
Ver st
Ġhoud ings
Ġpseud omonas
ĠAMSTERDAM ZUIDOOST
am us
ĠH CT
Ġpatient nummer
ĠPro x
Ad dendum
v reden
G S
ving er
Ġb aar
t oedienings
ĠF F
Ġpac k
oc ine
Ġperiode s
Ġlijn s
P OS
t hal
it eerd
Ġrecid iverend
Ġvoorschrift en
Ġreg ulatie
Ġac etabulum
Ġpart um
ĠT E
Ġbor sten
Ġl ytische
Ġth ema
Ġpar am
Ġintraven euze
ĠActiv iteiten
ĠD I
ETYL SALICYLZUUR
Ġbeh oor
5666 555
hecht ing
Ġgl iclazide
Ġaut isme
Ġen cephal
kw adrant
f il
ge gaan
st h
atri Ã«mie
ĠR BTB
ĠOntvang st
Ġingu inaal
Ġt ypisch
Ġverkle uring
2017 2
aardig heid
Ġnas ale
Ġoste openie
Ġdiafrag matica
hil us
anto zol
Ġmyel opathie
Ġaut on
ĠĠĠ ÂłĠĠ
ĠGPE adres
Ġre jectie
Ġproduc eert
ist ant
Ġbeh eer
Ġafged opt
op lastiek
Ġatrium flutter
ĠS ens
Vol doende
elev atie
U K
Ġmail en
geven de
Ġex tens
ys is
20 201
Ġk eten
ĠOx ycontin
ind a
Ġver g
Ġpomp stand
Ġna chten
C MV
Ġmaag zuur
requ ente
Ġmotor isch
Ġduid en
rop arese
Ġ199 1
Ġem bolie
Ġmar g
Ġwond genezing
ĠDiabetes mellitus
ĠP r
/ (
Ġge corrigeerd
toedienings systeem
ĠH um
Ġs ide
ĠDiÃ«tist isch
serv eerd
Inf uus
13 7
Her senen
druk t
ĠGister avond
Ġro ok
ij en
ĠSl ik
w or
ĠG ips
Ġ16 7
an us
ĠH g
m ine
Ġe h
Ġech ocardiogram
67 6
st omp
sp oelen
Ġtoen emen
ĠD osering
ĠM o
Ġ7 00
ĠR x
Ġlijn infectie
EL O
Ġf iss
ell igen
ĠAm niotomie
Ġra akt
Ġflu ct
Ġsp lenomegalie
qu am
ander de
rat entor
Ġbekken bodem
30 4
Neuro chirurgie
Ġtricuspidalis klep
f ysiotherapie
igment atie
s edatie
Ġkl aring
M AP
Ġsomber heid
Ġregulier e
beg repen
Ġni hil
fol ders
im uleerd
pla kt
gro otte
N ut
O CR
ĠK A
Ġrest ri
Ġdiffus ierestrictie
or y
Ġt arget
Ġzorg vraag
ĠC yst
week t
hulp middel
oe st
F U
moment en
is en
Ġk eu
ĠVer pleeg
Ġaf scheiding
Ġhol ter
Ġaan ger
Ġtest osteron
Ġver heven
EDI pine
Ġpassag ere
IS E
Ġn ycturie
Actueel MedicatieOverzicht
Ġlok alis
ephal ica
C E
E valuatie
10 9
deel te
ĠC atheter
ac et
Ġprof iel
Ġgeconcent reerd
Ġb rij
Ġben z
Ġpersoonlijk heids
rokken heid
ĠM RD
ĠN IPT
Ġverv aardig
Ġmet astasering
Ġhydro CHLOORthiazide
tran sf
Ġox a
Ġav ide
Ġinschrij ving
Ġv ie
Ġonge pland
Ġcolon oscopie
RA T
heff ers
ĠPro t
orect ale
) (
ĠNIF EDIpine
ĠB o
oblast oom
gevoeg de
Ver slag
ur k
Ġver laagde
ent atie
erv icale
Ġsyst olisch
at ro
Ġou deren
in urie
Ġpost oel
Ġlos artan
Ġge men
Ġnorm al
l eren
op nieuw
Ġen e
Ġin stellingen
ĠDE XA
ĠV ond
Ġtran sport
m o
ec ol
ose al
Ġ19 0
ig de
gevoel igheid
Ġverk oudheid
Ġbup renorfine
Ġge oefend
ĠDoor halen
Ġv lok
Ġed oxaban
H uis
Ġcarcinomat osa
Ġoor sp
R oken
Ġk ok
Ġlinker bovenkwab
ĠC ar
D V
verzeker ing
Ġk la
Ġcontra ctie
Ġlit h
z oon
Ġ[ ]
Ġkinder leeftijd
VL ST
ĠR OS
eef stij
ĠU rolog
ie ven
ym p
Ġer ectie
Ġshe ath
Ġl esies
Ġcom fort
ĠToe genomen
m assa
Der matologie
Ġschedel omtrek
ĠK HP
heel kundig
oo ien
inet ijd
Ġg renzen
igen d
Ġconf lu
ĠC B
ĠMin imaal
Ġc oca
rof isch
Ġvoor voet
ĠPOL ICARDIOLOGIE
ĠIn steek
oste osynthese
Ġaan wezige
Ġc annabis
ab apent
k reat
2020 08
ĠP ul
ĠD EN
Ġ17 6
Ġlen alidomide
: {
ĠĠĠĠĠĠĠĠĠĠĠĠĠĠĠĠ ĠĠĠĠĠĠĠĠĠĠĠĠ
ac ute
Ġdarm pakket
Ġhart infarct
C ol
Ġv estib
ze k
Ġ8 50
56625 00
yt ocine
Ġherstellen de
iol itis
n ion
ĠZorg mail
Ġregel matige
t a
sch acht
x d
Ġdoppl er
ĠPOL IP
Ġw aak
ac on
Ġge super
bla den
wijz en
ĠB enen
ĠHer nia
Ġ15 6
ip en
Ġde mand
Ġont dekt
Ġonderste und
Ġfist eling
waar na
ĠCo assistent
ĠFOLIUM zuur
t aal
ver staan
y a
K E
T A
Ġintens ive
Ġgew assen
Ġbe wijs
ĠAMCPOL I
ĠEen maal
he imer
Ġre vers
id on
ogen etica
extra ctie
os ch
bouw en
Ġde viatie
Ġte chn
Ġgeobjectiv eerd
Ġextrem iteit
M x
Ġ26 94
Ġnier stenen
ĠB O
v elen
stofm ijt
ro dese
ruim te
ĠSP AP
in o
zit ten
Ġacetyl salicylzuur
Ġr ijden
ie uze
Ġon line
Ġurineweginfectie s
Ġaanvraag ActueelMedicatieOverzicht
ĠM W
ĠInterval anamnese
Ġfac et
Ġvis uele
ĠTriglycer ide
Ġgent a
Ġbij spuitschema
rol ithiasis
ĠP CH
Ġcardi a
we inig
N STEMI
it inib
Ġtot dat
Re acties
ĠW acht
let je
ex amine
m icrobiologie
ĠG RO
Ġkl inkt
sc ontrole
auz es
Na Cl
Ġo gv
ĠMet ab
won end
f de
ĠV ast
ARL EM
ati ons
Ġper one
ĠPijn lijke
Ġopge zette
of renie
Ġcy an
Ġgesch rokken
Ġnab ij
patient e
Ġt uin
rol yt
este atoom
Ġf out
11 4
Ġverkl aard
Ġte chniek
stij fheid
iet aal
Ġhyper calc
Ġvermoed en
ĠP TH
st uk
ĠAMC KLINISCHEOK
ĠAm oxicilline
Ġt oon
ĠAl daar
ĠWissel ende
Ġb ieden
Ġbloed afname
oet sen
Ġst raat
ep en
ĠHemat ocriet
Ġvlak ke
Ġad ministratie
ico agul
ĠGG D
7 04
Ġren aal
la f
Ġmaag retentie
Ġtib i
9 00
ĠHuisartsen praktijk
ĠDAGCENTRUM OK
ĠNut ridrink
ĠC ell
p te
int act
ijk s
Ġw anen
Ġlinkerv entrikelfunctie
Ġpsych ologie
ul ator
ĠPT SS
at ran
ĠAl bum
Ġ35 93
Ġsh ift
ĠOog heelkunde
ver st
Ġik v
Ġb oek
pro p
geboortetijd perk
ĠAfgeb ouwd
Ġst oot
F OR
Ġven eus
AT ER
Ġirreg ulaire
ion eerd
ĠZ u
im i
ĠOntslag instructies
vid a
ĠK B
id end
if e
ul ieren
ĠP neum
ĠPost natale
o uren
m aart
Ġver plaatsen
ĠB PR
Ġsch oot
ĠG IF
ĠM er
Ġem br
Ġvasc ulair
z heimer
er iele
Ġap pel
Ġkoel zalf
ĠRD P
L OS
Ġoxa ZEPAM
ĠD yspneu
sf ractuur
ell um
Ġpap ier
Ġpijn vrij
Ġsmelt tablet
Ġvier de
ĠAller geen
ĠO ud
ĠJ aren
Ġrechter ventrikel
art raat
Ġuit p
Ġgede elt
ĠTelefoon nummer
procedure el
W at
ĠL F
ĠRegel matig
ĠL eefregels
Ġuit gangs
yre oÃ¯die
Ġma ak
ĠHart centrum
bele ving
ĠBEHANDEL ING
min imaal
ĠNeven probleem
ĠD ER
Ġtran sl
Ġb ilirubine
Ġhemip arese
ĠL ag
p T
Ġhepat is
icip atie
laag t
ĠPERSON PERSON
r y
Ġer gens
Ġeffect en
ge z
vul dig
ver schil
t emp
Ġvocht ige
ĠWissel end
Ġa er
S m
ĠA uscultatie
Ġhypog lycemie
m es
ĠGez ond
Ġw aaknaald
iek lachten
Ġencefal opathie
iv itamine
Ġp uss
rek ing
Ġisos orbidemononitraat
Ġaltern atief
b reng
ch eck
Ġs ynto
Ġhart team
som s
ap te
AL S
if amp
Ġdwar slaesie
) <
ĠD U
Ġgere inigd
sul ent
Ġmoeilijk er
Ġplast iek
ĠR eg
Ġz akte
Ġend oprothese
amp oo
psych iater
Ġgro tere
Ġt ime
st reef
ĠFOL F
ĠPC D
Ġpyl ori
ĠL OK
ERM ATOLOGIE
Ġaan sluiten
oder mie
ur end
ST E
Ġbi ometrie
G lucose
19 50
Ġpercept ief
Ġn v
ĠAn ders
in esie
Cont act
g al
ĠThorax drain
han gende
part iment
valu eerd
ĠOx azepam
ĠWater land
n ings
Ġre ductie
Ġn p
ra um
ĠB atterij
ĠDer matologie
Ġverdw ijnt
Ġplek jes
Ġste v
Ġiliac aal
at resie
Ġontlasting spatroon
ĠGec uffed
K oorts
Ġopi aten
Ġref ract
ĠĠĠĠĠĠĠĠĠĠĠĠĠĠĠĠ ĠĠĠĠĊ
OOR D
ĠO gen
Ġwens elijk
ĠBes loten
asc ule
Ġm erk
R IE
ĠM ent
ĠContactpersoon ASP
Ġverkrij gen
st herapie
Ġdoor komend
Ġzuigel ing
re eds
Ġuit komst
Ġsyn ov
Ġap art
m oet
ab dominale
ĠTr icuspidalis
lichtings materiaal
Ġfoc i
Ġvisus klachten
" }
Ġsikkelcel ziekte
ĠPersoon sgegevens
Ġhamstr ings
Ġal facalcidol
Ġha em
Ġgel dt
post partum
ĠI r
B IJ
Ġcoll um
rip t
ruim en
ĠGra ves
Ge sprek
otiv atie
Ġkunst verlossing
ĠL dl
ĠD oelen
bewegings stoornissen
T AVI
p ora
Ġ15 8
L aat
Ġb umetanide
rom y
o und
Ġuln aris
lijk se
Ġurines ediment
Ġintracran iele
sp lan
Ġpar enter
verzorg ers
BR MO
ĠN eg
Ġdoor nemen
mob iel
Ġplo o
v ou
Âł ĠĠĊ
Ġmo d
Ġfijn e
Ġ(+ )
in te
Ġ18 5
M eer
Ġbrad y
Ġintermit tens
ĠSle chte
Ġint oxicatie
ĠSlot ervaart
ĠMedicatie lijst
assistent Neurologie
Ġsh ow
Ġhelder rood
n n
ven euze
sm artphrase
traum atische
z els
Ġsarco Ã¯dose
Ġs afeguard
Ġ- --------------------------------
ĠSla pen
ERV IC
gevoel ig
ĠR elevant
au di
RD P
Ġlead s
Ġwoord vind
Ġpro stat
Ġwissel t
Ġaf komstig
Ġet age
ek s
orgen te
okt ers
hep at
ĠC S
ĠN on
ĠPsychos ociale
A p
Ġr an
af d
Ġmec onium
ĠW it
Ġz innen
Ġmin st
op ath
Ġniet van
Ġmult i
ur itis
Ġf alen
CA BG
Ġh ong
ĠE TT
ĠF eb
Ġbas il
AM INE
t on
Ġget rokken
ĠVer pleging
Ġmicro bi
Ġthorax wand
Ġmast ectomie
inter ne
ĠC yclus
wit te
ox ide
Ġverst rekking
ge sie
ĠM amm
ĠGro en
ĠGe acht
ymf oom
Ġc italopram
13 9
Ġexpir ium
ĠN ICU
Ġoog lid
6914 940
er f
ur is
stit iÃ«le
: :"
lever en
us en
al lerg
19 56
Ġstem men
part ner
n end
ĠGedilat eerde
in different
ĠR KZ
del ier
Ġlong metastasen
Ġnet werk
Ġver sn
ot ypering
sch irurgie
Ġc ent
i ent
Ġverl ichting
ĠAtrium fibrilleren
Ġgest imuleerd
mee gegeven
ĠOste oporose
Ġwervel cor
Ġnatuur lijk
Ġcor relatie
ĠGet rouwd
PRO BNP
ge maakte
d rank
Ġaangepast e
Ġc irrose
Ġ+ +,
c T
Ġper cussie
Anest hesie
Ġp auze
ly k
Ġobstructie ve
ĠAn us
ille spees
Ġre uk
H EL
F requentie
ÂłĠĠĠ Âł
Ġ ONDERZOEK
Ġmon on
Ġcommun ic
t rokken
Ġporta e
Ġscherp e
K R
L open
ĠNO AC
ĠP ath
N V
thromb inetijd
arde ffusie
mat ure
Ġm aterialen
M ellitus
art h
sen s
S luit
ĠMis schien
aneur ysma
ox y
ge con
ĠD iet
ĠM ail
ĠS v
ĠAN CA
Ġbu iken
W el
ĠF e
ĠT L
ut ane
ĠOP NAME
lamp sie
Ġzwart e
ĠT EL
geb oorte
Ġgroe ien
G ynaecologie
f o
Ġverne veld
Ġtablet Gebruik
Ġsub ple
Ġverne vel
ERST R
onc ologie
Ġherken bare
ĠVrij gav
ond yl
Ġstu kken
p ele
ĠSch ouder
Ġdim ensie
ad iging
ac c
OX YCONTIN
Ġcerebel laire
Ġkw art
ĠSla ap
ĠT ri
WAK ING
Z eer
Ġonder vulling
OL K
BE WAKING
Ġwr sch
Ġnier steen
Ġover lap
w erd
Ġverslecht erd
St andaard
N T
Ġvol doet
avir us
ĠM aas
infectie us
Ġdraa idu
eri ode
ik ke
Ġcogn itief
ID ERMATOLOGIE
Ġn iemand
Ġwerk te
Ġth yre
11 8
ĠÂłĠĠ ÂłÂłÂłÂłÂłÂłÂłÂłÂłÂł
ĠRF A
ĠPers isterende
Beeld vorming
29 6
wij kende
Ġnatrium chloride
Ġlichaam s
omotor ius
or rel
Ġheft ig
ĠGe zin
um o
Ġonder wijs
mat ch
V ENT
Ġch ond
Ġge deelte
Ġtrain en
Orth opedie
ĠH S
Ġcarb oplatin
Ġherken nen
Ġcervix carcinoom
ĠBle ek
Ġbij voeding
Ġad al
Ġgeob serveerd
j aren
Ġde compressie
15 1
ĠY zer
ĠC NS
ĠPijn score
Medicatie verificatie
Ġal fa
Ġbra ce
Ġbloedverd unners
ĠM achtiging
ter ne
D ef
ĠC ode
ĠEnd ocrinologie
ĠF amil
ĠSec undaire
ĠH BV
Ġm U
Ġp uff
ob ram
MD N
ĠBas ale
M ogelijk
Ġsteun k
m asker
Ġchem ok
amed ische
Ġ17 2
Ġvul va
Ġweig ert
444 05
d on
atie ven
or at
Ġirreg ulair
ip olaire
C AD
ĠZo als
Ġschil f
ĠRechter been
Ġpanc ytopenie
aand am
examine zuur
C RE
Ġoesof agitis
ijk e
Ġ11 86
ox ische
ocr ien
A I
Ġmantel zorg
Ġgeh al
ĠM PS
com fortabel
Ġrest afwijkingen
Ġvert raagd
Ġanat omische
Ġo l
Ġsu ff
ran olol
Ġhemodynam ische
ĠTelef onische
K eel
od us
ĠPO CT
Ġsl ikt
ĠDe generatieve
oprost ol
Ġrechter voet
Ġinst abiele
Ġpac ing
Ġf loxapen
Ġdrugs gebruik
ĠO OG
Ġcon vent
Ġgec alcif
iv aca
ĠP ER
ĠST EMI
ag aan
Ġ16 4
Ġmaag carcinoom
Ġgynaec ologische
activ atie
11 2
eff ect
ĠT oediening
if eer
ific eren
Ġin co
Ġsputum kweek
Ġheup prothese
Ġscap ula
Ġchirurg isch
ĠGesch atte
nem end
leb ogen
ĠP neumonie
ĠT oed
Ġwissel ligging
ex cursies
oc ort
Ġtunn el
OPR OLOL
ĠAan houdende
Ġvoorkomen de
Ġmicro gram
Ġle iden
Ġl upus
ĠImmun ologie
ĠVoor ts
Ġinform ed
Ġrect us
Ġfin anc
Ġg yn
Ġpleura e
Ġant iconceptie
Ġpsych ologische
T R
Ġl ach
ĠH ER
neem baar
Ġs et
FER OL
ĠCHE W
ĠUMC U
Ġleven slang
P ICC
Ġdel ir
Ġwek baar
ĠMaat schappelijk
onder ste
eer ste
ĠAD V
re paraten
Ġintermit terend
Ġhoe ven
abapent ine
Ġs agitt
Ġchloor hexidine
19 54
op elijk
regel matige
akk ingen
ĠKw aliteit
achtig ingen
Ġ ÂłÂłÂłÂłÂłÂłÂłÂłÂłÂłÂł
z iet
Ġar ray
Ġsp re
Ġat axie
O or
Ġch eck
i ro
Ġer ytrocyten
#### ####
Ġop merkingen
D C
ĠZuur stof
ĠNut rison
F E
Ġhe chten
Ġverl of
obra dex
Ġij z
Ġzwangerschapsduur vandaag
in continentie
Ġon scherp
ire d
Ġstij gend
ab ig
Ġj am
Ġhom ogeen
Ġgro ente
ĠHart team
Ġweg rakingen
Ġbelast baar
ĠR O
D ec
obram ycine
ĠInt ens
Ġnierfunctie stoornissen
EC ALCI
ru stig
ac iteit
Ġd rempel
ĠVoort plantingsgeneeskunde
s anemie
ĠBro chure
Ġinv as
Ġalcohol abusus
Ġlang werkende
RAP ID
W HO
ĠF iet
st appen
str al
Ġg Ã©Ã©n
id o
Ġstab ilisatie
W as
rakt ische
ri x
an ders
Ġgegener aliseerde
Ġin spiratie
itie le
H ij
ECALCI FEROL
OP ERATIE
pk racht
ast en
Ġloop rek
ver loop
ec ia
vor ens
Ġdruk te
ple kken
ĠGeboorte gewicht
Ġst af
11 6
umb ale
Ġl ongem
neu ro
pense erd
Ġbewegelijk heid
klin isch
press ies
Ġintr ath
s ma
CA PS
omot ore
Ġl ent
Ġgebeur ten
ĠGe heugen
ol ytische
ĠSO A
Ġinge d
Ġsupra claviculair
Ġ16 2
kast je
ĠHoofd hals
Ġb orderline
Ġvochtcol lecties
Ġgew end
brad ycardie
Ġaangeb oren
Ġvast houden
Ġ9 00
Ġorth ostase
Ġm E
b ben
l oc
Ġdivert ikel
f lank
loop s
ifamp icine
maag sonde
ug h
D ARM
5669 217
Ġ15 4
19 55
Ġwond verzorging
ÂłÂłÂłÂłÂłÂłÂłÂł Âł
med i
Ġb aan
Ġap paraatidentificatie
cefal us
Ġover wegingen
ĠT he
Ġcort isol
p resentatie
vorm ig
Ġdal spiegel
Ġ2 25
Ġst rekken
meld ing
B uik
b ilirub
sla pen
OPRA ZOL
ĠW aaknaald
Ġbuik ligging
ĠG aan
ave g
ĠF E
Ġ14 9
G RO
lo ze
Ġde bulking
ch le
Ġimmuun sup
RA S
Ġproject erend
Ġ1 66
2017 09
ĠPH ARMACHEMIE
ent je
ĠPro thrombinetijd
otrim oxazol
ĠP a
inde x
ET H
566 217
w il
ĠP alp
Ġst emmings
Ġs fincter
Ġval gus
Ġv el
V OL
) ?
g in
Ġw ed
ym metrisch
Ġhyper cap
Ġv aardigheden
icul ocyt
ĠO kt
am ines
ch nie
on ade
ont gen
Ġsub mandib
ĠPlast ische
Ġax illa
Be kende
ar beid
ĠV aak
p rol
Ġverst oorde
Ġluchtweginfectie s
ul laire
raa ie
Ġart h
ĠVoor lichtingsmateriaal
ĠTh oracale
ĠSpont ane
ANT OPRAZOL
H ier
Ġgeboorte gewicht
Ġst ere
Ġzu ivel
Ġwoon omgeving
eer den
19 59
id opa
Ġmin or
Ġoxy genatie
Ġ4 444
Ġspec iaal
ĠK lasse
Ġzak jes
ĠCentraalZenuw Stelsel
ĠPre dnisolon
Ġherstel de
chnie ken
Ġzitten de
ĠL as
Ġann ulus
di abetes
Ġin eens
19 53
Ġna ge
ĠC t
H CO
ĠF und
Ġonderste unen
ĠD C
em et
Ġcomple xe
P ER
ĠA AA
Ġoog gel
om s
Ġl etten
aren aal
ĠKon ing
Ġw ar
ĠP ulmon
Ġhand matig
hy dr
ĠSu cces
Ġn icotine
19 52
kle in
ĠW akker
ĠUn iver
N CH
Klin iek
af wezig
w arm
ĠH CV
ĠT O
ĠLok aal
ĠV alt
ul cus
ĠEpi lepsie
Ġvoet zool
abig atran
re et
f ici
Ġeen malige
mer end
ĠM otor
2 11
Ġreactie s
pre par
Ġt ap
ĠIn cisie
19 49
Ġdiafragmakoep els
Di agnose
Ġ ~
em etica
Ġlabet alol
Ġst ok
Ġvrouw en
V t
end oscopie
ĠAC M
Ġperitone um
ĠR it
Ġsp ina
Ġb iceps
ĠK ar
van gende
) -
Ġel ast
Ġhersen stam
Ġbegin nend
ĠSputum kweek
S ANDOZ
ul f
ĠHoe veelheid
ĠBe houdens
Be hand
Ġflex pen
di urese
Ġkl opt
sch oen
ĠH u
K an
Ġpub erte
Ġop a
RI F
j aag
oc al
99 99
su re
S L
ĠVag inale
pol iepen
ĠSp ecialist
ĠG VO
19 51
sp oeling
Ġlong parenchym
ast ing
Ġ17 4
om ib
Ġurine productie
Ġs ele
C ORT
ass ist
Ġre ageerde
AM OL
Ġgem elli
19 57
Ġmoeder melk
OL D
ĠPC O
Ġp u
Ġachter laten
Ġ it
ĠV R
Ġp el
Ġfles sen
Ġst aand
int erv
A H
Ġl ept
ĠBeper kt
ĠES BL
ĠpariÃ«t aal
Ġster oiden
Ġoste otomie
Ġsch ors
Ġingest emd
Ġbuismaag reconstructie
Ġbehandel de
ĠAnesthesietype Algeheel
Ġte kort
Ġas ymptomatisch
Ġspiegel s
Ġover matig
Ġsch oen
Ġnier falen
die et
ĠP ulmonale
ĠBij gaand
ĠEF W
ver andering
Ġd gs
W anneer
Ġrec es
des onide
Ġduidelijk heid
Ġtrim ester
onder been
ĠSU BC
Ġtr is
Ġschedel basis
ro ze
ĠPERSON anamnese
ĠAp paraatidentificatie
min uut
An g
vla mming
ĠB raken
Ġ3 50
Ġverte br
b aan
Ġwijzig ingen
Ġopge merkt
RET ARD
Ġdoorgankelijk heid
Ġrechter oog
m idis
v v
patiÃ«nt e
Ġvert igo
Ġsp oedeisende
Ġopge z
ecol lega
ĠD igestivus
ĠgeÃ¯ nt
Ġversch onen
oc ulair
A s
ON C
Ġsignaal intensiteit
Ġvererg erd
circ ulatie
Ġvle kken
ĠLichamelijk Onderzoek
Ġger aakt
n odig
E p
M an
12 4
ain ed
19 58
MT X
ĠI mp
ab latie
ol air
ĠM icrobiologie
se ssment
Voeding s
k aliemie
uc il
be sef
IEKEN HUIS
al cohol
ver volg
Ġstem band
Ġgevoel igheid
Ġbele g
Ġbeve st
Ġb ut
ĠHer stel
Ġgroe it
Ġgen oemd
Ġl ichen
Ġt aai
ĠPAP reparaten
ve iligheid
s stoornis
Ġap otheker
Ġcom partiment
Ġvoor behoud
alk te
a gel
Ġhulp middel
Ig A
Ġst am
ĠH CK
ib ratie
ĠDD D
Ġco herent
Ġge uit
ĠGeacht ecollega
mat isch
Ġhoe wel
k aart
Ġsublingu aal
ĠROS U
bev eling
atief ol
Ġstaan de
ING EN
an esthesie
) )
Ġopp akken
Ġbehoe ft
P SA
Ġaan vulling
Ġman ip
im mun
ĠN or
Ġkol f
ak ine
Ġspra ken
Ġle kken
Ġge co
Ġt artraat
Ġhoofd ligging
kopp elen
Ġhoofdpijn klachten
i ologie
Ġge contra
Ġvle k
Ġbegren zing
Ġon afhankelijk
ĠW onden
Ġ6 25
ĠM amma
Ġvervaardig d
Ġverwijz end
Ġ+/ -,
Ġpreren aal
ĠV III
hy re
ĠTra che
ĠAan gemeld
Ġgem eld
Ġontst ond
ro b
Ġ15 2
Ġpl atte
Ġhulp vraag
Ġer in
AD E
Ġra den
resp ons
ĠVl oe
ĠD raagt
Ġner gens
Ġkoel kast
am cin
we st
Ġnt b
up ple
Ġverb inding
ĠMitralis klep
28 88
Ġaf spreken
Ġnit rofurantoine
ĠJ icht
19 62
om ycine
ĠAp pendectomie
ĠOu de
ositie f
Ġ- /
romy algie
smal ling
Ġbelast e
Ġtr iple
con fig
Ġloc oreg
k erk
ĠAl tern
Ġvaat chirurgie
sept um
m n
Ġh aalt
ĠSonde voeding
sp eriode
ĠW hipple
Ġport io
Ġ9 60
on k
Ġk andidaat
zit romycine
ĠR I
Ġpancreas staart
ĠNeur ologische
Ġmitralisklep insufficiÃ«ntie
uz umab
ĠV L
IE MEN
Ġaft en
Ġgerust gesteld
geb ieden
Ġinfiltratie ve
act yl
Ġter t
Ġg un
Ġvet infiltratie
den de
ril on
Ġal l
Ġa der
N h
O x
Ġsu fheid
adequ aat
ĠHyp othyre
ar ch
Ġvor iconazol
Ġvloe istof
Ġwond zorg
n ooit
Ġc ase
Ġm or
qu ine
ron de
ĠP ur
Ġt roc
Ġzie ken
Ġap pelsap
Ġsamen gevat
qu ired
ram ine
ien alis
i h
apt op
sit u
ett age
ĠJ M
Ġw ig
Y NA
ĠZorg vraag
ograf ische
er ige
Ġpap ill
Ġverwij der
Ġca ver
Ġvacu um
Ġt ram
Ġind ic
Ġtrache acanule
Ġhuis artsen
serv ice
ĠB U
ĠKun st
imi be
20 5
Ġar g
c ou
ranul ocyten
ĠMaag hevel
Ġhier boven
YS IOTHERAPIE
Ġwaterdun ne
ot act
Ġtussent ijd
carb idopa
M H
Ġbronch iolitis
Ġdoor gebeld
different iatie
in st
19 44
Ġproef stop
Ġdis cus
Aan wezig
Ġref lexen
ĠVan uit
V AN
Ġlith ium
sect io
B H
Ġontwat eren
Ġp uf
ĠA z
2020 0
D osis
er men
h u
Ġlichaam shelft
ic s
Ġbere ik
Ġge des
Ġg y
Ġwen sen
it en
ĠVerricht ingen
age ale
ĠVerpleeg afdeling
ĠN eem
op ecia
ĠDruk pijn
eu ten
am ox
ĠL elystad
Ġep itheel
AAND AM
top pen
Ġ17 3
ĠHetero anamnese
Ġchol esteatoom
ĠTer umo
OPE DIE
ĠHeb t
Ġkinderneur ologie
o ve
Ġat t
ĠAllergeen Reacties
x x
Ġan ore
af h
Ġbrachi alis
amcin olon
ĠBloed onderzoek
ĠBe weeg
Ġpla k
n v
Ġover al
ĠVo eten
Ġab usus
ab ins
anc reat
Ġoproep en
IP INE
be oordeeld
ĠL MA
Ġap icale
hep atisch
ĠF oet
ĠConcl usies
Ġz uigen
Ġn oten
Ġl tr
Ġneuro gene
nec rose
Ġventr icul
Ġaf komst
av a
divid uele
ĠO RIF
al lo
Ġcoron ari
Ġtrache ostoma
Ġdonker e
Ġp ul
IE UW
oes oph
Ġz ink
unction ele
dur ale
Ġd iclo
15 4
Ġliquor ruimten
verricht ingen
Ġbehoor lijk
ĠĠĠĠĠĠĠĠĠĠĠĠĠĠĠĠ ĠĠĠĠĠĠĠĠĠĠĠĠĠ
di afrag
1 44
Ġuit wendig
Ġhydrox y
ÂłÂł ĠĠ
Ġap paraat
oec aal
MW H
bilirub inemie
Ġlam bda
E le
Ġbegrens d
Ġarter iele
ĠNS VT
d y
PE C
be sproken
Ġzo ontje
Ġgast roparese
Ġsub f
Ġventrik els
sver andering
erm ing
nam es
ĠPerineum postpartum
+/ -
kt ie
Ġim pressie
ĠP max
h ift
G H
Ġo g
Ġro epen
ĠâĢ Ļ
d ieren
op ulmonaal
19 45
man ent
Ġimplant aten
Ġeosin of
Ġf ull
Long ziekten
Ġoverle ed
Ġvocht verlies
Ġb rand
ĠDieet geschiedenis
ure el
di alyse
ĠHart hulp
ĠSt ern
in ele
UR MER
dr inken
Ġmes alazine
houdend heid
Ġleveren zymen
ĠMed ical
amine ctomie
s ign
12 9
sp reekt
ad rukt
rit eerd
w ang
Ġdi al
gele verd
Ġlong nod
t ak
Ġad juvant
ĠB ol
Ġemot ies
Âł ĠĠĠĠ
ĠC IC
otensie f
G er
ĠR CC
B OS
ĠNa ast
ĠT OP
EL S
Ġnacht dienst
Ġconst ant
Ġk re
Ġgele egd
ir olimus
g renzen
Ġeros ieve
ĠSp oelen
ĠW oon
v oc
stru ct
2017 15
14 1
ĠL ee
ĠBoven IJ
ĠGra vida
Ġox ytocine
Ġdien en
Ġurotheel celcarcinoom
Ġwaar neembaar
Ġt ax
ĠF lexie
ĠPart us
Ġbelast baarheid
Ġcaes area
Ġver goed
AV R
566 2888
Ġfoet us
N eem
F AC
19 99
Ġtoeval sbevinding
ĠMob ilisatie
k reeg
Ġim pliciet
ĠBel afspraak
ĠAV M
ĠM id
Ġzij ligging
ĠL ongembolie
Ġmuc us
os ide
Ġcol lecties
AT RI
Ġthuis BSN
Ġ16 3
Geslacht Geboortedatum
kle m
Ġam ylo
or ing
ĠDi agnostische
ge sloten
2017 16
Ġf uro
im p
bro er
Ġw angen
ĠCor onair
cell ymfoom
Ġhypotensie f
Ġgew one
Ġbasaal celcarcinoom
Ã« ren
hes ies
Ġge ef
Ġsp inale
Ġt w
Ġneon atale
ĠD insdag
Ġterug koppeling
Ġmamma e
h off
GL YC
27 14
56644 58
Ġinfarct en
be velingen
Ġsch one
ops oas
om alacie
b N
Ġnab e
Ġlymf ocyten
Ġeic el
V Z
ĠHer kent
ist ablet
Ġs k
D aar
Ġrect os
2 100
Ġsco oter
ĠGeh uwd
erv atie
24 0
Ġverlen ging
LA AT
Ġhi atus
ĠOrth opedisch
bet rokkenheid
Ġdo wn
ĠV ind
st omie
or al
r algie
t x
Verst oorde
Ġmelk producten
ĠG leason
Ġtons il
i oen
Ġmorf ologie
ic ard
Ġonder kaak
Voor bereiding
Ġglomer ul
ĠRechter arm
Ġc ro
Ġbe zorgd
ĠA E
Ġpsych os
Ġn odi
ĠPsych isch
ĠD S
assistent Cardiologie
Ġop kn
Ġaf leiding
Ġmethyl prednisolon
ge e
T EVA
ic il
22 2
ĠVerd raagt
MR C
Ġopgez eten
pos ure
Ġde br
ĠÂł ĠĠĠĠ
ĠMe isje
Ġab uis
ĠgeÃ¯nfect eerde
Ġgesch eiden
ĠI p
ĠAD HD
YNA EC
ofarmac on
Ġspond ylodese
Ġver dient
av ide
Ġhorm onen
Ġhypervent ilatie
abins ki
cent age
ĠH UID
ĠAM STELVEEN
Ġ4 4444
Ġt ast
Ġdocument atie
Ġpar kinson
ĠZiekenhuis probleemlijst
af wijkend
mob iliteit
Ġuit wendige
Ġcon ch
gecon stateerd
Ġbijnier schors
Ġpolyp osis
der ende
ĠHart tonen
ĠHART BEWAKING
Ġl ienalis
N ier
Ġzuurstof behoefte
ĠO X
Ġvrouw elijk
ĠL idoca
ĠX ience
ĠW illen
Ġe cg
ĠZ intuigen
Ġpol itie
ĠStop datum
bo er
Ġepilept isch
ĠP os
hou t
Ġ44444 44
u va
13 4
J A
Ġhaar uitval
Ġf leca
ĠSec ond
an est
Ġop merking
Ġbloedings neiging
Y K
ĠGeest elijke
Ġspoed ig
up pletie
mov i
uc le
er etentie
e ven
Ġl opend
Ġgest aan
Ġber oep
ef laag
Ġo lan
Ġint olerantie
ĠIs olatie
m ult
Ġi cterisch
ced urele
66 0
el end
Ret iculocyt
Ġbevest igen
S igaretten
Ġbot lap
Ġgen derdysforie
off e
bij menging
re visie
Af spraak
erd reef
Ġp ir
ss onde
ĠC X
snel heid
Ġa ir
ĠPers isterend
bronch us
Ġpar ap
L ocatie
Ġk Hz
ind weefsel
inds bewegingen
Ġgemidd elde
p aar
ec lampsie
hy g
ĠL ucht
UI ZEN
med ic
Ġwand bewegingsstoornissen
Ġezet imibe
Ġbij zijn
Ġco unseling
Ġtol k
ĠM IB
Ġex pressie
ĠEiwit Kwal
af actor
ur d
to ilet
Ġin loop
Ġme atus
ĠAlcoholgebruik Nee
art eri
Ġb uigen
Ġan ale
Ġb aden
13 3
URMER END
Ġtoege past
G b
19 60
Ġeind resultaat
em el
em bol
Ġtoen eemt
ĠH ERS
G astro
ĠSt and
in clusief
psych oloog
Ġgrap ef
k uren
ĠM idazolam
met h
Ġopgeb ouwd
Ġmu ziek
Ġkw ad
6914 300
Ġe i
Ġrecept ie
om eer
Ġsh ampoo
Ġsp len
stel ijn
Ġbro ek
ĠRu im
Ġsens or
ĠF lex
Ġfl ix
Ġaan prikken
Ġpath ogene
19 61
Ġadem arbeid
Ġcomponent en
ĠP N
Ġna controle
ĠPs oriasis
erp ret
Ġp iep
nef ropathie
] ,
Ġh oof
K EL
Ġhoeveel heden
ĠAt or
** *
ik e
Ġinf ra
Ġal vorens
as men
Ġhet er
Ġdivertic ulose
ĠS ERVIC
ĠPOL IDERMATOLOGIE
Ġmann elijk
Ġverz onden
Ġlidoca Ã¯ne
Ġile o
movi COLON
ĠP DD
a uto
B T
R TH
Ġadip eus
Ġgesch iedenis
ĠBe oogd
mat ische
cereb rum
su d
Ġtran examinezuur
Ġf ellow
Ġ26 49
hol e
y e
ĠAANVULLEND ONDERZOEK
Lateraliteit Datum
Ġvert raagde
RO G
Ġrel ax
oor ten
aden ocarcinoom
Ġobstru ctief
ver wond
Ġdie per
ĠInter face
Ġc ele
Ġcon junctiv
Ġcontact gegevens
Ġbacteri Ã«le
ĠN ad
Ġing rij
ul are
Ġbe houd
ĠS e
23 00
ui ven
Ġw ind
ĠL itteken
ile us
ĠD un
Ġover gegeven
Me vrouw
Ġl ing
ĠE MD
Ġdraag ster
ĠPerif erie
val v
oc i
Ġdarm lissen
Ġk r
B ES
on ing
ĠI j
ĠROSU vastatine
ar it
oro quine
Ġtaalb arriere
Ġgest rekt
s itis
er on
ĠS L
Ġhart revalidatie
19 64
p athologie
Ġfer ro
g ast
Ġper in
ĠT BV
Ġpro vocatie
Ġpers isteren
Over name
Ġile oc
Ġc at
Ġsom mige
pol iep
v z
is men
Ġas drukpijn
z ier
ĠS yndroom
z omib
Ġtroeb el
Ġcardi ologisch
Ġve zel
Ġint elligen
hemat oloog
Ġcirc ulatorius
Ġstro ke
ren ale
Ġevent s
EP UNT
UP PE
ANT US
H oog
CAPS ULE
Ġperi od
la kt
ĠJ ongen
ĠDi ver
ĠCHAD SVAS
ĠBed rust
Ġhoofd huid
at electase
Ġlu kken
Ġh akken
Ġc ox
Ġfa eces
p unten
b aring
pens ioneerd
ĠW oensdag
D L
Ġbif urcatie
Ġum bil
Ġpol ym
yn ch
Ġvoor werpen
b y
Ġy ou
S K
ĠOog druk
ĠVo ert
566 2714
Ġuit gevraagd
Ġf ec
Ġap paratuur
Ġd aalt
Ġonge val
yel in
19 63
cyt ologie
Ġdoppl ers
Ġinter stitiÃ«le
ĠH il
ĠS im
Ġpneumon iae
20 9
operatie s
Ġf ailure
ĠEn ergie
in ator
ĠCT S
m erdreef
vers um
zyg oot
5669 704
-------- ----
Ġelekt ronisch
el ier
Ġnacht kastje
ol izumab
Ġoplaad dosis
676 28
ĠS coop
Ġph arynx
ad a
vag inale
s erie
echt gen
g lob
Ġwel kom
Ġorth ostatische
Ġal ien
ĠIn brengen
Ġcereb ellum
in opathie
op per
69 67628
Ġtal us
Ġschiz ofrenie
v indt
Ġl ob
Uit gebre
nie uwe
ĠB ur
ul erend
ijks vaccinatie
20 2010
sh ock
R adi
RO X
Ġmultidisciplin aire
b ogen
J J
Er g
Ġplasmac ellen
la ger
E ID
Ġrot atie
Ġmeege kregen
ĠG l
Ġa a
Ġlinker oog
ĠSal butamol
od isc
ĠO s
ĠL WI
ĠGV HD
Ġvertebr alis
ĠOver zicht
ofen ol
oser ingen
sol idatie
ĠP ancreas
em orale
Ġap neus
iz er
Ġstuk s
ic ap
Ġb ou
69 13
15 9
Ġs cop
Ver m
Ġheer lijk
Ġclo zapine
omet rium
urve y
Ġvas ovag
ÂłÂłÂłÂłÂłÂłÂłÂłÂłÂłÂłÂł Âł
Ġextre me
V III
o actieve
E US
m ann
ide erd
K ING
ĠCon junctiva
Ġpersoonlijkheids stoornis
J VLST
Ġ25 00
Ġnot eren
kle ine
bl ock
gest opt
Ġb an
ĠAN IOS
Ġaan beveling
Ġap neu
em ende
ĠAf stand
Sluit ing
Ġcl ostridium
Ġob lit
in suline
Ġopge laden
Ġorig inele
Ġdens iteit
END OSCOPIE
ĠAan gezicht
ĠAK I
ĠOn geveer
15 5
ĠL IMA
Ġdra gee
Ġsym m
56695 97
ing er
Ġref eeding
ĠAD S
Ġro ut
Ġon comfortabel
15 2
emb rol
ĠamLOD ipine
V ia
re sten
ĠGE ANNULEERD
ed antie
ra sm
Ġreanim eren
Ġverminder ing
Ġrest erend
Ġcr yo
to y
Ġcardiomediast inale
ĠTriglycer iden
ĠF oto
Ġdelir ant
ĠToe gang
ĠBijl merdreef
Ġauton ome
ies o
roe gen
stand aard
ot ec
ĠSUBC UTAAN
Ġver ificatie
Ġgevoel ens
Ġperic ardeffusie
Ġb y
Ġsnel heid
EG EN
Ġverander de
ĠTuss endoor
ĠGedilat eerd
Ġran itidine
ĠVir ologie
Ġt et
ĠActueel MedicatieOverzicht
Ġgesla cht
sm urale
Ġro zen
ĠPar amedische
Ġdo ch
Ġp ob
end ocrinoloog
ĠAtor vastatine
an dere
lu lair
Ġisch emisch
on ase
Ġoog leden
Ġs nee
19 43
Ġleuk openie
Ġpremat urus
be ide
be geleiding
ĠEetlust Resultaat
IG EN
an opsie
ĠReum atologie
Ġ2 20
Ġbloed en
elat onine
yna ud
Vol ledig
ĠGed rag
Ġadres H
ĠP unctie
Ġolan zapine
ĠSom atische
verteb raal
man ager
Ġhypot onie
rof iel
vol ledig
ĠP PV
ark eerd
ob ank
Ġin wendige
ĠUl cus
t raining
sp annings
Ġat ypisch
ĠB elt
ĠK M
Ġsp rong
ĠH J
Ġsc ores
) =
ĠEle kt
rasm us
ran sf
Ġkraam bed
ch em
sl ik
ĠAmstel land
Ġc ir
assistent Gynaecologie
P te
Ġmis lu
NE U
le in
S EL
2018 0
te kst
Ġar beid
Ġlac eratie
in spectie
Ġna delen
Ġk oort
st ase
zit tend
Ġaorta e
Ġop sturen
RA M
Ġtum oren
ĠK INDER
th oracaal
H UL
unction eel
ĠContact overstijgend
Ġhe ad
Ġlaag gradig
Ġmy ositis
I TE
Ġtwe eling
Ġ15 3
Ġvit rectomie
Ġech or
AG N
T PV
B M
volgt raject
OP H
lamp ati
Ġsim pele
Ã¯n vloed
Ġelect rolyten
Ġper indopril
di meer
EEK END
Ġmen iscus
6913 850
Ġpar as
Ġlim onade
Ġspast ische
odisc itis
is ie
Ġtib ialis
Ġ1 111
ĠKen nis
Ġmusc ulus
hel der
UT S
14 6
adem d
h ernia
Ġger iatrie
un ning
Ġsn otter
arg ine
Ġva ders
Ġin situ
ĠN eut
Ġged raaid
Ġremm er
Ġbru istablet
ĠWerk diagnose
Ġval pro
? /
n otitie
um er
Ġel lebogen
lines hift
ĠH I
bij v
Ġren ale
ĠBelast e
Ġparan asale
el le
Ġons et
ĠN MS
ĠRe sectie
int oxicatie
Ġorthop eed
Ġn och
is urie
ĠF ysiologische
Ġbaar moeder
? ,
Ġp ie
Ġeet stoornis
ĠIU I
Ġfles voeding
ĠDiagnoseDatum geconstateerd
Z on
ow ieso
min atie
ĠC M
ĠC ARD
ĠT ong
od ulair
Ġaspergill us
bestrijding Resultaat
ĠEn ergy
Ġextra hepatische
Ġin vent
Ġz sm
ĠB IJ
erv aring
Ġl es
Ġp p
omen inge
Ġj arig
ĠVerrichting LateraliteitDatum
Ġcardi ologische
Ġslik functie
Ver wacht
t ijdens
ĠNederland se
ĠB u
Ġwij ze
ĠOnder voeding
BR EN
ĠL ink
ĠL ate
Ġgek weekt
NO VO
Ġmesenter iale
Ġritme stoornis
Ġple uritis
THY RAX
Ġpra vastatine
Ġkrit isch
usc ulaire
produ c
sver schijnselen
ĠL MWH
dist ale
osom aal
her sen
ĠPP PD
ru its
Ġdoor braak
Vol gens
ĠSERVIC EPUNT
Ġhoor bare
Ġcor d
ĠBloeds uiker
Ġbesliss ing
ET ICA
var ices
gebruik t
Ġrel atieve
Ġhydro cefalus
ĠEr vaart
ĠBL WI
Ġpap els
ĠL arynx
Ġad hesi
Ġs a
ĠĠÂł ĠĠĠ
ĠGEN EESKUNDE
BR IEF
Ġp auzes
remm ing
age ment
Ġwij de
D A
gra ves
h uizen
er ken
Ġgem iste
hr itis
e et
gi fte
ĠHemat ologisch
Ġdoorg ankelijke
Ġwerk ing
f erentie
ĠF eces
Ġcol lab
Ġfront alis
orb us
R U
Ġaf standen
Ġorthop noe
ic ca
ĠM RA
Ġrozen olie
Ġhem orrh
be weging
ĠEMD R
Ġv ed
Ġretard atie
Ġsuggest ies
Ġbe ademen
ĠM Y
oesof agitis
ĠLeuco Kwal
kker ig
Ġcut is
Ġvervolg zorg
Ġgeinfect eerd
ĠAl tijd
accin eerd
V oelt
Ġom zetten
or sie
Ġstraal t
sor ptie
Ġv at
Ġcircum sc
Ġc le
ĠT and
ĠN YHA
os i
Ġwaar sch
ĠDe compensatio
ĠR a
ric ker
Ġfiss uur
iÃ« ctasieÃ«n
OL IN
Ġverst reken
Ġpoliklin ieken
id ipine
ef a
Â ·
Ġreumato Ã¯de
Ġnas i
Ġcardi ac
Ġtra ctie
Ġf ysiologisch
io iden
Ġsinust achycardie
Ġt ill
Ġ ili
Ġal kal
Ġg abapentine
19 90
Ġgecalcif iceerde
ĠA dd
AS ON
c ath
l ichaam
IEN ST
z uilen
atrium fibrilleren
Ġnee f
ĠN I
ĠChol esterol
ocyt oom
ĠE nter
ind icaties
Ġfer riprieve
Ġkinderneur oloog
Ġopge vangen
ater alen
Ġvoet heffers
hi lair
Ġp akt
ĠT F
ĠLe vel
Ġbact eriele
Ġext irpatie
Ġgevoel sstoornissen
ĠAC ETYLSALICYLZUUR
ĠK N
Ġ15 7
Ġp hal
ĠP ANTOPRAZOL
pr ikt
ree kk
YNAEC OLOGIE
Ġaf doende
ĠMac rogol
ĠO E
iferatie ve
ĠC PK
UR P
per idon
umb aal
sl orat
Ġst ag
" ,
Pol ikliniek
Ġbesch uit
Ġtrans itie
Ġlong kanker
ĠWerv elkolom
ĠH z
Ġech ocardiografie
ĠDen ken
ĠAZ GPE
acht ige
EP RA
Ġcall us
las ma
Ġpo int
ri ve
Ġdoor heen
if iceerd
Ġh aren
ER N
Ġmy opathie
Ġinf erolateraal
ÂłÂłÂłÂłÂłÂłÂłÂłÂłÂłÂłÂł ÂłÂłÂł
Ġlever parenchym
Ġbru ine
Ġpt osis
ra ft
A E
St oppen
ach irurg
p oint
AG E
elt je
Ġovar ia
i ance
ĠB P
Ġwe st
neg atieve
Ġon wel
Ġplat liggen
Ġacc oord
al asie
ĠD OOR
Ġra ken
Ġgez ocht
Ġwor k
o z
s aturatie
ĠP omp
ĠSle cht
Ġverzekerings bewijs
ons illectomie
Ġmuc osale
11 3
Ġher kend
ĠLang dur
il aterale
Ġt aveg
ĠHoofd tekst
pro cedurele
Ġlog o
in er
19 85
Ġverzorg er
Ġurine Resultaat
ĠE czeem
Ġam ylase
over dracht
Ġopt icus
anth eem
Ġra sh
Ġfen omeen
ĠLe vens
OOG HEELKUNDE
D OL
Ġsp aarzame
Ġhumerus fractuur
K N
album inurie
Ġk oken
Ġb indweefsel
BO Z
Ġneut raal
13 8
Ġor is
Ã¯n urie
Ġhong er
lyk emie
ron ic
gen en
Ġverbeter t
Ġving ert
Ġmet ap
es ens
ur et
st rek
Ġom gaan
Ġgland ula
Ġge vulde
Ġi atro
Le ver
f erese
Ġf lanken
U UR
ĠGynaec ologische
H el
Cardi o
D ochter
Ġintest inale
ĠAv L
Ġaan kn
ax ine
lies scheur
ac raal
ĠR X
iet rouw
ENS IV
PLE X
ele ase
Ġzoon s
ronch iale
ĠLinker arm
Ġoog druk
Ġmakkelijk er
des artan
Ġfil m
Ġm ap
Ġvergeet achtig
ivaca ine
le i
lan der
Er n
im eter
gev raagde
EC ON
ĠVer band
Ġeier stok
ax iale
ĠGe screend
Ġverd iep
ĠTh erapie
om vang
19 98
Ġaan raken
ĠRect um
et a
ĠUMC G
Ġstij gende
ĠErn stig
etan est
ont stekingen
osc reening
ĠVRA GEN
Ġhem orro
44407 15
Ġaandacht ig
Ġsol itaire
L i
ĠP NP
Ġl aminectomie
iÃ« ne
Ver los
Ġelekt ro
Ġ ...
Ġamiodar one
Ġfijn gemaakt
g raag
ĠPERSONP rins
Ġcalcif icatie
29 5
H yp
Ġa dipositas
Ġkra ak
ĠS OLK
Ġdi agn
Ġsub cap
ell ose
requ ent
Ġcefotax im
Ġf eest
ĠK L
vir ale
Ġge groeid
ĠCogn itie
zak je
service zuilen
our ce
ĠK erk
Ġdysp n
be i
of onie
ĠB org
T otaal
Ġgroen e
ĠTotaal score
no isch
Ġthal amus
Ġple zier
BER EID
Ġd ame
eel t
Ġach illespees
Ġeff usie
Ġgroot cellig
ĠVen flon
Ġsh ort
Ġpijn prikkel
Ġdubbel loops
Ġextre em
Ġmid lineshift
Ġsch rift
Ġvoor over
Ġerg o
Ġam oxi
uc atie
il ine
ig ingen
al a
Ġst ase
DiÃ«t istische
ali platin
Ġmis match
ĠGewricht en
Ġlever t
le zen
12 3
Ġs ling
Ġ19 85
Ġh ilus
D u
Ġinschrijf bewijs
Ġcas us
Ġc ic
Ġbl ik
Ġjeu kende
ic ulitis
Ġaan maak
ic olon
Ġvl otte
Ġstom ap
03 2
Ġp a
2017 7
alcif icaties
ĠGest opt
ĠRel igie
is oc
ĠPro gramma
tra ging
Ġb atterij
Ġop vlamming
Ġpol lak
Ġleuc ocyten
kk ige
ĠADV IES
19 65
Ġkap sel
ĠM CT
Ġ10 82
Ġf alanx
Ġk opie
Ġgl argine
Ġfemur fractuur
Ġfor amen
U rine
Ġp eg
Ġprop ranolol
Ġintracereb rale
Ġvoeding sproblemen
ch ec
Ġimp ul
Ġlog opedist
Ġfl atus
te kende
28 1
ĠD F
ĠMED ISCH
Zelf standig
ĠP m
Ġr elevant
as part
Ġhem orrag
ĠB re
Ġurine zuur
w ard
spir eren
ĠLog opedie
Ġb ody
Ġtran splant
Te vens
Ġvet weefsel
d gn
ĠSt andaard
lok alisatie
I X
u ime
Ġcercla ge
Ġaan staande
of lebitis
Ġs w
Ġmiddag s
44 1
o ir
od yl
vul sies
g aris
Ġass istant
Ġslecht horend
EPRA ZOL
iel d
if est
ĠF en
ĠH eer
Ge h
Ġper fect
Ġoesophagus carcinoom
ak king
Ġmis oprostol
Ġbra akt
on gt
Ġop hoging
ĠC LL
Ġ are
Ġverkort ing
ĠDoor g
ĠO ES
ĠAf wijkend
ĠIn ge
Ġnorm ocytaire
voe ging
ver wijzer
ĠAMC ENDOSCOPIE
Ġstoot kuur
M icrobiologie
Ġver dicht
sp oel
B CL
ve x
C or
ik elen
================ ================
Ġna ev
Ġgaas je
Ġbe ant
oc clusie
s et
im iek
Telef oon
Ġw w
Ġper ib
Ġz oster
Ġaf b
Ġanesthesie beleid
zak ken
Ġopper vlak
klasse Sluiting
Ġde slorat
bijn ier
Ġkl op
Ġ18 4
Ġp in
LA X
Ġknij pkracht
ep ith
Ġvast ge
BEREID ING
ref lexen
hepat ectomie
Ġres istentie
ST ER
hyl ococcus
Ġgli oom
V AG
Ġuitge zet
lapar otomie
ĠB aby
Ġchec ken
p o
Ġper ine
Ġcom put
ĠD uplex
11 9
Ġdys kinesie
toy age
Ġref lex
ib iliteit
Ġpost mortale
Ġbet ablok
19 92
g ips
Ġv icryl
Ãĭ LE
Ġdy slipidemie
al ert
Ġ11 81
Ġcompens atie
Ġincisie Anesthesie
ĠS in
oscop ia
ĠR ol
chl oroquine
iss er
Ġken acort
i kend
Ġt rouw
Ġconsult atie
Ġaspiratie pneumonie
Ġhand pal
ĠCor on
p ale
Ġlees baar
ple et
L R
Ġver plaatsing
Ġnier biopt
Ġluier s
Part ner
ĠE ffect
B J
ĠB MD
YL AN
Ġaankn oping
Ġhuis houden
pl ug
at emie
Ġk iest
Ġw inter
embrol izumab
p otje
ĠV OS
in cisie
Ġben utten
Ġtill ift
Ġk etamine
Ġver slikken
erd ocht
it z
Ġon begrepen
Ġrec on
ann uleerd
op vang
are chts
12 6
Ġhorizont ale
19 95
Ġon regelmatige
E iwit
oc el
ĠAf wijkingen
Ġk osten
idd elde
Ġbe Ã¯nvloed
Ġor ch
Ġhersen metastasen
Ġaf ronden
Ġ19 89
m orbiditeit
Ġmedic atier
Ġhersen bloeding
ĠIJ zer
F VC
Ġbi opsie
ĠAc etylsalicylzuur
ĠCom b
aan kleuring
ardi ale
ad icatie
ĠHemat ologische
ĠOntslag datum
ĠH oof
ang uin
Ġvergel ijken
Sm art
Ġtr end
ĠT efa
Ġb lank
ĠAmbul ance
Ġn amen
id ula
ĠBelast baarheid
gro ot
door ademen
at t
ĠHaar lem
Ġbij gevoegd
Ġsp ect
29 4
ART AN
k amp
Ġbehandel beperkingen
ĠO oster
Ġa VF
Ġver pleegkundigen
Ġ15 1
Ġrest erende
Ġinter pret
Ġinfiltr aten
UPPE LS
Ġgeoc cludeerd
Ġoverbrug ging
ĠSch a
ĠpatiÃ«nt instructies
Ġgeassoc ieerd
y xie
ok aal
Ġr illing
Ġneus passage
al aan
ĠVoor lopig
Ġlater alis
Ġlucht wegen
Ġst ri
Ġoog zalf
ĠC olon
Ġsubopt imaal
Ġbe sluiten
ĠPatiÃ«nt klasse
US S
Ġfl are
Di ff
Ġseksu eel
ĠR NA
Ġleveren zym
cre me
il and
19 84
Ġlok atie
Ġvert oont
ĠDieet kenmerken
rax i
ab dom
ub b
rom ellose
Ġsituatie s
Ġ18 6
al d
opt ie
s on
ĠIn structies
Ġn eb
ibratie zin
Ġsp annings
adequ ate
Ġ10 91
ĠLe v
P ulmonaal
ug ularis
F L
ĠS ol
ĠEch ografie
Ġ+/ +
Ġvoor gesteld
om ast
Ġbio ch
gi oca
19 97
ĠBelang rijk
Ġhuishoud elijke
ocardi ale
Ġmitralisklep insufficientie
t ips
op auz
ĠBe geleiding
P N
Ġgen itaal
Ġbij starten
56634 00
Ġrisic op
z innen
vol king
Geb ied
assistent Dermatologie
Ġboven staand
iafrag ma
Ġtro k
ier ing
Ġ16 9
Ġarg ument
Ġhuis stofmijt
Ġar rest
Ġdyst onie
Ġhosp ital
all y
ipel as
Ġtoe gestaan
Ġvis u
4444 5
ĠToediening stijd
Ġt reden
Ġverstand elijke
Ġf ent
er ine
vrij e
cor d
ĠAl zheimer
ĠM ild
Ġpra esens
as je
c ard
il ol
ĠV ES
z aal
Ġkalk houdendheid
Ġal weer
result aten
Ġf arynx
a G
Ġmult ivitamine
ĠF ocus
444 08
m aker
ĠJ e
Ġvesic ula
Ġwerk er
19 86
Ġknie prothese
Ver pleegkundigen
schrij f
Ġgerust stelling
Ġco operatief
ap h
Ġsupra pub
at ard
op lasie
Ġontsluiting speriode
ĠC eftriaxon
laf axine
Ġv v
ĠBeg on
Ġatr ia
ĠVoor keur
Ġvul garis
ĠO l
b c
ĠDe vice
verteb rale
Ġtran sp
ĠPur merend
u les
Ġcap t
ĠM olen
ĠP AR
i oloog
Ġc et
s eld
IT RI
Ġco umar
ruits ap
M ate
UR S
Ġimplant aat
19 88
Ġm ama
p H
dd orp
Ġoud ste
ition eren
ĠHERS ENEN
telef onisch
da gelijks
Ġven en
defici Ã«ntie
z uid
ĠV BV
Ġover st
âĢ¦âĢ¦âĢ¦âĢ¦ âĢ¦âĢ¦âĢ¦âĢ¦
Ġvernevel vloeistof
Ġmy omen
V rouwenziekten
ch ond
S U
RI J
ma DOL
Z e
h aard
ĠB H
Ġstro op
ori enteerd
Ġieder een
zend ing
Ġepis oden
e GFR
ĠR omp
W ij
S LE
ĠA A
ĠC re
m sec
Ġcontra staan
ĠVriend elijk
Ġlab controle
Ġges upple
BREN GEN
Ġven flon
44411 60
BER G
ĠFol der
ĠZ uid
vz m
v ie
Ġintensie ve
Ġgede com
Ġ28 50
A t
ĠL ens
Ġm erkte
Ġp ept
Ġdur ft
de els
Ġf ont
ĠSt em
15 00
on em
urin eerd
ĠErg otherapie
ĠOpname gewicht
Ġs ap
Ġinvas ief
Ġge merkt
Ġdraaidu izeligheid
19 42
Ġint ro
ĠDist ale
ĠHom ogene
Ã«nt erend
Ġp ain
ĠT ip
ĠFoet aal
D a
ĠAD D
Ġneurop sych
al ken
ĠHR CT
re erde
ĠZ aalarts
Ġschildklier carcinoom
Ġs o
Ġna geboortetijdperk
c entrale
Ġf rag
ĠDL CO
Ġherhaal de
Ġbehandel aren
icoagul antia
o Ã«
op namedatum
ĠOp genomen
oper ateur
ĠDiabetes Mellitus
Ġzw acht
ĠO raal
19 87
Ġt ent
ĠincisieAnesthesie Op
Ġgeb rek
uls aties
ject eer
hoe wel
Ġverb ale
erpret atie
Ġwij zen
Ġ19 80
19 80
lo od
ĠVer wij
Ġradi ologische
Ġ- ----
Ġlinkerv oet
e z
Ġpr en
Ġaan vullen
ap otheek
of yt
ĠIn structie
ent ransfusie
S amen
Ġbet rof
Ġopgel ost
T O
ver kal
Ġaf wezige
AC U
zek erd
Ġb oor
Ġad hesies
ĠVoor heen
Ġautor ijden
lux us
Ġdruk kende
ĠVer volgen
Ġkanaal stenose
ĠPsych ologische
Ad res
ĠAS S
Ġdem yelin
ret e
Ġpijn geneeskunde
ĠGewicht sverlies
ĠU O
Ġg ym
ĠN otities
Ġro su
ardi aal
val gin
er baar
Ġc rac
ĠB ra
sla ap
Ġcr y
Ġaneurys mata
Ġdoof heid
ĠpatiÃ«nt veiligheid
im um
ut erien
ÂłÂłÂłÂłÂłÂłÂłÂłÂłÂłÂłÂł ÂłÂł
Ġon gerust
Ġex positie
EV AR
ved ilol
ys ipelas
Ġtop s
St op
Ġgrapef ruitsap
ĠC x
T huis
2017 3
re igend
Ġj ij
ĠMS H
Ġgesp oten
Ġvol gde
AT RIE
over vulling
ĠOb esitas
ĠSt elsel
arc ering
o ul
in suff
19 66
p ig
kw aliteit
ĠMCH C
E igen
n oot
Ġtra maDOL
Ġbl ind
Ġble ven
Ġontsteking s
Ġdaar in
Ġverb lijft
tijd elijk
ĠZenuw stelsel
44411 70
Ġfen procoumon
Ġnitro GLYC
Ġbloed end
Ġdis c
Voedings advies
k osten
romb ocyten
sp oed
Ġp ink
Sp aarne
Ġc lob
Ġvoor gedaan
C ARBONAAT
Ġopget reden
RM AG
ĠF NA
gem ent
ĠAV L
Sl iep
Ġneo adjuvante
Ġpap illair
Ġaf sluiten
bep aling
in eren
Ġperone us
Ġgelok aliseerd
ĠTromb ose
Ġre izen
Ġ10 71
Ġoper eren
W F
am azepine
19 91
lo ge
12 1
yp T
ĠVer ne
hil ips
Ġanest hesist
Laat stereferentiebereik
P rim
Ġh uil
otion ele
Ġh ant
Ġos mol
Ġtoedienings lijst
Gebruik t
iel inks
ĠInfectie us
Ġp igment
cin tig
Ġmedicatier ol
waar des
ilig o
Ġverk alkte
Ġan o
Ġverslag legging
ĠP URMEREND
Ġx yl
ĠBI RADS
Ġster iele
ĠNW Z
ver los
ver vangende
Ġw enk
oem elk
Ġduur de
ĠCl onidine
Ġcoron ale
Ġtons illectomie
Ġd oc
en se
ĠS copie
Ġverb re
cyst en
maal tijd
Ġl ep
ip atroon
Ġbot structuur
Ġimmunosup pressiva
RI VA
in ide
Ġuit gang
ĠEvaluatie moment
Ġsp in
20 2014
G ed
ĠA x
Ġfist els
sc on
Ġdoor lopen
ve st
onge val
Ġk am
Ġradius fractuur
Ġtampon ade
Ġdoor gestuurd
ĠProductie datum
Ġorth opedisch
ro id
B MD
Ġh ar
Ġd elt
mp je
Ġstere otact
op exie
ĠAV R
Ġinformatie voorziening
y di
KER K
Ġth iamine
Ġ+ ++
o h
ĠStern um
Ġn atte
get ica
Ġa qu
Ġhyster ectomie
Ġsnotter ig
ie en
elt jes
Ġm eg
Ġme ed
L EVER
iaz em
Ġcarb omeer
ĠON O
ang io
ke y
Ġ ÂłÂłÂłÂł
spro bleem
ĠCAP OX
Ġa zitromycine
Ġdur ante
om ac
ĠSPE CI
TRA R
Ġbewegings beperking
ĠC MP
ĠMedi q
Ġcr uris
yth erapie
Ġkram pende
Ġo om
ĠHer senen
ic ulatie
AM L
ĠPro ef
EH H
Ġh open
P as
hyd ram
ĠJ ude
ige en
Ġlept omeninge
w agen
tem peratuur
ver zoek
P laat
ĠI OM
Ġloc alis
Ġtoediening stijd
odig de
in i
Ġimmob ilisatie
in tense
Ã¶ nt
n ol
Ġt ypische
h oven
Ġcl ip
Ġgedeelt elijk
ĠVer wacht
Ġa sf
Ġbeweeg lijkheid
Ġkraam vrouw
a derd
ĠPERSON Chemie
ib el
Ġven ac
Ġdes aturatie
ĠAan bevelingen
R ectaal
v et
om pens
ĠUrolog isch
Ġpar alyse
atin ib
lever kwab
19 83
IN OX
Ġvert rouw
ĠProp ofol
Ġ18 8
R ed
Ġge tra
ver anderingen
k eren
ĠK CH
Ġaanknoping spunten
gen oten
EM S
Ġp eep
Ġverl iezen
s clerose
emat euze
Ġre va
Ġcor rect
ĠG S
Ġmyc ofenol
Ġnef ritis
d ood
s ed
k Pa
ĠPOL IG
H IV
in el
Ġ"" ,
Ġpollak isurie
I om
dicht heid
Ġoc ulair
Ġg ingen
Ã¶nt gen
s huis
ĠHep arine
B eg
p ulmonaal
Ġk ary
ĠAV F
t oen
inte g
ĠL N
Ġmet a
Ġbere id
Ġonzeker heid
W il
Ġneutropen e
g aten
ĠCRP S
PI RIVA
ĠV rolijk
OR TH
el ke
G ra
el leboog
ĠVooraf gaand
Ġsuggest ie
ĠPhys ician
Ġge urineerd
pl eren
ode s
cl ip
Al cohol
Ġmacro scopische
il ity
age s
ĠC OR
Ġpremat ure
Ġleeft ijds
na ast
Ġtoedieningstijd stip
Ġop gevoerd
Ġveel al
ĠW ens
Ġlev oc
Ġr ifampicine
ĠNaam patiÃ«nt
la ging
klier dissectie
Ġrevalidatie geneeskunde
ĠM aak
Ġsuggest ief
pense erde
ĠOver vulling
Ġaortaklep vervanging
in oom
ste un
Ġge acht
op oside
Z intuigen
Ġgep lakt
in tern
ĠR en
ĠO M
ĠP aar
Ġuw i
LO X
Ġprikk els
ĠC la
ve stig
Ġaange pakt
Ġ18 2
ĠRhin oscopia
Ġrand om
wand verdikking
if osf
re a
Ġvrijw illig
U C
ĠS ur
Ġdraa it
Ġbeadem d
Ġt oel
Ġt ien
ĠNaampatiÃ«nt GeslachtGeboortedatum
z al
ĠpatiÃ«ntendossier Mijn
ĠB laas
ĠFib ro
m yel
itatie klachten
ĠPOL IV
Ġl ens
PL AN
ĠF armac
ilt iazem
Nu chter
inv asie
ĠPatiÃ«nt ervaring
O O
Ġman uele
Ġaanval sge
Ġaden osine
st il
Ġk olon
all er
W IJK
hoe ft
Ġvoeding ssonde
ĠB lad
of ovir
Ġbu desonide
occ ipitaal
P ers
Ġa uscultatie
ĠH CM
Ġopt imale
em peratuur
Ġkeu ken
ert r
vit amine
Ġschouder bladen
Ġcereb ro
Ġm iconazol
schrij ft
ot erol
ĠM it
Ġpat ch
ĠSluit ing
Smart Links
Ġret enties
ĠIC SmartLinks
r s
ri aal
Ġuret eren
apar otomie
ĠHoorn Nh
el ders
Ġonderhouds behandeling
x t
12 2
Ġleesbaar dheid
be wegen
behand elaanwijzing
Ġbegele iden
Ġdra den
Ġdysmorf e
Ġtuss end
w achten
th er
Ġhiel d
Ġver s
Ġleuk ocytose
G ranulocyten
Ġopt illen
Ġvergelijk baar
Ġhap jes
sk etamine
on aal
Ġmeld ing
verwij dering
Ġe isen
Ġinsuline aspart
Ġcall osum
ĠOpname informatie
gem iddeld
ĠMIB I
ĠsuÃ¯c idale
Ġm orbus
Ġecht e
Ġtele ur
ĠI le
Ġsport school
Ġuit ste
breng st
Ġr ijst
iz ing
Ġgelu kkig
ĠVerm oedelijk
ĠRet entie
Ġtra ger
h ul
ĠI AT
j og
Ġver pl
Prog ressie
Ġn itriet
ori Ã«nteerd
ĠT ramadol
Ġopgel ucht
Ġcyan ose
M a
Ġcom bi
ĠW E
19 68
Ġph aco
Ġnecrot iserende
Ġdrupp elen
ĠIn itieel
r ent
Ġaange eft
Ġc reat
Ġvoor uitgang
ap pel
Ġsubt iele
ĠP ROM
Ġjon getje
Ġsch eur
fl ora
ĠC oordinatie
ĠM K
Ġsta ven
ĠE CHO
ĠG lazen
Ġged rain
Ġsup p
. /
al ijden
oedienings weg
Ġonder in
Ġge jaag
Ġz yg
usc ulair
hydram nion
Ġo id
ĠE mail
ĠU roloog
ur ologie
ĠB F
Ġm otivatie
Ġop geven
Ġart ralgie
ij kend
ĠDist aal
Ġhees heid
ĠO c
ĠVitale gegevens
Ġadres GPE
ĠBeen rechts
Ġtran spireren
Ġram us
Ġpre operatieve
Ġ15 9
st ress
ra p
Ġmal lampati
Ġovert uigende
v ari
is h
Sp eciele
en folders
Ġuter i
ĠOnder zoeken
m oed
okters assistent
w anden
ac uut
Ġm ist
ent jes
neur ologie
Ġam b
N eu
Ġdex tra
Ġchemok uur
Ġsp een
ap icaal
hel min
19 67
Ġben aderd
Ġber ust
ĠM assa
Ġscler otische
Ġsp lin
ĠI LD
19 40
Ġromp balans
H YDRO
Ġac iclovir
P W
d ed
ĠM al
iliteits score
Ġtong basis
ma chine
compl ete
Ġ19 88
Ġp igt
ĠD on
Ġsp reekk
Ġlever hilus
houd ingen
ar ge
in steek
Ġnab ep
nef roloog
AC I
ut ing
ax ter
Ġaange t
erg ooi
17 5
12 7
Ġlongem bol
Ġger es
Ġc ovid
ĠL aan
IR INOX
ĠH ili
ĠArts Chirurgie
Ġant alg
loos d
ĠFund us
Ġver deling
PE N
ĠInt erpretatie
L ANTUS
ert ijd
ĠZod ra
O per
Ġper fusor
orr hoe
a orta
Ġepider midis
Ġcoll ateralen
gest eron
N YHA
C OL
ĠV OL
eer ling
Ġacht erdocht
ĠZ aandam
Am sterdam
ic obacter
M ob
Ġpre paraat
Ġbuik krampen
Ġregel maat
Ġpyel ocal
Ġspier ver
H and
Ġst elt
Ġal opecia
Ġtussen p
Ġfor te
Ġtest es
Ġpoliep ectomie
ĠDu izeligheid
ĠPersoon lijke
Ġminst ens
19 82
won ing
v riend
ON DE
beg in
Ġob servaties
Ġ( ?)
ĠAV N
ĠK er
Ġer adicatie
b asaal
PO CT
p mol
Ġovervulling sbeeld
Ġadal imumab
Ġwenk bra
ĠGPE Fax
ER B
s arts
hal eer
Ġmy ocarditis
pp ing
Ġloc omotorius
Ġmast oid
ĠBil ateraal
Ġhaar d
ĠM ov
Ġna d
Ġdel ay
ĠLos artan
Ġpit tig
Ġste atosis
MA AG
oper idol
v eerd
Ġge annuleerd
uw de
________________ ________________
par as
16 5
Ġze urende
19 89
Ġnef rotisch
Ġingu inale
Ġop staat
OP RIL
Ġz elden
ies lip
19 94
ĠM i
art efacten
is mus
Ġder gelijke
Ġin clusie
Ġs owieso
Ġsub jectieve
c riteria
AD H
ĠV IS
ĠT A
CH OP
AP T
Ġhier aan
Ġp otje
ĠT umor
Ġwe anen
ĠPOLI OOGHEELKUNDE
Ġsch aam
Ġwand dikte
ast olische
oth erap
verb lijf
ĠBijn ieren
ĠU I
Ġwij ken
Ġeiwit rijke
ĠPerif ere
Ġlab onderzoeken
Sp oed
com fort
Ġmon o
Ġendometrium carcinoom
Ġpneum okokken
Ġmar ge
ĠDiep e
Ġg lan
566 26
hoog te
kan aal
Ġsyst ole
ĠG a
Ġsarco om
ĠAT N
24 5
ĠChl oride
ĠH osp
ĠLinks Gebied
Ġafstand s
Ġ18 7
Z E
al ingen
Ġgebruik elijk
W O
Ġgem arkeerd
zet ting
ĠP GD
Ġalien um
Ġricht lijnen
Ġ identificatie
Ġalve ol
oth oracale
Ġaf hangende
at rofie
ĠH anden
emm ering
D I
Ġref ractie
ĠK amer
ac izumab
ges ic
am inatie
ĠR TH
ertr aline
Ġuit gest
ijn e
Ġur s
etam ethason
Ġnat raject
ĠMedicatie Dosis
el ithiasis
Ġbe cl
eut ische
56625 30
ĠK ap
ĠUit er
Ġstudie verband
ĠG br
int olerantie
Ġc entr
ĠGbr v
ĠGev raagd
T r
ĠC E
P last
chant er
Ġn oemt
me et
meter ol
Ġn ort
Ġex pert
Ġonru stige
Ġwerk dagen
se mi
f iets
Ġili opsoas
ed t
per ineum
ĠSer ologie
Ġsubfeb riele
Ġm rt
max imaal
d ate
Ġverv roeg
f ung
Ver der
b ank
Ġretro stern
7 00
it ting
ĠBR IEF
Ġvenac ava
Ġzoek t
el ende
fig uur
Ġhydroxy chloroquine
ĠNeuro chirurg
RE A
Ġc lin
Ġrisicop rofiel
ed oor
Ġsp hen
ĠLoopt raining
Ġhyperth yreoidie
Ġpancre asc
RAD IOTHERAPIE
iep e
ĠS inus
oÃ¯ ne
ĠHep atitis
Ġrechter long
ĠINT ENSIV
Ġd oseringen
Ġisch aemie
Ġronde s
ĠBet rokken
sl ot
Ġge mc
entie le
om ut
Ġdoor geb
Ġvocht intake
ĠTh erapeut
l ion
Ġdep akine
s at
g ift
AL ID
Ġ( Â°
etan us
Ġw o
Ġverzam eld
ĠV SM
Ġplasma ferese
i ders
ĠS G
ĠEp ic
Ġgon artrose
u sten
ĠT icagrelor
Ġneu rom
sche iden
tra ctie
de mgeruis
ĠWil helmin
hec klist
ĠH oopt
ĠAan sluitend
UN CTIE
Ġdr ieslip
Ġasf yxie
ĠG L
Di arree
Ġcom m
Ġimmun otherapie
ĠHyp ok
Ġrond jes
Ġlucht config
ĠD ip
Ġflank pijn
ĠCyt ologie
ĠD ank
Ġben ige
d raaien
Ġhoog gradige
Ġproef behandeling
d aan
Ġveget aties
os ition
cor onair
Ġanal getica
Ġk eppra
Ġnier schade
Ġgips kamer
ĠLV OT
Ġj et
eth er
14 2
Ġe qu
ĠGeb ruiken
Ġ----------------------------------------------------------------- --------------------------------
ĠO var
Ġmacro scopisch
Ġb ipolaire
ĠT EVA
Ġro bot
ĠHum ira
Ġk oek
Ġn iche
l at
ri Ã¨re
ĠB ere
Ġmond je
astase erd
oni ak
Ġte chnieken
bij zonderheden
t rek
ĠM ic
zw ollen
ING S
h anden
ĠPar oxysmaal
ro os
ratentor ieel
ĠALG O
az osine
D P
Ġuit te
Ġa cties
ĠĠĠĠĠĠĠĠĠĠĠĠĠĠĠĠ ĠĠĠĠĠĊ
Ġkinder cardioloog
Ġdef ib
Ġge hand
ĠVol ume
S c
trim oxazol
Ġpla vix
LV EF
actyl ie
gl ott
ip rofloxacine
ĠMedi ast
Ġs icca
ĠKinder chirurg
rij pt
gest rel
Ġexc ori
ĠB akker
ĠEx cisie
Ġgrond lijden
im pressie
ĠInterv enties
Ġmo dus
Ġmonon ier
ie m
ĠZ ondag
ĠPol y
Ġfentanyl pleister
Ġrosu vastatine
tijd ig
an je
Ġvroeg geboorte
Ġge ur
Ġt aak
Ochtend visite
m ilt
Ġherhaald elijk
COM PLEX
oc iatie
Ġeicel punctie
Ġargument en
ĠPT CA
Ġk etanest
ĠGPE GPE
Ġuur tje
Ang st
st abiele
ĠR L
ox is
Q U
Ġps ori
on ent
Ġ17 1
ren atale
Ġbeant woorden
Ġambul ant
J C
Ġg amma
19 96
Ġhyper kaliemie
Ġdag curve
Z IDE
e igen
of ib
ist a
ĠInf o
Be zinking
Ġnad ele
s Ag
ĠK ans
Ġrij bewijs
Ġh aak
Ġhart actie
Ġlog boek
Ġtong beet
Ger inge
Ġasp ecifiek
ĠPas geborene
ĠM aternaal
ĠSP C
Ġ18 3
19 81
over wegen
ĠWaar voor
Ġorgan en
Ġl ot
Ġintracran ieel
Ġkn apte
ocyt air
Ġn oemen
Ġfiet st
Ġtel kens
Ġlever metastase
Ġtemp oralis
ĠRV P
Ġwerkzaam heden
ĠB ic
Z MC
ro op
Ġth ym
Ġdro g
Ġspondyl odiscitis
h o
, .
Ġin gesch
Ġsp uugt
ymp aan
Ġgeind uc
ĠOper ateur
F ol
Ġfol lik
Ġparenter aal
Ġplot se
ram p
atheter iseerd
e vent
Ġopge vallen
Ġdruk ke
z akkingen
Ġver zw
Ġlum pectomie
Ġkool zuur
C ARDIOLOGIE
ĠH SG
Ġvoed en
ĠDes infectie
Ġont b
ocon azol
Ġb icuspide
if act
Ġbre de
EL ING
Y TEN
ys eren
Ġbe moe
ĠC U
Ġverk eerd
Ġwervel in
ER NE
ĠHD M
rat hec
ĠContra st
CH AD
Ġtrap ez
H H
Ġhyper hydratie
Ġvert rek
ĠW ist
Ġperin atale
ĠOn voldoende
Ġur gen
ĠNeur oloog
Ġher sent
Ġge ag
Ġrand je
ĠP VI
ectie ve
Ġverk eerde
Ġoverge gaan
Ġcrani oca
ĠTran smurale
or del
el p
P F
Ġspast iciteit
Ġhoog stand
lycer ine
ĠDoorg ankelijke
Ġban aan
ĠT weemaal
verwond ing
DER EN
M assa
Ġflu or
Ġect opie
Ġbronch iale
werv el
Ġsch omm
ĠQu a
ĠPar a
over name
strek kers
ĠV E
Ġfib rotische
i an
Ġconcentr eren
com ponent
ĠK PS
Ġdrieslip pig
Ġal b
LI X
ap late
Ġcoronari alijden
ĠC he
Ġna gels
Ġch ocol
Ġhemat emesis
Ġz om
LU C
ĠOpen en
lo om
Ġe ea
Ġner ve
Ġed ifact
id ym
st reven
Ġwerv elkanaal
Ġverkal kt
ĠO CULAIR
Ġbehandel bare
ĠHil versum
t onus
Ġnek pijn
Ġvol zinnen
Ġro se
Ġhand eling
Ġhersen stimulatie
inc rist
Ġziekte beeld
Ġenkel oedeem
77 7
on geveer
DR UPPELS
M KA
ĠR em
Ġprote Ã¯nurie
19 70
b lijft
v re
ĠC ENT
ar che
ĠI cc
Ob servatie
Ġlact ose
re me
20 21
ĠI buprofen
Ġterug getrokken
Ġweg ge
ĠZat erdag
ĠDiep te
rin one
02 5
Ġco assistent
Ġin tense
ĠIN BRENGEN
i ven
ER EN
19 71
Ġbif ida
Ġpers ist
ĠALLERGIE EN
ĠChl oor
19 79
Ġp neu
cyt aire
LO B
V EL
ĠAP D
ĠGe s
AT H
j arig
AT A
Ġoog stand
ing le
ĠEB US
ĠT W
Ġkwets baar
Ġpersoon lijkheid
AS SEN
Ġileoc oecaal
Ġangi ogram
Ġmen g
Ġonder beens
ĠBehandel end
groe ve
ĠS orgente
Ġgele zen
ĠV asculaire
Ġaf wisselend
ĠMET OPROLOL
schrij ver
ĠSn ij
el eraties
ĠK et
ane op
Ġang ineuze
ĠSpecialisme Chirurgie
19 93
ĠB AS
ĠH EL
Ġdat a
Ġob ject
Ġver ont
incrist ine
Ġretro grade
Ġbest emd
voor bereiding
op isch
ell icht
Ġolig o
Ġlac un
D VT
Ġbran dend
Ġver slikt
per formance
19 69
TH ESE
D ES
ĠPal li
Ġmond bodem
am b
ĠB la
f rist
aur iculair
Ġoog bewegingen
Ġsch ed
ĠPijn lijk
Ġgemc itabine
vle ugel
ĠEND OSCOPIE
Ġbehandel indicatie
ĠGro e
Ġk lass
Ġ17 7
iot ropium
28 7
OOR T
ĠAB GA
kn odig
aN YL
Ġk eur
Ġmod ulerend
Ġgal stenen
u der
Ġgesupple erd
Ġge e
Ġc lass
ĠM OD
hyd raat
an x
Ġ17 9
ĠRu ime
u ig
ĠI R
Ġber usten
mogelijk heden
in ject
on ad
Ġintens iteit
Ġ16 1
Ġ10 77
Ġgew eld
ĠO ss
ĠC AR
el ijst
Al gehele
t ub
Ġvul v
Ġrelax atie
Ġziekenhuis opname
ĠV ar
Ġz eld
Ġbe vinding
h g
Ġverwacht ingen
ĠVervolg afspraken
Ġ10 79
ĠBR MO
eden ken
c N
om dat
ĠS yn
Ġsten osering
CORT ison
te sten
ul cer
Ġdocument en
ret enties
ĠGR Z
Ġdr ip
aplate au
Ġsch u
st olsel
ĠN AS
ĠLuchtweg plaatsing
Ġ10 75
Ġsubple urale
Ġoverlap pende
art ikelen
ĠE rasmus
Ġ19 87
oog lid
Ġfl utter
hydro chloorthiazide
Ġcon vex
Ġmultif ocaal
Ġachter zijde
ĠJan uari
Ġco Ã¶rdinatie
Ġopge wekt
sch udden
Ġadd uctie
Ġbenauwd heidsklachten
ĠMidd els
Ġin zet
isch emische
Ġinductie kuur
ĠIV S
ĠMet amizol
ĠAngst niveau
st ick
ind uctie
ĠD ent
Ġduizeligheid sklachten
ĠSI MV
Ġfl at
stim ulator
Ġ2 10
contin ent
Ġg rill
ne k
Ġar it
oe isel
AL K
Ġex ploratie
bact erie
Ġafgeb roken
ĠApgar score
t ur
Ġte chnisch
ĠFarmac eutische
Ġste atose
zen uw
Ġongem ak
fl uticason
ĠHI PEC
Ġer af
Ġurin eretentie
Ġhypercap nie
Ġadhesi olyse
g isteren
Ġp sycho
al iÃ«mie
Ġbe volking
ĠZorg VUMC
Ġl iving
ĠKeel pijn
ĠCarb asalaatcalcium
Huis arts
b orst
Ġ18 00
ĠFibro scan
Ġ36 0
ces s
ĠBas ofielen
ĠC OM
bij voorbeeld
Ġglob us
la ceratie
ĠT G
Ġvol um
serv atief
Ġinspanning stest
Ġn agaan
ĠL yme
R ON
Ġoverwegen d
Ġisoc ore
uw elijks
Ġk ip
Ġst ad
ĠR os
Ġex tr
Ġanders zins
M ED
P la
ĠTroponine T
odi ff
ĠBS G
z ou
Ġz or
14 7
Ġmil j
Ġp op
Ġk atten
ĠACT U
la ct
ier ig
Ġk lap
Ġuitbre idend
Ġinflammato ir
ber gen
O RAT
ĠCAP S
ĠMede werker
ĠVriend elijke
E nd
Ġecho geleide
ĠJ euk
Ġdermat itis
P ositief
schapp ij
Ġw d
spect rum
Ġda ad
Ġafge tekend
ĠT ympan
ab sorptie
E GFR
geleid ings
Ġg olf
Ġsagitt ale
ifosf olip
RAC ET
Ġident iteits
iet al
ple gen
afh ankelijke
idula fung
sul f
ĠO RS
ĠM ot
Ġsm al
be vinding
sie l
cl ovir
Ġopt reed
Ġin otropie
olec ulaire
20 2012
Ġged is
otherapeut ische
U IT
ad ie
ĠNatrium Laatste
t erende
f ix
ec yst
Ġben adrukt
Ġbr n
valider en
Ġab normaal
Ġ10 69
Ġgast ric
V P
Ġdruk ver
H OL
Ġterug gezien
Ġth at
2017 6
Ġtub a
Ġafgez egd
huid ige
Ġv g
Ġf rom
ut erus
PERSON Chemie
Ġj ou
Ġb und
Ġleptomeninge ale
Ġp ons
Ġopge zet
Ġhom o
Ġd abigatran
Ġz kh
Ġaant rekken
N eus
rog lycerine
Ġbur sitis
ĠK e
Ġagressie f
are sectie
C N
men orroe
ch er
v oelt
um ulatie
Ġtri amcinolon
l ige
pide m
ĠAngi oseal
z over
00 5
Ġveel vuldig
Ġinf arcering
19 78
Ġgest emd
Ġch or
peritone aal
Ġricht en
Ġkwart ier
Ġcos met
teken en
ĠĠĠĠĠĠĠĠĠĠĠĠĠĠĠĠĠĠĠĠĠĠĠĠĠĠĠĠĠĠĠĠ ĠĠĠĠĠĠĠĠĠ
Ġasp ir
t rekking
Ġcur ettage
Ġhulp verleners
op pl
ĠEvent uele
CT A
he um
ĠImplantaat naam
H eel
an de
Ġpresentatie SEH
Ġir re
gele zen
ĠArter iÃ«le
Ġintelligen tie
I RI
Ġmede behandeling
ĠRef lux
chec kt
Ġlu isteren
ĠSPECI ÃĭLE
v oed
ĠFor lax
Ġop voeren
ĠPer itone
ĠĠ ÂłÂł
20 2013
20 2011
us es
Ġverl iest
Ġt c
PERSON Verpleegkundigen
osition eerd
hr ale
P upillen
ob bel
Ġil ium
ĠPOLIK LINISCHE
Ġcol o
Ġloop hulpmiddel
EX O
O f
Ig M
Ġres istent
Ġorgan omegalie
Ġsubarachn oÃ¯dale
Ġps oas
ge el
radi atie
ĠPrim air
os eren
AM P
ĠTRA NS
ob al
Ġcomput er
Ãĭ IND
ĠS H
ĠKind in
rip te
Ġtris omie
ĠHoof ddorp
th erapeut
Ġend ocrinoloog
T oe
ub eren
Ġben oemt
di Ã«nt
aan se
Ġbrachi oc
ĠPeri ode
Ġgra c
Ġstuit ligging
ĠIC P
ĠD own
Ġaanv oel
ĠAMCPOL IK
ocy ste
bes artan
ĠM alig
Ã© l
Ġst or
om ateus
yst rofie
Ġs irolimus
Ġbij gevoegde
ĠO H
kle eflaag
omet riose
inn emend
Ġl ongt
Ġdub b
Ġp inda
ĠF ree
Ġpuss ig
Z w
ap p
A vond
Ġocc ip
ĠV IT
ĠVer zorg
Ġsept aal
k as
T oedieningsweg
el aar
ĠTwe etal
id iverend
ĠTol knodig
M N
Ġst at
ĠAM EXO
Ġstij gt
Ġf ract
Ġplan nings
ĠSch edel
Ġglas vocht
Ġh ogen
Ġboven kaak
ib i
16 4
Ġvoorwand infarct
ĠG GT
Ġver ble
Ġgro enten
ĠKoning in
Ġblad derscan
ĠP at
Ġst aar
ĠRD W
Ġmetap lasie
J D
T oename
ĠD IEMEN
t ronic
ĠUit gangs
Ġm ont
Ġgeoper eerde
i i
AC ROG
Ġbl aar
ĠF actor
ĠV liesscheur
com pleet
Ġr onchi
Ġvermoeidheid sklachten
Ġk ast
ĠN ifedipine
Ġnier arterie
Ġoesof ag
Ġs lij
Ġren alis
Voor schrijver
Ġb loot
Ġged own
Ġkn ik
Ġwe kken
Ġz weet
Ġzw ang
Ġsnur ken
ACROG OL
d ouchen
FOR LAX
M in
Ġeierstok kanker
ug rel
Ġge scand
ĠCogn itieve
ĠBent all
Ġrechter boven
RO EK
Ġveroorza ken
Ġinterventieradi oloog
Ġlever laesies
Ġlumbaal punctie
Ġlevens jaar
ERST RAAT
Ġmiddel ste
Ġonverkl aarde
Ġp antozol
Ġcyst itis
acon azol
S la
defect en
ORTH OPEDIE
cont usie
Ġ19 86
ĠVor ig
L eeftijd
Ġr ijksvaccinatie
Ġm elatonine
Ġsn ot
566 2300
ĠVitamine B
NOVO RAPID
ALID ATIE
Ġhemi anopsie
ĠPET CT
Ġplaats elijke
Ġvriend innen
Ġmar ker
Ġfent aNYL
Ġaf drukken
hul de
organ ismen
Ġklop pijn
ĠPOLI MAAG
Ġk oor
Zon odig
ĠAng ina
Ã¯ t
Ġleven d
EL EN
Ġab er
Ġcalcium CARBONAAT
Ġc ach
ĠM BO
ÂłĠÂłĠÂłĠÂłĠ ÂłĠÂłĠÂłĠÂłĠ
2 18
ĠRond om
Ġinged aald
em i
Ab domen
m ilde
Ġradi o
Ġsom bere
of obie
Ġcorticoster oiden
Ġa vulsie
Ġs emen
oid aal
ĠPol icontrole
ip p
ĠT rekt
ĠNeg atieve
ĠB ascule
op genomen
ul dig
n iciteit
ast ine
ĠNu c
Ġbe zoeken
ĠĠĠĠĠĠĠĠĠĠĠĠĠĠĠĠ ĠĠĠĠĠĠĠĠĊ
Ġafw eer
Ġz ijk
Ġrig iditeit
ĠF a
lad derd
ĠB ART
ĠR J
duc eerde
ĠG ooi
Ġt t
ĠN it
I ST
Ġrest rictie
Ġsuper ius
MS E
Ġc up
fib rose
Ġcomb ivent
ĠIG F
Ġconvent ionele
ĠC UTAAN
Ġidentiteits bewijs
66 5
Ġ10 78
L G
e inde
ĠAB C
gev aar
Ġbewegings drang
ĠOog stand
Ġlastig er
ast ern
Ġijzergebrek sanemie
vir us
Ġgehal veerd
ĠBas o
ĠH AV
lijm vlies
ĠCAPS ULE
ĠL ON
OT OMIE
Ġumbil icalis
O ok
ĠA den
ĠPOLI UROLOGIE
Ġk indsbewegingen
ĠTransf usie
n g
ast er
ĠM elk
Ġbe Ã«
ĠUitvo ering
Ch irurg
S ART
ĠVV V
quam euze
ĠHA ARLEM
Ġneus gat
Ġgal steen
Ġaan liggende
ic ran
Ġverst opt
mob iliteitsscore
2017 4
ĠPro tein
el oos
elf requentie
ĠH ooikoorts
Ġhoogte verlies
Ġpiek eren
Ġst ation
in al
Ġonver m
Ġf raaie
Ġgeslaag d
Ġbis oprolol
TE E
Ġoog kamer
valv ulaire
19 41
ORI UM
ver wijderen
ter ug
ot mobiel
OL EN
Ġnormof reen
osp adie
arr Ã©
d ochter
vo ering
Stoppen Voorschrijver
Ġment ale
ĠMoe ite
Een malig
mm oniak
Ġhyp om
Ġr elease
Ġvorm en
Ġaltern atieve
ist isch
l ateraal
reat ment
K H
innen de
Ġziekte activiteit
strument en
Ġinv asie
ORAT ORIUM
otec an
Ġontvang er
Ġpijn beleid
in structie
ĠA IN
Ġverv roegen
Ġbloed producten
onderste uning
ox ifen
Ġcircumsc ripte
de generatie
Ġoperatie datum
Ġantalg isch
Ġbot ox
Anest hesist
d ysplasie
gra ded
3 25
st one
ip ele
ĠS eksu
Ġbeper ken
n s
Ġelekt rische
Echtgen oot
us ion
ver pleging
Ġin geleverd
Ġspraak verstaan
ĠNSAID s
Ġbre i
Toedieningsweg Start
ob arb
Ġhypox emie
SART an
Ġp edi
cran ieel
D T
Ġmot iveren
R ad
K en
ĠDie men
bel emmering
Ġcar ina
Ġs lu
Ã« x
Ġopget rokken
Ġglu ten
20 2015
A ss
Ġeosin ofilie
omac rogol
ĠN C
Ġur ge
Ġdaad werk
ĠBevalling s
Ġwond randen
pr ikk
Ġw al
rolyt stoornissen
ĠG LUC
gn ose
Ġdomin ante
Ġencephal opathie
p ot
Ġont lasten
ub icine
Ġru sten
ĠEch ografisch
Ġuit stellen
Ġ19 5
Ġcyt ogenetica
Ġm ix
Ġhe vel
Ġhydro CORTison
Ġdynam ische
ĠG lob
l ink
25 000
Ġcom minutieve
ĠDi alyse
ĠGal blaas
as h
Ġtr igemin
Ġtoe passen
ĠT NM
cre p
p last
ĠTra plopen
ĠEl leboog
ĠC otrimoxazol
su les
Ġhard lopen
RACET AMOL
Ġst aart
mat e
ĠBe etje
et il
ak eld
Ġs urvey
t ers
ud ale
eb er
sul ten
Ġtam oxifen
ine us
Ġinf r
ĠW arm
Ġant eroseptaal
ĠV als
Ġap p
Ġt iotropium
Ġbrach ytherapie
samen voeging
Ġver p
fl ush
s yn
Ġonderzoek er
Ġcontact overstijgend
LE IN
Ġrisic oscreening
b acter
ĠF CP
Ġgedown graded
Ġv onden
Ġl eefstij
ĠpatiÃ«nt samenvoeging
Ġsysteem instellingen
Ġconcentr ische
Ġfoll iculair
zol en
ĠIn haleer
Ġnet toyage
Ġneus verk
Ġretroperitone aal
UISART SEN
AV IS
Ġcapt opril
Ġbed roeg
Ġcre on
vasc ularisatie
ĠB rug
inc ident
Ġbev inden
ink voeding
oog de
Ġhuid biopt
ĠP yl
Ġgeb ogen
ĠHy d
men opauz
ĠA IC
Ġmer ken
verrichtingen Verwacht
Ġg old
ert ie
ate ars
Ġtransver sus
Ġb alan
katheter isatie
Ġgel d
Ġmamm aca
Ġbesch rijft
ĠR ivaroxaban
ast hen
buik pijn
Ġge loosd
ĠK eppra
ĠPalp itaties
Ġidiop athische
Ġsch een
ĠIn jecteer
ELO OP
Ġet iologie
Ġev acuatie
ĠBloed ing
EC AR
ĠB rad
neus proef
Hem ostase
a us
oen de
Ġk e
Ġver houdingen
Ġfacialis parese
IN OLOGIE
di arree
14 8
v entriculair
ad s
Ġin j
ĠC ox
Ġzeker e
Ġsplen ectomie
yt o
Ġpuberte it
iform is
Ġgrijs witte
f ixatie
ĠS witch
ĠLAB ORATORIUM
Ġv eld
Ġrectos igmoid
s arco
ĠP rins
Ġnaev us
X C
Ġlo SARTan
ĠVER WIJ
Re chter
ĠL aparoscopische
it u
ĠLV ED
Zie kenhuis
Ġmisselijkheid sklachten
Ġn b
Ġdox azosine
ge k
te us
Ġoksel s
Ġap lasie
Ġdiast olisch
Ġhyper bilirubinemie
ure erde
Ġver zet
Ġvacu Ã¼
ĠW M
ĠZ ol
eb o
Ġverstaan baar
Ġenorm e
lymf oom
Ġtro osten
Ġuit stel
Ġopge frist
H ep
LOD IPINE
ĠF AG
ĠAan gevraagde
ĠG H
Ġstof afwijkingen
Ġouderen geneeskunde
Ġhersent umor
P resentatie
Ġge analyse
Ġvervolg consult
ĠE VO
Ġmo oie
ĠLe ven
Ġsikkelcel crise
ĠIm mature
ĠV ERSLAG
sp asme
Ġbo wel
ĠNP BES
Ġgravid a
Ġl an
Ġhemi hepatectomie
V M
19 72
Ġk lam
ĠGe zicht
Ġlinks zijdig
ĠCor respondentie
Ġureter steen
Ġdig itaal
ĠOoster park
ĠE L
ĠT re
Ġsom nol
Ġvast zittend
orb id
Rol Specialisme
44405 22
Ġdu ra
an ig
Ġpath oloog
Ġtoilet gang
Ġhypodens iteit
in ent
cus es
Ġbo dem
ĠD ilatatie
Ġvrij gave
ĠWilhelmin alaan
Ġan af
sn iveau
Ġnuchter e
il ige
ĠR AD
Ġaange vuld
M IC
Ġspuiten pomp
Ġre activatie
Ġsch ild
te vreden
or ptie
am et
Ġe sketamine
Ġmin im
Ġr ange
Ġven lafaxine
I OL
Ġdeslorat adine
Ġgedrain eerd
A X
RA IN
ĠV II
ĠVer sch
........ ........
erv ing
Frequentie ToedieningswegStart
ath isch
aff ine
Ġbere kenen
we ig
ĠH ele
malig niteit
Ġdepressie f
Ġs etting
GE ANNULEERD
L APAR
vloe ibaar
ĠAan melden
Ġmicro biologie
Ġhypok inesie
ings fase
or sten
Ġbloed groep
vul atie
ĠAc ra
Ġintermed i
prote ct
ĠF SH
duc eren
Ġhyper n
Ġtussenp ozen
H T
Ġgev accineerd
Ġtransl ocatie
Ġschedel groeve
ESP RE
Ġhoest kracht
PL N
ĠK REATININE
ĠGastro GPE
of etil
ver wijzen
we b
Ġstruct ureel
ĠVerlos kundige
Ġhuisartsen post
ib le
Ġaan liggend
eg ulatie
akk oord
Ġgemen gd
Ġh oorde
pro jectie
Ġgeag iteerd
bu ien
Ġtro pen
A o
ĠR ijn
lam ydi
INT AK
Ġb all
ĠOperatie classificatie
stij ging
ĠMent aal
ĠChirurg RolSpecialisme
in ts
N IS
Ġverbre ding
Ġcont aminatie
Ġreg ressie
con s
V as
ĠSch rijf
Ġterugge koppeld
g aas
demhal ings
se arch
Ġb oom
IMA CT
atr iale
ĠC ereb
ĠRomp balans
ĠG b
ĠH of
C a
f amilie
in on
ĠK R
ĠN iets
ĠHV Z
Ġembr yo
Ġgevoel ige
Ġin hom
Ġfaec alis
Ġmesenter iaal
Ġ13 00
Ġneven bevindingen
Ġretroperitone ale
ĠH oort
Ġnorm alisatie
ĠB ELOOP
al cin
Ġspect rum
Ġt akken
Ġgen ieten
ĠMDL arts
ONC OLOGIE
struct uren
ro scopie
un de
ĠÃ ¡
V ERS
ĠTo ilet
E BV
G G
ĠRe anim
Ġcontrole afspraak
Ġlever segment
ĠRood heid
M en
Ġon langs
vel op
pr ent
E Z
H eb
Ġconch a
ucle atie
20 2016
Ġcran iotomie
Ġbronch iaal
Ġadvis eerden
Ġgent amycine
P hilips
P CH
lo er
xd aags
Ġplast ic
Ġlip iden
Ġtum orm
su izen
K reatinine
Ġdysp noisch
Ġster oid
ac rolimus
d oek
Ont slag
Ġb on
ĠPro staat
il on
Ġtro chanter
Ġ aten
Ġex antheem
ĠC ataract
Ġn atieve
den se
Ġgeh uwd
69 6
ĠAt ypische
de pressiva
Ġretina e
VOL G
14 3
Ġha emat
Ġgez ellig
ron kelijk
Ġuit blijven
Ġover belasting
ĠC ervix
Ġneurof or
um ol
occ up
ĠBar ret
ĠGe corrigeerd
Ġgen der
Ġglob ale
ĠB PD
Ġmor gens
ĠP ept
Ġhal operidol
Ġplaats gebrek
ou p
Ġsteunk ousen
Ġbij gestart
ĠCH IRURGIE
im it
ĠSh ort
ĠWoon situatie
Ġoblit eratie
infectie s
Ġjon gens
ĠTUR T
Ġver huis
il ateraal
ĠT am
ĠPositie ve
ĠG old
di ameter
Ġpol yc
Ġbronch iÃ«ctasieÃ«n
Ġvit amines
r ies
AC E
Ġbil iaire
duc eerd
Ġp ete
Ġ+ -
dal ingen
Ġre valideren
Ġer over
ĠStreef ontslag
ver deling
Ġvaat tekening
Ġmat ras
ĠG raad
ĠFunctie verlies
PE L
d B
ĠK atz
rij den
Ġ11 87
bru in
Ġcogn itie
Ġpuls atie
Ġd v
me an
t ip
Ġt ips
Ġvoor raad
as ma
m A
Ġp od
Ġlong geneeskunde
Ġbronch ie
ĠMoe st
P ROM
Ġom laag
x cisie
ĠW K
ĠA ctief
int ubatie
44411 20
ĠRec epten
ĠN b
19 7
ĠDro ge
Ġuit spraak
Ġop eens
ot ica
udic ien
Ġ2 12
ĠGEN ETICA
streek s
z amer
ot el
Ġdag centrum
anc iclovir
c alcificaties
Ġur ologische
Ġcollab eert
Ġkraak been
Ġhier om
Ġadres W
ĠA W
Ġaccept abele
Ġop brengst
ĠĠĠÂł ĠĠĊ
Ġcyste ctomie
Ġ2 170
Ġreumato ide
ĠHuid type
Ġribben boog
T IA
ac ed
Ġinter costaal
Ġdivert ikels
kies nummer
p op
Z ij
ĠB ie
ÂłÂłÂłÂłÂłÂłÂłÂłÂłÂłÂłÂłÂłÂłÂłÂłÂłÂłÂłÂłÂłÂłÂłÂłÂłÂłÂłÂłÂłÂłÂłÂł ÂłÂłÂłÂłÂłÂłÂłÂłÂłÂłÂłÂłÂłÂłÂłÂł
a ine
ĠN ot
AS AL
Ġaard ig
N acht
wijzig ingen
p in
Ġint rathec
it o
ou nt
ĠAb dominale
it ol
oÃ¯d aal
n iteiten
w aren
ĠL IS
Ġk raag
nem ing
z ine
ch ronische
sprek ingen
Ġplas luier
A ctie
L IP
lust er
Ġeet lijst
igment eerde
ing itis
Ġcon vulsies
Ġhypert rofisch
ac odyl
id us
ĠST T
H Z
19 73
Er y
Ġoef entherapie
ĠMEDICATIE BIJ
Ġhypon atriÃ«mie
Ġconflu erende
Ġdes at
licht e
ACI clovir
Ġgeanalyse erd
Ġhypercalc iemie
Ġhoog st
ĠWe ke
G asthuis
pass end
Onge wijzigd
24 3
MI BE
st emmings
os clerose
ĠF IP
ĠF ocale
ĠSt udie
Ġcardi op
OST ER
ruk ken
ĠO ut
ĠH U
com bin
w et
ĠOog heelkundige
ITRI Pt
Ġ ..
ĠK LINISCHE
ĠAf wijkende
Ġmacula e
roc alcin
ĠPC EA
D yspnoe
Ġintra parenchym
Ġa kinesie
ITRIPt yline
ĠC yste
Ġpur ul
GA AND
ĠHyp on
ĠVerw achting
Ġk yf
ged acht
Ġbacteri Ã«mie
vervolg consult
in odulair
Ġr w
D arm
u al
Ġa graves
Ġcont ral
Ġsch okken
Ġ16 24
Ġcon genitaal
TE X
Ġas ymptomatische
ĠComp act
al gesie
Ġde pressies
Ġeryth ema
H CC
19 75
Th oracale
co x
ĠE someprazol
ĠLas ix
y d
ĠDrain s
ĠBeg int
Ġsal meterol
Ġmax imum
69 74
op ressie
ĠV ari
ver olimus
Ġaan g
Ġliter atuur
Ġm imiek
IG E
F DG
Ġgewrichts spleet
O ste
22 3
Med ische
Ġbrood je
ĠBeen links
Ġparam edi
FrequentieToedieningswegStart StoppenVoorschrijver
di meren
ĠD am
ĠBe zoek
____________________ __
de viatie
Ġlip oom
N RS
ro k
Ġ ____________________________
ĠV os
ĠLidoca Ã¯ne
44411 30
R L
ĠEx acerbatie
Ġeiwit ten
Ġcaver n
6 25
Ġtrapez ius
ytroc yt
en ergie
tal gie
Ġintrath oracale
f ragment
ĠBe ademd
end o
und air
Ġcou pes
ar re
Ġgesuper viseerd
Ġopkn appen
____________________ _
af en
ant eerd
Ġraad plegen
Ġintensie f
Ġgun stig
ĠEnd ocarditis
inf usie
ĠKl inkt
Ġlever waarden
GA AN
Ġtoe g
Ġle ft
G M
Ġbed ien
LA AS
ost ar
Ġpsori atica
em ia
o ing
over gang
Ġkan ten
19 39
Ġdefect en
Val risico
Ġst age
Ġcaud ale
hoe v
Ġge checkt
Ġafge geven
Ġversch enen
Ġar ch
Ġs laat
ĠC alc
orro eduur
geh oor
Ġfil ter
rab ismus
p res
st ri
Ġbra ak
Ġplaqu enil
22 7
Ġgl im
tr usie
yr ica
abdom y
Ġmond opening
Ġres istente
ĠM AR
ĠZ UID
Ġmed io
ĠPer formance
2 20
Ġh opelijk
Ġvolwassen e
ocel lulair
Ġcon sequ
ĠBehand elfrequentie
B AL
Ġf outen
s iteit
Ġverw or
Ġhist ologisch
ĠC GT
luier ing
zu ig
U l
Ġcoca ine
ure ert
Ġgen oemde
ĠS F
b oud
el lair
Ġals ook
Ġallergie en
Ġl ym
Ġtuberc ulose
Ġjaar lijkse
spuiten pomp
ĠNut rini
Ġaan tekeningen
oc ate
vol ledige
Ġcond yl
traum atisch
ĠPanel informatie
Ġ9 158
G GD
h s
Ġrechts zijdig
ĠVer gelijk
me ijer
Ġ+/ +.
Ġhyperp lasie
rain er
len s
Ġzod anig
Ġber oerd
oplas m
L ichte
oort ijden
Ġthorax beeld
LIN IEK
T OT
ĠPERSON Cc
ĠBaring medicatie
tran splantaat
BO EK
Ġdoor kiesnummer
ble ek
ur id
Ġam ITRIPtyline
Ġam n
ĠĠÂł ĠĠĊ
Ġ13 91
chter ew
Ġkoolzuur houdende
ĠO VG
Ġsub klinische
ĠSec retariaat
ĠI TP
ĠHP B
ip rep
Ġstudie medicatie
Ġcontusie haarden
X X
d et
ĠIC V
ont rouw
CENT ER
ĠgeÃ¯nt ubeerd
rax ie
Ġblijven de
ĠMeth adon
be spreken
M ond
Ġart rodese
p pen
Ġst rek
uw ings
ĠOp ioiden
Ġ( '
ru chten
ĠWe anen
Ġm achtigingen
19 74
ĠP raktische
ĠMM F
Ġin neemt
ĠAsc ites
B UT
Ġmiskra men
Ġproct itis
ĠNam ens
56625 51
ĠOkt ober
v iene
Ġvari Ã«ren
M idd
CT OMIE
ĠHydro cortison
ĠC ran
Ġadres G
ĠIQ R
omut ilatie
Ġgewricht spijn
ĠPl us
EP PRA
Ġbi ologische
z one
ide ctomie
Ġant er
Pro tein
ch en
ĠO ma
ĠDOOR GAAN
Ġgeh anteerd
Ġvor derende
Ġonder weg
Ġneus druppels
G en
Ġexc av
ip v
ĠIC SI
Ġval ACIclovir
n el
Ġachter halen
ĠRh c
Ġom liggende
ĠEn ig
Ver wijzing
Van af
lamydi a
Ġsp reek
ĠD elier
Ġtrom bectomie
Ġd ak
RA CHT
ĠDO AC
Ġfront ale
Ġlong ontsteking
Ġrel ap
Ġsac ro
EV ALIDATIE
19 77
Ġoor pijn
ĠH open
Ġcardi ovasculaire
Ġv ide
ret ie
pl at
EL LC
ELLC EPT
t wee
T raum
ide ment
Ġin different
Ġonder werpen
Ġfluct u
aal den
Ġle k
ĠOPT IMACT
T EL
Ġfont anel
2 25
Ġgastro scoop
GZ IEKTEN
ĠEV AR
U WI
ĠB uis
a demhalings
pi res
oth ermie
ion s
n it
voor heen
ĠL AR
Ġhoofd lijnen
Ġinsuff leren
Ġpak jes
Ġw Ã©l
Ġsensib ele
besch rijf
assist eerde
Ġ19 6
arco umar
ĠEx pires
ĠD APT
Ġz eep
Ġzo juist
u laat
usc ulatuur
ĠBurg ers
maat schappij
voor waarden
Ġhiel prik
K omt
ĠR hesus
Ġlast ige
T WK
ochrom ocytoom
Ġr ontgen
Ġverkl ar
ĠOntwikkeling s
Ġpack ed
f um
ĠF S
onder buik
ĠLa esie
Ġarteri Ã«n
Ġmed ul
ĠI OL
un ion
Ġhemat ologische
Ġtax i
Ġk ousen
Ġmycofenol aat
wer kend
Ġp aclitaxel
Ġg g
Ġcont our
ar ed
ĠIU D
han asie
ĠVrijgav edatum
v asieve
ĠC hecklist
hem atologie
Ġt ur
ĠK ijkt
Ġged ragen
Ġd ob
Ġin hal
30 9
vas ief
Ġaan kijken
leg ie
k u
EN O
FORM ATIE
Ġtussent ijds
ĠNa cl
ĠACTU ELE
op rim
ed elen
pre paraat
Ġhem id
Ġuit st
Ġcont ouren
wijz end
stru ctief
m aking
otemp oraal
orsaal flexie
Ġs uikers
Ġc rust
EP H
Ġgal lig
Ġw sch
ĠO CD
Ġste kend
ĠV rouwenziekten
ten en
Ġdyst rofie
h oid
obal amine
OS AS
Ġhyperparath yreoidie
centr atie
ss amen
ARB ASAL
rof ylaxe
ERS TE
Ġpijn bestrijding
Ġkinder cardiologie
rond ing
ĠBEHANDEL PLAN
cou pe
B N
ARBASAL AAT
Ġge lo
arynge ale
Ġd otter
Ġbdz s
Ġe c
Ġpsychi atrisch
ele kt
Ġprostat ectomie
ĠSt ud
Ġaan spannen
Ġam per
Ġbesliss ingen
un di
ĠBelang rijke
em ak
yle stradiol
oed uur
T W
ĠDO MIBE
ĠBART HEL
ĠP renatale
Ġcarb amazepine
ĠCABG x
ut er
ĠBe weging
ĠCT C
Ġbehandeld uur
ĠTe am
nier functie
ĠS a
ste unen
Ġgy ri
h l
17 08
Ġt oet
ĠVl otte
ĠP RA
d un
it ologie
ĠE t
LO C
Ġd iltiazem
Ġp om
Ġstev ig
er aal
ht m
k neu
M aternaal
Ġsp aren
!! !
Ġlater e
K O
17 4
ĠEx terne
ĠPOLI RADIOTHERAPIE
MB q
Ġaan gebracht
ĠPerioperatieve complicaties
V IT
Ġb akje
ĠPol iep
in oculair
Ġ111 2
s ociaal
Ġmid der
Ġa mc
Ġle gen
Ġvulling spatroon
Ġsco otmobiel
ĠS AM
R el
Weekend visite
Ġobservatie lijst
ine se
iet est
6974 128
Ġtot o
ĠLOG BOEK
Ġvorm ing
L inker
k m
ĠH alf
Ġonc ologische
oc alc
Ġgez ag
hem isfeer
ĠCOL ECALCIFEROL
Ġp ens
nem er
ĠPA F
Med i
rop ine
status acties
Ġoperatie statusacties
Ġf ysiologische
Ġdag besteding
ĠLopen de
ĠPS MA
ocard infarct
medic amenteus
inder ing
ur s
Ġterug komen
sud aat
obarb ital
Ġstag ering
ĠIn leiding
on straat
ĠF loxapen
in ylestradiol
ĠSp ironolacton
ĠNad at
Ġbrug hoek
ĠRes idu
Ġhem icran
ent est
pro trusie
houd ings
Ġlief de
orrh oeduur
Ġbic arbonaat
Ob stipatie
der top
Ġd ieren
k auw
Ġcorticoster oÃ¯den
ug ger
Ġlongnod uli
Ġlarynx carcinoom
ĠNov osyn
prof iel
os erende
ĠBil aterale
ĠB asis
Ġm uur
ac rale
ĠCon solidatie
Ġlach en
ad igd
ĠAnt ibiot
ĠHydro chloorthiazide
ĠS afeguard
ĠGem eten
uterien e
Ġrecept or
echtgen ote
Ġaten olol
Ġp embrolizumab
ECT OMIE
ĠD uidelijk
20 4
Ġverwekker s
et ide
se men
Ġsynov itis
ĠGem et
ĠVe get
Ġaf maken
ĠOver igens
IL L
Ġpalp itatieklachten
angi ogram
ĠV as
lop er
Ġencefal itis
Ġligament um
X a
Ġret rocardi
Ġb etamethason
Ġpapill otomie
Ġuit zoeken
Ġ( *
hal te
IB D
ĠCENT RAFARM
k rijgt
ĠAP C
ĠV lak
Ġsch uim
op ar
if urcatie
Ġsinust rombose
per fusie
Ġindic eert
ĠD om
org aan
PO INT
Ġ566 9
Ġonder lip
ul sie
Ġrel ated
Ġcell s
Ġbelangrijk ste
Ġpect us
re acties
oort jes
P ap
ĠE Ã©n
Ġger uis
YST AD
Ġv nl
Ġvre emd
s w
R VO
Ġoste o
Ġinge smeerd
be c
Ġtast zin
Ġpiep end
col oscopie
Re spiratoire
Ġmidder nacht
oep el
On c
ĠPE ARL
Ġop lopen
vla kken
Ġtub ulair
ĠKruis bloed
coli ose
Ġblij f
Ġbevalling sverslag
N aam
r h
ĠSucces volle
Ġademhal en
j k
Ġi ig
Ġlong afwijkingen
T RO
PLE IN
Ġh appen
Ġker st
c ipro
Ġs q
Ġ ypT
te chniek
ĠOper aties
RO SC
circ ulatorius
AL AT
Ġpsychos ociale
ac idose
oris eerd
centie l
ĠAangezicht schirurgie
dens iteit
cor on
ĠM IC
te vens
ingen d
ank behandeling
Ġenergie behoefte
Ġtwijf elt
Ġpoly urie
Ġuitstral ende
Ġv lucht
Ġamen orrhoeduur
geh uwd
elt o
W L
s ap
protect ine
Ġlaryng oscopie
Ġkant oortijden
inv asieve
Ġlax antia
vi aties
orst uk
Ġde structie
Ġd aalde
Ġmedicatie STARTEN
Ġpost OK
Ġflex ura
Ġf lebitis
22 6
Ġblijven d
Ġnormof oor
Ġadres V
ic ien
ade mgeruis
H eden
Ġlab ia
Ġsysteem ziekte
Ġfib romyalgie
Ġhemopt oÃ«
5663 100
m rt
Ġcont ract
Ġoptreed t
Ġach alasie
pl ooien
Ġur olithiasis
Ġge flush
EL YSTAD
Ġbacteri Ã«n
Ġosteosynthese materiaal
Ġbacterie el
om yc
Ġge me
ĠT Y
ĠSt ichting
ib re
defici entie
or de
k oek
Ġafge plakt
Ġpsych otisch
ĠU CC
ĠAchter hoofd
Ġpoly artritis
Ġhallucin atoir
ĠCON T
ĠWond jes
Ġv rucht
Ġhyp ospadie
Ġneus maagsonde
Ġgek le
hyper p
gerelat eerd
Ġstoel gang
Ġstenose s
Ġreces sus
TH IA
Ġperi anale
Ġeryth emateus
p or
Ġrust gevende
Ġuitval sverschijnselen
Ġge tal
ĠL o
s ale
Ġcholecyst olithiasis
ĠD G
ĠEvent s
et ale
kinder en
Echtgen ote
c ebo
lit teken
Ġstereotact ische
cardi ale
C F
V ORM
Ġsp iraal
it iviteit
ĠK aak
Ġsch e
nod us
ĠRadi ologisch
Ġasym metrisch
Ġdood s
ap lastiek
ĠOver wegen
Ġover eind
Ġcran iale
end ym
ĠD ikke
Ġsch ok
ĠAz athioprine
ĠA spiratie
ep ro
ER G
hol d
Ġar cus
ect eren
Ġ ÂłÂłÂłÂłÂłÂłÂłÂłÂłÂłÂłÂłÂłÂłÂłÂł
ab d
Ġt iter
ati va
Ġfamilie gegevens
th oracale
Ġbeh aarde
omed iaal
Ġaspergill ose
Ġjong ste
ge tekende
TB I
Ġged achte
Ġaden omy
ec om
Ġmoeiz amer
Ġ21 60
Ġf ertiliteit
oek lachten
ĠAC C
Ġt om
Ġ< =
omet azoline
Ġtran en
Ġvermoe iend
ĠB PH
Ġboven kwadrant
Ġbewegings apparaat
Ġz ult
eg orie
Ġinf usen
ĠSp reekuur
Ġafge wezen
ment atie
Ġtrans amin
Ġbuis jes
Ġonder armen
ĠToen emende
Ġov ale
on er
use a
Ġgesla chts
au hin
Ġaller lei
B l
Ġsp oeling
s ociale
Ġex per
Ġl nn
Ġver sie
ĠHersen infarct
rupp eld
olog ical
ĠP o
Ġj oint
ma ilt
ar elto
Ġmil rinone
w s
Ġoog heelkundige
Ġ5669 111
v aardigheid
CHLOOR THIA
Ġinhoud elijk
ĠH igh
Ġvr ies
Ġst abiliteit
ĠPart eur
Pijn klachten
ĠMobiliteit stekort
il ob
Ġaft er
Ġverne velingen
der maal
Ġuitstr ijk
ĠA spect
assistent Oogheelkunde
ĠL eg
al va
ose psis
O RAF
kw am
ĠC r
we ede
Ġot itiden
Ġf luxus
continu eren
ĠSp inaal
ĠBuiten land
vol ol
onor gestrel
Ġpak jaren
b od
Ġv elden
Ġbe zit
Ġget unn
Eer der
kneu zingen
ĠTympan isch
ond uidelijk
Ġonder staand
ĠVER VOLG
Ġverhuis d
ĠB OT
ĠMe et
it a
ĠPro gnose
TH OORN
ĠBevallings wijze
cardi aal
ap r
ov ent
Ġk efzol
ou x
Ġbenz odi
ĠEch ocardiografie
Ġin valider
444 02
Ġwen nen
Ġplaat osteosynthese
ri al
dex amethason
Ġac quired
ĠPerifeer IV
Ġstand s
Ġalkal ose
m od
ab ilisatie
ier es
17 6
ĠUit bre
Ġcap sules
thal assemie
iv o
ĠSan quin
Ġox aliplatin
Ġstud ies
Ġ2 30
long arts
Ġachter af
ĠTem azepam
Ġaortaklep insufficiÃ«ntie
Ġnage keken
Ġlocoreg ionale
dy nam
ĠLABORATORIUM ONDERZOEK
7 50
ĠR EG
Ġkw ark
Ġcar vedilol
44411 40
Ġcox artrose
Ġs oorten
f an
ok ok
> >
d onor
Ġm irt
Ġh ave
Ġzon licht
izel ig
le cran
H N
CHLOORTHIA ZIDE
ari Ã«
Ġintram usculair
Ġcyt arabine
ĠFOLF IRINOX
Ġcervix lengte
Ġmaak ten
A O
par acetamol
17 8
ver if
ĠW EL
Ġdarm ischemie
Ġc ijf
ĠTh yrax
ĠT ub
Meer dere
Ġsegment ele
aan tal
mis bruik
and om
Ġamp ul
Ġvol aire
Ġplantair flexie
Ġinterventie cardioloog
Ġgaan de
b ar
ycl ofosfamide
Ġextra syst
Ġlymfeklier metastasen
Ġ500 0
ORAF GAAND
Ġtra an
ĠG OLD
dd ans
Ġonduidelijk heid
bro od
Ġzo et
Ġproduc eren
Ġab ort
K EPPRA
f act
ol yt
al m
par a
ad och
un ch
front aal
OG LOB
ĠHist ologie
ĠHulpvraag patiÃ«nt
Ġontwikk elt
ĠB eer
22 8
Ġvlok ken
CL AV
ien ummer
Ġd rug
Ġl er
sp er
ĠNov ember
S lank
Ġbloed glucose
activ iteiten
Ġgra diÃ«nt
Ġziekte kosten
Ġfleca inide
Ġangst stoornis
ge tal
Ġlymf atische
ĠIn actieve
ĠNeut ro
vula anzuur
radi otherapie
c av
d ge
f les
been merg
ACU TE
Ġeosinof iele
Ġ- ----------------
Ġstollings status
M aag
ĠB RAF
nam en
Ver zoek
g lu
Ġrechter atrium
Ġbesch ouwen
Ġrechter knie
Ġbij spuiten
Ġulceratie s
ĠTh ema
Ġflex ibele
Ġgegener aliseerd
Ġfix ateur
Ġs ust
d ub
or ectaal
ĠIN JVLST
ĠCardi opulmonaal
Ġrep resent
Ġcan desartan
Ġsch oeisel
Ġtromb oflebitis
ĠVast e
Ġkol ft
Ġco arct
ĠAVN RT
ver hoogd
Ġverzekerings maatschappij
Ġth y
R H
Ġde hiscentie
Ġijz ers
OR ST
Ġbup ivacaine
Ġpren atale
Ġb lin
Ġbrij ig
ĠBlad derscan
Ġ14 21
ĠP an
____________________ ___
it sen
Ġm ig
ax iaal
alg ia
Ġen zymen
Ġwond lekkage
ED NIS
Ġtherap ietrouw
p ed
Ġdarm krampen
richt ing
IP S
es iculair
Ġuit geb
Ġcoron avirus
in ed
Ġdag opname
at ologische
ĠBurgers ervicenummer
16 7
in osa
ĠC ARBASALAAT
ELD VORM
ĠLeuk odiff
rot ocol
ĠSl ikken
ĠCONT ACT
Ġmast oÃ¯den
issu ra
ĠĠĠĠĠĠĠĠĠĠĠĠĠĠĠĠĠĠĠĠĠĠĠĠĠĠĠĠĠĠĠĠ ĠĠĠĠĠĠĠĠ
uit ens
oc ulaire
Ġform ulieren
ir iva
Ġy e
ĠMetab ool
h eerd
erv eerd
Ġnecrot ische
it el
15 6
U IN
Ġkoorts vrij
yndro men
ctasie en
iom are
ĠBeper kte
rouw er
H ernia
Ġgek n
Ġmaag uitgang
Ġc ART
ĠVan dertop
B est
Ġp icc
Tot ale
Ġgem ist
Ġmicro scopische
Ġbloedings focus
sh unt
st uwing
Ġuitleg gen
C X
met ab
V itale
Ġge pensioneerd
ĠSp ec
ĠGro et
adoch ok
k inet
oc obalamine
h ak
Ġletsel s
Ġmanip ulatie
Ġverst opte
ab loed
19 38
Ġschoon maken
ĠPRE BE
seld oor
ge past
iv entriculaire
Ġgang spoor
orb itaal
E ch
Ġlab waarts
Ġintermit terende
K S
ĠVoort gangsverslag
Ġfemur hals
Ġval neiging
ĠVZ V
ĠF orm
Ġthorac ol
ochrom atose
I RA
neu zen
edag og
Ġaanzien lijk
sp el
Ġover hecht
Ġ21 34
W Z
Ġl acht
Ġscler odermie
Ġont w
ib rilleren
Cardi ovasculaire
sp r
ĠĠĠĠĠĠĠĠĠĠĠĠĠĠĠĠĠĠĠĠĠĠĠĠĠĠĠĠĠĠĠĠ ĠĠĠĠĠĠĠĠĠĠĠĠĠ
ĠP oint
Ġuit vloed
an kt
ĠB alans
Ġgecombin eerde
Ġd alen
ĠL eu
elt umor
Al bum
19 76
ĠOr ders
atiefol der
ru pt
Ġvals artan
vo erende
bi opsie
ĠAo V
Ġl ijf
at rache
ĠB is
Ġv accin
Ġover erving
Ġhart geluiden
ge halte
Ġr anden
par affine
Ġst reep
rom pel
ĠB ricker
I US
Ġhe et
Ġge smeerd
Ġl oss
oe ur
ist ine
ĠBe sprekingen
ĠGemet astaseerd
ĠP seud
in ten
es je
Ġboven lip
Ġmin i
ĠCap sule
Ġsch eef
pap ieren
ĠOm schudden
s kelet
Ġ15 02
ĠBE ELDVORM
Ġsub durale
Ġwaarde volle
Ġsch rijft
Ġreg urg
ĠUrine productie
Ġge est
Ġaf geleid
ĠDiff use
ĠIn continent
Ġ18 1
ĠW J
IN KEN
Ar g
ĠBe ademing
Ġabces vorming
Ġtibi aplateau
Ġpar al
ot one
Ġvererg eren
Ġpancreaskop carcinoom
ĠVOOR BEREIDING
Ġh s
Ġhal veren
yel onefritis
els onstraat
Ġ ÂłÂłÂłÂłÂłÂłÂłÂłÂłÂł
ET IDE
Ġang ulatie
per for
Ġplannings bureau
Ġne x
ĠNuc leaire
Ġuit ruimen
ĠK ORT
ĠL UTS
ĠPM R
om end
ĠHUISARTS PRAKTIJK
Ġant erolateraal
Ġcyste us
Ġneurop athische
ĠB IC
ĠS egment
2020 09
sc atheter
Ġsin ist
sf racturen
Ġstamc el
L UMC
Ġc oordinatie
Ġrecon structies
IL VERS
EHANDEL ING
inf lammato
T rauma
p ees
Ġgewicht s
ocardi ografisch
Ġhart dood
Ġmer onem
t rombose
Ġbuik je
x l
sc reen
ĠDaar op
i opt
ĠP MC
Ġre sectabel
ĠIN FORMATIE
c ing
ont ane
ĠGel aat
Ġdwang stand
T V
o ost
emp o
Ġtwijf els
W ASSEN
Ġun it
Ġtromb ocytose
Ġwond vocht
acht s
ati ve
Ġgee valueerd
Ġp es
Ġvoor zijde
orf e
or ubicine
ĠH oek
[...]
