<unk>	0
<s>	0
</s>	0
[MASK]	0
[SEP]	0
[CLS]	0
.	-3.3135
:	-3.33323
,	-3.40887
▁de	-3.89089
▁#	-3.90866
▁van	-4.03242
▁en	-4.17713
-	-4.30953
▁	-4.31924
▁-	-4.37786
▁(	-4.44232
▁[	-4.61953
▁een	-4.6643
▁met	-4.68444
▁in	-4.70285
)	-4.92898
▁het	-4.96273
]	-5.04145
PERSOON	-5.14391
▁op	-5.16287
▁bij	-5.18068
/	-5.1906
▁voor	-5.29693
▁is	-5.38213
e	-5.41678
▁geen	-5.43285
DATUM	-5.44101
;	-5.46465
s	-5.63267
▁of	-5.65122
▁niet	-5.6664
▁te	-5.68562
#	-5.69614
▁De	-5.76265
▁<	-5.86735
Cardiologie	-5.99055
CAR	-6.02451
▁zijn	-6.04711
▁door	-6.07856
>	-6.08496
▁Consult	-6.11719
▁aan	-6.11737
▁na	-6.12778
▁werd	-6.13636
en	-6.13728
▁Geen	-6.16813
▁dat	-6.17558
▁#.#	-6.18419
),	-6.19194
]:	-6.19195
▁onderzoek	-6.2053
▁die	-6.2062
▁per	-6.28859
▁tot	-6.36964
Conclusie	-6.37549
▁naar	-6.38087
▁Antwoord	-6.3826
▁Omschrijving	-6.38308
▁Categorie	-6.38432
▁Thema	-6.38446
▁patiënten	-6.38673
▁was	-6.45836
min	-6.46731
'	-6.47465
▁om	-6.48299
▁als	-6.52458
L	-6.5473
▁Cardiologie	-6.5882
▁worden	-6.6254
).	-6.66483
gegevens	-6.68928
▁ook	-6.69635
▁over	-6.70037
mg	-6.72129
▁wordt	-6.73166
Nee	-6.73568
▁x	-6.73951
conversie	-6.74317
▁klachten	-6.75022
▁|	-6.76087
▁Het	-6.77416
▁deze	-6.78081
Datum	-6.78196
▁dan	-6.81629
▁nu	-6.82273
▁er	-6.82986
▁In	-6.83272
▁werden	-6.83617
▁#,#	-6.85275
▁patiënt	-6.87933
▁dag	-6.89685
▁jaar	-6.91271
d	-6.92961
▁heeft	-6.93392
▁#:#	-6.9698
▁functie	-6.98921
voorgeschiedenis	-6.9901
▁goed	-6.99232
],	-7.01054
▁ECG	-7.01607
):	-7.0234
▁kan	-7.02524
▁#/#	-7.02799
▁uit	-7.03048
▁/	-7.04535
m	-7.05118
▁maar	-7.05207
▁mg	-7.0673
?	-7.0839
▁#-#	-7.1156
▁nog	-7.12128
LOCATIE	-7.12644
▁#/	-7.12841
▁behandeling	-7.13579
▁LV	-7.14573
▁Bij	-7.14762
▁u	-7.15024
▁normale	-7.15186
ZIEKENHUIS	-7.15211
▁dit	-7.16858
▁tijd	-7.17114
▁zonder	-7.19087
n	-7.19964
K	-7.20858
▁meer	-7.21248
▁#%	-7.21614
▁al	-7.21633
▁linker	-7.22751
▁hebben	-7.24199
▁hart	-7.242
▁A	-7.24888
▁CT	-7.24975
▁T	-7.25333
▁datum	-7.25768
▁Conclusie	-7.27125
▁PCI	-7.28058
x	-7.29599
▁Overzicht	-7.30024
▁Er	-7.30085
▁waren	-7.31093
▁wel	-7.32278
▁tussen	-7.32418
▁Een	-7.32885
▁ICD	-7.33644
D	-7.34792
▁goede	-7.349
:#	-7.36124
▁waarvoor	-7.3734
▁kunnen	-7.37932
▁mmHg	-7.38464
▁onder	-7.39696
LEEFTIJD	-7.39834
▁pijn	-7.40825
▁controle	-7.41266
▁Met	-7.41328
▁wat	-7.41458
v	-7.41474
▁nee	-7.41931
▁oraal	-7.42911
▁B	-7.44757
▁zich	-7.44956
▁normaal	-7.45464
-#>	-7.45584
S	-7.4632
▁S	-7.46729
Beleid	-7.50148
euzelijst	-7.50533
▁ja	-7.50764
Tijd	-7.51127
ID	-7.51304
▁mmol	-7.51424
▁mm	-7.51662
l	-7.52039
▁zetten	-7.52076
▁=	-7.52131
▁risico	-7.52136
a	-7.52147
▁tijdens	-7.5235
▁andere	-7.53201
▁ischemie	-7.53369
▁RV	-7.54573
b	-7.54974
▁medicatie	-7.54979
▁aanwijzingen	-7.55017
▁maanden	-7.55688
▁a	-7.56198
▁LAD	-7.56512
▁mogelijk	-7.5663
▁eerste	-7.56807
▁huisarts	-7.5687
▁opname	-7.56925
▁and	-7.57555
▁RR	-7.57845
▁milligram	-7.59228
▁ivm	-7.59309
▁(#	-7.59414
Anamnese	-7.60703
▁tablet	-7.60931
▁rechts	-7.61769
▁uur	-7.61826
t	-7.62471
▁]	-7.63846
▁"	-7.64316
▁C	-7.65074
▁'	-7.65219
▁gegevens	-7.65514
▁procedure	-7.66545
▁studie	-7.6698
▁P	-7.68996
Aanvullend	-7.69302
C	-7.69388
▁echo	-7.69436
Samenvatting	-7.704
▁links	-7.70413
▁Deze	-7.70613
▁weken	-7.71853
▁richtlijn	-7.71938
▁Normale	-7.72128
(	-7.72316
▁via	-7.72577
▁d	-7.72593
▁gezien	-7.73109
▁afwijkingen	-7.73334
▁hij	-7.73336
▁borst	-7.73685
▁cardiale	-7.74154
▁AF	-7.74334
▁stenose	-7.75079
▁+	-7.76137
HTX	-7.77463
▁dd	-7.77594
▁Decursus	-7.77943
▁we	-7.77993
▁MRI	-7.78446
▁type	-7.78751
▁Overige	-7.78943
:[	-7.7909
▁Geslacht	-7.79333
A	-7.79502
▁collegial	-7.79737
▁p	-7.79788
dd	-7.79874
▁eerder	-7.8045
▁dagen	-7.80764
▁V	-7.81021
▁U	-7.8134
2	-7.81688
▁inspanning	-7.81785
▁rechter	-7.83026
▁et	-7.83068
▁echter	-7.83414
▁CAG	-7.83544
▁had	-7.84543
mm	-7.84747
▁gebruik	-7.84901
%	-7.85421
▁Na	-7.85954
▁alle	-7.86124
Ja	-7.86652
▁ze	-7.86769
])	-7.87335
▁hoogachting	-7.87535
▁Verslag	-7.87637
▁D	-7.87671
▁2	-7.87786
▁hypertensie	-7.87923
de	-7.88067
▁ml	-7.88226
].	-7.88707
▁RCA	-7.89461
▁Cardiale	-7.89545
▁([	-7.89748
jarige	-7.90287
▁Echo	-7.90511
▁verhoogd	-7.90664
▁Op	-7.91114
▁volgens	-7.91767
▁zoals	-7.9207
▁studies	-7.92875
▁significant	-7.93942
▁beleid	-7.94623
▁veel	-7.94719
▁cm	-7.95313
V	-7.95492
M	-7.95841
▁binnen	-7.95849
▁Dit	-7.95891
▁gaat	-7.96361
▁effect	-7.96449
▁weer	-7.96969
▁1	-7.97265
▁bekend	-7.97275
▁L	-7.97687
▁nodig	-7.97757
▁leeftijd	-7.97929
▁LVEF	-7.98199
▁Niet	-7.98262
▁significante	-7.98364
c	-7.98639
▁bloeddruk	-7.98828
▁(#)	-7.99132
r	-7.99422
▁#)	-8.00012
P	-8.00253
▁CABG	-8.00611
▁the	-8.00699
▁coronaire	-8.00818
▁Medicatie	-8.01311
▁ter	-8.0137
▁twee	-8.01386
▁implantatie	-8.01839
▁gebruikt	-8.02189
▁basis	-8.0239
▁MI	-8.02442
▁uw	-8.02728
T	-8.03061
▁klinische	-8.03252
▁H	-8.0355
▁vervolgconsult	-8.03831
▁E	-8.03897
▁gedilateerd	-8.04423
▁patient	-8.0458
▁waarbij	-8.05162
▁hartfalen	-8.05308
p	-8.06303
▁ernstige	-8.06624
▁rust	-8.06873
B	-8.07135
▁diagnose	-8.07187
Procedure	-8.07578
▁zo	-8.08646
▁opgenomen	-8.08867
▁haar	-8.09013
▁gehad	-8.09139
▁R	-8.09214
up	-8.10046
Brief	-8.10065
ing	-8.10626
▁Procedure	-8.12056
▁gedurende	-8.1249
▁matige	-8.12516
▁i	-8.12582
▁analyse	-8.12703
▁uitgevoerd	-8.12741
▁diabetes	-8.12895
▁minder	-8.13512
▁ziekte	-8.1356
datum	-8.13589
▁decursus	-8.13594
▁aantal	-8.13887
▁cor	-8.14139
o	-8.14425
▁week	-8.14452
▁geringe	-8.14503
▁I	-8.14592
▁afspraak	-8.14614
▁X	-8.14863
▁systolische	-8.15156
▁verhoogde	-8.15497
▁af	-8.15863
1	-8.16193
▁verband	-8.16468
▁ten	-8.16486
▁SR	-8.16585
▁verschillende	-8.1687
▁Voor	-8.17028
▁consult	-8.17557
man	-8.18065
▁arts	-8.19082
▁zeer	-8.19579
▁nieuwe	-8.19603
▁score	-8.19862
▁atriumfibriller	-8.20092
▁Hypertensie	-8.20332
▁verder	-8.20392
#-	-8.20416
▁wv	-8.21259
▁aorta	-8.21429
▁3	-8.21604
▁hoge	-8.22107
g	-8.22247
▁contact	-8.22436
▁alleen	-8.22713
▁vanwege	-8.228
▁anamnese	-8.2305
▁onderzoeken	-8.23688
▁toonde	-8.23748
▁M	-8.23997
in	-8.24189
):#	-8.24255
▁zorg	-8.24325
▁ventrikel	-8.24508
▁coronair	-8.251
ml	-8.25255
:#.#	-8.25335
▁zal	-8.26054
▁Reden	-8.26435
▁II	-8.27228
"	-8.27473
kg	-8.28016
▁t	-8.28065
▁Indicatie	-8.292
F	-8.2926
▁v	-8.29393
▁Cor	-8.29413
▁hun	-8.29594
▁moet	-8.30126
▁ST	-8.3069
Lichamelijk	-8.30823
#/	-8.31269
▁resultaten	-8.31327
▁zou	-8.31343
▁K	-8.31758
▁VT	-8.32689
▁follow	-8.33478
line	-8.33654
▁waarschijnlijk	-8.3378
▁Onderzoek	-8.34034
i	-8.34173
R	-8.34972
▁behandeld	-8.34975
▁zien	-8.3507
▁vrouwen	-8.35271
▁#-#:	-8.35289
▁max	-8.35456
▁ziekenhuis	-8.35606
▁kinderen	-8.35709
▁laag	-8.36545
▁man	-8.36736
▁enkele	-8.36785
▁maken	-8.36914
▁Hij	-8.37022
▁re	-8.37176
▁toe	-8.37392
▁zij	-8.37587
▁Goede	-8.37715
cm	-8.3834
▁stress	-8.3864
of	-8.38737
▁beeld	-8.39009
▁risicofactoren	-8.39318
▁grote	-8.39782
▁vergelijking	-8.40012
▁verminderde	-8.40068
▁hoog	-8.40088
E	-8.40357
▁for	-8.4057
▁ik	-8.40659
=	-8.40913
▁status	-8.41049
▁geassocieerd	-8.41118
▁licht	-8.41205
▁gedilateerde	-8.42259
▁behulp	-8.42308
▁HTX	-8.42355
▁informatie	-8.42584
▁We	-8.42769
▁ablatie	-8.42921
▁groep	-8.43053
▁Uitslag	-8.43434
▁Algemene	-8.43904
▁acute	-8.44206
>,	-8.44208
▁Anamnese	-8.44238
.|	-8.44512
▁;	-8.44947
▁therapie	-8.45132
#,	-8.45256
▁thoracale	-8.45278
▁veranderingen	-8.45427
▁with	-8.45474
▁AP	-8.45796
▁komt	-8.45847
▁ontslag	-8.45992
▁Toelichting	-8.46394
▁operatie	-8.46789
▁lijkt	-8.47845
▁cardioloog	-8.4785
▁mid	-8.47902
▁bewijs	-8.48385
▁Diabetes	-8.48958
ische	-8.49423
▁sinds	-8.49768
▁dyspnoe	-8.49768
?:	-8.49875
▁ge	-8.50154
▁start	-8.50232
onderzoek	-8.50268
radioloog	-8.50377
▁Geringe	-8.50418
▁cardiomyopathie	-8.5043
▁Datum	-8.50521
▁volgende	-8.50546
▁toename	-8.50635
▁literatuur	-8.50967
▁druk	-8.51162
▁gevonden	-8.51192
thorax	-8.51369
▁oedeem	-8.51371
▁bekende	-8.51529
▁EF	-8.51855
▁hadden	-8.52
▁g	-8.52524
▁RA	-8.5257
▁komst	-8.52577
▁poli	-8.52596
er	-8.52612
▁Beleid	-8.5314
▁G	-8.53422
▁Nederlandse	-8.53591
TELEFOONNUMMER	-8.54037
▁AV	-8.54311
▁klinisch	-8.54589
▁lab	-8.54602
▁Polikliniek	-8.54679
▁beide	-8.54763
▁perfusie	-8.54927
▁iets	-8.54974
▁recente	-8.55059
▁sprake	-8.55342
▁zowel	-8.55343
▁as	-8.55348
);	-8.55493
▁lage	-8.55672
▁QRS	-8.55703
▁TI	-8.56037
▁last	-8.56443
INSTELLING	-8.56496
▁ventriculaire	-8.56599
▁stabiel	-8.56648
mmHg	-8.56656
▁%	-8.56704
ie	-8.56799
▁ons	-8.57134
▁Klinische	-8.57224
▁[].	-8.57276
▁onze	-8.5749
▁stent	-8.57572
▁Ook	-8.57603
▁kg	-8.57726
▁werkgroep	-8.57748
▁vaak	-8.57758
▁geweest	-8.57826
▁aortaklep	-8.57841
▁beter	-8.57995
▁Als	-8.58086
▁toont	-8.58148
▁>	-8.58929
u	-8.59103
▁recidief	-8.59492
nee	-8.59522
▁vrouw	-8.59737
▁complicaties	-8.59784
▁#%.	-8.59863
▁Verder	-8.60022
▁aangetoond	-8.60224
▁Vraagstelling	-8.60293
▁syndroom	-8.60565
▁Ca	-8.60565
▁gemiddelde	-8.60834
▁totale	-8.60859
▁\	-8.60948
▁conform	-8.61051
-#	-8.61476
▁drie	-8.6151
▁_	-8.6169
▁4	-8.62022
▁negatief	-8.62151
▁cardiologie	-8.62183
▁besproken	-8.62236
▁5	-8.62772
▁CVA	-8.62881
stoornissen	-8.63208
▁post	-8.63239
▁myocardinfarct	-8.6347
▁infarct	-8.63556
le	-8.63574
▁Heeft	-8.636
J	-8.63605
G	-8.63689
▁LVF	-8.63963
▁bevindingen	-8.64169
▁Normaal	-8.64498
▁LA	-8.64517
cardiovasculaire	-8.65073
re	-8.65134
▁gevallen	-8.65191
▁belang	-8.65325
▁chronische	-8.65344
▁belangrijke	-8.65355
▁laten	-8.65521
▁tachycardie	-8.65996
▁kwaliteit	-8.66338
▁ECV	-8.66391
Reden	-8.66411
▁dus	-8.66486
▁polikliniek	-8.66628
▁Ze	-8.66669
▁Patiënt	-8.66766
▁komen	-8.67056
▁minuten	-8.67138
▁Geachte	-8.67241
▁m	-8.67453
▁laatste	-8.67475
▁calciumscore	-8.67498
I	-8.67556
▁effecten	-8.678
▁indien	-8.67844
▁collega	-8.68261
▁SEH	-8.68588
▁één	-8.6871
▁collaps	-8.68754
W	-8.68812
ms	-8.69013
▁meest	-8.69051
patiënten	-8.69199
▁CVD	-8.69274
▁Patient	-8.69376
▁vragen	-8.69573
▁pre	-8.70392
▁Samenvatting	-8.70412
zie	-8.70578
▁volgt	-8.7065
▁zelf	-8.71043
▁Ik	-8.71087
▁opnieuw	-8.71162
▁symptomen	-8.71218
▁#<	-8.71685
\	-8.7169
▁doen	-8.71781
▁meerdere	-8.72046
▁(#.#	-8.72235
▁dosis	-8.72274
▁Vereniging	-8.72537
Medicatie	-8.72542
▁huis	-8.728
▁s	-8.72996
▁yes	-8.73238
▁vaatziekten	-8.73272
▁verricht	-8.73392
▁Aanmelding	-8.73482
▁keer	-8.73556
▁medische	-8.73591
▁wegens	-8.74015
▁indicatie	-8.74015
▁n	-8.74454
▁versus	-8.74502
▁gaan	-8.74586
▁6	-8.74714
▁protocol	-8.74788
▁interventie	-8.74928
▁VCI	-8.74992
▁nier	-8.75066
▁cordis	-8.75118
▁duur	-8.75118
▁Leeftijd	-8.75168
▁c	-8.75291
▁duidelijk	-8.75415
▁tegen	-8.75443
▁lever	-8.75793
▁sec	-8.76009
▁name	-8.7602
▁anti	-8.76119
▁atherosclerose	-8.76314
▁betreft	-8.76439
▁kleine	-8.76465
▁Brief	-8.76503
▁steeds	-8.76548
▁bleek	-8.76755
▁gemeten	-8.76755
▁ritme	-8.76761
▁metoprolol	-8.76811
▁terug	-8.76887
▁Holter	-8.76976
▁on	-8.76979
▁min	-8.77213
▁bijwerkingen	-8.77418
▁Nee	-8.775
▁TTE	-8.77559
▁rol	-8.77866
▁totaal	-8.77921
▁pacemaker	-8.77933
▁non	-8.78134
▁Zo	-8.78239
▁vergeleken	-8.78257
▁Lab	-8.78271
▁ver	-8.78277
▁to	-8.78352
▁*	-8.78363
▁hier	-8.7854
te	-8.7885
|	-8.78915
▁overig	-8.78991
▁aanwezig	-8.79043
▁zie	-8.79053
▁omdat	-8.79216
▁patiënte	-8.79229
groep	-8.79334
▁moeten	-8.79427
▁slechte	-8.79485
▁Gewicht	-8.79866
None	-8.79913
space	-8.80222
▁welke	-8.80313
▁weinig	-8.80355
▁afwijking	-8.80408
▁J	-8.80509
▁Status	-8.8059
analyse	-8.80995
▁geven	-8.81015
▁percentiel	-8.81301
▁hartas	-8.81322
▁N	-8.81481
."	-8.81634
▁bpm	-8.81651
▁hyper	-8.81899
▁waargenomen	-8.81997
CT	-8.82058
▁diastolische	-8.82081
▁be	-8.82228
Decursus	-8.82313
▁eigen	-8.82418
N	-8.82633
▁angina	-8.82743
▁b	-8.83022
▁e	-8.83088
▁plaats	-8.8339
▁obv	-8.83416
▁DM	-8.83416
▁frequentie	-8.83513
▁10	-8.83672
▁Kliniek	-8.8393
▁O	-8.84009
▁gebied	-8.84368
▁tweede	-8.8437
▁Is	-8.84597
▁CRP	-8.84739
▁toch	-8.8495
▁acuut	-8.85076
▁sinusritme	-8.85149
▁later	-8.85619
▁termijn	-8.85621
▁bloed	-8.85656
pacemaker	-8.85773
▁matig	-8.85812
H	-8.86162
▁OK	-8.86187
▁atriale	-8.86313
▁koorts	-8.86344
▁afgelopen	-8.86347
▁flow	-8.86368
▁nierfunctie	-8.86576
▁overleg	-8.86604
▁coronairlijden	-8.86624
▁Indien	-8.86641
cholesterolemie	-8.8686
▁extra	-8.86934
▁gemaakt	-8.8694
▁verbetering	-8.86957
▁#%,	-8.86979
▁Verrichting	-8.86997
▁ongeveer	-8.87213
al	-8.87262
▁huidige	-8.87336
▁PM	-8.87437
▁geval	-8.87577
▁staat	-8.87608
▁beoordelen	-8.87871
▁mannen	-8.87918
O	-8.87957
▁gevoel	-8.88135
▁ontwikkeling	-8.88328
]-	-8.88404
▁lead	-8.88418
▁LDL	-8.88601
▁DD	-8.88693
▁terwijl	-8.88844
▁deel	-8.88912
3	-8.89136
▁combinatie	-8.89295
▁mellitus	-8.89352
▁wij	-8.89362
Y	-8.89577
▁oorzaak	-8.89581
▁enige	-8.89895
▁roken	-8.89956
▁gestart	-8.89971
▁relevante	-8.90079
ECG	-8.90202
▁screening	-8.90687
▁syst	-8.90883
▁–	-8.90985
▁pectoris	-8.91122
▁tonen	-8.91654
],[	-8.91801
▁beperkt	-8.92129
▁daarom	-8.92512
▁Aanvraag	-8.92514
▁redelijke	-8.92662
▁device	-8.92725
▁gegeven	-8.92828
▁presentatie	-8.93197
▁kans	-8.93221
▁LVAD	-8.93318
▁Lengte	-8.93368
▁groepen	-8.93549
▁korte	-8.93642
▁Nu	-8.9373
▁#/#(#)	-8.93838
▁beschreven	-8.93875
▁men	-8.93877
▁niveau	-8.9419
▁wil	-8.94306
LAD	-8.94441
▁sotalol	-8.94483
▁F	-8.94671
▁cholesterol	-8.94705
f	-8.948
▁hoger	-8.94806
▁souffle	-8.95239
▁moment	-8.9584
Controle	-8.95877
▁BMI	-8.96074
reveal	-8.9624
▁beiderzijds	-8.96397
▁beoordeeld	-8.96653
▁jaren	-8.96753
▁respectievelijk	-8.96851
▁primaire	-8.9729
▁tekenen	-8.97343
▁werk	-8.97382
▁aandoeningen	-8.97436
ja	-8.98054
▁gestopt	-8.98069
ritmestoornissen	-8.98083
+	-8.98129
▁Pacemaker	-8.98409
▁standaard	-8.9851
-#>,	-8.9863
▁problemen	-8.98746
▁prognose	-8.99202
▁->	-8.99259
▁mee	-8.99455
functie	-8.99458
▁(<	-8.99514
▁III	-8.99573
▁gewicht	-8.99637
▁angiografie	-8.99825
▁elke	-8.99863
▁eGFR	-8.99987
▁snel	-9.00028
▁wanneer	-9.00131
heid	-9.00341
▁factoren	-9.00411
▁onderzocht	-9.00425
▁Van	-9.00617
▁Calciumscore	-9.00661
▁artikelen	-9.0068
▁Hart	-9.00706
▁o	-9.0077
▁pleuravocht	-9.00864
french	-9.00969
geen	-9.00996
▁verschil	-9.01057
▁ischemische	-9.0109
▁RF	-9.01127
▁afdeling	-9.01218
▁Sinusritme	-9.01249
▁Document	-9.01682
▁geeft	-9.01815
▁FFR	-9.01824
▁mitralisklep	-9.01876
do	-9.01968
▁eerdere	-9.021
Size	-9.02163
▁().	-9.02302
▁waar	-9.02319
▁risicoprofiel	-9.02338
▁Gaat	-9.02392
▁nemen	-9.02524
op	-9.02544
▁zichtbaar	-9.0258
▁groot	-9.02603
▁gestaakt	-9.02662
▁co	-9.02849
▁familie	-9.02966
eleconsultatie	-9.02968
▁mensen	-9.03116
▁mortaliteit	-9.03124
▁Lichamelijk	-9.03307
▁Om	-9.03419
▁cardiaal	-9.03758
▁soms	-9.03804
▁ziek	-9.0384
▁verdere	-9.04083
stoornis	-9.04086
▁+/-	-9.04132
▁Wij	-9.04181
▁diagnostiek	-9.04262
▁preventie	-9.04289
▁geleden	-9.04347
▁infectie	-9.04368
▁samenvatting	-9.04398
▁pols	-9.04482
▁Familie	-9.04565
▁duidelijke	-9.04594
▁voorkomen	-9.04713
▁Q	-9.04718
▁vooral	-9.04729
▁Tevens	-9.04866
▁Opname	-9.04946
▁Controle	-9.05026
▁passend	-9.05182
▁rond	-9.05284
▁vanaf	-9.05351
▁Bloeddruk	-9.05398
▁praktijk	-9.05463
▁dysfunctie	-9.05532
▁advies	-9.05559
▁belangrijk	-9.05594
▁periode	-9.056
▁boven	-9.05654
mol	-9.05671
▁ingreep	-9.05691
h	-9.05768
klachten	-9.05804
▁daarna	-9.06353
▁pijnklachten	-9.06404
▁Tijdens	-9.06432
▁hogere	-9.06702
▁verdenking	-9.07019
▁bepalen	-9.07089
▁Blanco	-9.07155
▁graad	-9.07234
▁CK	-9.07366
▁slechts	-9.074
▁beoordeling	-9.07609
▁dient	-9.07628
▁proximale	-9.0765
▁ca	-9.0768
▁COPD	-9.07846
▁mag	-9.07977
▁verschillen	-9.08166
ucceeded	-9.08221
insufficiëntie	-9.08316
▁bdz	-9.08439
▁mate	-9.08522
▁erg	-9.0859
▁maximaal	-9.08807
▁gevolg	-9.08919
▁aspect	-9.09263
▁verwijzing	-9.09467
▁redelijk	-9.09589
igheden	-9.09613
▁l	-9.0974
▁AoI	-9.09861
▁bijgeluiden	-9.10007
▁souffles	-9.10106
▁Betreft	-9.10618
▁reeds	-9.1064
▁progressie	-9.10718
▁brief	-9.10821
▁tumor	-9.10911
▁hartkloppingen	-9.10944
▁myocard	-9.10959
▁Afspraak	-9.11356
▁geslacht	-9.11368
▁HCK	-9.11494
▁Bekend	-9.11534
▁aanwezigheid	-9.1156
▁kenmerken	-9.11971
transplantatie	-9.11978
▁doel	-9.11985
▁atrium	-9.12199
▁PVC	-9.12283
▁negatieve	-9.12394
▁buik	-9.12494
▁ernstig	-9.12548
▁INR	-9.12748
▁PG	-9.13044
▁scan	-9.13095
Geen	-9.13098
behandeling	-9.13263
▁betrokken	-9.13487
▁ACS	-9.13639
▁Bovengenoemde	-9.13645
▁sinus	-9.13672
#.#	-9.13845
▁relatie	-9.13983
▁leven	-9.14133
▁activiteit	-9.14236
▁Gezien	-9.14351
▁HF	-9.14392
VAD	-9.14415
▁patiente	-9.14814
▁bepaald	-9.14896
▁test	-9.149
▁beloop	-9.14928
▁graag	-9.15073
▁belangrijkste	-9.15117
▁patint	-9.15218
▁specifieke	-9.15333
▁POB	-9.15433
flutter	-9.15473
▁waarde	-9.15476
▁Hb	-9.15523
▁positief	-9.15699
▁LVH	-9.15737
to	-9.15984
▁waardoor	-9.16085
Klinische	-9.16257
▁review	-9.16296
▁bijzonderheden	-9.16538
▁dilatatie	-9.16585
▁sterk	-9.16593
▁recent	-9.16635
Type	-9.16663
▁jarige	-9.16783
▁ms	-9.16878
▁palpitaties	-9.16952
▁ascendens	-9.17172
Opties	-9.17206
dag	-9.1721
▁stabiele	-9.17274
▁basaal	-9.17365
▁insuline	-9.17404
▁Cardiomyopathie	-9.17513
_	-9.17522
▁positieve	-9.17713
▁Bovendien	-9.18029
▁HR	-9.18055
geleidingstijden	-9.1823
▁kon	-9.18337
▁vastgesteld	-9.18542
▁blijft	-9.18557
▁samen	-9.18679
▁gedaan	-9.1868
▁decompensatio	-9.18796
▁Roken	-9.18817
▁W	-9.19195
MG	-9.19229
▁inferior	-9.19237
▁Alle	-9.19264
▁proximaal	-9.19269
▁Coronairlijden	-9.19357
▁stop	-9.19431
▁aanbevelingen	-9.1946
▁pt	-9.19544
▁zwangerschap	-9.19599
▁waaronder	-9.19671
▁hand	-9.19715
▁middel	-9.19732
▁pulmonale	-9.1985
▁intermediaire	-9.2002
▁Tel	-9.20033
k	-9.20042
▁kleplijden	-9.20202
▁snelle	-9.20428
▁hem	-9.20456
▁tevens	-9.20522
▁coronairen	-9.20608
▁Patiënten	-9.20667
▁lichte	-9.20728
▁hartslag	-9.20919
▁herstel	-9.20927
▁Pulm	-9.20936
▁MO	-9.21052
▁gb	-9.21056
▁kreeg	-9.21224
▁thuis	-9.21401
▁dimensie	-9.2143
▁Behandeling	-9.21463
isch	-9.21509
▁Wel	-9.21554
▁repolarisatie	-9.21559
therapie	-9.2166
triumfibrilleren	-9.2167
▁VAG	-9.21759
▁Ritme	-9.21961
▁VAD	-9.22151
▁VF	-9.22169
score	-9.2217
▁nooit	-9.22657
artklepafwijking	-9.2273
▁stoppen	-9.22767
▁antistolling	-9.22825
▁toediening	-9.22864
▁long	-9.22984
▁algemeen	-9.23169
▁klein	-9.23233
▁wandonregelmat	-9.23287
▁PQ	-9.23306
▁Laboratorium	-9.23384
▁evaluatie	-9.23409
▁altijd	-9.23596
▁bijwerken	-9.23604
▁huid	-9.23678
▁richtlijnen	-9.2374
▁algemene	-9.23755
▁distale	-9.23898
▁voldoende	-9.23902
-1	-9.24006
▁TC	-9.24016
▁aantekeningen	-9.24119
z	-9.24274
▁maximale	-9.24279
on	-9.24384
ge	-9.24406
▁kunt	-9.24453
▁CD	-9.24495
▁iv	-9.24501
▁Laatst	-9.2454
ed	-9.24601
▁massa	-9.24654
▁vanuit	-9.24705
▁hartziekte	-9.24829
▁aanvullend	-9.25086
▁afname	-9.25213
▁volledig	-9.25328
ve	-9.25338
▁slank	-9.25513
▁TAVI	-9.25597
▁cellen	-9.25735
▁gevolgd	-9.25954
▁direct	-9.26308
▁systeem	-9.26544
▁willen	-9.26552
▁huisartsen	-9.26575
▁lopen	-9.26611
X	-9.26661
▁geschiedenis	-9.26682
▁vervolgens	-9.2679
U	-9.26885
y	-9.26978
▁7	-9.26989
▁Aanvullend	-9.27025
▁middels	-9.27245
▁ongewijzigd	-9.27318
▁maand	-9.27374
▁opzichte	-9.27495
▁Medisch	-9.27571
▁verwezen	-9.27896
▁eerst	-9.279
▁Daarnaast	-9.27915
▁laat	-9.27995
▁pathologische	-9.28326
▁Congenital	-9.28328
▁St	-9.28405
▁patients	-9.28493
▁CRT	-9.28522
▁hoofd	-9.2859
▁deelnemers	-9.28629
▁milde	-9.28706
#-#	-9.28819
ire	-9.28897
▁statine	-9.28929
▁hartfrequentie	-9.28945
▁bestaat	-9.28954
▁EFO	-9.2898
▁veroorzaakt	-9.2898
▁telefonisch	-9.29028
▁Ao	-9.29296
▁personen	-9.29337
▁klasse	-9.29343
▁vs	-9.29494
▁Behandelplan	-9.29502
▁klep	-9.29519
▁hoe	-9.29734
▁contrast	-9.2981
▁vier	-9.2987
▁Diagnose	-9.29883
▁8	-9.29886
▁glucose	-9.29915
▁MV	-9.30098
▁percentage	-9.30323
▁waarin	-9.30354
▁CAD	-9.30619
▁houden	-9.30644
▁uitgebreide	-9.30884
Poliklinische	-9.30966
▁Hoewel	-9.30966
▁uitslag	-9.30987
▁ervan	-9.31
▁eventueel	-9.31002
▁serum	-9.31051
▁mogelijke	-9.3117
▁ontstaan	-9.31383
▁morgen	-9.31434
▁NYHA	-9.31604
▁vorm	-9.31761
▁Sinds	-9.31935
▁shock	-9.31963
▁Thuismedicatie	-9.32111
PRE	-9.32112
▁uitgesloten	-9.32119
4	-9.32181
▁verslag	-9.32246
▁medicijnen	-9.32341
▁resultaat	-9.32355
▁Matige	-9.32706
▁risk	-9.32718
Atriumfibrileren	-9.32821
▁controles	-9.32835
▁vandaag	-9.32878
▁Zij	-9.32924
▁r	-9.32967
▁weten	-9.33119
▁#;	-9.3321
▁onvoldoende	-9.33302
▁lijn	-9.33316
▁incidentie	-9.3332
▁arm	-9.33395
▁12	-9.33534
▁poliklinisch	-9.33543
▁dosering	-9.33639
insufficientie	-9.33674
▁or	-9.33907
▁toen	-9.34156
na	-9.34232
▁benen	-9.3465
scan	-9.34718
▁begin	-9.3479
▁Hg	-9.34912
▁lang	-9.35001
▁echocardiogram	-9.35179
▁gebruiken	-9.35205
▁orale	-9.35438
▁maakt	-9.35529
▁bloeding	-9.3573
▁ademgeruis	-9.35748
▁Meest	-9.36016
▁gemiddeld	-9.36166
▁segment	-9.36188
▁Huisarts	-9.36429
▁warm	-9.36474
/#.#	-9.36501
In	-9.36543
us	-9.36565
▁septum	-9.36589
w	-9.36825
▁ziekten	-9.36844
▁cath	-9.36936
▁staken	-9.36948
▁vrij	-9.3699
▁gepland	-9.37107
▁starten	-9.37125
▁verkregen	-9.3715
▁kader	-9.37304
▁Over	-9.37417
▁QTc	-9.37445
▁rate	-9.37462
IS	-9.37635
▁blijkt	-9.3776
▁vervanging	-9.3778
▁prevalentie	-9.3785
▁plasma	-9.37868
▁anemie	-9.37958
▁Hyper	-9.38041
gen	-9.38072
▁adenosine	-9.38191
▁meeste	-9.38329
▁pneumonie	-9.3836
▁Zie	-9.38385
▁cardioversie	-9.38585
▁thorax	-9.38734
▁heel	-9.38828
▁succesvolle	-9.38908
ste	-9.38956
▁95%	-9.39064
▁TIA	-9.39071
▁alcohol	-9.39076
▁waarna	-9.39114
▁duizeligheid	-9.39225
▁depressie	-9.39379
▁PRE	-9.39502
▁laboratorium	-9.39526
▁kamer	-9.39649
cc	-9.39745
▁distaal	-9.39762
▁vasculaire	-9.39769
▁Hartfrequentie	-9.39815
niet	-9.39887
▁kind	-9.39984
▁st	-9.39998
▁Wat	-9.40096
▁neemt	-9.4012
▁rest	-9.40179
▁gebaseerd	-9.40183
▁Kalium	-9.40255
▁niveaus	-9.4028
▁Risicofactoren	-9.40544
▁>#	-9.40716
▁Metoprolol	-9.4073
▁vocht	-9.40757
▁20	-9.40871
▁right	-9.40877
▁holter	-9.4107
▁fase	-9.41297
▁plaque	-9.41551
▁daar	-9.41588
▁DES	-9.41593
test	-9.41661
▁leiden	-9.41763
▁ATP	-9.41792
▁systemische	-9.41954
▁oog	-9.4198
▁Extr	-9.42125
wetenschappelijk	-9.42292
▁evt	-9.42601
▁diameter	-9.42608
van	-9.42618
▁stuk	-9.42674
▁toonden	-9.42813
▁ontslagen	-9.42833
▁stenosen	-9.43069
▁no	-9.43114
▁Aan	-9.43262
▁lange	-9.43301
▁Dyslipidemie	-9.43339
DS	-9.4347
is	-9.43586
▁voelt	-9.43623
▁HDL	-9.43661
Voorgeschiedenis	-9.43782
▁placebo	-9.43984
▁beschikbaar	-9.44165
▁isolatie	-9.44249
▁vinden	-9.4428
▁after	-9.44335
▁vaten	-9.44402
uur	-9.4449
▁Klinisch	-9.44543
▁norm	-9.44565
▁bijvoorbeeld	-9.44584
▁afwijkend	-9.4462
PCI	-9.44637
<	-9.44732
▁vraag	-9.44732
▁myocardiale	-9.4474
▁overige	-9.44806
▁associatie	-9.44859
Operatieverslag	-9.44888
Guiding	-9.45034
▁?	-9.45125
▁RCX	-9.45128
waarden	-9.45478
▁plaatsing	-9.45514
▁vaker	-9.45566
▁Thorax	-9.45743
ver	-9.45833
▁gewijzigd	-9.45961
▁aandoening	-9.4601
▁antibiotica	-9.46176
▁Ja	-9.46239
▁dimensies	-9.46285
▁mei	-9.46364
▁probleem	-9.46398
▁hoogte	-9.46423
[	-9.46456
vrouw	-9.46529
▁meestal	-9.46691
▁30	-9.467
sec	-9.46767
▁#.#,	-9.47009
▁waarvan	-9.47066
▁overleden	-9.47141
Afspraak	-9.47178
▁verminderd	-9.47281
▁heb	-9.47285
▁Pacing	-9.47344
▁criteria	-9.47463
▁proces	-9.47472
cholesterol	-9.4749
▁Ter	-9.4755
▁pro	-9.47579
▁diagnostische	-9.4759
▁trial	-9.47871
▁oud	-9.47873
▁betrekking	-9.47919
onairangiografie	-9.48038
▁ondergaan	-9.48106
▁Events	-9.48157
▁situatie	-9.48269
▁aanvullende	-9.48329
met	-9.4843
▁apicaal	-9.48448
▁Sotalol	-9.48521
▁urine	-9.48723
▁bespreken	-9.48769
▁Operatieverslag	-9.48796
▁blijven	-9.4885
▁Cardioloog	-9.48869
▁daarbij	-9.49201
▁zullen	-9.49286
cardiale	-9.49477
▁diast	-9.49481
▁chirurgische	-9.49638
▁(#%	-9.49812
▁gr	-9.49949
▁beeldvorming	-9.50087
▁atypische	-9.50122
▁akkoord	-9.5022
bij	-9.50276
▁aneurysma	-9.5028
▁Boston	-9.50294
▁bezoek	-9.50343
▁vermoeidheid	-9.50498
▁hersenen	-9.50587
▁overzicht	-9.50919
▁verklaring	-9.50976
▁obesitas	-9.51095
▁beroerte	-9.51161
▁index	-9.51282
▁lager	-9.51335
De	-9.51377
▁verminderen	-9.51389
▁parameters	-9.51416
▁ernst	-9.51458
▁PA	-9.51492
▁moeder	-9.51528
▁toepassing	-9.516
VALUE	-9.51611
▁middelen	-9.51704
▁IC	-9.51858
▁staan	-9.51943
▁LIMA	-9.52057
▁Echocardiogram	-9.52105
▁linkerventrikel	-9.52263
BI	-9.52266
▁bedraagt	-9.52283
▁Soort	-9.52291
▁RVF	-9.52379
▁operatieverslag	-9.5246
▁invloed	-9.52478
▁oedemen	-9.52527
▁krijgen	-9.5259
tijd	-9.52645
▁LBTB	-9.52672
▁Adenosine	-9.52677
▁vergroot	-9.52737
▁aandacht	-9.52873
▁opnemen	-9.52968
▁endocarditis	-9.52994
▁CTA	-9.52995
▁elk	-9.53054
▁verzoek	-9.53244
▁reactie	-9.53271
▁kort	-9.53375
kamer	-9.53427
▁ascal	-9.53473
AF	-9.53483
▁populatie	-9.53596
▁iom	-9.53766
▁Nierfunctie	-9.53777
▁open	-9.53847
▁Ten	-9.53893
▁reden	-9.53984
▁Door	-9.54012
▁wie	-9.54065
figuur	-9.54097
▁langer	-9.54133
▁stellen	-9.54213
▁expectatief	-9.54312
▁Ureum	-9.54379
▁dezelfde	-9.54464
▁expressie	-9.54543
Object	-9.54561
▁AoV	-9.54817
▁segmenten	-9.54823
▁#-#/	-9.54964
Echocardiografie	-9.55107
▁NHG	-9.55121
▁arteriële	-9.55243
▁gezonde	-9.55272
▁differentiële	-9.55292
▁Actuele	-9.55332
▁perifeer	-9.55359
▁BI	-9.554
cardioloog	-9.55447
▁factor	-9.55552
▁intra	-9.55575
▁perifere	-9.55601
▁naast	-9.55632
▁Aantal	-9.55761
▁Medtronic	-9.55764
▁troponine	-9.55767
▁nieuw	-9.55777
je	-9.55791
▁continueren	-9.55831
top	-9.55917
Diameter	-9.55991
controle	-9.56011
▁Instellingen	-9.56101
▁vroege	-9.56139
▁gen	-9.56153
echocardiografie	-9.56183
▁w	-9.56496
▁verwijderd	-9.56536
▁occlusie	-9.56606
niveau	-9.56616
▁SVT	-9.56744
▁juni	-9.56789
▁lokale	-9.56791
▁forse	-9.56801
▁astma	-9.56845
▁kosten	-9.5696
▁ejectiefractie	-9.57065
▁dyspneu	-9.57077
▁toegenomen	-9.57289
▁meta	-9.57372
cellen	-9.57387
=[	-9.57632
Onbekend	-9.57892
▁hulp	-9.57902
▁relatief	-9.57927
#)	-9.57929
▁Cardio	-9.57976
▁respons	-9.57979
▁Myocard	-9.58067
▁ergometrie	-9.5822
▁auteurs	-9.58229
▁PI	-9.58257
▁gezondheid	-9.58303
▁9	-9.58428
▁Creatinine	-9.58489
▁ballon	-9.58508
▁centrale	-9.58509
▁Daarom	-9.5854
▁conservatief	-9.58555
▁verleden	-9.58646
▁Echter	-9.58697
▁pathologie	-9.58705
▁model	-9.58732
▁bestaande	-9.58757
▁gericht	-9.58767
▁buiten	-9.58874
▁betrouwbaar	-9.5904
▁uitkomsten	-9.59098
▁Start	-9.59117
▁verbeteren	-9.59129
▁HT	-9.5913
▁gradient	-9.59132
▁pacing	-9.59276
▁gerelateerd	-9.59428
▁lagere	-9.5946
▁cardio	-9.59581
▁behandelen	-9.59585
VASc	-9.59729
▁evenals	-9.59738
▁SN	-9.59813
▁dieet	-9.59857
klaring	-9.59913
▁zouden	-9.59982
▁15	-9.60021
▁RVSP	-9.60139
]):	-9.60175
▁study	-9.60243
▁gebeld	-9.60314
▁specialist	-9.60333
▁volledige	-9.6035
▁Extremiteiten	-9.60357
▁beschouwd	-9.60375
▁conditie	-9.60475
verpleegafdeling	-9.6052
co	-9.60572
▁maart	-9.60661
▁Bespreking	-9.60738
▁furosemide	-9.60836
▁spoor	-9.60903
▁longen	-9.6108
▁vergelijkbaar	-9.61088
▁april	-9.61125
▁vast	-9.61311
▁bestaan	-9.61449
▁leidt	-9.61534
▁ratio	-9.61709
▁lichamelijk	-9.61775
▁Naam	-9.61834
▁hierbij	-9.61925
▁zelfs	-9.62109
▁even	-9.62122
▁verandering	-9.62129
▁veneuze	-9.62135
▁Algemeen	-9.62207
▁minimaal	-9.62231
▁#,#%	-9.62244
▁Eerder	-9.62249
▁krijgt	-9.62286
▁NF	-9.62398
▁afhankelijk	-9.62426
▁Uit	-9.62689
voor	-9.62734
▁waarden	-9.62766
▁amiodaron	-9.62833
▁treatment	-9.63158
▁ligt	-9.63236
▁Natrium	-9.63401
▁ondanks	-9.63402
▁juli	-9.63496
▁Chronische	-9.63622
▁volume	-9.63665
▁regelmatig	-9.63699
▁Advies	-9.63708
▁Nog	-9.63712
▁RCx	-9.63735
▁voorkeur	-9.63797
▁grootte	-9.63842
▁anders	-9.63947
-#)	-9.63973
▁radiologie	-9.63994
▁Alcohol	-9.64151
▁hiervoor	-9.64203
2-	-9.64283
▁pressure	-9.64477
▁Richtlijnen	-9.64504
▁muizen	-9.64526
▁GRADE	-9.64553
▁f	-9.64662
▁doorgemaakt	-9.64711
▁CHA	-9.64754
▁volwassenen	-9.64793
▁li	-9.64809
▁vervolg	-9.64893
▁geplande	-9.64926
minuut	-9.64971
cardiografisch	-9.65041
▁CI	-9.65046
▁afgenomen	-9.65088
▁Zeer	-9.65189
▁TR	-9.65216
▁groet	-9.65306
▁optreden	-9.65327
ug	-9.65347
▁IV	-9.65413
effort	-9.65418
gediagnosticeerd	-9.65431
*	-9.65627
▁gering	-9.65694
▁Pols	-9.65808
▁tak	-9.65852
▁vijf	-9.65953
▁nadien	-9.66022
▁VES	-9.66173
▁laesie	-9.66328
ly	-9.6633
▁kanker	-9.66332
ten	-9.66418
▁hoofdpijn	-9.66461
▁secundaire	-9.6648
▁onderging	-9.66486
▁geneesmiddelen	-9.66614
▁moe	-9.66656
▁auto	-9.66664
▁onveranderd	-9.66666
▁HA	-9.66694
▁Re	-9.66703
▁Spoor	-9.66769
Succesvol	-9.66828
▁toekomst	-9.66862
▁dagelijks	-9.66943
▁hypertrofie	-9.66996
▁onafhankelijk	-9.67056
▁weg	-9.67069
▁kortademig	-9.67092
ventrikelfunctie	-9.67363
▁weefsel	-9.67365
se	-9.67525
Registratie	-9.67525
▁tov	-9.67556
▁calcium	-9.67577
▁gebeurtenissen	-9.67582
▁Auteur	-9.67589
▁gesproken	-9.67624
▁ouder	-9.67999
▁Hierbij	-9.68047
▁wand	-9.68121
▁Bekende	-9.68154
▁cf	-9.68224
▁atherosclerot	-9.68274
▁interventies	-9.68312
▁traject	-9.68429
assistent	-9.68455
▁angio	-9.68479
▁AS	-9.68546
▁NSTEMI	-9.68588
▁ontwikkelen	-9.68703
▁aanvang	-9.68718
▁effectiviteit	-9.68872
▁MIRADS	-9.69061
▁eind	-9.69157
▁zuurstof	-9.6918
-#],	-9.69233
▁diffuus	-9.69264
▁pulmonaalvenen	-9.6929
▁nacht	-9.69297
:#,#	-9.69326
▁PET	-9.69399
▁slecht	-9.69449
▁Follow	-9.69452
▁gekregen	-9.69457
:#:#	-9.69621
EPI	-9.69814
▁vormen	-9.6991
2)	-9.69936
▁cardiovasculair	-9.69996
▁wond	-9.70298
▁ontsteking	-9.70302
▁STEMI	-9.70365
▁Succesvolle	-9.70375
▁paar	-9.70391
▁laesies	-9.70393
RCA	-9.7053
West	-9.70767
bijv	-9.70829
▁functionele	-9.70861
Z	-9.70897
▁retour	-9.70925
OR	-9.7099
▁elkaar	-9.71034
▁belt	-9.71073
▁overlijden	-9.71207
▁sluiten	-9.71211
▁progressieve	-9.71218
▁evidente	-9.71279
▁valt	-9.71303
▁effectief	-9.71333
▁IL	-9.71374
▁Rechts	-9.71494
▁ia	-9.71612
▁disease	-9.71655
▁Specialisten	-9.71678
▁mnd	-9.71679
▁poliklinische	-9.71718
▁groter	-9.71726
▁Mogelijk	-9.71738
Overweging	-9.71745
▁Tot	-9.71746
▁Pijn	-9.71951
▁bereikt	-9.71964
▁voorschrift	-9.71969
:\	-9.71979
▁oorzaken	-9.7202
▁geadviseerd	-9.72034
▁apex	-9.72062
▁actieve	-9.72069
▁persisterend	-9.72086
▁vermindering	-9.72256
▁beperkte	-9.72297
▁#/#,	-9.72341
▁anterior	-9.72421
▁geplaatst	-9.726
▁instelling	-9.72639
tenschappelijke	-9.72653
ine	-9.72812
▁Specialisme	-9.72871
▁diabetische	-9.72884
▁fors	-9.72905
▁adequaat	-9.72946
▁mga	-9.72972
▁ander	-9.73036
▁artikel	-9.73163
▁systematische	-9.73233
▁Namens	-9.73382
▁gestuwd	-9.73412
▁conclusie	-9.73497
▁bijna	-9.73652
▁RCT	-9.73693
ers	-9.73759
▁herhalen	-9.73761
▁vader	-9.73813
▁gecompliceerd	-9.73848
▁website	-9.7399
vatslijden	-9.7401
▁Meetwaarden	-9.74048
▁meting	-9.74102
▁maag	-9.74205
▁lateraal	-9.74275
1,	-9.74329
▁enkel	-9.7433
#,#	-9.74335
▁vorige	-9.74469
▁mijn	-9.74473
▁gesteld	-9.74486
▁situ	-9.7472
▁geheel	-9.74776
▁paroxysmaal	-9.74853
▁care	-9.74862
atm	-9.74981
▁vooraf	-9.75007
▁eventuele	-9.75179
▁longvelden	-9.7523
▁PC	-9.75317
▁mean	-9.75358
5	-9.75368
▁Tijd	-9.75399
▁chemotherapie	-9.75456
▁onbekend	-9.75552
st	-9.75688
▁bleef	-9.75811
▁Mw	-9.75813
▁verlaagd	-9.75859
▁gebracht	-9.75862
▁Voelt	-9.76168
▁stoornissen	-9.76199
▁Mellitus	-9.76298
DM	-9.7631
▁low	-9.76318
▁procent	-9.76544
▁baseline	-9.7655
▁medisch	-9.7665
▁voornamelijk	-9.76734
▁VG	-9.76762
▁darm	-9.76791
▁Patiente	-9.76918
▁beperkingen	-9.76946
▁percutane	-9.76986
▁ng	-9.77017
▁ondergingen	-9.77078
▁bezocht	-9.77093
▁gesprek	-9.77103
▁SPECT	-9.77123
▁hiervan	-9.77131
▁#.#);	-9.77142
▁kortademigheid	-9.77154
Q	-9.77219
▁net	-9.77258
▁postoperatieve	-9.77331
ic	-9.7734
studie	-9.77349
▁oogt	-9.77409
dL	-9.77416
▁Complicaties	-9.77452
▁Zijn	-9.77491
▁moeilijk	-9.7761
▁januari	-9.77691
▁derde	-9.77769
▁ondersteuning	-9.77821
▁Ontslag	-9.77861
aortaklepstenose	-9.77875
▁evidence	-9.77917
▁betekenis	-9.78001
▁Longen	-9.78121
▁oudere	-9.78192
▁uitgebreid	-9.78195
▁Kan	-9.78277
▁#;#(#)	-9.78366
▁vermeld	-9.78387
▁maal	-9.78437
▁Al	-9.78514
▁Hemoglobine	-9.78521
▁verhogen	-9.78577
▁letsel	-9.78621
▁disfunctie	-9.78651
MO	-9.78722
▁sterfte	-9.78749
▁hoeveelheid	-9.78825
▁gedefinieerd	-9.78829
▁blok	-9.78851
▁schildklier	-9.78855
▁noodzakelijk	-9.78859
stolerantie	-9.78956
es	-9.79072
▁24	-9.79101
▁AoS	-9.79175
▁waarop	-9.79179
spiegels	-9.79212
▁DDD	-9.7927
▁verdacht	-9.7933
▁gerapporteerd	-9.79346
▁bed	-9.79353
▁NB	-9.79405
▁kwam	-9.79429
/[	-9.79514
1-	-9.79578
▁evalueren	-9.79659
▁succesvol	-9.79784
▁mutatie	-9.79825
▁ouders	-9.79948
▁controlegroep	-9.79966
▁chirurgie	-9.79994
▁NTG	-9.80249
▁blanco	-9.80252
▁geïdentificeerd	-9.80282
▁cancer	-9.80297
risico	-9.80322
▁MS	-9.80339
▁longarts	-9.80402
▁afgesloten	-9.80419
▁interne	-9.80491
▁vindt	-9.80632
▁gezondheids	-9.80719
▁bepaalde	-9.80746
▁VS	-9.8079
▁ong	-9.80799
▁PV	-9.80836
▁lies	-9.80871
▁Ongewijzigd	-9.80942
▁#-#%	-9.80949
▁TEE	-9.80956
▁visueel	-9.80984
▁Goed	-9.81104
▁cohort	-9.81219
▁aanbeveling	-9.81265
▁clopidogrel	-9.813
▁ondertekend	-9.81364
▁besloten	-9.81421
▁dec	-9.81541
▁optimaal	-9.81698
▁Creatie	-9.81821
gebruik	-9.81875
▁belasting	-9.81896
OBJECTI	-9.81912
▁Abdomen	-9.81921
▁closure	-9.81925
▁18	-9.81926
▁arteria	-9.81938
▁micro	-9.81946
▁deels	-9.82223
nummer	-9.82262
▁therapeutische	-9.82305
▁positie	-9.8244
▁genomen	-9.82522
▁arterie	-9.82528
▁verlopen	-9.82566
▁mogelijkheid	-9.82626
syndroom	-9.82637
▁VP	-9.82943
▁ouderen	-9.82948
▁overdracht	-9.83074
▁toegediend	-9.83121
▁inspannings	-9.832
▁zes	-9.83289
▁complexen	-9.83362
CKD	-9.83476
▁onthulde	-9.83478
▁stadium	-9.83484
▁been	-9.83576
▁verwijd	-9.83954
EF	-9.84056
=#	-9.84058
▁-(	-9.8407
▁Score	-9.84118
▁anesthesie	-9.84241
▁uiteindelijk	-9.84262
▁geanalyseerd	-9.84275
▁artsen	-9.8428
▁bent	-9.84324
▁lengte	-9.84325
▁globaal	-9.84337
▁aanwijzing	-9.84415
▁hartteam	-9.84422
▁COVID	-9.84463
▁werkgroepleden	-9.84472
▁ACE	-9.84548
?)	-9.84556
▁verbeterde	-9.84588
▁zeker	-9.84639
▁einde	-9.84646
be	-9.84679
▁vitamine	-9.8473
▁Analyse	-9.84749
▁SpO	-9.8486
▁dialyse	-9.84881
niveaus	-9.84883
▁Tabel	-9.84956
stenose	-9.85067
▁Onder	-9.85112
▁geduid	-9.85365
band	-9.85429
fs	-9.8554
as	-9.85541
▁aangepast	-9.85609
▁kregen	-9.85765
6	-9.85822
▁hele	-9.85841
▁sommige	-9.85852
▁vertoonden	-9.85866
▁methode	-9.86044
segment	-9.86114
cetylsalicylzuur	-9.86121
ablatie	-9.86161
▁stand	-9.86229
▁capsule	-9.86378
waarde	-9.86427
▁data	-9.8644
▁Twee	-9.86535
▁spelen	-9.86561
▁gecontroleerd	-9.86581
▁(#%)	-9.86719
▁relevant	-9.8675
▁eiwit	-9.86866
▁soepel	-9.86873
▁lichaam	-9.86967
▁an	-9.86981
▁aanhoudende	-9.87127
▁aspecten	-9.87191
▁overwegen	-9.872
▁ging	-9.87209
▁vullen	-9.87347
▁hoewel	-9.87549
▁Patint	-9.87576
▁verwijderen	-9.87579
▁indruk	-9.87598
▁registratie	-9.87605
▁zwelling	-9.87655
▁vaatlijden	-9.87842
▁laterale	-9.87871
den	-9.87918
▁flutter	-9.8793
uit	-9.88118
▁uitkomst	-9.88167
▁antrum	-9.88193
▁aanzienlijk	-9.88237
▁alles	-9.88396
▁liggen	-9.88398
▁Trombocyten	-9.88441
▁impl	-9.88541
▁gehouden	-9.8855
▁Klachten	-9.88555
▁bellen	-9.88601
▁rondom	-9.88627
▁geautoriseerd	-9.88636
ta	-9.88694
▁internist	-9.88716
▁bypass	-9.8878
▁aangezien	-9.88793
ominance	-9.88807
▁Tachy	-9.88905
▁geëvalueerd	-9.88935
▁infiltraat	-9.89155
▁late	-9.8927
▁dood	-9.8934
▁grotere	-9.89365
▁kennis	-9.89374
▁neg	-9.89414
▁inclusief	-9.89611
▁heden	-9.89717
▁behandelingen	-9.89744
▁adequate	-9.8979
▁ontvangen	-9.89835
▁rekening	-9.90066
▁orde	-9.90153
gerelateerde	-9.90211
▁CHADS	-9.90313
▁individuele	-9.90343
▁Ernstige	-9.90394
▁Licht	-9.90475
▁schade	-9.90479
▁gastro	-9.90555
▁Batterij	-9.90699
▁CCU	-9.90812
wel	-9.90816
▁Agatston	-9.90818
▁spontaan	-9.90822
arts	-9.90843
atie	-9.90857
▁regionale	-9.90863
▁uitslagen	-9.90896
▁carotis	-9.90961
▁gezocht	-9.90972
▁Wanneer	-9.91052
▁PAC	-9.91077
▁onderwand	-9.91133
URL	-9.91177
▁helemaal	-9.91185
mL	-9.91207
▁gehele	-9.91212
▁dagelijkse	-9.91381
▁fietsen	-9.91392
ig	-9.91401
ale	-9.91415
eren	-9.91565
▁insufficiëntie	-9.91597
vervanging	-9.916
HR	-9.91636
▁helder	-9.91667
▁site	-9.91766
▁ontwikkeld	-9.91837
▁msr	-9.9197
▁drug	-9.92031
activiteit	-9.92035
▁metingen	-9.92049
▁sclerose	-9.92054
▁geleiding	-9.92063
▁rustig	-9.92064
▁signaal	-9.92088
▁beelden	-9.92178
opname	-9.92313
echo	-9.92323
▁radialis	-9.92358
▁regio	-9.9237
▁bovenste	-9.92383
▁Med	-9.92388
▁momenteel	-9.92434
▁14	-9.92443
▁variabelen	-9.92458
▁jonge	-9.92496
▁intraveneus	-9.92498
systeem	-9.92565
carcinoom	-9.92599
▁correlatie	-9.92604
▁Verpleegkundige	-9.92736
▁Poli	-9.92816
▁trombus	-9.92864
▁novo	-9.9288
▁dementie	-9.92899
▁zn	-9.92954
▁tav	-9.92985
▁nader	-9.93128
▁weergegeven	-9.93164
▁kliniek	-9.93198
▁#);	-9.93377
ën	-9.93408
▁atriumflutter	-9.936
▁aanbevolen	-9.93664
▁Temp	-9.93675
▁mij	-9.93694
um	-9.937
el	-9.93707
▁AVR	-9.93725
▁AT	-9.9383
▁Ge	-9.93872
▁Ohm	-9.93951
max	-9.93962
▁buikpijn	-9.93963
TIMI	-9.93974
▁afwezigheid	-9.94003
▁PE	-9.9404
▁verbeterd	-9.94065
▁Hier	-9.94196
▁insufficientie	-9.9421
▁Overig	-9.9423
▁Antistolling	-9.94321
▁onafhankelijke	-9.94408
▁delen	-9.9445
▁oude	-9.94465
▁vonden	-9.94473
no	-9.94494
▁verlagen	-9.94502
▁Totaal	-9.94506
implantatie	-9.94571
▁11	-9.94619
▁chronisch	-9.9466
▁episode	-9.94738
▁overwogen	-9.94742
▁plannen	-9.94753
onder	-9.94772
▁Hartfalen	-9.94795
▁ervaren	-9.94798
▁diuretica	-9.94843
▁geneeskundige	-9.94943
▁sub	-9.94956
▁genetische	-9.95004
MB	-9.95049
▁eluting	-9.95115
▁hypokinesie	-9.9512
▁bespreking	-9.95126
▁achter	-9.95289
▁Haar	-9.955
▁Uw	-9.95546
olikliniekbezoek	-9.95559
▁CVRM	-9.95741
▁fl	-9.9576
▁BNP	-9.95918
HDL	-9.95987
▁syncope	-9.95994
▁bevestigd	-9.96027
▁Ergometrie	-9.96032
#=#	-9.96151
Niet	-9.96161
▁alhier	-9.96262
▁uitgangsvraag	-9.96341
BLED	-9.96397
▁MDRD	-9.96429
▁boezemfibriller	-9.96433
▁cc	-9.96484
▁Regadenoson	-9.96569
MRI	-9.96599
▁geschatte	-9.96618
WEBLINK	-9.9667
▁prednison	-9.96673
LVEF	-9.96709
▁december	-9.96801
▁Veel	-9.96812
▁loopt	-9.9682
▁injectie	-9.96883
▁HbA	-9.96891
▁benauwd	-9.96896
▁vena	-9.97016
▁risicofactor	-9.97161
▁spontane	-9.97186
▁plaatsen	-9.97431
▁gaf	-9.9748
▁mediastinum	-9.97536
▁voorkomende	-9.97578
▁berekend	-9.97597
▁maligniteit	-9.97676
gehalte	-9.97697
▁wilt	-9.97742
▁slagen	-9.97795
een	-9.9785
▁Aorta	-9.97889
▁resectie	-9.98008
▁leren	-9.98034
▁begeleiding	-9.98039
▁Post	-9.98077
▁ophogen	-9.98079
II	-9.98151
▁ontwikkelde	-9.98157
RR	-9.98235
▁dissectie	-9.98259
▁overvulling	-9.98278
▁RBTB	-9.98298
▁50	-9.98365
▁achteruitgang	-9.98429
▁dergelijke	-9.98512
▁genoemd	-9.98535
type	-9.98561
▁OR	-9.9857
▁bovengenoemde	-9.98589
▁geneeskunde	-9.98662
▁team	-9.98752
▁der	-9.98826
▁Patiënte	-9.98981
▁Recidief	-9.98987
▁tabel	-9.99013
▁LCA	-9.99041
▁volgen	-9.99132
▁QT	-9.99141
▁16	-9.99151
▁Ziekenhuis	-9.99233
▁radiotherapie	-9.99294
▁knie	-9.99383
▁cognitieve	-9.99396
▁behouden	-9.99432
▁vond	-9.99434
Het	-9.99437
▁plaques	-9.99497
LV	-9.99536
▁zover	-9.99559
▁hen	-9.9974
▁aanleiding	-9.99837
infectie	-9.9986
▁gepaard	-9.99875
▁Dhr	-9.99882
▁atria	-9.99883
▁HAS	-10.0006
▁anatomie	-10.0009
▁suggereren	-10.0012
remmers	-10.002
▁geworden	-10.0028
▁sociale	-10.0033
▁aanzien	-10.0034
▁wandbewegings	-10.0042
▁rug	-10.0043
▁correctie	-10.0049
▁onderliggende	-10.005
▁Abd	-10.005
▁code	-10.0051
▁chirurg	-10.0059
▁(#,#	-10.0062
Cardiovasculaire	-10.0066
▁neuro	-10.0069
▁ALAT	-10.0075
▁gebieden	-10.0079
▁ASD	-10.0086
▁HVZ	-10.009
▁minimale	-10.0097
▁lijden	-10.01
▁liggend	-10.0102
▁overwegingen	-10.0105
▁TABLET	-10.0106
▁uitkomstmaten	-10.0106
▁verpleegkundige	-10.0117
▁Vanwege	-10.0119
▁PAF	-10.0126
retard	-10.016
▁angst	-10.0165
▁sterke	-10.0167
▁minste	-10.0172
▁secundair	-10.0181
▁symptomatische	-10.0197
▁proefpersonen	-10.02
▁h	-10.0201
▁diarree	-10.0204
▁liep	-10.021
▁HIV	-10.0212
▁overleving	-10.0215
▁stopdatum	-10.0223
▁tricuspide	-10.0228
):#,#	-10.0229
or	-10.0244
▁rechtsdrukken	-10.0245
▁regulier	-10.0246
end	-10.0248
sklachten	-10.0251
▁TV	-10.0253
▁afgesproken	-10.0254
▁hypo	-10.0259
▁hoofdstam	-10.0264
▁persisterende	-10.0266
▁nam	-10.0267
▁vlgs	-10.0268
▁graft	-10.0272
▁geleidings	-10.0279
▁Daarna	-10.028
▁Y	-10.0284
▁Vervolgens	-10.029
▁Leukocyten	-10.0296
▁hoesten	-10.0297
▁aantoonbaar	-10.0302
▁activiteiten	-10.0302
DF	-10.0303
Zie	-10.0306
▁statistisch	-10.0318
▁recidiverende	-10.0323
▁medicamenteus	-10.0327
▁episodes	-10.0329
▁toestand	-10.0332
was	-10.035
▁ongecompliceerd	-10.0352
ring	-10.0368
▁voorgeschreven	-10.0373
▁lijken	-10.0383
▁doet	-10.0384
maanden	-10.0392
Toelichting	-10.0399
▁Omdat	-10.0402
▁passen	-10.0406
CRP	-10.0407
▁je	-10.0409
▁HTx	-10.0411
ir	-10.0413
▁uitleg	-10.0418
operatie	-10.042
▁identificeren	-10.0444
▁afgebeeld	-10.0444
eerd	-10.0445
IV	-10.0459
▁MCV	-10.0459
▁specialisme	-10.0475
▁Vergeleken	-10.048
▁bevolking	-10.0484
▁lipiden	-10.0494
▁langdurige	-10.0495
afwijkingen	-10.0504
Stent	-10.0509
▁onduidelijk	-10.0512
ne	-10.052
▁toegevoegd	-10.0523
▁Linker	-10.0532
▁breast	-10.0538
jes	-10.054
▁Glucose	-10.054
▁VR	-10.0542
▁langs	-10.0575
CHADS	-10.058
▁MBq	-10.0587
▁graden	-10.0589
▁trombose	-10.0589
▁LM	-10.0591
▁gebruikte	-10.0595
▁Ascal	-10.0596
ende	-10.0606
▁vet	-10.0606
▁pulmonaal	-10.0607
▁suggereert	-10.0607
geschiedenis	-10.061
▁geschat	-10.061
▁Onze	-10.0615
▁scintigr	-10.0616
geïnduceerde	-10.0616
▁veroorzaken	-10.0618
▁continue	-10.0621
▁DCM	-10.0623
▁skelet	-10.0623
▁events	-10.0624
▁duizelig	-10.0633
verpleegkundigen	-10.0634
▁aard	-10.0641
▁pas	-10.0654
▁Dat	-10.0654
ICD	-10.0667
▁structurele	-10.067
▁plaatse	-10.0673
▁ontstekings	-10.0678
▁vrijwel	-10.0678
▁k	-10.068
▁voorwand	-10.0681
▁toegang	-10.0686
▁verapamil	-10.0693
▁fysieke	-10.0698
▁Medische	-10.0704
GT	-10.0706
cel	-10.0707
▁Co	-10.071
▁primair	-10.0718
▁spoed	-10.0719
Wire	-10.0722
▁(#-#)	-10.0723
▁daling	-10.0728
▁revalidatie	-10.0735
▁omvatten	-10.0746
▁gamma	-10.0754
▁cel	-10.0756
▁40	-10.0784
▁AL	-10.0791
▁ga	-10.0807
▁directe	-10.0812
▁gisteren	-10.0812
▁ESV	-10.0815
▁frequente	-10.0819
uurs	-10.0819
▁Pulmones	-10.0821
▁Matig	-10.0823
▁zieke	-10.0825
▁Ver	-10.0827
▁derhalve	-10.0835
▁stroke	-10.0839
▁bereiken	-10.0847
▁MR	-10.086
normaal	-10.0865
▁#,#)	-10.0865
▁mechanismen	-10.0894
▁Cardiaal	-10.0906
▁NIBP	-10.0919
▁#.#),	-10.0921
▁september	-10.0922
▁100	-10.0941
▁bilaterale	-10.0948
ziekte	-10.0952
▁toegepast	-10.0952
dilatatie	-10.0964
▁onderste	-10.0967
▁EDV	-10.0969
Natrium	-10.0978
▁#%)	-10.0983
▁richting	-10.0983
AIOS	-10.0985
▁25	-10.0989
▁ochtend	-10.0993
▁Type	-10.0999
▁ogen	-10.1001
▁vriendelijke	-10.1002
▁oktober	-10.1005
▁(1	-10.1008
▁ratten	-10.1038
▁AI	-10.104
▁Urgentie	-10.104
▁slaap	-10.1041
▁prima	-10.1052
▁gedrag	-10.1057
▁Z	-10.1064
▁Diastolische	-10.1064
▁RDP	-10.1067
▁gereguleerd	-10.107
▁artritis	-10.1071
▁therapy	-10.1071
▁bloedverlies	-10.1073
▁geregistreerd	-10.1077
▁gerandomiseerde	-10.1081
remmer	-10.1086
▁braken	-10.1086
▁NT	-10.1088
▁myocarditis	-10.1095
▁zodat	-10.1096
▁betere	-10.1096
▁hypertrofische	-10.1097
▁conversie	-10.1102
▁Sterk	-10.1117
▁gemeld	-10.1118
▁belangen	-10.1129
ACS	-10.113
▁13	-10.113
▁TAPSE	-10.1137
j	-10.115
▁bot	-10.1156
▁toenemende	-10.1169
▁JR	-10.117
richtlijn	-10.1172
▁Federatie	-10.1184
▁Pt	-10.119
▁knelpunten	-10.1191
▁Flow	-10.1195
af	-10.1196
▁diverse	-10.1198
▁mV	-10.1202
▁konden	-10.1213
▁functioneren	-10.1215
▁SV	-10.1217
▁).	-10.122
▁Troponine	-10.1225
eerde	-10.1226
concentraties	-10.1233
▁secretariaat	-10.1241
▁stimulatie	-10.1244
ontwikkeling	-10.1253
▁ademhaling	-10.1257
▁maandag	-10.126
Hypertensie	-10.1266
▁kracht	-10.1272
ZORG	-10.1275
▁DNA	-10.1276
▁VO	-10.128
▁tijdelijk	-10.1285
▁wanddikte	-10.1289
▁misselijkheid	-10.129
▁at	-10.1308
▁loop	-10.1328
▁manier	-10.1329
▁hiermee	-10.1329
afhankelijke	-10.1332
▁potentiële	-10.1335
▁number	-10.1335
an	-10.1348
druk	-10.1349
▁OSAS	-10.1352
▁spier	-10.136
▁pericardeffusie	-10.136
▁tachy	-10.1361
▁nl	-10.1362
▁basale	-10.1367
▁alcoholgebruik	-10.137
▁vele	-10.1371
▁high	-10.1377
▁vulling	-10.1383
▁Wil	-10.1385
▁actief	-10.1398
▁PR	-10.1399
▁maatregelen	-10.1401
hart	-10.1403
▁inflammatoire	-10.1409
▁nsVT	-10.1409
▁grond	-10.1415
▁hematoom	-10.1418
▁voorafgaand	-10.1424
▁eci	-10.1433
▁before	-10.1435
▁neurologische	-10.1436
▁stents	-10.1448
▁PFO	-10.1448
▁aangegeven	-10.1452
▁groei	-10.1454
▁namens	-10.1455
▁werken	-10.1455
▁VSD	-10.1462
SR	-10.1469
▁jan	-10.147
▁obstructie	-10.1477
▁vergelijkbare	-10.1478
▁TSH	-10.148
▁kant	-10.148
▁nr	-10.1485
▁eigenlijk	-10.1486
▁beïnvloeden	-10.1487
▁Conform	-10.1488
verantwoordelijk	-10.1491
▁Leads	-10.1492
▁lucht	-10.1493
▁gepresenteerd	-10.1495
▁En	-10.1497
▁november	-10.1501
▁verlies	-10.1505
▁perindopril	-10.1507
▁gevraagd	-10.152
▁Andere	-10.1528
▁katheter	-10.153
ch	-10.1535
▁freq	-10.1539
▁TIMI	-10.1541
▁vervangen	-10.1546
▁inmiddels	-10.1553
▁metabole	-10.1553
specifieke	-10.1559
▁pericardvocht	-10.1561
▁ASAT	-10.1564
▁block	-10.157
ook	-10.1577
▁lichamelijke	-10.159
▁frequent	-10.1598
▁half	-10.1605
▁complex	-10.1606
▁Overweeg	-10.1608
▁laatst	-10.1616
▁vaat	-10.1618
▁Halsvenen	-10.1619
▁tests	-10.1623
▁Rechter	-10.1627
Volgens	-10.1627
▁hypotensie	-10.1639
▁vermoedelijk	-10.1642
▁locatie	-10.1649
▁Pantoprazol	-10.165
▁zit	-10.1652
▁conclusies	-10.1653
▁water	-10.1654
▁ervaring	-10.1655
▁amlodipine	-10.1658
▁qua	-10.1661
▁intraveneuze	-10.1678
▁Pre	-10.1678
me	-10.1683
▁ruimte	-10.1687
▁aanvallen	-10.169
▁Details	-10.1692
▁impact	-10.1693
▁speelt	-10.17
door	-10.1701
▁verrichten	-10.1707
▁Links	-10.171
▁from	-10.1711
▁verklaren	-10.1727
9	-10.1727
▁morbiditeit	-10.1734
▁event	-10.1735
at	-10.1738
concentratie	-10.1742
▁dilatation	-10.1744
▁inter	-10.1748
▁revisie	-10.1751
week	-10.1765
▁opnamen	-10.1765
▁centimeter	-10.1766
▁morfologie	-10.1767
▁eenheden	-10.1767
#/#	-10.1768
▁elektrische	-10.1771
▁trauma	-10.1774
▁#/#:	-10.1777
om	-10.1782
▁wachtlijst	-10.1783
▁(95%	-10.1787
▁liet	-10.1793
▁graads	-10.1793
▁VVI	-10.1797
▁beweging	-10.1807
▁<#	-10.1813
▁witte	-10.1816
▁stoornis	-10.1817
):[	-10.1819
aal	-10.1825
▁Beeld	-10.1836
▁Soms	-10.1838
▁trials	-10.1839
▁LD	-10.1843
▁19	-10.1851
aan	-10.1851
▁definitieve	-10.1851
▁aankleuring	-10.1858
▁genen	-10.1858
▁focale	-10.186
▁up	-10.1875
▁patroon	-10.1878
▁vooralsnog	-10.1882
▁pneumothorax	-10.1882
▁apotheek	-10.1889
▁Graag	-10.1889
▁Gestopt	-10.1891
▁spreekuur	-10.1896
▁zijde	-10.1898
▁inferolateraal	-10.1899
▁vertegenwoordig	-10.1899
▁mede	-10.19
▁hartrevalidatie	-10.1901
▁bovenstaande	-10.1903
ar	-10.1927
pijn	-10.1936
▁bloedingen	-10.1937
▁hartziekten	-10.1939
▁uitgangsvragen	-10.1942
catheterisatie	-10.1945
▁Health	-10.1946
▁verlaagde	-10.1949
▁bradycardie	-10.1956
▁opgesteld	-10.1958
▁CO	-10.1959
methode	-10.1969
Kolomnr	-10.1976
▁methoden	-10.1976
▁posterior	-10.1979
▁HC	-10.1982
▁isthmus	-10.2003
▁analyses	-10.2004
▁voeding	-10.2008
▁STT	-10.201
▁brengen	-10.2012
over	-10.2012
▁bijdragen	-10.2017
▁clinical	-10.2031
▁LCX	-10.2038
itis	-10.204
▁Furosemide	-10.204
▁embolie	-10.2043
als	-10.2047
▁pancreas	-10.2049
▁daags	-10.2049
duur	-10.2056
▁carotiden	-10.2059
▁gesloten	-10.206
▁fibrose	-10.2066
▁Overmatig	-10.2066
▁toestemming	-10.207
▁juist	-10.207
▁sl	-10.207
Length	-10.2071
▁voet	-10.2075
Post	-10.208
▁balloon	-10.2084
▁melden	-10.2085
▁#.#%	-10.2087
▁tevoren	-10.2089
▁midden	-10.209
Indicatie	-10.2092
PA	-10.2094
▁specifiek	-10.2094
▁Hoog	-10.2095
▁leden	-10.2097
▁atm	-10.2098
▁testen	-10.2098
▁dominant	-10.2103
▁dr	-10.2105
AL	-10.2112
▁her	-10.2114
▁begonnen	-10.2124
▁fractuur	-10.2126
▁algehele	-10.2128
▁aortawortel	-10.2136
▁blaas	-10.2137
Referentiedatum	-10.2151
▁classificatie	-10.2153
▁hartinfarct	-10.2157
▁-[	-10.2158
▁gevolge	-10.2158
▁elektro	-10.2173
RV	-10.2175
problemen	-10.2177
▁60	-10.2182
RDP	-10.2185
2;	-10.2192
▁multi	-10.2193
▁Medical	-10.2194
vorming	-10.2196
▁punten	-10.2199
▁femoralis	-10.2204
▁schouder	-10.2208
▁oor	-10.2214
▁problematiek	-10.2215
▁PVI	-10.2215
▁kaliber	-10.2218
▁fo	-10.2219
▁Wetenschap	-10.224
th	-10.2241
▁peristaltiek	-10.2241
▁eenmalig	-10.2246
▁Cochrane	-10.2248
▁bieden	-10.2252
2,	-10.2253
▁omvang	-10.2254
▁longembolie	-10.2259
ca	-10.2263
Segment	-10.2268
▁opdat	-10.2271
▁JL	-10.2278
▁meet	-10.2282
▁degenen	-10.2285
▁vraagstelling	-10.2295
▁schema	-10.2295
▁sedatie	-10.2307
▁vroeg	-10.2319
▁nieren	-10.2322
ur	-10.2327
▁blootstelling	-10.2329
database	-10.2331
▁septaal	-10.2333
▁Journal	-10.2346
▁HCM	-10.2351
▁mild	-10.2352
▁Nederlands	-10.2355
]).	-10.2358
▁mening	-10.2364
▁aanmelding	-10.2366
▁abnormale	-10.2367
▁verenigingen	-10.2371
▁MCH	-10.2372
▁Bijzonderheden	-10.2373
▁namelijk	-10.2374
▁Be	-10.2384
▁gebrek	-10.239
▁Erytrocyten	-10.2393
▁gekozen	-10.2397
▁module	-10.24
▁[,].	-10.2413
▁Scientific	-10.242
▁broer	-10.2424
▁concentratie	-10.243
▁inhalatie	-10.2431
▁bewijskracht	-10.2432
▁hernia	-10.2443
▁keuze	-10.2444
▁flecainide	-10.2446
▁geaccepteerd	-10.2461
▁typische	-10.2462
▁(%):#	-10.2466
▁feit	-10.2469
▁werking	-10.2469
▁gevolgen	-10.2472
Pre	-10.2472
▁langzaam	-10.2474
▁Gedilateerde	-10.2475
▁scientific	-10.2476
7	-10.2476
▁fraai	-10.2491
▁jr	-10.2496
▁val	-10.2497
▁geldt	-10.25
ren	-10.2501
▁actuele	-10.2503
▁sport	-10.2512
▁wijzen	-10.2514
▁bevorderen	-10.2516
▁AVNRT	-10.2518
ia	-10.2524
▁handmatig	-10.2525
▁aanvankelijk	-10.2531
▁verdragen	-10.2544
▁gunstige	-10.2551
▁Hematocriet	-10.2551
antagonist	-10.2555
▁PT	-10.2575
▁AMI	-10.2584
▁vergrote	-10.2585
▁stijging	-10.2587
▁Meer	-10.2589
▁relatieve	-10.259
▁DR	-10.2592
▁Kopie	-10.2596
▁klacht	-10.2596
▁Daarbij	-10.26
▁proximal	-10.2601
geneeskunde	-10.2602
▁levenslang	-10.2603
ter	-10.2604
0	-10.2606
▁belast	-10.2607
▁neus	-10.2612
▁CV	-10.2616
▁zorgen	-10.2621
▁betrokkenheid	-10.2628
▁Scintigrafisch	-10.2636
▁houdt	-10.2645
▁CX	-10.2657
via	-10.266
▁medicamenteuze	-10.266
▁beste	-10.2665
▁februari	-10.2667
▁behandel	-10.267
▁verzameld	-10.2676
ST	-10.2684
▁beschikbare	-10.2684
▁vrije	-10.2686
blok	-10.2692
▁para	-10.2694
▁actueel	-10.2703
.\	-10.2704
▁potentieel	-10.2704
▁etiologie	-10.2704
▁overname	-10.2709
▁betreffende	-10.271
▁gedetecteerd	-10.2712
▁nuchter	-10.2714
▁Alleen	-10.2719
INR	-10.2742
▁Recent	-10.2747
▁plus	-10.275
▁Clopidogrel	-10.275
▁implementatie	-10.2754
▁beta	-10.2762
▁Richtlijn	-10.2762
RA	-10.2771
▁minuut	-10.2779
▁programma	-10.2782
▁structuur	-10.2789
▁TM	-10.2792
▁augustus	-10.2794
▁bestond	-10.2798
▁punctie	-10.2799
▁gelegen	-10.28
▁RPM	-10.28
▁wervelkolom	-10.2803
▁vasc	-10.2807
pro	-10.2817
ingen	-10.282
▁asymptomatisch	-10.2821
▁gegaan	-10.2823
▁infecties	-10.2824
Overige	-10.2825
▁succes	-10.2826
▁17	-10.2827
▁noodzaak	-10.2832
▁dochter	-10.2839
▁Verapamil	-10.2841
▁peri	-10.2841
][	-10.2844
▁verpleegkundig	-10.2845
▁pulsaties	-10.2847
▁intact	-10.2849
8	-10.2853
▁complicatie	-10.2855
▁vat	-10.2856
▁plotselinge	-10.2857
▁tel	-10.2859
▁prox	-10.2859
▁klachtenvrij	-10.286
▁dienen	-10.287
ziekenhuisopname	-10.2871
Bloeddruk	-10.2874
▁circumflex	-10.288
▁postoperatief	-10.2881
▁daarvan	-10.2887
▁zitten	-10.2889
▁langere	-10.2891
▁0	-10.2895
▁neuroloog	-10.2898
▁elektronisch	-10.29
▁lymfadenopathie	-10.2904
▁Dyspnoe	-10.2906
Nog	-10.2906
▁gezondheidszorg	-10.2908
Access	-10.2911
▁Cholesterol	-10.2913
▁milt	-10.2926
Lengte	-10.2932
▁vervolgen	-10.2933
▁artrose	-10.2952
▁descendens	-10.2964
receptor	-10.2964
▁ont	-10.2975
▁#;#	-10.2978
face	-10.298
▁pulmonalis	-10.2982
▁bio	-10.2987
▁benadering	-10.2998
▁verwacht	-10.3004
▁beoordeelbaar	-10.3008
▁onderzoekers	-10.3009
▁Acute	-10.301
▁optimale	-10.3013
▁circa	-10.3021
Overdracht	-10.3021
10	-10.3027
▁pericard	-10.3028
▁onderdeel	-10.3035
▁vrijdag	-10.3037
▁gekomen	-10.3041
▁leeftijdsgroep	-10.3042
q	-10.305
BSN	-10.3066
▁techniek	-10.3069
▁klepvitia	-10.3069
▁mitralis	-10.307
▁werkt	-10.307
▁overgewicht	-10.3071
▁meten	-10.3072
▁voordeel	-10.3073
Bij	-10.3073
▁control	-10.3079
▁bekken	-10.3081
▁LVOT	-10.3083
▁ruim	-10.3083
▁structureel	-10.3088
▁(>#	-10.3092
▁fmol	-10.3092
▁not	-10.3103
▁verklaard	-10.3109
▁cava	-10.3113
▁mn	-10.3114
HB	-10.3121
▁afwijkende	-10.3125
▁MCHC	-10.3129
▁focus	-10.3133
▁management	-10.3136
▁klepafwijkingen	-10.3137
dl	-10.3144
▁acenocoumarol	-10.3145
expressie	-10.3145
▁ingescand	-10.3148
▁omstandigheden	-10.3153
▁palpitatie	-10.3155
▁leverfunctie	-10.3155
▁gebruikten	-10.317
▁Jude	-10.3171
TTE	-10.3173
▁toevoegen	-10.3177
▁LAVI	-10.3179
▁poging	-10.3179
▁RUST	-10.3179
▁ICC	-10.318
ma	-10.3181
▁markers	-10.3184
▁hals	-10.3187
Art	-10.3187
▁MDL	-10.3187
–	-10.3188
revascularisatie	-10.3189
▁trans	-10.319
▁fosfatase	-10.3193
mV	-10.3193
▁eenmaal	-10.3194
▁Resultaten	-10.3198
▁component	-10.3199
▁piek	-10.3218
▁Te	-10.3218
▁Stabiele	-10.3221
oraal	-10.3223
▁elektrofysiolog	-10.323
▁ostium	-10.3231
▁uitstraling	-10.3232
▁ecg	-10.3232
▁defect	-10.3239
▁CA	-10.3246
▁BSN	-10.3249
▁energie	-10.325
▁origo	-10.3251
▁consolidaties	-10.3255
▁geleidelijk	-10.3262
▁enhancement	-10.3266
▁inname	-10.3269
aat	-10.327
▁beetje	-10.3278
▁kalium	-10.3281
▁Morgen	-10.3282
▁media	-10.3282
▁Kwaliteit	-10.3284
▁sensitiviteit	-10.3287
▁specificiteit	-10.3288
▁Ondank	-10.3292
/#	-10.3294
▁herkenbare	-10.3297
▁anteroseptaal	-10.33
▁pericarditis	-10.3304
▁calcificaties	-10.3316
▁Aangezien	-10.3326
▁prospectieve	-10.333
▁hepatitis	-10.3332
▁instabiele	-10.3335
▁Stenose	-10.3335
▁subcutaan	-10.3339
cor	-10.3342
▁gepubliceerd	-10.3349
▁pte	-10.3351
▁stuwing	-10.3369
▁HS	-10.3369
▁radioloog	-10.3374
▁hersen	-10.3376
▁spray	-10.3376
▁Verhoogd	-10.3376
▁proef	-10.3378
▁-%	-10.3379
▁detectie	-10.3385
▁behalve	-10.3387
▁deelname	-10.3388
▁snr	-10.3395
▁bijzonder	-10.3396
index	-10.34
▁msec	-10.3402
▁controleren	-10.3404
▁spironolacton	-10.3405
▁kortdurend	-10.3411
▁wijze	-10.3411
▁MC	-10.3416
lektrocardiogram	-10.342
ze	-10.3422
▁seconden	-10.3426
▁materiaal	-10.343
▁diffuse	-10.3437
men	-10.3438
sn	-10.344
▁Poliklinisch	-10.3449
▁aspecifieke	-10.345
ation	-10.3451
▁tgv	-10.3462
▁bereik	-10.3472
▁Nederland	-10.3474
▁instantie	-10.3477
▁ambulance	-10.348
▁uitgesproken	-10.3481
code	-10.3493
▁nov	-10.3501
groepen	-10.3505
▁kalk	-10.3507
medicatie	-10.3513
▁acht	-10.3515
▁#.#)	-10.3516
▁Resp	-10.3518
▁Heart	-10.354
▁dieren	-10.3541
▁gelijk	-10.3545
based	-10.3546
▁shunt	-10.3546
▁rugligging	-10.3548
▁NO	-10.3553
ige	-10.3563
▁thuismedicatie	-10.3565
▁grootste	-10.3566
▁Bericht	-10.3568
▁tweemaal	-10.3568
▁principe	-10.3571
anamnese	-10.3572
▁punt	-10.3578
▁eten	-10.3583
▁<#%	-10.3589
programma	-10.3598
▁mechanisme	-10.3605
▁Kreatinine	-10.3615
▁ontlasting	-10.362
▁colon	-10.3631
▁face	-10.3632
▁soepele	-10.3634
▁snelheid	-10.3637
▁heup	-10.3645
▁stenosering	-10.3649
▁calcificatie	-10.3649
▁hili	-10.3654
▁verschijnselen	-10.3655
▁behandelend	-10.3655
▁omgeving	-10.3658
tot	-10.3659
▁regulair	-10.366
▁Af	-10.3663
▁individuen	-10.3674
indicatie	-10.3678
▁Verwijzing	-10.3683
year	-10.3686
▁vereist	-10.3688
▁Komt	-10.3688
poli	-10.3692
▁tensie	-10.3693
▁Perindopril	-10.3696
per	-10.3696
▁GFR	-10.37
▁voordat	-10.3702
zorg	-10.3712
▁Research	-10.3713
nevenbevindingen	-10.3718
▁helft	-10.3719
▁aanpassing	-10.3719
▁trage	-10.3731
▁hemodynamische	-10.3732
▁Nadien	-10.3737
▁heer	-10.3737
▁nauwelijks	-10.3739
MI	-10.3741
▁invasieve	-10.3748
Standaard	-10.3754
▁ziet	-10.376
▁TDI	-10.3763
▁ontstaat	-10.3763
▁onderwerp	-10.3764
▁ademhalings	-10.3769
▁allemaal	-10.377
▁collabeert	-10.3772
▁verloop	-10.3775
SD	-10.3775
tablokker	-10.38
▁volwassen	-10.3803
▁sporten	-10.3811
▁vertoonde	-10.3816
▁opent	-10.3816
Shock	-10.3817
▁mL	-10.3827
▁Aortaklep	-10.3833
▁by	-10.3836
▁Afdeling	-10.3836
▁zeggen	-10.3838
arm	-10.3842
mid	-10.3854
▁Maar	-10.3857
▁vallen	-10.386
weken	-10.3862
Overig	-10.3863
▁receptor	-10.3865
▁ziekenhuizen	-10.3865
▁randomized	-10.3868
▁moeite	-10.3868
▁uitkomstmaat	-10.3869
▁Sociaal	-10.3872
▁rapport	-10.3877
heidsinterval	-10.3883
resistentie	-10.3886
sen	-10.389
▁hemoglobine	-10.3891
▁BSE	-10.3893
Jx	-10.3897
▁multidisciplina	-10.3904
▁bericht	-10.3912
▁niets	-10.3914
▁routine	-10.3932
▁Naar	-10.3938
▁Myocardinfarct	-10.3939
▁hetzelfde	-10.3945
▁verdwenen	-10.3945
▁herhaalde	-10.395
▁aritmie	-10.3953
laag	-10.3956
▁bedroeg	-10.3961
▁vermoeid	-10.3965
▁Battery	-10.3969
▁betablokker	-10.3972
▁pijnlijk	-10.3973
▁Enkele	-10.3974
▁essentie	-10.3986
zoals	-10.4004
▁sept	-10.4009
▁gewichtsverlies	-10.401
▁voordelen	-10.4017
▁ontbreken	-10.4034
▁nek	-10.4035
cardiografische	-10.4039
▁statines	-10.404
sche	-10.4045
▁landen	-10.4049
▁z	-10.4051
CAG	-10.4053
Text	-10.4054
▁OHCA	-10.4059
▁aanmerking	-10.4071
patiënt	-10.4071
-#]	-10.4071
▁Allergie	-10.4073
▁children	-10.4075
▁echt	-10.4085
▁observatie	-10.4087
▁CTO	-10.4088
▁actie	-10.409
▁handen	-10.4095
▁AB	-10.41
▁lesion	-10.4102
▁mogelijkheden	-10.4103
▁okt	-10.4106
▁lymfeklieren	-10.4111
▁veranderd	-10.4117
▁volgfrequentie	-10.4119
▁ongunstige	-10.4119
▁aanvraag	-10.4121
▁thrombus	-10.4122
▁verhoging	-10.4124
stent	-10.4126
Kalium	-10.4136
▁Naast	-10.4137
Plus	-10.4139
▁top	-10.414
▁presenteerde	-10.4143
▁consistent	-10.4145
):>#	-10.4152
▁voorspeld	-10.4153
▁Universiteit	-10.4154
▁eens	-10.4164
▁geselecteerde	-10.4174
▁overeenstemming	-10.4185
▁afspraken	-10.4191
▁redenen	-10.4192
▁SD	-10.4193
▁bloedplaatjes	-10.4193
▁hartdood	-10.4194
meting	-10.4194
Opdracht	-10.4207
▁mannelijke	-10.4207
▁wakker	-10.4211
▁breed	-10.4217
▁beperking	-10.4229
▁Ejectiefractie	-10.4238
▁RVOT	-10.4248
▁Ablatie	-10.4254
▁helpen	-10.4265
▁tekst	-10.4265
▁toelating	-10.4268
▁samenwerking	-10.4275
▁richtingen	-10.4279
▁dhr	-10.428
▁Coronair	-10.4281
▁biedt	-10.4283
-3	-10.4283
▁akinesie	-10.4295
▁herstart	-10.4298
beeld	-10.4299
gebied	-10.4301
▁doi	-10.4301
▁adviezen	-10.4307
▁ritmestoornis	-10.4307
▁apicale	-10.4309
▁EN	-10.431
▁opgehoogd	-10.4313
▁zekerheid	-10.4313
▁plaatsvinden	-10.4316
▁voorspellen	-10.4317
▁ipv	-10.4322
▁Amiodaron	-10.4324
▁aspirine	-10.4324
Echo	-10.4327
▁doses	-10.4329
▁Wilt	-10.4329
id	-10.4344
son	-10.4345
▁sluiting	-10.4345
LD	-10.4345
model	-10.4347
status	-10.4348
▁trombo	-10.4351
▁wortel	-10.4357
ol	-10.4358
▁aug	-10.4379
dat	-10.4382
Urgentie	-10.4386
▁behandelde	-10.4398
yl	-10.4402
▁eveneens	-10.4402
▁vene	-10.4402
▁partner	-10.4403
▁behoefte	-10.4403
▁proteïne	-10.4411
▁mamma	-10.4412
▁reductie	-10.4425
▁Risicoprofiel	-10.4426
▁Hoofdstam	-10.4428
▁Device	-10.4429
▁voeten	-10.4432
▁soort	-10.4436
▁voldoet	-10.4441
veranderingen	-10.4445
▁geboren	-10.4449
Contrast	-10.4449
▁lasix	-10.4468
▁Milde	-10.4472
▁Verdenking	-10.4476
▁echografie	-10.4479
▁opleiding	-10.4481
#=#,	-10.4488
▁bewegen	-10.449
Heparine	-10.4499
▁Fietsergometrie	-10.45
▁validiteit	-10.4501
▁metformine	-10.4502
-2	-10.4508
▁Achtergrond	-10.451
▁veiligheid	-10.4516
▁IM	-10.453
▁Vandaag	-10.4533
rechterventrikel	-10.4543
▁#(#)	-10.4543
ering	-10.4546
▁vue	-10.4554
▁recidieven	-10.4556
▁dominance	-10.4556
tenosis	-10.4557
▁nummer	-10.456
▁anamnestisch	-10.457
▁herziening	-10.457
▁FA	-10.4573
▁LO	-10.4577
▁Iom	-10.4595
yes	-10.4597
▁(>#/#	-10.4598
▁Uitgebreide	-10.4602
mTc	-10.4602
▁pleister	-10.4603
▁effectieve	-10.4605
▁elders	-10.4619
▁digoxine	-10.4619
▁monitoring	-10.4621
▁Stichting	-10.4625
Ureum	-10.4628
▁begon	-10.4641
▁hoogste	-10.4644
▁weet	-10.4648
▁mw	-10.4651
▁Redelijke	-10.4651
compatible	-10.4661
▁KNO	-10.4671
▁aanpak	-10.4676
▁conventionele	-10.4679
▁ischemisch	-10.4683
▁gecontroleerde	-10.4683
▁wet	-10.4685
▁opeenvolgende	-10.4686
Creatinine	-10.4688
▁nadat	-10.4688
▁vergelijken	-10.4696
▁21	-10.4697
VASC	-10.4699
▁temperatuur	-10.4701
▁initiatief	-10.4706
▁hypertensieve	-10.4711
▁Stop	-10.4714
▁Cx	-10.4718
▁simvastatine	-10.472
sch	-10.4722
▁Visueel	-10.4725
VD	-10.4728
▁AVA	-10.4728
▁Atria	-10.4733
▁cyste	-10.4734
▁Hoe	-10.4736
▁CMP	-10.4737
ion	-10.474
▁versie	-10.4741
AGB	-10.4744
ac	-10.4757
▁interactie	-10.4757
STATE	-10.4765
tische	-10.4767
▁dose	-10.4769
▁ontslagbrief	-10.4771
▁behoudens	-10.4775
▁prostaat	-10.4786
▁ingesteld	-10.4789
▁proberen	-10.479
▁serie	-10.4791
▁gestuurd	-10.4797
▁mechanische	-10.4805
▁Routine	-10.4811
▁fL	-10.4818
▁PVAI	-10.4819
▁training	-10.4821
▁asymptomatische	-10.4825
▁variatie	-10.483
▁Stent	-10.4838
▁vermogen	-10.484
▁sociaal	-10.4845
▁gekenmerkt	-10.4846
tje	-10.4846
▁overmatige	-10.4855
▁leidde	-10.4863
▁enkels	-10.4864
▁CP	-10.4865
▁natrium	-10.4873
progressie	-10.4878
▁vertonen	-10.4886
▁bevinding	-10.4895
▁Unknown	-10.4896
▁mond	-10.49
eert	-10.49
▁wetenschap	-10.4909
li	-10.491
▁Lichte	-10.4911
▁order	-10.4927
▁consent	-10.493
▁complexe	-10.4936
succinaat	-10.4936
▁Screening	-10.4938
nucleair	-10.4939
▁voeren	-10.4945
▁Impl	-10.4946
▁wisselend	-10.4948
tOperator	-10.4957
▁aanzienlijke	-10.4959
▁Atypische	-10.4962
▁#;#<	-10.4967
ratio	-10.4967
▁aVL	-10.4967
▁pob	-10.4974
compliant	-10.4975
▁receptie	-10.4976
▁wijst	-10.498
▁electieve	-10.4982
▁decompensatie	-10.4983
▁Slanke	-10.4984
▁contra	-10.4984
▁Aandachtspunt	-10.4987
aire	-10.4991
▁inj	-10.4992
▁allergie	-10.4996
▁geïndiceerd	-10.5008
it	-10.5008
▁besluit	-10.5019
▁overigens	-10.5024
▁misselijk	-10.5026
hypertrofie	-10.5028
▁annulus	-10.5028
▁zeldzame	-10.5032
erantwoordelijke	-10.5033
▁Doel	-10.5034
▁switch	-10.5034
▁ischaemie	-10.5034
▁neurologie	-10.5039
▁manuscript	-10.5039
▁zout	-10.5041
▁overgang	-10.5043
▁Thoracale	-10.5044
VT	-10.5044
▁zoon	-10.5046
▁longvenen	-10.5049
▁stof	-10.505
▁American	-10.5062
▁(#-#	-10.5064
ti	-10.5064
▁daarmee	-10.5065
ectomie	-10.5069
▁venen	-10.507
▁antwoord	-10.5076
▁dyslipidemie	-10.5077
▁aangeboren	-10.5078
▁Beide	-10.508
proBNP	-10.5083
▁menselijke	-10.5087
PM	-10.5091
▁abdomen	-10.5091
▁feb	-10.5095
▁EGFR	-10.5097
▁aanval	-10.5098
▁draad	-10.5099
▁prognostische	-10.5101
pre	-10.5105
perspectief	-10.5108
▁geneesmiddel	-10.511
▁telemetrie	-10.5113
▁gevoeligheid	-10.5114
▁cardiac	-10.5116
▁context	-10.5121
▁Non	-10.5123
▁inplannen	-10.5123
▁vervaardigd	-10.5126
▁SVES	-10.5131
▁zelfstandig	-10.5135
▁mediane	-10.5141
▁biopsie	-10.5146
▁vv	-10.5151
▁Dan	-10.5153
longvaattekening	-10.5154
▁langdurig	-10.5158
procedure	-10.5158
▁meetwaarden	-10.5159
lijn	-10.5162
▁PL	-10.5163
▁LE	-10.5166
▁eiwitten	-10.5166
▁prolaps	-10.5175
▁plan	-10.5177
lijk	-10.5178
▁vermoeden	-10.5183
▁Laatste	-10.5183
▁beschrijven	-10.5184
▁Postoperatief	-10.5191
▁aritmieën	-10.5191
Verwijzer	-10.5203
▁kwamen	-10.5207
iv	-10.5213
▁atorvastatine	-10.5218
▁statistische	-10.522
▁tamponade	-10.522
▁Alkalisch	-10.5225
▁iedere	-10.5226
scintigrafie	-10.5235
▁wisselende	-10.5235
▁metastasen	-10.5243
▁ventriculair	-10.5245
Dominantie	-10.525
▁miR	-10.5252
▁Valsalva	-10.5257
Hart	-10.526
respons	-10.5277
▁beeldkwaliteit	-10.5279
▁infiltraten	-10.528
▁inspanningstest	-10.5284
▁pitting	-10.5286
▁vakantie	-10.5288
centrum	-10.5288
▁abdominale	-10.5292
jaar	-10.5299
▁bi	-10.5299
▁nachts	-10.53
▁diagnostisch	-10.53
▁weekend	-10.5302
▁Perfusie	-10.5304
▁Slank	-10.5304
frequentie	-10.5305
▁voorspelde	-10.5315
rechts	-10.5318
▁voorzitter	-10.5321
▁pocket	-10.5326
bare	-10.5326
▁lastig	-10.5327
▁bicuspide	-10.5331
Co	-10.5332
▁Onderstaand	-10.5332
patroon	-10.5334
▁vlak	-10.5339
▁consensus	-10.534
▁Ad	-10.5344
▁hoest	-10.5347
▁nitraat	-10.5349
▁opdrachten	-10.5351
▁drinken	-10.5354
▁me	-10.5358
▁activatie	-10.5362
▁bewezen	-10.5379
▁trap	-10.5385
toppen	-10.54
tetrofosmine	-10.5413
▁nuttig	-10.5425
▁compressie	-10.5429
▁ingevuld	-10.5429
density	-10.5439
▁want	-10.544
▁avond	-10.5444
▁overweging	-10.5454
▁Hoofd	-10.5455
▁voorspellende	-10.5456
▁mass	-10.5461
▁Volgende	-10.5461
▁Acenocoumarol	-10.5463
▁vorig	-10.5467
▁nogmaals	-10.5469
der	-10.5469
▁monitor	-10.5471
-6	-10.5472
▁opgestuurd	-10.5474
▁opinion	-10.5474
vandaag	-10.5477
▁acquisitie	-10.5478
▁#,#;	-10.5479
▁omvatte	-10.5483
▁gezond	-10.5484
▁Initiatief	-10.5485
▁tumoren	-10.549
▁echtgenote	-10.5491
▁ieder	-10.5494
▁vesiculair	-10.5495
▁during	-10.5496
▁sat	-10.5497
▁hersteld	-10.55
▁diepe	-10.5509
▁Men	-10.5516
▁Relevante	-10.5517
▁onderzochten	-10.5526
▁bisoprolol	-10.5526
▁zwaar	-10.5528
▁gerookt	-10.5528
▁bias	-10.5536
III	-10.5536
▁regressie	-10.5537
▁gem	-10.5542
▁linkerkamer	-10.5545
▁years	-10.5545
CD	-10.555
jr	-10.5553
▁technieken	-10.5554
▁transplantatie	-10.556
▁verwijzen	-10.5562
▁inhoud	-10.5564
▁controlled	-10.5566
▁afgifte	-10.5573
▁extern	-10.5574
▁23	-10.5575
▁Orale	-10.5575
▁gang	-10.5576
▁orthopnoe	-10.5586
▁concentrische	-10.5588
▁Drie	-10.559
tie	-10.56
-#>)	-10.56
▁gedeeltelijk	-10.5603
matige	-10.5607
▁onderstaande	-10.5609
ALAT	-10.5611
▁ondersteund	-10.5614
▁etc	-10.5614
▁rustige	-10.5615
▁creatinine	-10.5616
▁geschikt	-10.5617
▁thans	-10.562
▁juiste	-10.5631
▁vorming	-10.5631
▁Gegevens	-10.5632
et	-10.5635
▁besluitvorming	-10.5637
▁PSA	-10.5659
▁case	-10.5659
▁biologische	-10.566
▁heart	-10.5664
gemiddelde	-10.567
▁oxidatieve	-10.5671
▁Vaatlijden	-10.5675
▁bestudeerd	-10.568
▁progressief	-10.5686
erende	-10.5689
▁Nagekeken	-10.5691
▁Geneeskunde	-10.5702
▁Verwijzer	-10.5704
▁zorgverleners	-10.5705
▁zelden	-10.5706
Is	-10.571
▁biopt	-10.5713
AP	-10.5717
▁gerandomiseerd	-10.5719
▁triglyceriden	-10.5734
▁IS	-10.5736
▁body	-10.5738
▁tegenstelling	-10.5742
▁Heparine	-10.5744
ele	-10.5744
▁optie	-10.5748
plastiek	-10.5749
▁concentraties	-10.5755
▁MVP	-10.5765
▁ZD	-10.5769
▁definities	-10.5771
▁pm	-10.5777
▁aangeboden	-10.5785
▁Monitor	-10.579
▁National	-10.5794
▁verdeeld	-10.5795
operatief	-10.5795
positieve	-10.5795
▁vasculitis	-10.5798
▁benauwdheid	-10.5798
▁elevatie	-10.5799
▁aangemeld	-10.5803
▁#%).	-10.5803
▁Studies	-10.5816
mo	-10.5822
▁vragenlijst	-10.5825
▁Ischemie	-10.5826
▁ijzer	-10.583
▁University	-10.5834
▁CHD	-10.5835
OK	-10.5836
▁Study	-10.5844
▁Globaal	-10.5845
▁geboorte	-10.5847
▁gunstig	-10.5848
▁zachte	-10.5848
▁bepaling	-10.5849
▁endotheliale	-10.5853
CE	-10.5854
iteit	-10.5855
▁Organisatie	-10.5856
▁details	-10.5858
▁gadolinium	-10.5859
▁organisatie	-10.586
▁22	-10.5861
▁horizontale	-10.5868
▁bloedstroom	-10.5871
▁atriaal	-10.5872
di	-10.5872
▁supraventricula	-10.5873
▁ic	-10.5874
▁past	-10.5877
▁Forse	-10.5887
▁verdeling	-10.5887
▁eigenschappen	-10.5894
▁KCL	-10.5895
diabetes	-10.5897
▁geheugen	-10.5898
▁dragen	-10.5898
▁psychische	-10.5902
▁voorheen	-10.5906
▁DataLinQ	-10.5907
SPECT	-10.5907
▁amiodarone	-10.5908
▁cirrose	-10.5921
▁Atherosclerose	-10.5922
▁afleidingen	-10.5925
▁daardoor	-10.5931
▁obstructieve	-10.5937
achtige	-10.5942
▁delayed	-10.5944
volume	-10.5955
Verapamil	-10.5984
▁lokaal	-10.5984
mGy	-10.5985
▁aVF	-10.599
▁Zoals	-10.5994
normale	-10.5995
▁fietsergometrie	-10.5997
▁depressieve	-10.6001
-#,	-10.6003
pen	-10.6003
▁systematic	-10.6005
▁omvat	-10.6007
▁zware	-10.6014
▁functioneel	-10.6032
▁opening	-10.6036
▁normal	-10.6036
-#-	-10.604
▁Atorvastatine	-10.604
▁voorwaarden	-10.6043
3-	-10.6045
▁di	-10.6047
▁maat	-10.6048
sbeleid	-10.6049
▁immuno	-10.6051
▁crepiteren	-10.6054
▁Long	-10.6054
▁Zowel	-10.6057
▁reviews	-10.6062
▁dikke	-10.6063
cardiomyopathie	-10.6065
▁heparine	-10.6065
▁vol	-10.6066
▁afkomstig	-10.6068
▁Th	-10.6069
▁response	-10.6069
▁tenminste	-10.607
ul	-10.607
▁doorgemaakte	-10.6071
▁deelcontact	-10.6072
▁FU	-10.6073
▁Diagnostiek	-10.6078
▁onderliggend	-10.6084
▁recept	-10.6086
▁prothese	-10.6087
▁ASA	-10.6088
▁Risk	-10.6088
▁Vitale	-10.6088
▁concept	-10.6089
▁DDDR	-10.6089
▁toekomstige	-10.609
▁beïnvloed	-10.6092
ry	-10.6092
▁spiegel	-10.6094
▁Sport	-10.6096
▁(5	-10.6098
▁centraal	-10.6099
▁geopereerd	-10.6102
▁MA	-10.6104
elevatie	-10.611
▁remissie	-10.611
▁onderscheiden	-10.611
▁gelukt	-10.6117
▁Per	-10.6122
▁opgemerkt	-10.6124
▁PTCA	-10.6138
▁dicht	-10.614
▁reanimatie	-10.614
▁palpabel	-10.6141
▁Overleg	-10.6151
Normaal	-10.6151
▁Verenigd	-10.6152
ton	-10.6153
ken	-10.6157
▁rapporteerden	-10.616
▁Verhoogde	-10.6161
locatie	-10.6169
Ontslag	-10.6178
▁longfunctie	-10.618
▁continu	-10.618
Er	-10.6184
▁Radiologie	-10.6186
▁Huisartsen	-10.619
▁geselecteerd	-10.619
▁Association	-10.6191
erd	-10.6192
12	-10.6194
▁vloeistof	-10.6197
NOAC	-10.6199
▁No	-10.6199
hals	-10.62
hypertensie	-10.6202
ide	-10.6207
▁Telefonisch	-10.6208
▁MRA	-10.6213
▁Perifeer	-10.6213
▁daarvoor	-10.6222
conclusie	-10.6224
▁noch	-10.6228
▁substraat	-10.623
▁#-#%.	-10.6237
▁best	-10.6239
▁verslechtering	-10.6239
ist	-10.6244
▁werkzaam	-10.6247
inflammatoire	-10.6249
▁Kennisinstituut	-10.6249
▁Spironolacton	-10.6254
▁systematisch	-10.6255
▁ben	-10.6255
▁profiel	-10.6258
▁virale	-10.6258
▁0,001)	-10.626
▁plots	-10.626
ro	-10.6266
▁rode	-10.6271
▁centrum	-10.6272
▁adem	-10.6275
▁carcinoom	-10.6276
▁nvt	-10.6278
▁doc	-10.628
▁reacties	-10.6282
▁vrouwelijke	-10.6282
▁verantwoord	-10.6283
Fluoroscopie	-10.6286
▁virus	-10.6289
▁(3	-10.6293
▁profylaxe	-10.6294
▁borderline	-10.6297
▁extrasystolen	-10.6302
▁genezen	-10.6304
,[	-10.6306
▁geconstateerd	-10.6307
▁paroxismaal	-10.6315
CI	-10.6315
▁chol	-10.632
▁financiële	-10.6324
▁communicatie	-10.6329
▁Apixaban	-10.6329
leeftijd	-10.6332
▁crepitaties	-10.6342
▁presenteert	-10.6342
populatie	-10.6352
▁Aanvullende	-10.6352
▁verwijs	-10.6353
▁associaties	-10.6354
ORDER	-10.6354
TEXT	-10.6365
golf	-10.6368
▁Eerste	-10.6372
onderzoeken	-10.6375
▁indicatoren	-10.6376
baar	-10.6379
▁vivo	-10.6385
▁gecorrigeerd	-10.6387
▁granulocyten	-10.6391
▁subclavia	-10.6395
▁Gesproken	-10.6399
▁Paroxysmaal	-10.6401
▁dunne	-10.6404
▁gecombineerd	-10.6406
▁schrijven	-10.6407
▁NSAID	-10.6407
▁kinder	-10.6415
▁interval	-10.6419
▁subtotale	-10.6419
▁Hospital	-10.6429
reactief	-10.6437
▁zeven	-10.6438
▁28	-10.6438
Leucocyten	-10.644
▁commentaar	-10.6442
intestinale	-10.6442
▁tijdelijke	-10.6449
▁geïnduceerde	-10.6453
▁additionele	-10.6454
▁batterij	-10.6457
▁Waarschijnlijk	-10.6458
▁ex	-10.6462
▁icc	-10.6462
Ingepland	-10.6467
▁patienten	-10.6467
enpraktijk	-10.6471
▁ticagrelor	-10.6477
▁tien	-10.6481
▁pg	-10.6483
▁dilaterende	-10.6484
bezoek	-10.6487
periode	-10.6489
▁lekkage	-10.6492
mmol	-10.6496
ASAT	-10.6501
▁eetlust	-10.6501
▁shocks	-10.6505
▁wire	-10.6511
40	-10.6514
▁adviseur	-10.6516
▁Detail	-10.6517
▁bewustzijn	-10.6519
▁PTA	-10.6519
▁degeneratieve	-10.652
eel	-10.652
▁moeheid	-10.6522
water	-10.6523
▁instrument	-10.6525
embolie	-10.6532
▁systolisch	-10.6535
▁modellen	-10.6541
▁medicijn	-10.6541
▁circulatie	-10.6542
▁UI	-10.6542
CABG	-10.6542
▁soorten	-10.6544
▁syndrome	-10.6548
▁verhouding	-10.655
▁evident	-10.6555
▁getest	-10.656
registratie	-10.656
▁erop	-10.6563
▁marker	-10.6565
▁Gebruikt	-10.657
▁zaken	-10.6571
corticosteroïden	-10.6572
tabel	-10.6573
▁DC	-10.6586
▁complete	-10.6592
▁AC	-10.6594
▁microgram	-10.6597
▁behandelaar	-10.6598
▁Pro	-10.6603
▁Hulp	-10.6603
zuur	-10.6604
▁symptomatisch	-10.6619
▁perfusiedefect	-10.6622
▁Injectie	-10.6624
▁kreatinine	-10.6632
▁Vrouwelijk	-10.664
▁aldaar	-10.664
▁migraine	-10.6646
1)	-10.6647
▁comorbiditeit	-10.6654
▁Verschillende	-10.6655
▁PHT	-10.666
conceptrichtlijn	-10.666
▁drempel	-10.6661
▁Paracetamol	-10.6661
3,	-10.6662
▁reperfusie	-10.6662
▁Nieuws	-10.6663
▁geprobeerd	-10.6663
▁Uitleg	-10.6664
lab	-10.6669
▁gewenst	-10.6676
▁Evidence	-10.6679
▁multipele	-10.668
▁aangevraagd	-10.6681
onwaarschijnlijk	-10.6682
▁adipositas	-10.6686
off	-10.6687
▁CPAP	-10.6692
▁Trans	-10.6693
▁angineuze	-10.6699
▁hartfunctie	-10.6704
het	-10.6705
▁cookies	-10.6719
▁bevat	-10.6722
▁productie	-10.6725
▁werkzaamheid	-10.6726
▁bijdrage	-10.6728
Trombocyten	-10.6728
Name	-10.673
▁moest	-10.6733
▁zoeken	-10.6738
▁Aanbeveling	-10.6739
▁ontdekt	-10.6741
▁ontwikkelingen	-10.6743
▁onbekende	-10.6753
▁verkrijgen	-10.6754
▁microvasculaire	-10.6754
▁namen	-10.6755
▁alert	-10.6756
▁metabool	-10.6763
DC	-10.6771
▁arteriën	-10.6774
▁SJM	-10.6776
▁handelen	-10.6778
bpm	-10.6785
▁DE	-10.6787
▁26	-10.679
▁cerebrale	-10.68
▁verhoogt	-10.6803
▁ingrepen	-10.6807
▁biomarkers	-10.6807
katheterisatie	-10.681
▁anastomose	-10.6814
▁afw	-10.6814
▁bezigheden	-10.6816
▁vermindert	-10.6816
▁meldde	-10.6821
▁galblaas	-10.6823
▁Alg	-10.6825
▁jicht	-10.6827
Aberrant	-10.6831
▁beantwoorden	-10.6831
▁afbouwen	-10.6832
▁cross	-10.6834
ert	-10.6838
▁#%;	-10.6838
nog	-10.684
nu	-10.684
▁onderscheid	-10.6845
▁idee	-10.6846
Blood	-10.685
▁foto	-10.6852
▁initiële	-10.6861
▁Society	-10.6865
▁bleken	-10.6865
▁kijken	-10.6867
▁stap	-10.6868
20	-10.6868
▁donderdag	-10.6876
▁CR	-10.6877
▁bevalling	-10.6879
▁structuren	-10.6879
▁Derhalve	-10.6881
▁voorste	-10.6881
▁Hierna	-10.6883
▁geleid	-10.6883
▁lekker	-10.6883
ernstige	-10.6886
tak	-10.6887
▁autorisatie	-10.6895
▁gegenereerd	-10.6895
▁registreren	-10.6902
▁Lead	-10.6905
▁gecombineerde	-10.6907
▁epicardiale	-10.6908
19	-10.6908
▁uitvoeren	-10.6909
▁presenteren	-10.6915
▁genetisch	-10.6918
▁ectopie	-10.6919
▁leefstijl	-10.6921
▁samengevat	-10.6926
▁instellingen	-10.6928
▁nadere	-10.693
▁litteken	-10.6932
▁bifurcatie	-10.6935
▁based	-10.6939
LIMA	-10.6941
▁variant	-10.6942
▁hetgeen	-10.695
infarct	-10.6951
▁art	-10.6952
▁palliatieve	-10.6955
▁document	-10.6956
▁HNP	-10.6965
▁overslagen	-10.6966
flow	-10.6973
Diabetes	-10.6975
=#)	-10.6979
tal	-10.698
afspraak	-10.6983
SN	-10.6985
ase	-10.6989
▁persoonlijke	-10.699
▁80	-10.6993
▁chronic	-10.7
productie	-10.7
Radiation	-10.7007
▁Zorg	-10.7008
▁NC	-10.701
▁bleven	-10.7014
▁verwachten	-10.7017
Myocard	-10.7019
▁reflux	-10.7019
▁verderop	-10.7022
▁voorkomt	-10.7023
▁retinopathie	-10.7024
▁resulteerde	-10.7025
▁con	-10.7026
▁precordiale	-10.7033
▁begrip	-10.7033
▁streef	-10.7034
▁lijst	-10.7034
#;	-10.7036
▁lezen	-10.7036
▁sepsis	-10.7039
▁Simvastatine	-10.7047
▁Nieuwe	-10.7049
▁pmol	-10.705
the	-10.7051
▁betekent	-10.7051
fase	-10.7052
▁Daar	-10.7055
▁GUCH	-10.7056
DR	-10.7059
Air	-10.7059
▁sublinguaal	-10.706
▁obstipatie	-10.7061
▁grotendeels	-10.7066
▁pijnlijke	-10.7067
▁leads	-10.7067
Ingreep	-10.707
▁zoveel	-10.7071
BP	-10.7074
▁instellen	-10.7078
▁os	-10.7081
studies	-10.7086
beoordeling	-10.7086
▁verlengd	-10.7088
▁Intercollegiaal	-10.7089
zout	-10.7096
▁maligne	-10.7102
Verwijzend	-10.7104
▁voorgelegd	-10.7107
▁Hartrevalidatie	-10.7108
▁uitval	-10.7111
▁Besproken	-10.7114
▁herhaling	-10.7115
CK	-10.712
▁apixaban	-10.7121
mcg	-10.7122
▁genoemde	-10.7123
consult	-10.7126
▁septale	-10.713
depressie	-10.7133
▁leverziekte	-10.7135
▁uren	-10.7138
Bilirubine	-10.7141
▁dikte	-10.7144
▁Amlodipine	-10.715
▁hemodynamisch	-10.7152
▁anticoagulantia	-10.7152
ad	-10.7155
▁pathogenese	-10.7157
▁respiratoire	-10.7163
▁gehoor	-10.7168
▁typisch	-10.7171
▁verspreid	-10.7171
▁voorlichting	-10.7177
▁Ernstig	-10.718
Nucleair	-10.7183
▁autorijden	-10.7187
chef	-10.7187
▁paracetamol	-10.7191
▁(2	-10.7194
werk	-10.7196
am	-10.7196
gGT	-10.7197
▁VA	-10.7201
▁nuchtere	-10.7202
▁betrouwbare	-10.7203
▁Risico	-10.7204
▁onderzoeks	-10.7205
Behandeling	-10.7205
eiwit	-10.7211
bp	-10.7216
ant	-10.7216
▁stenoses	-10.7217
chirurgie	-10.7218
▁gestopte	-10.722
▁geldigheid	-10.7229
Adjusted	-10.723
ACE	-10.723
▁>#%	-10.723
▁Nooit	-10.7233
▁Beiderzijds	-10.7235
sinustachycardie	-10.7235
▁linkeratrium	-10.7236
▁drukpijn	-10.7239
▁anderen	-10.724
▁veroorzaakte	-10.7241
▁Effect	-10.7242
▁0,05	-10.7242
▁leveren	-10.7243
▁zus	-10.7244
AT	-10.7247
▁armen	-10.7249
▁Functie	-10.725
▁VB	-10.7253
▁uitbreiding	-10.7254
30	-10.7255
▁sternotomie	-10.7257
▁houding	-10.7263
▁bijwerking	-10.7264
▁Via	-10.7264
klep	-10.7272
▁Neem	-10.7272
▁technicus	-10.7278
▁TNF	-10.7279
▁antilichamen	-10.7279
▁zin	-10.728
▁procedures	-10.7286
▁AO	-10.7286
▁Fors	-10.7288
▁Doppler	-10.7292
▁kransslagader	-10.7307
▁percentages	-10.731
▁(%/	-10.7311
▁gevoelig	-10.7313
Normale	-10.7317
ontractiepatroon	-10.7318
TR	-10.7319
▁prospectief	-10.7328
:#.#%	-10.7329
▁Contrast	-10.7331
out	-10.7333
▁drainage	-10.7335
▁sneller	-10.7336
▁oorsprong	-10.7338
▁afstand	-10.7343
▁benigne	-10.7348
beelden	-10.735
▁waarmee	-10.7352
▁Clinical	-10.7354
grootte	-10.7355
▁waarom	-10.7372
ven	-10.7373
con	-10.7374
▁psoriasis	-10.7374
▁Telefoon	-10.7378
invasieve	-10.7381
▁1,5	-10.7386
▁voorspeller	-10.7393
ner	-10.7394
▁voedings	-10.7395
▁Actieve	-10.7396
▁ergo	-10.7398
50	-10.7398
▁discussie	-10.7399
▁car	-10.7405
▁CS	-10.7406
▁Bloeding	-10.7408
▁stolling	-10.7409
▁borstkanker	-10.7426
▁Watt	-10.7426
▁Opmerking	-10.7433
▁slapen	-10.7433
60	-10.7434
▁clinique	-10.7435
▁schatten	-10.7436
▁daarnaast	-10.7436
▁poly	-10.7437
ling	-10.744
Lesion	-10.7441
▁geïnduceerd	-10.7451
▁falen	-10.7452
▁verdikt	-10.7456
▁lumen	-10.7457
▁general	-10.7459
massa	-10.746
25	-10.746
▁inzicht	-10.7463
▁Gering	-10.7464
letsel	-10.7467
▁regulatie	-10.7473
▁tevreden	-10.7476
▁schatting	-10.7478
▁enig	-10.7487
iaal	-10.7488
▁premature	-10.7489
▁gestoorde	-10.7495
snelheid	-10.7497
Patiënt	-10.7499
▁omgezet	-10.7501
rbasalaatcalcium	-10.7501
ziekten	-10.7501
CVD	-10.7506
▁sterfgevallen	-10.7507
▁Toen	-10.7508
▁veilig	-10.7512
BMI	-10.7513
len	-10.7527
▁operatieve	-10.7531
▁commissie	-10.7533
▁sign	-10.7534
sis	-10.7534
▁cave	-10.7537
▁voren	-10.7537
▁hierna	-10.7538
▁verkalkte	-10.755
▁hartritme	-10.7554
▁thv	-10.7555
gr	-10.7558
▁kreat	-10.7563
▁Gedurende	-10.7564
▁persoon	-10.7566
▁orthopneu	-10.7567
▁Lever	-10.7568
▁wijten	-10.7571
▁48	-10.7578
lichtingsgesprek	-10.7581
▁operateur	-10.7582
▁Operatie	-10.7586
▁kleppen	-10.7586
▁IgG	-10.759
overzicht	-10.7594
▁automatisch	-10.7595
▁Wire	-10.7595
▁ontvingen	-10.7598
▁Geneeskundige	-10.7608
▁inleiding	-10.7611
▁practice	-10.7613
▁intensieve	-10.7617
▁koude	-10.7621
analysis	-10.7621
▁Geschatte	-10.7629
▁35	-10.7635
▁samengesteld	-10.7635
▁ad	-10.7635
▁kern	-10.7636
▁letsels	-10.7636
Vul	-10.7639
cholecystectomie	-10.764
▁opnames	-10.7642
▁boog	-10.7644
▁Woonplaats	-10.7646
▁halsvenen	-10.7646
eluting	-10.7648
▁vlakke	-10.7649
▁externe	-10.7652
▁NOAC	-10.7654
▁Aandachtspunten	-10.7654
▁wandelen	-10.7655
▁voedsel	-10.7655
▁functies	-10.7665
▁veneus	-10.7665
▁opmerkelijk	-10.7666
▁Recente	-10.7666
indicaties	-10.7668
▁herseninfarct	-10.7679
▁bezwaar	-10.768
▁entresto	-10.7682
▁infero	-10.7682
▁twijfel	-10.7683
▁wellicht	-10.769
▁function	-10.7697
EN	-10.7701
▁dominantie	-10.7706
▁denken	-10.7708
▁opties	-10.7709
▁globale	-10.7711
resultaten	-10.7711
▁failure	-10.7711
▁extremiteiten	-10.7711
▁geïsoleerde	-10.7715
analyses	-10.7717
▁ondersteunen	-10.772
▁Hoofddiagnose	-10.7721
▁fysiologische	-10.7721
▁DVT	-10.7722
▁coronarialijden	-10.7722
▁90	-10.7727
▁Perfusiedefect	-10.7727
▁50%	-10.7728
Een	-10.7729
▁voorgaande	-10.7731
IE	-10.7732
▁invullen	-10.7733
Ik	-10.7733
▁cellulaire	-10.7736
criteria	-10.7737
▁beroeps	-10.7738
▁selectie	-10.7739
▁Sc	-10.7747
▁drain	-10.7747
▁steun	-10.7748
▁wijzend	-10.7749
▁ervaart	-10.7751
onderwandinfarct	-10.7763
▁experimentele	-10.7765
▁Gelijktijdig	-10.7767
▁regelgeving	-10.7767
▁delier	-10.7773
▁Kleine	-10.7774
▁Enige	-10.7776
▁gepaced	-10.7781
▁Inleiding	-10.7783
▁Heden	-10.7787
▁doorsnede	-10.7804
percentage	-10.7805
▁pain	-10.7807
▁MESA	-10.7811
LDL	-10.7813
tisch	-10.7819
▁vitale	-10.7823
▁resulteert	-10.7828
▁fietstest	-10.7829
▁land	-10.7835
▁hierover	-10.7837
▁main	-10.7842
▁Wond	-10.7842
▁setting	-10.7842
land	-10.7847
▁FDG	-10.7849
▁ingenomen	-10.7854
▁TABL	-10.7856
▁Prof	-10.7856
▁kuiten	-10.786
▁slotte	-10.7863
▁overeen	-10.7867
▁getoond	-10.7867
▁inderdaad	-10.7871
▁Lid	-10.7873
▁komende	-10.7874
▁opgeroepen	-10.7874
▁belafspraak	-10.7882
▁neem	-10.7882
ra	-10.7891
▁gelaten	-10.7893
▁enzymen	-10.7907
bijvoorbeeld	-10.7908
Heeft	-10.7908
▁producten	-10.7914
▁[#]	-10.7916
▁iemand	-10.7916
STEMI	-10.7917
▁FT	-10.7918
interval	-10.7925
▁gefinancierd	-10.7936
ment	-10.7939
▁membraan	-10.7941
▁trombocyten	-10.7943
▁bevestigde	-10.795
▁observationele	-10.7951
▁echografisch	-10.7954
Sinusritme	-10.7956
reactie	-10.796
▁verbinding	-10.7969
▁CTC	-10.7971
▁beheer	-10.7973
▁infectieuze	-10.7977
Ohm	-10.7977
▁mail	-10.7977
▁Controles	-10.7979
▁PCR	-10.798
VI	-10.7991
▁RWBS	-10.7992
▁neuropathie	-10.7993
pt	-10.7994
punt	-10.7998
▁daalde	-10.7998
-1-	-10.8001
▁moleculaire	-10.8002
▁jaarlijks	-10.8004
▁permanent	-10.8005
▁stentplaatsing	-10.8007
▁plat	-10.8007
uren	-10.8007
▁(#.#)	-10.8009
gevallen	-10.8015
tablokkers	-10.8018
▁verwijdering	-10.8019
Bijzonderheden	-10.8019
▁enqu	-10.8027
▁Platte	-10.8027
▁Echografisch	-10.8029
▁scherp	-10.8034
▁Fr	-10.8034
▁Atriale	-10.8035
antagonisten	-10.8035
▁gepubliceerde	-10.8035
▁gecalcificeerde	-10.8036
anmeldformulier	-10.8037
heden	-10.8042
DA	-10.8046
▁bemerkt	-10.8048
lijst	-10.8049
▁consequenties	-10.805
▁myocardischemie	-10.8054
spiegel	-10.8062
▁PS	-10.8063
▁angiotensine	-10.8065
▁lid	-10.8067
▁dobutamine	-10.8067
VS	-10.807
OC	-10.8071
▁out	-10.8071
Lab	-10.8074
bloeding	-10.8074
▁Cancer	-10.8075
▁Meerdere	-10.8079
▁therapeutisch	-10.8083
▁verdikking	-10.8086
▁bloedcellen	-10.8087
▁infusie	-10.8091
▁ofwel	-10.8092
▁mammacarcinoom	-10.8097
ischemische	-10.8099
▁pulm	-10.8101
uitslagen	-10.8103
▁goedgekeurd	-10.8109
il	-10.8109
▁gram	-10.8112
▁nierziekte	-10.8116
▁rookt	-10.8116
verlies	-10.8128
▁j	-10.8131
▁daaropvolgende	-10.8146
▁herhaald	-10.8153
▁verkalkingen	-10.8154
▁endotheel	-10.8155
▁kamerfunctie	-10.8158
ose	-10.8161
iële	-10.8163
Figuur	-10.8168
▁ip	-10.8171
▁aanvrager	-10.8174
4-	-10.8183
▁identificatie	-10.8189
▁intake	-10.819
▁lipide	-10.8192
▁BP	-10.8194
NYHA	-10.8196
Tabel	-10.8197
▁Actueel	-10.8201
▁Momenteel	-10.8202
▁Anamnestisch	-10.8203
▁diagonaal	-10.8206
weefsel	-10.8207
▁Arts	-10.8209
▁voorgesteld	-10.8209
▁do	-10.8209
▁drugs	-10.821
▁geïsoleerd	-10.822
▁IBD	-10.8223
tic	-10.8224
▁ma	-10.8231
▁dinsdag	-10.8234
▁TCH	-10.8242
▁Medication	-10.8243
▁abces	-10.8248
▁maatschappelijk	-10.825
Anticoagulantia	-10.8251
ij	-10.8253
Hyper	-10.8255
▁overdag	-10.8258
▁zenuw	-10.8258
▁specialisten	-10.8261
▁contractiliteit	-10.8262
▁plotse	-10.8265
▁Care	-10.8267
PATIENTNUMMER	-10.8272
▁preoperatieve	-10.8273
informatie	-10.828
▁Plan	-10.828
▁Up	-10.828
▁duizelingen	-10.8287
▁restenose	-10.829
▁ME	-10.829
LA	-10.8294
cavotricuspidale	-10.8295
▁gezet	-10.8298
▁malen	-10.8298
▁slokdarm	-10.8299
",	-10.8303
Glucose	-10.8303
weg	-10.8305
▁verwijde	-10.8308
▁grenzen	-10.8309
▁Sat	-10.831
▁relaties	-10.8312
▁Opmerkingen	-10.8314
▁formulier	-10.8319
▁NSVT	-10.8322
▁women	-10.8322
▁Belconsult	-10.8325
elijk	-10.8326
▁verzamelen	-10.8331
ab	-10.8334
▁vraagt	-10.8335
▁bacteriële	-10.8336
▁Was	-10.8339
▁balans	-10.8342
▁trend	-10.8342
▁gevalverslag	-10.8345
▁IE	-10.8346
ntgen	-10.8347
▁mediaan	-10.8349
▁steekproef	-10.8349
onbetaald	-10.8355
Complicatie	-10.8355
▁ossale	-10.8357
▁cutaan	-10.836
Belconsult	-10.8362
▁5-	-10.8362
ummer	-10.8365
▁veranderen	-10.8368
▁referentie	-10.8373
▁prof	-10.8374
▁incisie	-10.8375
regressieanalyse	-10.838
▁lichaamsgewicht	-10.8389
▁bescherming	-10.8389
▁leukocyten	-10.8391
:|	-10.8394
ci	-10.8394
been	-10.8396
▁vertrouwen	-10.8397
▁meenemen	-10.8401
Pressure	-10.8403
▁Heldere	-10.8406
▁ruptuur	-10.8408
▁reversibele	-10.8408
▁oppervlakte	-10.8413
▁Zwangerschaps	-10.8418
▁31	-10.8418
▁retrospectieve	-10.8422
prothese	-10.8426
▁Anti	-10.8433
▁plotseling	-10.8443
▁eczeem	-10.8444
MS	-10.8448
▁beschikbaarheid	-10.8456
▁Dus	-10.8461
▁lipoproteïne	-10.8465
deel	-10.8466
▁voorschrijven	-10.8468
▁European	-10.847
▁pomp	-10.847
▁AH	-10.847
▁hypothese	-10.8474
ive	-10.8477
▁37	-10.848
▁bevatten	-10.8482
▁berekenen	-10.8487
▁umol	-10.8491
▁Tr	-10.8495
elijkheid	-10.8499
▁(#),	-10.85
▁gemakkelijk	-10.8506
▁(#):	-10.8507
▁macrofagen	-10.8515
▁rivaroxaban	-10.8515
▁remming	-10.8516
▁mens	-10.8522
sgebonden	-10.8524
▁ulcus	-10.853
▁terugverwezen	-10.8531
▁CBO	-10.8533
▁erger	-10.8535
lateraal	-10.8538
▁figuur	-10.8539
ler	-10.8539
▁gevoeld	-10.854
▁AIOS	-10.8542
▁EC	-10.8544
▁preventieve	-10.8555
Conclusion	-10.8559
ik	-10.8562
▁other	-10.8562
▁verstuurd	-10.8562
▁PVCs	-10.8564
▁Of	-10.8565
▁Dr	-10.8565
dec	-10.8568
▁gradiënt	-10.8573
▁naam	-10.8574
▁rand	-10.8578
▁malaise	-10.8582
▁27	-10.8582
▁gewichtstoename	-10.8584
▁Staten	-10.8586
beleid	-10.8587
▁Triglyceriden	-10.8589
▁fiets	-10.8592
▁deviaties	-10.8593
▁Leiden	-10.8594
▁Stress	-10.8595
io	-10.8597
15	-10.8599
▁bovendien	-10.8604
AR	-10.8609
▁scores	-10.861
ate	-10.8617
▁onmiddellijk	-10.8618
▁superior	-10.8619
▁minstens	-10.8619
▁Lesion	-10.862
diagnose	-10.862
ke	-10.8622
▁besteed	-10.8623
▁keren	-10.8625
#%	-10.8628
▁Mid	-10.8632
▁AD	-10.8635
▁achtergrond	-10.8643
11	-10.8645
▁Decompensatio	-10.8647
▁RIP	-10.8655
▁Stabiel	-10.8655
▁gedocumenteerd	-10.8658
▁opwekbaar	-10.8663
▁inferoseptaal	-10.8663
▁New	-10.8663
▁uitsluiten	-10.8668
▁surgery	-10.8678
▁Amerikaanse	-10.868
▁rapporteren	-10.8681
▁beschrijving	-10.8681
▁wegraking	-10.8684
▁Adres	-10.8685
MDRD	-10.8686
▁ingezet	-10.8691
▁verbetert	-10.8693
▁familieleden	-10.8693
▁Beloop	-10.8693
▁Hiervoor	-10.8694
DO	-10.8694
tachycardie	-10.8699
▁q	-10.8703
▁honden	-10.8703
▁wegrakingen	-10.8706
▁hypertrofisch	-10.8707
▁Intoxicaties	-10.8708
▁drukken	-10.8709
zo	-10.871
▁onregelmatig	-10.8712
▁psychiatrische	-10.8713
▁Toepassen	-10.8714
▁zichzelf	-10.8719
her	-10.8719
▁45	-10.8722
kenmerken	-10.8723
▁multivariate	-10.8729
▁amplitude	-10.873
▁gewoon	-10.8742
Hb	-10.8742
▁(=	-10.8743
▁farmacologische	-10.8744
▁douchen	-10.8745
▁schaal	-10.8748
▁DI	-10.8749
mputertomografie	-10.8753
▁sn	-10.8756
▁Laag	-10.8758
▁onregelmatige	-10.876
▁Tricuspide	-10.8763
▁tijde	-10.8768
▁perforatie	-10.877
▁bloedglucose	-10.8774
▁keel	-10.8774
▁mGy	-10.8779
▁voorlopig	-10.8781
▁stoffen	-10.8781
▁allen	-10.8789
▁achterste	-10.8789
▁SAM	-10.8791
▁opdracht	-10.8796
▁ingepland	-10.8802
▁contractie	-10.8804
Ca	-10.8806
Ascal	-10.8807
▁humane	-10.8809
▁Bel	-10.8815
▁anterieure	-10.8815
dossier	-10.8816
▁opvallend	-10.8826
▁Methode	-10.8826
▁circulerende	-10.8828
▁zag	-10.883
▁innemen	-10.8832
▁genoeg	-10.8834
▁nav	-10.8834
Time	-10.8834
▁kweek	-10.8835
▁albumine	-10.8841
▁sintrom	-10.8842
▁HM	-10.8843
▁Toch	-10.8853
▁jaarlijkse	-10.8854
▁PD	-10.8855
▁Reliance	-10.8864
▁detecteren	-10.8864
▁HD	-10.8865
▁mRNA	-10.8865
▁VASC	-10.8865
▁Rivaroxaban	-10.8867
SS	-10.8873
▁pat	-10.8874
▁Expectatief	-10.8877
▁Rust	-10.8879
protocol	-10.8883
▁Contact	-10.8884
▁gebruikelijke	-10.8894
▁creat	-10.89
▁riscofactoren	-10.8909
Schema	-10.8909
▁inductie	-10.891
portaal	-10.8914
▁im	-10.8915
▁bijlage	-10.8919
IC	-10.8922
▁zinvol	-10.8923
▁welk	-10.8926
versie	-10.8933
▁spreken	-10.8933
▁profylactische	-10.8934
beloop	-10.8935
▁dys	-10.8936
▁gebleven	-10.8936
16	-10.8938
▁Kalkscore	-10.8939
▁handhaven	-10.8939
▁donor	-10.8942
▁sternum	-10.8945
3)	-10.8946
▁langetermijn	-10.8947
▁Tambocor	-10.8948
▁intensive	-10.8952
▁weke	-10.8953
▁gaven	-10.8956
positie	-10.8956
perfusiedefecten	-10.8959
>#	-10.8959
▁absolute	-10.8961
▁lumbale	-10.8971
▁JC	-10.8972
▁aanwezige	-10.8974
▁75	-10.8979
▁Palpitaties	-10.8981
▁vitro	-10.8982
lo	-10.8984
▁zone	-10.8984
-1,	-10.8985
verlagende	-10.8986
▁nodus	-10.8987
▁XT	-10.8988
Hartteam	-10.899
▁0,01	-10.8995
▁vaste	-10.9
St	-10.9002
▁aangetroffen	-10.9008
Coronair	-10.9009
parameters	-10.901
▁alsnog	-10.9011
▁ureum	-10.9012
▁immuun	-10.9016
▁RT	-10.9017
▁Duitsland	-10.9022
▁geoccludeerd	-10.9023
▁onderling	-10.903
▁smal	-10.9032
▁(#/#)	-10.9035
▁anterolateraal	-10.9038
Verpleegkunde	-10.9038
65	-10.9039
▁afgezien	-10.9041
gezien	-10.9043
▁mitochondriale	-10.9044
▁Wordt	-10.9046
▁hemodialyse	-10.9048
▁mono	-10.9049
▁woensdag	-10.905
metingen	-10.905
▁Ga	-10.9055
gene	-10.9055
Belafspraak	-10.9055
▁bovenbuik	-10.9055
▁maakte	-10.9057
▁Langwerkend	-10.9061
▁voorwandinfarct	-10.9062
un	-10.9065
▁int	-10.9072
▁Japan	-10.9081
▁harten	-10.9081
▁Had	-10.9084
air	-10.9085
▁EHH	-10.9086
erde	-10.9091
▁afzonderlijke	-10.9093
▁kleiner	-10.9093
ha	-10.9094
▁prikken	-10.9094
▁Overwegingen	-10.9094
wand	-10.9097
▁Fysicon	-10.91
▁Geboortedatum	-10.91
▁Geriatrie	-10.9108
▁bewust	-10.9109
ex	-10.911
+,	-10.911
▁apoptose	-10.9116
NHR	-10.9117
ER	-10.9123
diagnostiek	-10.9125
lijke	-10.9125
▁Mede	-10.9127
▁nefropathie	-10.9128
▁70	-10.9128
▁Flecainide	-10.9128
▁RFR	-10.913
▁ER	-10.9133
▁pleurae	-10.9134
▁[],	-10.9136
▁Aanvrager	-10.9139
▁oa	-10.9139
VF	-10.914
▁(+)	-10.9141
▁veranderde	-10.9142
jan	-10.9143
▁Totale	-10.9146
▁consolidatie	-10.9149
▁overgenomen	-10.9154
▁mediale	-10.9159
▁enzym	-10.9159
DES	-10.9159
▁methodologische	-10.9161
▁meegegeven	-10.9162
antihypertensiva	-10.9165
▁droog	-10.9166
▁aanpassen	-10.9168
▁voorlopige	-10.9177
term	-10.9181
chloorthiazide	-10.9185
gebaseerde	-10.9185
▁spoortje	-10.9187
os	-10.9188
▁aangetast	-10.919
▁denkt	-10.9192
grafie	-10.9193
▁gedacht	-10.9196
oom	-10.9199
formed	-10.9207
▁kuur	-10.9213
▁<#.#	-10.9216
▁sp	-10.9221
▁alfa	-10.9223
▁serienummer	-10.9225
regulatie	-10.9226
▁jet	-10.923
tri	-10.923
▁gebruikers	-10.923
▁stam	-10.9235
▁Impedantie	-10.9239
18	-10.9244
▁ring	-10.9246
▁dabigatran	-10.9247
▁suppletie	-10.9251
▁voorspellers	-10.9251
▁TG	-10.9252
▁(10	-10.9254
▁Secretariaat	-10.9255
▁essentieel	-10.9256
meer	-10.9261
▁doelgroep	-10.9269
▁collaterale	-10.9269
▁mutaties	-10.927
▁second	-10.9274
CA	-10.9277
▁peptide	-10.9282
▁dig	-10.9284
▁verdoving	-10.9287
▁lipoprotein	-10.9287
▁Astma	-10.9293
▁gerustgesteld	-10.9302
▁gezin	-10.9305
▁vergelijk	-10.9305
▁factors	-10.9312
▁interpretatie	-10.9315
▁Samenstelling	-10.9318
Gesproken	-10.932
▁fibrilleren	-10.9322
▁kleur	-10.9329
scintigram	-10.9329
▁pH	-10.9333
▁med	-10.9336
▁lactaat	-10.9337
▁Extra	-10.9338
▁path	-10.934
▁poeder	-10.9343
▁Tc	-10.9346
▁hinderlijke	-10.935
▁ADL	-10.9353
HF	-10.9353
▁Slechte	-10.9353
▁CLS	-10.9354
▁Sommige	-10.9358
tjes	-10.9364
▁Wet	-10.9365
▁leek	-10.9366
vats	-10.9371
▁Parkinson	-10.9372
▁AGB	-10.9379
▁miljoen	-10.9381
▁begrepen	-10.9381
▁uitgevoerde	-10.9382
14	-10.9384
▁Scan	-10.9387
▁Li	-10.9394
▁selokeen	-10.9395
MOD	-10.9396
▁bedoeld	-10.9397
RCx	-10.9399
▁onzeker	-10.94
▁psychosociale	-10.9402
13	-10.9405
▁retrospectief	-10.9405
eg	-10.9413
▁AAA	-10.9415
▁onderwerpen	-10.9417
▁CONCLUSIE	-10.9417
▁injection	-10.9421
▁excentrische	-10.9422
é	-10.9426
▁voorbereiding	-10.9429
▁diverticulitis	-10.9437
▁therapietrouw	-10.9437
▁Normal	-10.9441
▁trends	-10.9445
▁gelijktijdige	-10.9448
Orale	-10.9449
LM	-10.9452
▁geïncludeerd	-10.9453
▁selectieve	-10.9456
tumor	-10.9456
▁wo	-10.9456
▁definitie	-10.9459
PG	-10.946
▁left	-10.9461
▁health	-10.9461
▁verlaging	-10.9464
▁lineaire	-10.9466
▁resonantie	-10.9468
▁beenmerg	-10.9468
▁belaste	-10.9473
▁Acuut	-10.9474
▁Kennislacunes	-10.9479
IR	-10.948
▁diam	-10.9481
Opname	-10.9481
▁#,<	-10.9483
▁sporadisch	-10.9484
maal	-10.9484
▁cardiologische	-10.9486
▁Zou	-10.9487
▁afnemen	-10.9488
▁geregeld	-10.9489
▁catheter	-10.9493
▁magnetische	-10.9497
▁trop	-10.95
Diagnose	-10.9505
▁Europese	-10.9512
insufficintie	-10.9514
▁dubbele	-10.9516
bereik	-10.9518
▁Moet	-10.952
kanker	-10.9526
▁voelde	-10.9526
21	-10.953
▁gekeken	-10.9531
▁ware	-10.9535
▁Toename	-10.9536
Studie	-10.9538
Postoperatief	-10.9539
▁Overname	-10.9542
▁situaties	-10.9543
bel	-10.9544
▁opstaan	-10.9547
▁interna	-10.9548
▁medicatielijst	-10.9549
▁nucleair	-10.9551
▁configuratie	-10.9556
TI	-10.9559
▁orthostase	-10.957
mer	-10.9573
▁CTR	-10.9576
▁behoren	-10.9584
▁nazorg	-10.9588
gemedieerde	-10.959
▁beinvloeden	-10.9591
iom	-10.9593
▁INRs	-10.9594
▁Crohn	-10.9594
ML	-10.9595
▁Vader	-10.9595
▁gerelateerde	-10.96
▁onderarm	-10.9601
fractuur	-10.9604
block	-10.9605
▁Toedieningsweg	-10.9606
▁cine	-10.9613
▁36	-10.9617
▁On	-10.9618
▁RIMA	-10.9624
▁overweeg	-10.9624
▁afgevallen	-10.9625
▁vpk	-10.9633
▁MP	-10.9634
▁toon	-10.9634
virus	-10.9639
▁comorbiditeiten	-10.9643
▁eindpunt	-10.9644
▁weefsels	-10.9645
▁oplossing	-10.965
▁obstructief	-10.9653
▁CRTD	-10.9653
▁verbonden	-10.9654
ot	-10.966
lead	-10.9661
▁nadelen	-10.9662
▁ervoor	-10.9663
▁componenten	-10.967
mie	-10.9673
▁ceftriaxon	-10.9676
Meervatslijden	-10.9676
▁Memo	-10.9677
ief	-10.9681
▁school	-10.9684
▁geobjectiveerd	-10.9687
▁onderwijs	-10.9687
▁Laesie	-10.9687
▁ken	-10.9688
▁centra	-10.9693
▁doordat	-10.9694
▁relaxatie	-10.9702
▁familieanamnese	-10.9706
▁pulmonaalvene	-10.9706
▁afwachten	-10.9706
▁Nevendiagnose	-10.9709
▁RNA	-10.9709
▁pa	-10.9712
ber	-10.9714
▁lukt	-10.9717
▁praktische	-10.9718
▁apparaat	-10.9722
▁rood	-10.9722
▁(4	-10.9722
▁Nazorginstantie	-10.9722
▁Concluderend	-10.9727
▁Sch	-10.9728
▁Loopt	-10.973
▁achteruit	-10.9731
▁effusie	-10.9731
▁verwijzers	-10.9735
▁colitis	-10.9738
ass	-10.9742
▁uitsluitend	-10.9754
▁EGM	-10.9754
▁geacht	-10.9762
▁2,5	-10.9762
▁DF	-10.9763
▁LGE	-10.9764
▁LAA	-10.9767
▁Calcium	-10.977
▁spoedeisende	-10.977
▁lymfoom	-10.9777
▁International	-10.978
▁sigaretten	-10.9781
stress	-10.9782
▁bevestigen	-10.9782
enzymafwijkingen	-10.9784
▁leverde	-10.9784
▁monsters	-10.9794
huis	-10.9797
binnen	-10.9798
▁wens	-10.98
▁patch	-10.9802
▁Welke	-10.9809
▁verlengde	-10.981
▁Niveau	-10.9812
▁bestraling	-10.9813
▁Familieanamnese	-10.9815
Na	-10.9819
rteriële	-10.982
▁biventriculaire	-10.982
gewicht	-10.9821
▁logistische	-10.9821
▁argumenten	-10.9822
▁lymfeklier	-10.9823
ure	-10.9823
erbumine	-10.9827
▁optreedt	-10.9827
medicamenteus	-10.9828
▁plek	-10.9834
▁vetweefsel	-10.9845
▁PAP	-10.9845
▁spieren	-10.9846
▁misschien	-10.9848
▁Afgelopen	-10.9848
pe	-10.9852
▁gecorreleerd	-10.9852
▁Metformine	-10.9853
▁bezig	-10.9861
cr	-10.9862
▁GLS	-10.9864
▁tbv	-10.9864
▁neiging	-10.9865
aritmica	-10.9867
CO	-10.9867
▁run	-10.9868
oncoloog	-10.987
resectie	-10.987
ting	-10.9871
▁pen	-10.9872
▁infarcering	-10.9875
ap	-10.9876
▁gebleken	-10.9877
▁wachten	-10.988
▁droge	-10.9882
▁bolus	-10.9885
▁cortonen	-10.9886
▁project	-10.9886
▁sarcoidose	-10.9893
vragen	-10.9895
▁jeuk	-10.99
▁zenuwstelsel	-10.991
effect	-10.9911
▁vormt	-10.9911
▁(6	-10.9918
scores	-10.992
▁harttoon	-10.993
elijke	-10.993
▁wederom	-10.9931
▁BSA	-10.9932
luchtweginfectie	-10.9942
▁Vanaf	-10.9943
ity	-10.9948
▁tricuspidaliskl	-10.9949
▁lichaams	-10.9951
▁noduli	-10.9952
▁chemo	-10.9953
▁toenemend	-10.9955
▁uitgedrukt	-10.9958
IL	-10.9961
▁databases	-10.9963
▁implant	-10.9964
▁strategie	-10.9965
▁AGREE	-10.9966
▁voorstel	-10.9966
▁publicatie	-10.9967
▁kinderarts	-10.9968
▁0,05).	-10.9969
▁Eerdere	-10.9975
▁Klein	-10.9978
CH	-10.9982
nov	-10.9983
ho	-10.9984
▁belastbaarheid	-10.9986
▁output	-10.9988
▁endotheelcellen	-10.999
▁begrijpen	-10.9993
tro	-10.9993
▁specieel	-10.9994
▁Mild	-10.9994
▁ambulante	-10.9998
▁Uiteindelijk	-11.0003
▁voorbereiden	-11.0004
▁familiaire	-11.0006
▁aantonen	-11.0006
▁ascites	-11.001
▁'#	-11.0011
NO	-11.0012
▁vaginale	-11.0015
mei	-11.0015
▁CKD	-11.0016
Cardioloog	-11.0017
;#(#)	-11.0018
#):	-11.0019
▁boezem	-11.0021
▁geschreven	-11.0021
anti	-11.0021
▁Spoedeisende	-11.0021
▁diep	-11.0023
deviaties	-11.0029
▁stijfheid	-11.0035
▁200	-11.004
▁varkens	-11.004
▁SCD	-11.0042
▁symptoom	-11.0044
▁Spreekuur	-11.0045
▁hydro	-11.0047
▁outcome	-11.0048
▁hormoon	-11.0051
▁0,5	-11.0052
BNP	-11.0055
▁NEE	-11.0057
toets	-11.0059
▁primary	-11.0059
richtlijnen	-11.006
▁fam	-11.0068
▁definitief	-11.0072
▁32	-11.0075
▁expertise	-11.0075
▁zegt	-11.0078
▁MDO	-11.0084
▁neurologisch	-11.0085
▁aangewezen	-11.0087
▁obese	-11.0088
▁College	-11.009
▁inzichten	-11.009
▁diastolisch	-11.0094
▁AOI	-11.0095
▁wk	-11.0098
▁metastase	-11.0099
▁bloedbeeld	-11.0106
▁vaccinatie	-11.0109
ng	-11.0109
▁herzien	-11.011
▁geformuleerd	-11.0111
▁kaart	-11.0113
ont	-11.0114
▁doorgaan	-11.0114
▁drukkend	-11.012
▁zwangerschaps	-11.012
▁onderzochte	-11.0121
▁asc	-11.0124
Stroke	-11.0126
▁oplopen	-11.0126
▁verandert	-11.0129
▁Eén	-11.013
ntgenfoto	-11.013
▁JA	-11.0137
▁aanw	-11.014
▁Verminderde	-11.0141
▁tachycardieën	-11.0143
▁beginnen	-11.0143
▁Nevendiagnoses	-11.015
80	-11.0159
▁quality	-11.0172
▁Implantatie	-11.0178
▁beperken	-11.0181
▁mapping	-11.0182
▁zoekactie	-11.0183
▁bioprothese	-11.0184
▁geruis	-11.0186
▁therapieën	-11.0191
▁tekort	-11.0206
▁SI	-11.0206
tel	-11.021
▁afgerond	-11.0214
▁stroom	-11.0216
▁hervatten	-11.0216
▁cervicale	-11.0219
▁voelen	-11.0219
▁aureus	-11.0223
▁origine	-11.0228
CV	-11.023
▁stijgt	-11.023
Extra	-11.0233
ica	-11.0235
▁voerden	-11.0236
graad	-11.0237
▁koffie	-11.0238
▁bumetanide	-11.024
sub	-11.0245
▁verschillend	-11.0247
-19	-11.0251
ri	-11.0255
▁ledematen	-11.0259
for	-11.026
▁sustained	-11.0266
▁Ticagrelor	-11.0269
▁heterogeniteit	-11.0274
▁warme	-11.0278
▁#.#;	-11.028
mogelijk	-11.028
▁gynaecoloog	-11.0282
▁tpv	-11.0285
▁29	-11.0286
▁allergische	-11.0293
▁dispertablet	-11.0294
▁ADENOSINE	-11.0296
▁uitsluiting	-11.0298
AV	-11.0305
▁hypothyreoïdie	-11.0306
complex	-11.0307
lektrofysiologie	-11.0311
▁assessment	-11.0316
▁uiteindelijke	-11.0327
▁intracraniële	-11.0327
28	-11.0329
▁dossier	-11.0333
screening	-11.0333
▁opstellen	-11.0335
:#-#	-11.0335
▁monomorfe	-11.0335
ous	-11.0338
▁34	-11.0343
▁early	-11.0343
ium	-11.0344
eGFR	-11.0345
▁samenstelling	-11.0345
▁strain	-11.0346
▁losartan	-11.0346
24	-11.0348
▁vanochtend	-11.035
▁0,001).	-11.0352
PC	-11.0354
▁Capsure	-11.0355
▁telefoonnummer	-11.0355
bloed	-11.0358
emie	-11.0361
dosis	-11.0361
▁(#,#%)	-11.0364
▁alternatief	-11.0367
34	-11.0372
▁Frequentie	-11.0373
▁deelnemende	-11.0375
▁wilde	-11.0376
▁vroegtijdige	-11.0377
oor	-11.0378
▁band	-11.0385
▁latere	-11.0386
▁CMR	-11.0388
QTc	-11.0391
▁intensiteit	-11.0392
▁gevuld	-11.0403
▁subgroepen	-11.0404
▁seksuele	-11.0404
▁brede	-11.0405
Vasculair	-11.0407
▁jonger	-11.0413
DEF	-11.0414
▁processen	-11.0414
art	-11.0415
isme	-11.0416
▁onderkwab	-11.0417
▁vd	-11.0419
▁monocyten	-11.0419
▁Vier	-11.042
▁intolerantie	-11.0423
▁ontwateren	-11.0425
▁lagen	-11.0425
▁Beschrijving	-11.0427
▁osteoporose	-11.0431
▁vertoont	-11.0434
isatie	-11.0434
▁Management	-11.0442
▁65	-11.0447
▁upgrade	-11.0448
▁duiden	-11.0453
tests	-11.0453
▁opgebouwd	-11.0456
▁thoracaal	-11.0456
▁helpt	-11.046
▁Telemetrie	-11.0461
▁gewenste	-11.0463
▁single	-11.0464
Maximum	-11.0469
▁transmissie	-11.0474
▁Voeld	-11.0474
27	-11.0475
metabolisme	-11.0477
Wat	-11.0478
▁alternatieve	-11.0479
▁Cardiologische	-11.0481
ns	-11.0488
▁rugpijn	-11.0488
risk	-11.049
▁incontinentie	-11.049
▁0,05)	-11.0494
maar	-11.0495
▁Universitair	-11.0496
▁results	-11.0502
alleen	-11.0502
▁fistel	-11.0504
▁VAS	-11.0505
▁stelt	-11.0505
▁introductie	-11.0508
▁populaties	-11.0509
▁remmen	-11.0512
▁CHADSVASC	-11.0513
▁omtrent	-11.0522
▁coloscopie	-11.0523
17	-11.0526
▁MMP	-11.0534
gemiddeld	-11.0537
OH	-11.0538
▁internationale	-11.0539
▁nycturie	-11.054
werkgroep	-11.055
▁pleurale	-11.055
▁heldere	-11.0552
vereniging	-11.0568
▁significantie	-11.0578
▁nierfalen	-11.0585
ster	-11.0587
▁nachtelijke	-11.0588
▁slagader	-11.059
▁jongere	-11.0592
▁baby	-11.0593
HT	-11.0593
gel	-11.0597
▁brady	-11.0597
▁aandachtsgebied	-11.0598
▁analysis	-11.0601
vol	-11.0602
▁Genootschap	-11.0602
para	-11.0603
4,	-11.0604
mnd	-11.0604
▁carcinoma	-11.0608
▁laparoscopische	-11.0613
▁melanoom	-11.0617
▁10%	-11.0618
factoren	-11.062
▁verschenen	-11.062
▁wenselijk	-11.0623
Boston	-11.0623
Nooit	-11.0623
▁chirurgisch	-11.0627
PR	-11.0628
▁Ongewijzigde	-11.0632
▁Novus	-11.0639
patient	-11.0639
▁Pat	-11.0644
▁Sensitivity	-11.0647
▁chemische	-11.0648
▁Ma	-11.0649
▁gewricht	-11.0649
aanvullend	-11.065
symptomen	-11.0651
conform	-11.0652
lichaamsbeweging	-11.0666
femoralis	-11.0669
▁tong	-11.0672
▁vertraging	-11.068
▁adviseren	-11.0683
triumfibrillatie	-11.0686
▁la	-11.0686
nen	-11.0688
▁Moeder	-11.0692
interventie	-11.0694
▁excisie	-11.0694
▁reconstructie	-11.0697
▁dichtheid	-11.0703
▁Dis	-11.0704
▁Inspannings	-11.0709
▁kaak	-11.0711
100	-11.0715
val	-11.0717
im	-11.0718
▁verdwijnen	-11.0719
▁Medicine	-11.0719
▁bloedvaten	-11.0725
▁imaging	-11.0726
▁differentiatie	-11.0727
▁ontworpen	-11.0728
▁visuele	-11.0729
45	-11.073
▁use	-11.0736
▁rectaal	-11.0736
.|#.	-11.0738
▁CE	-11.0741
▁hierdoor	-11.0741
▁blijken	-11.0748
▁hartafwijking	-11.0748
▁Groep	-11.0749
▁traditionele	-11.0754
▁begint	-11.0755
ET	-11.0756
▁zwangere	-11.0757
▁geïnformeerd	-11.0757
▁are	-11.0761
▁diffusie	-11.0762
IN	-11.0764
▁hypoglykemie	-11.0764
▁hyperlipidemie	-11.0765
▁helaas	-11.0772
▁Houdt	-11.0774
▁Divisie	-11.0774
▁weerstand	-11.0777
▁episoden	-11.0779
▁Patiëntnummer	-11.078
▁Depressie	-11.0783
▁idiopathische	-11.0784
Tractus	-11.0788
▁duurt	-11.0789
▁pantoprazol	-11.0789
▁Rookt	-11.0791
non	-11.0796
▁product	-11.0798
▁afgrensbare	-11.0801
▁bevindt	-11.0801
▁Low	-11.0803
dr	-11.0803
activatie	-11.0806
38	-11.0813
aorta	-11.0818
blokker	-11.082
deficiëntie	-11.0824
▁voldoen	-11.0825
▁myocardium	-11.0825
▁longitudinale	-11.0826
▁kandidaat	-11.0827
▁vaststellen	-11.0829
▁gewrichten	-11.0832
factor	-11.0832
▁Bumetanide	-11.0835
▁hartstilstand	-11.0835
▁concluderen	-11.0838
▁vanavond	-11.0838
▁China	-11.0839
lid	-11.0841
▁Mitralisklep	-11.0843
▁grens	-11.0843
▁laagste	-11.0847
▁strategieën	-11.0847
▁Uitgangsvraag	-11.0847
▁HH	-11.085
▁aankomst	-11.0851
▁echtgenoot	-11.0852
▁Neurologie	-11.0856
▁griep	-11.0861
▁biochemische	-11.0861
-<	-11.0875
▁aerosol	-11.0884
▁benadrukt	-11.0884
▁gecontinueerd	-11.0884
▁casus	-11.0892
▁commentaren	-11.0893
▁atypisch	-11.0893
▁cLVH	-11.0893
TC	-11.0895
▁Instituut	-11.0897
▁mbt	-11.0902
▁po	-11.0904
control	-11.0905
▁cardiomyocyten	-11.0907
▁aansluitend	-11.0907
▁Neuro	-11.0908
▁beschrijft	-11.0912
▁polyneuropathie	-11.0912
▁toegeschreven	-11.0912
▁artsenbezoek	-11.0913
▁ervaringen	-11.0916
▁scintigram	-11.0917
▁EDI	-11.0918
lectrocardiogram	-11.092
CL	-11.092
perfusie	-11.0928
testen	-11.0928
▁Omeprazol	-11.093
▁Verantwoording	-11.093
▁Minimale	-11.0931
FFR	-11.0938
▁vernauwing	-11.0939
▁fibrillatie	-11.0939
▁experimenten	-11.094
▁voorafgaande	-11.0944
ent	-11.0946
▁planning	-11.0947
▁Segment	-11.0948
▁gladde	-11.0948
▁Helder	-11.0951
▁infuus	-11.0952
Bespreking	-11.0956
▁induceren	-11.0957
▁levensstijl	-11.0958
▁voortgeleiding	-11.0959
res	-11.0962
▁voorgestelde	-11.0962
▁Coronaire	-11.0964
▁alsmede	-11.0966
▁prospective	-11.0967
▁Vitamine	-11.0971
SE	-11.0971
▁Tractus	-11.0972
verandering	-11.0975
▁superius	-11.0976
▁hospital	-11.0977
▁Gebeld	-11.0977
▁functioneert	-11.0977
est	-11.0981
▁dyspnoeisch	-11.0985
▁selecteren	-11.0986
▁resterende	-11.0986
▁regelmatige	-11.0987
lijden	-11.0987
▁klaagde	-11.0988
▁computer	-11.0995
so	-11.1
▁draagt	-11.1
▁Vmax	-11.1002
▁CAC	-11.1002
Ritmestoornissen	-11.1004
▁Binnen	-11.1007
▁sputum	-11.1008
knoop	-11.1009
▁exacerbatie	-11.1011
57	-11.1011
proces	-11.1015
▁signalen	-11.1015
▁impedantie	-11.1017
CAD	-11.1021
▁remmer	-11.1024
ang	-11.1024
team	-11.1024
▁term	-11.1025
blokkers	-11.1027
▁traplopen	-11.1028
▁zorgvuldig	-11.103
ricuspidalisklep	-11.1035
▁#;<	-11.1041
▁dienst	-11.1047
oma	-11.1048
▁levert	-11.1048
▁inspannen	-11.1049
stand	-11.105
▁autonome	-11.1051
▁meerderheid	-11.1051
▁Doet	-11.1052
stroom	-11.1063
▁doublet	-11.1063
links	-11.1065
zelf	-11.1066
ië	-11.1069
▁locale	-11.1072
▁IN	-11.1073
post	-11.1077
▁MD	-11.1077
TEE	-11.1077
▁middag	-11.1079
Toegangs	-11.1079
CM	-11.108
▁Group	-11.108
▁bestuur	-11.1081
verenigingen	-11.1081
▁galwegen	-11.1084
age	-11.1084
▁gedefinieerde	-11.1086
▁schoon	-11.1088
▁uitzondering	-11.1089
▁dichtbij	-11.109
▁variabele	-11.109
NB	-11.1091
▁SLE	-11.1097
enverklaringen	-11.1099
FE	-11.11
angiografie	-11.1102
▁wegen	-11.1102
graft	-11.1103
▁polibezoek	-11.1104
▁NIDM	-11.1108
26	-11.1113
▁trekken	-11.1114
▁myoview	-11.1117
▁Allergieën	-11.1118
▁Con	-11.1118
Pro	-11.113
▁ongeacht	-11.1132
▁Centrum	-11.1134
▁renale	-11.1134
▁organen	-11.1137
:#/#	-11.1137
▁Cox	-11.114
▁klassieke	-11.1141
▁treedt	-11.1146
▁indeling	-11.1146
▁subklinische	-11.1146
▁Circumflex	-11.1147
▁ONT	-11.1148
▁Korte	-11.1149
▁Implementatie	-11.115
▁slijm	-11.115
▁To	-11.1154
go	-11.1156
▁Inmiddels	-11.1156
▁(#%),	-11.116
▁bacteriën	-11.1161
▁tijdstip	-11.1162
▁necrose	-11.1162
▁doodsoorzaak	-11.1164
▁vermijden	-11.1166
osis	-11.1172
▁millimeter	-11.1174
▁ramus	-11.1174
▁geleide	-11.1179
EFO	-11.1181
▁#%),	-11.1182
▁MJ	-11.1182
kanaal	-11.1191
▁beslissing	-11.1192
▁Geplande	-11.1193
▁ug	-11.1196
90	-11.1196
▁semi	-11.1202
▁toelichting	-11.1202
▁vergelijkend	-11.1203
RADS	-11.1204
▁Die	-11.1205
▁schedel	-11.1212
▁inspanningen	-11.1214
▁%;	-11.122
▁zogenaamde	-11.122
▁gesuggereerd	-11.1221
▁linkerhartoor	-11.1221
zen	-11.1222
▁plavix	-11.1224
die	-11.1231
▁UWI	-11.1233
dysfunctie	-11.1235
TM	-11.1235
▁geclassificeerd	-11.1235
▁Chinese	-11.1236
▁erbij	-11.1238
▁dermatoloog	-11.124
▁Belang	-11.1241
zonder	-11.1243
▁endoscopische	-11.1249
▁retrograde	-11.125
ultidisciplinair	-11.125
▁lag	-11.1252
▁Life	-11.1253
belasting	-11.1255
▁reguliere	-11.1256
▁psychologische	-11.126
▁exam	-11.1261
management	-11.1262
▁DAPT	-11.1263
▁opvragen	-11.1267
▁zeldzaam	-11.1268
▁mictie	-11.1268
▁overleggen	-11.1271
▁ED	-11.1274
▁PH	-11.1274
▁Fam	-11.1275
▁doorgankelijk	-11.1276
▁atelectase	-11.1278
▁drank	-11.1278
▁verschilden	-11.1279
▁AM	-11.128
▁Ongeveer	-11.128
36	-11.1281
')	-11.1281
#-#-#	-11.1282
▁Vraag	-11.1285
▁plaatsgevonden	-11.1288
▁were	-11.1295
Previous	-11.1298
▁Drempel	-11.1298
ventriculaire	-11.1299
infusie	-11.13
▁Hoge	-11.1301
▁verkalkt	-11.131
▁extrasystolie	-11.1312
probleem	-11.1312
COM	-11.132
COPD	-11.1321
ip	-11.1321
if	-11.1322
▁genezing	-11.1324
▁Creat	-11.1325
▁mobiliseren	-11.1326
▁onrust	-11.1334
problematiek	-11.1339
▁Fluoroscopie	-11.1342
abiele	-11.1343
▁Relevant	-11.1343
Inplannen	-11.1353
Closure	-11.1355
isolatie	-11.1356
▁dienstdoende	-11.1359
▁OAC	-11.136
▁zoek	-11.136
he	-11.1361
▁gebeurtenis	-11.1361
▁anatomy	-11.1365
voorstel	-11.1371
▁truncus	-11.1375
▁RvO	-11.1375
▁Inspanning	-11.1375
▁GE	-11.1393
▁pancreatitis	-11.1394
toestand	-11.1407
▁Recidiverende	-11.141
▁verdikte	-11.1412
▁that	-11.1414
▁roodheid	-11.1415
muizen	-11.1419
▁meegenomen	-11.1424
▁fysiotherapie	-11.1432
▁gebaseerde	-11.1433
▁Institute	-11.1437
oedeem	-11.1437
▁Diffuus	-11.1438
▁amoxicilline	-11.1439
▁fysiek	-11.1439
▁inferieure	-11.144
▁sterkte	-11.144
▁gedaald	-11.1443
▁Gaarne	-11.1444
We	-11.1446
▁vertraagde	-11.1449
Left	-11.145
▁toxiciteit	-11.1453
▁betrof	-11.1453
▁beschermende	-11.1455
vormige	-11.1455
▁hierop	-11.1455
Status	-11.1457
▁nefroloog	-11.1459
▁stroomgebied	-11.1461
▁wijzigen	-11.1463
▁orgaan	-11.1464
▁aangeeft	-11.1465
▁acra	-11.1465
▁Her	-11.1466
▁Alzheimer	-11.1467
▁Guiding	-11.1467
operatieve	-11.1468
vrije	-11.1468
Agatston	-11.1469
▁hyperglykemie	-11.1472
▁meldt	-11.1472
70	-11.1474
▁monster	-11.1477
▁#-<	-11.1477
▁arrest	-11.1478
▁epilepsie	-11.1479
▁bloedonderzoek	-11.1481
▁Intra	-11.1482
sp	-11.1483
▁tenzij	-11.1484
▁used	-11.1485
▁modificatie	-11.1486
▁hematurie	-11.1486
▁group	-11.1491
▁Maximale	-11.1492
Sheath	-11.1492
okt	-11.1492
commissie	-11.1497
▁Urine	-11.1498
uGym	-11.1498
▁(8	-11.15
ut	-11.1503
▁deskundigen	-11.1505
▁Gisteren	-11.151
▁zacht	-11.1511
▁voorbeeld	-11.1514
▁bereikte	-11.1517
PS	-11.1518
▁#-#-#	-11.1518
▁wrs	-11.1519
▁rectum	-11.1521
HCK	-11.1523
▁NP	-11.1525
▁wereld	-11.1528
▁Dabigatran	-11.1529
▁somatische	-11.153
▁Sinus	-11.1531
bio	-11.1531
▁eindstadium	-11.1531
▁buurt	-11.1532
▁wkn	-11.1534
▁NIV	-11.1536
▁morfine	-11.1539
▁Mar	-11.154
▁EL	-11.1541
mi	-11.1541
▁conclusief	-11.1542
▁harde	-11.1544
▁tri	-11.1545
incontinentie	-11.1547
▁(#%-	-11.1547
▁POS	-11.155
▁Functionele	-11.155
ib	-11.1552
▁ARVC	-11.1558
▁infiltratie	-11.1561
▁slanke	-11.1562
▁atenolol	-11.1565
▁CM	-11.1568
▁voorzichtig	-11.1569
▁terugkeer	-11.1569
▁psycho	-11.1571
heeft	-11.1574
▁pathologisch	-11.1578
▁+#	-11.1579
▁durende	-11.158
▁blootgesteld	-11.1585
▁Ventriculaire	-11.1588
▁Studie	-11.1588
▁hoofdstuk	-11.1589
▁ADHD	-11.159
▁aanleg	-11.159
▁diafragma	-11.1592
▁IMT	-11.1592
▁kwetsbare	-11.1592
▁Geregistreerd	-11.1594
▁kransslagaders	-11.1594
▁uurs	-11.1595
▁toenemen	-11.1596
NSTEMI	-11.1599
▁toevoeging	-11.16
cardioversie	-11.1603
▁reeks	-11.1611
▁nucleaire	-11.1611
▁opgelost	-11.1612
▁OS	-11.1614
fractie	-11.1619
Tacro	-11.1626
▁assistent	-11.1626
▁indicaties	-11.1627
▁onderhoud	-11.1629
▁geschikte	-11.163
▁diurese	-11.1631
▁bijbehorende	-11.1631
lijft	-11.1632
ty	-11.1633
ok	-11.1639
▁leggen	-11.1639
Ciclo	-11.164
▁update	-11.164
trans	-11.1641
▁Redelijk	-11.1641
▁rokers	-11.1647
▁erfelijke	-11.1647
▁Centrale	-11.1651
▁wandbewegingen	-11.1651
▁kortdurende	-11.1653
▁syndromen	-11.1657
▁all	-11.1659
Poli	-11.166
▁fasen	-11.1662
▁Iets	-11.1666
einddiastolische	-11.1668
▁natuurlijke	-11.1668
▁infiltratieve	-11.1668
▁Meestal	-11.167
blind	-11.167
▁life	-11.167
▁categorie	-11.1675
▁natuurlijk	-11.1676
materiaal	-11.1679
▁fysiotherapeut	-11.168
▁Nitroglycerine	-11.1685
]\	-11.1686
da	-11.1688
▁zweten	-11.1689
▁Vesiculair	-11.1691
immuun	-11.1693
▁Klaring	-11.1699
▁gelijktijdig	-11.1705
NL	-11.1706
▁kleinere	-11.1707
▁lijk	-11.1707
▁los	-11.1711
▁cycli	-11.1714
▁The	-11.1714
▁hardlopen	-11.1716
▁termen	-11.1716
Nevenbevindingen	-11.1717
▁Leefregels	-11.1719
▁BB	-11.172
selectiecriteria	-11.1723
▁rs	-11.1726
▁mgl	-11.1729
DDR	-11.1729
▁landelijke	-11.173
▁activering	-11.1732
overig	-11.1735
▁luchtwegen	-11.1737
▁bron	-11.1738
Clopidogrel	-11.1738
vorm	-11.1739
▁SG	-11.174
US	-11.1741
▁cardiogene	-11.1743
▁vanmiddag	-11.1744
▁ECHO	-11.1746
▁AZN	-11.1748
▁foetale	-11.1749
sinusbradycardie	-11.1754
▁kwantitatieve	-11.1756
▁histologische	-11.1757
▁eenvoudige	-11.1763
segmenten	-11.1765
embolische	-11.1765
▁essentiële	-11.1769
▁spiegels	-11.1769
▁Bijwerkingen	-11.1771
▁zicht	-11.1774
▁interstitiële	-11.1774
▁DA	-11.1776
▁dis	-11.1776
▁visite	-11.1777
▁distal	-11.1778
▁Complicatie	-11.1778
Zijde	-11.1779
▁Heelkunde	-11.178
▁Visite	-11.178
time	-11.178
▁Inhoud	-11.1782
dimeer	-11.1782
▁tuberculose	-11.1783
▁Interne	-11.1783
▁Geef	-11.1786
▁ML	-11.1786
▁asthma	-11.1788
▁Retour	-11.1788
▁recht	-11.179
▁Nier	-11.179
▁sindsdien	-11.179
Drug	-11.1792
▁#-#%,	-11.1793
tolerantie	-11.1793
▁np	-11.1795
genen	-11.1795
Collateral	-11.1798
▁hard	-11.1799
▁BIRADS	-11.18
▁se	-11.1804
VN	-11.1806
▁fenprocoumon	-11.1809
▁uiteraard	-11.181
▁Center	-11.181
▁Nuchter	-11.181
▁binnenkomst	-11.1811
luoroscopy	-11.1812
▁afwezig	-11.1813
▁sluit	-11.1814
▁MM	-11.1815
pad	-11.1819
▁pectoralis	-11.182
▁ontvangt	-11.182
▁Later	-11.1821
▁Sub	-11.1821
▁sensor	-11.1823
IDS	-11.1825
▁negen	-11.1826
▁Bio	-11.1827
PCR	-11.1828
▁intima	-11.1829
▁propofol	-11.183
▁eisen	-11.1831
▁Radiation	-11.1831
▁generatie	-11.1837
▁miRNA	-11.1837
▁pylori	-11.1839
▁taal	-11.1839
▁abdominalis	-11.1841
▁referentietest	-11.1842
▁reactieve	-11.1847
▁gerichte	-11.1849
toediening	-11.185
Ontslagbericht	-11.185
▁steeg	-11.185
▁trappen	-11.1851
▁hoeft	-11.1851
▁tabellen	-11.1853
▁sarcoïdose	-11.1855
▁Persisterend	-11.1855
EC	-11.1857
correctie	-11.1857
▁speciale	-11.1858
▁Gescand	-11.186
▁randomised	-11.1861
▁Quality	-11.1861
ppm	-11.1862
▁kent	-11.1864
▁appendectomie	-11.1866
▁inflow	-11.1866
▁NVDV	-11.1877
▁teken	-11.1884
▁transfusie	-11.1886
▁Slechts	-11.1892
matig	-11.1892
▁uitgelegd	-11.1893
▁Loh	-11.1894
▁Eplerenon	-11.1894
▁Onveranderd	-11.1897
▁Bilirubine	-11.1901
▁Significante	-11.1901
▁oppervlak	-11.1902
▁fenomeen	-11.1902
▁Sp	-11.1902
▁varieerde	-11.1904
klasse	-11.1905
regio	-11.1906
ak	-11.1911
▁ductus	-11.1912
mutatie	-11.1916
▁kwaliteits	-11.1918
ga	-11.1919
=#,#	-11.1921
▁geluxeerd	-11.1922
▁sturen	-11.1922
▁Zuid	-11.1926
able	-11.1928
▁gerapporteerde	-11.1928
▁vroeger	-11.1929
▁IKNL	-11.1932
▁reumatoïde	-11.1932
ischemie	-11.1934
schap	-11.1936
septaal	-11.1937
▁arterieel	-11.1938
▁FEV	-11.1939
▁ATPdc	-11.1942
training	-11.1942
▁cr	-11.1942
vers	-11.195
▁informeren	-11.1951
▁dubbel	-11.1952
▁trombosedienst	-11.1955
▁nood	-11.1957
▁congenitale	-11.1958
▁cursus	-11.196
negatieve	-11.1963
▁pseudo	-11.1967
par	-11.1971
berg	-11.1973
▁EBU	-11.1973
lucht	-11.1973
▁saturatie	-11.1974
ef	-11.1974
▁vochtbeperking	-11.1974
one	-11.1975
ator	-11.1976
▁veelal	-11.1978
▁2010	-11.198
▁beademing	-11.1981
sustained	-11.1983
dus	-11.1984
▁bijkomende	-11.1985
▁Angio	-11.1986
▁moeizaam	-11.1987
▁Chirurgie	-11.1988
▁Inc	-11.1988
rs	-11.199
▁zelfde	-11.1994
▁congestief	-11.1994
inclusief	-11.1996
ast	-11.1998
▁nauwkeurigheid	-11.1999
biopsie	-11.2002
▁vastgelegd	-11.2004
▁passende	-11.2009
▁ingedeeld	-11.2014
Neoral	-11.2014
▁biopten	-11.2016
▁vaatwand	-11.2017
▁woont	-11.2018
▁carvedilol	-11.2021
▁zakt	-11.2022
▁modules	-11.2024
▁ET	-11.2024
▁Rosuvastatine	-11.2033
▁MetS	-11.2034
▁spanning	-11.2036
68	-11.204
▁gezicht	-11.204
po	-11.2042
Medtronic	-11.2048
tra	-11.2051
▁kopje	-11.2051
▁km	-11.2051
▁gehaald	-11.2053
▁Lijkt	-11.2055
▁taak	-11.2059
▁Selokeen	-11.2062
▁onderbeen	-11.2062
gaat	-11.2062
▁Am	-11.2062
75	-11.2063
.6	-11.2066
▁subgroep	-11.2066
▁%,	-11.2071
▁meter	-11.2071
▁binnenkort	-11.2078
▁...	-11.208
▁WT	-11.2081
▁Startpagina	-11.2082
▁subcutane	-11.2086
ergo	-11.2089
ger	-11.209
▁radio	-11.2092
▁antistoffen	-11.2093
▁dokter	-11.2096
▁evaluation	-11.2097
standaard	-11.2097
▁bigeminie	-11.21
Thorax	-11.21
▁tambocor	-11.2102
start	-11.2102
ard	-11.2102
▁zorginstelling	-11.2107
▁Gezondheidszorg	-11.2107
▁palpatie	-11.2108
▁overall	-11.2112
▁hartafwijkingen	-11.2113
▁reguleren	-11.2114
ontsteking	-11.2118
▁HB	-11.212
▁herhaal	-11.2121
▁openen	-11.2123
▁daarop	-11.2125
▁uitstekend	-11.2127
#<	-11.213
▁2-	-11.2131
▁homogene	-11.2132
▁irregulair	-11.2134
▁Evaluation	-11.2139
▁gewone	-11.214
▁halve	-11.2142
▁atrofie	-11.2142
▁professionals	-11.2145
▁SB	-11.2146
▁puls	-11.215
▁uitvoering	-11.2152
▁WD	-11.2153
▁fenotype	-11.2153
▁deed	-11.2155
gevoeligheid	-11.2157
▁Werkwijze	-11.216
▁sc	-11.2162
▁collageen	-11.2162
▁willekeurig	-11.2162
▁horen	-11.2164
▁bezwaren	-11.2165
▁sympathische	-11.2167
▁icm	-11.2169
vertraging	-11.2174
▁fractie	-11.218
▁onderbouwing	-11.218
DD	-11.2181
net	-11.2182
ader	-11.2182
▁Vena	-11.2182
▁info	-11.2183
▁merkt	-11.2184
aug	-11.2186
tr	-11.2187
nt	-11.2187
▁analyseren	-11.2188
▁geruststelling	-11.2188
?).	-11.2189
gedrag	-11.219
▁spectrum	-11.2192
▁antilichaam	-11.2193
▁Dosis	-11.2195
oïde	-11.2198
▁pauzes	-11.22
▁Werkgroep	-11.2205
▁cohortonderzoek	-11.2208
▁(%)	-11.2213
lin	-11.2217
+/-	-11.2219
▁nodulaire	-11.2221
ag	-11.2221
sie	-11.2226
beschadiging	-11.2229
▁drukpijnlijk	-11.2233
ED	-11.2234
▁Spoortje	-11.2236
plan	-11.2238
▁gastroscopie	-11.224
▁hs	-11.224
▁antero	-11.2241
▁SMART	-11.2242
schade	-11.2243
▁aangepaste	-11.2245
Class	-11.2245
▁pos	-11.2246
traject	-11.2249
kaart	-11.225
▁time	-11.225
.[]	-11.2252
▁schriftelijk	-11.2252
▁24-	-11.2254
▁Ro	-11.2255
middel	-11.2256
▁fout	-11.2258
pisodelijst	-11.226
oppervlak	-11.2263
CR	-11.2263
▁Protocol	-11.2264
▁Helaas	-11.2265
▁supra	-11.2268
hi	-11.2269
▁Man	-11.228
bepaling	-11.228
▁MVR	-11.2281
▁(7	-11.2283
▁Journaal	-11.2286
▁gecorrigeerde	-11.2286
▁telefoon	-11.2287
▁IAS	-11.2292
▁uroloog	-11.2294
▁WPW	-11.2296
▁multiple	-11.2296
▁bevelen	-11.2296
▁Werkt	-11.2299
")	-11.2301
▁Kort	-11.2304
artsen	-11.2309
▁mitraalklep	-11.231
▁tip	-11.231
MA	-11.2313
▁AR	-11.2313
euze	-11.2313
Hartslag	-11.2314
fibrilleren	-11.2314
▁ontwerp	-11.2317
FU	-11.2319
▁BK	-11.2319
▁terecht	-11.232
▁ivabradine	-11.2321
aar	-11.2322
▁druppel	-11.2322
▁IMA	-11.2323
▁zwanger	-11.2323
receptoren	-11.2327
▁gestegen	-11.2328
Vooralsnog	-11.2328
▁spierpijn	-11.233
▁biomarker	-11.2334
Katheter	-11.2339
▁aortaboog	-11.234
▁aanvragen	-11.234
▁pulmonalisklep	-11.2348
▁38	-11.2348
▁optimaliseren	-11.235
standaardiseerde	-11.2351
echter	-11.2356
▁oesofagus	-11.2359
▁criterium	-11.236
(#	-11.2366
▁Mo	-11.237
▁Oedeem	-11.2371
▁genotype	-11.2372
▁stenting	-11.2374
rand	-11.2375
Fig	-11.2375
▁IVUS	-11.2376
▁lymfocyten	-11.2378
▁placebogroep	-11.2382
▁plaatjes	-11.2383
com	-11.2383
▁seksueel	-11.2384
8%	-11.2385
▁spraak	-11.2389
▁CMV	-11.2391
▁macro	-11.2394
▁oorspronkelijke	-11.2394
▁lesie	-11.2395
▁slijmvlies	-11.2396
▁oestrogeen	-11.2397
▁rosuvastatine	-11.2398
Description	-11.24
Gewicht	-11.24
veld	-11.2403
▁age	-11.2404
▁medicijngebruik	-11.2407
▁bijzondere	-11.2409
▁Somato	-11.241
▁hypoxie	-11.2413
▁operaties	-11.2413
fiets	-11.2413
▁afgeleid	-11.2416
▁spreiding	-11.2418
▁trad	-11.242
▁ICU	-11.2422
▁verlenging	-11.2429
urineweginfectie	-11.2432
▁CC	-11.2432
▁ligging	-11.2433
4)	-11.2435
▁Cre	-11.2436
▁manifestaties	-11.2436
▁Belangrijke	-11.244
▁Proximale	-11.244
▁herkenbaar	-11.2443
▁Review	-11.2448
▁bezoeken	-11.2455
▁gedeeltelijke	-11.2459
▁evenwicht	-11.2463
▁#:#:#	-11.2467
▁conservatieve	-11.2468
meenschappelijke	-11.2471
nier	-11.2473
▁totdat	-11.2474
▁bewegingen	-11.2477
▁33	-11.2477
▁vierde	-11.2481
▁vetzuren	-11.2484
lectieve	-11.2486
low	-11.2487
▁Figuur	-11.2487
▁perspectief	-11.2487
PET	-11.2488
▁onlangs	-11.2489
▁stapeling	-11.2493
▁corfiguur	-11.2495
verschijnselen	-11.2496
techniek	-11.2497
ier	-11.2497
▁lieten	-11.2498
▁doch	-11.25
▁platliggen	-11.2501
▁Chol	-11.2508
▁communis	-11.2511
▁nut	-11.2511
▁ontslagbericht	-11.2512
ary	-11.2513
▁proliferatie	-11.2518
▁double	-11.2519
▁myo	-11.252
▁geproduceerd	-11.2522
-#]:	-11.2522
▁verwerkt	-11.2522
HA	-11.2523
media	-11.2523
-5	-11.2524
▁aanmelden	-11.2528
▁motorische	-11.2529
▁oordeel	-11.2537
▁anatomische	-11.2538
inname	-11.2541
zeer	-11.2541
▁RVP	-11.2542
▁vingers	-11.2542
▁ontwikkelden	-11.2543
▁diagnosis	-11.2544
▁cruciale	-11.2544
▁richt	-11.2552
MCV	-11.2553
Beloop	-11.2553
▁traden	-11.2555
▁ab	-11.2556
▁ballondilatatie	-11.2557
▁Schildklier	-11.2561
▁RDA	-11.2564
▁reageren	-11.2564
▁tricuspidalis	-11.2564
vrij	-11.2566
▁Vergelijking	-11.257
▁supervisie	-11.257
▁takken	-11.257
ce	-11.2577
tion	-11.2577
▁verblijf	-11.2578
▁monotherapie	-11.2584
▁Vaak	-11.2585
VP	-11.2585
▁narcose	-11.2587
▁WHO	-11.2588
▁iliaca	-11.2591
long	-11.2593
huisartspraktijk	-11.2593
▁Hernia	-11.2593
▁eenvoudig	-11.2594
▁nauw	-11.2599
▁defecten	-11.2601
▁vegetaties	-11.2602
▁initieel	-11.2607
▁guideline	-11.2608
▁Excellent	-11.2609
▁prominente	-11.261
▁MG	-11.2612
▁aanhoudend	-11.2613
eer	-11.2615
ical	-11.2615
dis	-11.2616
▁vasculair	-11.2623
▁mentale	-11.2624
▁tabletten	-11.2624
naar	-11.2625
Charge	-11.2626
▁ok	-11.2637
bo	-11.2637
▁opvallende	-11.264
▁ooit	-11.2648
▁pathofysiologie	-11.265
▁studiepopulatie	-11.2653
▁gedecompenseerd	-11.2653
▁individueel	-11.2653
▁plaquevorming	-11.2655
▁Merkt	-11.2657
lang	-11.2658
▁gedeelte	-11.2658
▁Erasmus	-11.2658
▁55	-11.2659
▁Vooral	-11.2659
▁ERI	-11.2659
▁fluoroscopie	-11.2662
▁psycholoog	-11.2662
▁partiële	-11.2663
GFR	-11.2664
▁NS	-11.2664
▁veld	-11.2665
▁DOAC	-11.2668
▁vannacht	-11.267
▁toeneemt	-11.2676
▁Informatie	-11.2677
▁jongeren	-11.268
▁sche	-11.268
▁capaciteit	-11.2681
stimulatie	-11.2683
▁onderzoeker	-11.2684
sstoornissen	-11.2686
▁mIU	-11.2686
▁route	-11.2688
od	-11.2692
ep	-11.2694
Proximal	-11.2698
timulatiedrempel	-11.2699
▁off	-11.2701
▁ven	-11.2702
▁Angina	-11.2704
kamerfunctie	-11.2705
remmende	-11.2707
▁Di	-11.2708
▁promocard	-11.2712
▁wijzigingen	-11.2713
▁AG	-11.2722
▁Labwaarde	-11.2723
rostaatcarcinoom	-11.2725
▁resistentie	-11.2729
▁traumatische	-11.2733
▁(#):#	-11.2734
▁verergering	-11.2737
▁GRACE	-11.2737
thoracale	-11.2737
▁major	-11.274
▁verzending	-11.2741
▁effectiever	-11.2746
▁West	-11.2748
▁aanbrengen	-11.275
▁2012	-11.2754
▁#.#-#.#	-11.2755
sterfte	-11.2756
▁Oncologie	-11.276
▁between	-11.2763
▁stolsel	-11.2765
gebeurtenissen	-11.2765
instituut	-11.2767
▁gewrichts	-11.2768
▁oogarts	-11.2772
blocker	-11.2773
▁gel	-11.2773
reactiviteit	-11.2774
▁Praktijk	-11.2781
▁exp	-11.2784
▁Assessment	-11.2786
▁Monocyten	-11.2786
king	-11.2788
▁Drug	-11.279
Ontslagchecklist	-11.2791
▁opgevraagd	-11.2792
chirurg	-11.2793
supervisor	-11.2794
▁Aspirine	-11.2794
ekozen	-11.2797
▁metabolisme	-11.2799
▁vochtbalans	-11.2808
▁log	-11.281
▁resolutie	-11.2813
▁EH	-11.2814
▁emotionele	-11.2815
▁collateralen	-11.2816
▁netwerk	-11.2816
▁Voorstel	-11.2819
▁richten	-11.2819
▁verwachting	-11.2829
obstructie	-11.283
▁verloren	-11.283
▁Flash	-11.283
▁database	-11.2834
▁dalende	-11.2834
ian	-11.2837
ek	-11.2838
▁gescand	-11.2841
▁wereldwijd	-11.2842
▁nadelige	-11.2842
ritme	-11.2844
plaats	-11.2845
▁angiografisch	-11.2848
▁NA	-11.2853
▁lokalisatie	-11.2853
▁verbreed	-11.2855
▁CF	-11.2857
▁spasme	-11.286
▁neutrofielen	-11.2861
▁varianten	-11.2862
▁Fe	-11.2863
▁sheath	-11.2864
▁precies	-11.2864
▁pathogene	-11.2865
▁corona	-11.2869
la	-11.2871
▁[<	-11.2878
Prograft	-11.2879
▁HIT	-11.2879
▁prestaties	-11.288
#).	-11.2884
eerder	-11.2885
▁HART	-11.2886
▁uitgelokt	-11.2886
▁varieert	-11.2887
effectiviteit	-11.2889
licht	-11.2891
▁Elektrofysiolog	-11.2893
▁Meetwaardes	-11.2898
▁toeval	-11.2898
▁OD	-11.2902
▁gehoord	-11.2903
▁zwakke	-11.2907
▁Dermatologie	-11.2909
▁suggestief	-11.291
▁IVS	-11.2914
▁destijds	-11.2919
▁Guidelines	-11.292
cholesterolaemie	-11.2921
▁gelukkig	-11.2923
deviatie	-11.2923
verhouding	-11.2923
▁Ex	-11.2923
▁herstelde	-11.2924
Geeft	-11.2932
▁paravalvulaire	-11.2932
▁MACE	-11.2933
▁cysten	-11.2935
economische	-11.2937
Catheter	-11.2945
feb	-11.2946
▁Buik	-11.2954
▁120	-11.2963
▁CCS	-11.2964
AS	-11.2965
▁eerstelijns	-11.2965
▁Degeneratieve	-11.2966
▁SBP	-11.2966
▁PubMed	-11.2969
ba	-11.2971
▁colchicine	-11.2972
▁enalapril	-11.2975
▁KNUK	-11.2976
fix	-11.2977
▁20%	-11.298
▁Gebruik	-11.2981
Locatie	-11.2981
▁versterkte	-11.2983
▁SA	-11.2983
▁Commissie	-11.2983
hyper	-11.2986
▁gemengde	-11.2988
▁bereid	-11.2988
▁Alhier	-11.2992
▁Pulmonaal	-11.2993
open	-11.2995
▁intermediair	-11.2998
▁uterus	-11.2998
▁electro	-11.2998
▁doseringen	-11.2999
▁Beoordeling	-11.2999
west	-11.2999
▁Aanwijzingen	-11.3002
▁verdachte	-11.3002
athether	-11.3007
▁naald	-11.3008
▁incl	-11.301
▁epi	-11.3011
▁population	-11.3011
▁jongen	-11.3014
ejectiefractie	-11.3016
▁near	-11.3017
▁Onbekend	-11.3019
▁drinkt	-11.302
▁uGym	-11.3022
▁antidepressiva	-11.3023
▁maakten	-11.3024
▁diameters	-11.3027
▁jl	-11.3034
▁enigszins	-11.3037
▁mrt	-11.3044
▁stappen	-11.3045
▁Hierdoor	-11.3047
▁ret	-11.3048
Tijdstip	-11.3051
▁zwakte	-11.3051
ker	-11.3052
▁geleverd	-11.3054
sclerose	-11.3054
form	-11.3055
23	-11.306
QRS	-11.3062
▁Geleidings	-11.3064
39	-11.3065
▁veelvoorkomende	-11.3065
drug	-11.3066
▁Lymfocyten	-11.3068
▁Internisten	-11.307
del	-11.3077
▁vit	-11.3082
▁2013	-11.3083
han	-11.3086
▁stimuleren	-11.3087
▁afkomst	-11.3088
▁SCORE	-11.3089
▁hormonale	-11.3091
ox	-11.3097
▁(1)	-11.3099
▁aatst	-11.3101
ys	-11.3101
schaal	-11.3101
▁compleet	-11.3102
▁blokkade	-11.3103
▁Kreat	-11.3104
va	-11.3107
▁Wandonregelmat	-11.3108
▁rapporten	-11.3109
▁emboliebron	-11.3112
▁Centraal	-11.3114
▁wattage	-11.3116
▁broers	-11.3117
▁toepassen	-11.3126
brief	-11.3128
▁Vrij	-11.3129
VO	-11.3132
monsters	-11.3133
▁VAN	-11.3133
▁laser	-11.3134
▁doelen	-11.3139
▁cataract	-11.314
▁Waar	-11.3142
▁liter	-11.3144
ow	-11.3144
▁curve	-11.3146
▁0,001	-11.3148
78	-11.3149
▁fellow	-11.3151
▁Hypo	-11.3151
Hoofdstamstenose	-11.3153
▁ikv	-11.3155
▁fracturen	-11.3156
▁Vragen	-11.316
Punctieplaats	-11.3163
PI	-11.3168
▁bronchitis	-11.317
▁Database	-11.3172
▁Endotak	-11.3172
43	-11.3173
pathologie	-11.3175
genomen	-11.3176
tis	-11.3179
▁Specialist	-11.3181
▁PPI	-11.3183
inspanning	-11.3183
SA	-11.3183
▁accessoire	-11.3183
▁pijnstilling	-11.3183
▁0,01)	-11.3185
22	-11.3186
▁influenza	-11.3187
▁elektrolyten	-11.3187
▁psychiater	-11.3187
▁acceptabel	-11.3188
▁stille	-11.3189
Calcium	-11.319
PD	-11.319
▁verzekerings	-11.3191
▁Gold	-11.3193
▁vullingsdrukken	-11.3195
▁liever	-11.3195
inter	-11.3198
▁bel	-11.32
▁cytokines	-11.32
punten	-11.32
▁indicator	-11.32
Roken	-11.3203
TA	-11.3206
enverstrengeling	-11.3207
▁geïmplanteerd	-11.3207
▁gezegd	-11.3207
▁insuff	-11.321
▁organisaties	-11.3211
▁homograft	-11.3212
▁teksten	-11.3213
.7	-11.3216
▁ongewenste	-11.3217
SEH	-11.3218
rdinatie	-11.3219
▁Qs	-11.3222
▁=>	-11.3225
Value	-11.3227
▁Huidige	-11.3232
▁receptoren	-11.3232
taal	-11.3234
▁Dobutamine	-11.3234
▁infarcten	-11.3236
▁Groot	-11.3236
▁extreme	-11.3237
Bekend	-11.3238
▁abnormaal	-11.3242
▁tand	-11.3244
katheter	-11.3244
▁vessel	-11.3244
▁nabloeding	-11.3244
▁Cascore	-11.3245
▁Guidant	-11.3246
▁NAG	-11.3253
▁Behouden	-11.3254
▁gewerkt	-11.3254
▁HCT	-11.3257
▁klaar	-11.3261
▁roker	-11.3262
▁HUISARTS	-11.3262
longarts	-11.3263
intensiteit	-11.3263
▁Vervolg	-11.3264
ES	-11.3268
▁onrustig	-11.327
▁klieren	-11.3272
▁hooguit	-11.3272
loos	-11.3275
▁emfyseem	-11.3278
▁mitraclip	-11.328
▁aa	-11.328
▁ZH	-11.3282
▁bedrijf	-11.3283
▁neo	-11.3283
▁bijgedragen	-11.3286
▁node	-11.3293
▁operatief	-11.3295
▁overplaatsing	-11.3299
▁glyhb	-11.33
▁Bisoprolol	-11.3301
▁gift	-11.3306
▁avonds	-11.3306
2).	-11.331
-10	-11.331
▁Stroke	-11.3311
ologie	-11.3312
▁Haematologie	-11.3315
eenh	-11.3315
and	-11.3315
▁zodanig	-11.3324
▁Predilatatie	-11.3325
juni	-11.3325
▁tandheelkundige	-11.3326
▁overgebracht	-11.3326
▁UP	-11.3329
▁volgde	-11.3329
ies	-11.333
za	-11.3335
▁beginnende	-11.3336
▁foliumzuur	-11.3341
▁medical	-11.3341
▁Thans	-11.3344
reductie	-11.3345
▁ureter	-11.3346
▁Latitude	-11.3347
▁gescreend	-11.3347
▁bepaalt	-11.3348
▁Vrouwen	-11.3348
▁subling	-11.3348
01	-11.3349
▁#-#<	-11.3353
▁vergroten	-11.3353
.4	-11.3354
▁internat	-11.3354
diameter	-11.3357
loop	-11.3359
▁vertelt	-11.3359
▁cyclus	-11.3361
profiel	-11.3362
wk	-11.3367
Voeld	-11.3369
".	-11.3371
-4	-11.3372
-9	-11.3372
NS	-11.3372
▁technische	-11.3374
.9	-11.3377
▁MGA	-11.3377
▁onzekerheid	-11.338
Afdeling	-11.3381
▁ROS	-11.3381
▁verdieping	-11.3383
▁York	-11.3383
▁bestuderen	-11.3385
▁demografische	-11.3386
▁-#,#	-11.339
31	-11.3394
▁ostiaal	-11.3395
mplementatieplan	-11.3395
kracht	-11.3396
▁aanverwante	-11.3397
amine	-11.3397
▁first	-11.3402
komen	-11.3404
diabetische	-11.3406
▁Definition	-11.3406
▁Artsen	-11.3407
▁vragenlijsten	-11.3407
erend	-11.3408
▁mis	-11.3411
▁dehydratie	-11.3411
▁gas	-11.3411
▁Stopreden	-11.3413
▁paroxysmale	-11.3414
▁ws	-11.3417
▁SureScan	-11.3418
▁RvC	-11.3419
▁Atriumflutter	-11.3419
▁longembolieën	-11.342
▁Jicht	-11.3421
▁Lp	-11.3422
▁NV	-11.3422
markers	-11.3422
▁bevestiging	-11.3424
▁Pleuravocht	-11.343
▁injvlst	-11.343
delen	-11.3431
5)	-11.3432
▁aortae	-11.3432
▁doorgegeven	-11.3432
▁size	-11.3433
ill	-11.3433
▁bestaand	-11.3434
atriale	-11.3436
▁39	-11.3436
.8	-11.3442
▁hieronder	-11.3446
▁Blood	-11.3447
▁MB	-11.3449
▁opzet	-11.3455
infecties	-11.3456
aandoeningen	-11.3456
belconsult	-11.3457
ongecompliceerde	-11.3458
Gaat	-11.3458
▁Vijf	-11.3459
▁IU	-11.3459
▁steken	-11.3459
▁Stralingsdosis	-11.3463
▁NIBD	-11.3466
Deze	-11.3467
▁Biotronik	-11.3468
▁mevrouw	-11.347
ai	-11.3478
▁diafragmatica	-11.3478
▁patent	-11.3479
▁BMJ	-11.3479
▁genormaliseerd	-11.3486
▁contacten	-11.3487
▁VPK	-11.3488
▁multicenter	-11.349
▁hypokinetisch	-11.349
▁Scale	-11.3493
grade	-11.3493
▁bronchiale	-11.3499
▁mcg	-11.35
zelfde	-11.3502
56	-11.3505
▁Overweging	-11.3506
▁gekoppeld	-11.3509
/#,#	-11.3512
UCORBIO	-11.3513
▁otitis	-11.3514
▁stadia	-11.3517
67	-11.3519
▁stond	-11.352
ance	-11.352
▁elektronische	-11.3522
RT	-11.3524
▁afvallen	-11.3527
related	-11.3527
ARB	-11.3527
fer	-11.353
▁amputatie	-11.3531
▁3).	-11.3534
▁Dagelijks	-11.3534
VR	-11.3534
ub	-11.3539
▁gereguleerde	-11.354
▁injecties	-11.3543
▁ontbreekt	-11.355
▁glykemische	-11.355
▁heropname	-11.3551
▁ontving	-11.3552
▁midventriculair	-11.3553
AVR	-11.3555
▁luchtweg	-11.3559
▁categorieën	-11.356
▁Uitgebreider	-11.3561
▁kiezen	-11.3562
▁EZIS	-11.3562
▁Medline	-11.3564
▁hazard	-11.3564
▁meningitis	-11.3569
ong	-11.3569
▁#%-	-11.3573
▁onderdelen	-11.3578
▁gedrags	-11.3578
▁meisje	-11.3582
▁behoud	-11.3583
▁Bewegen	-11.3586
▁Eerst	-11.3586
▁grondslag	-11.3587
juli	-11.3588
▁eindpunten	-11.3589
▁dorsaal	-11.3596
adenosine	-11.3599
calciumscore	-11.3599
ikelomschrijving	-11.3601
PL	-11.3604
▁Dev	-11.3608
▁berust	-11.3608
.1	-11.3609
▁Mode	-11.361
▁nagenoeg	-11.3615
▁deviatie	-11.3617
oc	-11.3622
lip	-11.3623
▁Sociale	-11.3624
▁uitspraak	-11.3624
spier	-11.3629
▁ntb	-11.3632
▁Car	-11.3632
▁totaalscore	-11.3633
▁neonatale	-11.3634
▁trombolyse	-11.3634
▁hoeveelheden	-11.3634
▁verspreiding	-11.3641
▁verhaal	-11.3643
gebruikers	-11.3645
▁Temperatuur	-11.3646
slag	-11.3647
▁Serum	-11.3649
▁exacte	-11.3649
▁Progressieve	-11.3653
▁SSS	-11.3656
▁bereikbaar	-11.3657
▁oogdruppels	-11.3658
Acenocoumarol	-11.366
Holter	-11.366
sinds	-11.3661
▁aangekomen	-11.3661
▁temp	-11.3661
▁SC	-11.3663
▁herstelfase	-11.3664
▁fatale	-11.3665
Fr	-11.3665
▁verschilde	-11.3667
▁Appendectomie	-11.3667
▁slechter	-11.3667
▁bad	-11.3668
▁mM	-11.3669
toe	-11.3669
▁mogen	-11.3669
▁NH	-11.367
▁Negatieve	-11.3671
▁gevormd	-11.3672
▁disorders	-11.3673
▁radial	-11.3677
▁hond	-11.3678
▁Mag	-11.3681
▁mindere	-11.3682
▁rejectie	-11.3683
▁cumulatieve	-11.3683
▁hoorbaar	-11.3683
cardio	-11.3685
▁Rntgen	-11.3687
▁consultatie	-11.3688
gebonden	-11.3691
▁endo	-11.3693
▁tzt	-11.3695
alis	-11.3697
insuline	-11.3698
RP	-11.3699
zouten	-11.3702
▁interacties	-11.3705
▁remodellering	-11.3706
▁Evaluatie	-11.3709
ou	-11.3715
▁mobiliteit	-11.3719
▁geindiceerd	-11.372
▁gelet	-11.3721
▁treden	-11.3721
Cardiale	-11.3722
▁Uitgebreid	-11.3724
Eerdere	-11.3725
▁terugkerende	-11.3726
▁mi	-11.3732
▁zonodig	-11.3732
▁normalisatie	-11.3736
▁Bevindingen	-11.3739
vloeistof	-11.3742
▁voortgezet	-11.3742
▁verstrekt	-11.3744
▁PMVL	-11.3744
▁Tussen	-11.3745
abonnee	-11.3747
oxy	-11.3749
▁gescheiden	-11.3756
▁bekijken	-11.3756
evaluatie	-11.3761
sartefacten	-11.3761
▁melding	-11.3763
▁voorgaand	-11.3764
▁mooi	-11.3765
hoog	-11.3765
sept	-11.3765
▁varices	-11.3766
▁beïnvloedt	-11.3767
systemen	-11.3767
dose	-11.3767
▁nationale	-11.3771
▁cijfers	-11.3772
▁rechteroog	-11.3772
▁versterkt	-11.3772
▁2000	-11.3772
▁hypertensief	-11.3773
▁(#%).	-11.3775
▁grafts	-11.3775
▁Reveal	-11.3777
▁Consent	-11.3781
▁onderworpen	-11.3781
▁opgetreden	-11.3781
▁USA	-11.3782
▁mediastinale	-11.3782
waar	-11.3788
▁boek	-11.379
micro	-11.379
▁diagnostic	-11.3792
stijging	-11.3792
▁Noord	-11.3793
centra	-11.3793
▁Treatment	-11.3796
▁rugklachten	-11.3798
▁chronotrope	-11.3798
▁5%	-11.3798
lic	-11.38
si	-11.3803
▁Uitslagen	-11.3805
▁SNP	-11.3805
Medicamenteuze	-11.3805
▁Prognose	-11.3805
▁Buikomvang	-11.3805
vat	-11.3807
tekort	-11.3808
achtig	-11.381
▁Opnieuw	-11.381
▁west	-11.3813
▁oncologie	-11.3814
▁duurde	-11.3817
▁instructies	-11.3822
▁SVG	-11.3823
profylaxe	-11.3824
▁levens	-11.3827
▁pdr	-11.383
zone	-11.383
▁Vorig	-11.3831
▁regurgitatie	-11.384
▁tillen	-11.3843
percentages	-11.3845
▁geholpen	-11.3846
sel	-11.3846
▁2011	-11.3846
cl	-11.3847
kliniek	-11.3848
Op	-11.3851
IT	-11.3851
modellen	-11.3851
▁zagen	-11.3854
▁software	-11.3855
▁nierschade	-11.3857
▁150	-11.3857
▁Baseline	-11.386
▁SP	-11.3862
Voor	-11.3864
bi	-11.3865
injectie	-11.3867
▁kanaal	-11.3867
▁omgekeerd	-11.3867
▁Ha	-11.3867
▁OSA	-11.3869
▁instent	-11.3871
▁cruciaal	-11.3873
▁herstarten	-11.3873
vocht	-11.3874
▁suggestie	-11.3876
▁42	-11.3876
▁relevantie	-11.3876
dia	-11.3878
▁Daarentegen	-11.388
▁gebeurt	-11.388
▁geassocieerde	-11.388
lever	-11.3881
▁oplosbaar	-11.3884
AC	-11.3885
▁hevige	-11.3889
IP	-11.3889
TP	-11.389
▁krachtige	-11.3892
fe	-11.3892
▁inadequate	-11.3894
opnames	-11.3894
▁lesies	-11.3896
▁dynamische	-11.3897
Module	-11.3897
CP	-11.3899
▁extracellulaire	-11.39
nd	-11.3901
▁abonnee	-11.3901
▁Grote	-11.3902
▁PICO	-11.3902
ings	-11.3903
▁IHZ	-11.3905
▁degeneratie	-11.3905
▁Elke	-11.3905
▁Onthoud	-11.3906
▁outcomes	-11.3907
laatste	-11.3909
▁resp	-11.3909
▁pathofysiolog	-11.391
▁inh	-11.3915
▁wachtwoord	-11.3917
Staged	-11.3922
▁vztb	-11.3924
▁geslaagde	-11.3928
▁aanvulling	-11.3929
▁magnesium	-11.3929
▁LMWH	-11.3931
▁adjuvante	-11.3931
▁fitness	-11.3932
▁adolescenten	-11.3935
oog	-11.3939
Anti	-11.3939
Registreren	-11.3942
evensverwachting	-11.3942
▁Burst	-11.3942
▁comparison	-11.3946
▁baarmoeder	-11.3947
▁vergroting	-11.3953
▁herkennen	-11.3954
▁wijd	-11.3955
▁corpus	-11.3957
veneuze	-11.396
▁echovensters	-11.396
▁pauze	-11.3961
▁slechtere	-11.3962
▁Conclusies	-11.3964
▁verbindingen	-11.3966
ORIGIN	-11.3967
▁tintelingen	-11.3971
▁Intermediaire	-11.3971
Anesthesiologie	-11.3973
▁contractiele	-11.3974
▁diagnoses	-11.3977
▁hervat	-11.3979
▁Res	-11.398
▁vegetatieve	-11.398
▁tweetal	-11.3983
fr	-11.3984
▁matrix	-11.3987
▁aanpassingen	-11.3989
▁absoluut	-11.3992
▁actualiteit	-11.3992
▁mixed	-11.3992
afhankelijk	-11.3997
Gebruikt	-11.3999
Ntg	-11.3999
internist	-11.3999
▁pantozol	-11.4004
▁%:	-11.4004
▁tomografie	-11.4006
▁Le	-11.4008
▁Pericard	-11.401
signaal	-11.4011
▁penicilline	-11.4011
april	-11.4013
AB	-11.4015
▁72	-11.4016
Parameter	-11.4018
▁pAF	-11.402
▁aanhouden	-11.402
sc	-11.4022
▁AFS	-11.4025
FUNC	-11.4025
Familiaire	-11.4025
▁online	-11.4026
▁(2)	-11.4026
▁pravastatine	-11.4026
wond	-11.4033
▁Pte	-11.4035
Complication	-11.4038
00	-11.4038
▁Direct	-11.4041
▁tertiaire	-11.4045
▁gelaat	-11.4045
▁voort	-11.4045
(2)	-11.405
▁versterken	-11.4052
▁buis	-11.4053
au	-11.4053
▁omeprazol	-11.4053
▁SE	-11.4057
▁Net	-11.4057
▁bang	-11.406
Mobiel	-11.4063
▁voorbehoud	-11.4064
▁aantallen	-11.4065
pub	-11.4066
▁binding	-11.4067
▁Gy	-11.4068
▁gebeuren	-11.4068
rate	-11.4068
CFG	-11.4069
▁woorden	-11.407
▁vervolgd	-11.4072
▁maagklachten	-11.4074
che	-11.4077
▁Wachtwoord	-11.4081
▁Sindsdien	-11.4081
langenconflicten	-11.4082
▁Kinderen	-11.4083
▁Losartan	-11.4089
▁beroepsgroepen	-11.4089
▁beroep	-11.4091
▁behoort	-11.4093
▁regelen	-11.4095
right	-11.4096
▁Nieuw	-11.4097
▁verwijzer	-11.4098
▁gemaild	-11.41
▁kinase	-11.41
▁Locatie	-11.4101
▁dingen	-11.4103
sa	-11.4105
▁mobiel	-11.4106
▁bloedtransfusie	-11.4109
▁dynamiek	-11.411
sstoornis	-11.4112
vo	-11.4116
▁restafwijkingen	-11.4116
▁XECG	-11.4116
mail	-11.4117
▁Disease	-11.4121
▁colonoscopie	-11.4122
▁heen	-11.4122
▁vereiste	-11.4123
Soort	-11.4128
LE	-11.4129
ana	-11.4131
sectionele	-11.4132
ran	-11.4136
▁partus	-11.4136
▁Straling	-11.4142
▁Ivm	-11.4143
▁RDW	-11.4145
ata	-11.4146
▁verbeteringen	-11.4149
▁persoonlijkheid	-11.4152
▁3-	-11.4153
▁effects	-11.4156
MMF	-11.416
▁+/+	-11.416
▁variabiliteit	-11.4161
▁nmol	-11.4162
ni	-11.4163
▁0,1	-11.4164
▁aspiratie	-11.4168
▁herstellen	-11.4169
▁Conditie	-11.417
▁Mei	-11.4172
▁fysio	-11.4174
▁ontkende	-11.4178
▁Registreer	-11.4182
▁afgebouwd	-11.4182
DE	-11.4183
▁Macrogol	-11.4187
ko	-11.4187
▁gedetailleerde	-11.4191
cohort	-11.4192
huisarts	-11.4193
▁30%	-11.4194
ham	-11.4199
▁onbetaald	-11.4202
jaars	-11.4202
Complicaties	-11.4203
▁Hematokriet	-11.4208
1;	-11.4208
toevalsbevinding	-11.4209
▁OP	-11.4209
▁publicaties	-11.4211
▁immers	-11.4212
▁Werk	-11.4212
▁bijnier	-11.4216
▁SGLT	-11.4217
voorzitter	-11.4218
afdeling	-11.4218
▁bloedkweken	-11.4222
▁tandarts	-11.4228
▁zuur	-11.4229
IM	-11.4233
unctionality	-11.4236
eGuid	-11.4236
▁Myocardial	-11.4238
monitoring	-11.4239
▁(9	-11.4241
ivm	-11.4242
▁Anatomie	-11.4247
▁plassen	-11.4247
FNMKOR	-11.4247
▁echocor	-11.4248
▁1)	-11.4249
▁Bloed	-11.4249
▁Index	-11.425
kosten	-11.4251
▁vinger	-11.4255
▁arbeids	-11.4256
44	-11.4257
erebrovasculaire	-11.4261
▁doorverwezen	-11.4263
▁300	-11.4264
▁Opvallend	-11.4265
▁gemedieerd	-11.4266
▁BRCA	-11.4267
▁cephalica	-11.4268
▁LDH	-11.4269
▁coli	-11.4271
▁instrumenten	-11.4271
▁WETENSCHAP	-11.4273
▁Toegangstijd	-11.4273
▁bovenkwab	-11.4273
▁slag	-11.4273
▁zuigelingen	-11.4278
▁power	-11.4281
▁fentanyl	-11.4283
]/[	-11.4283
▁accumulatie	-11.4283
▁onderschat	-11.4286
▁Thuis	-11.4286
▁1,6	-11.4286
OAC	-11.4288
▁Clin	-11.4288
MR	-11.4289
▁doorlopen	-11.4289
▁RE	-11.429
▁RS	-11.429
▁studenten	-11.4292
▁dyspnoeklachten	-11.4294
lengte	-11.4295
Controlateral	-11.4296
▁pil	-11.4297
▁anticonceptie	-11.4297
▁Breast	-11.4299
▁noodsituatie	-11.4299
64	-11.4299
falen	-11.4302
▁adenocarcinoom	-11.4305
▁vervallen	-11.4312
▁dysplasie	-11.4313
79	-11.4315
AM	-11.4316
▁inclusie	-11.4316
beta	-11.4319
▁bronchopathie	-11.4324
▁anomalieën	-11.4332
ortaklepsclerose	-11.4333
HS	-11.4333
▁Do	-11.4336
Autorisatiedatum	-11.4338
▁ongewijzigde	-11.4346
Ticagrelor	-11.4349
▁aortastenose	-11.4351
▁intubatie	-11.4351
gram	-11.4353
▁longbeeld	-11.4353
▁onge	-11.4355
▁claudicatio	-11.4357
ck	-11.4358
abdomen	-11.4362
beeldvorming	-11.4362
▁rechtszijdige	-11.4363
▁hoeverre	-11.4363
▁adviseert	-11.4365
eur	-11.4366
▁HLA	-11.4367
Goede	-11.4371
act	-11.4371
let	-11.4371
alle	-11.4379
impl	-11.4379
▁vermoedelijke	-11.4379
▁thuiszorg	-11.4379
55	-11.438
▁va	-11.4381
verslag	-11.4381
▁#\	-11.4382
▁vanzelf	-11.4385
▁deden	-11.4387
Uitgevoerd	-11.4389
▁Geautoriseerd	-11.439
▁ontbijt	-11.439
▁Verwezen	-11.439
▁omhoog	-11.4393
Artikelnummer	-11.4393
|#.	-11.4394
▁ethische	-11.4396
▁restfunctie	-11.44
xdd	-11.44
▁werkelijke	-11.4401
▁arcus	-11.4403
▁ondervulling	-11.4407
▁Methoden	-11.4407
▁Peri	-11.4407
▁death	-11.4409
▁uitge	-11.441
▁Overigens	-11.4411
▁bloeddrukmeting	-11.4414
▁UCORBIO	-11.4416
PP	-11.4417
▁tempo	-11.4421
▁odds	-11.4422
▁ti	-11.4425
▁intracellulaire	-11.4426
▁zorgproduct	-11.4426
▁dexamethason	-11.4427
geassocieerde	-11.4427
▁geïnformeerde	-11.4428
▁terminale	-11.4429
daagse	-11.4432
▁oral	-11.4435
33	-11.4436
▁zichtbare	-11.4437
chi	-11.4437
▁dubieus	-11.4438
▁toegewezen	-11.4442
▁Voorts	-11.4446
tijdens	-11.445
▁2,0	-11.4452
▁1,2	-11.4453
▁hyperventilatie	-11.4455
blokkade	-11.4456
▁doorlopend	-11.4456
▁LPA	-11.4456
000	-11.4458
32	-11.4459
▁verwijding	-11.4459
gang	-11.4463
▁randomisatie	-11.4463
▁stelde	-11.4465
▁hydratie	-11.4466
95	-11.4467
▁placement	-11.4468
▁monitoren	-11.4469
▁JJ	-11.4469
meter	-11.4472
middelen	-11.448
▁NVK	-11.4481
▁klepbladen	-11.4482
OL	-11.4482
plaatsing	-11.4482
dienst	-11.4484
risicofactoren	-11.4485
▁pleura	-11.4488
▁volgend	-11.4491
▁regel	-11.4491
▁biv	-11.4491
▁Intacte	-11.4491
▁BBL	-11.4494
▁reversibiliteit	-11.4495
▁voldeden	-11.4495
▁Wandbewegingen	-11.4495
▁RVEF	-11.4496
pacing	-11.4496
▁overleed	-11.4496
▁reg	-11.4497
▁Nazorg	-11.4501
▁Verzoek	-11.4503
▁Therapie	-11.4504
▁cardiologen	-11.4508
Furosemide	-11.4509
▁karakter	-11.4509
▁beeldbel	-11.4512
Ge	-11.4516
▁streven	-11.4517
▁Graves	-11.4521
▁2015	-11.4524
▁zaterdag	-11.4525
dagen	-11.4526
▁AMVL	-11.4527
ung	-11.4528
▁plekken	-11.4531
53	-11.4544
▁nv	-11.4544
▁haalbaar	-11.4545
ummed	-11.4546
mann	-11.4548
▁hiv	-11.4549
▁Voorbereiding	-11.4557
▁stoel	-11.4557
▁diastole	-11.4557
66	-11.4558
▁urinary	-11.4561
88	-11.4563
▁41	-11.4565
▁Test	-11.4565
▁gemeenschap	-11.4568
▁vergelijkingen	-11.4569
▁Cardiovasculair	-11.457
kwaliteit	-11.4573
roker	-11.4573
eus	-11.4583
▁Myoview	-11.4583
▁densiteit	-11.4584
▁symptoms	-11.4587
29	-11.4589
Advies	-11.4589
▁Auto	-11.4593
▁dik	-11.4594
▁ronde	-11.4594
▁fietsproef	-11.4596
▁mo	-11.4597
▁Linkedin	-11.4601
.3	-11.4601
▁PICC	-11.4604
laat	-11.4611
▁Lage	-11.4614
ding	-11.4614
▁wissel	-11.4614
▁apical	-11.4618
last	-11.4621
ografie	-11.4623
▁VEGF	-11.4625
▁len	-11.4626
9)	-11.4626
▁gevisualiseerd	-11.4628
▁bilirubine	-11.4628
▁instabiliteit	-11.463
▁Micro	-11.463
5,	-11.4631
▁vrijwilligers	-11.4631
▁sr	-11.4633
verpleegkundige	-11.4635
▁RSS	-11.4635
▁VTE	-11.4635
▁Pathologie	-11.4635
▁2009	-11.4641
▁elleboog	-11.4642
▁restrictie	-11.4644
goed	-11.4645
FA	-11.4649
▁deelnemen	-11.4652
▁500	-11.4652
▁opgezet	-11.4655
NT	-11.4655
▁passagere	-11.4656
▁gevorderde	-11.466
TG	-11.466
▁voltages	-11.4661
leden	-11.4662
▁GP	-11.4663
▁genetica	-11.4663
mon	-11.4664
igheid	-11.4665
sproblemen	-11.4668
Spironolacton	-11.4671
▁One	-11.4671
▁RH	-11.4675
▁corticosteroïd	-11.4678
cy	-11.4682
ct	-11.4682
ans	-11.4684
▁auteur	-11.4684
epinsufficiëntie	-11.4687
NF	-11.4688
▁can	-11.4689
▁samengestelde	-11.4691
▁OCT	-11.4691
▁2007	-11.4693
coronairsclerose	-11.4693
▁hangt	-11.4695
EMAIL	-11.4695
ial	-11.47
▁Obesitas	-11.4701
▁adults	-11.4702
▁cohortstudie	-11.4703
gewricht	-11.4707
existent	-11.4709
▁fem	-11.4712
Pijn	-11.4715
59	-11.4718
▁Preventie	-11.4718
▁extracardiale	-11.4719
AD	-11.4719
▁Lokal	-11.4722
▁kweken	-11.4722
▁Onderzoeken	-11.4724
▁borstvoeding	-11.4725
▁intermitterende	-11.4726
▁Medicamenteus	-11.4726
▁werkzaamheden	-11.4727
▁hartfalenpoli	-11.473
ekverantwoording	-11.4736
Imuran	-11.4736
▁signalering	-11.4736
▁gespannen	-11.4738
▁ventrikels	-11.4741
topprogressie	-11.4742
▁getrokken	-11.4742
▁stamcel	-11.4745
▁hartoor	-11.4745
▁retard	-11.4745
coronairen	-11.4746
▁100%	-11.4746
▁GI	-11.4746
-[	-11.4748
ADRES	-11.4749
leg	-11.4751
▁antwoorden	-11.4751
▁antagonist	-11.4752
▁Pneumonie	-11.4753
lopen	-11.4754
▁RCC	-11.4758
tor	-11.4758
rij	-11.476
▁aangenomen	-11.4761
▁mediaal	-11.4762
▁(#/#	-11.4763
▁afmeting	-11.4763
▁IHD	-11.4764
▁lymph	-11.4765
▁baat	-11.4768
▁Aangemeld	-11.4769
ley	-11.4769
▁1000	-11.4771
▁gevoelige	-11.4772
▁forward	-11.4772
▁JM	-11.4775
lis	-11.4777
rivacyverklaring	-11.478
▁fusie	-11.4781
0)	-11.4782
▁aangesloten	-11.4782
▁nicotine	-11.4786
▁TE	-11.4789
▁symmetrisch	-11.479
▁geinformeerd	-11.479
▁ader	-11.4791
dra	-11.4794
▁dia	-11.4798
▁lijnen	-11.48
▁hierin	-11.4802
Leeftijd	-11.4808
▁orthostatische	-11.4809
▁THP	-11.481
▁steroïden	-11.4811
▁aortic	-11.4815
▁hydronefrose	-11.4817
Sch	-11.4817
▁escape	-11.4817
ë	-11.4819
▁adenoom	-11.4819
technieken	-11.4822
▁lipidenprofiel	-11.4824
Ongecompliceerde	-11.4826
▁His	-11.4828
▁infants	-11.4828
▁arthritis	-11.4828
▁Gastro	-11.4833
▁kritische	-11.4833
▁personeel	-11.4833
▁CYP	-11.4835
Sintrom	-11.4836
behandeld	-11.484
sta	-11.4843
▁inotropie	-11.4845
▁research	-11.4849
rijke	-11.485
▁vooruitgang	-11.4856
▁toppen	-11.4856
▁bidirectioneel	-11.4858
▁hierboven	-11.4859
▁slot	-11.4859
▁gingen	-11.486
▁2008	-11.4863
▁contactpersoon	-11.4863
▁Colecalciferol	-11.4865
omen	-11.4865
ogene	-11.4865
▁Lancet	-11.4865
▁gehandhaafd	-11.4872
▁ondersteunt	-11.4872
▁denk	-11.4873
ey	-11.4873
▁gewogen	-11.4876
PV	-11.4877
idine	-11.4878
▁verzoeken	-11.4879
▁ren	-11.4879
63	-11.4879
▁Bi	-11.4881
▁Trombo	-11.4881
▁aangevuld	-11.4881
▁GLP	-11.4883
▁echte	-11.4884
▁Interventie	-11.4885
▁blood	-11.4886
▁vancomycine	-11.4888
CC	-11.4891
99	-11.4893
▁momenten	-11.4893
▁Uitstekende	-11.4893
▁consumptie	-11.4896
▁sch	-11.4899
▁Dag	-11.4899
revaskularisatie	-11.4899
▁La	-11.49
▁uiting	-11.4902
▁behandelings	-11.4904
▁hulpmiddel	-11.4906
▁Fenprocoumon	-11.4909
▁taken	-11.4911
meta	-11.4913
ness	-11.4914
▁Afkortingen	-11.4915
.5	-11.4915
▁unit	-11.4918
▁52	-11.492
▁trachea	-11.4922
▁Pravastatine	-11.4923
▁moeizame	-11.4928
▁Mammografie	-11.4928
advies	-11.4928
▁beantwoord	-11.4929
Om	-11.4935
classificatie	-11.4936
▁sectio	-11.4939
▁Beperkte	-11.4939
▁plastiek	-11.494
):\	-11.4948
▁Aspecifieke	-11.4949
▁reumatoloog	-11.4951
▁nagegaan	-11.4952
▁FH	-11.4953
▁Dyspneu	-11.4955
2+	-11.4955
▁cyst	-11.4955
▁gaarne	-11.496
label	-11.496
Collateralen	-11.4962
▁bloedvat	-11.4963
▁hebt	-11.4964
RF	-11.4964
▁rec	-11.4966
▁spreekt	-11.4972
▁dank	-11.4973
SI	-11.4975
▁langste	-11.4976
▁longziekten	-11.4977
▁items	-11.498
▁Sporadisch	-11.498
▁hypofyse	-11.4983
curve	-11.4984
specialist	-11.4986
▁Hierop	-11.4988
▁IgM	-11.4989
CVA	-11.4995
▁jump	-11.4996
▁2014	-11.4996
▁OM	-11.4998
▁vereniging	-11.4999
▁schriftelijke	-11.4999
▁werkte	-11.5
▁waaraan	-11.5001
▁LF	-11.5004
▁recidiverend	-11.5008
▁#-#)	-11.5008
▁OAS	-11.5009
▁stekende	-11.5009
▁verwijsbrief	-11.501
baarheid	-11.5011
order	-11.5012
▁repol	-11.5014
koorts	-11.5018
▁Val	-11.5019
▁invoering	-11.5021
▁hoeveel	-11.5023
▁afgeraden	-11.5024
▁gehoorverlies	-11.5025
kan	-11.5025
▁recommendations	-11.5028
familie	-11.5029
eiwitten	-11.5033
▁vermoed	-11.5034
▁intacte	-11.5035
▁nifedipine	-11.5038
▁tacrolimus	-11.5043
▁grove	-11.5046
suppletie	-11.5046
Aangemeld	-11.5046
▁terugval	-11.5048
lar	-11.5048
▁endoscopie	-11.5048
2),	-11.5048
▁fietsergo	-11.505
polikliniek	-11.5051
▁Klik	-11.5053
▁PAT	-11.5054
only	-11.5056
staat	-11.5056
red	-11.5057
patronen	-11.5058
▁antibiotische	-11.5061
▁hartspier	-11.5061
▁minor	-11.5062
▁contracties	-11.5063
▁neoadjuvant	-11.5068
epidemiologische	-11.5069
▁IPL	-11.5069
ka	-11.507
▁praten	-11.508
▁technisch	-11.5086
▁prijs	-11.5087
hospital	-11.5088
▁variërend	-11.5089
▁indirecte	-11.509
▁hartlijden	-11.5091
Patient	-11.5091
▁Huid	-11.5099
qui	-11.51
stratificatie	-11.5103
▁voorkoming	-11.5108
▁fysiologisch	-11.511
iele	-11.511
▁Zes	-11.5112
▁eenheid	-11.5114
▁overtuigende	-11.5114
▁expliciet	-11.5118
su	-11.512
▁Volksgezondheid	-11.512
▁zwak	-11.5123
▁breuk	-11.5123
▁coarctatio	-11.5124
▁wilden	-11.5126
▁reis	-11.5129
▁Gedilateerd	-11.5134
▁Lyme	-11.5136
Overzichtspagina	-11.5136
▁verdient	-11.5137
▁oorspronkelijk	-11.5137
▁zondag	-11.5137
even	-11.5138
▁transport	-11.5138
▁BMS	-11.514
▁incompetentie	-11.5141
▁work	-11.5141
▁leeftijds	-11.5144
▁Warm	-11.5145
▁antibioticum	-11.5146
▁chi	-11.5146
▁surveillance	-11.5148
▁Interessant	-11.515
serie	-11.5151
▁gecompliceerde	-11.5151
▁drukverband	-11.5151
contrast	-11.5156
og	-11.5156
dit	-11.5156
▁gefaxt	-11.5161
▁radiofarmacon	-11.5164
site	-11.5165
▁postvak	-11.5165
▁immunohistochem	-11.5171
▁gal	-11.5171
▁beneden	-11.5175
sing	-11.5176
ieve	-11.5178
▁guiding	-11.5179
▁genoteerd	-11.5179
▁inflammatie	-11.5179
ologische	-11.5179
▁slaapt	-11.518
▁ingeschreven	-11.5181
▁Bloedchemie	-11.5182
vullingsbeeld	-11.5182
▁natieve	-11.5188
ongeveer	-11.5188
Familieanamnese	-11.5188
▁onduidelijke	-11.5191
▁Zorgverzekeraar	-11.5193
▁radiatie	-11.5194
▁blauw	-11.5194
waarschijnlijk	-11.5196
▁Syst	-11.5196
proteïne	-11.5197
ging	-11.5197
▁lisinopril	-11.5198
▁bridging	-11.5207
recht	-11.5215
▁Mi	-11.5215
ii	-11.5216
Trombo	-11.5217
▁visus	-11.5219
▁Collaps	-11.5221
ile	-11.5223
▁pT	-11.5225
▁uitstekende	-11.5225
▁blauwe	-11.5225
▁heterogene	-11.5226
raad	-11.5227
▁SAB	-11.5229
▁golf	-11.523
Ritme	-11.5232
▁nitro	-11.5233
▁adiponectine	-11.5235
glomerulaire	-11.5236
itt	-11.5236
▁verloopt	-11.5237
pl	-11.5241
complicaties	-11.5241
▁opmerkingen	-11.5241
ud	-11.5243
▁Cave	-11.5247
CS	-11.5248
▁mod	-11.5251
▁volgrespons	-11.5251
zin	-11.5252
▁inschatting	-11.5253
49	-11.5253
▁gezichts	-11.5254
▁ap	-11.5254
ins	-11.5259
▁ACM	-11.5259
▁Jaar	-11.5259
▁definiëren	-11.526
Vroeger	-11.5261
▁Time	-11.5264
47	-11.5265
▁pagina	-11.5266
▁extractie	-11.5266
▁VESsen	-11.5266
▁("	-11.5267
▁ACHD	-11.5268
▁microg	-11.5268
▁Cardiogene	-11.5269
▁rib	-11.527
|-	-11.527
enzym	-11.527
▁Symptomen	-11.527
▁Belangrijk	-11.5271
oid	-11.5271
▁Ons	-11.5271
med	-11.5273
OS	-11.5274
Contralateral	-11.5278
▁bekeken	-11.5278
▁onderbenen	-11.528
Rapa	-11.528
▁Elektrocardio	-11.5282
ser	-11.5284
ish	-11.5284
entry	-11.5285
stelling	-11.5285
▁rechterzijde	-11.5288
▁pan	-11.5288
nis	-11.5288
sduur	-11.5289
▁pad	-11.529
▁lipoproteïnen	-11.5292
▁44	-11.5292
▁DataLinq	-11.5292
▁Voorzitter	-11.5293
▁disciplines	-11.5294
▁development	-11.5294
▁SS	-11.5295
celcarcinoom	-11.5297
▁Gebruikte	-11.53
apparaat	-11.5301
▁1-	-11.5301
▁Let	-11.5301
▁hartklep	-11.5301
▁transmuraal	-11.5302
▁iso	-11.5305
▁gehanteerd	-11.5305
▁histopatholog	-11.5305
▁months	-11.5307
▁doubletten	-11.5308
▁burden	-11.5309
▁Doelgroep	-11.5314
▁ambu	-11.5316
▁ingesproken	-11.532
PT	-11.5321
▁hoogleraar	-11.5325
schema	-11.5325
▁genexpressie	-11.5326
bespreking	-11.5334
▁infectieus	-11.5334
▁morgenochtend	-11.5336
pomp	-11.5337
▁scintigrafie	-11.5338
▁verkalking	-11.5339
▁FVT	-11.5339
▁CHF	-11.5342
▁Wandbewegings	-11.5343
85	-11.5344
▁implicaties	-11.5344
▁internationaal	-11.5345
fa	-11.5345
▁dominante	-11.5346
▁2006	-11.5347
▁Rev	-11.5349
▁sen	-11.5349
▁Formulier	-11.535
▁halverwege	-11.535
▁Evenzo	-11.535
▁accepteren	-11.5351
▁menselijk	-11.5352
▁Minnesota	-11.5353
▁lanoxin	-11.5354
▁stil	-11.5356
▁SM	-11.5356
AG	-11.5357
▁wandverdikking	-11.536
ijn	-11.5361
▁tract	-11.5362
▁ha	-11.5363
rust	-11.5363
▁congenital	-11.5363
▁hemostase	-11.5364
▁Secundaire	-11.5365
▁onthulden	-11.5367
groei	-11.5368
▁longembolieen	-11.5372
onderzoeker	-11.5372
▁PVR	-11.5377
▁Prospectief	-11.5379
▁bipolaire	-11.5379
▁Vanochtend	-11.538
atieve	-11.538
▁telefonische	-11.5381
▁werkdiagnose	-11.5381
laesie	-11.5381
▁kuren	-11.5382
▁uitlezen	-11.5382
▁getroffen	-11.5383
▁tijdschrift	-11.5384
▁middenkwab	-11.5385
▁TF	-11.5388
hy	-11.5388
saturatie	-11.5392
mean	-11.5392
▁pakken	-11.5397
Bent	-11.5398
▁slow	-11.54
▁ingebracht	-11.54
cf	-11.5405
Anaesthesie	-11.5406
uele	-11.541
▁46	-11.5412
▁hechtingen	-11.5413
▁erna	-11.5414
indergeneeskunde	-11.5414
ence	-11.5416
oxi	-11.5418
nie	-11.5419
▁voorzien	-11.542
▁septische	-11.542
klinisch	-11.5421
▁radiotherapeut	-11.5432
▁culprit	-11.5432
organisatie	-11.5432
▁Org	-11.5433
resistente	-11.5435
▁opleveren	-11.5437
▁preoperatief	-11.5441
35	-11.5441
▁Syn	-11.5441
▁aangeven	-11.5442
▁impuls	-11.5446
▁Maag	-11.545
vitational	-11.5451
▁Hand	-11.5452
▁1,8	-11.5452
▁routinematige	-11.5453
▁antigeen	-11.5453
▁dergelijk	-11.5454
▁iedereen	-11.5454
▁cell	-11.5454
Aanmeldings	-11.5458
▁Kern	-11.5459
trauma	-11.546
Ver	-11.5461
▁nauwkeurig	-11.5463
6)	-11.5463
▁GH	-11.5464
Re	-11.5465
▁bekkenbodem	-11.5466
54	-11.5469
.[	-11.5471
▁CH	-11.5472
TSH	-11.5472
▁QS	-11.5473
▁beschadiging	-11.5475
vraag	-11.5476
▁afzonderlijk	-11.548
▁lichen	-11.5481
▁1,7	-11.5481
▁overgeplaatst	-11.5482
afwijking	-11.5482
▁Anders	-11.5485
▁poliepen	-11.5485
▁rolstoel	-11.5487
origineel	-11.5492
▁HV	-11.5493
▁search	-11.5494
totaal	-11.5495
▁zoektermen	-11.5495
dan	-11.5496
antitrombotische	-11.5496
▁kl	-11.5497
7)	-11.5498
▁transcriptie	-11.5504
ph	-11.5508
ari	-11.5508
ay	-11.5509
▁routinematig	-11.5509
▁regadenoson	-11.551
▁Zorgvraag	-11.551
▁gold	-11.551
▁fietst	-11.5517
▁pr	-11.5521
6,	-11.5522
bipolair	-11.5524
▁erkend	-11.5527
▁klaring	-11.5529
hoek	-11.5529
ron	-11.553
rest	-11.5531
▁Standaard	-11.5534
▁eeuw	-11.5535
▁meneer	-11.5541
▁uitgesteld	-11.5542
▁Development	-11.5542
▁tamoxifen	-11.5556
▁kamerlucht	-11.5557
organisaties	-11.556
▁zomer	-11.5564
▁buikklachten	-11.5567
systolische	-11.557
▁besteden	-11.557
ts	-11.5571
Ex	-11.5573
evensbedreigende	-11.5574
▁voorhoofd	-11.5576
▁Trop	-11.5577
▁acc	-11.5577
▁longparenchym	-11.5579
▁reparatie	-11.5582
▁daadwerkelijk	-11.5583
▁prevention	-11.5583
▁tractus	-11.5584
▁Postdilatatie	-11.5585
▁zodra	-11.5586
▁zorgverlener	-11.559
▁propranolol	-11.559
▁RPL	-11.559
▁Br	-11.5591
Plan	-11.5592
INE	-11.5594
▁controlegroepen	-11.5595
du	-11.5596
▁OMT	-11.5597
NA	-11.5598
uk	-11.5601
▁beiden	-11.5602
▁oefening	-11.5608
geleiding	-11.5608
▁verwerking	-11.5609
5%)	-11.5611
▁Onderbouwing	-11.5612
▁INSPANNINGS	-11.5613
▁keus	-11.5614
▁verwachte	-11.5614
▁Herstel	-11.5614
ano	-11.5617
gewrichten	-11.5618
▁appendicitis	-11.5618
signalering	-11.5619
▁tunnel	-11.5619
▁GGZ	-11.562
▁Tweede	-11.562
RS	-11.5621
▁reuma	-11.5621
gt	-11.5622
▁0,02	-11.5623
▁angstig	-11.5624
▁Contra	-11.5625
▁NCC	-11.5625
▁gekweekt	-11.5627
▁Systolische	-11.5627
ntistofscreening	-11.5628
▁longontsteking	-11.5629
▁Enkel	-11.5636
▁vegetatie	-11.5639
▁epicardiaal	-11.5641
▁Knie	-11.5641
▁femorale	-11.5642
▁correspondentie	-11.5642
▁hemodynamiek	-11.5642
▁permanente	-11.5649
urie	-11.5651
angio	-11.5652
kleuring	-11.5655
▁veroudering	-11.5655
▁Open	-11.5657
▁Sprint	-11.5658
Remote	-11.5659
▁jeugd	-11.5659
▁bypassoperatie	-11.566
▁Inter	-11.5661
▁quo	-11.5667
▁woord	-11.567
▁collateraal	-11.5672
▁Radiotherapie	-11.5672
▁drukkende	-11.5677
▁creme	-11.5678
▁Chronisch	-11.5678
▁Vanuit	-11.5678
▁betreffen	-11.5683
48	-11.5684
organisatorische	-11.5684
ick	-11.5685
▁Inbreng	-11.5686
▁bevordert	-11.5687
▁chemotherapy	-11.5687
▁wenst	-11.5687
▁geslapen	-11.5688
iek	-11.5689
golven	-11.5689
antilichamen	-11.5693
▁kenmerk	-11.5695
▁tekening	-11.5697
▁MSR	-11.57
LO	-11.57
▁common	-11.57
▁respondenten	-11.5702
▁verplaatst	-11.5702
▁MIBI	-11.5702
▁Minder	-11.5703
armate	-11.5703
Specialist	-11.5704
▁Haag	-11.5704
▁Gezondheids	-11.5707
▁klepvervanging	-11.5707
▁infect	-11.571
▁using	-11.5711
▁IR	-11.5711
▁(<#	-11.5713
▁knoop	-11.5714
▁associated	-11.5716
▁formuleren	-11.5717
7,	-11.5717
oud	-11.5718
▁neen	-11.5719
ost	-11.5719
our	-11.572
▁bewegings	-11.5727
Evero	-11.5731
rijk	-11.5732
tegenwoordigers	-11.5733
▁verplicht	-11.5734
▁sectie	-11.5736
rol	-11.5744
▁gouden	-11.5745
▁boodschappen	-11.5746
▁nogal	-11.5747
▁myocardperfusie	-11.5747
▁hoestklachten	-11.575
▁terechte	-11.575
▁infarctgrootte	-11.5751
▁(20	-11.5753
▁wanden	-11.5753
69	-11.5753
NC	-11.5755
▁Multi	-11.5755
▁reverse	-11.5757
▁vanmorgen	-11.5758
▁Hydro	-11.5759
▁bijdraagt	-11.5761
8)	-11.5763
▁guidelines	-11.5765
dt	-11.5765
pa	-11.5767
aneurysma	-11.5771
wa	-11.5772
▁1,0	-11.5773
▁hulpmiddelen	-11.5773
oplossing	-11.5774
▁atrioventricula	-11.5775
▁leuko	-11.5779
84	-11.5781
▁tachycardieen	-11.5781
defect	-11.5782
▁menstruatie	-11.5783
structuur	-11.5783
▁geactiveerd	-11.5783
▁le	-11.5784
▁register	-11.5788
▁aange	-11.5789
▁angiografische	-11.5791
▁KLINISCH	-11.5791
▁omhuld	-11.5791
▁korter	-11.5793
ggregatieremmers	-11.5793
▁viel	-11.5795
▁Diameter	-11.5796
▁TT	-11.5797
▁Primaire	-11.5801
▁assay	-11.5804
Alles	-11.5806
▁Aansluitend	-11.5807
aminotransferase	-11.5807
▁IVC	-11.5808
ï	-11.5808
▁dak	-11.581
▁2016	-11.581
Algemeen	-11.581
▁moeders	-11.5812
▁rapporteerde	-11.5815
▁43	-11.5816
▁ochtends	-11.582
▁MAP	-11.5821
▁zoekstrategie	-11.5821
▁plaatsvindt	-11.5822
▁diafragmata	-11.5822
▁Autogen	-11.5823
▁Japanse	-11.5823
▁ras	-11.5825
Spoed	-11.5826
dosering	-11.5826
89	-11.5826
▁ongestoord	-11.5827
▁Paroxismaal	-11.5827
▁[–].	-11.583
iet	-11.5832
BSE	-11.5832
▁therapeutic	-11.5837
BRIEF	-11.5841
▁tal	-11.5841
ach	-11.5841
▁BD	-11.5843
▁oksel	-11.5843
▁80%	-11.5845
Met	-11.5851
▁herhaaldelijk	-11.5852
▁verticale	-11.5852
▁middelbare	-11.5855
▁parese	-11.5856
Uitleg	-11.5856
▁zekere	-11.5857
▁reserve	-11.5868
▁aandeel	-11.5868
▁NR	-11.5868
▁iCMP	-11.5871
▁gene	-11.5874
▁verondersteld	-11.5874
▁Tensie	-11.5876
preventie	-11.5876
ool	-11.5879
▁resulterend	-11.588
iale	-11.5881
▁IP	-11.5881
advise	-11.5881
▁Laadtijd	-11.5882
▁nitroglycerine	-11.5882
▁onbehandelde	-11.5884
▁Me	-11.5885
▁RX	-11.5888
▁danken	-11.5889
hand	-11.589
Other	-11.5891
▁wensen	-11.5891
▁kwalitatief	-11.5897
holte	-11.5901
Creat	-11.5906
tica	-11.5908
entie	-11.591
▁moderate	-11.5911
▁afgegeven	-11.5912
▁geboden	-11.5913
▁thoraxfoto	-11.5913
▁aangeprikt	-11.5914
▁gevalideerd	-11.5914
▁grootschalig	-11.5916
▁cardioprotectie	-11.5917
les	-11.5918
▁inziens	-11.5919
voudig	-11.5921
37	-11.5923
▁jaarcontrole	-11.5923
▁40%	-11.5929
▁hepato	-11.5932
▁voorgenomen	-11.5933
cardiaal	-11.5935
▁ontstond	-11.5937
▁herpes	-11.5938
▁levende	-11.5938
▁incident	-11.5941
▁Myocardperfusie	-11.5944
otomie	-11.5945
▁polymorfe	-11.5945
▁teruggezien	-11.5946
gecontroleerde	-11.595
▁ihkv	-11.5951
ula	-11.5951
▁oppervlakkige	-11.5952
▁Samen	-11.5955
▁Insuline	-11.5956
breuk	-11.5958
▁ONDERZOEK	-11.5958
▁titel	-11.5959
▁systolic	-11.5959
bevindingen	-11.596
▁praktijken	-11.596
▁acne	-11.5961
▁PPAR	-11.5963
Overlap	-11.5964
doel	-11.5964
aggregatie	-11.5967
▁1,9	-11.5971
▁gemerkt	-11.5972
▁conference	-11.5974
▁backflow	-11.5974
▁MTX	-11.5974
▁bacterie	-11.5976
▁pediatrische	-11.5977
▁tele	-11.5977
▁Dutch	-11.5979
verzadiging	-11.5979
PVAI	-11.598
▁12-	-11.598
▁eenmalige	-11.5981
▁ra	-11.5982
▁defibrillatie	-11.5983
▁sensing	-11.5987
▁Quattro	-11.5989
▁verschilt	-11.5992
▁hoop	-11.5992
PE	-11.5994
▁correlaties	-11.5995
▁zalf	-11.5996
▁ARB	-11.5997
▁av	-11.5998
ob	-11.6001
▁Access	-11.6002
▁botstructuur	-11.6005
▁series	-11.6005
ani	-11.6005
▁urinezuur	-11.6006
cyste	-11.6011
▁posterolateraal	-11.6012
▁cryo	-11.6015
▁coll	-11.6015
ade	-11.6015
tan	-11.6017
▁aannemelijk	-11.602
▁vereisen	-11.602
DCM	-11.6026
ini	-11.6027
▁uitlokkende	-11.6029
▁policontrole	-11.6034
▁spurium	-11.6035
▁Vochtbalans	-11.6035
▁CL	-11.6037
▁gister	-11.6038
▁typen	-11.6038
▁kortere	-11.6039
▁com	-11.604
▁slaapapneu	-11.6043
9,	-11.605
▁Symptomatische	-11.6051
▁decennia	-11.6051
▁verbreding	-11.6053
▁dual	-11.6054
▁overwegend	-11.6054
▁Conservatief	-11.6057
vul	-11.6058
▁tijden	-11.606
we	-11.606
▁infection	-11.6062
▁SSRI	-11.6064
▁Ingevity	-11.6066
▁laparotomie	-11.6067
▁Juni	-11.6067
▁linkszijdige	-11.6067
▁cluster	-11.6068
▁gastritis	-11.6068
▁range	-11.6069
▁versnelde	-11.6072
5-	-11.6073
fatale	-11.6074
▁mobiele	-11.6077
zij	-11.6078
▁Eind	-11.6078
▁geïnfecteerde	-11.608
▁zwarte	-11.6081
▁0,01).	-11.6083
▁planus	-11.6084
zijn	-11.6085
hr	-11.6085
▁3,5	-11.6086
▁zittend	-11.6088
▁halen	-11.6089
▁suggereerde	-11.609
▁koud	-11.6097
▁gelijke	-11.6097
▁tijdig	-11.6097
▁Gen	-11.6097
▁diens	-11.6099
▁TVP	-11.6099
▁PO	-11.6101
▁aparte	-11.6101
steekproefomvang	-11.6101
▁Ba	-11.6103
▁PAD	-11.6104
één	-11.6105
▁bevonden	-11.6105
▁AOS	-11.6105
▁LCx	-11.6107
▁VC	-11.6108
▁bevatte	-11.6109
▁subtotaal	-11.6113
▁abd	-11.6113
actieve	-11.6114
▁Duur	-11.6114
▁Eigen	-11.6115
▁spm	-11.6116
▁iCVA	-11.6116
▁gelden	-11.6116
ning	-11.6117
▁ventrikulaire	-11.612
▁Prednison	-11.612
▁gehalte	-11.6121
Gym	-11.6122
ici	-11.6122
Overigen	-11.6124
rechter	-11.6126
▁dame	-11.6128
▁Aanvankelijk	-11.6128
▁hypothyreoidie	-11.6128
▁JT	-11.6129
▁schadelijke	-11.613
PVI	-11.6131
allel	-11.6132
▁dysfunction	-11.6133
1,2	-11.6133
▁cq	-11.6134
▁kritieke	-11.6136
▁vaardigheden	-11.6137
▁stemming	-11.6137
▁sterker	-11.6141
▁radiologische	-11.6144
VA	-11.6147
maart	-11.6147
mit	-11.6147
▁intervention	-11.6154
▁Plavix	-11.6157
▁dobu	-11.6161
reacties	-11.6163
▁kleuring	-11.6163
▁gelokaliseerd	-11.6166
▁bepalingen	-11.6167
bundeltakblok	-11.617
▁ontwikkelt	-11.6172
▁Aug	-11.6172
▁target	-11.6172
▁industrie	-11.6174
▁belemmeren	-11.6174
▁SDS	-11.6174
ATP	-11.6176
▁triglyceride	-11.618
▁Ka	-11.618
▁real	-11.618
TT	-11.6182
▁anesthesioloog	-11.6183
▁liesbreuk	-11.6183
▁correct	-11.6185
opathie	-11.6185
▁linkerarm	-11.6186
UG	-11.619
▁Afname	-11.6191
▁idem	-11.6191
afgeleide	-11.6191
▁250	-11.6192
42	-11.6193
▁rijbewijs	-11.6193
ratten	-11.6194
▁verpleeghuis	-11.6198
▁Hodgkin	-11.6199
▁longziekte	-11.6203
▁Ko	-11.6204
▁Atrium	-11.6206
▁daalt	-11.6207
▁PLCx	-11.6211
▁Ziekte	-11.6214
▁QTC	-11.6216
▁Formuler	-11.6217
scopie	-11.6217
▁reageert	-11.6222
▁levercirrose	-11.6222
▁ste	-11.6225
▁ne	-11.6226
▁diltiazem	-11.6226
▁aandachtspunten	-11.6226
▁hepatis	-11.6228
▁kunstklep	-11.6229
▁Vermoeidheid	-11.623
▁leukemie	-11.623
syncope	-11.623
erpleegafdeling	-11.6231
▁bronchus	-11.6231
▁THORAX	-11.6232
▁tie	-11.6237
▁Volume	-11.6237
goede	-11.6237
▁benaderd	-11.6238
▁adjuvant	-11.6238
▁ulcerosa	-11.6238
▁apico	-11.624
▁benaderingen	-11.6241
▁dossiers	-11.6241
▁wonden	-11.6242
▁drager	-11.6245
▁liefst	-11.625
▁circumscripte	-11.625
sprogramma	-11.6251
▁blij	-11.6252
▁gestenoseerd	-11.6253
▁betrouwbaarheid	-11.6254
mus	-11.6254
▁levensjaar	-11.6254
ized	-11.6256
▁flecaïnide	-11.6257
eld	-11.6266
nr	-11.6269
▁afmetingen	-11.6269
aties	-11.6269
▁Niettemin	-11.6269
▁differentiaal	-11.6269
▁Digoxine	-11.6273
▁kruis	-11.6278
▁crisis	-11.6279
▁gevestigde	-11.6281
▁Chirurgisch	-11.6282
▁2)	-11.6282
▁rollator	-11.6285
▁scala	-11.6285
▁stad	-11.6287
▁Ar	-11.6288
▁ES	-11.6289
▁kalkscore	-11.6289
▁intern	-11.6293
BL	-11.6293
▁menopauze	-11.6297
▁ANIOS	-11.6298
sh	-11.6299
gesloten	-11.63
▁subfasciaal	-11.6301
▁benoemd	-11.6301
▁My	-11.6302
glyc	-11.6308
▁64	-11.6309
antrum	-11.6312
▁zaak	-11.6312
▁dim	-11.6315
▁uitputting	-11.6316
▁Early	-11.6317
▁geriatrie	-11.6317
▁tailleomtrek	-11.6317
▁hemo	-11.6317
▁diagnosticeren	-11.6317
indien	-11.6318
▁Europa	-11.6319
▁ILR	-11.6319
▁Native	-11.632
▁valsartan	-11.6325
diast	-11.6326
▁akinetisch	-11.6326
beperking	-11.6328
▁suspecte	-11.633
▁Woon	-11.6332
▁littekenvorming	-11.6333
ori	-11.6334
CG	-11.6334
▁fibro	-11.6336
▁aanvr	-11.6341
▁CBR	-11.6341
▁VERWIJS	-11.6348
▁Ferritine	-11.6348
▁extreem	-11.6349
▁BE	-11.6349
▁Aortawortel	-11.6349
SP	-11.6349
dichtheid	-11.6353
▁vastgestelde	-11.6354
incl	-11.6358
▁GOLD	-11.6358
▁longvene	-11.6359
▁tetrofosmine	-11.636
rine	-11.6362
▁ct	-11.6366
▁cag	-11.6366
▁poliep	-11.6368
rineweginfecties	-11.6369
VAG	-11.6373
▁angiogram	-11.6375
afgifte	-11.6376
vet	-11.6376
qua	-11.6378
▁retro	-11.6378
▁109/	-11.6379
-8	-11.6379
▁bloedsomloop	-11.638
▁verscheen	-11.638
▁verstoring	-11.6381
▁solide	-11.6381
▁uitstralend	-11.6383
▁erytrocyten	-11.6383
Wetenschappelijk	-11.6384
▁ziektebeeld	-11.6385
▁spoedig	-11.6386
▁tanden	-11.6391
▁fibrinogeen	-11.6393
▁Indicatoren	-11.6394
praktijk	-11.6396
ec	-11.6396
▁apo	-11.6396
▁differentieel	-11.6396
▁objectieve	-11.6396
▁subendocardiale	-11.6397
Andere	-11.6398
▁beschouwen	-11.6399
▁Totaalscore	-11.6402
▁As	-11.6403
▁Persisterende	-11.6403
▁synthese	-11.6406
▁flink	-11.6408
▁duren	-11.6411
▁terrein	-11.6412
▁ventilatie	-11.6412
▁foramen	-11.6414
▁hartgrootte	-11.6414
▁interview	-11.6414
Sinusbradycardie	-11.6415
▁Bezinking	-11.6422
straject	-11.6422
▁Mijn	-11.6427
▁Gynaecologie	-11.6428
▁uitgenodigd	-11.6428
▁VOD	-11.6429
▁aritmogene	-11.643
▁%.	-11.6435
lu	-11.6435
volgt	-11.6438
tin	-11.644
▁cusp	-11.6441
basaal	-11.6441
verdeling	-11.6441
▁Krijg	-11.6444
▁postmenopauzale	-11.6445
▁screenen	-11.6445
ON	-11.6446
▁Intern	-11.6447
▁peritoneale	-11.6449
▁veilige	-11.6449
ziekenhuis	-11.6452
▁arbeid	-11.6456
▁Maart	-11.6456
▁disorder	-11.6457
▁patiëntengroep	-11.6458
▁goedkeuring	-11.6459
▁Literatuur	-11.646
▁professionele	-11.6461
(#)	-11.6461
vanaf	-11.6463
loze	-11.6464
▁Weinig	-11.6466
▁matglas	-11.6466
RO	-11.6469
▁omgaan	-11.6471
▁correleerde	-11.6471
▁informed	-11.6472
▁Neemt	-11.6473
acuut	-11.6473
▁geïnjecteerd	-11.6477
▁only	-11.6479
▁beurt	-11.6479
-2-	-11.648
▁uiterlijk	-11.648
▁specialistische	-11.6483
▁Lisinopril	-11.6484
wijzigingen	-11.6487
▁Syndroom	-11.6493
▁observeerden	-11.6493
▁bronnen	-11.6497
▁vasthouden	-11.6498
▁devices	-11.6499
▁gaande	-11.6503
▁Borderline	-11.6504
▁Lo	-11.6507
▁benadrukken	-11.6509
▁verduidelijken	-11.6509
▁integrale	-11.6509
cu	-11.6511
▁runs	-11.6515
traventriculaire	-11.6515
▁EV	-11.6516
▁mode	-11.6517
96	-11.6518
▁kritiek	-11.6518
▁hechting	-11.6519
▁Bijlage	-11.6519
interventies	-11.6521
▁vergelijkende	-11.6524
▁0,03	-11.6525
sbetreffende	-11.6525
▁bevinden	-11.6525
▁among	-11.6525
▁firma	-11.6525
▁Trombosedienst	-11.6525
▁geneticus	-11.6525
▁zoutoplossing	-11.6526
▁testosteron	-11.6527
▁Slaapt	-11.6527
ester	-11.6528
▁ruime	-11.6529
▁restrictieve	-11.6535
huid	-11.6536
▁High	-11.6537
▁systemen	-11.6538
methodiek	-11.6539
▁Recept	-11.6539
▁nadruk	-11.6542
▁LC	-11.6543
▁oproepen	-11.6543
TNF	-11.6543
BD	-11.6548
▁(19	-11.6548
mede	-11.655
▁bevolkings	-11.6551
effecten	-11.6552
coëfficiënt	-11.6552
▁drievatslijden	-11.6554
▁verlenen	-11.6554
▁Gr	-11.6557
▁Dochter	-11.6557
EP	-11.6558
▁verliep	-11.6558
opleiding	-11.6558
proepbaar	-11.6562
bl	-11.6563
▁BF	-11.6571
87	-11.6571
sonderzoek	-11.6572
▁gerechtvaardigd	-11.6574
▁laagdrempelig	-11.6574
▁intensief	-11.6574
▁Ur	-11.6574
▁sessie	-11.6574
▁grade	-11.6577
▁Ontwikkeling	-11.6578
▁rustiger	-11.6578
▁microvasculair	-11.6579
▁hartcentrum	-11.658
▁Dec	-11.658
▁schattingen	-11.658
▁Juli	-11.658
▁ODS	-11.658
▁migratie	-11.6581
yn	-11.6583
▁fixatie	-11.6583
prolaps	-11.6583
gebieden	-11.6584
▁gemetastaseerd	-11.6587
8,	-11.6587
inferior	-11.6588
▁gevaar	-11.6588
▁School	-11.659
▁ef	-11.66
int	-11.6603
▁Drugs	-11.6605
FDG	-11.6605
▁geriater	-11.6606
▁polariteit	-11.6606
▁observaties	-11.6606
▁vasodilatatie	-11.6607
▁waardes	-11.6607
5%	-11.6607
pi	-11.6609
▁warfarine	-11.6612
voudige	-11.6614
▁bezoekdatum	-11.6615
▁#+#	-11.6616
CX	-11.6616
hydro	-11.662
kl	-11.662
eclampsie	-11.6621
ande	-11.6621
▁jodium	-11.6621
▁Isosorbide	-11.6622
▁beëindigd	-11.6623
▁SO	-11.6623
▁microscopische	-11.6627
▁Longfunctie	-11.6627
▁homocysteïne	-11.6629
▁transmurale	-11.6633
▁AA	-11.6633
▁uitdaging	-11.6635
▁Terwijl	-11.6639
▁Nucleaire	-11.6641
teerd	-11.6644
▁new	-11.6647
klepvervanging	-11.6648
lig	-11.6648
ei	-11.6648
▁Fase	-11.6649
▁apotheker	-11.665
▁pathways	-11.6651
▁klepfuncties	-11.6652
▁ontdekten	-11.6653
▁digitale	-11.6656
▁inferoposterior	-11.6656
▁Sense	-11.6656
laesies	-11.6658
klinische	-11.6668
▁gepoolde	-11.6668
▁lupus	-11.6672
▁Embase	-11.6672
▁methotrexaat	-11.6675
▁Bent	-11.6676
▁Intact	-11.6677
ruptuur	-11.6681
▁vag	-11.6684
stof	-11.6684
lijkt	-11.6686
preparaten	-11.6688
▁Bureau	-11.6688
▁hypertrofe	-11.6688
herstel	-11.6689
▁plaatsvond	-11.6689
▁soa	-11.6689
vaart	-11.6689
▁focusgroep	-11.6689
▁histologisch	-11.669
▁mits	-11.669
vertegenwoordigt	-11.6691
▁wijde	-11.6692
HCM	-11.6695
▁gelegd	-11.6696
▁Factor	-11.6697
▁cytokine	-11.6698
98	-11.6698
▁VTs	-11.67
▁vatslijden	-11.67
ico	-11.6702
▁oncoloog	-11.6702
zijde	-11.6703
▁ELISA	-11.6703
▁gehanteerde	-11.6707
▁verstandig	-11.6707
▁aneurysmata	-11.6707
▁EVAR	-11.6714
▁Permanent	-11.6714
▁wor	-11.6714
EH	-11.6716
▁efficacy	-11.6716
▁farmaceutische	-11.6718
▁geraadpleegd	-11.6719
moeder	-11.6719
▁root	-11.672
▁Secure	-11.6721
Herkomst	-11.6722
▁pogingen	-11.6722
lage	-11.6722
▁wrsch	-11.6722
▁maten	-11.6724
▁thor	-11.6725
▁April	-11.6725
▁he	-11.6726
▁Ongecompliceerd	-11.6727
▁Migraine	-11.6728
▁invasief	-11.673
▁VVIR	-11.673
DNA	-11.6733
▁one	-11.6734
▁Para	-11.6735
▁vaccin	-11.6737
▁vleeskalveren	-11.6738
▁Vervolgafspraak	-11.6738
medicamenteuze	-11.6738
positief	-11.6739
rom	-11.6743
▁allergisch	-11.6745
▁gelopen	-11.6746
▁chirurgen	-11.675
▁1%	-11.6752
▁Vasculaire	-11.6752
DI	-11.6756
alfa	-11.6757
oncologische	-11.6759
72	-11.6771
▁Prednisolon	-11.6771
Geslacht	-11.6772
apicaal	-11.6773
AH	-11.6773
▁embolisatie	-11.6774
▁Fax	-11.6775
ult	-11.6776
▁cerebri	-11.6777
▁wervels	-11.6778
▁Hartteam	-11.6781
nieuw	-11.6782
bed	-11.6782
▁BM	-11.6784
▁severe	-11.6784
▁refractaire	-11.6786
▁Mamma	-11.6787
▁bijgeruisen	-11.6788
▁maaltijd	-11.6788
▁locaties	-11.6793
▁Enalapril	-11.6794
▁steunkousen	-11.6796
▁US	-11.6798
▁ontstane	-11.6804
▁lymeziekte	-11.6804
▁endogene	-11.6805
▁Pa	-11.6806
remming	-11.6806
▁pch	-11.6806
▁scopie	-11.6807
▁produceren	-11.6808
sproces	-11.6808
▁remt	-11.6808
▁voorbijgaande	-11.681
consumptie	-11.681
▁30-	-11.6816
▁Skelet	-11.6821
allergie	-11.6821
▁trigger	-11.6823
uterusextirpatie	-11.6823
disfunctie	-11.6824
▁dorsale	-11.6825
▁coronary	-11.6828
▁par	-11.6829
▁memo	-11.683
perioperatieve	-11.6832
vader	-11.6834
wortel	-11.6836
gaan	-11.6837
▁Weet	-11.6838
Cathkamer	-11.6839
▁wezen	-11.6841
▁47	-11.6842
diagnostisch	-11.6846
▁plaveiselcel	-11.6849
▁IABP	-11.685
▁Ingreep	-11.6856
▁more	-11.6858
▁berekende	-11.6858
▁Continue	-11.6866
▁ZorgDomein	-11.6871
▁SL	-11.6876
iso	-11.6879
tes	-11.6879
▁attenuatie	-11.6881
gesprek	-11.6882
▁wijziging	-11.6885
▁formule	-11.6886
mononitraat	-11.6888
▁holte	-11.6888
▁harttonen	-11.689
▁without	-11.6893
▁Data	-11.6894
▁hoek	-11.6894
▁Maakt	-11.6896
▁organische	-11.6897
▁ingevoerd	-11.6899
▁90%	-11.6902
aten	-11.6902
▁patinte	-11.6903
▁financiering	-11.6904
▁asdoorsneden	-11.6905
▁afgrensbaar	-11.6905
▁ongemoeid	-11.6905
▁ovale	-11.6905
SKMS	-11.6907
▁MT	-11.6909
▁Albumine	-11.6909
▁ileus	-11.691
▁DBC	-11.6911
▁functionerende	-11.6919
vaten	-11.6919
▁furo	-11.6922
▁hersenbloeding	-11.6923
verschil	-11.6923
▁WJ	-11.6925
▁prasugrel	-11.6926
▁2003	-11.6926
RI	-11.6927
▁consulent	-11.6931
▁screenings	-11.6935
▁2005	-11.6935
ina	-11.6938
▁paroxymaal	-11.6938
▁subjectieve	-11.6939
▁verergeren	-11.694
▁onderbuik	-11.694
▁un	-11.6941
▁ovv	-11.6941
Hartfalen	-11.6942
rt	-11.6942
▁willekeurige	-11.6943
▁schouderbladen	-11.6944
▁drukmeting	-11.6944
▁internet	-11.6945
ïne	-11.6947
▁Anemie	-11.6947
▁Duizeligheid	-11.6947
▁besmetting	-11.6951
▁tegenover	-11.6951
verstorende	-11.6952
▁WL	-11.6954
▁previous	-11.6955
▁galstenen	-11.6955
overleg	-11.6957
dobutamine	-11.6959
▁linkerzijde	-11.6959
▁variëren	-11.696
TE	-11.6961
77	-11.6963
gerelateerd	-11.6967
▁opmerking	-11.6968
▁osteo	-11.697
▁trombocytopenie	-11.6972
▁medium	-11.6973
▁ingelicht	-11.6974
Rookt	-11.6976
▁Mocht	-11.6977
gi	-11.6978
▁corticale	-11.6979
▁Metingen	-11.698
▁brengt	-11.6981
eth	-11.6983
▁insult	-11.6985
iden	-11.6985
▁wassen	-11.6987
▁pregnancy	-11.6989
▁palpabele	-11.6991
▁systole	-11.6991
▁longkanker	-11.6991
#\	-11.6991
▁focaal	-11.6991
▁Wegen	-11.6994
Lead	-11.6995
ated	-11.6997
▁PLN	-11.7001
und	-11.7001
▁UK	-11.7002
mrt	-11.7002
ath	-11.7002
▁Bijvoorbeeld	-11.7006
▁tegelijkertijd	-11.7006
▁vroeggeboorte	-11.7006
▁54	-11.7009
▁vis	-11.7011
▁Voorlichting	-11.7012
contact	-11.7013
GA	-11.7015
BS	-11.702
▁gemandateerd	-11.7023
▁induceert	-11.7023
capaciteit	-11.7023
▁én	-11.7024
aanvallen	-11.7026
houdende	-11.7027
▁Primair	-11.7027
▁herkenning	-11.7029
▁geldig	-11.703
tomie	-11.7031
▁Child	-11.7033
▁Toevoeg	-11.7036
▁CG	-11.7038
▁Cathkamer	-11.7038
▁Bar	-11.7039
▁Shock	-11.704
▁Gestart	-11.7041
Hoofd	-11.7044
▁VK	-11.7048
▁Ho	-11.7052
▁Relatie	-11.7052
rechteronderkwab	-11.7057
metoprolol	-11.7058
▁NAFLD	-11.7059
▁tevredenheid	-11.7067
▁HER	-11.7067
nticoagulation	-11.7069
▁melk	-11.7071
rie	-11.7072
▁onderzoekafd	-11.7074
▁Framingham	-11.7079
methoden	-11.7084
▁frontaal	-11.7085
py	-11.7086
▁aangetaste	-11.7087
▁Koorts	-11.7091
▁zorgt	-11.7092
▁depressies	-11.7095
methyl	-11.7098
Opmerkingen	-11.7099
▁95	-11.7101
▁maximum	-11.7103
▁alsof	-11.7106
▁IAP	-11.7108
▁inspiratie	-11.7108
▁Afhankelijk	-11.7109
▁toedienen	-11.7109
▁Perclose	-11.7109
▁onmogelijk	-11.7109
▁beats	-11.7109
▁verbeterden	-11.7111
▁eet	-11.7111
▁zorgvraag	-11.7112
Verwijs	-11.7114
▁nauwkeurige	-11.7117
spanning	-11.7119
6-	-11.7119
module	-11.7119
LAVI	-11.712
▁senior	-11.7121
▁bindweefsel	-11.7126
▁endometrium	-11.7126
heidsintervallen	-11.713
▁schisis	-11.7131
▁Feb	-11.7132
58	-11.7134
▁economische	-11.7134
▁Specialistisch	-11.7135
▁moesten	-11.7135
fen	-11.7139
▁RJ	-11.7141
▁angiogenese	-11.7142
spieren	-11.7143
▁verworven	-11.7143
▁cardiopulmonale	-11.7144
▁partieel	-11.7144
▁San	-11.7147
▁artefacten	-11.7149
▁moeilijker	-11.7156
des	-11.7156
▁toilet	-11.7158
▁vaatchirurg	-11.7158
▁opgewekt	-11.716
▁meteen	-11.7161
synthese	-11.7165
▁Multipele	-11.7166
vasculaire	-11.7166
▁interleukine	-11.7166
Nazorg	-11.7167
temperatuur	-11.7168
▁behoeve	-11.7169
▁wekelijks	-11.7171
▁Punctie	-11.7173
laterale	-11.7175
▁fragmin	-11.7177
▁Meneer	-11.7178
▁tolerantie	-11.7183
-1)	-11.7184
stap	-11.7184
▁voorvallen	-11.7187
▁dubbelblinde	-11.7187
▁gew	-11.7188
myo	-11.7188
ue	-11.719
▁hevig	-11.7191
▁NL	-11.7191
▁CONCOR	-11.7195
▁verlaagt	-11.7195
gedifferentieerd	-11.7199
▁2004	-11.7199
▁hield	-11.7199
log	-11.7202
Beeld	-11.7202
geïnfecteerde	-11.7202
▁coil	-11.7203
▁Stopdatum	-11.7205
▁Ang	-11.7207
▁beroertes	-11.721
▁Gecompliceerd	-11.7211
▁Apicaal	-11.7212
▁weerspiegelt	-11.7212
AI	-11.7212
▁precordiaal	-11.7212
▁cases	-11.7213
▁oefeningen	-11.7214
▁individu	-11.7214
▁beoordelingen	-11.7214
▁Spanje	-11.7215
▁uitgewerkt	-11.7216
▁ling	-11.7216
▁angioplastiek	-11.7219
thy	-11.7226
gevoelige	-11.7228
▁mortality	-11.7229
▁scoliose	-11.7229
▁geconcludeerd	-11.723
▁geïncludeerde	-11.723
MP	-11.723
KCL	-11.7231
▁56	-11.7231
▁herbeoordeling	-11.7232
▁suspect	-11.7234
▁overeenkomend	-11.7238
▁25%	-11.7238
▁posterieure	-11.7242
▁extr	-11.7245
▁catheterisatie	-11.7246
▁foetus	-11.7246
▁Psychiatrie	-11.7247
▁hyperthyreoïdie	-11.7247
ORAAL	-11.7247
kinase	-11.7247
set	-11.725
tol	-11.7251
sinusritme	-11.7254
▁vind	-11.7255
▁Zoek	-11.7256
▁sigmoid	-11.7256
<0,05	-11.726
▁exon	-11.7261
eh	-11.7263
review	-11.7263
▁malaria	-11.7264
▁General	-11.7264
▁compared	-11.7265
▁sporen	-11.7268
▁irregulaire	-11.7269
,8%)	-11.727
▁2017	-11.7271
GE	-11.7274
▁ulcera	-11.7274
angiogram	-11.7276
Randvoorwaarden	-11.7282
▁buitenland	-11.7282
cept	-11.7283
▁ZN	-11.7283
EM	-11.7286
▁baso	-11.729
Huisarts	-11.729
▁dalend	-11.7292
▁Huis	-11.7294
▁poplitea	-11.7295
▁Zelf	-11.7295
▁OF	-11.7297
els	-11.7298
▁Dilatatie	-11.7299
▁meisjes	-11.7299
▁macrovasculaire	-11.7299
eerden	-11.73
▁myocyten	-11.73
▁RC	-11.7306
▁Den	-11.7307
▁bundeltakblok	-11.7307
▁bestudeerde	-11.7311
▁representatief	-11.7312
▁specialismen	-11.7312
▁beoordeelde	-11.7314
▁https	-11.7318
▁borstkas	-11.7319
▁amyloidose	-11.732
▁Consultatie	-11.7322
▁brain	-11.7325
▁achterwand	-11.7325
▁49	-11.7325
samenvatting	-11.7325
▁Maandag	-11.7325
▁volksgezondheid	-11.7326
▁omgekeerde	-11.7327
tine	-11.7327
▁leg	-11.7329
all	-11.7329
▁tussentijds	-11.7329
dig	-11.7329
▁Psoriasis	-11.7332
beweging	-11.7332
rin	-11.7334
▁pdf	-11.7334
▁Academisch	-11.7334
▁twaalf	-11.7335
▁autopsie	-11.7337
▁psychiatrie	-11.7339
fo	-11.734
▁GBS	-11.7341
▁400	-11.7342
occlusie	-11.7342
▁huidafwijkingen	-11.7344
▁gda	-11.7348
▁Rx	-11.7351
▁traag	-11.7352
▁doorverwijzing	-11.7354
▁driemaal	-11.7356
▁gestratificeerd	-11.7358
wat	-11.7358
)."	-11.7362
hoofd	-11.7364
▁wachttijd	-11.7366
stoonissen	-11.7369
▁verscheidenheid	-11.7369
▁Broer	-11.7369
▁gerust	-11.737
uitkomsten	-11.7371
▁etnische	-11.7373
scriteria	-11.7374
▁klier	-11.7376
tachy	-11.7378
▁verw	-11.7378
reconstructie	-11.7379
▁(15	-11.738
mn	-11.7381
▁sPAP	-11.7381
▁0,2	-11.7382
▁berusten	-11.7383
▁1).	-11.7384
▁Evera	-11.7387
▁Linkeratrium	-11.7387
gecorrigeerde	-11.7387
▁heupprothese	-11.7388
can	-11.739
▁Artikel	-11.739
▁spiercellen	-11.7391
▁zat	-11.7393
▁85	-11.7396
▁werkwijze	-11.7397
▁urticaria	-11.7398
ratie	-11.7399
▁documentatie	-11.7399
ulaire	-11.7401
Chol	-11.7401
AA	-11.7404
▁hemisfeer	-11.7405
metastasen	-11.7405
▁covid	-11.7405
ubdiagnose	-11.7408
▁Vermoedelijk	-11.7409
Sinustachycardie	-11.7411
draad	-11.7413
leven	-11.7413
ris	-11.7414
,3%)	-11.7418
DVT	-11.7419
▁TA	-11.742
▁2,3	-11.7421
▁irreversibele	-11.7426
▁short	-11.7429
▁vroegtijdig	-11.743
dys	-11.7432
▁cT	-11.7432
▁overmatig	-11.7435
▁NI	-11.7435
▁protocollen	-11.7436
▁beoordeelden	-11.7436
▁em	-11.7437
▁nuttige	-11.7438
▁valve	-11.7438
significante	-11.744
▁gekwantificeerd	-11.744
▁parasternaal	-11.744
▁AUC	-11.7445
▁consulten	-11.7447
linker	-11.7447
ente	-11.7448
▁afloop	-11.7449
daling	-11.7455
eigen	-11.7456
vasculair	-11.7456
▁Onvoldoende	-11.7456
▁HEART	-11.7457
▁doxycycline	-11.7458
pel	-11.7459
▁verkorting	-11.7461
sinus	-11.7463
▁bundel	-11.7466
▁panel	-11.7467
▁retinale	-11.7468
▁tachyaritmie	-11.7468
▁0,04	-11.7468
▁voordoen	-11.7469
▁massale	-11.7471
▁WBS	-11.7471
Ontslagbrief	-11.7473
▁adrenaline	-11.7473
sgelden	-11.7474
▁gelezen	-11.7475
▁daarentegen	-11.7476
▁merendeel	-11.7476
▁dilated	-11.7476
▁gedachten	-11.7476
▁neusspray	-11.7476
NEW	-11.7481
procedures	-11.7483
▁wonen	-11.7484
▁Eenmalig	-11.7484
▁unieke	-11.7485
nic	-11.7487
▁LR	-11.7487
▁externa	-11.7488
▁placenta	-11.7489
▁optimalisatie	-11.749
▁groeps	-11.749
▁bouwen	-11.749
▁ventraal	-11.7491
▁(?)	-11.7493
▁Amplitude	-11.7494
▁Bekken	-11.7494
ki	-11.7494
▁baden	-11.7495
medisch	-11.7497
▁afbraak	-11.7502
▁ribben	-11.7505
▁domein	-11.7508
▁geopend	-11.7511
▁uitvoerbaarheid	-11.7512
▁belangstelling	-11.7514
▁Gew	-11.7515
▁persisteren	-11.7517
NE	-11.7518
1).	-11.752
▁gedragstherapie	-11.752
producten	-11.7523
col	-11.7523
▁erosieve	-11.7524
TS	-11.7525
▁enorme	-11.7525
▁markt	-11.7526
▁tr	-11.7527
bestrijding	-11.7527
▁1,4	-11.7528
Ao	-11.7529
▁Laboratoria	-11.7529
Reference	-11.7529
▁toegekend	-11.7529
74	-11.7529
▁atrial	-11.7533
▁(3)	-11.7538
auto	-11.7538
▁AOV	-11.7539
deeltjes	-11.754
▁dacht	-11.754
▁53	-11.7542
▁fluorescentie	-11.7546
intestinaal	-11.7547
▁suicide	-11.7547
▁linkerboezem	-11.7548
▁Mean	-11.7549
▁geactiveerde	-11.7551
tar	-11.7553
WI	-11.7559
▁voorkeuren	-11.756
piek	-11.7561
▁traumatisch	-11.7561
▁bedrijfsarts	-11.7564
▁Onderliggend	-11.7564
▁Kanker	-11.7566
▁Hartkloppingen	-11.7569
▁leer	-11.7569
▁Internist	-11.7573
▁dyspnoisch	-11.7574
▁daarin	-11.7575
maat	-11.7575
Ucorbio	-11.7577
▁si	-11.7578
▁palp	-11.7579
▁NaCl	-11.7582
▁gebeurd	-11.7586
▁verergerd	-11.7589
7%	-11.759
EL	-11.7591
▁1,3	-11.7592
▁Ra	-11.7594
AMI	-11.7595
▁protein	-11.7596
▁Atenolol	-11.7596
▁afhankelijkheid	-11.7596
gevoel	-11.7599
BA	-11.76
▁sequentie	-11.7601
▁halveren	-11.7602
▁Mevrouw	-11.7602
oo	-11.7603
94	-11.7604
▁Elk	-11.7606
▁Oxazepam	-11.7607
▁mammogram	-11.7608
▁perioden	-11.7609
gewogen	-11.7613
car	-11.7614
ight	-11.7614
interventiegroep	-11.7615
▁Presentatie	-11.7619
▁geboortegewicht	-11.762
▁Su	-11.762
▁Nationale	-11.762
▁ervoer	-11.7621
ecg	-11.7621
▁afge	-11.7622
kans	-11.7627
project	-11.7632
voedingsmiddelen	-11.7632
vel	-11.7634
▁For	-11.7635
▁AKI	-11.7637
▁nauwe	-11.7641
uc	-11.7642
▁generator	-11.7643
smiddelen	-11.7644
stam	-11.7645
rd	-11.7646
▁domeinen	-11.7648
▁(+	-11.7649
stadium	-11.7649
▁Mogelijke	-11.7649
▁verwijst	-11.7649
▁aangedane	-11.7651
▁Kinder	-11.7655
▁NICE	-11.7655
▁MCP	-11.7655
▁intermittens	-11.7655
▁rechteratrium	-11.7655
ond	-11.7656
05	-11.7658
▁Graad	-11.7658
▁70%	-11.7658
minder	-11.766
▁optische	-11.7661
▁seks	-11.7662
plasma	-11.7667
gekomen	-11.7668
elt	-11.7668
▁meldingen	-11.7669
▁gek	-11.767
▁Verricht	-11.767
▁level	-11.7671
▁gradaties	-11.7674
▁Longziekten	-11.7674
trof	-11.7675
Trombocytena	-11.7675
▁MMB	-11.7678
▁experiment	-11.7678
▁infectieziekten	-11.7679
▁konijnen	-11.768
har	-11.768
▁mol	-11.7681
▁ni	-11.7682
uitslag	-11.7683
▁LVP	-11.7684
▁nefrologie	-11.7684
▁wandbeweging	-11.7687
▁opge	-11.7689
ell	-11.7691
▁belde	-11.7691
▁wrijven	-11.7692
▁beschouwing	-11.7692
▁devicetechnicus	-11.7692
RNA	-11.7694
▁Hierme	-11.7695
▁Lower	-11.7696
kanalen	-11.7697
▁misbruik	-11.7698
▁verslechterde	-11.7702
▁cellulitis	-11.7702
▁Distale	-11.7703
VE	-11.7704
▁spasmen	-11.7704
lus	-11.7704
▁Bespreken	-11.7704
assay	-11.7708
▁gefixeerd	-11.771
▁opvraagbaar	-11.771
▁weerspiegelen	-11.771
▁ostiale	-11.7711
▁chromosoom	-11.7713
▁Dagbehandeling	-11.7717
▁lip	-11.7718
▁(#-#):	-11.7719
▁random	-11.772
ura	-11.772
▁kritisch	-11.7721
62	-11.7722
ulsbreedte	-11.7727
▁treft	-11.7728
▁Arterieel	-11.7728
46	-11.7731
▁omschreven	-11.7733
significant	-11.7735
▁tepel	-11.7737
▁kwaadaardige	-11.7737
verklaring	-11.7737
▁slagaders	-11.7746
▁Marfan	-11.7747
▁prednisolon	-11.7749
rende	-11.775
ps	-11.775
▁bewaard	-11.7751
▁iFR	-11.7754
▁thema	-11.7758
▁mechanoprothese	-11.7759
▁2,2	-11.776
▁treated	-11.776
▁conc	-11.7761
ogen	-11.7761
▁REGADENOSON	-11.7765
▁Vit	-11.7765
▁IDM	-11.7765
▁Zonder	-11.7768
ogram	-11.7768
inclusiecriteria	-11.7769
biopt	-11.7769
▁LWI	-11.7769
▁familiale	-11.777
)|	-11.7771
▁Ergo	-11.7773
#-#,	-11.7774
▁OLVG	-11.7774
▁voorbij	-11.7774
maximaal	-11.7779
▁ingrijpen	-11.7781
▁stabiliteit	-11.7782
▁incontinence	-11.7783
▁Bicuspide	-11.7783
▁recurrent	-11.7783
▁Kamer	-11.7784
nemann	-11.7785
mogelijkheden	-11.7787
▁kauwt	-11.7789
▁multiforme	-11.779
san	-11.779
▁hoogst	-11.7795
▁Sieswerda	-11.7795
▁step	-11.7799
▁LBBB	-11.7799
▁Tendril	-11.7802
▁Kaukasische	-11.7802
▁CTS	-11.7803
stabiel	-11.7807
▁Dimensies	-11.781
▁Reed	-11.781
ust	-11.781
▁nefro	-11.7811
▁geïncubeerd	-11.7811
▁surgical	-11.7812
spectrum	-11.7816
basis	-11.782
▁laadtijd	-11.782
▁beheersen	-11.7821
blad	-11.7821
▁cut	-11.7823
sbeoordeling	-11.7824
vis	-11.7824
▁Ht	-11.7825
-12	-11.7825
▁recentelijk	-11.7826
TAVI	-11.7827
▁counseling	-11.7829
▁gebonden	-11.7834
▁total	-11.7835
amp	-11.7835
derivaten	-11.7836
spoed	-11.7837
▁Irregulaire	-11.7838
▁Proximaal	-11.7838
▁accuratesse	-11.7839
puls	-11.7839
▁Denkt	-11.784
▁tympanie	-11.7843
darm	-11.7843
▁dubbelblind	-11.7847
▁lower	-11.7847
▁warmte	-11.7848
▁opgeslagen	-11.7848
▁getriggerd	-11.7849
▁Sintrom	-11.785
SC	-11.7851
lectrische	-11.7852
voorrang	-11.7855
▁ontwatering	-11.7857
▁thuissituatie	-11.7858
▁voorzieningen	-11.7861
▁ro	-11.7864
97	-11.7868
▁Corona	-11.7868
morfologie	-11.7868
▁Reanimatie	-11.7871
▁knieën	-11.7871
lij	-11.7872
LN	-11.7872
enteritis	-11.7873
▁2002	-11.7873
begrip	-11.7874
modificatie	-11.7874
▁probe	-11.7874
rit	-11.7874
▁GA	-11.7874
▁Calciumcarb	-11.7876
▁ergometrische	-11.7876
▁Zit	-11.7878
▁ie	-11.7878
▁radicale	-11.7882
bal	-11.7882
verhoging	-11.7885
▁baarmoederhals	-11.7887
▁groeifactor	-11.7887
▁tuin	-11.7887
▁DPP	-11.7888
▁(12	-11.789
zet	-11.7891
▁zussen	-11.7892
SpO	-11.7893
▁IgA	-11.7893
mic	-11.7893
▁99	-11.7893
▁Wervelkolom	-11.7894
▁Obstetrie	-11.7894
▁afweging	-11.7895
▁Systemische	-11.7896
▁RQ	-11.7898
▁stijgen	-11.7899
▁Afwijkingen	-11.79
▁thoraxbeeld	-11.7901
bekend	-11.7904
▁vezels	-11.7908
▁glaucoom	-11.7908
▁HJ	-11.791
verbetering	-11.7911
▁DOCUMENT	-11.7913
▁Reageren	-11.7913
▁verdween	-11.7913
▁morfologische	-11.7914
▁Behandel	-11.7916
mes	-11.7917
▁hepatische	-11.792
▁Diast	-11.7922
iss	-11.7927
▁design	-11.7929
ansi	-11.793
vasc	-11.7931
▁Duplex	-11.7931
▁noemen	-11.7932
kers	-11.7935
0,0	-11.7936
Vast	-11.7936
▁Plasma	-11.7937
▁einddiastolisch	-11.7938
▁geprikt	-11.7939
range	-11.794
▁apolipoproteïne	-11.794
vi	-11.7941
▁Second	-11.7942
▁sv	-11.7946
ita	-11.7947
▁vh	-11.7947
Cardiomyopathie	-11.7949
▁Douchen	-11.795
▁Onlangs	-11.795
▁gezwollen	-11.795
▁thoracalis	-11.795
▁(%):	-11.795
▁secretie	-11.7951
▁gestoord	-11.7952
behandelde	-11.7952
▁wacht	-11.7953
gerichte	-11.7959
mat	-11.796
▁than	-11.7962
▁stopt	-11.7963
▁aldus	-11.7963
▁NET	-11.7964
▁occlusies	-11.7964
▁herkend	-11.7965
pulmonale	-11.7967
preparaat	-11.7968
▁DelenLinkedin	-11.7969
▁wwsp	-11.7969
British	-11.7969
▁safety	-11.7969
▁crisissituatie	-11.7969
▁capillaire	-11.797
ria	-11.797
▁sinusitis	-11.797
▁10-	-11.7971
▁manieren	-11.7971
nieuwe	-11.7975
flu	-11.7979
▁ultrasound	-11.798
km	-11.7982
vervangende	-11.7982
elen	-11.7987
▁Besloten	-11.7987
▁verzocht	-11.7988
sequentie	-11.7988
▁onmiddellijke	-11.7988
▁triple	-11.7991
cul	-11.7992
▁Mc	-11.7993
extractie	-11.7995
mMol	-11.7996
▁MAZE	-11.7996
▁Gemiddelde	-11.7998
▁presenteerden	-11.7998
vv	-11.7999
▁gebruikelijk	-11.8004
41	-11.8006
▁phase	-11.8006
▁asynchronie	-11.8007
cardiografie	-11.8008
▁Raynaud	-11.8011
▁patronen	-11.8013
76	-11.8014
▁HMC	-11.8014
▁mediastinaal	-11.8015
▁2,1	-11.8016
▁georganiseerd	-11.8018
werking	-11.8018
endotheelfunctie	-11.8019
cip	-11.8022
▁Technisch	-11.8022
▁EM	-11.8024
▁LL	-11.8024
▁bv	-11.8024
▁abortus	-11.8024
Perifeer	-11.8025
▁Vannacht	-11.8026
▁restrictief	-11.8027
▁VKA	-11.8027
▁doelwit	-11.803
▁epidurale	-11.8032
artrose	-11.8033
▁subsidie	-11.8033
▁Ab	-11.8034
▁doelstellingen	-11.8036
lum	-11.8037
▁dier	-11.8043
are	-11.8043
Informe	-11.8047
▁analyseerden	-11.8048
▁verlichting	-11.8055
oorlichtingstijd	-11.8055
▁bacteriëmie	-11.8056
stel	-11.8058
iz	-11.8059
▁acid	-11.8062
▁benodigd	-11.8063
Discharge	-11.8063
cave	-11.8064
heids	-11.8067
–1	-11.8068
kel	-11.807
▁gere	-11.8072
86	-11.8076
lei	-11.8076
▁onderdrukken	-11.8078
▁draden	-11.8078
▁bijgevoegd	-11.8079
▁manifeste	-11.808
▁sedert	-11.8081
▁struma	-11.8081
▁pericardwrijven	-11.8081
▁beschermen	-11.8086
▁prestatie	-11.8087
▁Hals	-11.8087
organismen	-11.8087
▁hulpverleners	-11.8088
|<	-11.8092
▁middelste	-11.8093
,7%)	-11.8096
▁well	-11.8098
▁overgezet	-11.8099
controlled	-11.81
▁anderzijds	-11.81
▁mbv	-11.8102
▁medewerkers	-11.8104
▁barri	-11.8104
▁fit	-11.8109
▁vw	-11.8109
reparatie	-11.8111
ere	-11.8111
▁triplet	-11.8112
▁ECMO	-11.8114
▁geestelijke	-11.8115
▁werknemers	-11.8116
▁Cardiology	-11.812
gest	-11.8121
aden	-11.8122
keten	-11.8125
▁survival	-11.8129
0,5	-11.813
Fix	-11.8132
73	-11.8133
AN	-11.8133
▁Ischemische	-11.8136
▁TBC	-11.8136
▁nefrectomie	-11.8136
strategieën	-11.8136
▁blanke	-11.8137
buis	-11.8138
▁cholecystitis	-11.8138
▁Eventueel	-11.8138
▁verschijnen	-11.8139
93	-11.8139
▁keelpijn	-11.8139
aanvrager	-11.814
1,0	-11.8144
▁AJ	-11.8148
▁vertebralis	-11.8149
▁wervel	-11.8149
▁Global	-11.8149
▁ac	-11.8151
▁Ki	-11.8152
▁trastuzumab	-11.8157
▁Elders	-11.8157
▁gedocumenteerde	-11.8158
▁luxerend	-11.8159
▁verwekker	-11.816
▁halsslagader	-11.816
▁Revalidatie	-11.8162
▁RPA	-11.8164
▁59	-11.8164
▁Epidemiologie	-11.8165
▁-#.#	-11.8166
▁PACs	-11.8168
▁vrienden	-11.817
▁Turkije	-11.817
▁ar	-11.8171
▁academische	-11.8171
▁Multidisciplina	-11.8172
▁fosfaat	-11.8173
iel	-11.8175
▁tafel	-11.8176
Opmerking	-11.8176
▁Brugada	-11.8176
▁kennen	-11.8177
colecalc	-11.8177
▁langzame	-11.8178
▁bijdragend	-11.8179
▁wsl	-11.8182
▁hemi	-11.8188
▁2001	-11.8189
▁stem	-11.8189
▁streefwaarde	-11.819
▁wit	-11.8191
▁check	-11.8192
▁klierweefsel	-11.8196
▁slikken	-11.8196
▁abstract	-11.8197
collaps	-11.8198
ius	-11.8199
▁steen	-11.8201
▁dagbehandeling	-11.8204
▁(#-#%)	-11.8205
▁stenosegraad	-11.8205
specifiek	-11.8207
▁outflow	-11.8211
▁51	-11.8211
rose	-11.8214
▁gonartrose	-11.8215
▁Hypokinesie	-11.8215
▁set	-11.8219
▁gebroken	-11.8219
▁du	-11.822
▁hematologische	-11.8221
▁sep	-11.8223
▁68	-11.8223
▁An	-11.8223
pr	-11.8224
▁combi	-11.8225
detectie	-11.8226
▁gezins	-11.8228
▁Extern	-11.8229
point	-11.8231
▁Hun	-11.8231
▁stamcellen	-11.8231
▁At	-11.8232
▁rat	-11.8232
igen	-11.8233
mailadres	-11.8235
don	-11.8236
▁rapportage	-11.8236
VAS	-11.8238
ële	-11.8241
▁LS	-11.8241
▁0,8	-11.8248
▁Ch	-11.8251
▁besprak	-11.8251
knopingspunten	-11.8253
▁geïntroduceerd	-11.8253
▁crestor	-11.8253
▁MSCT	-11.8257
▁)#	-11.8258
▁Chamuleau	-11.826
▁Case	-11.8261
register	-11.8261
▁epitheel	-11.8261
▁Bo	-11.8262
▁collapsen	-11.8264
mediaan	-11.8265
ami	-11.8266
▁adviseerde	-11.8267
▁74	-11.8269
▁oplopend	-11.8269
▁hypokaliemie	-11.8272
▁HE	-11.8273
▁MET	-11.8275
Chronische	-11.8278
zak	-11.8282
▁EPC	-11.8283
IA	-11.8283
reeds	-11.8283
fosfaat	-11.8288
▁zwangeren	-11.8289
▁system	-11.8289
vermogen	-11.829
▁Pulsaties	-11.8292
▁Canada	-11.8292
▁Saturatie	-11.8292
▁cyto	-11.8292
luchthoudendheid	-11.8292
nacht	-11.8294
endocarditis	-11.8295
compaction	-11.8296
▁Echtgenote	-11.8296
▁Amsterdam	-11.8297
hartaandoeningen	-11.8299
▁Da	-11.83
▁families	-11.8302
▁VD	-11.8304
▁westerse	-11.8304
▁58	-11.8305
▁opvang	-11.8308
▁so	-11.831
▁kwantificeren	-11.8311
▁roepen	-11.8311
▁cystische	-11.8314
▁Nov	-11.8314
Patint	-11.8315
Gezien	-11.8315
▁baan	-11.8316
▁report	-11.8318
▁gastric	-11.8318
▁betaald	-11.8318
▁toetsing	-11.832
itie	-11.832
▁journal	-11.8323
83	-11.8323
cyt	-11.8323
▁PDA	-11.8325
▁Ni	-11.8328
▁Oktober	-11.833
▁ribfracturen	-11.8331
▁periprocedureel	-11.8331
▁sys	-11.8331
▁Pulmonale	-11.8331
▁ged	-11.8334
chol	-11.8334
Indien	-11.8335
▁onjuist	-11.8337
▁tracing	-11.8338
iën	-11.8339
▁geruisen	-11.834
▁programmering	-11.8343
▁VE	-11.8348
terminale	-11.8348
▁gevalideerde	-11.8348
▁medication	-11.835
odds	-11.8353
Aspirine	-11.8354
coronaire	-11.8362
▁samenhang	-11.8362
risicomanagement	-11.8366
▁VCS	-11.8368
▁Laborant	-11.8369
product	-11.8372
Stralingsdosis	-11.8374
catheter	-11.8374
▁have	-11.8377
▁electrocardio	-11.8383
▁hoogrisico	-11.8385
vergelijkend	-11.8389
▁nitrospray	-11.8389
▁urologie	-11.8389
▁LMD	-11.8392
bu	-11.8393
▁Chi	-11.8394
genotype	-11.8395
▁bestudeerden	-11.8395
▁blokker	-11.8395
antigeen	-11.8396
ich	-11.84
2,5	-11.8402
▁afleiding	-11.8403
▁duplex	-11.8403
▁explantatie	-11.8404
PO	-11.8405
▁delay	-11.8407
▁Foundation	-11.8408
▁GEGEVENS	-11.8408
▁Negatief	-11.8408
ind	-11.8409
▁complexiteit	-11.841
61	-11.8411
3).	-11.8412
▁identificeerden	-11.8415
ondersteuning	-11.8416
▁consistentie	-11.8417
coronair	-11.8418
oon	-11.8418
▁hemolyse	-11.8418
▁stoma	-11.8418
▁PCSK	-11.8419
▁huidig	-11.842
▁System	-11.8421
chirurgische	-11.8423
existente	-11.8425
▁vooruit	-11.8427
▁afgestemd	-11.8428
iseren	-11.843
zn	-11.843
gl	-11.8431
▁Model	-11.8432
▁Psycho	-11.8432
▁opgelopen	-11.8437
▁suggereerden	-11.8437
uri	-11.8441
▁normo	-11.8441
▁frequenties	-11.8441
▁blijvende	-11.8442
▁testis	-11.8442
▁Fietst	-11.8443
▁uitbreiden	-11.8443
draden	-11.8444
▁SF	-11.8445
▁Snel	-11.8445
▁Erg	-11.8445
bestaande	-11.8446
▁3,0	-11.8447
▁pus	-11.845
▁jongens	-11.8451
ort	-11.8452
▁CSF	-11.8453
▁cultuur	-11.8454
▁MH	-11.8455
▁verstoorde	-11.8455
▁nor	-11.8456
▁voorspelling	-11.8458
▁Aanwezige	-11.8459
▁cirkel	-11.8459
▁Fietsen	-11.8459
▁LP	-11.846
amide	-11.846
▁bijnieren	-11.8461
▁vijfde	-11.8462
vallen	-11.8465
0,00	-11.8466
hoge	-11.8467
Cholecystectomie	-11.8467
▁oxazepam	-11.8467
▁timing	-11.8467
ice	-11.8467
▁combineren	-11.8467
▁ttv	-11.8467
▁postprandiale	-11.8467
▁ohm	-11.8467
▁bijhouden	-11.8469
▁following	-11.8469
▁CCN	-11.847
▁Inspanningstest	-11.8472
▁intermitterend	-11.8473
▁stukken	-11.8474
▁longcarcinoom	-11.8474
neuro	-11.8479
▁Magnesium	-11.848
ll	-11.848
▁dreigende	-11.8481
▁gede	-11.8482
tiab	-11.8483
▁leeg	-11.8483
▁oproep	-11.8484
Figure	-11.8485
ntihypertensieve	-11.8487
▁allerlei	-11.8487
▁Carelink	-11.8487
▁intrapulmonale	-11.8488
▁bedragen	-11.8491
jun	-11.8493
▁uitgezet	-11.8493
▁fouten	-11.8494
▁Endocrinologie	-11.8494
stop	-11.8494
vaccinatie	-11.8499
▁HU	-11.8502
▁gemotiveerd	-11.8507
▁ibuprofen	-11.8507
msec	-11.8509
▁regime	-11.8512
▁Holteronderzoek	-11.8519
▁CEA	-11.8519
▁reumatische	-11.8519
Cor	-11.8521
▁RM	-11.8521
IMT	-11.8521
las	-11.8525
oïd	-11.8525
500	-11.8526
ement	-11.8526
▁bijeenkomst	-11.8526
ati	-11.8526
▁diazepam	-11.8526
▁axillaire	-11.8526
▁strength	-11.8527
rechterbovenkwab	-11.8527
▁Diagnostische	-11.853
▁SH	-11.8533
▁vaatziekte	-11.8534
▁Resolute	-11.8535
▁dopamine	-11.8536
RCT	-11.8537
▁elementen	-11.8537
Al	-11.8539
▁Belemmering	-11.8541
▁priori	-11.8541
▁kwetsbaarheid	-11.8543
oli	-11.8543
▁apart	-11.8544
▁anderszins	-11.8546
▁precieze	-11.8546
▁glazen	-11.8546
spoedpatient	-11.8546
▁ongemak	-11.8546
▁toegankelijk	-11.8547
▁scherpe	-11.8547
komt	-11.8547
▁maligniteiten	-11.8548
▁milieu	-11.855
kort	-11.8562
que	-11.8563
formulier	-11.8566
▁bloedafname	-11.8567
ray	-11.8567
▁Longembolie	-11.8568
sluiting	-11.8572
component	-11.8572
▁neer	-11.8578
str	-11.8579
▁ontdekking	-11.8579
▁feedback	-11.8583
▁cordarone	-11.8586
▁geëxtraheerd	-11.8586
▁ileum	-11.8586
▁voelbaar	-11.8586
▁kinderleeftijd	-11.8587
▁profylactisch	-11.8587
▁verlaten	-11.8587
ual	-11.859
▁duodenum	-11.8591
▁vagale	-11.8592
▁vergeten	-11.8593
▁hetzij	-11.8595
▁manifestatie	-11.8596
▁PP	-11.8597
metrie	-11.8597
▁viraal	-11.8597
<0,001)	-11.8601
▁constant	-11.8601
▁opladen	-11.8602
▁>#%.	-11.8604
▁AK	-11.8605
▁gestimuleerd	-11.8606
▁2018	-11.8606
▁gele	-11.8607
▁hypoperfusie	-11.8607
ble	-11.8607
▁two	-11.8609
91	-11.8609
▁ESC	-11.8611
▁Lasix	-11.8613
Drukverband	-11.8614
▁contrastmiddel	-11.8614
▁imp	-11.8614
▁dyskinesie	-11.8616
▁trekt	-11.862
morgen	-11.862
▁link	-11.8621
diafragmakoepels	-11.8626
enfederatie	-11.8626
▁gecirculeerd	-11.8626
▁gerekruteerd	-11.8626
▁gezamenlijk	-11.8627
▁rechterkant	-11.8629
▁remmers	-11.8629
▁Mitraclip	-11.863
▁kernen	-11.8631
▁dalteparine	-11.8631
▁leiding	-11.8631
▁nebivolol	-11.8632
antistoffen	-11.8634
▁kast	-11.8637
ova	-11.8637
▁experts	-11.8638
▁myopathie	-11.8638
▁SRS	-11.8639
ping	-11.864
NP	-11.8642
▁mgr	-11.8643
▁remodeling	-11.8646
▁tracking	-11.8646
▁aspecifiek	-11.8647
▁NE	-11.8647
CoA	-11.8648
▁polymorfisme	-11.8649
▁toegestuurd	-11.865
▁predict	-11.865
▁Britse	-11.8651
▁3)	-11.8651
▁Trial	-11.8652
gemeten	-11.8653
voet	-11.8653
ank	-11.8653
dissectie	-11.8654
▁nen	-11.8659
metastatische	-11.8661
adrenerge	-11.8664
▁WBC	-11.8665
▁JF	-11.8666
▁Vztb	-11.8666
▁Transthoracaal	-11.8666
▁meegescand	-11.8666
▁parallel	-11.8673
drukken	-11.8674
▁PMID	-11.8676
▁intravasculaire	-11.8678
ante	-11.8678
recept	-11.8679
▁eerstv	-11.868
▁doppler	-11.868
sal	-11.8682
▁agressieve	-11.8682
▁ramipril	-11.8683
▁makkelijk	-11.8684
▁thrombo	-11.8684
RE	-11.8686
▁verteld	-11.8686
51	-11.8687
▁afgeleide	-11.8688
▁serologie	-11.8689
▁Poly	-11.8689
bouw	-11.8689
rokers	-11.869
▁stijgende	-11.8693
▁Waarden	-11.8693
▁input	-11.8694
▁nm	-11.8694
▁ao	-11.8694
HD	-11.8694
▁red	-11.8695
TAPSE	-11.8695
▁IGF	-11.8695
▁administratie	-11.8695
▁overlap	-11.8697
zer	-11.87
umarinederivaten	-11.87
▁Geslaagde	-11.8701
Scar	-11.8704
fect	-11.8704
▁Nycturie	-11.8706
▁imponeert	-11.8706
▁Voorafgaand	-11.8707
av	-11.8708
▁Streef	-11.8711
kin	-11.8712
aritmische	-11.8714
▁periodes	-11.8715
▁fabrikant	-11.8715
neu	-11.8715
▁PLR	-11.8715
▁diagonale	-11.8717
▁TS	-11.8719
▁recorder	-11.8721
arterie	-11.8722
pha	-11.8723
▁lobectomie	-11.8724
▁opbouw	-11.8726
▁lidocaïne	-11.8726
▁ferritine	-11.8727
=#%	-11.8727
▁SaO	-11.8727
▁verplaatsen	-11.8728
▁hilair	-11.8728
▁reproduceerbaar	-11.8731
svermogen	-11.8733
▁rechternier	-11.8734
▁opioïden	-11.8736
▁suiker	-11.8738
▁VSM	-11.8738
▁FMD	-11.8739
thuis	-11.8741
eling	-11.8741
▁irreversibel	-11.8742
grote	-11.8745
▁TGF	-11.8746
▁geobserveerd	-11.8746
▁Fallot	-11.8746
HC	-11.8748
▁renine	-11.8749
▁tube	-11.8749
▁venous	-11.875
▁57	-11.8751
▁gespecialiseerd	-11.8752
▁vers	-11.8753
plicht	-11.8753
▁metronidazol	-11.8754
Follow	-11.8756
anterior	-11.8757
zicht	-11.8758
▁BS	-11.8758
▁teveel	-11.8758
▁(#-#%	-11.8762
▁AML	-11.8763
▁RD	-11.8763
▁vel	-11.8766
▁Adrenaline	-11.8767
▁hoofdingang	-11.8767
foto	-11.8767
▁wondgenezing	-11.8767
▁bloedarmoede	-11.8767
▁inkomen	-11.8768
▁haalbaarheid	-11.877
▁kop	-11.8772
▁abdominaal	-11.8773
▁this	-11.8773
aw	-11.8774
▁merkte	-11.8775
cijfers	-11.8778
▁home	-11.878
6%)	-11.8782
peri	-11.8784
dine	-11.8784
logen	-11.8785
▁veiligheids	-11.8786
▁doorgenomen	-11.8786
▁commerciële	-11.8787
▁suboptimaal	-11.8787
▁app	-11.8787
▁TH	-11.879
▁septal	-11.879
lingen	-11.879
port	-11.879
▁Ned	-11.879
▁Calcificatie	-11.8792
▁verkeerde	-11.8793
binding	-11.8795
assen	-11.8796
▁Kon	-11.8797
▁familiair	-11.88
zien	-11.8803
▁geleidelijke	-11.8804
buik	-11.8804
▁somber	-11.8806
▁Vpk	-11.8807
▁Lactaat	-11.8807
▁literature	-11.8807
▁CNS	-11.8809
▁HP	-11.881
▁Elektro	-11.8812
▁Afib	-11.8813
ted	-11.8814
▁hoogstand	-11.8814
▁invasie	-11.8814
▁interesse	-11.8814
▁onderdrukt	-11.8815
▁vlot	-11.8816
▁raden	-11.8816
12-	-11.8816
Zo	-11.882
▁Ext	-11.882
▁maternale	-11.882
5).	-11.8822
▁Tav	-11.8823
trombo	-11.8826
▁afwachting	-11.8828
▁geïnterpreteerd	-11.8828
▁proteinurie	-11.8828
▁niks	-11.8828
sresultaten	-11.8828
#%.	-11.8829
▁bespreekt	-11.8829
▁Vrouw	-11.8831
▁diclofenac	-11.8832
▁>#:	-11.8833
▁kramp	-11.8833
rapport	-11.8838
staan	-11.884
zwelling	-11.8842
doorgaans	-11.8844
vene	-11.8847
▁#,#-#,#	-11.8847
▁weliswaar	-11.8849
▁cohorten	-11.8849
▁ezetimibe	-11.8853
▁Deelnemers	-11.8855
▁Samenvattend	-11.8855
▁JE	-11.8859
ves	-11.8859
diastolische	-11.8864
09	-11.8865
freq	-11.8865
▁Mg	-11.8865
▁hartklachten	-11.8867
▁FO	-11.8868
▁HCV	-11.8868
Revascularisatie	-11.8868
▁gehalveerd	-11.8868
ING	-11.8868
▁0,3	-11.8869
1/2	-11.887
▁bestonden	-11.8873
kweek	-11.8874
▁moleculen	-11.8875
▁inbrengen	-11.8876
▁opgetrokken	-11.8879
▁Arm	-11.8879
▁onwel	-11.888
anamnestisch	-11.888
oxide	-11.888
Stoppen	-11.8882
cal	-11.8882
▁moderne	-11.8882
▁bedrijven	-11.8884
▁trouw	-11.8887
▁2,4	-11.8888
▁bloedingsrisico	-11.889
NI	-11.8891
▁afvoer	-11.8891
annulusdilatatie	-11.8895
▁(30	-11.8898
rtf	-11.8902
▁natief	-11.8903
NV	-11.8904
iseerd	-11.8906
volgens	-11.8907
OM	-11.8907
▁mal	-11.8909
▁bescheiden	-11.8909
▁Sego	-11.891
▁Distaal	-11.891
▁geraakt	-11.891
▁praktijkvoering	-11.891
▁cognitief	-11.8911
▁voltooid	-11.8912
▁distributie	-11.8912
▁geb	-11.8913
sion	-11.8914
OHO	-11.8915
▁corrigeren	-11.8918
▁UIT	-11.8919
aritmie	-11.892
▁infliximab	-11.8921
dipyridamol	-11.8921
▁ana	-11.8922
▁Cardiac	-11.8922
▁proeven	-11.8922
Naam	-11.8923
MV	-11.8924
▁Scherp	-11.8925
QC	-11.8926
comma	-11.8927
▁femoral	-11.8928
▁ATPx	-11.8929
▁Halsvaten	-11.893
ochtend	-11.893
▁cardiovascular	-11.8931
▁schouders	-11.8933
▁Hili	-11.8934
vooral	-11.8935
▁activeren	-11.8938
▁Par	-11.8939
rood	-11.894
vulling	-11.894
blanco	-11.8943
▁Aneurysma	-11.8945
▁afhankelijke	-11.8945
ME	-11.8946
rdinator	-11.895
▁oesophagus	-11.8951
▁coronarius	-11.8951
▁loss	-11.8951
▁kilometer	-11.8951
▁prostaatkanker	-11.8951
▁ongeval	-11.8951
▁betablokkade	-11.8952
▁kost	-11.8952
▁methodiek	-11.8953
oppervlakte	-11.8953
▁cortisol	-11.8955
▁Percentage	-11.8955
roken	-11.8961
deff	-11.8965
▁uro	-11.8969
▁partners	-11.897
▁spannings	-11.8971
▁Postoperatieve	-11.8972
perforatie	-11.8974
▁dotter	-11.8975
▁LWK	-11.8975
▁aangedaan	-11.898
▁tachyaritmien	-11.898
▁Landelijke	-11.8982
verlaging	-11.8985
▁diagnosen	-11.8987
▁video	-11.8989
▁mannelijk	-11.899
▁graciel	-11.8991
▁liezen	-11.8992
▁bacteriemie	-11.8992
▁60%	-11.8993
stra	-11.8994
▁vakgebied	-11.8995
tandaarddeviatie	-11.8995
▁Geneesmiddelen	-11.8996
▁praktisch	-11.8998
▁78	-11.8999
▁passage	-11.9002
dikte	-11.9002
▁overbelasting	-11.9004
Zuid	-11.9005
▁geslachts	-11.9007
71	-11.901
▁AE	-11.901
MC	-11.901
▁interessant	-11.9011
MD	-11.9012
tub	-11.9012
▁selectief	-11.9012
fonttbl	-11.9013
▁uitdrukkelijk	-11.9013
▁who	-11.9015
▁ondersteunende	-11.9015
▁ERCP	-11.9016
ijk	-11.9019
▁som	-11.902
▁Linkerventrikel	-11.902
▁Ct	-11.9021
▁hieraan	-11.9021
▁zwemmen	-11.9023
▁2).	-11.9023
▁(25	-11.9023
peptide	-11.9025
praktijken	-11.9025
▁irr	-11.9026
lan	-11.9027
▁y	-11.9028
▁ontbrekende	-11.903
▁ACI	-11.903
my	-11.9031
▁GATED	-11.9034
▁Western	-11.9034
▁leukocytose	-11.9034
▁raken	-11.9035
iti	-11.9036
▁indirect	-11.9036
▁Xthorax	-11.9037
▁Positieve	-11.9037
▁polymerase	-11.9039
clo	-11.904
▁merk	-11.9041
▁gemakkelijker	-11.9043
geleide	-11.9045
bloedingen	-11.9045
▁sa	-11.9046
▁AMS	-11.9051
▁cre	-11.9052
▁detail	-11.9052
▁Ne	-11.9054
▁epigastrio	-11.9054
▁verdwijnt	-11.9054
Retourreden	-11.9054
▁meermaals	-11.9054
▁incidenteel	-11.9055
▁inconclusief	-11.9057
▁OFF	-11.9057
LAA	-11.9059
▁Kenmerken	-11.9059
-18	-11.9059
Vrijwel	-11.9059
ctomie	-11.9063
▁gevoelens	-11.9063
ali	-11.9065
size	-11.9067
▁acidose	-11.9068
▁ATR	-11.9068
movicolon	-11.9069
era	-11.907
▁hematoloog	-11.9071
03	-11.9073
GEN	-11.9073
▁Novo	-11.9073
▁#/#/#	-11.9073
CRT	-11.9074
eind	-11.9075
▁CORONAIREN	-11.9075
▁belemmerd	-11.9075
▁Bicarbonaat	-11.9075
▁Minimaal	-11.9075
▁generieke	-11.9075
▁nul	-11.9077
ru	-11.9081
bv	-11.9084
intercollegiaal	-11.9086
ruimte	-11.9089
variabiliteit	-11.909
hazard	-11.909
▁eNOS	-11.9091
rank	-11.9091
▁62	-11.9095
Orthopedisch	-11.9096
▁Urologie	-11.9096
▁TP	-11.9097
ulatie	-11.9098
▁wijn	-11.91
-#),	-11.9102
▁prenatale	-11.9103
▁Last	-11.9104
▁2,6	-11.9104
▁gevoerd	-11.9105
▁incidentele	-11.9105
▁cervix	-11.9105
▁India	-11.9105
▁navraag	-11.9107
SO	-11.9107
▁heftige	-11.9107
▁participatie	-11.9109
tatie	-11.911
oa	-11.9113
variabelen	-11.9113
▁majeure	-11.9117
▁remote	-11.9117
▁transpireren	-11.9117
2+-	-11.9117
▁Pump	-11.9119
gebreksanemie	-11.912
▁inwoners	-11.912
▁oed	-11.9121
Aziatische	-11.9124
▁aangebracht	-11.9125
situatie	-11.9126
▁inbreng	-11.9127
▁bovenbeen	-11.9127
▁neven	-11.9128
link	-11.9128
▁weging	-11.9129
▁volumina	-11.913
▁toegevoegde	-11.913
dieet	-11.9133
▁huiduitslag	-11.9134
▁Aoi	-11.9135
Ch	-11.9136
▁Endocarditis	-11.9138
▁junctioneel	-11.9138
▁GJ	-11.9139
▁macula	-11.914
▁cardiologisch	-11.9141
3;	-11.9143
▁vak	-11.9144
▁pathway	-11.9147
▁Ox	-11.9147
▁bewuste	-11.9149
▁voicemail	-11.9152
nes	-11.9154
▁overlegd	-11.9156
▁reflex	-11.9157
▁CRPS	-11.9157
▁beoordelend	-11.9158
▁vervelend	-11.9159
▁recompensatie	-11.916
▁sclerotische	-11.9161
▁EA	-11.9161
▁TD	-11.9163
IF	-11.9164
▁beslissingen	-11.9165
late	-11.9165
▁Bovenstaande	-11.9165
▁deelnemer	-11.9167
▁begrensd	-11.9168
▁mini	-11.9168
▁fosforylering	-11.9169
▁strikte	-11.9169
▁vasoconstrictie	-11.9173
shunt	-11.9174
▁hyperplasie	-11.9175
negatief	-11.9175
▁dislocatie	-11.9176
▁So	-11.9177
▁biventriculair	-11.9178
▁tno	-11.9178
▁Effectiviteit	-11.918
shock	-11.9181
▁artefact	-11.9182
populaties	-11.9182
▁tumorcellen	-11.9192
ero	-11.9192
▁lopende	-11.9193
▁Echocor	-11.9194
▁Endo	-11.9194
▁Science	-11.9194
▁Frequente	-11.9196
mod	-11.9196
NIBP	-11.9197
▁vergoeding	-11.9197
▁stelden	-11.9198
▁Arch	-11.9198
tabellen	-11.9199
▁dragerschap	-11.92
eerste	-11.92
▁Spec	-11.9201
snr	-11.9202
▁inventariseerde	-11.9202
Kleplijden	-11.9203
▁bilateraal	-11.9203
▁Schouder	-11.9203
▁levensduur	-11.9204
oord	-11.9204
▁FL	-11.9209
▁classification	-11.9213
▁organisme	-11.9215
▁dun	-11.922
▁Ezetimib	-11.9226
adem	-11.9229
▁regels	-11.923
▁keten	-11.9234
hoc	-11.9234
▁Entresto	-11.9234
MCG	-11.9235
Diabetische	-11.9235
▁toenam	-11.9237
fellow	-11.9239
secretariaat	-11.924
><	-11.924
acute	-11.924
▁(11	-11.9242
▁EPD	-11.9243
ECV	-11.9243
▁preterm	-11.9244
▁veelvuldig	-11.9244
▁obductie	-11.9244
▁afgebroken	-11.9244
▁vaginaal	-11.9245
toon	-11.9249
▁diensten	-11.925
▁Lu	-11.9251
▁isoprenaline	-11.9251
TIA	-11.9253
▁Osteoporose	-11.9253
aanval	-11.9254
▁su	-11.9255
voeding	-11.9256
-15	-11.9256
▁voorbereid	-11.9258
▁Antibiotica	-11.926
▁leptine	-11.9263
▁landelijk	-11.9264
Calcification	-11.9265
▁emotioneel	-11.9265
▁inguinalis	-11.9265
▁wandverdunning	-11.9265
hartfalen	-11.9267
apr	-11.9269
stoestand	-11.9269
▁Sa	-11.927
▁0,4	-11.9272
1),	-11.9274
stan	-11.9276
▁MTP	-11.928
vaccin	-11.928
▁gewichts	-11.9281
werken	-11.9281
Behandelaar	-11.9283
▁equivalent	-11.9286
▁univariate	-11.9286
▁osteomyelitis	-11.9286
▁(>#%	-11.9288
▁Gemiddeld	-11.9289
LBTB	-11.9291
▁NVOG	-11.9292
▁ger	-11.9292
▁IA	-11.9296
▁Lies	-11.9297
▁meetbaar	-11.9297
hoofdstamstenose	-11.9298
▁handicap	-11.9298
▁Valsartan	-11.9299
neuroloog	-11.9307
▁sessies	-11.9308
▁Adjuvant	-11.9308
▁Strategie	-11.9308
▁Switch	-11.9308
▁enerzijds	-11.9308
▁Cardiovascular	-11.9308
▁inzetten	-11.9312
▁congres	-11.9312
▁augmentin	-11.9314
NHG	-11.9318
Pa	-11.9319
hypo	-11.9319
▁bare	-11.9322
▁redactie	-11.9323
rr	-11.9323
tussen	-11.9323
▁veelbelovende	-11.9324
mortaliteit	-11.9326
▁bevordering	-11.9329
▁VESSEN	-11.933
spatroon	-11.9332
▁fibrotische	-11.9332
▁Plaatsing	-11.9332
ect	-11.9335
▁very	-11.9338
▁geld	-11.934
▁Volgt	-11.9341
▁omzetten	-11.9341
▁vensters	-11.9341
▁PDS	-11.9344
pool	-11.9349
tig	-11.9349
▁kwartiel	-11.935
gekarakteriseerd	-11.9351
▁Aangepast	-11.9351
▁longveneflow	-11.9351
▁scheur	-11.9351
▁gewezen	-11.9352
▁tegenwoordig	-11.9352
▁Akinesie	-11.9354
▁IBS	-11.9356
Meier	-11.9356
▁linkernier	-11.9359
▁Veranderingen	-11.936
veel	-11.9361
CTA	-11.9362
AE	-11.9363
▁inge	-11.9365
▁IFN	-11.9365
▁buikwand	-11.9366
▁absorptie	-11.9367
▁DBP	-11.9369
afleidingen	-11.937
▁ingestelde	-11.9372
▁verwachtingen	-11.9372
▁Intensive	-11.9372
▁zwangerschappen	-11.9372
▁Tijdschrift	-11.9373
▁BMD	-11.9373
CF	-11.9375
ax	-11.9375
▁begrijpt	-11.9375
stellen	-11.9378
▁sig	-11.9379
Th	-11.938
▁small	-11.938
variatie	-11.9382
▁behaald	-11.9383
▁Commentaar	-11.9384
▁2,8	-11.9384
geografische	-11.9385
ischemiedetectie	-11.9386
▁compartimenten	-11.9389
▁fibrine	-11.939
▁coagulatie	-11.9391
Centrale	-11.9391
respectievelijk	-11.9392
hal	-11.9392
Gepland	-11.9393
▁liquor	-11.9394
▁medicine	-11.9394
▁allopurinol	-11.9394
-100	-11.9396
▁snellere	-11.9397
▁watt	-11.9397
ink	-11.94
▁Staphylococcus	-11.94
▁foci	-11.9403
▁PRO	-11.9404
OX	-11.9404
▁Afro	-11.9404
spir	-11.9405
▁Terug	-11.9407
alpha	-11.9408
▁Frankrijk	-11.9408
▁Code	-11.941
▁PCM	-11.941
mate	-11.9411
▁characteristics	-11.9413
▁Medicijn	-11.9413
gy	-11.9413
▁sclerotisch	-11.9413
▁afplatting	-11.9415
▁patholoog	-11.9415
▁Kaplan	-11.9416
▁Folder	-11.9416
▁kauwtablet	-11.9417
oni	-11.9417
▁Ben	-11.9417
▁15%	-11.9417
▁variaties	-11.9418
▁0,6	-11.9418
Reanimatie	-11.9418
▁cardioversies	-11.9419
▁overheid	-11.942
▁rij	-11.9423
▁Policontrole	-11.9425
trekking	-11.9426
▁WMA	-11.9427
▁pneumoniae	-11.9429
▁Neutrofiele	-11.9429
▁vezel	-11.9433
▁keuring	-11.9433
care	-11.9434
0,	-11.9434
CoV	-11.9434
▁hooggradig	-11.9435
▁uniforme	-11.9436
▁Fragmin	-11.9437
▁trimester	-11.9437
▁dysfagie	-11.9437
▁daartoe	-11.9439
epi	-11.9441
▁vriendelijk	-11.9442
▁versneld	-11.9443
▁bloeddrukken	-11.9444
▁metabolieten	-11.945
toename	-11.9453
tegraal	-11.9454
▁opsturen	-11.9455
▁Spoed	-11.9456
cardiotoxiciteit	-11.9456
▁gemodificeerde	-11.9456
▁autism	-11.9457
versmalling	-11.9458
▁uitgescheiden	-11.9459
▁rechtstreeks	-11.9459
▁speciaal	-11.9459
▁thuismeting	-11.9459
serum	-11.946
instellingen	-11.946
▁76	-11.9461
ral	-11.9464
tiek	-11.9464
▁Deelname	-11.9467
▁VV	-11.9468
▁gelegenheid	-11.9469
▁Carvedilol	-11.947
9%)	-11.947
▁verbeterend	-11.9473
triglyceridemie	-11.9474
beide	-11.9475
voorlichting	-11.9479
▁Ont	-11.948
▁vermeden	-11.948
▁stikstofoxide	-11.948
▁glas	-11.9485
▁hartoperatie	-11.9486
▁area	-11.9486
hu	-11.9487
▁algoritme	-11.949
▁Italië	-11.9492
ella	-11.9494
▁schimmel	-11.9494
▁identificeerde	-11.9495
▁LG	-11.9496
MT	-11.9496
▁Eet	-11.9496
EG	-11.9496
sinstituut	-11.9498
▁afsluiting	-11.9499
▁funktie	-11.95
▁historie	-11.9501
▁IgE	-11.9506
▁soortgelijke	-11.9507
▁allel	-11.9509
▁ALG	-11.9509
marker	-11.9513
▁bovenarm	-11.9513
▁bloedsuiker	-11.9513
▁Orde	-11.9514
▁kleppenteam	-11.9515
eri	-11.9515
NVT	-11.9518
dicatiestelling	-11.9518
sverschijnselen	-11.9519
▁lumbaal	-11.952
▁UA	-11.9521
▁interrogatie	-11.9521
▁geluid	-11.9521
▁Bijna	-11.9522
follow	-11.9523
use	-11.9524
▁Recommendations	-11.9524
▁suboptimale	-11.9524
trabecularisatie	-11.9524
▁diermodellen	-11.9524
▁kilo	-11.9525
▁Intake	-11.9525
▁terminaal	-11.9526
▁boezemflutter	-11.9527
▁Reg	-11.9527
▁groeiende	-11.9534
▁vals	-11.9536
▁entero	-11.9536
▁Eosinofiele	-11.9538
monitor	-11.9541
▁PLCX	-11.9541
▁dgn	-11.9542
OT	-11.9542
▁PCOS	-11.9543
[...]
